{"<unk>":0,"a":1,"b":2,"c":3,"d":4,"e":5,"f":6,"e</w>":7,"d</w>":8,"b</w>":9,"c</w>":10,"f</w>":11,"a</w>":12,"bb":13,"ee":14,"bc":15,"be":16,"cc":17,"bd":18,"ce":19,"bf":20,"de":21,"bee":22,"bbe":23,"cd":24,"fe":25,"dd":26,"cbb":27,"bce":28,"cee":29,"bbbb":30,"cf":31,"cbe":32,"cbc":33,"cce":34,"bde":35,"bbd":36,"fd":37,"bed":38,"eee":39,"cbd":40,"cde":41,"bfe":42,"bcd":43,"bebb":44,"ba":45,"fbb":46,"ced":47,"ff":48,"bdd":49,"eed":50,"beee":51,"cbf":52,"bebe":53,"bcbb":54,"ccd":55,"cbbe":56,"cbee":57,"bef":58,"cfe":59,"bbee":60,"bbf":61,"bebc":62,"ded":63,"bcee":64,"ae":65,"bcf":66,"bbbe":67,"cdd":68,"cebb":69,"ccee":70,"bbed":71,"bfd":72,"cef":73,"bbbc":74,"ceee":75,"cbce":76,"ccf":77,"ca":78,"bbbd":79,"bebd":80,"cebc":81,"fee":82,"fed":83,"ddd":84,"bcbc":85,"cbed":86,"beed":87,"cbbd":88,"cccc":89,"bdee":90,"becc":91,"fbc":92,"bece":93,"bbce":94,"cdee":95,"ceed":96,"bced":97,"cbde":98,"bdf":99,"bdbb":100,"cfd":101,"ad":102,"cced":103,"def":104,"bcbe":105,"bbcc":106,"cdf":107,"bcce":108,"bbebb":109,"debb":110,"bebf":111,"cecc":112,"bff":113,"cebd":114,"cebe":115,"cbcd":116,"ccbb":117,"debc":118,"eebb":119,"bded":120,"fbe":121,"bbbbd":122,"bfbb":123,"bdbe":124,"cbfe":125,"cded":126,"bccc":127,"eeee":128,"bebbe":129,"fcc":130,"bcbd":131,"fbd":132,"cdbb":133,"bae":134,"beebb":135,"debd":136,"bfee":137,"debe":138,"febb":139,"fce":140,"ccbe":141,"ddee":142,"bbbbbb":143,"cbbbb":144,"bdbd":145,"cece":146,"cdbe":147,"cbdd":148,"bbef":149,"decc":150,"eeed":151,"bcde":152,"cbbee":153,"cbeee":154,"beeee":155,"ccbc":156,"cba":157,"abb":158,"becd":159,"bdbc":160,"bdce":161,"cff":162,"fef":163,"ccce":164,"bebee":165,"ddf":166,"bfbc":167,"cbebb":168,"ddbb":169,"bcebb":170,"bfed":171,"bbebc":172,"bede":173,"cbbf":174,"bbbbbbbb":175,"cdce":176,"cfee":177,"cdbc":178,"cdbd":179,"bbebd":180,"bbebe":181,"ccbd":182,"beef":183,"cfbb":184,"cbef":185,"bcef":186,"bfbe":187,"cbcee":188,"dece":189,"febc":190,"bbdbb":191,"becbb":192,"cfed":193,"af":194,"cbfd":195,"bedd":196,"cbbed":197,"bbdee":198,"bfbd":199,"beebc":200,"cae":201,"ccde":202,"aee":203,"cecd":204,"cbbbc":205,"ceebb":206,"bfce":207,"bcebc":208,"bdde":209,"bebbbb":210,"cfbc":211,"cdcd":212,"ed":213,"cbebc":214,"bea":215,"bfcc":216,"eeebb":217,"cbcbb":218,"cbeed":219,"ccef":220,"befe":221,"eef":222,"cdcc":223,"cdde":224,"ccebb":225,"bbece":226,"cbcf":227,"eebc":228,"bbdf":229,"fecc":230,"bedbb":231,"bdebb":232,"ddbc":233,"bbecc":234,"bebce":235,"abc":236,"febd":237,"bdef":238,"beebd":239,"bad":240,"becbe":241,"bcdee":242,"cbbbd":243,"bbebbe":244,"becf":245,"cedd":246,"beeed":247,"fdbb":248,"cebf":249,"ceef":250,"bbbbee":251,"ceeee":252,"bebbee":253,"dede":254,"beecc":255,"bedee":256,"bdcc":257,"cdbf":258,"bebbd":259,"bbbbf":260,"ceebc":261,"cede":262,"cddd":263,"fdf":264,"cebbe":265,"ccebc":266,"cdfe":267,"cfbd":268,"fdee":269,"dedd":270,"bcebd":271,"abd":272,"cbecc":273,"cfcc":274,"bfbf":275,"cecbb":276,"ddbd":277,"cbcbc":278,"fbbf":279,"becce":280,"cbebd":281,"cbdee":282,"bcdf":283,"ceecc":284,"bbbbbc":285,"fbbee":286,"cbbcc":287,"cdef":288,"becbc":289,"bbdbc":290,"bcecc":291,"cdebb":292,"ceeed":293,"bfebb":294,"decd":295,"bb</w>":296,"cbced":297,"debf":298,"bcdbb":299,"aed":300,"beebe":301,"beebbe":302,"cbdbb":303,"cbbce":304,"bebbf":305,"bedf":306,"dddd":307,"bdebc":308,"beece":309,"eeef":310,"ceebd":311,"bbebf":312,"ccecc":313,"acc":314,"ddce":315,"debbe":316,"becee":317,"cbece":318,"cbdf":319,"fece":320,"bddee":321,"bddbb":322,"bcbf":323,"febe":324,"cbbbe":325,"ccebd":326,"cdeee":327,"bbbbbd":328,"fff":329,"cad":330,"cfce":331,"beeebb":332,"babb":333,"ccdee":334,"fdbc":335,"bddf":336,"bfbbe":337,"bbdbd":338,"bebbbc":339,"cdbee":340,"ddbe":341,"fdce":342,"ddde":343,"cedbb":344,"bedbc":345,"bfde":346,"cdbbe":347,"ebb":348,"cbccc":349,"ddcc":350,"bcece":351,"cbcce":352,"cbbde":353,"bedce":354,"cbded":355,"bbebbbb":356,"bdebd":357,"cdebc":358,"bbede":359,"bbeebb":360,"eecc":361,"bfef":362,"bbebee":363,"ace":364,"eedbb":365,"eeebc":366,"fdcc":367,"cbebe":368,"fecd":369,"bd</w>":370,"cfbe":371,"bc</w>":372,"cbcbd":373,"beebee":374,"ccdf":375,"febf":376,"cbfbb":377,"fdbd":378,"be</w>":379,"cfbf":380,"cbede":381,"ceece":382,"bbecbb":383,"ffee":384,"cbff":385,"cbbebb":386,"bebcee":387,"bbecd":388,"abe":389,"bcebe":390,"bcbbee":391,"beebf":392,"bdbf":393,"decbb":394,"bcbbf":395,"eedee":396,"fbbbc":397,"cdcf":398,"cedee":399,"cbbbbbb":400,"bebef":401,"ebc":402,"bbdce":403,"bdecc":404,"ccece":405,"debee":406,"bbefe":407,"bcdbc":408,"defe":409,"bbfee":410,"cbedd":411,"abf":412,"cdeed":413,"cdfd":414,"bbedd":415,"cbbbf":416,"debce":417,"ccbf":418,"cbdbc":419,"ccfe":420,"bbdbe":421,"ebd":422,"cedf":423,"bcebf":424,"bebbbd":425,"bbecbe":426,"befee":427,"cb</w>":428,"dedbb":429,"dea":430,"beecd":431,"ffbc":432,"baf":433,"ceedd":434,"cdecc":435,"befd":436,"bedbd":437,"cbecd":438,"beecbb":439,"cdebd":440,"bebebb":441,"eeecc":442,"cbebf":443,"aa":444,"ccedd":445,"bcdbd":446,"bfebc":447,"cccccccc":448,"fedd":449,"bebebc":450,"bcbbbc":451,"cfcd":452,"bebde":453,"cbbcbb":454,"bcedd":455,"ceecd":456,"cbae":457,"bcfee":458,"febbe":459,"cfebb":460,"cbeebb":461,"bebed":462,"beeef":463,"bebcf":464,"eeebd":465,"beedd":466,"eedf":467,"cbdce":468,"cbbbbe":469,"fede":470,"cedbc":471,"ccdbb":472,"baee":473,"cbcde":474,"beebbbb":475,"cbbef":476,"cbdbd":477,"bfcd":478,"cddee":479,"bcecd":480,"bedcc":481,"bcebbe":482,"ccecd":483,"fbbbd":484,"beede":485,"cc</w>":486,"bebbce":487,"fecbb":488,"fbbce":489,"bebcd":490,"cbebbe":491,"cbfed":492,"cbbcd":493,"bdece":494,"cbfee":495,"cbcbe":496,"bbdcc":497,"bffe":498,"cfde":499,"ffcc":500,"bfdd":501,"bbbbce":502,"ceebe":503,"cbbdd":504,"bbedbb":505,"bceebb":506,"bebbbe":507,"cedce":508,"bbfbc":509,"acd":510,"bbebce":511,"cddf":512,"cfdd":513,"bfdbb":514,"cfef":515,"cffe":516,"bbbdbb":517,"bbebbd":518,"cbeef":519,"bbbbbe":520,"bcdce":521,"cccd":522,"bbeeee":523,"beecbe":524,"fdde":525,"aebb":526,"bddbd":527,"febee":528,"bceeee":529,"bedde":530,"ade":531,"add":532,"abbe":533,"fdbe":534,"babc":535,"cedbd":536,"bbbbcc":537,"eedce":538,"bfcbb":539,"bcede":540,"befbc":541,"bbbbbbe":542,"bddbc":543,"cbfbc":544,"ceecbb":545,"dedee":546,"ceede":547,"afe":548,"bbeef":549,"bedbe":550,"bebbcc":551,"fbbcc":552,"cebbbc":553,"beefe":554,"ceeebb":555,"ffbd":556,"eedbc":557,"ccebe":558,"cddbb":559,"bbecf":560,"bbbebd":561,"dedf":562,"bbdde":563,"bfcf":564,"bfecc":565,"feebb":566,"bfbee":567,"cbbfe":568,"beeebc":569,"eeebe":570,"cdece":571,"cfebc":572,"cdbed":573,"bcfbc":574,"bcbbbd":575,"bfebd":576,"beebce":577,"bdebe":578,"bebebd":579,"bdedd":580,"cbecbb":581,"cdcee":582,"cdcbb":583,"bfa":584,"bceef":585,"bbea":586,"bbeebc":587,"cedcc":588,"cdbce":589,"eeece":590,"cffd":591,"fefe":592,"bebcbc":593,"decce":594,"decbe":595,"cfcbb":596,"ce</w>":597,"bbbbbbd":598,"ccdbc":599,"debbd":600,"cabb":601,"dedce":602,"cd</w>":603,"ccdd":604,"cdcbe":605,"ceecbe":606,"bddce":607,"bfbbbb":608,"cdedd":609,"bddd":610,"cbbebc":611,"bffd":612,"decbc":613,"cdbbd":614,"fecbe":615,"cfbbe":616,"ccfee":617,"fecbc":618,"cdcbc":619,"bfdf":620,"cbbbee":621,"dddf":622,"cbdcc":623,"bfbce":624,"cfcf":625,"defd":626,"bfbbd":627,"bfcbe":628,"fea":629,"cbcef":630,"bfeee":631,"babd":632,"fbbbe":633,"bceebc":634,"cbbdbb":635,"fecce":636,"bbebbbe":637,"bfdee":638,"bebdbb":639,"aef":640,"cefbc":641,"befbd":642,"cbbeee":643,"cbecbe":644,"febce":645,"bbbcbc":646,"cebce":647,"bcdcc":648,"beeeee":649,"cbbcbe":650,"fecf":651,"beea":652,"beecce":653,"cceebb":654,"dddee":655,"cda":656,"cea":657,"bcdbe":658,"cbdbe":659,"bbecbc":660,"cbbbbd":661,"cbcebb":662,"cefd":663,"dedbc":664,"decf":665,"bebdee":666,"ceebbe":667,"cbeebc":668,"cecbc":669,"fedbb":670,"debbbb":671,"beecbc":672,"cbfbd":673,"bbfbd":674,"beebde":675,"eedbd":676,"ceebf":677,"beccbb":678,"bcecbe":679,"bebbbbe":680,"cebbbb":681,"cfa":682,"caf":683,"eedcc":684,"cceef":685,"ceecce":686,"cccccc":687,"bebebe":688,"cebbd":689,"cdebe":690,"befcc":691,"beedbb":692,"bbfcc":693,"febbd":694,"bcbbcc":695,"cbeeee":696,"ccdbd":697,"cbba":698,"cbbcf":699,"bfcbc":700,"bbedee":701,"cfecc":702,"cbfcc":703,"ccfbc":704,"ccdcc":705,"cecbe":706,"febbbb":707,"cbdde":708,"ceebce":709,"cbad":710,"bcbbbe":711,"cebbbd":712,"dddbb":713,"cdff":714,"feef":715,"ddbf":716,"bbebde":717,"bbbdee":718,"ccede":719,"bebecc":720,"cbceee":721,"caee":722,"bbccbb":723,"fdcd":724,"cbebce":725,"cbbdee":726,"debed":727,"ceebee":728,"cbbbce":729,"cefcc":730,"beecf":731,"ddcd":732,"cbbdf":733,"debde":734,"bbedf":735,"bbecce":736,"ddeee":737,"beedee":738,"bceebd":739,"bbeebd":740,"cbedbb":741,"bcebce":742,"cbbebd":743,"cbeecc":744,"acbb":745,"cbcbf":746,"beebbd":747,"bddcc":748,"bbbdf":749,"cefe":750,"dedbd":751,"bbecee":752,"cecf":753,"bebcbd":754,"becde":755,"bbebebb":756,"fbbbf":757,"baed":758,"bbbbdbb":759,"cecce":760,"bcfbd":761,"bcebbd":762,"fdbf":763,"bdeebb":764,"bebdf":765,"bcecf":766,"ddfe":767,"bedcee":768,"cbdebb":769,"bbbcbd":770,"bbbecc":771,"bbbbcbb":772,"bdede":773,"bcdde":774,"dedcc":775,"bedcbe":776,"bddbe":777,"cebee":778,"cddbc":779,"cefee":780,"eedbe":781,"bbebbee":782,"cbeeed":783,"ccebf":784,"bbefd":785,"aebc":786,"bdebf":787,"cbcebc":788,"bbdbf":789,"ceebbbb":790,"cfcbe":791,"becebd":792,"fedf":793,"beeebd":794,"cfeee":795,"abbbb":796,"bcfcc":797,"bcecbb":798,"bebbde":799,"cefbd":800,"bcbcbc":801,"feeee":802,"ffbe":803,"bcebee":804,"bcedbb":805,"adbb":806,"cedde":807,"bebbeee":808,"cdcce":809,"bbbbbf":810,"bbdbbe":811,"bcefe":812,"beebbee":813,"bfebe":814,"bcbbce":815,"ceeebc":816,"ccdce":817,"bf</w>":818,"cbbcbc":819,"cceebc":820,"ef":821,"cfebd":822,"cbedee":823,"fdcf":824,"bdebbe":825,"bcdbf":826,"ceecbc":827,"bedbf":828,"cebbcc":829,"ccfcc":830,"cbeebd":831,"bfdbc":832,"ffce":833,"cebcbc":834,"caed":835,"ccfbd":836,"cdbbbb":837,"beebebb":838,"cbecce":839,"bbebbf":840,"beeecc":841,"cbecf":842,"cdcde":843,"cbddd":844,"cddbd":845,"bbebed":846,"cedbe":847,"cdbde":848,"aeee":849,"cbbcee":850,"cfbbd":851,"cceeee":852,"cbedf":853,"bebcde":854,"cfbce":855,"bebcbe":856,"cbcbbe":857,"fdfe":858,"bebfbb":859,"cbcdd":860,"cbebee":861,"abee":862,"cabc":863,"cbcdee":864,"ccecce":865,"bebece":866,"cbcfe":867,"cdeebb":868,"cbefe":869,"cdbcd":870,"cdcbd":871,"bebbbee":872,"bebbbf":873,"bceecc":874,"eeebee":875,"bfebf":876,"bebbcbb":877,"bedbee":878,"cceecc":879,"cbcbee":880,"ccebbe":881,"abce":882,"bbbbdd":883,"decee":884,"cebbf":885,"cfcbc":886,"bdeef":887,"bbcebd":888,"cbbfd":889,"becbd":890,"cbecee":891,"cdfbb":892,"eeebf":893,"ecc":894,"cbdef":895,"cbfce":896,"cbbbde":897,"eedde":898,"bbedbc":899,"cebbce":900,"befbb":901,"bcebbee":902,"ceeef":903,"bdeebc":904,"cbbecc":905,"bbbdbc":906,"cdbbf":907,"fdcee":908,"befce":909,"eeebbe":910,"cdced":911,"bedbbe":912,"beecee":913,"ccecbe":914,"fedbc":915,"ceedee":916,"bebccc":917,"bbdbbd":918,"adf":919,"fedee":920,"bebcce":921,"beccbc":922,"cfdf":923,"bbbebf":924,"bbefbb":925,"bcebbbb":926,"cbccee":927,"bcdfe":928,"bbbece":929,"cdbfe":930,"cbea":931,"bbebbbc":932,"cbbece":933,"fdbee":934,"babe":935,"cbccf":936,"debcd":937,"bedcbb":938,"bfcee":939,"bfcce":940,"adee":941,"bdecd":942,"bcea":943,"cbccbb":944,"bbeecc":945,"bebdbc":946,"eeebbbb":947,"fbbcbb":948,"cfdee":949,"befbe":950,"cdecd":951,"cedcd":952,"ceeecc":953,"cbdcee":954,"cfcce":955,"cdede":956,"fbbde":957,"cceebd":958,"bcdbee":959,"ceedbb":960,"bcefd":961,"bedcd":962,"bbedbd":963,"fbbfe":964,"cbcdf":965,"cbebbbb":966,"cfbee":967,"debbf":968,"cbdbf":969,"bbbccc":970,"cbeeebb":971,"bacc":972,"fdcbe":973,"bace":974,"abbd":975,"ddbee":976,"bcdcd":977,"bebbfe":978,"cbdfe":979,"bcecce":980,"ffbf":981,"bdeeee":982,"fbbbee":983,"bcbbde":984,"cbebbd":985,"cbccd":986,"bedfe":987,"bfedd":988,"bfece":989,"bbebebe":990,"bbbebbbb":991,"dddbc":992,"bebff":993,"cdeef":994,"bcedf":995,"bbfce":996,"acf":997,"bceece":998,"eeecbb":999,"bddde":1000,"ddbbd":1001,"aebd":1002,"cddcc":1003,"bedbbd":1004,"bebbbce":1005,"cdebf":1006,"feebc":1007,"cfdbb":1008,"cbdbee":1009,"cebccc":1010,"ceefe":1011,"beedbc":1012,"bcfce":1013,"ceecf":1014,"ceebbd":1015,"ccdde":1016,"afd":1017,"bdebbd":1018,"bcbbbf":1019,"bbbcbe":1020,"ddcbb":1021,"ccdbe":1022,"bcedee":1023,"bbbebbe":1024,"ceccbb":1025,"bbbbbee":1026,"bfdce":1027,"ccecde":1028,"bdedbb":1029,"bdfbd":1030,"cbdcd":1031,"dddbd":1032,"cbccbc":1033,"cebcce":1034,"ccebce":1035,"bbccbc":1036,"cbefd":1037,"bdecbb":1038,"ceecde":1039,"fbba":1040,"bbbbde":1041,"bbbdbd":1042,"ebe":1043,"ede":1044,"bcfbe":1045,"bedcf":1046,"bfbbf":1047,"bececc":1048,"bebbdd":1049,"beedf":1050,"eeedd":1051,"bfdbd":1052,"bcbbcbb":1053,"ccedbb":1054,"cdbebe":1055,"fbcbd":1056,"bbdbee":1057,"ffdd":1058,"cbbebe":1059,"cf</w>":1060,"febcd":1061,"beccbd":1062,"fefd":1063,"febbee":1064,"cbecbc":1065,"cdeebc":1066,"cddce":1067,"fbccc":1068,"bdebce":1069,"bbdcbb":1070,"bedbce":1071,"dedbe":1072,"bebfee":1073,"bbecbd":1074,"feecc":1075,"ddcf":1076,"cdfbd":1077,"bebebf":1078,"bebdbd":1079,"ceea":1080,"beeebe":1081,"bcdeee":1082,"cabd":1083,"cbebde":1084,"fecde":1085,"cbcebd":1086,"cebcbe":1087,"bbedce":1088,"cdeecc":1089,"ece":1090,"aecc":1091,"bbeebe":1092,"ceedf":1093,"bccebd":1094,"bbbbeee":1095,"fbbdd":1096,"fbbbbe":1097,"ffcf":1098,"bbfbe":1099,"ceeebd":1100,"debebb":1101,"cdedbb":1102,"bdebee":1103,"beeece":1104,"cdbdd":1105,"debbbe":1106,"cbecde":1107,"ccedee":1108,"bbdbbbb":1109,"cedcee":1110,"cfeed":1111,"bcecbc":1112,"ddfd":1113,"ccccbb":1114,"cdbebb":1115,"defcc":1116,"febde":1117,"eeeeee":1118,"cdbbee":1119,"dedbf":1120,"fecee":1121,"cbcdbb":1122,"cdeeee":1123,"bcbcbd":1124,"cbcbbbb":1125,"cdbef":1126,"fedcc":1127,"bebebee":1128,"ceecee":1129,"bdea":1130,"cbcecc":1131,"cbdebc":1132,"edd":1133,"cdfbc":1134,"febbf":1135,"cdbfd":1136,"feebd":1137,"ccebee":1138,"bebebbe":1139,"ccfce":1140,"eeea":1141,"ebce":1142,"decde":1143,"bbedcc":1144,"cbfbe":1145,"bdbbcc":1146,"bbecde":1147,"ccccbc":1148,"bcecee":1149,"fdbbd":1150,"bbbbbbbc":1151,"fdcbc":1152,"beebbbe":1153,"cbbbebb":1154,"cbebebb":1155,"fecbd":1156,"ddbed":1157,"cedbf":1158,"bcfbf":1159,"cbbbbf":1160,"cefbe":1161,"befbbe":1162,"cfcee":1163,"beecde":1164,"cfdbc":1165,"cceece":1166,"bcbbbbe":1167,"cbbdbc":1168,"cbfebb":1169,"cfcbd":1170,"bdeebd":1171,"beffe":1172,"bedbbbb":1173,"bcebde":1174,"eeedbb":1175,"bfeef":1176,"cbeece":1177,"cbbbbee":1178,"decbd":1179,"acee":1180,"acbe":1181,"cbbeed":1182,"ddbbe":1183,"bbdcee":1184,"bebbef":1185,"fbbcbe":1186,"cfece":1187,"bbbbbbbe":1188,"bbbcce":1189,"bcebed":1190,"beeebbe":1191,"bebbbebb":1192,"bcbccc":1193,"cfedd":1194,"bdecbe":1195,"bccecc":1196,"cacc":1197,"fbbcd":1198,"cbbdbd":1199,"eeecd":1200,"cebcbd":1201,"bbbbbbf":1202,"eedcd":1203,"cbccbe":1204,"cbcbbd":1205,"bceebe":1206,"ccecbb":1207,"beebbf":1208,"bddbf":1209,"bbbbdee":1210,"bdfcc":1211,"debbee":1212,"ccecee":1213,"bdecf":1214,"bbbbdf":1215,"fdbbe":1216,"beebcd":1217,"cbcbce":1218,"ccecf":1219,"febed":1220,"fdbed":1221,"bcccbc":1222,"bcecde":1223,"befbf":1224,"defbd":1225,"bfecd":1226,"ffcd":1227,"bbebcd":1228,"cbfbf":1229,"cbddee":1230,"cefce":1231,"bfdcc":1232,"bbdeee":1233,"fbbcf":1234,"ccdbee":1235,"bebdce":1236,"dddcc":1237,"cbdcf":1238,"cbedbc":1239,"bbcecc":1240,"bdedf":1241,"bdefe":1242,"bbdcd":1243,"bdebbbb":1244,"ccea":1245,"bebfbc":1246,"ccdcd":1247,"eeecbe":1248,"fffe":1249,"cbeebe":1250,"ffbbe":1251,"cbbbbbc":1252,"beda":1253,"bfebbe":1254,"bdeecc":1255,"ebdd":1256,"cbddf":1257,"fbbcee":1258,"cbcece":1259,"fbbbce":1260,"cbceed":1261,"cedbee":1262,"ebbe":1263,"cbdbbe":1264,"ccdbf":1265,"bbbbbbbbbbbbbbbb":1266,"cbbbed":1267,"ceedce":1268,"cbfef":1269,"cbbcce":1270,"bcbbdd":1271,"ebde":1272,"beccbe":1273,"fedce":1274,"bcdbbe":1275,"bcedbc":1276,"fda":1277,"febebb":1278,"bebcbf":1279,"dedde":1280,"ccfdd":1281,"cdfcc":1282,"bbdcf":1283,"fdbce":1284,"beeebee":1285,"cbfdd":1286,"baebb":1287,"bbbbbbbbbb":1288,"cbbede":1289,"cbebbee":1290,"bcbbbee":1291,"febbbc":1292,"ffde":1293,"bdecee":1294,"fdcbb":1295,"cfbbbb":1296,"eedbf":1297,"cbbebbe":1298,"fccbc":1299,"adbc":1300,"cbcbed":1301,"bdedbc":1302,"bdecce":1303,"fdeed":1304,"cbebed":1305,"bbccbd":1306,"bfbbee":1307,"bfdbe":1308,"beedbd":1309,"cbdeee":1310,"cebbde":1311,"ffeee":1312,"febbbe":1313,"beccce":1314,"cbedce":1315,"aba":1316,"bbebbbd":1317,"bddeee":1318,"cbbbbbe":1319,"beedce":1320,"cdded":1321,"ccebbd":1322,"cdebbe":1323,"bebba":1324,"cbbebf":1325,"dda":1326,"ceecbd":1327,"ccedf":1328,"bcdcf":1329,"bddbee":1330,"ceccbc":1331,"bbedbe":1332,"cbebbf":1333,"bcdeed":1334,"cfebe":1335,"bedeee":1336,"ccecbc":1337,"cedbbe":1338,"bfede":1339,"ddcee":1340,"bebbebc":1341,"cdeebd":1342,"beeebbbb":1343,"bddfe":1344,"beecbd":1345,"cebbbf":1346,"bceebbe":1347,"cfbbf":1348,"bcdfd":1349,"bcedbd":1350,"cedcde":1351,"bebebbbb":1352,"bedbed":1353,"ffbee":1354,"dedcf":1355,"fedbd":1356,"ddbce":1357,"bffcc":1358,"afbb":1359,"ccdeed":1360,"cbdfd":1361,"bcbcce":1362,"adce":1363,"ceebde":1364,"ccebde":1365,"bbdfe":1366,"beeeef":1367,"cedcf":1368,"fbcce":1369,"cbca":1370,"fbbeee":1371,"cddbe":1372,"bbdbce":1373,"beebbbc":1374,"debbbc":1375,"bbdcbe":1376,"cbbff":1377,"bfcbd":1378,"cbfde":1379,"ceedbc":1380,"ceedcc":1381,"bcebbbe":1382,"bcbbeee":1383,"beebfe":1384,"eedcf":1385,"bebdbe":1386,"bcffe":1387,"bcbbfe":1388,"ddeecc":1389,"cbebbbe":1390,"bbeece":1391,"cfff":1392,"bbbbbebb":1393,"cddde":1394,"cbcfd":1395,"bfbed":1396,"befdd":1397,"cdebce":1398,"cebbbbe":1399,"cdbbbd":1400,"defce":1401,"bbbbbbbd":1402,"cbdebd":1403,"cdccd":1404,"bdefd":1405,"cbbfbb":1406,"cefdd":1407,"ebbd":1408,"ffa":1409,"debcbd":1410,"ccefe":1411,"bdedee":1412,"bfbcd":1413,"cbddbb":1414,"bbbbdbc":1415,"bbfde":1416,"bbbbfe":1417,"bbebef":1418,"cbedcc":1419,"bfbde":1420,"beefbb":1421,"bcbbbce":1422,"cbbbebe":1423,"bebdcc":1424,"ccdfe":1425,"bfbebe":1426,"bcdcde":1427,"cbbeef":1428,"cebcde":1429,"bedcbc":1430,"baa":1431,"bcdbce":1432,"aebe":1433,"cdfee":1434,"bcdcbb":1435,"ccedce":1436,"aece":1437,"ccefd":1438,"bcffd":1439,"bdeece":1440,"bebcfe":1441,"bfff":1442,"befde":1443,"bbeff":1444,"bcbdbc":1445,"cbb</w>":1446,"ceeece":1447,"cceebe":1448,"eeefe":1449,"acbc":1450,"bbbede":1451,"becebe":1452,"bddcd":1453,"cace":1454,"beeedd":1455,"cebdbc":1456,"bbebebc":1457,"bcfdd":1458,"cedbce":1459,"cceedd":1460,"babf":1461,"ebbbb":1462,"cbbcbd":1463,"bcbbcf":1464,"bebbcbe":1465,"fbbcbc":1466,"bbecbbe":1467,"bfebbbb":1468,"bebbcee":1469,"bcedce":1470,"cfdcc":1471,"beebed":1472,"ccecbee":1473,"dddce":1474,"cfdce":1475,"beebebe":1476,"bcda":1477,"cedcbe":1478,"bcbcbe":1479,"cbfebc":1480,"cdecce":1481,"bbebcbb":1482,"beedcc":1483,"fdcbd":1484,"bbcece":1485,"bedeed":1486,"cbedbd":1487,"bebede":1488,"fdeee":1489,"bfea":1490,"cdbbbc":1491,"adbd":1492,"feced":1493,"fdcce":1494,"cdedee":1495,"bebbcf":1496,"bebcbee":1497,"ddbbbb":1498,"cbbbcbb":1499,"bebefe":1500,"eeedee":1501,"ccfbe":1502,"cdeece":1503,"bbebdd":1504,"cdbbbe":1505,"bffbd":1506,"bcebbf":1507,"bdbdbd":1508,"bcdbbd":1509,"bffbb":1510,"eeede":1511,"bebbbed":1512,"ddcbe":1513,"bcbcbcbc":1514,"cfbde":1515,"abbbe":1516,"bbeba":1517,"eeeef":1518,"cdcbf":1519,"abbf":1520,"cfbed":1521,"fbdbc":1522,"ddcbc":1523,"bbcebe":1524,"bbebcee":1525,"ddeed":1526,"bbebcbe":1527,"cbdcbb":1528,"cbedbe":1529,"acce":1530,"febdd":1531,"cfbbbc":1532,"beefd":1533,"dedcee":1534,"baef":1535,"feff":1536,"bbedde":1537,"febfe":1538,"ddeebc":1539,"cfdbd":1540,"cbc</w>":1541,"cefbf":1542,"adcc":1543,"cbeecbe":1544,"edee":1545,"dedcd":1546,"cfecd":1547,"fbcbe":1548,"cdecee":1549,"bbdfd":1550,"bbebfe":1551,"bbbbcbe":1552,"ceccbd":1553,"deccbc":1554,"bedcbd":1555,"ccccce":1556,"ceedbd":1557,"eeeebc":1558,"cdecbe":1559,"eeebbf":1560,"debccc":1561,"abfe":1562,"cbbbcd":1563,"bfbebb":1564,"debebe":1565,"bcecbd":1566,"cbabb":1567,"befcbe":1568,"becece":1569,"feccd":1570,"bcccbd":1571,"befbee":1572,"acde":1573,"bade":1574,"ceebbf":1575,"bdfbe":1576,"ccedcc":1577,"bdebbbe":1578,"bedcde":1579,"cedcbc":1580,"ccedbc":1581,"bebecbb":1582,"bfecbe":1583,"bfecf":1584,"bcbbcbe":1585,"cabe":1586,"cbfcd":1587,"ebf":1588,"bdfce":1589,"bebbcd":1590,"bcdcee":1591,"cfbbee":1592,"eeebbee":1593,"bbebeee":1594,"bfebbd":1595,"cdefd":1596,"bcdcbe":1597,"eeebbd":1598,"bedcce":1599,"bbccce":1600,"bbbbcd":1601,"bceecd":1602,"cbd</w>":1603,"ddbbf":1604,"beedbe":1605,"cbbdce":1606,"bebeef":1607,"bbbbbce":1608,"bedced":1609,"cdfce":1610,"cebdce":1611,"cebbdd":1612,"cbbdbe":1613,"defbb":1614,"cbdbbd":1615,"ffcbb":1616,"bbebbbbe":1617,"cbcdbc":1618,"beebcbb":1619,"eeecbc":1620,"bedbde":1621,"befcf":1622,"cefcd":1623,"cdefe":1624,"cbeedd":1625,"bbbba":1626,"befa":1627,"fedbe":1628,"cedbbd":1629,"bddfd":1630,"ceeeebb":1631,"cedcbb":1632,"bceedd":1633,"bdecbc":1634,"bfebee":1635,"bfbbbc":1636,"cbeebbe":1637,"cbbdcc":1638,"bcedcc":1639,"bfeed":1640,"cbdeed":1641,"bbbbcee":1642,"befbbd":1643,"cedcce":1644,"ddeef":1645,"bdebed":1646,"cbbedee":1647,"ceccce":1648,"ccdfd":1649,"bdebcd":1650,"cfebbe":1651,"beecbf":1652,"befcd":1653,"bebbcbc":1654,"ceebed":1655,"bfedf":1656,"bebbcce":1657,"cceecd":1658,"debcee":1659,"bebfbd":1660,"ceeebe":1661,"cbbeebb":1662,"cfcde":1663,"cbe</w>":1664,"beefee":1665,"bfbbbe":1666,"bbdcbc":1667,"fffd":1668,"bcefbc":1669,"bfecbb":1670,"cbeede":1671,"bccece":1672,"fccbd":1673,"befcbb":1674,"bcbbcee":1675,"cbdcbe":1676,"bbbdce":1677,"ccdeee":1678,"debdd":1679,"dedbee":1680,"bcefbb":1681,"bbbbbbee":1682,"bebecd":1683,"bcebbbc":1684,"defbc":1685,"abde":1686,"debdbd":1687,"bacbb":1688,"bfedbb":1689,"abea":1690,"bbbdbe":1691,"beeebf":1692,"bebcbbe":1693,"cceecbe":1694,"cdebee":1695,"bcbdbd":1696,"abbee":1697,"ceebbee":1698,"bcbbcbc":1699,"bcbedd":1700,"cedfe":1701,"bdeebe":1702,"debdbc":1703,"bbbdcc":1704,"bbebbce":1705,"cdddd":1706,"cebcfe":1707,"bbecbf":1708,"ceebcd":1709,"eedcbe":1710,"ccdcf":1711,"beecbee":1712,"beeeeee":1713,"cdedf":1714,"debcbb":1715,"bcebcd":1716,"cccccccccccccccc":1717,"cdecf":1718,"ffcbe":1719,"bbfbf":1720,"cbccce":1721,"bceecbe":1722,"cbbecbb":1723,"beeeebb":1724,"cfede":1725,"ddddd":1726,"cdea":1727,"bcfcd":1728,"bccebe":1729,"bbefee":1730,"bdedbd":1731,"bddbbd":1732,"bebdde":1733,"cdecbb":1734,"eedcbb":1735,"cfbcd":1736,"bbbedd":1737,"ebee":1738,"bbbbcbc":1739,"bbefbe":1740,"bcecbee":1741,"debbce":1742,"abbbc":1743,"cebbbee":1744,"dddbe":1745,"bfced":1746,"cbdecc":1747,"bcfde":1748,"cbebcbb":1749,"bfbef":1750,"bcebebb":1751,"bfeebc":1752,"cdebbd":1753,"bcecbbe":1754,"cbbeebc":1755,"fbbfd":1756,"cbceeee":1757,"ddbde":1758,"bedfd":1759,"beebeee":1760,"bddcbe":1761,"eeedf":1762,"cffbc":1763,"bbdbbee":1764,"deccce":1765,"cebdbd":1766,"ccedbd":1767,"bafe":1768,"cdedce":1769,"fbbfbb":1770,"ebcd":1771,"bbdbed":1772,"beecbbe":1773,"ceefd":1774,"bceede":1775,"ceedbe":1776,"bebbeebb":1777,"cbcebe":1778,"beeecd":1779,"beeecbb":1780,"bfbfe":1781,"bebecbe":1782,"ffcbc":1783,"bbbddd":1784,"fbecd":1785,"bcebebc":1786,"cbfcbb":1787,"bdebbbc":1788,"bdbbde":1789,"bebcdd":1790,"cbeeebc":1791,"bbeced":1792,"bcdbbbb":1793,"eeecee":1794,"cffbb":1795,"cebbfe":1796,"cbfa":1797,"cbffd":1798,"fedde":1799,"bcdcbc":1800,"cfebf":1801,"bdebbee":1802,"bbda":1803,"ffbbbb":1804,"bbdeebc":1805,"eedcbc":1806,"cbeecd":1807,"ccebbee":1808,"cebbcbe":1809,"bdbdbc":1810,"cdfbe":1811,"ceebdd":1812,"bcebbce":1813,"bfecbc":1814,"bebedd":1815,"bdebde":1816,"bbbbbbbbbbbb":1817,"babbbb":1818,"bbdeed":1819,"cedbed":1820,"beeebbee":1821,"cbbecbe":1822,"eeebce":1823,"bbccbe":1824,"fefbb":1825,"cbcdbd":1826,"cebdcc":1827,"eeecf":1828,"bbecbee":1829,"bebecce":1830,"fbdbd":1831,"bcbbcd":1832,"dddde":1833,"cfecf":1834,"cebdbe":1835,"cbdbce":1836,"cceebee":1837,"cbeeef":1838,"bebccbb":1839,"ecd":1840,"ccfcd":1841,"cedced":1842,"beccde":1843,"beebbce":1844,"cbbeebd":1845,"bebfcc":1846,"cebbcbb":1847,"ccdbbe":1848,"cbeedee":1849,"bdebbf":1850,"ddbdd":1851,"aefe":1852,"bfbcbb":1853,"bcbcde":1854,"dedcbe":1855,"bdecde":1856,"bfcde":1857,"cbaf":1858,"cbbedbb":1859,"bebebce":1860,"ccedde":1861,"bcdbed":1862,"ceebbbe":1863,"cfeebc":1864,"ccebbbb":1865,"eeebbbe":1866,"ddcbd":1867,"bfbdd":1868,"ffbbd":1869,"bebeebc":1870,"bebbebd":1871,"abba":1872,"cebede":1873,"bcbede":1874,"cbbebbbb":1875,"cbebcd":1876,"cbbcde":1877,"adbe":1878,"debbdd":1879,"cdcdd":1880,"bfefe":1881,"bcfcf":1882,"bdecbd":1883,"fbbcce":1884,"beebebc":1885,"bcedbe":1886,"beeff":1887,"eeefee":1888,"cceede":1889,"badd":1890,"fdfd":1891,"dedcce":1892,"beebcee":1893,"bebebebb":1894,"cdedcc":1895,"bddcf":1896,"bdbbdd":1897,"bbbbdbd":1898,"beccfe":1899,"ceebebc":1900,"bebbeed":1901,"bcdfbc":1902,"bcfbbe":1903,"feece":1904,"bbfbbe":1905,"debdce":1906,"bedff":1907,"ceccbe":1908,"eeecce":1909,"ceebebb":1910,"debdcc":1911,"cceecce":1912,"ccccbd":1913,"cbbedd":1914,"bcbebf":1915,"beecfe":1916,"ceeecd":1917,"cbebebe":1918,"deccbd":1919,"bbbecbb":1920,"cedbbbb":1921,"cbddbc":1922,"cbdbbbb":1923,"cdedbc":1924,"bebbfd":1925,"ceebbbc":1926,"bebbbde":1927,"cedbde":1928,"bcdbbf":1929,"cbfcf":1930,"bbdbbf":1931,"cbbebce":1932,"ccfde":1933,"cbceef":1934,"abed":1935,"cbfbbe":1936,"febef":1937,"bdedce":1938,"bfbbbd":1939,"bbbecbe":1940,"cbbbbce":1941,"aeef":1942,"bebcbbd":1943,"cceecee":1944,"bfdde":1945,"ceedde":1946,"bbbcbbe":1947,"beeeebc":1948,"cdbece":1949,"fbbeed":1950,"bddcbc":1951,"fbcde":1952,"eeebebb":1953,"feba":1954,"cbfdee":1955,"bfebbf":1956,"beeba":1957,"cbbbbbd":1958,"bcebcee":1959,"cdeebe":1960,"cbdcbc":1961,"feebe":1962,"edf":1963,"bfecce":1964,"bfeecc":1965,"febcbb":1966,"defbe":1967,"beeea":1968,"cecece":1969,"cdbebc":1970,"bebecf":1971,"cdcbee":1972,"ccdcbb":1973,"bedfbb":1974,"cbcedd":1975,"bcbcdd":1976,"cbebbbc":1977,"bcfa":1978,"befbbbb":1979,"fdbbbb":1980,"cebcbf":1981,"fecbf":1982,"eedbbe":1983,"bddcbb":1984,"fbbbed":1985,"bebecbc":1986,"cebbbce":1987,"cbddbd":1988,"cbdbbee":1989,"cbbebee":1990,"cddcd":1991,"fccce":1992,"cbcbde":1993,"cefa":1994,"cbfecc":1995,"cbefbb":1996,"bbdfbb":1997,"eedbee":1998,"ceeccd":1999,"bfecde":2000,"ceebcee":2001,"bcdbbee":2002,"bbedcf":2003,"bfbebc":2004,"beebbbd":2005,"beeecbe":2006,"cceebce":2007,"bbbbbbbbe":2008,"aff":2009,"bdbbbbe":2010,"ddcce":2011,"cbdbde":2012,"bbedbbe":2013,"bdeecbe":2014,"abebb":2015,"beeefe":2016,"bbebbcbb":2017,"badbb":2018,"cdfed":2019,"cedfd":2020,"debbbd":2021,"cdbcee":2022,"bebfbe":2023,"bfbeed":2024,"cebbcee":2025,"befeee":2026,"cbdbed":2027,"caebb":2028,"eeedbc":2029,"bcfbce":2030,"bfebce":2031,"bddbbe":2032,"cfdbe":2033,"ccedbe":2034,"befcee":2035,"cbbbdbb":2036,"eedcee":2037,"dedcbc":2038,"eeedcc":2039,"fcece":2040,"cfbbce":2041,"fbdcc":2042,"cbeecbb":2043,"babbe":2044,"bddcee":2045,"becdbc":2046,"deff":2047,"cebbcd":2048,"abcd":2049,"cbfcce":2050,"cbcbbf":2051,"bbdbbbd":2052,"ccdcbe":2053,"cbeecce":2054,"baeee":2055,"bcbbbebb":2056,"dedcbb":2057,"debef":2058,"ccbbdd":2059,"cbaed":2060,"ddeece":2061,"cdbcf":2062,"bfeebd":2063,"ccdcee":2064,"cceebbe":2065,"bfcbf":2066,"cfbdd":2067,"bceebee":2068,"aeebc":2069,"cedcbd":2070,"ffcce":2071,"bbedbee":2072,"cbfdf":2073,"bffbc":2074,"cbfdbb":2075,"bbedcee":2076,"cbeeecc":2077,"bebebbd":2078,"bbbbbcbb":2079,"cbedde":2080,"bcdbcd":2081,"fccbe":2082,"bfeebb":2083,"babee":2084,"febcf":2085,"bedbbf":2086,"cbaee":2087,"eeeecc":2088,"dedbce":2089,"debbde":2090,"febebc":2091,"bbbbeebb":2092,"cebccee":2093,"bcbdcc":2094,"cdbbce":2095,"bdebcee":2096,"bbbbfbb":2097,"cbda":2098,"bbbebbd":2099,"febbcc":2100,"bbbbcf":2101,"bdedcc":2102,"cbbecce":2103,"bdecbee":2104,"cbeced":2105,"bffee":2106,"cdbeee":2107,"ddff":2108,"bebcbce":2109,"ebed":2110,"ccffd":2111,"bbbbbebe":2112,"eeebbbc":2113,"ccdbce":2114,"bceebce":2115,"cbbbef":2116,"cebceed":2117,"cddfe":2118,"bcccce":2119,"ccdbbd":2120,"bedbbbc":2121,"cbcced":2122,"beebef":2123,"cefde":2124,"bbebbde":2125,"cbdbbf":2126,"bdfdd":2127,"cbecbee":2128,"bbebbcc":2129,"bcccde":2130,"badf":2131,"cbbebbd":2132,"bfba":2133,"cbcbfe":2134,"cbcdcc":2135,"fdbbf":2136,"cdecde":2137,"bebbebe":2138,"cebbcce":2139,"bcfcbe":2140,"cdba":2141,"bcbba":2142,"bcbebbe":2143,"bbbbbed":2144,"cbcbebb":2145,"bdebebb":2146,"cdae":2147,"cbfebd":2148,"bdbbeee":2149,"bcbdce":2150,"ffbce":2151,"bebccee":2152,"cfeebd":2153,"fecfe":2154,"bbebbeee":2155,"fdded":2156,"cddbf":2157,"bebbecc":2158,"bebdbee":2159,"cebcbee":2160,"fdced":2161,"befbce":2162,"cebbcf":2163,"cbecbbe":2164,"cdebcd":2165,"ccebed":2166,"bebebed":2167,"fefee":2168,"becebbe":2169,"cdbcbb":2170,"cbdff":2171,"cbbfee":2172,"bebea":2173,"badee":2174,"cbbbebc":2175,"cbebcee":2176,"cfeef":2177,"cebbbed":2178,"bbdcbd":2179,"bcebfe":2180,"ecf":2181,"bffbe":2182,"cbcdce":2183,"bececd":2184,"beeedbb":2185,"befbde":2186,"fbbbebb":2187,"cebccce":2188,"cbcbebc":2189,"cbfcbe":2190,"bbeebbe":2191,"cbeedbb":2192,"ccfbf":2193,"bdbbbf":2194,"eedced":2195,"cdedbd":2196,"fdbebc":2197,"afee":2198,"cefcf":2199,"cfeecc":2200,"cbfcee":2201,"cbffe":2202,"cbbecd":2203,"cbcebf":2204,"bfedee":2205,"ddbcd":2206,"cdecbc":2207,"bbdbbbe":2208,"cbdcce":2209,"beebdd":2210,"cfecbb":2211,"cdebde":2212,"bcfcbb":2213,"cbabc":2214,"febcbe":2215,"beeeebd":2216,"cfecbc":2217,"bebbbbee":2218,"beffbb":2219,"ccebcee":2220,"febebe":2221,"babbd":2222,"bbeecbe":2223,"bcdcbbd":2224,"cceccee":2225,"ccfcf":2226,"bcbbbed":2227,"cedeee":2228,"bdda":2229,"feded":2230,"ffcee":2231,"cbeeebd":2232,"febbbd":2233,"beebcbe":2234,"bbfbbbb":2235,"bcdcbd":2236,"bebccd":2237,"ddeebd":2238,"cedbcd":2239,"baebc":2240,"bcedde":2241,"bdbede":2242,"cbbedf":2243,"becdbd":2244,"bddbce":2245,"ccbbbbe":2246,"bcdece":2247,"beeccd":2248,"cfecbe":2249,"cbbfbc":2250,"cdcbbe":2251,"bbedcbe":2252,"bbbcdd":2253,"febbce":2254,"aebf":2255,"ecbb":2256,"bccedd":2257,"ccdbed":2258,"fdbfe":2259,"bbfcf":2260,"cebbcbc":2261,"bebcbbbb":2262,"eedeed":2263,"bebccf":2264,"edbb":2265,"bebecee":2266,"cdebed":2267,"cebecbb":2268,"debcde":2269,"bbdbde":2270,"ebbee":2271,"bebccce":2272,"bbbcbbbb":2273,"fecbee":2274,"bceecbb":2275,"cefcbe":2276,"bcbbfbb":2277,"bbbcde":2278,"dedbbd":2279,"bcdbde":2280,"befcbc":2281,"acbd":2282,"becdce":2283,"beedde":2284,"eedbed":2285,"bbfdd":2286,"beeebbd":2287,"cfecce":2288,"becedd":2289,"bddbbbb":2290,"cbeebce":2291,"bbebebd":2292,"bedbbee":2293,"bfdcd":2294,"bdbdce":2295,"bceebf":2296,"beffd":2297,"bbcefe":2298,"aeed":2299,"ccdbde":2300,"ceecbf":2301,"bbfbee":2302,"cbcbbee":2303,"befcce":2304,"fedcf":2305,"cbbced":2306,"bfebbee":2307,"fbcfe":2308,"beecdd":2309,"bebcbed":2310,"eedcce":2311,"cbdece":2312,"cbdebe":2313,"cebbeee":2314,"bcfeee":2315,"beebbed":2316,"bceff":2317,"ceeced":2318,"bfcbbe":2319,"caef":2320,"fdbcd":2321,"cdebbee":2322,"cbebfe":2323,"cdefbb":2324,"cfbebb":2325,"fefbe":2326,"bebfce":2327,"cdbbde":2328,"cbcbcd":2329,"bebceee":2330,"cbbbfe":2331,"bbbebee":2332,"becbbbc":2333,"bcfcce":2334,"fecdd":2335,"bfedbc":2336,"bbefbc":2337,"cdbcbe":2338,"bebceed":2339,"bceecf":2340,"deced":2341,"cebbfd":2342,"bdbbcbb":2343,"ccbedd":2344,"bcebef":2345,"ffcbf":2346,"beeae":2347,"cbeebbbb":2348,"bdfbf":2349,"bebbfee":2350,"cbebebd":2351,"cfedf":2352,"cbcff":2353,"bebbfbb":2354,"bcccbe":2355,"febeee":2356,"ceecfe":2357,"cfcbf":2358,"bddbde":2359,"bebbbebe":2360,"cdbebd":2361,"bfbbbf":2362,"bfeebf":2363,"cfedbb":2364,"bbedbf":2365,"cabf":2366,"cdfdd":2367,"cebba":2368,"ceebfe":2369,"cbcbbbc":2370,"ceeeed":2371,"bfdbf":2372,"fdbde":2373,"cbbcbee":2374,"eeebeee":2375,"cbbbbcc":2376,"ccbbde":2377,"fbbcbd":2378,"bddbcd":2379,"bbdeef":2380,"aae":2381,"ceebcbe":2382,"bcbbbcbb":2383,"beebecc":2384,"ebbf":2385,"cdcef":2386,"cbbbcee":2387,"ccccbe":2388,"ddcde":2389,"ddfbc":2390,"bffce":2391,"cebcbed":2392,"bddeed":2393,"dedbbe":2394,"debecbb":2395,"bcfbbd":2396,"ccdcbc":2397,"cbeebf":2398,"ccebcd":2399,"beddbd":2400,"abca":2401,"beeebbf":2402,"befbfe":2403,"cfedee":2404,"cddfd":2405,"eeecde":2406,"cfebce":2407,"cbeff":2408,"cbfbbbb":2409,"ceeebbbb":2410,"bebbff":2411,"cbfbce":2412,"debbbf":2413,"ceeecbb":2414,"cebdde":2415,"ccebbce":2416,"cdcfe":2417,"cbecbd":2418,"cceecde":2419,"beebcce":2420,"bcbefd":2421,"cbcfee":2422,"bbbbdbe":2423,"aca":2424,"cbccbd":2425,"cbbefe":2426,"fbcbf":2427,"abbbd":2428,"bebebebe":2429,"dddcd":2430,"becebbd":2431,"cbceebb":2432,"bddbdd":2433,"bedbebb":2434,"becebf":2435,"febcbc":2436,"bacd":2437,"ceccde":2438,"cbfbee":2439,"bbebbbf":2440,"bedeebb":2441,"aedbb":2442,"cfced":2443,"fbbeebb":2444,"cbceebc":2445,"beeebbbd":2446,"debedd":2447,"bcbbbde":2448,"ceeecbe":2449,"fbdce":2450,"eedbbd":2451,"bcdff":2452,"beebbeee":2453,"ccbede":2454,"bbbbbbcbb":2455,"cbcede":2456,"bbbebce":2457,"dedfe":2458,"aebbe":2459,"bffdd":2460,"cdbdee":2461,"cfccd":2462,"cbcccd":2463,"bebeebd":2464,"cdbbbf":2465,"cfbcf":2466,"fdff":2467,"aeebb":2468,"eeeebd":2469,"cbefce":2470,"bdfde":2471,"fbbfee":2472,"cbabd":2473,"bddbed":2474,"bdedbe":2475,"bdefbc":2476,"cbfbbd":2477,"bebebcd":2478,"febecc":2479,"bebbcbd":2480,"eeecbd":2481,"cbbdbbbb":2482,"bbebdee":2483,"cfbfe":2484,"cefcbb":2485,"cebccbb":2486,"febbed":2487,"abcbb":2488,"cbfbbf":2489,"aedd":2490,"caebc":2491,"beeced":2492,"bbebdbb":2493,"becebce":2494,"beebcf":2495,"ceebcf":2496,"ceefbb":2497,"ebbbd":2498,"ecbe":2499,"cbeecf":2500,"cbbebbf":2501,"bebbbbbc":2502,"bbeebce":2503,"eeefbb":2504,"beebcbc":2505,"bebbbebc":2506,"aedee":2507,"beccbed":2508,"bfebbbc":2509,"bedfee":2510,"beefbc":2511,"bdebdd":2512,"beccbf":2513,"cddcbd":2514,"bbecebb":2515,"beeede":2516,"cbbdde":2517,"cceebf":2518,"cbbdbf":2519,"fbbff":2520,"eedfe":2521,"cade":2522,"cfccf":2523,"fdcde":2524,"aebee":2525,"cdbcce":2526,"cefcce":2527,"bebbbcbb":2528,"cbcdbe":2529,"beebbbbe":2530,"bebbbef":2531,"aede":2532,"bbedcbb":2533,"cdebbf":2534,"fefbc":2535,"bbdfbc":2536,"cbbecf":2537,"cdbdbb":2538,"cefbbe":2539,"eedbbbb":2540,"bcfcbc":2541,"dddbf":2542,"cbebbce":2543,"cbdcbd":2544,"beeecbc":2545,"ceecebb":2546,"bfefee":2547,"beebbcc":2548,"cefbce":2549,"baba":2550,"cdccee":2551,"febcee":2552,"bebddd":2553,"bbbbbbbbbc":2554,"bbdbef":2555,"ceeea":2556,"bbecfe":2557,"cddcf":2558,"ceeeee":2559,"bcbbfd":2560,"cbeccee":2561,"beddbc":2562,"bbdbbce":2563,"cfeebb":2564,"bedbebc":2565,"cadf":2566,"bebbbbf":2567,"ddced":2568,"cbbcbf":2569,"cbdfbc":2570,"fbbfbc":2571,"cbefbe":2572,"cddeee":2573,"ccfa":2574,"cfbbbe":2575,"cdeecce":2576,"ceebef":2577,"bbdbdd":2578,"cedcbbe":2579,"beeebbbe":2580,"eeedbd":2581,"cadd":2582,"beeeed":2583,"bdbebce":2584,"ffbfd":2585,"cffbe":2586,"cfdde":2587,"eeeebe":2588,"becdcc":2589,"cffbd":2590,"fdcbf":2591,"bfebde":2592,"cfbebc":2593,"ffcbd":2594,"cbbba":2595,"defde":2596,"cdebbbb":2597,"bbedcd":2598,"cdbbdd":2599,"fecbbe":2600,"ceebebe":2601,"cceced":2602,"bbdeebb":2603,"fdfee":2604,"bbebfd":2605,"cbbeeee":2606,"cbdedd":2607,"bbdbbbc":2608,"cbeea":2609,"cebcbbe":2610,"bbebbbee":2611,"bbdbbeee":2612,"cbcbbbe":2613,"cbcbcbc":2614,"afbe":2615,"cffcc":2616,"cebcdd":2617,"bbebbfe":2618,"bceccee":2619,"cfbef":2620,"bebbba":2621,"bfecbd":2622,"cbdede":2623,"bbcebf":2624,"bbeccee":2625,"ceefbc":2626,"cfecbd":2627,"defdd":2628,"bebccbe":2629,"bfdcbe":2630,"ccebbf":2631,"cbeebee":2632,"bbeecbb":2633,"bcdced":2634,"ccda":2635,"cebbeed":2636,"cecede":2637,"bcfbbbb":2638,"cdbcbc":2639,"bdfbce":2640,"fefcc":2641,"cdfbce":2642,"bdbecbb":2643,"dedced":2644,"cdbbcc":2645,"beeebbbc":2646,"bbecbbd":2647,"ccbdcc":2648,"bdfa":2649,"cebedd":2650,"ccebbbe":2651,"fdbbbc":2652,"bbedbce":2653,"beefbe":2654,"ebbbe":2655,"bbbdbf":2656,"fbbbef":2657,"bbeedd":2658,"dedcde":2659,"eeedce":2660,"becceed":2661,"fedbf":2662,"adde":2663,"bbdeebd":2664,"cffce":2665,"cbeccd":2666,"bbdff":2667,"eeda":2668,"ccebebb":2669,"bddcbd":2670,"bbeccd":2671,"aecbb":2672,"cbebcbe":2673,"bbbdde":2674,"bdbedd":2675,"cefcee":2676,"cbeebde":2677,"debbbce":2678,"fedcd":2679,"ccedcee":2680,"cfbcee":2681,"ebbbc":2682,"bbebece":2683,"cfbfd":2684,"ceda":2685,"bafd":2686,"abda":2687,"ecee":2688,"cbfcbc":2689,"beeebef":2690,"feccf":2691,"fbebbd":2692,"ccecbbe":2693,"cedbebe":2694,"cbedcee":2695,"fdcfe":2696,"eedcbd":2697,"cebceee":2698,"beeccee":2699,"ceeedd":2700,"ceeede":2701,"cdfde":2702,"cfcbee":2703,"cbbeecc":2704,"debbbbe":2705,"ceeedbb":2706,"cdbbed":2707,"bebbbfe":2708,"befcde":2709,"cbebeee":2710,"fbbbde":2711,"ceccbf":2712,"bcebebe":2713,"ccebdee":2714,"bbebbed":2715,"cbbbdd":2716,"ccecbd":2717,"cfedcc":2718,"bbbebde":2719,"bebdbf":2720,"ccbbbf":2721,"cbccccc":2722,"bfecee":2723,"ffff":2724,"becbbbd":2725,"cbdbebb":2726,"bebcebd":2727,"cedeed":2728,"bcebdd":2729,"bfebcd":2730,"abdd":2731,"cbecfe":2732,"ccecdee":2733,"beebeed":2734,"bccede":2735,"bbfcbb":2736,"fdfbc":2737,"bcebcbb":2738,"ceebcbc":2739,"bfebeee":2740,"cdedbe":2741,"bfefbb":2742,"cdbecc":2743,"ceebcbb":2744,"dedbbbb":2745,"bcecdee":2746,"cbbea":2747,"bccecbc":2748,"dddfe":2749,"beebfbb":2750,"bebbece":2751,"bbbbbbbf":2752,"beecebc":2753,"cbbbbde":2754,"bebcbebc":2755,"aea":2756,"debbbee":2757,"cfedbd":2758,"ebcbb":2759,"cdebcee":2760,"cbfece":2761,"ccbecd":2762,"bdbdcc":2763,"ccedcbe":2764,"cddbbe":2765,"bbbceee":2766,"debbfe":2767,"bdebbce":2768,"ceecbee":2769,"ccebebe":2770,"fbbced":2771,"cffee":2772,"ceeccee":2773,"fbbba":2774,"bcbcbbe":2775,"defcd":2776,"beabc":2777,"cbefbc":2778,"fdbef":2779,"bececbc":2780,"cefcde":2781,"ceedcd":2782,"fffef":2783,"ccdced":2784,"cbebebc":2785,"bedbfe":2786,"cbebbcc":2787,"bbdcce":2788,"bbbcbf":2789,"bcbbeebb":2790,"bdfcd":2791,"ddcdd":2792,"bedbcd":2793,"cebecce":2794,"bcbbcce":2795,"cbdebf":2796,"cbbceee":2797,"becede":2798,"cbeedf":2799,"bbebcf":2800,"bbbea":2801,"bbdeecc":2802,"ceeeecc":2803,"ffbcd":2804,"eedeee":2805,"cfea":2806,"bdbbfe":2807,"cbbcbbe":2808,"bbbbbcd":2809,"babbbd":2810,"bfedbd":2811,"ba</w>":2812,"bddff":2813,"bbbebebb":2814,"bacf":2815,"ebdbe":2816,"ceeded":2817,"cbeecde":2818,"cbdced":2819,"bbecebc":2820,"cdbdf":2821,"febbbee":2822,"bbbbbde":2823,"bddbbf":2824,"febbde":2825,"bfedcc":2826,"bbdbebb":2827,"bebecde":2828,"bcbbeed":2829,"cbebcbc":2830,"cbebdee":2831,"bfbbbbe":2832,"abbce":2833,"bedcbf":2834,"bbdced":2835,"bbeede":2836,"bceefe":2837,"cfbcbe":2838,"bedcbbe":2839,"bbeebf":2840,"bcfbebd":2841,"eeebbbd":2842,"eded":2843,"ceebbcc":2844,"cbeeece":2845,"bbbbeed":2846,"bcebcf":2847,"fbedd":2848,"abdbf":2849,"bebbbcd":2850,"eced":2851,"cbcbebe":2852,"bcebcbe":2853,"ccdcde":2854,"cfccee":2855,"bececbe":2856,"cebccf":2857,"babbf":2858,"fbbbebc":2859,"bececbb":2860,"cccedd":2861,"bbebbcbe":2862,"bebebef":2863,"cefcbc":2864,"bbedbbd":2865,"ceeebf":2866,"bbebbbebb":2867,"cbddce":2868,"bbebcbc":2869,"bfeff":2870,"cbeecee":2871,"bbbecd":2872,"bcebbde":2873,"fbbbcd":2874,"beeebcd":2875,"fdcebc":2876,"bbbefe":2877,"cfbcbc":2878,"bacbc":2879,"cbbbcbc":2880,"cbedcbe":2881,"beeeecc":2882,"cfecde":2883,"ccdcce":2884,"cbbecee":2885,"bcfbde":2886,"bbbbdce":2887,"bfebebb":2888,"cdfbf":2889,"bbebebbbb":2890,"bbdfbd":2891,"bedded":2892,"bedcebc":2893,"cbcebce":2894,"fdbebb":2895,"bdbbbee":2896,"afbc":2897,"becebde":2898,"ecde":2899,"bbeebee":2900,"fbbbbebd":2901,"cddcbe":2902,"eeeba":2903,"defbf":2904,"cbbbdee":2905,"bcfbee":2906,"bbdbcd":2907,"bdbbbed":2908,"cebebbbb":2909,"cbddcc":2910,"bcbbff":2911,"becebbf":2912,"bbdfbe":2913,"bbbdbbbb":2914,"debceed":2915,"ddbebc":2916,"bcedcee":2917,"bedcbbd":2918,"eeebbce":2919,"cdceee":2920,"ccffe":2921,"baebd":2922,"bcfcee":2923,"beebbbf":2924,"debcbf":2925,"cecdcc":2926,"cdcdcc":2927,"cedff":2928,"beeebce":2929,"cceccd":2930,"bedcebb":2931,"adbf":2932,"bffbf":2933,"bcccdd":2934,"bedbcce":2935,"bbdcde":2936,"bfdbee":2937,"feae":2938,"cbeecfe":2939,"cbbbeee":2940,"eeebcd":2941,"ebcbc":2942,"bbebebbe":2943,"ceeedee":2944,"cbcedee":2945,"ebebd":2946,"cfcbbe":2947,"cfbdf":2948,"bdeff":2949,"ddfdd":2950,"cbefee":2951,"eeebebe":2952,"cbbcef":2953,"bceced":2954,"ceeecbc":2955,"bfeebe":2956,"cdcdee":2957,"cbbded":2958,"bddeebb":2959,"bceecce":2960,"eeebef":2961,"fbbcebb":2962,"febcce":2963,"bbeebbbb":2964,"abdbb":2965,"bedfbc":2966,"bddfbc":2967,"abcbe":2968,"cbbddd":2969,"cbfeed":2970,"cdbeed":2971,"ddbbbc":2972,"becefd":2973,"fecebb":2974,"cdccf":2975,"bfdbff":2976,"fecebc":2977,"cbfbde":2978,"baecc":2979,"cbfdbc":2980,"cbcebbe":2981,"cbfdbd":2982,"bcefbe":2983,"bedbbbe":2984,"cbdbbbc":2985,"debcbe":2986,"cfbcce":2987,"bebebde":2988,"bfbbcbc":2989,"cfedbc":2990,"debdbb":2991,"bbbbdcc":2992,"fecef":2993,"cbdcde":2994,"beebebbe":2995,"feebf":2996,"bceebbd":2997,"cbcbef":2998,"bdeedd":2999,"debbcee":3000,"beecbed":3001,"bfdbed":3002,"cbcded":3003,"cbbdbbe":3004,"cabbe":3005,"cbbccd":3006,"beedbf":3007,"bfbdcc":3008,"fdcef":3009,"cbdeebc":3010,"bcdfbe":3011,"bceebbbb":3012,"bbebbdd":3013,"cbdeebb":3014,"abebe":3015,"cdcebb":3016,"fbbeeee":3017,"cbccebe":3018,"bfdcf":3019,"beddce":3020,"feddd":3021,"bceecee":3022,"ffbde":3023,"bedece":3024,"cbceebd":3025,"cbebcce":3026,"cbdbebe":3027,"bcdeecc":3028,"cbdfee":3029,"cedbbf":3030,"ffeebb":3031,"cdbede":3032,"bbbbbbbbf":3033,"bbbbfce":3034,"cebdbf":3035,"beefcc":3036,"cddbbd":3037,"cbbbbcbb":3038,"cfbebe":3039,"bbbecce":3040,"becfbd":3041,"cbccde":3042,"bfebed":3043,"cdeecd":3044,"bddcce":3045,"cbeedbc":3046,"bebbbebd":3047,"bbcebbe":3048,"cbbedbe":3049,"bebbbeee":3050,"ffcde":3051,"cddeed":3052,"bfdbbd":3053,"ccbbeee":3054,"cbebbde":3055,"cbffbb":3056,"bcbdde":3057,"bcebcce":3058,"bceecde":3059,"cdeecbe":3060,"bbccbf":3061,"bcefee":3062,"cbdbfe":3063,"cebbced":3064,"bcdeeee":3065,"bbecbed":3066,"beeebeeee":3067,"bbfbde":3068,"becceee":3069,"ecbc":3070,"cdcebc":3071,"cceecf":3072,"abef":3073,"ceecbed":3074,"bfbbcbb":3075,"cbffcc":3076,"bcbecbe":3077,"bfedce":3078,"cebebbd":3079,"bbebeed":3080,"cbcbbbd":3081,"ccebbbc":3082,"fdccd":3083,"babce":3084,"cedcdd":3085,"cefbde":3086,"beecbce":3087,"cfebde":3088,"bcfeed":3089,"ceebcce":3090,"bcdeebb":3091,"cceded":3092,"ccccde":3093,"cceebde":3094,"debbcbe":3095,"fdbdd":3096,"cdbdcc":3097,"debbcbb":3098,"bcdbebe":3099,"bcbcbf":3100,"fbbbebe":3101,"ceccfe":3102,"cebecbe":3103,"abeee":3104,"debede":3105,"debebbd":3106,"bddfbe":3107,"bbebbcd":3108,"ceeeebd":3109,"ccfcee":3110,"cbbeebe":3111,"beeeebe":3112,"bedbebe":3113,"cfebbf":3114,"bceebde":3115,"cdfcd":3116,"ccbebce":3117,"cbdeeee":3118,"cfedce":3119,"bbcede":3120,"beedcee":3121,"bfdcbc":3122,"cbbfce":3123,"cbedbf":3124,"cbeecbc":3125,"fbbbfe":3126,"bbedeee":3127,"bdbbbde":3128,"cbbbebd":3129,"bbedbbbb":3130,"ccfbbe":3131,"bcbebee":3132,"ceebebd":3133,"fbbbcbb":3134,"cddbdd":3135,"becebee":3136,"cbceebe":3137,"cbefcc":3138,"fffee":3139,"defcce":3140,"bcdcce":3141,"fbbcde":3142,"cedcfe":3143,"eedfed":3144,"caa":3145,"cebecd":3146,"cccccccccc":3147,"eedbbf":3148,"beeecbd":3149,"cbbebef":3150,"becbebd":3151,"ddbbee":3152,"bbbbdbbe":3153,"cebebee":3154,"cbbbcf":3155,"ddbbbe":3156,"fbbcef":3157,"eedcde":3158,"cebcbce":3159,"accd":3160,"bbecbce":3161,"bbecebd":3162,"cbdbebc":3163,"cbbfbe":3164,"bcbceee":3165,"febbfe":3166,"bbbbbbbbbd":3167,"bedeecc":3168,"bfdcee":3169,"cbceece":3170,"beeccbb":3171,"bdbbbce":3172,"cfbcbb":3173,"cbbecde":3174,"deded":3175,"cbcbeee":3176,"bcbefe":3177,"bedbcbb":3178,"cbbeece":3179,"bebeebe":3180,"bbbbfd":3181,"bcdceee":3182,"fbbcbed":3183,"ffccd":3184,"bdeecd":3185,"cbecced":3186,"cedded":3187,"cbbebbee":3188,"cccccd":3189,"bcbecf":3190,"ccecfe":3191,"babbbc":3192,"cefbbd":3193,"cbbbbbbbb":3194,"ccfeee":3195,"beedbbe":3196,"cbbcfe":3197,"bdebcbb":3198,"cbcfbc":3199,"fbbcbf":3200,"bcbebbbb":3201,"debcfe":3202,"bfefd":3203,"bcbebce":3204,"bbbbdbbbb":3205,"bfbbce":3206,"beeefee":3207,"beedcd":3208,"bacbe":3209,"cedcbf":3210,"bcbecd":3211,"cbbbbbbe":3212,"beebdee":3213,"ebdf":3214,"bedcfe":3215,"cafe":3216,"babebb":3217,"cbccfe":3218,"bbdcbf":3219,"bcbbfbc":3220,"bebeecc":3221,"bffde":3222,"febdcc":3223,"afbd":3224,"acbee":3225,"beeccf":3226,"bbfbce":3227,"cbdbcd":3228,"bedbef":3229,"bbeae":3230,"bddcde":3231,"bcbdbf":3232,"beecdee":3233,"fecccc":3234,"bedbbbd":3235,"bdbecee":3236,"debbcf":3237,"bfeccd":3238,"bcecbf":3239,"fdbebe":3240,"cbbebde":3241,"cebbcbd":3242,"cbceecc":3243,"cbcceee":3244,"bbebbebb":3245,"bedcbee":3246,"fcecd":3247,"bbdbfe":3248,"ceebbce":3249,"cebbfebb":3250,"befecc":3251,"eece":3252,"bbeccbe":3253,"cebbbebb":3254,"bddbbbd":3255,"ceedcf":3256,"bbbbbebd":3257,"ccefbc":3258,"bbdbebc":3259,"bbdbcbb":3260,"bdfcbe":3261,"fecbed":3262,"ccdccd":3263,"feccbb":3264,"bbdbebe":3265,"fdfcc":3266,"fbbfbe":3267,"bbbeff":3268,"debbcd":3269,"cbcecd":3270,"ccebcce":3271,"debebee":3272,"bbfcd":3273,"bcbecbb":3274,"bbefce":3275,"cdbbbed":3276,"bebebcbb":3277,"febba":3278,"cebbbde":3279,"bcefbf":3280,"bbebcce":3281,"bceecbc":3282,"bcebbbd":3283,"fdbbee":3284,"bbdded":3285,"bfda":3286,"bcdfee":3287,"fbbeef":3288,"cebddd":3289,"ceeccf":3290,"cbfbbee":3291,"cdeede":3292,"cbbbbbf":3293,"cceecbb":3294,"cfbbcc":3295,"bbfcbe":3296,"bfbbde":3297,"beebebd":3298,"bbebebee":3299,"bddbbee":3300,"cfded":3301,"cbccbbe":3302,"ccebcf":3303,"bedcef":3304,"fbbded":3305,"cfbebd":3306,"cbbdeee":3307,"ccdcbd":3308,"bfdbce":3309,"ebebb":3310,"cddcbb":3311,"bdeecbb":3312,"defbce":3313,"bdfbbe":3314,"bebbbbbd":3315,"befbcd":3316,"cdbedd":3317,"fdeecc":3318,"beeded":3319,"bdeede":3320,"cfbbbd":3321,"ccebfe":3322,"beeedf":3323,"bdefbe":3324,"cbcecbe":3325,"cbcbbce":3326,"bdefcc":3327,"bbeecd":3328,"cebccbe":3329,"bbbbbebf":3330,"eeeff":3331,"bdeebf":3332,"beedcbb":3333,"debecbf":3334,"cbabe":3335,"ddded":3336,"cceddd":3337,"ceecdd":3338,"cecceed":3339,"cfad":3340,"ceebbbd":3341,"cbeebebd":3342,"ccfcde":3343,"bedbdd":3344,"ccfcbe":3345,"bdbebbe":3346,"debdbef":3347,"eeebde":3348,"bebbcde":3349,"bbfa":3350,"bedbebd":3351,"bbbbcbd":3352,"bcdcbf":3353,"bcdeef":3354,"cedbfe":3355,"beebbbfe":3356,"cfdbf":3357,"ddeecd":3358,"beefbd":3359,"febbbf":3360,"ccefce":3361,"abcee":3362,"ccecbf":3363,"beeedee":3364,"cbebbbd":3365,"cedbbce":3366,"cebbcde":3367,"bbebdcc":3368,"cefbbbb":3369,"deccd":3370,"cbecbf":3371,"bcbcfe":3372,"befebd":3373,"bbebbbce":3374,"ceecbbe":3375,"cfcfe":3376,"bfebbbe":3377,"cebcced":3378,"cdeedd":3379,"bfeece":3380,"bbebbbbbb":3381,"ffbed":3382,"bcdbdd":3383,"bebefd":3384,"ceedbed":3385,"defbbd":3386,"bbffe":3387,"beedbed":3388,"bdbbcd":3389,"abbcc":3390,"babde":3391,"bceecbd":3392,"ceeebbe":3393,"aced":3394,"ebccc":3395,"cbdebee":3396,"ccebdd":3397,"ddeedd":3398,"bbedbde":3399,"bbdbcee":3400,"fbbbcf":3401,"ccfbce":3402,"bdfeee":3403,"bdbecd":3404,"cdffd":3405,"bfebcbb":3406,"beeebeee":3407,"ccedcde":3408,"fbdde":3409,"cbeded":3410,"ddbbde":3411,"babbee":3412,"bcedbf":3413,"debdbf":3414,"bccebf":3415,"aedf":3416,"ceeddd":3417,"becfcc":3418,"bdbebbbb":3419,"cbbedbc":3420,"bddfcc":3421,"ceeebbbc":3422,"ebef":3423,"cbebcf":3424,"ccfcce":3425,"cebebbe":3426,"cceebbbb":3427,"ccdeeee":3428,"bfdbbe":3429,"cbccbf":3430,"bfdfe":3431,"cbcbbcc":3432,"bebbcbbe":3433,"ccdbbbb":3434,"cfcebc":3435,"bebbfbe":3436,"cbedbee":3437,"bfbbeee":3438,"bcdeece":3439,"cbccef":3440,"debdde":3441,"beebbcbb":3442,"bfeeee":3443,"ebcf":3444,"cdebbbe":3445,"ffbef":3446,"cbcdde":3447,"febebd":3448,"ccedbee":3449,"ccbbcbb":3450,"bdedde":3451,"debcbcd":3452,"bbbbbebc":3453,"cbebef":3454,"deda":3455,"cebbbcbb":3456,"debccf":3457,"bbebecc":3458,"fdfbe":3459,"cddcee":3460,"cbedeee":3461,"bbdeece":3462,"bbdfee":3463,"beabd":3464,"ddbebb":3465,"cbedcf":3466,"febdee":3467,"cbdcfe":3468,"cdcfd":3469,"cebbbcee":3470,"bedbcf":3471,"fedbee":3472,"ccbba":3473,"ccebdce":3474,"eedbce":3475,"febbeee":3476,"ffbfe":3477,"beebdecdbd":3478,"bbbbba":3479,"ceeebce":3480,"fedfe":3481,"bcbebde":3482,"bbebba":3483,"ceecdf":3484,"bebeba":3485,"bebcece":3486,"beecebe":3487,"aecd":3488,"bebbdbc":3489,"cedbbee":3490,"beccdd":3491,"febeed":3492,"cbeebbd":3493,"baebe":3494,"bebcecc":3495,"cddbee":3496,"defcbc":3497,"eeedbe":3498,"bcebffbbbee":3499,"cbbfbd":3500,"bcedbce":3501,"ebcee":3502,"fbcdd":3503,"bbbbbbbbbbbbbb":3504,"bbccde":3505,"bfbbdd":3506,"cdedde":3507,"bbebcbf":3508,"fedcbc":3509,"bcedcbe":3510,"bdbbcbe":3511,"cebbff":3512,"cbdbdd":3513,"bdfbbd":3514,"cdeebf":3515,"debecd":3516,"bbeccbb":3517,"fdcbee":3518,"cbcebee":3519,"bffbbd":3520,"becbbce":3521,"bbedbbee":3522,"bbbcbee":3523,"baece":3524,"beddbe":3525,"bebecbd":3526,"defcbe":3527,"ceeba":3528,"debbcce":3529,"bedfbe":3530,"debbeee":3531,"ccdbcd":3532,"bebfbf":3533,"cbeeeebb":3534,"ccfcbb":3535,"bcedbbe":3536,"debceee":3537,"cecedd":3538,"ccdff":3539,"cbeebbf":3540,"beebbbee":3541,"eedbcd":3542,"cbfebe":3543,"fefbd":3544,"becebbbb":3545,"acba":3546,"cdbbeee":3547,"bdefbb":3548,"bebcfee":3549,"bbefbd":3550,"cbdded":3551,"bbbecf":3552,"bcdfbb":3553,"bcbbbebe":3554,"ccbbcf":3555,"bfeebfbcebffbbbee":3556,"febfd":3557,"becccf":3558,"bebbfbd":3559,"beeebebe":3560,"bcefcc":3561,"beedbee":3562,"ddbbdd":3563,"bceccf":3564,"beebbde":3565,"cbddbe":3566,"cffdd":3567,"becbbcc":3568,"becbecc":3569,"cdcccc":3570,"cbdbef":3571,"cbcfcc":3572,"aecf":3573,"feede":3574,"cbbbbbebb":3575,"cdebbce":3576,"cdda":3577,"bbdbebd":3578,"cdeccd":3579,"cadbb":3580,"bcebcbc":3581,"adcd":3582,"beeedbc":3583,"bebebebd":3584,"bbeded":3585,"cbbebbbe":3586,"debbbed":3587,"fdeebd":3588,"ceeedbc":3589,"cbeba":3590,"cbffee":3591,"adca":3592,"bcbecee":3593,"bfbcf":3594,"beecebb":3595,"bfbbfe":3596,"bbefcc":3597,"eedded":3598,"cbeebbbd":3599,"cbedcbb":3600,"bcebfd":3601,"bfebdd":3602,"bbeebbee":3603,"febbcbb":3604,"beeeeeee":3605,"cbfdce":3606,"bbfbbd":3607,"bdebcf":3608,"bdebbcc":3609,"bcdded":3610,"ffeeee":3611,"aecbe":3612,"cbedcd":3613,"fbbeebd":3614,"bceba":3615,"fdfbb":3616,"bebcced":3617,"aeeee":3618,"ca</w>":3619,"adba":3620,"bcdede":3621,"ccecdd":3622,"ceeecf":3623,"ada":3624,"bbbbbbbbd":3625,"cfefe":3626,"bbebbbbd":3627,"bfdcbb":3628,"cdfcbb":3629,"beeebebb":3630,"bbecef":3631,"cfebbee":3632,"cebccd":3633,"fecbce":3634,"cfecee":3635,"bebcbebe":3636,"cbf</w>":3637,"cbcbcf":3638,"bcbbcbd":3639,"bcbea":3640,"eebbeee":3641,"cbecebb":3642,"beddcc":3643,"febcbd":3644,"bceccd":3645,"bceebbf":3646,"ceeebbd":3647,"cecccd":3648,"fffefbfbeed":3649,"cbeccbe":3650,"feedd":3651,"bebbbebbbb":3652,"bfccd":3653,"bebbbbed":3654,"ccfbde":3655,"becbbbe":3656,"bebbdbd":3657,"cbeedce":3658,"bcdfce":3659,"bbbcbbd":3660,"bbedbbf":3661,"deddce":3662,"bebcbde":3663,"becea":3664,"beeecce":3665,"cddcdd":3666,"bdfcf":3667,"bebfeee":3668,"bbbbbbce":3669,"bebbccd":3670,"cbeebcf":3671,"cfefd":3672,"bfdeee":3673,"ceedbbe":3674,"bfded":3675,"cbedbbe":3676,"bcebebd":3677,"bfefbe":3678,"cdbecee":3679,"cbbedce":3680,"beccebd":3681,"bdecdbd":3682,"ccfcbc":3683,"ccccdd":3684,"cbacc":3685,"bcebdee":3686,"bcefce":3687,"bbbbbdbb":3688,"cedbef":3689,"bddfbb":3690,"bbbdbbbd":3691,"cdcedd":3692,"bebbbebbe":3693,"bebccbc":3694,"cacbc":3695,"cebecf":3696,"bdbecce":3697,"cadee":3698,"beecef":3699,"ceebdf":3700,"bdeccee":3701,"cbfeee":3702,"bcccfe":3703,"ceddce":3704,"cbdbdee":3705,"cdeff":3706,"cbcecf":3707,"cdeccee":3708,"beeefbb":3709,"defa":3710,"bebcfd":3711,"beedcbe":3712,"aeecc":3713,"bcbcbcbcbcbcbcbc":3714,"ccebcbb":3715,"cdecbee":3716,"cbddde":3717,"bedbbce":3718,"bebca":3719,"bfebfe":3720,"fedcbb":3721,"cccede":3722,"bdeced":3723,"cfdcd":3724,"cbffbc":3725,"bbbbeebd":3726,"cedbbbe":3727,"cddcbc":3728,"cbfcbd":3729,"cbbebbce":3730,"bebbbcee":3731,"aeba":3732,"bfdcbd":3733,"ceecced":3734,"bbbccbb":3735,"beebbebb":3736,"dddeee":3737,"bdfcbb":3738,"cfeece":3739,"beecbbd":3740,"feca":3741,"cfba":3742,"cfbbbf":3743,"bbbbcce":3744,"cdddbd":3745,"bcdbbbe":3746,"cccccce":3747,"fffefbfbeedbebcde":3748,"bcecbde":3749,"bedbcee":3750,"bedeebc":3751,"debcce":3752,"bfbbeed":3753,"bbefbf":3754,"cefbee":3755,"bececce":3756,"beebccbe":3757,"bbdcbbe":3758,"ccdfbe":3759,"bbffd":3760,"ceccdd":3761,"bcbecbc":3762,"bcefbd":3763,"bfdfbb":3764,"aebbbb":3765,"febebbe":3766,"befcbd":3767,"cdcbce":3768,"bcebbed":3769,"dedeee":3770,"bebdeee":3771,"cbbebbbc":3772,"bdbbeed":3773,"cbbbbeee":3774,"ccdedd":3775,"ebcde":3776,"bebbeef":3777,"cbfbbbc":3778,"cbcedbb":3779,"cdcebe":3780,"bebccbd":3781,"cdeebde":3782,"bcdbcee":3783,"debcdd":3784,"cbebdd":3785,"ceeecee":3786,"dddddd":3787,"cdeeebc":3788,"bcebbcc":3789,"beccbbe":3790,"bfedbe":3791,"bfbebbbb":3792,"beebdcc":3793,"aeebd":3794,"ebbce":3795,"bbfcce":3796,"ddda":3797,"cdeebbe":3798,"bdcede":3799,"ebced":3800,"cedfbc":3801,"ffbcf":3802,"bebceebb":3803,"bcebbdd":3804,"bfbedd":3805,"fefce":3806,"cbeedbd":3807,"bcdeebd":3808,"bbedeebb":3809,"fecbbd":3810,"ceecef":3811,"bcbbcde":3812,"beedeee":3813,"cfebbbb":3814,"dddbee":3815,"acda":3816,"bcecbce":3817,"bcbcbee":3818,"decceed":3819,"cdbccc":3820,"bcbcbbbb":3821,"afce":3822,"ebded":3823,"cbdfbe":3824,"bbeda":3825,"cdbbcee":3826,"debbcc":3827,"febdbb":3828,"bcbbced":3829,"bdebbbd":3830,"cbdbbbe":3831,"ccdfbb":3832,"bbfcee":3833,"bfcef":3834,"cdefce":3835,"bdebfe":3836,"defcf":3837,"ebebe":3838,"bbbbbbdbb":3839,"bcdbbbd":3840,"ffbcbb":3841,"cbcbebd":3842,"defcbb":3843,"bebbeeebb":3844,"cbfced":3845,"bbeefe":3846,"cebbbebe":3847,"ccfbbd":3848,"bdbbcf":3849,"bdbebee":3850,"cbecef":3851,"cbfeebb":3852,"ddfbf":3853,"ceddbd":3854,"abbbf":3855,"bdebcce":3856,"beeecf":3857,"feecbb":3858,"ebdee":3859,"bcbecce":3860,"ccbbfd":3861,"ebede":3862,"eebd":3863,"cdcbbd":3864,"bcebece":3865,"cbcfbb":3866,"cbbefd":3867,"ecce":3868,"cdcecc":3869,"bdbefe":3870,"cdbbeed":3871,"becbcbd":3872,"bedcdd":3873,"befcfe":3874,"cbcecce":3875,"abebd":3876,"cbecebc":3877,"bebbfbc":3878,"bddfbd":3879,"bbedced":3880,"debcf":3881,"bcdbbbc":3882,"bcbcbbd":3883,"beedbbd":3884,"bbebbbcbb":3885,"beeedbd":3886,"bbeceee":3887,"bedeef":3888,"bcedbee":3889,"bcbceed":3890,"cbedbce":3891,"becccbb":3892,"bdeba":3893,"bbefdd":3894,"bbbbfbc":3895,"bebbbdbb":3896,"ccedcce":3897,"bdeca":3898,"bddeebc":3899,"abcf":3900,"bcdbece":3901,"bfcbee":3902,"cfcdd":3903,"cbcbcbb":3904,"dedcbd":3905,"bfdbcd":3906,"bcebdde":3907,"bbbbbef":3908,"bdeccd":3909,"bfebebe":3910,"babbbe":3911,"baeebb":3912,"cbedcce":3913,"ceedced":3914,"cbecbce":3915,"bebbced":3916,"fbbbcee":3917,"bfbcdd":3918,"bfbcbf":3919,"bbcebbd":3920,"fbbbeee":3921,"cdfbbd":3922,"ceecebc":3923,"cbcfed":3924,"bebbeeee":3925,"cefbcbb":3926,"cccceee":3927,"febebf":3928,"bdecbbe":3929,"fedef":3930,"bedbfd":3931,"fedcbbbc":3932,"bbbbdbf":3933,"bdbebbd":3934,"fecced":3935,"ceecdee":3936,"cbdceee":3937,"bbfeee":3938,"cbcbdd":3939,"bdeea":3940,"fefbf":3941,"bbbbcbbe":3942,"cfebcd":3943,"cfdcf":3944,"bbebbbebe":3945,"cdebebe":3946,"ceffed":3947,"bebdcbb":3948,"abcbd":3949,"feccbe":3950,"ffeed":3951,"bcecef":3952,"cdefbc":3953,"bfdbbbb":3954,"fdbcf":3955,"ccdfbc":3956,"aecce":3957,"cebcded":3958,"cebecee":3959,"badbc":3960,"cbbfcc":3961,"bedcecc":3962,"cbeebbee":3963,"cfebfe":3964,"cececd":3965,"bcdbef":3966,"bbbbbbcc":3967,"bdebebe":3968,"bdefbd":3969,"bcdedd":3970,"cbcedf":3971,"ccefbe":3972,"cdebcf":3973,"ccdeebb":3974,"cbbebcce":3975,"feccee":3976,"ebbcc":3977,"ccedbce":3978,"beebccc":3979,"cbbbbbbbbbb":3980,"debbcbbe":3981,"debddd":3982,"bdbcdd":3983,"beeedcc":3984,"bbecdd":3985,"cbebebf":3986,"cbdfbb":3987,"bbebdde":3988,"bbbbcebb":3989,"cebebed":3990,"ceebced":3991,"fdcdd":3992,"ccbbbee":3993,"febdf":3994,"bcdbebc":3995,"ccbbbce":3996,"beeeba":3997,"bbedeed":3998,"cbcecbb":3999,"bfcecbc":4000,"eeefd":4001,"fffbb":4002,"ceeedcc":4003,"ebebc":4004,"feceed":4005,"deddbd":4006,"cbcefd":4007,"ccfeed":4008,"bbebbbebc":4009,"bcdbebb":4010,"bebceebc":4011,"cecebf":4012,"cdbcdd":4013,"cedcef":4014,"cbbdbee":4015,"bdeebbe":4016,"debecbe":4017,"bcecebb":4018,"bcdcbee":4019,"cfebee":4020,"bbbecbc":4021,"deccde":4022,"ccebebc":4023,"bcbbfee":4024,"bbdbbcc":4025,"bebbbcbd":4026,"cacd":4027,"cedbcce":4028,"ccedcd":4029,"ecbd":4030,"ccefee":4031,"cbbbdf":4032,"ccebef":4033,"fdbbbd":4034,"bcebbbf":4035,"cbeedcc":4036,"cdddcc":4037,"afcc":4038,"bbbbbdd":4039,"bacee":4040,"bddced":4041,"bfdeed":4042,"bdbbfbb":4043,"bebbede":4044,"bceded":4045,"bbbbfbe":4046,"ccbddd":4047,"bcecdf":4048,"cbfbbbe":4049,"cbbebebb":4050,"bcbccf":4051,"bcbddd":4052,"bdeebbd":4053,"beebbced":4054,"febbdd":4055,"cbdedee":4056,"ceefcc":4057,"fdcebb":4058,"cbdbeee":4059,"bfebcf":4060,"cbfccf":4061,"bfeebfbcebffbbbeebceebbe":4062,"ccebbbd":4063,"bceebbee":4064,"cdcdcdcd":4065,"ccebebd":4066,"bcdeebc":4067,"ceeebee":4068,"bbcedd":4069,"ccbdde":4070,"bfbdbf":4071,"bedcdf":4072,"bedfcc":4073,"cdecebb":4074,"cedbdd":4075,"cbdecbe":4076,"cceccbe":4077,"cfebbd":4078,"bdbea":4079,"cbfdcc":4080,"ccbbff":4081,"febced":4082,"bfebbbd":4083,"dedbde":4084,"bbebbcee":4085,"ccbbcbe":4086,"bbbbfee":4087,"cbeeebe":4088,"baeed":4089,"bceeeebb":4090,"ebecc":4091,"bcebecc":4092,"bcbbbef":4093,"befebe":4094,"cbbcebc":4095,"bedbeed":4096,"debbcbc":4097,"bebbbdbd":4098,"cddcde":4099,"beebced":4100,"aebbce":4101,"cbadbb":4102,"bebefbb":4103,"fefde":4104,"bbebebf":4105,"cffed":4106,"fdbbce":4107,"bbedcbc":4108,"beebdbcebd":4109,"cbbebbbd":4110,"bedfed":4111,"bcbecbee":4112,"eebbbee":4113,"bbbbeebe":4114,"cedbebc":4115,"bdbbcee":4116,"debebbbb":4117,"cbbbbdd":4118,"abfa":4119,"bedceee":4120,"bafbb":4121,"baff":4122,"bbecece":4123,"bbebbbde":4124,"beccecc":4125,"bfbbcc":4126,"bbeddd":4127,"cceebbd":4128,"cebcbbd":4129,"ccedcf":4130,"ebdde":4131,"bebbbdd":4132,"ccefbb":4133,"cbcfbe":4134,"cbfcde":4135,"bcbebebb":4136,"cfdbcd":4137,"cbecdd":4138,"cbfbebb":4139,"bddbbce":4140,"cfeeee":4141,"fbbfcc":4142,"aebce":4143,"beedcbc":4144,"cccccbb":4145,"ceedbf":4146,"ccbbcee":4147,"bbbbff":4148,"adcf":4149,"bbbbbbdd":4150,"bdcebf":4151,"cbbedbd":4152,"bddbbbe":4153,"cabee":4154,"debccbe":4155,"bebebeee":4156,"befeebb":4157,"cfeccd":4158,"bebcbfe":4159,"cceebbf":4160,"fedcce":4161,"ceedcbb":4162,"bbedebb":4163,"bedbece":4164,"cdeced":4165,"bdfbee":4166,"bceeeeee":4167,"caebd":4168,"ebece":4169,"bdeecf":4170,"cfdcbb":4171,"cbeefe":4172,"bcbccbb":4173,"cdbbbce":4174,"cdbebce":4175,"cbefcbe":4176,"bbdbbdd":4177,"eeeced":4178,"ceeecce":4179,"febbbbe":4180,"bedfbd":4181,"bebdcee":4182,"cccccbc":4183,"fdeebb":4184,"bceebebc":4185,"ddeebe":4186,"bdbdde":4187,"beebcdd":4188,"cbeddd":4189,"bdefce":4190,"cedcbee":4191,"cdfbbe":4192,"bbebecbee":4193,"bebbbbbe":4194,"cedeebb":4195,"cbcdbf":4196,"bbccfe":4197,"beebbcbe":4198,"cbbbdcc":4199,"cbdbeed":4200,"feebfee":4201,"bbedcce":4202,"cebebce":4203,"ddfde":4204,"adcecfbf":4205,"fdcbed":4206,"febccbb":4207,"cceecbf":4208,"bbcecbb":4209,"cdbecce":4210,"cdbdbd":4211,"cceecbee":4212,"cccccf":4213,"cdbdde":4214,"becccbe":4215,"ddbbbf":4216,"ebcce":4217,"fdbcbb":4218,"ffbcee":4219,"eedcebb":4220,"bcffbb":4221,"feecd":4222,"bbbbbbbebb":4223,"cdbecbee":4224,"abebc":4225,"bcdfed":4226,"beeebbcc":4227,"aecbc":4228,"bcbcbce":4229,"bcdfbd":4230,"bbedfe":4231,"cbedbbd":4232,"ebcbd":4233,"bbedbed":4234,"bbedcde":4235,"cbbdcbb":4236,"aedbc":4237,"bfecbf":4238,"debcbed":4239,"bfbbbee":4240,"bfbecbb":4241,"bdffe":4242,"bfecbed":4243,"bcdbcf":4244,"cbbdeed":4245,"cfbecc":4246,"bbeebbf":4247,"fedcee":4248,"cdeecbb":4249,"beebfd":4250,"bceeeee":4251,"cddfbb":4252,"cebecbc":4253,"bebcded":4254,"bbbcfe":4255,"bdfcce":4256,"debccce":4257,"bbefde":4258,"beebebf":4259,"cfcebd":4260,"bcdbfe":4261,"bcecfe":4262,"bceddd":4263,"ceecbce":4264,"bcedbde":4265,"cebefe":4266,"ccbbcd":4267,"ccbceee":4268,"cdcede":4269,"ccefcc":4270,"bebbbecc":4271,"cdecbd":4272,"bcdbcbb":4273,"bcdbbce":4274,"caecc":4275,"beeddd":4276,"bcfeebb":4277,"ceffbb":4278,"cbcdeee":4279,"bdbcbf":4280,"cbbecbc":4281,"bcbebbd":4282,"acdd":4283,"cbbedcc":4284,"cdbff":4285,"ffeef":4286,"dedcfe":4287,"ceeebde":4288,"bbccdd":4289,"ccebbde":4290,"cbebfd":4291,"fdbbbe":4292,"cedbebb":4293,"eedbbbd":4294,"bbbbbbed":4295,"bcdcef":4296,"ccbbfe":4297,"ccbbcbc":4298,"cdcdbb":4299,"edde":4300,"cbeedbe":4301,"bfebbcbe":4302,"eeefbe":4303,"ccccbf":4304,"bcefdd":4305,"bafee":4306,"deffe":4307,"cdedcee":4308,"bcfcbf":4309,"bbbdbbf":4310,"cdeecee":4311,"bffbbe":4312,"cdbebee":4313,"acbbe":4314,"fdeebc":4315,"bebbbcbe":4316,"bcbbbeffe":4317,"dedbed":4318,"caeee":4319,"fcecbe":4320,"edeee":4321,"abdf":4322,"cbdfed":4323,"bcbbbfe":4324,"aebbf":4325,"bbbceed":4326,"ecdd":4327,"ddccd":4328,"defbee":4329,"bbefebed":4330,"fffefbfbeedbebcdebbee":4331,"bbdeeee":4332,"befcbf":4333,"fbccf":4334,"cdeedf":4335,"cdbced":4336,"bedba":4337,"bfecbbe":4338,"cbbdcee":4339,"bfbcddd":4340,"feecce":4341,"ccbbbde":4342,"cdbbcf":4343,"ccbecbb":4344,"aad":4345,"ceffd":4346,"bfbbbce":4347,"cbcba":4348,"cdbebf":4349,"eedeebd":4350,"ddfed":4351,"bedbecc":4352,"cbdeef":4353,"bddbebb":4354,"cbeebecc":4355,"beedcde":4356,"dedeebb":4357,"bdeebbee":4358,"bbbbdde":4359,"bfbebd":4360,"beeebcbb":4361,"dedeed":4362,"bddeecc":4363,"beacc":4364,"bbbbeecc":4365,"cbcbece":4366,"fbbbdd":4367,"dddbde":4368,"bebbeecc":4369,"cde</w>":4370,"cbcbccc":4371,"cecccce":4372,"cdbecf":4373,"cbdcbf":4374,"ffbcbc":4375,"cbedeed":4376,"cdfebc":4377,"beedcce":4378,"bbebbeed":4379,"bbebdffbfd":4380,"cdebcce":4381,"beedbce":4382,"beebece":4383,"bffcce":4384,"cdeeed":4385,"ceeebbbe":4386,"fbddd":4387,"ceeccde":4388,"bdebecc":4389,"bcdccd":4390,"bbeecee":4391,"bfffe":4392,"bbbbbcbc":4393,"cdbecbb":4394,"acfe":4395,"cbedebb":4396,"fdccf":4397,"cdebbbc":4398,"cdefbe":4399,"ccdbcf":4400,"beeebcee":4401,"bdbbcce":4402,"aded":4403,"cfcdee":4404,"cebbded":4405,"ceedcbe":4406,"cfbece":4407,"cbcbcee":4408,"cbdcbbe":4409,"bddbef":4410,"beebdce":4411,"bfdfd":4412,"cbcefe":4413,"bbebede":4414,"bdebebc":4415,"bdebcbc":4416,"cceecfe":4417,"bcedcde":4418,"beebbdd":4419,"cbebbbf":4420,"becbebe":4421,"debbeed":4422,"bdbecbe":4423,"cececbb":4424,"ceefbe":4425,"bfebbcc":4426,"bdbbfd":4427,"bffcd":4428,"cfbbcf":4429,"dddbbd":4430,"ccbcdd":4431,"acbf":4432,"cbfbcf":4433,"cebbbebc":4434,"defbbe":4435,"debcbee":4436,"bdffd":4437,"cdfcbe":4438,"bebfde":4439,"cbbbebbe":4440,"ceedcbc":4441,"bdfbbbb":4442,"cbdbede":4443,"ceeebbee":4444,"bbebbcce":4445,"cebebfe":4446,"bdebcde":4447,"cbdbece":4448,"bddbbbc":4449,"cddbed":4450,"cfdbce":4451,"fccde":4452,"bebbeebd":4453,"cbcbfd":4454,"cfeced":4455,"cdeebce":4456,"cebdcf":4457,"fefed":4458,"bcdcbbe":4459,"cdbddd":4460,"cebbfbb":4461,"addd":4462,"cbeebed":4463,"bdfccee":4464,"defcde":4465,"cbfcef":4466,"ddbbeee":4467,"cceccce":4468,"ebcbe":4469,"cbbae":4470,"fffbc":4471,"ceedfe":4472,"cebdbebb":4473,"beeecee":4474,"cfedbe":4475,"bcfbed":4476,"cbcecee":4477,"cdccbe":4478,"befccd":4479,"ceedcde":4480,"bbebdbe":4481,"cbebbed":4482,"fdccee":4483,"bdbbbebb":4484,"becdbf":4485,"ceebdee":4486,"cedbbbc":4487,"bebdbbbb":4488,"ddbbfe":4489,"cfbbde":4490,"bedeebd":4491,"bceddee":4492,"dedbebc":4493,"adeee":4494,"bdedcf":4495,"bbbebdd":4496,"cbedcde":4497,"cbbdbbd":4498,"eebbbf":4499,"edeeee":4500,"bbedbebb":4501,"ccbbeed":4502,"fcebf":4503,"bddeece":4504,"bcdcdebebd":4505,"cceddee":4506,"cebbbcf":4507,"bdbba":4508,"cbace":4509,"bfedbf":4510,"feabb":4511,"aecee":4512,"cceff":4513,"cebcbfe":4514,"cfdcee":4515,"cebecbbe":4516,"dddeed":4517,"bbebbbed":4518,"efd":4519,"deceee":4520,"beecced":4521,"adcbb":4522,"beefbf":4523,"ebdbd":4524,"bdecbce":4525,"bcdbeee":4526,"bceebebb":4527,"cebbccd":4528,"bbcebbbe":4529,"bbcceee":4530,"bbedef":4531,"cddef":4532,"aebbd":4533,"cddbce":4534,"ceeeced":4535,"cacbb":4536,"fcedd":4537,"bddfee":4538,"bfbdfd":4539,"bbebbbfe":4540,"eebbde":4541,"cfedde":4542,"bbbbbeee":4543,"bbbbfcc":4544,"bfeebfbcebffbbbeebceebbebfebb":4545,"bceebed":4546,"bbefcbe":4547,"dedbcd":4548,"cecccbb":4549,"febccc":4550,"fecbbbb":4551,"fdbebd":4552,"cbdcef":4553,"aeece":4554,"bfebef":4555,"ffbebe":4556,"bbedbbbc":4557,"cbcedce":4558,"bffcbb":4559,"bdecebbe":4560,"cacf":4561,"cdedcce":4562,"ccefde":4563,"fecdf":4564,"bcebeee":4565,"fdbcbe":4566,"bceea":4567,"bcedcd":4568,"bdbebed":4569,"cbdddd":4570,"cfebbbc":4571,"debecce":4572,"cbdedbb":4573,"beebbbbbb":4574,"befbed":4575,"bfdbbbc":4576,"beccece":4577,"cdecbf":4578,"bcbbbcbc":4579,"bdebbde":4580,"ceeedf":4581,"ebdbb":4582,"fbecbb":4583,"ccbecee":4584,"ccbecbe":4585,"bbebcbd":4586,"bddeef":4587,"babea":4588,"dedfd":4589,"bfbbbed":4590,"bebbecd":4591,"bdebeee":4592,"cbdbbbd":4593,"bebcbebb":4594,"ceedbce":4595,"eccd":4596,"cedfbb":4597,"cbfbebe":4598,"ddfbb":4599,"dddcbb":4600,"cdeeeee":4601,"debebce":4602,"ccecccc":4603,"cebdbee":4604,"fbbcbbe":4605,"ffbebb":4606,"feeeee":4607,"fedcde":4608,"ceedcbd":4609,"debbccd":4610,"bfebbce":4611,"bbbbbbbbee":4612,"aeca":4613,"bcebbdbb":4614,"bbdbece":4615,"fdbdbc":4616,"cbdbbcc":4617,"bddbebe":4618,"dedbbf":4619,"caeed":4620,"beeebbbf":4621,"bcbbbdd":4622,"abbde":4623,"cbdeecc":4624,"bbecdee":4625,"bcfcde":4626,"cbdebed":4627,"bdbbcbc":4628,"debbfd":4629,"bbbbbbebb":4630,"cbefbd":4631,"cbfbed":4632,"cbfff":4633,"cbcecbc":4634,"bfbba":4635,"afbf":4636,"febdbe":4637,"ceebbed":4638,"cedcebb":4639,"ccdbbee":4640,"cbbbbbee":4641,"bbebccc":4642,"cdbdbe":4643,"babcbb":4644,"cdbecbe":4645,"cabbd":4646,"beeedce":4647,"cebbbef":4648,"defcee":4649,"beeedbe":4650,"deddcc":4651,"cbdeebd":4652,"eeebdee":4653,"cdebebb":4654,"aecbd":4655,"bbdbbde":4656,"fbbfbecd":4657,"dedcebc":4658,"cffbf":4659,"ceddcc":4660,"beedcf":4661,"bbeccf":4662,"bbebfbb":4663,"cdcece":4664,"bdebef":4665,"cbebecc":4666,"fdeef":4667,"bebebfe":4668,"ceedcce":4669,"feccbc":4670,"bbbbbebbbb":4671,"bbbebfe":4672,"cdbbcbb":4673,"cdbceee":4674,"ebbed":4675,"abfd":4676,"cebbbcd":4677,"cabbbc":4678,"bcebdce":4679,"cbcecbee":4680,"cbbdbce":4681,"debbcbd":4682,"debebde":4683,"cbfdbe":4684,"bbebbebc":4685,"bebdfe":4686,"bdedbf":4687,"cdefcc":4688,"caba":4689,"bcbebcbb":4690,"bdbceee":4691,"ceeff":4692,"cbecdee":4693,"fbbccd":4694,"cedccd":4695,"eede":4696,"bcbbcbbe":4697,"bebdbbd":4698,"bececf":4699,"bbcebbbb":4700,"eeedde":4701,"bedccd":4702,"bbeebbd":4703,"cddcce":4704,"defbbbb":4705,"caebe":4706,"bbbbfbbd":4707,"ceecebd":4708,"cddff":4709,"cecdde":4710,"cecbbce":4711,"abeae":4712,"fdcdf":4713,"fbbcfe":4714,"cedccee":4715,"cbfbfe":4716,"cbfcbf":4717,"cebccbc":4718,"bcedcf":4719,"bdbecf":4720,"fbdbf":4721,"cbbfde":4722,"cdbfdacc":4723,"bcbbbeffeaefe":4724,"bebbbebf":4725,"bcbccd":4726,"bdbecbc":4727,"cbecebd":4728,"bcbbbebc":4729,"ecdf":4730,"ddeebb":4731,"ceeccce":4732,"fdbfd":4733,"bebeece":4734,"bebbcebb":4735,"fbbfce":4736,"befeef":4737,"bdeebee":4738,"cccccccccccc":4739,"cedfcc":4740,"bddbece":4741,"bceebcee":4742,"dddcf":4743,"cffde":4744,"bebcff":4745,"bcccbf":4746,"cceebbee":4747,"bbcebbee":4748,"bdbbba":4749,"ddfee":4750,"fbceee":4751,"bbebdbc":4752,"cbbbdde":4753,"bedcfd":4754,"cbeecbf":4755,"cbeebbbc":4756,"fedbce":4757,"ceddbe":4758,"cbecbed":4759,"cedbecc":4760,"cebccde":4761,"bbebbcf":4762,"bdbebcd":4763,"ccbcbf":4764,"cdefde":4765,"cbecdf":4766,"beeebebee":4767,"ddbbbd":4768,"cbeeeee":4769,"bdbbbdd":4770,"bdbbbef":4771,"bbeffe":4772,"abbba":4773,"aeebe":4774,"cdcebd":4775,"cbbbcbe":4776,"fdbdf":4777,"eedbbbe":4778,"ccdbebe":4779,"cbdecce":4780,"bdbbbebe":4781,"bffcbc":4782,"bfbbcbbe":4783,"beecdf":4784,"bbecdbe":4785,"ddcbf":4786,"debecf":4787,"bdebfd":4788,"bebbcbce":4789,"bddfce":4790,"cbbebed":4791,"aebef":4792,"bfbbcf":4793,"bacce":4794,"bbffbb":4795,"cedcecc":4796,"bfbbbebb":4797,"cbbfbf":4798,"edbc":4799,"beebcde":4800,"cdbbcd":4801,"aceee":4802,"fdbecc":4803,"bcbbbeed":4804,"cfecdee":4805,"cbcebbd":4806,"fbefe":4807,"fdbcbc":4808,"bbeebde":4809,"bebbebbbb":4810,"cbefbf":4811,"cbebece":4812,"cdebfe":4813,"ffcbbe":4814,"befbebe":4815,"ddbfe":4816,"bbdeebe":4817,"ffccbcdcbbd":4818,"bdeecee":4819,"cdeeebb":4820,"bbeeeee":4821,"fedcbe":4822,"bebbebf":4823,"beebbbebb":4824,"bdbdbdbd":4825,"bcebbbbd":4826,"ffccf":4827,"bbbecee":4828,"cceecbc":4829,"cdedcf":4830,"febbbcd":4831,"bcbbbcee":4832,"bffcf":4833,"becbccc":4834,"abcbc":4835,"fdbbcc":4836,"debccee":4837,"bfbbcbe":4838,"fbbfbecdbbebdffbfd":4839,"ccdbdd":4840,"bbbebed":4841,"debbbebb":4842,"cdbbbbe":4843,"beebdf":4844,"cbfcfcc":4845,"badce":4846,"beebebee":4847,"cedbdbb":4848,"cbdebbe":4849,"cecceee":4850,"beeccbe":4851,"cdccbb":4852,"fdcced":4853,"cbdfbd":4854,"fbbcbbbd":4855,"bcbbbbed":4856,"bdbbcdbf":4857,"bdedcee":4858,"cdcdf":4859,"bcebccc":4860,"cfefbc":4861,"cebcbde":4862,"ceedcee":4863,"cdfebe":4864,"bcfbebe":4865,"dddbdd":4866,"beefeee":4867,"cbbefbc":4868,"bebdbdf":4869,"ddd</w>":4870,"bcebcde":4871,"fdcfd":4872,"cedeebc":4873,"cbeebbbe":4874,"bebdbed":4875,"cdeecde":4876,"beebdbe":4877,"beefce":4878,"cbbbcce":4879,"cbbebfe":4880,"bebceef":4881,"cbbdfe":4882,"fbede":4883,"cbdedf":4884,"cbbbcbd":4885,"fdceee":4886,"cceecbd":4887,"cbbbcbbbb":4888,"ebfe":4889,"aebbbd":4890,"beddde":4891,"cbeebfe":4892,"cfeddd":4893,"bbbebeee":4894,"cbedcbc":4895,"bcedcce":4896,"bdedbbbb":4897,"ccdbcee":4898,"bdcedd":4899,"becbcce":4900,"bedbbed":4901,"bebbcbf":4902,"dedbbbc":4903,"cbbdfee":4904,"cdbbcbe":4905,"cdfece":4906,"bbdbeee":4907,"bddbfe":4908,"beccbbbc":4909,"becefe":4910,"cfdcde":4911,"cedbbcc":4912,"ccdbbf":4913,"cfecccc":4914,"bdbebde":4915,"bbeea":4916,"bbebbcbc":4917,"becbece":4918,"bbebbef":4919,"bebcfbb":4920,"ceffe":4921,"bcbccbc":4922,"bcdebf":4923,"beebcbd":4924,"cbdbebd":4925,"bcfbebb":4926,"cddddd":4927,"ddddcc":4928,"cbbbfd":4929,"bfedde":4930,"abcce":4931,"cbebbbbe":4932,"bcebbced":4933,"fffcc":4934,"febebee":4935,"bcecbed":4936,"fddef":4937,"fdbcce":4938,"cdebcbe":4939,"bbbdbbbc":4940,"cdeecf":4941,"cbdecd":4942,"deccbf":4943,"badbd":4944,"bbead":4945,"bedcbed":4946,"cddfbc":4947,"ceebbde":4948,"bdebcbe":4949,"cbeebebb":4950,"beebbcf":4951,"ebfd":4952,"bdeded":4953,"ddbcee":4954,"bdebbbebf":4955,"cbfecbb":4956,"ecbee":4957,"beebeebb":4958,"cdd</w>":4959,"fdfed":4960,"cdebdd":4961,"cdecfe":4962,"bcbbbcd":4963,"defbbebd":4964,"cdbedef":4965,"bebbeebc":4966,"bcbbfbe":4967,"cefeebb":4968,"cbcdfe":4969,"bcbdfee":4970,"cbedef":4971,"ccdcdd":4972,"cdbecd":4973,"cbbbccc":4974,"bcebdf":4975,"bcebede":4976,"fbbfbd":4977,"ceeedbd":4978,"beefebb":4979,"bcecdd":4980,"bcbecbd":4981,"bbebceed":4982,"bddded":4983,"cdbbfe":4984,"fbbeecc":4985,"abebbe":4986,"ceeeebc":4987,"bbbbbfe":4988,"ccdfcc":4989,"bbbcbed":4990,"cbefebb":4991,"cbbeff":4992,"cbeefbb":4993,"bbfbbebde":4994,"fedeed":4995,"ccedbbe":4996,"cbfede":4997,"cbbbbed":4998,"bbebbff":4999,"bcdbecee":5000,"ccdfee":5001,"cbbdcf":5002,"cbbbbcf":5003,"bcebbcbe":5004,"cdccbc":5005,"bbdcef":5006,"babebe":5007,"acea":5008,"bebbbebee":5009,"ccedbf":5010,"bbbbbbde":5011,"cdeeebd":5012,"cceceee":5013,"cbffce":5014,"ccedeee":5015,"bbecbde":5016,"ddbebe":5017,"beeebfe":5018,"fbca":5019,"bbecebe":5020,"bbbbeeee":5021,"cbfbcd":5022,"cbfbbce":5023,"cbeebcd":5024,"bfcceed":5025,"cbbccee":5026,"cbbeeed":5027,"cbbbbbcbb":5028,"bddbbcc":5029,"bfdbbf":5030,"bdbbbcbb":5031,"bebbdbe":5032,"cbdbbce":5033,"cdebef":5034,"ccdccee":5035,"beccbbd":5036,"ceedded":5037,"ceccbed":5038,"ccebece":5039,"fbbccf":5040,"cddbbf":5041,"cefcbd":5042,"cdfa":5043,"cdfcbc":5044,"bdbdbf":5045,"feebbd":5046,"bccecbe":5047,"debbbcd":5048,"baeef":5049,"aebbbc":5050,"fedbbe":5051,"bffeee":5052,"cebdeee":5053,"cdcbed":5054,"febfbb":5055,"bbeebea":5056,"cebbccee":5057,"ceedeee":5058,"bebefbc":5059,"cfebdd":5060,"cddeef":5061,"fdbcee":5062,"bcdfcc":5063,"bcbccee":5064,"bbbbbcbbbb":5065,"abebf":5066,"cfca":5067,"cbcccf":5068,"ccebbcc":5069,"eedbebd":5070,"fedbbd":5071,"ffae":5072,"dedccf":5073,"beedced":5074,"beceebe":5075,"cfcebe":5076,"cbbdbed":5077,"ceedeecc":5078,"cccecbe":5079,"cbcfbce":5080,"ebddd":5081,"cfbbed":5082,"bcfccee":5083,"ceeecbf":5084,"eeeece":5085,"bfbefe":5086,"cccccee":5087,"bdfeed":5088,"adbbe":5089,"bccefe":5090,"bbebbfbb":5091,"cbfedbb":5092,"babed":5093,"ffced":5094,"ceddde":5095,"ddbddd":5096,"abece":5097,"cdccce":5098,"cbeccf":5099,"bddbcee":5100,"eebbdd":5101,"cedbbbd":5102,"beccbee":5103,"bcebbcbb":5104,"bfecbee":5105,"beccbce":5106,"cdcebf":5107,"cbcfbd":5108,"eeebbcc":5109,"becccee":5110,"cbcccee":5111,"befbcf":5112,"fedbed":5113,"bfbbcbd":5114,"cdbcbf":5115,"cdbdbc":5116,"bcdbdee":5117,"ceedeed":5118,"cebdcce":5119,"debcbbe":5120,"beebba":5121,"cdbcde":5122,"fbbcbee":5123,"beeecde":5124,"cefbcf":5125,"fdeece":5126,"cbecdbd":5127,"dedbdd":5128,"beccfd":5129,"fbcbed":5130,"bffa":5131,"debba":5132,"bdedbee":5133,"ccbecf":5134,"bfdbbcc":5135,"fbebee":5136,"debdcbb":5137,"bbebceee":5138,"bcdccee":5139,"beeebde":5140,"cbfeef":5141,"bbbdcbfbb":5142,"bebdbbe":5143,"feeeeee":5144,"debecbd":5145,"baca":5146,"cbbefbb":5147,"cdfbde":5148,"bfbbff":5149,"cbbeebf":5150,"cbbfdd":5151,"debccbb":5152,"ccecece":5153,"fdbbed":5154,"bfecebb":5155,"babcd":5156,"cedfed":5157,"bebfbbbb":5158,"cddede":5159,"bebdbbf":5160,"bcbecfd":5161,"bceceee":5162,"ceebccc":5163,"cfcef":5164,"beeebed":5165,"befccf":5166,"aecde":5167,"bfdcef":5168,"debbbdd":5169,"bfbdde":5170,"eedff":5171,"bbbecbd":5172,"deccdd":5173,"cbbcbbd":5174,"bcebdbb":5175,"bdeddd":5176,"bceebbbc":5177,"cceebdde":5178,"bdfbed":5179,"accf":5180,"fdcbbe":5181,"bebceecc":5182,"cbedfe":5183,"bbcebee":5184,"bbbbbbcbc":5185,"bbbbbbbcbb":5186,"bbefbbe":5187,"cbbeedd":5188,"edce":5189,"bcebbeebdebbbebf":5190,"baeeee":5191,"cebccbbe":5192,"bffcbe":5193,"cbcecde":5194,"beedbbbd":5195,"bdeebbbe":5196,"bbebbbef":5197,"becfbe":5198,"cdddce":5199,"cbcebbf":5200,"fedbbbb":5201,"cfdcbe":5202,"cdfeee":5203,"ebdbc":5204,"beeca":5205,"dedded":5206,"babba":5207,"ceecbbd":5208,"fdfbd":5209,"bfebcee":5210,"bfdbde":5211,"bdbbddd":5212,"bbebedd":5213,"febcbf":5214,"bbbbbbbbcc":5215,"babfe":5216,"eedfbb":5217,"cbfbef":5218,"aebbbe":5219,"bebbdcc":5220,"cbeceee":5221,"fffbd":5222,"bddcdd":5223,"ccdcbee":5224,"bbfcbc":5225,"bfdced":5226,"bdeecdbb":5227,"afde":5228,"defcbf":5229,"fefeee":5230,"beddebb":5231,"aefee":5232,"cbcebbbb":5233,"bbcefd":5234,"cdedbf":5235,"bedbbcc":5236,"bebbbcbc":5237,"cbfccd":5238,"cbbecbee":5239,"bdbddd":5240,"befece":5241,"ccebbbf":5242,"bcecebc":5243,"cdebeed":5244,"cfdcbc":5245,"cdb</w>":5246,"cbbcebb":5247,"fdae":5248,"fdcecc":5249,"cfbbfe":5250,"beeccbc":5251,"fcede":5252,"cbefa":5253,"ffcef":5254,"bebcfbc":5255,"bcbccfbbbc":5256,"ccedbde":5257,"fbea":5258,"cfbbcce":5259,"beebfee":5260,"ceeddf":5261,"cbdfcc":5262,"becebbbe":5263,"eeeccd":5264,"beccff":5265,"cbdecf":5266,"ccedeed":5267,"eebbcbb":5268,"bbecebf":5269,"bddeeee":5270,"bdeecce":5271,"fcebbd":5272,"becdde":5273,"cccebf":5274,"cbdcbee":5275,"bfeccf":5276,"bfefcc":5277,"bbebebeee":5278,"bbdbbbf":5279,"cdcddd":5280,"fbbbdbc":5281,"dedcdd":5282,"edbd":5283,"accee":5284,"ccefbd":5285,"fdbece":5286,"beedbbbb":5287,"cfcbed":5288,"cedcebc":5289,"beedeecc":5290,"ccbcfe":5291,"cbfedf":5292,"cdcdbd":5293,"bebeff":5294,"bebcbef":5295,"cbbeebbe":5296,"cbbbbebb":5297,"fdca":5298,"befeeee":5299,"cfeccf":5300,"aebcd":5301,"debdbbbe":5302,"cdebbed":5303,"bbbdbbe":5304,"cebcfed":5305,"debea":5306,"cbefde":5307,"cfcbce":5308,"bebefbe":5309,"bcbbeeee":5310,"bbbefbb":5311,"febbfbb":5312,"becfce":5313,"befbbebcdbd":5314,"ceeccbb":5315,"bebbccee":5316,"eedfbc":5317,"dedbdf":5318,"cabbbb":5319,"bebdcbc":5320,"debbcde":5321,"bbbbbbbbbe":5322,"febdbd":5323,"bfebebc":5324,"defdebbe":5325,"bcbedebe":5326,"debbbef":5327,"bcbbcbee":5328,"dedcbbe":5329,"cfcdf":5330,"cfccbb":5331,"cbebdbe":5332,"cedbcee":5333,"cbedbde":5334,"bdbcbbbb":5335,"bededd":5336,"bbebeebb":5337,"bebebcee":5338,"aefbc":5339,"cbecff":5340,"bbdbdbd":5341,"ffbccc":5342,"eedfd":5343,"bcbbfbd":5344,"ccdcef":5345,"beccbde":5346,"beeeebee":5347,"ccdeecc":5348,"cfbded":5349,"cbeddbb":5350,"bedfce":5351,"bcdcdd":5352,"cedbdf":5353,"ccdcece":5354,"bcefde":5355,"cdcdbe":5356,"cbccdd":5357,"ccdbfe":5358,"bebcbeee":5359,"bfdbebe":5360,"bdbcbbe":5361,"bbebebce":5362,"ceecbbbdecf":5363,"ecef":5364,"ceeccbe":5365,"cebeced":5366,"abbbee":5367,"cecbbcc":5368,"adcecfbfeedfed":5369,"cdca":5370,"cfcced":5371,"cbdecbb":5372,"cdcced":5373,"cfbeee":5374,"cbccbee":5375,"ccebcbe":5376,"eedbde":5377,"badcc":5378,"dedcebbed":5379,"bebbcbee":5380,"cfebbdf":5381,"bcfcbd":5382,"cebbcbee":5383,"fdceed":5384,"cebcbcd":5385,"beebbfe":5386,"ddbcbbed":5387,"eeeded":5388,"bceebbbe":5389,"bfdcbf":5390,"fedfcc":5391,"bbebcbce":5392,"cedeebd":5393,"cbebcbd":5394,"bcbbbeee":5395,"ccdded":5396,"bfbbced":5397,"ccdebdebbbe":5398,"cdedbbcdbf":5399,"cdebebc":5400,"bfdbbee":5401,"ccfbee":5402,"cbdeebe":5403,"cbcebbee":5404,"bccecbcbebbeee":5405,"bbbdcbfbbceffed":5406,"bcbbbebd":5407,"cdbebbbb":5408,"ccbccee":5409,"becddd":5410,"cfbced":5411,"bedae":5412,"bbbdeee":5413,"cbbbbcbe":5414,"bdedbcfffefbfbeedbebcdebbee":5415,"bbececc":5416,"bceccbe":5417,"cbdba":5418,"bddb</w>":5419,"beedbbbe":5420,"beefdd":5421,"bfbeccee":5422,"cdbdce":5423,"febcde":5424,"cebbcbf":5425,"feebbee":5426,"fedeebb":5427,"beeeddbbbdcbfbbceffed":5428,"cbbcbbee":5429,"cfbdee":5430,"bedecce":5431,"acef":5432,"eddd":5433,"dedca":5434,"ceeecde":5435,"ccbbcce":5436,"cecbbdd":5437,"fdb</w>":5438,"eedcbbd":5439,"fedbcd":5440,"cdeeecc":5441,"bedcebe":5442,"aebde":5443,"bbedbebe":5444,"abbad":5445,"beecccc":5446,"cbdbcf":5447,"bddcbf":5448,"beeebebd":5449,"befbef":5450,"bbeebbbc":5451,"bebbebbe":5452,"beabe":5453,"bedbcbe":5454,"fbbeebc":5455,"ddbbbfbb":5456,"bedeeee":5457,"fbbfed":5458,"cddfbd":5459,"cecebce":5460,"febfee":5461,"bdebdf":5462,"cddbbbb":5463,"cbdbcee":5464,"cfefbd":5465,"cdebdee":5466,"beeeece":5467,"ceeeebe":5468,"ccebbed":5469,"bfefbc":5470,"bebebebc":5471,"cebcccd":5472,"bbcebce":5473,"beeeebbbb":5474,"beefbbe":5475,"bebbeebe":5476,"ccecdce":5477,"eeebcbb":5478,"befbcbb":5479,"dedcbf":5480,"fbebbbb":5481,"bcebbbce":5482,"bbebcbbbb":5483,"bebbfcc":5484,"befbebc":5485,"cddedd":5486,"cbbbebf":5487,"cfddd":5488,"cfcccc":5489,"cfceed":5490,"bcdbbcc":5491,"feebbe":5492,"cebbfebbceebebc":5493,"fdba":5494,"bbefbbd":5495,"cbecfd":5496,"babeee":5497,"ceeecbd":5498,"becebbee":5499,"bbebbccd":5500,"bbbbdbbee":5501,"bfbbcd":5502,"fececc":5503,"cdecef":5504,"beebbcbc":5505,"ceefee":5506,"dedbebb":5507,"fcebbe":5508,"ccecbed":5509,"ccfbcee":5510,"cdeebee":5511,"debcced":5512,"fecfd":5513,"ccecced":5514,"bebebdd":5515,"bcbbbcf":5516,"cebbcbbe":5517,"cebecbf":5518,"bedeece":5519,"cdceed":5520,"beddef":5521,"cdeccbe":5522,"cebcbbbb":5523,"fbebbe":5524,"debecbc":5525,"bebbdce":5526,"bedca":5527,"cbdccd":5528,"bebebcbe":5529,"cddbbbd":5530,"cbfebf":5531,"ddfcc":5532,"cfbcbd":5533,"bffcee":5534,"cdedcbe":5535,"baebf":5536,"cbbdef":5537,"cbbccbe":5538,"ceebded":5539,"cfbccc":5540,"cddbbbc":5541,"ccbbbcf":5542,"cbcebde":5543,"fecece":5544,"feccce":5545,"bedcebd":5546,"cceecef":5547,"cebca":5548,"cebdcbc":5549,"beebbbbd":5550,"bcecfd":5551,"bcbbba":5552,"bbbecbbe":5553,"bcedeee":5554,"bebbcee</w>":5555,"ddfbd":5556,"ceeceee":5557,"eedbfe":5558,"eedbebe":5559,"bcbbded":5560,"cddbde":5561,"eebe":5562,"bbeccbc":5563,"eedbdd":5564,"cceccf":5565,"fdd</w>":5566,"ffcfe":5567,"bbeeeeee":5568,"bebdbce":5569,"bcdeebe":5570,"ceebecc":5571,"cbcccbc":5572,"fdbdbb":5573,"cebbffcf":5574,"bbbdbbd":5575,"bbebbcbd":5576,"bbdbcfed":5577,"cbcedbc":5578,"cbecbbd":5579,"eedbebc":5580,"debbbcf":5581,"ddeebf":5582,"cecebbbb":5583,"bedbbde":5584,"cbdbdf":5585,"cdecbbe":5586,"bfdeebc":5587,"cbfecf":5588,"bbefbbbb":5589,"bbefbcee":5590,"cddebc":5591,"cbebccc":5592,"ccdbef":5593,"bbedbbbe":5594,"dddfbc":5595,"ecbf":5596,"beececc":5597,"ceecded":5598,"cbeceed":5599,"dedfbc":5600,"cebdbde":5601,"cdbbbee":5602,"eeefbc":5603,"fbbbbed":5604,"ceeebcbb":5605,"bebdcd":5606,"bebfdd":5607,"abbabb":5608,"ceeeeee":5609,"bdebbebb":5610,"bebbbced":5611,"cfebcee":5612,"bcfbcee":5613,"cdbfeee":5614,"eedbbdedcebbed":5615,"bbfeebd":5616,"adcee":5617,"cbbbdbbee":5618,"bbebcde":5619,"cfae":5620,"ccecbce":5621,"bdecebc":5622,"bdefbbbb":5623,"bddbbcbc":5624,"beedcbed":5625,"ccbecbc":5626,"cbade":5627,"bdbcfe":5628,"cbbbece":5629,"bcedef":5630,"cdebbbd":5631,"bcbbbcbe":5632,"dedbcce":5633,"cbbdcd":5634,"debbff":5635,"ccbebee":5636,"cfbbbce":5637,"ccebcbc":5638,"cecdcdbe":5639,"bfccf":5640,"bbebdf":5641,"bcdbebd":5642,"cbbebcf":5643,"bfeedd":5644,"acebb":5645,"fecdee":5646,"fdcebd":5647,"bebbfce":5648,"cfecfe":5649,"aebfe":5650,"cddbfe":5651,"bfdff":5652,"bcbcbde":5653,"beebbcd":5654,"bbebbebee":5655,"ccecdbe":5656,"bbdcbee":5657,"bfbbbde":5658,"bbbbbbbbbbbc":5659,"cecbbbe":5660,"bddeecebc":5661,"cbaebb":5662,"bdeabecbb":5663,"ceefbd":5664,"ccebede":5665,"dedbeed":5666,"bbbeced":5667,"bbedcbd":5668,"cbceff":5669,"cebecde":5670,"cbbbbcbc":5671,"bfbeee":5672,"bbbbfbd":5673,"cabbf":5674,"becccbd":5675,"febbcd":5676,"bdbdbbbd":5677,"ceeae":5678,"cbffbd":5679,"ccdeef":5680,"ceeebbf":5681,"cbedfbc":5682,"bdeecde":5683,"bdfcbc":5684,"cdffbb":5685,"cebdcbb":5686,"abbbfd":5687,"acca":5688,"ceebcbd":5689,"bedbeee":5690,"bebdfbb":5691,"bcbca":5692,"eedd":5693,"bfbcee":5694,"febece":5695,"cfebcf":5696,"cfecef":5697,"cabce":5698,"bbecceed":5699,"dddbbbd":5700,"cbbbbbce":5701,"fecdce":5702,"bcbbcebb":5703,"befced":5704,"cebcccee":5705,"fcebbf":5706,"eeecbf":5707,"aedce":5708,"ccebeee":5709,"befbeee":5710,"bbcecd":5711,"defbcd":5712,"ddfbbd":5713,"cbebebbe":5714,"bedbdf":5715,"bebebcf":5716,"bcbbeef":5717,"bbbcbce":5718,"bbebbbbebd":5719,"debbbde":5720,"ccdede":5721,"ceeccbd":5722,"cbebcde":5723,"cbdcdd":5724,"cfeede":5725,"dddbbe":5726,"adbbd":5727,"bfccff":5728,"bbbbbcbf":5729,"ebecd":5730,"eeebed":5731,"cbbecbbe":5732,"cbcebed":5733,"debbced":5734,"debcfbb":5735,"fbbfbecdbbebdffbfdfeebfee":5736,"edebe":5737,"cbbcdee":5738,"bbedbebc":5739,"bbebcbee":5740,"dddde</w>":5741,"bcbbbeffeaefedebdbef":5742,"fefebb":5743,"cfebed":5744,"cebcfd":5745,"ddbceed":5746,"bebceebd":5747,"cdbcbd":5748,"cdcdce":5749,"bbcecdcbe":5750,"cebdeed":5751,"dedbbce":5752,"bbbefd":5753,"cceebed":5754,"dddbbbb":5755,"cdfcf":5756,"bfffd":5757,"feceee":5758,"cbbbdce":5759,"ccfbed":5760,"bdedbbd":5761,"cdbbbde":5762,"eddee":5763,"beebbebd":5764,"cbbccbb":5765,"cebecbd":5766,"eebbbbe":5767,"bbbbbbeee":5768,"cbebbcf":5769,"edbe":5770,"cbebdbb":5771,"cadbc":5772,"bcbbbbebb":5773,"cbeefbe":5774,"bebdbbbd":5775,"bdeebbbb":5776,"bbefbce":5777,"bebefee":5778,"cabdbf":5779,"bbbbeece":5780,"beceece":5781,"bfeba":5782,"fbbbdbb":5783,"aebed":5784,"cddbcee":5785,"fedeee":5786,"bebfbbe":5787,"bbebebbd":5788,"cfbcbf":5789,"bcfeebd":5790,"bfeced":5791,"bccecd":5792,"bdeffed":5793,"fdbbde":5794,"beeddee":5795,"beeeff":5796,"abbcbb":5797,"cfeebe":5798,"cbbedde":5799,"ceeedce":5800,"ccdbeeeedbbdedcebbed":5801,"adebb":5802,"dedbebd":5803,"ccfccee":5804,"decceee":5805,"feddf":5806,"cbdccbd":5807,"cdefee":5808,"cbfeebc":5809,"cbeecbed":5810,"dedfbb":5811,"bbefeee":5812,"beebdbb":5813,"cbebdce":5814,"cbbebebe":5815,"bbeecce":5816,"bebcccf":5817,"dedbcf":5818,"cebea":5819,"bdecebb":5820,"cdebbcc":5821,"dddfd":5822,"becebcd":5823,"bfbbcce":5824,"eeedbbbb":5825,"cbeeedd":5826,"cbebcbbbcebed":5827,"febbbbf":5828,"bfebfd":5829,"cbbebcd":5830,"cbbebcbc":5831,"cbbebebbe":5832,"bdedbbee":5833,"bcbdbce":5834,"abfaee":5835,"ceebbbbcecbb":5836,"ccdbbbc":5837,"fbccbb":5838,"cbbbba":5839,"fefbbe":5840,"bbebecee":5841,"bebbbbcc":5842,"eeebbeee":5843,"cbeebebdbcdceee":5844,"cedcdee":5845,"bbedbbbd":5846,"fbccee":5847,"ccedcbb":5848,"bbbbbbfbde":5849,"fdc</w>":5850,"ccdbebc":5851,"caece":5852,"cbcbcbe":5853,"cbceeed":5854,"bdeccce":5855,"cbeeccee":5856,"aebbee":5857,"bececbd":5858,"cbdebce":5859,"bebfbee":5860,"cbeccbb":5861,"cbcddd":5862,"ccecef":5863,"fdcebe":5864,"bbcecf":5865,"ceccced":5866,"bcefbbe":5867,"ebbbbbb":5868,"bebbbecbb":5869,"bcbbeebc":5870,"befbdd":5871,"ceeda":5872,"fefdd":5873,"ccdeddee":5874,"bbeccbd":5875,"ddfbe":5876,"beedeed":5877,"bdbbff":5878,"debcbebe":5879,"bdedcfd":5880,"fccbf":5881,"ccdbdee":5882,"bfdbebc":5883,"cbedbed":5884,"beccbbf":5885,"cbdeece":5886,"cebbbbcebbffcf":5887,"beebbbfebfeebfbcebffbbbeebceebbebfebb":5888,"acbce":5889,"bbdcfe":5890,"fedced":5891,"cbbeecbb":5892,"bbebecbb":5893,"eccf":5894,"beeccce":5895,"bbeca":5896,"febff":5897,"ccebcde":5898,"cfecdd":5899,"dedcbce":5900,"cebebde":5901,"eeebbbf":5902,"ccecded":5903,"beeefbe":5904,"bbeebbbe":5905,"ceeebbbd":5906,"bfbecde":5907,"bebcebe":5908,"beebede":5909,"ccdbbbd":5910,"cebbbdd":5911,"bebdcf":5912,"cffbce":5913,"bbebddd":5914,"cbdccee":5915,"bbcecbe":5916,"cfdbde":5917,"cebdbce":5918,"bcebbeee":5919,"cdccdd":5920,"bdffbb":5921,"abbcbe":5922,"bedddd":5923,"fecebe":5924,"bfdbbbe":5925,"cececbc":5926,"cdbebbe":5927,"bcebced":5928,"cdeceed":5929,"baae":5930,"ddffd":5931,"cebbebebe":5932,"bbeceed":5933,"bdebdee":5934,"bbdbcbe":5935,"cedccce":5936,"bebcbede":5937,"cebbcfd":5938,"ccfbbbb":5939,"ccbecce":5940,"cdddbe":5941,"febdce":5942,"bddbdee":5943,"becebed":5944,"cdfcce":5945,"cffbbbb":5946,"eeebebc":5947,"cbbedef":5948,"cbbdbebe":5949,"cbebcbf":5950,"bbebbebe":5951,"cbcbcbd":5952,"bbdbedee":5953,"cdecdbc":5954,"fbbbcbc":5955,"bbfeed":5956,"aeae":5957,"bbefbee":5958,"bbebccce":5959,"cbcedbd":5960,"bfdcebeeeddbbbdcbfbbceffed":5961,"ebdcc":5962,"bcdbdf":5963,"ccdbbbe":5964,"cbbefee":5965,"debbfed":5966,"bbefcf":5967,"bbdbcfbb":5968,"bddbbdd":5969,"accbb":5970,"abede":5971,"bcebdbe":5972,"cedbcf":5973,"cbeecbee":5974,"cccccbe":5975,"cbcdcd":5976,"beeeebccecbcbebbeee":5977,"ccbdbf":5978,"cedbcbb":5979,"bceebcbb":5980,"cacbd":5981,"eddf":5982,"fdfce":5983,"beeefce":5984,"cddbbee":5985,"bbedbdd":5986,"ceeebcd":5987,"beedbde":5988,"adbee":5989,"debefbbbbebd":5990,"bfbcdddbeecce":5991,"cbcebcf":5992,"cdbbbeddebecbf":5993,"fbbbebd":5994,"bceebebd":5995,"bdbbbcd":5996,"debdbbe":5997,"cffcd":5998,"fefa":5999,"bcebcbf":6000,"cdbfee":6001,"cbbbecc":6002,"ceeceed":6003,"bddbcce":6004,"bbbebbebb":6005,"beedcbd":6006,"bcbebcd":6007,"bbebdbd":6008,"cbcbdee":6009,"fdcbce":6010,"cbdccf":6011,"cbeefbc":6012,"cebda":6013,"ccbebbbb":6014,"bfbcfe":6015,"beace":6016,"fbbcecc":6017,"ceefce":6018,"bddbcbb":6019,"debcbce":6020,"ceebbbde":6021,"cbbcbce":6022,"fbbbccc":6023,"bceebcbe":6024,"aebebb":6025,"aeff":6026,"cdeebece":6027,"cebdcbe":6028,"cdbfde":6029,"bbbbbebbe":6030,"ccebccc":6031,"befbebb":6032,"bbfbfe":6033,"cceecbed":6034,"cceecdee":6035,"cefeee":6036,"cacbe":6037,"cebcbebe":6038,"cbbccf":6039,"fbbbebbe":6040,"bfccbf":6041,"cbeebced":6042,"cbbdcbe":6043,"cdebbde":6044,"befcbed":6045,"cebdff":6046,"cdedbee":6047,"beeeebbe":6048,"bdbcbbd":6049,"bedebf":6050,"cdcdeccdebdebbbe":6051,"bcecced":6052,"bdefee":6053,"bedbcbc":6054,"cceeeee":6055,"dddccbd":6056,"cccceed":6057,"beeeebf":6058,"ccbcbbd":6059,"cbebbdd":6060,"ddbbcbb":6061,"cbbfcf":6062,"cdbdbbbcbd":6063,"bfbebebb":6064,"cebbcbecc":6065,"cceefd":6066,"cebcff":6067,"ccccccd":6068,"cbbfbbbb":6069,"bbbcbbebcbd":6070,"eeebebee":6071,"bcdcebb":6072,"cedcbed":6073,"bcbbbeebb":6074,"dedbbee":6075,"ccefdd":6076,"cdad":6077,"cfccce":6078,"bedcbce":6079,"bddba":6080,"bebefce":6081,"cbeefd":6082,"cefccf":6083,"bdedbbe":6084,"bbbbdbbd":6085,"ceeeef":6086,"cbdfce":6087,"bfdbcbe":6088,"cbbdfd":6089,"ceedbee":6090,"cfdbee":6091,"bcbfde":6092,"cfccbe":6093,"dedbfe":6094,"cebebcd":6095,"cbcbbde":6096,"cfbff":6097,"fbbbfd":6098,"eedbbbc":6099,"ccdfbd":6100,"cfeccee":6101,"cacee":6102,"bbbdcbb":6103,"aedbd":6104,"bdecfe":6105,"dedcecc":6106,"bcfbfe":6107,"dddcbe":6108,"cbbdcbbd":6109,"bebbedd":6110,"debeebbbb":6111,"ceebece":6112,"cbcbbed":6113,"cbdbcbc":6114,"feddebd":6115,"cbddeee":6116,"decede":6117,"ebeee":6118,"bbebdce":6119,"bcebbebb":6120,"ceecbdbc":6121,"ceeebebb":6122,"bcbecde":6123,"debbcebb":6124,"ddbcbf":6125,"cedddd":6126,"bceae":6127,"bedcdee":6128,"bcdbff":6129,"bbedbfe":6130,"bdbdbbe":6131,"cdefbd":6132,"eedcdee":6133,"ccdeebc":6134,"bfdcebe":6135,"bebdcbe":6136,"bccefd":6137,"dedebebbe":6138,"cbebebbdece":6139,"cdecdd":6140,"bcdcfe":6141,"beeefd":6142,"ccdbecc":6143,"bebdcce":6144,"adbbf":6145,"decccedbd":6146,"cfbbcbe":6147,"cbceebbf":6148,"ccdeece":6149,"bdecdd":6150,"eedfee":6151,"bfdcfe":6152,"cbbdbebb":6153,"cbbdbbf":6154,"beecbebc":6155,"cbecfed":6156,"ceeebbce":6157,"debebebb":6158,"cffcbd":6159,"bdebbdd":6160,"cbdcece":6161,"eedcfe":6162,"cbfddd":6163,"ddeede":6164,"cbebbbce":6165,"beccefbebbd":6166,"cdddf":6167,"cceccbc":6168,"bdebbed":6169,"eeebbbbbb":6170,"bddbbed":6171,"cbfcbbe":6172,"bcbcbebe":6173,"bfbddd":6174,"deddbe":6175,"cbbcbed":6176,"bfdbdbb":6177,"bcedbbf":6178,"cbbbbcee":6179,"febfbc":6180,"bedcecd":6181,"befba":6182,"cebcbecbe":6183,"beccbfe":6184,"decefd":6185,"cdcbcd":6186,"ceedef":6187,"cfcece":6188,"cbccebb":6189,"bbdb</w>":6190,"bbdba":6191,"ccdbcce":6192,"becbcbe":6193,"bcdbeebbcecdcbe":6194,"abbed":6195,"cbbdfbd":6196,"bdbbbfe":6197,"bddede":6198,"cdeeebdce":6199,"bfbdfdf</w>":6200,"bddd</w>":6201,"dedbbbd":6202,"beccced":6203,"ceedbbf":6204,"cbcfce":6205,"eeebfe":6206,"bfdcde":6207,"cbbeede":6208,"abdee":6209,"beebecbb":6210,"bbebced":6211,"fecbcd":6212,"cfbcde":6213,"fffed":6214,"ccdfce":6215,"bebcbcf":6216,"aefbb":6217,"cbfedd":6218,"cdbbcbc":6219,"caedd":6220,"bbecced":6221,"febea":6222,"bfbcbe":6223,"fdbeed":6224,"ccccccbc":6225,"bdbbded":6226,"cbeeebbbb":6227,"fefbbd":6228,"bbebecbe":6229,"abcbde":6230,"abccc":6231,"cbebbcbb":6232,"decebbf":6233,"badbe":6234,"ceecdbe":6235,"eeecbbe":6236,"adbbbb":6237,"fbbfbf":6238,"cdcbde":6239,"cbbcdd":6240,"bdebebd":6241,"bcbbbece":6242,"bebcbcd":6243,"bffbbbb":6244,"abbfbb":6245,"bececdbedee":6246,"debcbcdbfbdfdf</w>":6247,"eedcbf":6248,"eedeebb":6249,"deddef":6250,"cceeeebb":6251,"ceeebbcc":6252,"cbcfbf":6253,"bcefed":6254,"bdebcbd":6255,"bcdbecc":6256,"cedcded":6257,"ccdcbf":6258,"befbcbc":6259,"bfdfbc":6260,"adfe":6261,"fefcf":6262,"cbebbbee":6263,"cdcecce":6264,"acebc":6265,"cdddee":6266,"cbbca":6267,"cbcdef":6268,"bebbae":6269,"cbeecef":6270,"bebcbcee":6271,"cebbbfe":6272,"cccecce":6273,"cdefdd":6274,"fbbbeed":6275,"bebebcde":6276,"ccbecde":6277,"ffeebd":6278,"ceebeee":6279,"bebbbece":6280,"eedcecc":6281,"bbccbbd":6282,"bccebbe":6283,"bdbefd":6284,"cdbefe":6285,"eeedbf":6286,"cdcecd":6287,"decedd":6288,"afdd":6289,"bfcceee":6290,"bddeebd":6291,"bbeddee":6292,"ccdfed":6293,"cefcfe":6294,"ccfbcf":6295,"bbbbbbbce":6296,"bdbccbb":6297,"beefeccecde":6298,"ceeccbc":6299,"bebbcfe":6300,"cedbcbe":6301,"befcbbe":6302,"cddfbe":6303,"cebdbbe":6304,"cbebbbed":6305,"ffeebe":6306,"babebc":6307,"cfecbed":6308,"cbcecbd":6309,"bfbbbebe":6310,"cfccbc":6311,"cbebede":6312,"cbccece":6313,"bedceed":6314,"cdebcbb":6315,"bcdba":6316,"bebbfed":6317,"cedbcbd":6318,"feebee":6319,"cbcedcc":6320,"cbbcecc":6321,"beeeebbce":6322,"abcbf":6323,"aedcc":6324,"bebdeece":6325,"febbef":6326,"bbdceee":6327,"cbfbbbd":6328,"cefbdf":6329,"cabcbb":6330,"bebdbbbe":6331,"cdcdde":6332,"ebceddbd":6333,"bbfbbebdeadcecfbfeedfed":6334,"cbcbebf":6335,"bbebbbbbe":6336,"cbbbdbe":6337,"cbecded":6338,"fdeeee":6339,"bcdcdee":6340,"bcebbbee":6341,"cbcbbbf":6342,"bcdbede":6343,"cbeebece":6344,"cceebcf":6345,"bbedbbce":6346,"cebccbd":6347,"bcbcbed":6348,"bbbbbbbbbbbd":6349,"bceccbb":6350,"bafbe":6351,"beedbbf":6352,"debdbee":6353,"febbcee":6354,"cbcbbdd":6355,"cdbfbc":6356,"cbccbbd":6357,"bbbccd":6358,"feecbe":6359,"becca":6360,"beefbee":6361,"fdeebe":6362,"cadbd":6363,"bbefed":6364,"cfcbcd":6365,"bedbccc":6366,"bddcbbe":6367,"bebcba":6368,"beeeebbbe":6369,"bebcffd":6370,"febbebc":6371,"bbbbced":6372,"beeebebbe":6373,"bcbbbefe":6374,"dedbbbe":6375,"beccbece":6376,"cdeeece":6377,"abead":6378,"cfcecc":6379,"bebbbbebb":6380,"debebfe":6381,"ebeed":6382,"cceccbb":6383,"bfecdcc":6384,"bebbbdee":6385,"cedbebd":6386,"bbccbed":6387,"baefe":6388,"ddbbcee":6389,"bbecebebe":6390,"bbdbede":6391,"dedbcbb":6392,"cdbecbc":6393,"cdbdeee":6394,"ccebbeee":6395,"aaf":6396,"babdf":6397,"bababb":6398,"cedcdf":6399,"cbeebebe":6400,"ccfeebc":6401,"dddbce":6402,"bdbbcbd":6403,"bbebbcbbbb":6404,"ddbea":6405,"cbbcebd":6406,"bddbfd":6407,"cbfbebc":6408,"bcfbef":6409,"cceebced":6410,"bbbdeed":6411,"cbefdd":6412,"ceebbbf":6413,"cbcfdd":6414,"ccdcdee":6415,"cbbebeee":6416,"dedbcee":6417,"cefbcd":6418,"bdfbcee":6419,"bfeae":6420,"fbbbcbd":6421,"cebbcebb":6422,"feefe":6423,"cbdebbd":6424,"cbcdeed":6425,"bcdebce":6426,"cbbfcee":6427,"ecfd":6428,"cddbcd":6429,"cebbbdbe":6430,"cfeedd":6431,"ddb</w>":6432,"cedfbe":6433,"ceccbce":6434,"cbcbbcbb":6435,"ceecbbbdecfbececdbedee":6436,"cddebd":6437,"fecebd":6438,"bebbbcce":6439,"bebbbede":6440,"cedceed":6441,"ffba":6442,"cddeebb":6443,"cbcebbbc":6444,"cebccef":6445,"fedfbc":6446,"bbebbbcd":6447,"cbcdbee":6448,"cbceede":6449,"bbecbbbb":6450,"cfcebb":6451,"bbdbdee":6452,"eeebbed":6453,"ccdcbbe":6454,"bcfbcf":6455,"bbbdbee":6456,"febbbce":6457,"bbbbbdf":6458,"bbbbeebc":6459,"fdcdee":6460,"bebbded":6461,"bcbbbebbe":6462,"bebcbedd":6463,"cbcea":6464,"cbdecee":6465,"bfefbd":6466,"cedbeed":6467,"bcbbdef":6468,"bfdbdd":6469,"bbebbbebbee":6470,"ccbedef":6471,"cbbedbf":6472,"cbcbbcebbfebbceebebc":6473,"ccebbeed":6474,"cdeedce":6475,"bbdccee":6476,"cedccf":6477,"bebebcce":6478,"cbeecbbe":6479,"bebccde":6480,"becccce":6481,"debbfbb":6482,"cfbbdd":6483,"ceebbdd":6484,"bcbbccbe":6485,"ccdbbcc":6486,"cfdbbf":6487,"bfbbcee":6488,"beebbcbebcbbbcebed":6489,"ceebbcbc":6490,"bbebfee":6491,"cbebbdf":6492,"fdccbc":6493,"bedcece":6494,"cbdcebb":6495,"bfebcbd":6496,"bddbced":6497,"bcbbcbf":6498,"cbeebbce":6499,"cfefcc":6500,"dedccd":6501,"bfdcce":6502,"debccd":6503,"eeeeeee":6504,"debecee":6505,"ddeeccbe":6506,"becbbeebb":6507,"bbbbbcbe":6508,"bbeecde":6509,"dddcdd":6510,"feddbb":6511,"bbbbbcbd":6512,"bbdfcc":6513,"fbbcebd":6514,"bebececbb":6515,"cfebef":6516,"dedceed":6517,"aefbe":6518,"caeebb":6519,"cdedcbb":6520,"febbcbe":6521,"cdbdbf":6522,"befeece":6523,"fbbae":6524,"cbbebcee":6525,"ccccfe":6526,"bdeebce":6527,"beccbebd":6528,"becbbbf":6529,"cbebecd":6530,"cbdbcce":6531,"bebbbeed":6532,"ffbfbc":6533,"ccebded":6534,"bdebeed":6535,"fdcbde":6536,"becebebc":6537,"defbfe":6538,"debcbbbb":6539,"cbfebce":6540,"cdedcbbcd":6541,"cffcbc":6542,"febefe":6543,"cfcbde":6544,"cbcbebce":6545,"cbbecef":6546,"cbeebcbb":6547,"bdeebed":6548,"abbdd":6549,"bfbecce":6550,"ebdeebe":6551,"cfbdce":6552,"bdecdee":6553,"cbdae":6554,"fbbbdbe":6555,"bbedbeee":6556,"dddbef":6557,"cedeece":6558,"cbccebc":6559,"bfecfe":6560,"bfebcbc":6561,"ffbdd":6562,"cceeb</w>":6563,"bbbccee":6564,"debcbebb":6565,"febbbcf":6566,"bbefcde":6567,"bbebebde":6568,"cbaef":6569,"acdee":6570,"ccecebe":6571,"bebbdebb":6572,"cbbecbf":6573,"ccfbcce":6574,"bffbee":6575,"bfdbbddbbbfbb":6576,"cceebddecfbbd":6577,"febecd":6578,"debcbbd":6579,"cbceeeebb":6580,"cbebced":6581,"cbeebcbc":6582,"bbeebeaeeecee":6583,"cbcbecc":6584,"ccdcfe":6585,"cbfececbb":6586,"deccfe":6587,"ccbdeee":6588,"beeebbeee":6589,"ccdeebd":6590,"bcdcedd":6591,"bebbcdd":6592,"cedbdee":6593,"ccfcdee":6594,"febbcf":6595,"cbbfbbd":6596,"ceeca":6597,"cfbdbe":6598,"cbcbcce":6599,"bddbecc":6600,"bebeccee":6601,"ceccbee":6602,"cebdcd":6603,"cbabf":6604,"beebcbf":6605,"cbdbcbb":6606,"cbdcebc":6607,"cdecebc":6608,"bebbcbed":6609,"befeed":6610,"cebdcbf":6611,"cdedcd":6612,"cececce":6613,"bebbbbce":6614,"feccefdf":6615,"cbbbcde":6616,"cedcced":6617,"dedfee":6618,"cefbcbc":6619,"bfbea":6620,"cbbbff":6621,"bebbbff":6622,"ccfcbf":6623,"fedfd":6624,"bcedbbee":6625,"bdbbced":6626,"cdbecde":6627,"cadcc":6628,"beebdde":6629,"bbebecd":6630,"ccedef":6631,"bedbede":6632,"cbbefce":6633,"bceebebe":6634,"beeeefee":6635,"bdecabbdbcfed":6636,"ebdebbe":6637,"febebbbb":6638,"ceebcde":6639,"bebbbcf":6640,"fbbbede":6641,"cedfee":6642,"befcbee":6643,"bebcccd":6644,"cebbbcbc":6645,"cebefd":6646,"decccd":6647,"cbebbeee":6648,"cbbfbee":6649,"dddd</w>":6650,"cdfbed":6651,"cbbbbbebe":6652,"cccecd":6653,"beefde":6654,"abdad":6655,"cbeebebdbcdceeebcdcbbd":6656,"febded":6657,"febdbc":6658,"bcebbef":6659,"bacde":6660,"cbbbbbed":6661,"ebedd":6662,"beeccde":6663,"bbdbebf":6664,"fbbca":6665,"cedca":6666,"cddbbbe":6667,"ccbbfbb":6668,"cbabed":6669,"fefcbc":6670,"bedeebe":6671,"beccebe":6672,"cbbdecdbb":6673,"ceececedcee":6674,"bbecbfe":6675,"ceebeed":6676,"cfbebf":6677,"cbdecde":6678,"febbcbc":6679,"cbceebf":6680,"bbdeedd":6681,"cfdef":6682,"fffbe":6683,"bddbeee":6684,"cbbebebd":6685,"aecbf":6686,"bbebcdd":6687,"ddbebed":6688,"eedbebb":6689,"cbbebcbb":6690,"bebcfbe":6691,"dedeef":6692,"bcedcbc":6693,"cbceecbe":6694,"bfebccc":6695,"cebbbeee":6696,"bbbcbebb":6697,"cebcbdd":6698,"bdcebee":6699,"cddcbddecccedbd":6700,"cfeeed":6701,"bbedfbc":6702,"bcedcbb":6703,"bdbbcde":6704,"eeebbde":6705,"ebbdd":6706,"bdecabbdbcfedceebbbbcecbb":6707,"ccecdf":6708,"fdbff":6709,"cddbebe":6710,"bbcebebe":6711,"bfbbddf":6712,"beeeebbee":6713,"cbebbbebc":6714,"ceecfd":6715,"fbbcebc":6716,"dedbebe":6717,"dedbbcc":6718,"bceecebe":6719,"bcfae":6720,"bbbccf":6721,"cfdfcc":6722,"bfbbbcd":6723,"cbebcdd":6724,"cbdedbc":6725,"bcdbcce":6726,"cebbba":6727,"bbebbbeee":6728,"cdbbbff":6729,"beebbbce":6730,"febbcce":6731,"bbebff":6732,"bbebbbbbbbb":6733,"ccdbece":6734,"dedcef":6735,"cddfce":6736,"cefcbf":6737,"cbceccee":6738,"dddbed":6739,"bdbbfed":6740,"cdffe":6741,"cecccbe":6742,"cebdbebc":6743,"bfbbbcbb":6744,"bccceee":6745,"bdecebbebdecdbd":6746,"cbbcebe":6747,"cbdbdbe":6748,"baeebc":6749,"eedbecc":6750,"bebecbf":6751,"cddfcc":6752,"ccfae":6753,"bbbdbbbe":6754,"bebdfd":6755,"debcbeee":6756,"bebbecbb":6757,"bbebdeee":6758,"ccdeebe":6759,"abecc":6760,"cceceed":6761,"bebbceee":6762,"bafcc":6763,"adcbc":6764,"cdbdfee":6765,"bbbcbbebcbdcdeeebdce":6766,"cbbcfd":6767,"bbdbcf":6768,"bbdfed":6769,"cbbdbbee":6770,"cbdefe":6771,"cebdfe":6772,"ddfcd":6773,"ccbdcee":6774,"ccebdf":6775,"fdbebf":6776,"cede</w>":6777,"bddcef":6778,"ccdbede":6779,"dddcee":6780,"cbcdcee":6781,"bbbbbbbee":6782,"cffcbb":6783,"fdbdbd":6784,"cdecbed":6785,"ffbdf":6786,"cebcbcee":6787,"bdbbbcee":6788,"cfda":6789,"bfbbfbb":6790,"edcc":6791,"bbbbfbbbb":6792,"bdebced":6793,"beeecebe":6794,"feefee":6795,"bdbbcef":6796,"bffcde":6797,"debdbbee":6798,"deccbee":6799,"cffcf":6800,"cbcfcbccebe":6801,"acbbeeee":6802,"cdeccf":6803,"bcdbfd":6804,"bbbca":6805,"cbcecbf":6806,"beedded":6807,"cbbdfbbbce":6808,"beebbbcee":6809,"cbbbcbf":6810,"bbdfde":6811,"cbddebc":6812,"cdecced":6813,"bfecbbbd":6814,"fbcbce":6815,"bbcecce":6816,"cbdebbee":6817,"cbcdcf":6818,"ccbbddbb":6819,"ccbecbbd":6820,"bebeeeeee":6821,"cbbfcbb":6822,"bbebded":6823,"cdcfce":6824,"bceccce":6825,"bdebede":6826,"eedcebc":6827,"bcbbceee":6828,"cbbeccee":6829,"cefbfe":6830,"bbbcff":6831,"cecccf":6832,"cdbbfd":6833,"cbebbfe":6834,"ceefdd":6835,"cdcdeccdebdebbbebeede":6836,"bedb</w>":6837,"bcdbfee":6838,"beeebff":6839,"bebefbd":6840,"bcbbeecc":6841,"ccfcccc":6842,"ccbecbee":6843,"bbbbbba":6844,"bbfeece":6845,"beebdecdbdbbee":6846,"cdebccc":6847,"baccd":6848,"ffcbee":6849,"bebceeee":6850,"bcfbdf":6851,"bdbbdef":6852,"cdbefd":6853,"bbdfbf":6854,"cbfedee":6855,"fbbceebcbccfbbbc":6856,"bbeb</w>":6857,"cbdcebe":6858,"cbffbe":6859,"bbedfbb":6860,"bdbefbb":6861,"bdbebcbb":6862,"bfccfe":6863,"fdbbbf":6864,"cddece":6865,"cbeccde":6866,"bedbeecc":6867,"bcfeef":6868,"cafd":6869,"cbdea":6870,"cdbbff":6871,"feccde":6872,"bcecbbd":6873,"cedbede":6874,"bddbede":6875,"ccdcccc":6876,"bdedcbe":6877,"bbefa":6878,"bebbbdbc":6879,"bddbedd":6880,"beeeccbb":6881,"bfdfee":6882,"bcbccbe":6883,"bebbecbc":6884,"febbeed":6885,"bfbccbb":6886,"deccee":6887,"bedcebf":6888,"dedba":6889,"cbdebbf":6890,"bccecf":6891,"febbcbf":6892,"bbebdbf":6893,"bbebdbbbb":6894,"bbdbbbbe":6895,"bbecfc</w>":6896,"bedccee":6897,"bfebebf":6898,"cfebbcc":6899,"bcfbebf":6900,"cddfee":6901,"cebcbef":6902,"cecefd":6903,"ddbba":6904,"bbeebeaeeeceebbefebed":6905,"beeceed":6906,"cbecbfe":6907,"ffddd":6908,"bbfeebb":6909,"aebebe":6910,"becccd":6911,"cbddbf":6912,"dededd":6913,"bbebbbbcc":6914,"cbeddee":6915,"cedbece":6916,"bbfbbed":6917,"ccfcbee":6918,"beedfe":6919,"fbcbbe":6920,"bccecce":6921,"cebecef":6922,"febbccebc":6923,"bfecbce":6924,"beeebdd":6925,"cbbebbed":6926,"dedff":6927,"bbbccbc":6928,"cacde":6929,"bffbde":6930,"eceeee":6931,"cbebdde":6932,"cbdbbed":6933,"befcef":6934,"bbfbcd":6935,"beccbcf":6936,"bccecbb":6937,"bcdea":6938,"cbebbcbe":6939,"beeabbf":6940,"debdee":6941,"cbddef":6942,"ceeeccd":6943,"cbcbbeee":6944,"cbddebd":6945,"bfebcde":6946,"cedcecd":6947,"bcbbbebbbb":6948,"bdeebcbe":6949,"bbcea":6950,"bdbbbeee":6951,"cebdcee":6952,"bcebbbbe":6953,"febccee":6954,"bbdbbcbb":6955,"bdecbf":6956,"bdebccc":6957,"cebbfed":6958,"cebbbeed":6959,"cbcebbbe":6960,"cfdbbe":6961,"ceccbcd":6962,"feffe":6963,"bbbbbbbbbbd":6964,"ccebbfe":6965,"bdebbbf":6966,"beeddbb":6967,"bbbbeef":6968,"bbedbbcc":6969,"ccccbccc":6970,"ccbbcbee":6971,"cfbbcbb":6972,"bcbbeebd":6973,"afbbcebd":6974,"beecded":6975,"beebbebe":6976,"cbebefe":6977,"befeebc":6978,"bceefd":6979,"cebccced":6980,"cbedcbf":6981,"bdbbbebc":6982,"bfffbb":6983,"cbcdff":6984,"cffbbd":6985,"cbebbcee":6986,"cbefcce":6987,"bebbeece":6988,"beebebbffccbcdcbbd":6989,"ebdce":6990,"cbcc</w>":6991,"bcdceed":6992,"cfdfe":6993,"bfeede":6994,"cbefbbd":6995,"beebceee":6996,"fbbbdf":6997,"bddcfe":6998,"eedccd":6999,"bbfeebc":7000,"bdbecbee":7001,"bfeebbf":7002,"ccbebde":7003,"bbbbbbbbbbbe":7004,"bbecede":7005,"cdddbb":7006,"cbececc":7007,"cceeced":7008,"cceeddd":7009,"bfeeeee":7010,"cbebcbed":7011,"cbbccbc":7012,"cbccbce":7013,"fdcece":7014,"bddbebc":7015,"cebbbcbe":7016,"bfdbcce":7017,"ccfddd":7018,"bbbdbbee":7019,"cfdbcf":7020,"bbbbbbbed":7021,"bbebcbbd":7022,"beebecd":7023,"cedcede":7024,"bebecbee":7025,"cbbecbd":7026,"cebbceee":7027,"cbedded":7028,"bdedbce":7029,"bbebebebb":7030,"eeecbee":7031,"bebbbfd":7032,"bdeeeebb":7033,"bdbecbd":7034,"fccfe":7035,"decccbb":7036,"cdccfe":7037,"bebcecd":7038,"bdecef":7039,"bcbbcef":7040,"cddbdf":7041,"cebbbcbd":7042,"bfdbbbd":7043,"ceeebcbc":7044,"cffcce":7045,"febcdd":7046,"cbcbdf":7047,"bcbbbcce":7048,"ccdcbce":7049,"ccdbbce":7050,"cfecbf":7051,"bbedbcf":7052,"beedeebb":7053,"abbcee":7054,"ccefbf":7055,"abcad":7056,"cbdedce":7057,"bfebfcbfcfcc":7058,"bbebeeee":7059,"cbbb</w>":7060,"eeecef":7061,"cdebebd":7062,"cdecdee":7063,"bfecccc":7064,"ffccbc":7065,"bfdeebb":7066,"cbedbbbb":7067,"cfdcce":7068,"cecddd":7069,"bdefde":7070,"ccebdcbe":7071,"ebbbbd":7072,"fdbcbd":7073,"fbbbcebc":7074,"dedfed":7075,"ccfbcd":7076,"beccbebb":7077,"cdeebbd":7078,"cfdbbd":7079,"defbde":7080,"fefbbbb":7081,"cfbcfe":7082,"ddcebbd":7083,"cebbcbeccbeedee":7084,"bbecbcd":7085,"cbcccbb":7086,"cbdbff":7087,"cdebecc":7088,"eedbbee":7089,"bfbbfd":7090,"cbbbbbde":7091,"bebeedd":7092,"ebbde":7093,"dedbbcdbf":7094,"bbedebc":7095,"cbbbbbbd":7096,"cdeddd":7097,"eedeebc":7098,"fbccbe":7099,"becdfe":7100,"bfbebbd":7101,"beeeefbeebbbfebfeebfbcebffbbbeebceebbebfebb":7102,"ab</w>":7103,"cbbccce":7104,"bdebece":7105,"bcdbcbe":7106,"bcbbccbb":7107,"cfebbbd":7108,"cbbdbbbc":7109,"bdeefbb":7110,"bbebbba":7111,"bebfbbbe":7112,"bdedbebc":7113,"cdbccf":7114,"befebf":7115,"bcecdbe":7116,"cbcbeed":7117,"ccecebc":7118,"cbdcdee":7119,"bfecdf":7120,"cedeecc":7121,"bbebbcbbe":7122,"cbbfcbe":7123,"cfbbfd":7124,"beebdbdd":7125,"bbbbbccbbe":7126,"cbbfed":7127,"bebefcc":7128,"cceebbbd":7129,"bcedcef":7130,"defeee":7131,"cebdbed":7132,"bdbebebb":7133,"cbfebee":7134,"decccf":7135,"ecfe":7136,"cbdbdbb":7137,"bcdbbed":7138,"bcdbecd":7139,"cbfbdd":7140,"bbbebcbb":7141,"cbeeedbb":7142,"bbbbcbee":7143,"bcbbccee":7144,"bceebced":7145,"cceeded":7146,"cbedbbf":7147,"cbbdced":7148,"ddfcf":7149,"bcebbcee":7150,"cdddde":7151,"cfbdbf":7152,"bcbfdd":7153,"beebff":7154,"bbbbbcf":7155,"fdbeee":7156,"debbbebc":7157,"debdcbc":7158,"bebeebf":7159,"beebceed":7160,"ceeedbe":7161,"bcebebbe":7162,"bdebebbe":7163,"bedbecd":7164,"bfebebd":7165,"befae":7166,"ceedbbd":7167,"ddbbdefe":7168,"febeff":7169,"efe":7170,"bceccde":7171,"babcbd":7172,"bebebdee":7173,"cddded":7174,"bfdbfe":7175,"bcbccce":7176,"cbbdff":7177,"ccedbdf":7178,"cecccee":7179,"cccecde":7180,"cfbbbbe":7181,"cbefbbe":7182,"cecdbf":7183,"cbcfde":7184,"dddebbebbbbebd":7185,"cbbbbbbeebc":7186,"ccdeedbef":7187,"bfdcebeeeddbbbdcbfbbceffedbdeecdbb":7188,"cbbdfbbbceccef":7189,"cbfcebe":7190,"fedbfe":7191,"fbcbbbb":7192,"bdedcce":7193,"cdbea":7194,"beefcd":7195,"bfbecf":7196,"ccdeedd":7197,"bebceece":7198,"afbbcebddddee":7199,"cbebdf":7200,"fbbcecbb":7201,"dedccee":7202,"bceeccee":7203,"bfcebf":7204,"cbebceed":7205,"ebbebb":7206,"bbefebb":7207,"bceceed":7208,"cbecbde":7209,"babbcc":7210,"cbeecded":7211,"febccf":7212,"afbbbb":7213,"eeefeee":7214,"bdeabecbbcbbce":7215,"ceebebf":7216,"bceebdf":7217,"ccfccbc":7218,"defbcbc":7219,"fcebbdbb":7220,"ddeecce":7221,"cbbbcbee":7222,"bceccbbbb":7223,"ddbef":7224,"cfbdde":7225,"cbdbfee":7226,"cedbbeebd":7227,"bcbbcefd":7228,"bcfeebc":7229,"bbedfbd":7230,"beedbcbb":7231,"cfdeee":7232,"defbdd":7233,"bfbbbfbb":7234,"bdbebeee":7235,"bcbdeee":7236,"cdbebde":7237,"decebf":7238,"affd":7239,"feccbf":7240,"beead":7241,"cfebbce":7242,"bcfbcd":7243,"ccfcbbe":7244,"cbedfee":7245,"cdfeed":7246,"debbbcbb":7247,"cebdbebe":7248,"cdbba":7249,"ccbdbbe":7250,"decebbd":7251,"cfbceee":7252,"ceeeebbf":7253,"bcebdbd":7254,"cfcbbd":7255,"cfbecd":7256,"cbfbcbb":7257,"cfefbb":7258,"cebbccf":7259,"bfdcdd":7260,"dddbcd":7261,"cdbbbebe":7262,"debebed":7263,"bbefbde":7264,"ebdeebecebbbc":7265,"addf":7266,"bfedebc":7267,"bcfbebc":7268,"cbbbbbedce":7269,"cbeedde":7270,"fecceed":7271,"bbbbfbbdcbbdecdbb":7272,"babef":7273,"bebdddd":7274,"ccccccce":7275,"bbcecee":7276,"beebbbcbb":7277,"becbbacc":7278,"ceeeece":7279,"bcecece":7280,"cfceee":7281,"cbeccce":7282,"cbcca":7283,"ccececc":7284,"bebecdee":7285,"bbedcfe":7286,"bdeebbf":7287,"beccbbbb":7288,"ccbbbebb":7289,"bdcecbb":7290,"bcdbbbf":7291,"bdefed":7292,"bbdfce":7293,"cdeddee":7294,"ffcdd":7295,"cbfdef":7296,"cbfbcbe":7297,"ccdceee":7298,"bbeefbc":7299,"bebcfbd":7300,"bcfbced":7301,"ceedbef":7302,"bdbbbced":7303,"cbbbdfee":7304,"cbdbebf":7305,"beeecbee":7306,"aebcbc":7307,"bbebccee":7308,"febedd":7309,"cbbcdf":7310,"fbbcbce":7311,"cceea":7312,"ceedcebe":7313,"debccbc":7314,"cdcccd":7315,"beecceed":7316,"cbbbfbb":7317,"bcecebe":7318,"bebbbcde":7319,"dedeebc":7320,"adcbe":7321,"ccedcfe":7322,"bbbbdeee":7323,"cbfecbe":7324,"bfbceed":7325,"cbefbee":7326,"ccdecce":7327,"befedd":7328,"cbeccbf":7329,"bddfdd":7330,"abfbb":7331,"debdf":7332,"bedccbb":7333,"cdebcbd":7334,"bebbbecbe":7335,"cbeecbd":7336,"befcdf":7337,"cddeeee":7338,"cceeccee":7339,"ccfbfe":7340,"bebdeed":7341,"debbcfe":7342,"fbecce":7343,"debefe":7344,"ceebbeee":7345,"cdebbdd":7346,"bdebbeebb":7347,"fdcbbd":7348,"fdbced":7349,"bfdabfe":7350,"cfdcef":7351,"bccebbee":7352,"debdfe":7353,"fefcd":7354,"cdbcfe":7355,"bbbbbddd":7356,"beebbbbbe":7357,"ccdbeeeedbbdedcebbedfdeed":7358,"acdf":7359,"cbdbebbe":7360,"dedcebb":7361,"cbbdbbbe":7362,"bcbebeee":7363,"cbdfdcceebddecfbbd":7364,"bcbedebebbdbd":7365,"fbbbebf":7366,"bceebfe":7367,"cbbbbcd":7368,"ccefcd":7369,"bbfccbbbc":7370,"beebae":7371,"bddccd":7372,"cbbefcc":7373,"bebccdd":7374,"dedeecc":7375,"bbbbdbbbe":7376,"bcdfde":7377,"fbbeebe":7378,"bfbebee":7379,"fdbccc":7380,"bcdcebc":7381,"bbeecbf":7382,"cbcefee":7383,"ccfccf":7384,"bdedcbb":7385,"cbefbce":7386,"bfbbefbc":7387,"cebdbebbacbbeeee":7388,"bbeccce":7389,"fdbdce":7390,"bedd</w>":7391,"cedfbd":7392,"bddbdbd":7393,"cbbefbd":7394,"bdfae":7395,"ceccbbf":7396,"fefbee":7397,"bfbccbe":7398,"adef":7399,"cbbceed":7400,"cfbede":7401,"fdcff":7402,"bacdd":7403,"bebccbf":7404,"cdedcde":7405,"debecbbd":7406,"afbbd":7407,"beebbbbee":7408,"cfbdcc":7409,"cbcae":7410,"fdccbd":7411,"ccdcbbf":7412,"bebcccee":7413,"bdfbde":7414,"cebdbbd":7415,"bfeebbee":7416,"feebbbce":7417,"cebdbebbacbbeeeecbbcbe":7418,"cbeeccf":7419,"cfebcbb":7420,"cabcf":7421,"cabea":7422,"becccbc":7423,"bbefcbb":7424,"bfbccf":7425,"bbebecce":7426,"ceefde":7427,"cdfede":7428,"cecbbde":7429,"beebebebb":7430,"bebebbcc":7431,"bcbbbebcbbfe":7432,"beeceee":7433,"babcbc":7434,"fbbbcbe":7435,"cedcece":7436,"eedbcbe":7437,"bebebece":7438,"dedbdbb":7439,"bbbccbe":7440,"cabbee":7441,"bcbdbde":7442,"ceebba":7443,"bcececc":7444,"ffcbcd":7445,"cbbfeee":7446,"cbadbbdddde</w>":7447,"bcdcfd":7448,"cbbebebc":7449,"cceebfe":7450,"debbccf":7451,"eebba":7452,"fdbbdd":7453,"befeebd":7454,"fead":7455,"cbbbecbc":7456,"bcdbcbc":7457,"eedeecc":7458,"cfebece":7459,"bbeebed":7460,"bbedbef":7461,"bbcebebb":7462,"bdfcbf":7463,"adbed":7464,"bbccbbf":7465,"debbbebe":7466,"bdedcd":7467,"bbebecbc":7468,"cfbba":7469,"bfcedd":7470,"cbbbdbf":7471,"bdbecef":7472,"abbcf":7473,"abccbbee":7474,"cbecebce":7475,"cbbfebddeecebc":7476,"dedbfcfbc":7477,"beebeeee":7478,"cbdcbed":7479,"cefcbbbc":7480,"fbebce":7481,"cdbccee":7482,"bfebbcbecdbfeee":7483,"beecfee":7484,"cbcbede":7485,"eeebebd":7486,"bfebfee":7487,"cbbecebc":7488,"bcfceee":7489,"ccfcfe":7490,"debcff":7491,"cbeeecbb":7492,"abbfe":7493,"bfcecbb":7494,"cbebdbbd":7495,"beebccbebbdbcfbb":7496,"cbfcbee":7497,"debecde":7498,"cfbbbbebd":7499,"bbecebee":7500,"cbebdbf":7501,"cbfedbc":7502,"bcecdde":7503,"cbeebef":7504,"bceebbbd":7505,"aebebc":7506,"beebbbebe":7507,"bcdecd":7508,"abbbbe":7509,"cfbdd</w>":7510,"bcdbdbcbd":7511,"bbddef":7512,"fcebbbbfce":7513,"decebbbb":7514,"ceecebe":7515,"cfcecd":7516,"cfcebf":7517,"bdebdbd":7518,"cdecbce":7519,"bdcecbe":7520,"bdefbf":7521,"bebbfbf":7522,"bbecfd":7523,"cfddee":7524,"cbecdbb":7525,"bedbdbd":7526,"cedcebd":7527,"beeebbebb":7528,"bcfeecc":7529,"cbdefbb":7530,"debbbcee":7531,"fccdd":7532,"cdbeceee":7533,"bbefbfe":7534,"bdbccf":7535,"bcebbfe":7536,"cdcceee":7537,"bdefdd":7538,"beeccecbeeecc":7539,"cbbbebbbb":7540,"ceebecbb":7541,"ccdbeee":7542,"fbceed":7543,"ccedcbee":7544,"cdbebbd":7545,"bbefbebb":7546,"bfbcbbd":7547,"bfcede":7548,"cefbecbfbb":7549,"bcefbccbee":7550,"cbbdfbbbceccefddeecd":7551,"cedccbe":7552,"befbdf":7553,"bbbebcd":7554,"cbbdcbd":7555,"babbbf":7556,"cbccecc":7557,"fbbbecc":7558,"bcbbbcbd":7559,"bebcbcbe":7560,"cefbebb":7561,"debcfd":7562,"cdbcbee":7563,"cedbcdd":7564,"cbbcbbbb":7565,"ceebecd":7566,"eedcdebb":7567,"cfebcbe":7568,"bbebbcebb":7569,"bbbbbbcd":7570,"bbdeede":7571,"bedbbbf":7572,"cbebeed":7573,"bddfed":7574,"cfecebb":7575,"bbedcebb":7576,"bcedbbd":7577,"ccbbbcbb":7578,"bfbcbee":7579,"ebdebd":7580,"ccebff":7581,"fffce":7582,"bfdbef":7583,"bebdbbee":7584,"bebdfbc":7585,"ccbbbed":7586,"bcebbcf":7587,"cfbcdd":7588,"bbececbe":7589,"cbdbbeee":7590,"cbeeebbbf":7591,"abecd":7592,"bcead":7593,"ccecebb":7594,"cbdbecc":7595,"beeeccd":7596,"bcbbbbebbe":7597,"bebcbdd":7598,"dddbbee":7599,"bbcccbc":7600,"bbebbced":7601,"bbebdbee":7602,"bbebdbbee":7603,"cdbfdd":7604,"ccecceed":7605,"bbbbbdcbbed":7606,"bfdabfebeede":7607,"cceba":7608,"bfebdee":7609,"bacba":7610,"dedcbee":7611,"bbedeebc":7612,"bcbdbbd":7613,"deccbbf":7614,"bfbceee":7615,"cadce":7616,"ddfce":7617,"bcebebf":7618,"bdeae":7619,"bdebecd":7620,"bedccf":7621,"cdebeee":7622,"fbbfecd":7623,"ffcdf":7624,"cceebcd":7625,"bbedbebd":7626,"bfdd</w>":7627,"ceeebdbb":7628,"beeeebbd":7629,"ddbbbbe":7630,"beefcbd":7631,"beecbcd":7632,"bedbebbe":7633,"cebccbee":7634,"beceff":7635,"ccebbdd":7636,"ecbbe":7637,"cdccbd":7638,"cbecebe":7639,"cbebdbd":7640,"cedeeee":7641,"befcebd":7642,"dedbeee":7643,"aebcbe":7644,"bcfcbbe":7645,"bbbcbebe":7646,"cbcebebc":7647,"bcbcbcd":7648,"cbbdbbbd":7649,"ccccbce":7650,"bebeeeee":7651,"cbeffe":7652,"bcbcbcbcbcbcbcbcbcbcbcbcbcbcbcbc":7653,"bedbdee":7654,"bebbdef":7655,"cedbccc":7656,"cbbebced":7657,"ceeecbebebbdece":7658,"bcbdbebe":7659,"debdeed":7660,"ddeecf":7661,"ceecbecfcd":7662,"bbecdf":7663,"bafbc":7664,"ffbecd":7665,"cebbcef":7666,"cbcebbce":7667,"becebdd":7668,"cbfecd":7669,"ccbefe":7670,"bbebccbb":7671,"cbcedbe":7672,"edef":7673,"beebdbd":7674,"beebea":7675,"bcecdce":7676,"ceebdbb":7677,"ccebdbe":7678,"ccecdbd":7679,"bacbd":7680,"befcced":7681,"cefbced":7682,"bbbdddf":7683,"beeda":7684,"bbebbbeebb":7685,"bfeebeccefbebbd":7686,"beddbf":7687,"beeebbfbb":7688,"cfbfcebdbebbacbbeeeecbbcbe":7689,"cedbbed":7690,"eedae":7691,"bccebde":7692,"cbbbdcee":7693,"aceebc":7694,"bbebbeebb":7695,"fdbecd":7696,"cbeebdd":7697,"debbba":7698,"cbbbbfbb":7699,"cbebbcbc":7700,"cdccde":7701,"bceccbc":7702,"cbdb</w>":7703,"cedeef":7704,"ffcebb":7705,"ccdbebb":7706,"dedfcc":7707,"bfdeef":7708,"cfbbeee":7709,"cdeedbc":7710,"cdfdde":7711,"ebbdbd":7712,"cbbbbebe":7713,"bbdbecd":7714,"bddbdbb":7715,"beeeccee":7716,"cbbebbcc":7717,"cbbefbe":7718,"befccee":7719,"bceebccc":7720,"cceeceed":7721,"bebdbef":7722,"cebcbebb":7723,"defcdd":7724,"cdfcee":7725,"bdbeced":7726,"debdbbbb":7727,"becbbde":7728,"abcabd":7729,"bebebbbe":7730,"ceeecdbfbb":7731,"afed":7732,"beecbebb":7733,"beddebc":7734,"babebee":7735,"ffbcbd":7736,"aebece":7737,"bbedcbf":7738,"cefcdee":7739,"bcefbbbb":7740,"bedbbdd":7741,"aedbe":7742,"bbebcedeceee":7743,"beebefe":7744,"cbdcebf":7745,"ceddebc":7746,"ccdba":7747,"beedff":7748,"ceedbbbb":7749,"debbcbee":7750,"febbbef":7751,"bfbefd":7752,"ceefbbbb":7753,"bdccbf":7754,"abdbc":7755,"aceecc":7756,"ebcebb":7757,"beecebd":7758,"cbccedd":7759,"ccebfd":7760,"cdeccce":7761,"bfebcbe":7762,"bcdae":7763,"beeeccf":7764,"bcbbfcc":7765,"beccfbb":7766,"beccbebc":7767,"cdfebd":7768,"bacbf":7769,"eedcef":7770,"bceeccd":7771,"bfdbebb":7772,"cebcbcf":7773,"bcbcff":7774,"cbedcbee":7775,"bdcebbe":7776,"bbebcbbe":7777,"bbdeecee":7778,"beeccbf":7779,"ccebdbbbbf":7780,"beebdbc":7781,"beecff":7782,"febede":7783,"beeededd":7784,"cceebbbc":7785,"dddcce":7786,"cbfebbe":7787,"bbebdbbf":7788,"cbbbcdd":7789,"bcdbbde":7790,"cdc</w>":7791,"cbbcccc":7792,"bedbdde":7793,"fbbceed":7794,"ffbcce":7795,"beeecdd":7796,"bcbbcbbd":7797,"bebdbbbc":7798,"beccbdd":7799,"cbdebcee":7800,"cbcdfd":7801,"becdcbc":7802,"ddbbbce":7803,"bedbbcee":7804,"bedbbcbe":7805,"ccebcbf":7806,"cbdedbd":7807,"cdebced":7808,"eedbbce":7809,"eedfcc":7810,"eedeef":7811,"cfebebb":7812,"cebcbcce":7813,"ccbebbd":7814,"bbbbbbbebe":7815,"ddbbfbb":7816,"cfeebbbd":7817,"bcebcfe":7818,"ddbcbbeddebde":7819,"cfcfd":7820,"ccdbfee":7821,"bbedfbe":7822,"cbdebbbb":7823,"bbdfbce":7824,"cefeebd":7825,"ebdedd":7826,"cbbbdbc":7827,"cfbdbc":7828,"ccecbbd":7829,"bcbbbccc":7830,"beedbcd":7831,"becefbb":7832,"bdbbbbed":7833,"bbcccbb":7834,"bbccbbbb":7835,"cbbbbfe":7836,"ccbcbce":7837,"beefbbd":7838,"bbecedd":7839,"deddde":7840,"bdebcfe":7841,"beedef":7842,"beebedd":7843,"ceebdebc":7844,"cceebebc":7845,"bfdbbce":7846,"bbbdcbe":7847,"cebcbeed":7848,"cbedbbbe":7849,"beccbebe":7850,"cdfcde":7851,"cbfea":7852,"cbaebc":7853,"cbdbeced":7854,"cbdcbce":7855,"cebbcdee":7856,"feea":7857,"beccfed":7858,"ceedbde":7859,"beebdbf":7860,"cdeeebe":7861,"cdbbdee":7862,"cedbcbc":7863,"bddbcf":7864,"beeefbc":7865,"cebccfd":7866,"ccbbded":7867,"beebbbcd":7868,"cbebbcce":7869,"fbbcebe":7870,"bebcbcbb":7871,"ccfddee":7872,"fedbbf":7873,"bdfcbd":7874,"bbebefe":7875,"beefa":7876,"feccdd":7877,"bbeccbf":7878,"cddebb":7879,"cbccfd":7880,"bfecbbd":7881,"cedcfd":7882,"cbbecbbd":7883,"cfefbe":7884,"adbebb":7885,"bfbdbbbb":7886,"bfbebbe":7887,"cbebebee":7888,"cbecbef":7889,"ccebdde":7890,"bdeb</w>":7891,"dedbcbe":7892,"bceebcd":7893,"ccfbccc":7894,"cabbce":7895,"bdeecbc":7896,"bdfcee":7897,"adbce":7898,"ccedfe":7899,"cbbbbff":7900,"ddbcdd":7901,"dedbdbbbbf":7902,"beeb</w>":7903,"bcecbef":7904,"bdeceee":7905,"cdebece":7906,"bacef":7907,"beeecbf":7908,"bebebebbe":7909,"bcbbfce":7910,"cbeeeebc":7911,"bbfbef":7912,"bdbbbeed":7913,"bfbebce":7914,"aeea":7915,"badde":7916,"fdfbf":7917,"beceedd":7918,"cdbbbeddebecbfcbeee":7919,"beddecc":7920,"cfecced":7921,"bbeecbd":7922,"bcfbcbe":7923,"bebdfce":7924,"cdeebbbc":7925,"cbeeede":7926,"cdcded":7927,"bbbbbccc":7928,"bbeecbc":7929,"cefbcee":7930,"ccffbb":7931,"cabbbd":7932,"cbbda":7933,"beccae":7934,"cecca":7935,"cdbebdd":7936,"bedecbb":7937,"bbebecf":7938,"bebbbecbbee":7939,"ceedebc":7940,"bfebced":7941,"bcdb</w>":7942,"bebbbccc":7943,"eedbef":7944,"cebbdebb":7945,"ceeebfe":7946,"cfdeebc":7947,"cebdbbf":7948,"cbcdcbe":7949,"bbbbbbfe":7950,"cecebcf":7951,"cdcecbb":7952,"bcebceee":7953,"ddcdcb</w>":7954,"bcefebb":7955,"bebbccbe":7956,"bfdfcc":7957,"bdeebde":7958,"bdeecbf":7959,"ddbbcbc":7960,"beefbbbb":7961,"cbbccdd":7962,"bbeceebb":7963,"cdbbbbd":7964,"bedad":7965,"bddcebd":7966,"cfebdbc":7967,"cddced":7968,"bfdded":7969,"fedff":7970,"cdfbeed":7971,"cebecfe":7972,"ccbefd":7973,"cecebbf":7974,"cbfdde":7975,"beecceee":7976,"bceddbcbecfd":7977,"bcecebf":7978,"cbebdbc":7979,"fbbccee":7980,"bcbbbdbb":7981,"bbeebbce":7982,"bbbccbf":7983,"fedbebc":7984,"ceedcbbd":7985,"eeeeeeee":7986,"bfeecbb":7987,"fcea":7988,"fdeedd":7989,"bfefbbd":7990,"cbeebebdbcdceeebcdcbbdbbebecbee":7991,"bdecabbdbcfedceebbbbcecbbeeee":7992,"bbebcebb":7993,"ddae":7994,"bbdcbed":7995,"bedbedd":7996,"cdecbde":7997,"bceecbee":7998,"dddff":7999,"bbebbfd":8000,"cbecceed":8001,"febccbbcbcece":8002,"febcef":8003,"bcebded":8004,"bebeccd":8005,"bbeefbe":8006,"bceecbf":8007,"cebcbebc":8008,"feda":8009,"cffa":8010,"cfbbcbc":8011,"eceee":8012,"bbdd</w>":8013,"bebebdce":8014,"dedbccc":8015,"bceecfe":8016,"cbedcbd":8017,"bbcca":8018,"cebecebb":8019,"ccbbbfe":8020,"febbcbd":8021,"cbbedfbd":8022,"cfbdbef":8023,"bcebecd":8024,"bfebebbe":8025,"cfecbce":8026,"cabbbe":8027,"cebcceee":8028,"bebffd":8029,"cbcdeeee":8030,"ddbbbee":8031,"bedede":8032,"cbefcee":8033,"cfbddd":8034,"accbf":8035,"cceae":8036,"cdeceee":8037,"cddccd":8038,"cebbcfe":8039,"bbedcef":8040,"cbeda":8041,"beedbfe":8042,"debdcd":8043,"debdeee":8044,"decccbc":8045,"ddfcbee":8046,"cfeebbcc":8047,"cbbbceee":8048,"abcbee":8049,"cceefbbe":8050,"dddebbebbbbebdcdbbf":8051,"cbbbced":8052,"cceeeebc":8053,"ccccfd":8054,"eebbcde":8055,"debefd":8056,"bbbbbbbbbbbbbbbbbb":8057,"cbbbbbbbbbbbb":8058,"bbedbbcbbfebddeecebc":8059,"baedbb":8060,"fefef":8061,"cfcded":8062,"bebeccbb":8063,"dedcecd":8064,"bcfbff":8065,"cebcbedd":8066,"fedcbd":8067,"bccebbbe":8068,"ccbccbb":8069,"cdcecbe":8070,"bbbbbbbbbbbbbbbbbbbbbbbbbbbbbbbb":8071,"bcebdbc":8072,"bbdccd":8073,"debebcd":8074,"cffcded":8075,"ebebf":8076,"cdbfbb":8077,"cdcbfe":8078,"bbdcebe":8079,"bfeccee":8080,"fbbcccc":8081,"cedbdde":8082,"eedbecbb":8083,"cfebbbe":8084,"bbfbebb":8085,"dedbef":8086,"bceecbed":8087,"cebbbced":8088,"ccfbece":8089,"feecbc":8090,"bbbbdbebb":8091,"bfbcbed":8092,"bbebcbed":8093,"ceebbeed":8094,"beebdbcebdbbee":8095,"beedebd":8096,"cfccef":8097,"bdebdce":8098,"bcdbfbf":8099,"ffbeee":8100,"bcbbabb":8101,"cbbecede":8102,"bbeecf":8103,"bebcfed":8104,"ceeebecc":8105,"cbdefbc":8106,"bdbecbbe":8107,"cdbbcce":8108,"cdbebbed":8109,"cbbeebbbb":8110,"ddfa":8111,"bbdbcbf":8112,"beebccbebbdbcfbbcdfbce":8113,"bbecdde":8114,"cedcbbd":8115,"cedceeee":8116,"bbeefd":8117,"bbbdcbc":8118,"dddcbc":8119,"cbedbebe":8120,"debccef":8121,"bfbecfe":8122,"cbdedbe":8123,"cbbbecbb":8124,"bdebdbb":8125,"cdeded":8126,"babbce":8127,"cebbbcce":8128,"caff":8129,"bdbdbbbb":8130,"cfedcce":8131,"eeebbfe":8132,"bbdfdd":8133,"cbebecbb":8134,"bafbd":8135,"cedcebe":8136,"bebebcebb":8137,"bebcfcc":8138,"bceecbde":8139,"bceebdbb":8140,"cddcddd":8141,"cebbcede":8142,"bdeefd":8143,"cdeebcde":8144,"cecccbc":8145,"cbcda":8146,"bfeebebb":8147,"cecebcd":8148,"bbebdcbadbbdddde</w>":8149,"cbeebbcc":8150,"cefccce":8151,"ceedbebf":8152,"bdbeff":8153,"febbfd":8154,"cdbecef":8155,"cbbbccee":8156,"bedbbeee":8157,"ddddde":8158,"bcccdebebd":8159,"bfebbed":8160,"fbbcdf":8161,"ceddef":8162,"ceddecc":8163,"bcbbcfe":8164,"aebcf":8165,"bcfcdee":8166,"cdeeeebb":8167,"bffbce":8168,"bbbbbbfbb":8169,"bcebbcbc":8170,"bfbefbb":8171,"afa":8172,"ddbceee":8173,"bbbbbcbbd":8174,"bbbbbdcbd":8175,"cbeefbf":8176,"ceecdbd":8177,"beeebbce":8178,"bbeeeebb":8179,"bceebcbc":8180,"cdbdbbebb":8181,"cfbbcee":8182,"dececbc":8183,"fffbf":8184,"cfcebbf":8185,"cbbbbbbcc":8186,"fecdbc":8187,"bbbbcbf":8188,"bdecced":8189,"bebbcebc":8190,"bebbddd":8191,"beeecbbe":8192,"bebcbcde":8193,"cceebebd":8194,"cbcebef":8195,"adfbb":8196,"ccbbbef":8197,"beebbcbd":8198,"ccdecee":8199,"befbdbcbc":8200,"bbeddf":8201,"cbbbbef":8202,"bcedebc":8203,"baddd":8204,"bddbebd":8205,"dedbdbe":8206,"cbcecbce":8207,"cebceeed":8208,"bfeecd":8209,"abbeee":8210,"befecbc":8211,"fecded":8212,"cbeccbc":8213,"fdcebf":8214,"bfeccbc":8215,"bcdbebbe":8216,"cbfbdbb":8217,"bcbbcbbbb":8218,"cfefee":8219,"bbeebcd":8220,"cceecebd":8221,"ccedfee":8222,"cecebbd":8223,"dececce":8224,"cbdbbde":8225,"bbecbbf":8226,"cbbbdbd":8227,"bbbbbecd":8228,"cfbdbd":8229,"bedbcbd":8230,"cedceee":8231,"ccdbcbc":8232,"ccdcdce":8233,"befcdd":8234,"cfecebc":8235,"bceebdd":8236,"cbedcbed":8237,"debdbbd":8238,"becbbbbd":8239,"ddbdf":8240,"cbefed":8241,"cbebebbd":8242,"fbbbdbd":8243,"cbfad":8244,"cbeebcce":8245,"cfefce":8246,"dedcebd":8247,"ceeeccbb":8248,"cabed":8249,"debcfbbbd":8250,"bcccbdd":8251,"deccbed":8252,"cecdbbf":8253,"cbfeebd":8254,"bedbdebebbd":8255,"beebdecdbdbbe":8256,"bcecbfe":8257,"cfddf":8258,"bdeccbe":8259,"ccdae":8260,"bceecef":8261,"aebcbb":8262,"ceeefbb":8263,"becebfe":8264,"cebdbbbe":8265,"fcecbb":8266,"bcdeede":8267,"fbbeece":8268,"eeeccf":8269,"bcdbdbd":8270,"cbfbfd":8271,"bcfbbed":8272,"bcbeccee":8273,"bebfbbf":8274,"ceccded":8275,"cfeecbc":8276,"bbecbbbe":8277,"bdeccf":8278,"cdecded":8279,"bddcdee":8280,"bcbbbede":8281,"befbcce":8282,"cebbbdbc":8283,"bbedbcd":8284,"bcbecbbe":8285,"bbcccd":8286,"bfeebee":8287,"cfbbfbb":8288,"bfbecbc":8289,"febceed":8290,"bbecebbbb":8291,"ceddbf":8292,"debfde":8293,"bfdbbfe":8294,"cbbdbbbbcdee":8295,"eba":8296,"cfbdbb":8297,"eeebebf":8298,"bfecdd":8299,"bebbcef":8300,"cabebe":8301,"bdedcef":8302,"bdbecbce":8303,"febcfd":8304,"cbbedbee":8305,"beebcfe":8306,"febdbf":8307,"ebbebe":8308,"beedebb":8309,"bedbdbb":8310,"fbbbebee":8311,"cfebebc":8312,"dedfbd":8313,"bcfbcbb":8314,"bcfcbee":8315,"cebbbcde":8316,"ceeefe":8317,"bebdbde":8318,"cbbdfbc":8319,"bdeecbd":8320,"bcedeed":8321,"bfbebcbbbebcbbfe":8322,"bfbbebde":8323,"fbbbcce":8324,"cedbdce":8325,"cbeebebc":8326,"cefccee":8327,"cefbcce":8328,"dddfbd":8329,"bebfcbb":8330,"bffbcd":8331,"cebdcebe":8332,"beebbeed":8333,"bbbbcbbd":8334,"cbeae":8335,"cbcbebbe":8336,"fdccbe":8337,"eeebcce":8338,"cdebdce":8339,"bfefce":8340,"bebbbecd":8341,"ccdd</w>":8342,"cfebede":8343,"bbebea":8344,"cfedbf":8345,"cebfde":8346,"dedddd":8347,"becbcde":8348,"ecdee":8349,"cfcedd":8350,"ffbcbf":8351,"beeecef":8352,"cbcebcce":8353,"bbbdcbbe":8354,"feebbbb":8355,"bececee":8356,"ceedcebb":8357,"cdbebebb":8358,"bfbdeed":8359,"cdcdcd":8360,"debfdd":8361,"bfdebbbe":8362,"bbecdbc":8363,"cedba":8364,"beeebdf":8365,"bebcfce":8366,"bcfced":8367,"bcfbebed":8368,"cbbdeeee":8369,"cdeebbf":8370,"fbebde":8371,"bdbeccee":8372,"beeeea":8373,"cbbfbce":8374,"becbbbdedbcfffefbfbeedbebcdebbee":8375,"cbbbccbb":8376,"bddedd":8377,"bcbbbeffeaefedebdbeffbbf":8378,"bfae":8379,"bdecdf":8380,"bebebeebb":8381,"bcbbbdee":8382,"bcbbceed":8383,"cfdbbbb":8384,"debdcee":8385,"bbefcee":8386,"eeedbed":8387,"eedbbde":8388,"bbedecc":8389,"cbbbede":8390,"fdbfbb":8391,"cdebcbc":8392,"bcdcbcd":8393,"dedceee":8394,"cafbc":8395,"bbbdbed":8396,"bebdeebb":8397,"bcedfee":8398,"bbbbbbcbe":8399,"cbbeeeee":8400,"ddbbf</w>":8401,"cbbffbb":8402,"cdbccd":8403,"beeccbd":8404,"bdececc":8405,"cdebdbe":8406,"ffbebc":8407,"bddbebf":8408,"bebecbbe":8409,"cefddee":8410,"bdbbcbbe":8411,"bcbdbbbb":8412,"ccbea":8413,"abbbed":8414,"afcd":8415,"cbbbcbbd":8416,"beeddf":8417,"febbebb":8418,"fdad":8419,"bcde</w>":8420,"cfeff":8421,"becebebb":8422,"cdbbcde":8423,"beebbcee":8424,"bcdfbf":8425,"bedcbbf":8426,"bebbbdbe":8427,"beeefbd":8428,"aecdce":8429,"cceebdd":8430,"bfebbde":8431,"bbebbbbee":8432,"bcecded":8433,"bfebecc":8434,"cedcbde":8435,"bdccdd":8436,"bcebdbbee":8437,"cbcbcbf":8438,"bedcceeebdee":8439,"cbbcbeee":8440,"bbdae":8441,"bedbeebd":8442,"cceecded":8443,"cbedfbe":8444,"cdeefe":8445,"debbbfe":8446,"cccecee":8447,"afeee":8448,"bbfdeca":8449,"febbbeebbebd":8450,"aabb":8451,"bdececd":8452,"fddebc":8453,"bbeebebe":8454,"bbfeef":8455,"cbcdfce":8456,"bbebcdebe":8457,"dececd":8458,"cebbbbcebbffcfbbeebeaeeeceebbefebed":8459,"cbcfcbccebedebebe":8460,"beececd":8461,"bfedef":8462,"bebbccbb":8463,"fbbbdee":8464,"cbfba":8465,"cceeeed":8466,"cabcd":8467,"dddfcc":8468,"fbcfd":8469,"bbebbbbebb":8470,"ceccbbd":8471,"cbbbbcce":8472,"bbefcd":8473,"eeedfe":8474,"bfbccbc":8475,"bbecceee":8476,"bebcedd":8477,"babca":8478,"fecbde":8479,"bcebeed":8480,"cbcccbe":8481,"cdecdf":8482,"bebbbebebb":8483,"bacbbe":8484,"cbfbebd":8485,"ccdeedf":8486,"bebcbebf":8487,"bbedcbee":8488,"bfdbecc":8489,"cebcfbb":8490,"feebeee":8491,"ccccced":8492,"bccea":8493,"cbddeeee":8494,"ccbccf":8495,"cfbccbdbdee":8496,"ebcdd":8497,"bfeccbb":8498,"bcbbeeed":8499,"cfecbbe":8500,"bebcbbdbb":8501,"cdeecbd":8502,"bcbebcebd":8503,"baede":8504,"beebcfebde":8505,"bebbbbbbbd":8506,"ccebbcee":8507,"baeebd":8508,"cedbedd":8509,"aeffeee":8510,"cebbcdd":8511,"bbedded":8512,"ccedcbed":8513,"bcbebed":8514,"eebbbbefe":8515,"bcccbcd":8516,"fbdff":8517,"cdbbbef":8518,"bcefbbd":8519,"cbbbddd":8520,"beebeccebc":8521,"beebbebbbb":8522,"debcedd":8523,"bbecded":8524,"bbeccde":8525,"ccebebf":8526,"cceddce":8527,"fdbded":8528,"babebbd":8529,"bddbdf":8530,"cbfceee":8531,"bebebced":8532,"ccdcded":8533,"cebbccbb":8534,"cceebdf":8535,"ccfceee":8536,"ccfcbce":8537,"cbbdbebc":8538,"bbebbbcee":8539,"eeedbbd":8540,"cdcebce":8541,"cbfdbf":8542,"ccebbceedce":8543,"cdbfdaccabd":8544,"cbebdef":8545,"cbcbdbb":8546,"fdbdee":8547,"cceefe":8548,"cbdefce":8549,"cecccbd":8550,"bebbea":8551,"baedd":8552,"beebbfbb":8553,"cececbe":8554,"bbefcbd":8555,"bdcecd":8556,"cffcde":8557,"bcebbeed":8558,"febceee":8559,"bbebbebf":8560,"bbebbebbe":8561,"beeccdd":8562,"bedfbedcbbd":8563,"beecebbbb":8564,"befdbe":8565,"eddbf":8566,"bbebfce":8567,"bfecdee":8568,"ccddef":8569,"cfeca":8570,"bfdcbbe":8571,"fedbef":8572,"bececde":8573,"ceccfd":8574,"cbcdbce":8575,"bebbebbbc":8576,"cbbbbbcf":8577,"bcebbcd":8578,"cfbccce":8579,"bbdfbbd":8580,"bbbbfeee":8581,"eedad":8582,"bcbbccd":8583,"cbeebcee":8584,"cbbdcbc":8585,"bdbbcfe":8586,"adfd":8587,"bbbbdbbbd":8588,"baea":8589,"bbebcbebc":8590,"ceebbcbb":8591,"bbbbeebebbd":8592,"fdfdd":8593,"bfdebbd":8594,"eedbdcbdfdcceebddecfbbd":8595,"bbebfbc":8596,"bdebdcc":8597,"bedbecbb":8598,"bedbecbc":8599,"cbfbbcc":8600,"bebebebf":8601,"cfebcce":8602,"dedbebf":8603,"cceebbbe":8604,"bbbcbef":8605,"cbbdeef":8606,"fefbce":8607,"beefbcbc":8608,"beebccbb":8609,"cbcfeee":8610,"ddddddd":8611,"cbbebdcebbcbeccbeedee":8612,"bbbbcbce":8613,"cbecdbe":8614,"cbcbefe":8615,"cdebff":8616,"bebebcbc":8617,"cefcebb":8618,"cbedced":8619,"becebef":8620,"ceedeebb":8621,"bcbebeed":8622,"debbded":8623,"bfbbbfe":8624,"bcbdbee":8625,"fbdfbb":8626,"cecefe":8627,"fefcbb":8628,"afbee":8629,"bbeccbee":8630,"beccedd":8631,"febebebb":8632,"beeebbde":8633,"cedbbceee":8634,"bedcbde":8635,"bebbcebe":8636,"bacea":8637,"bddbdbe":8638,"bcbbbdf":8639,"cceebef":8640,"bebdbebe":8641,"bcedbbbe":8642,"cdfbcd":8643,"bccccbc":8644,"fbdcd":8645,"bbbbfde":8646,"ccebcfe":8647,"bfbfde":8648,"bcbbeece":8649,"cccccccccccccc":8650,"bfbcbc":8651,"bbecbbee":8652,"bbecbebb":8653,"ceebdbd":8654,"ccebecc":8655,"bfeccde":8656,"eedbced":8657,"feebbbd":8658,"bccccbb":8659,"dececbb":8660,"febcfe":8661,"affe":8662,"bebbbbbf":8663,"eeebbdd":8664,"bcfeece":8665,"bdecbed":8666,"bcdad":8667,"eedcebe":8668,"ccdbdbe":8669,"cebbbdbb":8670,"cceedef":8671,"dddbbbe":8672,"dddbff":8673,"fbcbbd":8674,"bbcecbc":8675,"ccedbed":8676,"cccecf":8677,"bfbccee":8678,"bcefbfdbed":8679,"befbbebcdbdcbcce":8680,"bbecccc":8681,"cceccde":8682,"bebbdebc":8683,"fbbcfd":8684,"bebebbebd":8685,"ccdbfbb":8686,"aefd":8687,"cceebcbb":8688,"ccfcbd":8689,"beedbbbc":8690,"bcedbbcc":8691,"deffd":8692,"bbebbceee":8693,"bfccdd":8694,"beeedde":8695,"bdebceee":8696,"cddeece":8697,"ccecbcbfed":8698,"ebdeebecebbbcbae":8699,"edebee":8700,"ccebced":8701,"fbbdecbb":8702,"cebbcebc":8703,"cbcebcee":8704,"beedbfbb":8705,"ddbccbb":8706,"ceecccc":8707,"cbbebeed":8708,"cfecbee":8709,"fedbebbd":8710,"bccccf":8711,"cbdfde":8712,"ccefed":8713,"eeebfee":8714,"bebbbfee":8715,"fbbccbb":8716,"ffcccc":8717,"cbfbcbd":8718,"cfebdee":8719,"bbcebbf":8720,"bcefbbbbbd":8721,"bebceebded":8722,"baedee":8723,"ccecbde":8724,"fddebb":8725,"fdccbb":8726,"eeecbed":8727,"bfebebce":8728,"cbbecdee":8729,"cbeebbed":8730,"bbbeba":8731,"cceecced":8732,"beccbff":8733,"bcedfe":8734,"bcedbef":8735,"ccedded":8736,"bebffe":8737,"debcbef":8738,"bbbbdbee":8739,"cbceedd":8740,"befebbee":8741,"bcdbcdedbfcfbc":8742,"bbecfbdcc":8743,"ddbebcbbedbbcbbfebddeecebc":8744,"acbbd":8745,"efbe":8746,"eeefcc":8747,"bfeccbe":8748,"ccdcebe":8749,"bbbccbd":8750,"cbedeebc":8751,"becebcbb":8752,"becebebd":8753,"defbdf":8754,"bebfa":8755,"bdbecde":8756,"cdbbcbbe":8757,"cbadd":8758,"bcebbcce":8759,"bddebf":8760,"eedeefedcbbbc":8761,"bddbccbbebdcebbcbeccbeedee":8762,"ebddee":8763,"bbecdbb":8764,"bbecbeee":8765,"bbebbebd":8766,"ceecdce":8767,"cedccbc":8768,"cedbecd":8769,"ccdbdce":8770,"bebccebb":8771,"deddebb":8772,"bceebbed":8773,"cddbbce":8774,"bfdfce":8775,"ccfddf":8776,"bdeefe":8777,"cdeecbc":8778,"bcedfd":8779,"bbbbdcbb":8780,"bfbbbef":8781,"cecebee":8782,"beeeebbcc":8783,"bedebee":8784,"becbbbbbb":8785,"cbeedcf":8786,"cddebf":8787,"beeccbbd":8788,"acebd":8789,"bdebff":8790,"bdeccbb":8791,"eeecdd":8792,"cbfbdee":8793,"bceecebb":8794,"fedeef":8795,"fbccbc":8796,"eebbfe":8797,"cdedcbc":8798,"ddeecbe":8799,"bcdecbb":8800,"cfdebb":8801,"bfecebe":8802,"fbbcdd":8803,"ffbcbe":8804,"cbfcfe":8805,"bfdbfd":8806,"dddbbce":8807,"cdfbbbb":8808,"fffde":8809,"cceccbd":8810,"bbdcdd":8811,"bdddebe":8812,"bebcbcbc":8813,"bebcbcce":8814,"bbbecbee":8815,"fedbebb":8816,"cbedcfe":8817,"ccedfce":8818,"bbebbae":8819,"cccecbb":8820,"bbebcfe":8821,"beebddd":8822,"ccebceed":8823,"bebedcc":8824,"cbdbdbccc":8825,"ceebdce":8826,"bbbbbcee":8827,"bbbbccbc":8828,"cbcbff":8829,"bdecbde":8830,"cbfbbed":8831,"ccfbdd":8832,"fedcebb":8833,"cbedcef":8834,"bdbcbee":8835,"bebeebbbb":8836,"bbebeccee":8837,"fbbeebf":8838,"bcdbbdd":8839,"beebebcbb":8840,"fedebbce":8841,"cdcdecdfbd":8842,"ea":8843,"bdedef":8844,"cedcbce":8845,"cedfce":8846,"aebbcc":8847,"cfdbdd":8848,"cbeeda":8849,"bcdbfcefbd":8850,"abbbebeecbbe":8851,"eebee":8852,"cdbeebb":8853,"cfdebc":8854,"cfcbfe":8855,"fbbbece":8856,"cbeeff":8857,"bbedfcc":8858,"cebcbebd":8859,"ccccbebe":8860,"bfbbcfe":8861,"cbbeecd":8862,"cdbcbce":8863,"decebbbece":8864,"cbebcfe":8865,"fdfde":8866,"cbbbbbbce":8867,"cdbfbd":8868,"bdeccbc":8869,"bbdbcbd":8870,"bfeddd":8871,"cbbeceed":8872,"dedbcbc":8873,"cafcc":8874,"fedbbee":8875,"cebdcde":8876,"cbbbdbece":8877,"ceebcbf":8878,"beebdecbcd":8879,"bbebebbee":8880,"cbbbedd":8881,"bbbbcde":8882,"bcdcbce":8883,"bebbcbbbb":8884,"cbbedebb":8885,"bebcbdee":8886,"dedbede":8887,"bceebcf":8888,"cebbbbed":8889,"cebbcebe":8890,"cefba":8891,"bdfbebe":8892,"cdfbcee":8893,"cebdfd":8894,"fbecbc":8895,"cdbbdef":8896,"debecbbe":8897,"ddeea":8898,"ddeecbb":8899,"cbddd</w>":8900,"cffcbe":8901,"bcebcdd":8902,"bdecabbdbcfedceebbbbcecbbeeeebbbcbbebcbdcdeeebdce":8903,"beecebbe":8904,"cfbeed":8905,"eeebeeee":8906,"bddbccc":8907,"bcbbbfbc":8908,"ccdb</w>":8909,"beedfd":8910,"beccbbee":8911,"cbdebef":8912,"bccecee":8913,"debbbbebbd":8914,"cbebbeed":8915,"bbebccbee":8916,"beecebbbe":8917,"fdcccedbcd":8918,"acdebb":8919,"ebebbe":8920,"bbfcbd":8921,"cebbbfd":8922,"bfdb</w>":8923,"ceeefee":8924,"bffbebb":8925,"bdbceed":8926,"cdcecee":8927,"beefcbbe":8928,"beafbe":8929,"eeebbbebb":8930,"bdebbccf":8931,"cfccfe":8932,"ceebdafbbcebddddee":8933,"ccfeebd":8934,"cccccccccccccccccccccccccccccccc":8935,"cbbbfbc":8936,"bdebdbe":8937,"bcddebb":8938,"bcdcebe":8939,"bddbecd":8940,"cbfbcee":8941,"ccdcfd":8942,"ccdccce":8943,"bbbeceeee":8944,"bbedff":8945,"cefceed":8946,"ddeecbc":8947,"bfbecefcc":8948,"bebbbecbbebb":8949,"bdeceed":8950,"bbdcdbc":8951,"bcdeeed":8952,"cbeeeecc":8953,"bebcbecc":8954,"dedcbde":8955,"bbedb</w>":8956,"fbefebb":8957,"bcebbbed":8958,"eeebbbee":8959,"bbeccfe":8960,"abfabd":8961,"ceefebb":8962,"bbbbbece":8963,"cbecbebb":8964,"bbedbcce":8965,"cefcbee":8966,"cebcbebf":8967,"ccedcbc":8968,"bbebbcbee":8969,"fcebee":8970,"cbbbbeed":8971,"cbeeebf":8972,"cbbffd":8973,"ccbda":8974,"ccbdeed":8975,"bbbbfbf":8976,"bcbbfbf":8977,"cdeedcc":8978,"bebbbeebfecdcc":8979,"bbbbbbebbe":8980,"fdcccc":8981,"cdebcde":8982,"beeebecd":8983,"bebebff":8984,"cbbebcbf":8985,"cbbdbbce":8986,"cdbccde":8987,"cdbdcd":8988,"ceefbf":8989,"ddddce":8990,"bddfde":8991,"ebbbbee":8992,"ceebdbe":8993,"ccebfee":8994,"eeebcbc":8995,"cbdcdf":8996,"bcddede":8997,"befcebc":8998,"cfebebbee":8999,"cbdecbc":9000,"bbccfd":9001,"ccbebed":9002,"bbebdeed":9003,"beefbef":9004,"cdccbf":9005,"bbecebbee":9006,"eedbbbf":9007,"cbbbbbbbe":9008,"eebbbbefeacc":9009,"fee</w>":9010,"bbdcebc":9011,"bfeddf":9012,"bcdca":9013,"cedfecc":9014,"cceebeed":9015,"cefcebe":9016,"dddcde":9017,"bdbbcebb":9018,"bbccced":9019,"bbccbbbc":9020,"ccbcbee":9021,"cfbdcee":9022,"cddebe":9023,"bbbbb</w>":9024,"cbdcebd":9025,"bcdcede":9026,"bebead":9027,"bebcbebd":9028,"cddbebb":9029,"feebbbe":9030,"cbbdbcce":9031,"ccccbee":9032,"ddeeceecbb":9033,"bdbccd":9034,"bebeebee":9035,"cbefcf":9036,"bfdbffbed":9037,"bbfccbbbcbeebbe":9038,"fdcccedbcdcbcfbce":9039,"cdcbbee":9040,"cdfecc":9041,"cdebbebb":9042,"beeebecde":9043,"cbfeecc":9044,"bcfccf":9045,"bcfbcde":9046,"bebdfbe":9047,"dddeef":9048,"beccbecc":9049,"bccebed":9050,"debca":9051,"bcccfd":9052,"bebeebbee":9053,"bfedcf":9054,"dececbd":9055,"cdcdeee":9056,"becbede":9057,"bddfbbd":9058,"bbbbcecedcdd":9059,"beebabedbdebebbd":9060,"cbebbef":9061,"bcbbbdbe":9062,"ccdcecc":9063,"bbbcceee":9064,"bebdbebb":9065,"fbccbd":9066,"bcedbbbb":9067,"cfdbed":9068,"bbebbcbfe":9069,"bffcff":9070,"becdeee":9071,"bebceebe":9072,"bebdebbbb":9073,"cbfeece":9074,"bdeecefbbcbbbd":9075,"febccbbcbcecebdf":9076,"feccbd":9077,"cbecece":9078,"bedcedd":9079,"bcdcecc":9080,"beeecbed":9081,"ccdccf":9082,"cfebccc":9083,"cddb</w>":9084,"caeebc":9085,"eeeebbbb":9086,"bdcebbee":9087,"afba":9088,"aeebf":9089,"ddbcbbbb":9090,"cbbdfbbbceccefddeecdccdeddee":9091,"cdbbbbbb":9092,"bcecbbee":9093,"baeecc":9094,"cbbeced":9095,"cbeecbbf":9096,"bbbebbdbb":9097,"cddbebc":9098,"ccfbcbc":9099,"bdbbb</w>":9100,"bcbeff":9101,"beebbff":9102,"bcdebdfccee":9103,"bbebdbbbd":9104,"bfefbf":9105,"bfdabfebeedeceeccde":9106,"cbebbebb":9107,"cbfcdee":9108,"cbbecbed":9109,"cbbecced":9110,"bbedfee":9111,"bcbcbebd":9112,"cbfebbd":9113,"eeeea":9114,"ccbccbc":9115,"bfbcbbbb":9116,"cbbfbbe":9117,"fdbcbcbb":9118,"debeee":9119,"beecede":9120,"bddae":9121,"bfdeecc":9122,"bececbf":9123,"bcccff":9124,"beebbbbed":9125,"bbebebed":9126,"bcefcf":9127,"bfcebbe":9128,"bcebddd":9129,"becbcbf":9130,"bfebbbf":9131,"bbeddbb":9132,"bbbbbbdbd":9133,"bbdbcbc":9134,"bbdcecd":9135,"cbdad":9136,"bebbbdf":9137,"fbbcebbe":9138,"bcbbbecc":9139,"cbeeeed":9140,"cbeecced":9141,"cbceddce":9142,"debbcef":9143,"debbede":9144,"bceeeebbbbbbd":9145,"bdbbbdebcdeed":9146,"cbebfbb":9147,"fddebd":9148,"cdeccde":9149,"bcbbae":9150,"bbedfd":9151,"fedbbbc":9152,"beedbebe":9153,"beccbbce":9154,"cbdebbbd":9155,"bcbebfe":9156,"bffbfe":9157,"debefbb":9158,"bbefbebe":9159,"bcdebde":9160,"bfbcbbe":9161,"cdbdcf":9162,"fdffe":9163,"bfebbcf":9164,"bcdfbcbfbbddf":9165,"bbebfcc":9166,"ccecdde":9167,"bedbbebb":9168,"cbdceed":9169,"cbdbcbd":9170,"cedb</w>":9171,"bddceee":9172,"bcbbb</w>":9173,"cbeeccd":9174,"bbfbcf":9175,"cefddf":9176,"bbefcbc":9177,"bbdbbeed":9178,"ddbcfe":9179,"bdccfe":9180,"ceeccbf":9181,"cedbbcee":9182,"caedee":9183,"ceebdde":9184,"bbbbccd":9185,"bbdbdbb":9186,"bedcced":9187,"cddcbf":9188,"cddbef":9189,"cebccbfe":9190,"dddcbf":9191,"cfdfd":9192,"defcbbe":9193,"bccebee":9194,"debcffce":9195,"beebbbbebb":9196,"cccebbee":9197,"bfbeba":9198,"cfedcd":9199,"eedcdbeee":9200,"cbcbbcebbfebbceebebcbcefe":9201,"bbebcedeceeecdedd":9202,"eeebdce":9203,"bebebefe":9204,"cbeecbbd":9205,"bbfcbbe":9206,"bbfbecf":9207,"cceeccf":9208,"bfdbcf":9209,"cabde":9210,"baebbbb":9211,"bcefcd":9212,"cfbcbee":9213,"ccefcde":9214,"bbebbebbbb":9215,"baedf":9216,"ecded":9217,"bbebdef":9218,"ceecbcd":9219,"fbbceee":9220,"cedfebc":9221,"caca":9222,"bbcccee":9223,"bccebce":9224,"bbebbbcf":9225,"decebce":9226,"cdcdcbdd":9227,"becbedd":9228,"fdbbcbe":9229,"cdcbebb":9230,"cbccdf":9231,"cbcbedd":9232,"bbdbbed":9233,"bcbbbfbd":9234,"bceebbce":9235,"cbcecdee":9236,"cbbdfce":9237,"fbcbee":9238,"fbebebb":9239,"cfbbbee":9240,"cfbcff":9241,"cdddeee":9242,"bcebdbf":9243,"febdde":9244,"ceedebb":9245,"fbbccbc":9246,"cddeecc":9247,"cacce":9248,"cebccfe":9249,"cfdbbbe":9250,"ccedcef":9251,"debdbebc":9252,"cbddfbc":9253,"abbbef":9254,"ccdebce":9255,"cdcdcdbed":9256,"ccebcbee":9257,"beebccbebbdbcfbbcdfbcecefbecbfbb":9258,"bbdbfd":9259,"bbdbbbbd":9260,"bedcbcd":9261,"eeebbecd":9262,"cbddebb":9263,"cdebede":9264,"fbbddbd":9265,"cedccbb":9266,"beeebebf":9267,"cceebebb":9268,"ceeebcbd":9269,"cbcefcc":9270,"cdfbcf":9271,"cdfbdee":9272,"cbbeebee":9273,"cbefcbc":9274,"cbcbbcf":9275,"befeefbe":9276,"cbedebc":9277,"fdbedd":9278,"bddbeed":9279,"cddba":9280,"cbbdeebc":9281,"becccef":9282,"bceda":9283,"ccedbebe":9284,"bbcceed":9285,"bcccbbbb":9286,"bbbbbbcbd":9287,"cdbebeee":9288,"cbddbee":9289,"abbcbc":9290,"cffbcd":9291,"cbebbcd":9292,"bedebce":9293,"feccbfbb":9294,"ccebceee":9295,"bbecbefebbccebc":9296,"bbeeeebd":9297,"bebcdebbf":9298,"bfdbffbedcee":9299,"cbbbecd":9300,"cbbcdeee":9301,"ceecedd":9302,"cbebcef":9303,"cdecebe":9304,"bfecdbb":9305,"babcee":9306,"dedb</w>":9307,"bcfcbce":9308,"fedbde":9309,"cbebcbee":9310,"beeedcfebb":9311,"febebeee":9312,"ecccc":9313,"fecdbb":9314,"bdebdde":9315,"fdbede":9316,"eeebdd":9317,"bebbad":9318,"fbbbfbb":9319,"ffccbb":9320,"bcbbbfd":9321,"cbeeca":9322,"cfebcbc":9323,"bebcbecd":9324,"cceebcbc":9325,"cceebecbb":9326,"cebcccf":9327,"defccf":9328,"bfbbccf":9329,"bcbdeed":9330,"cdbbded":9331,"beebbbed":9332,"bfeebbe":9333,"cdbebfe":9334,"bbebca":9335,"bcebceed":9336,"abcbef":9337,"fdeede":9338,"bebbfde":9339,"eccbc":9340,"bbdbdf":9341,"cdeccbd":9342,"bebbcbde":9343,"bafce":9344,"fbbbecd":9345,"beeebcf":9346,"bbeebef":9347,"cddcfe":9348,"bebdbbce":9349,"fedcecc":9350,"fedeebc":9351,"defced":9352,"bbcccf":9353,"cebdded":9354,"cbbbbcbbe":9355,"cfeebf":9356,"ceebceed":9357,"fecea":9358,"bcebdcc":9359,"ccebeed":9360,"bedcbebb":9361,"bcbbbdbc":9362,"cbeeced":9363,"cbeefee":9364,"cbeefce":9365,"cbeeddf":9366,"bbedae":9367,"cefced":9368,"bebda":9369,"dddcced":9370,"adeed":9371,"cdfbced":9372,"bcbdcf":9373,"bdebbbbe":9374,"cfccbf":9375,"cbbdebbece":9376,"acebe":9377,"bcebff":9378,"baafe":9379,"cceebbed":9380,"cebcbccc":9381,"ccedbbee":9382,"bbccbbbe":9383,"abbae":9384,"cdbceed":9385,"cfbbcd":9386,"decefe":9387,"debfd":9388,"cbdbfd":9389,"beeeccbc":9390,"cbfae":9391,"cbfbcce":9392,"bebccbbe":9393,"cebbcbbbbbbeebc":9394,"ccfccd":9395,"bdbbdebe":9396,"cbfebbf":9397,"cdbbbebb":9398,"baecbb":9399,"bcdebbe":9400,"bfbecbe":9401,"bedfbf":9402,"fdfecedd":9403,"bebbbeebfecdccbcdbeebbcecdcbe":9404,"cbbdebbe":9405,"bbdcfd":9406,"bcdbccc":9407,"cedbebf":9408,"cbbdeecc":9409,"bdeeba":9410,"cdeeccd":9411,"bcedbed":9412,"bccebbbb":9413,"bdedcbc":9414,"bebbebef":9415,"cdbcded":9416,"cbfdbee":9417,"cfccdd":9418,"beebbebf":9419,"febebbbbd":9420,"cceefbcecf":9421,"acecc":9422,"bdebebce":9423,"cdebdbd":9424,"bcdbded":9425,"befccbb":9426,"dedcfd":9427,"bcfbece":9428,"feebbf":9429,"defccd":9430,"defcebd":9431,"bbcccfbf":9432,"fbecbd":9433,"dddddddd":9434,"cdbeedd":9435,"bebceedd":9436,"bebebbce":9437,"bedcede":9438,"bfebfbb":9439,"ffcbed":9440,"ffbdbd":9441,"eedbcee":9442,"cfeccce":9443,"cebcbcbe":9444,"bcbceeed":9445,"bccebbd":9446,"cbbeebbd":9447,"bfedbbd":9448,"bbebccbe":9449,"beeffe":9450,"cfbbeed":9451,"cbcbbbee":9452,"dedebbd":9453,"cdbfbf":9454,"fdeebdbe":9455,"beebebfe":9456,"bbebbbbce":9457,"bcbbeebe":9458,"debbbcdedbb":9459,"bacfe":9460,"bddbcbe":9461,"eedcebd":9462,"bcfcdf":9463,"ceeefcc":9464,"cebccebe":9465,"cbbdbde":9466,"cfdbdf":9467,"bebfbed":9468,"bdedbbfcc":9469,"bbbbdbbbc":9470,"bebbebbce":9471,"debdbdbb":9472,"bcdecbe":9473,"ddbbcce":9474,"bbebccf":9475,"cbbfcd":9476,"cbceecbb":9477,"decebbe":9478,"ceebbcbe":9479,"edcee":9480,"eeebbbbe":9481,"bfbfbf":9482,"caedbbecfbdcc":9483,"cbcbebee":9484,"eeebbebb":9485,"cdeb</w>":9486,"bcdcbed":9487,"fbbdef":9488,"cedae":9489,"ccdbedd":9490,"cbcebcbe":9491,"cfdfbd":9492,"cdfbebe":9493,"bffcbd":9494,"debcded":9495,"bcbdcee":9496,"debebcbb":9497,"bbefbed":9498,"cfbbff":9499,"cbcbbbbe":9500,"bbbbeebbee":9501,"cbcbcdd":9502,"cdeedbd":9503,"bbdcfeebb":9504,"bcecbeee":9505,"ccececd":9506,"cbbecebb":9507,"bbedeef":9508,"cbcebbcc":9509,"cdfbee":9510,"cdbdbdecebbebdecdbd":9511,"abcba":9512,"bcdeecee":9513,"ceddcbc":9514,"bcebdeed":9515,"cbebddd":9516,"bbfeebe":9517,"ddbeabdefbbbb":9518,"ebbbbbbbb":9519,"bbececd":9520,"cbbcece":9521,"cfcdce":9522,"cbebff":9523,"ccead":9524,"bcdcecd":9525,"bebbbecf":9526,"ccdccbc":9527,"dddeebb":9528,"ceccbbee":9529,"beebbfd":9530,"cdbebed":9531,"cbbfa":9532,"bcefa":9533,"bfccfd":9534,"cbcfcbc":9535,"bbdbcdd":9536,"bcdbbeee":9537,"cdbeefdbebc":9538,"cbdedbed":9539,"ccdeedf</w>":9540,"eeddebb":9541,"bceeeed":9542,"aeccf":9543,"fbccd":9544,"bbccbbe":9545,"debccebb":9546,"beebbbef":9547,"deccddf":9548,"abbcd":9549,"abbbce":9550,"ddfcbb":9551,"bbebdff":9552,"bfccbee":9553,"bbeccbbd":9554,"cbbbdcbb":9555,"bbbbfcebe":9556,"cedebf":9557,"bbebeede":9558,"ebdfe":9559,"ebcbf":9560,"febbdbb":9561,"bbbbcef":9562,"cbebcebb":9563,"fbbcecd":9564,"bcbbccbc":9565,"bebcbfd":9566,"bbbcbde":9567,"fedbdd":9568,"cbedfd":9569,"beccba":9570,"beceba":9571,"bfbbbfd":9572,"cbaa":9573,"cbefcbb":9574,"bcefcbb":9575,"bfbbdfebd":9576,"bcdccf":9577,"befbebd":9578,"cfececc":9579,"bebcbfee":9580,"cebbbcdcdebebd":9581,"bccccd":9582,"debdcf":9583,"bbdbdbf":9584,"fcebbdbbbbecfc</w>":9585,"bbbbcdd":9586,"cbeca":9587,"ccecbfe":9588,"fdbcbf":9589,"bebbcfd":9590,"beeebbed":9591,"bceefbb":9592,"cafbd":9593,"cebcbecc":9594,"adcbf":9595,"debccde":9596,"caede":9597,"bbbbeebf":9598,"debffbb":9599,"ceebbebb":9600,"fddede":9601,"fbbbff":9602,"cedbeee":9603,"cedcbcd":9604,"ffeebc":9605,"bcfba":9606,"bcedfbd":9607,"bdfbdd":9608,"bcceddd":9609,"ccbbbebe":9610,"baebbd":9611,"cdbccbb":9612,"cbefcd":9613,"debbbcdedbbbeebdecbcd":9614,"abff":9615,"febeeee":9616,"bbbbceee":9617,"bdecdbb":9618,"cbdccbc":9619,"cbdbebee":9620,"fbbcbbd":9621,"fbbcece":9622,"ccdbdf":9623,"ccdbdbb":9624,"ccdbff":9625,"cebcbece":9626,"cbedcebb":9627,"cbbbbceee":9628,"cdbebfd":9629,"ddfcbc":9630,"bcebbccdeedbef":9631,"ceebbcf":9632,"bdefbbd":9633,"bddbbde":9634,"cdbeefd":9635,"ecbcd":9636,"beec</w>":9637,"ceebfd":9638,"fbbbdde":9639,"ceddebb":9640,"beeebcce":9641,"dedcebe":9642,"bceeeecc":9643,"aecbbe":9644,"cddd</w>":9645,"cccca":9646,"bbccbee":9647,"bbebbddeee":9648,"bebfbbd":9649,"bbbbdbbf":9650,"cdedfe":9651,"cbbbbfd":9652,"cbebbbebb":9653,"bbdbcfd":9654,"cbbebbde":9655,"bbebcef":9656,"cbeccbd":9657,"bfecef":9658,"badea":9659,"ffbeed":9660,"eedbbcc":9661,"cbfbebbe":9662,"bcbbbdce":9663,"ccfbebe":9664,"cdedbbf":9665,"bcdebbee":9666,"ccdebf":9667,"cbebccbb":9668,"bedeebcebc":9669,"eddeee":9670,"ceecbbbd":9671,"cfcdbb":9672,"cbcdecd":9673,"cbdcfd":9674,"bcdbeefeccecde":9675,"bddbdbc":9676,"cfecebd":9677,"cebbbff":9678,"ccfbef":9679,"fedca":9680,"dddb</w>":9681,"ccedbbf":9682,"bcccbde":9683,"bbbbbbbbebb":9684,"bbebeba":9685,"febcbbd":9686,"beebccee":9687,"bbebbede":9688,"bebdece":9689,"bcbdbcdebc":9690,"cdbbebb":9691,"cdcdbc":9692,"bbbbcbbbb":9693,"cffebb":9694,"cbcbdbe":9695,"cbdbecd":9696,"cbdbecbb":9697,"beeebcbe":9698,"cbeebdf":9699,"cfebebe":9700,"bebfbce":9701,"cdedbce":9702,"cdedeee":9703,"cbebbfd":9704,"ccefbce":9705,"ceecfefbbfbecdbbebdffbfdfeebfee":9706,"defccebcbdfee":9707,"adebc":9708,"fecbbbd":9709,"ceececc":9710,"ceebfbb":9711,"bdefecc":9712,"cbdeeed":9713,"cbbebbebbcbb":9714,"bebcbdbd":9715,"dedbbed":9716,"bcfccd":9717,"ceeebcee":9718,"cbcebaee":9719,"bbccbbee":9720,"cbbeecbe":9721,"cbfdbbbbbb":9722,"bfcecbe":9723,"cbfbbbf":9724,"bceccbbbbdedebebbe":9725,"beecbdd":9726,"cbbad":9727,"cbcb</w>":9728,"bbdbeebc":9729,"bedccbe":9730,"cbdca":9731,"beeeca":9732,"ccdcdf":9733,"cbeecebb":9734,"aebecee":9735,"beedcebc":9736,"cdeebbed":9737,"bcbdfe":9738,"ddffe":9739,"ceebbccf":9740,"cfbdbbee":9741,"febebcdbb":9742,"bddfbf":9743,"beedbdcfeed":9744,"abdbe":9745,"efbd":9746,"beecbde":9747,"bbebbdbb":9748,"cdebdf":9749,"bcdbebee":9750,"fbbddd":9751,"befbdee":9752,"cfebcde":9753,"bcfbcce":9754,"cebbbdee":9755,"cebcdebc":9756,"cbedbbee":9757,"cbedceed":9758,"cbbdcce":9759,"beccccf":9760,"bbbbdcbe":9761,"fccfd":9762,"beeeebeee":9763,"cfeecbe":9764,"beefcbc":9765,"aeebbbe":9766,"eedfcbbdbb":9767,"cdcdecdfbdbeebabedbdebebbd":9768,"accbe":9769,"bbbbcebe":9770,"babdbb":9771,"cddbbcc":9772,"cefbdd":9773,"bbbccce":9774,"bbbdbebe":9775,"feecf":9776,"cdeecbee":9777,"ceedbbce":9778,"cbbbbbebc":9779,"bdbcbebe":9780,"bcefeee":9781,"decebde":9782,"cddebced":9783,"cdbded":9784,"bbdcebb":9785,"cedbdbe":9786,"ffcecc":9787,"ffbff":9788,"cbeebded":9789,"cfeccbb":9790,"cceebccc":9791,"cebccebc":9792,"ccccded":9793,"fbebcbb":9794,"bcdefe":9795,"cbabbee":9796,"bbebcbcd":9797,"ccbdbee":9798,"becbbdd":9799,"bedeedd":9800,"eeefbf":9801,"bcbbfde":9802,"cdfdbe":9803,"bedbebcd":9804,"bcdbeed":9805,"ffded":9806,"cbbebcbd":9807,"cefddeecc":9808,"bbbcbeee":9809,"cabfa":9810,"bbbdfe":9811,"feefbb":9812,"cbfecce":9813,"febbbebb":9814,"fcefd":9815,"bbbbbbbebc":9816,"acceed":9817,"cbdedcc":9818,"adccbeeededd":9819,"cedcedbbdf":9820,"abae":9821,"bbebeebc":9822,"bcdbced":9823,"cedcdce":9824,"ffccce":9825,"bebebcbd":9826,"ccdbfd":9827,"ccdbcbe":9828,"cbbebcbe":9829,"befbbed":9830,"cfebdf":9831,"bceebcce":9832,"cefceee":9833,"cefcbcd":9834,"bbbdbede":9835,"cbedbef":9836,"bfbbbcee":9837,"debdbbf":9838,"bfbdfe":9839,"cedeebe":9840,"cdeefbbd":9841,"ebbebd":9842,"cddecc":9843,"cbbdebb":9844,"cbeddce":9845,"cbfcbce":9846,"ccdbccc":9847,"bcfcbfe":9848,"cddbfd":9849,"cceecdf":9850,"becebecc":9851,"cececf":9852,"cbfedbd":9853,"cbfedce":9854,"adea":9855,"cdcbbbb":9856,"cbbbeed":9857,"cbbcebbe":9858,"cceddf":9859,"cbdbcde":9860,"cfeddf":9861,"bbbeccce":9862,"ccfbebb":9863,"bcbcded":9864,"bcedded":9865,"bbebbeeebb":9866,"bebfbbee":9867,"cbcdbbce":9868,"fbdeee":9869,"cbddeef":9870,"bfedbebb":9871,"cbbfcce":9872,"ccefcbe":9873,"cbcfbee":9874,"cedbbde":9875,"ceecbbbde":9876,"bcbedebebbdbdceeecdbfbb":9877,"ceebeebb":9878,"bbdbecc":9879,"fdccce":9880,"cdebfd":9881,"bfebdf":9882,"eedfbe":9883,"ccdccbe":9884,"befbbebb":9885,"befcdef":9886,"bbbdbde":9887,"dddbdbb":9888,"cdeebbbb":9889,"defbebb":9890,"eebbcbc":9891,"bdedeee":9892,"bebeecbb":9893,"bfbebed":9894,"bcebcbbe":9895,"cdefbf":9896,"beefbbee":9897,"bcecccc":9898,"bcedebb":9899,"ceead":9900,"bbbbbbebd":9901,"cbececd":9902,"bedbbdbbeee":9903,"cedcedd":9904,"dedbecc":9905,"cbcebccc":9906,"dddfed":9907,"fbccce":9908,"cbcdcbb":9909,"ddbbcd":9910,"dedede":9911,"cbbe</w>":9912,"bcebebce":9913,"cedd</w>":9914,"bddcebb":9915,"eedbecd":9916,"bebecbbde":9917,"bcedcbf":9918,"cbcdfee":9919,"bcccbbd":9920,"cdbbcbee":9921,"ddfded":9922,"beefbcebb":9923,"cfedcbe":9924,"ebcef":9925,"bbdceed":9926,"cedcdbb":9927,"eedcbbe":9928,"beeebcbc":9929,"ccdbcbb":9930,"ccdbeed":9931,"befcbbd":9932,"aecfe":9933,"aebecc":9934,"cebbcced":9935,"ccfeebb":9936,"cebccece":9937,"cbbdbfe":9938,"bbcecde":9939,"debcbebc":9940,"cdedbbd":9941,"deccbbee":9942,"cbbeecde":9943,"bcebccce":9944,"eeebbcbc":9945,"bdebbcee":9946,"cbcedde":9947,"cbdbbbf":9948,"deccebbebcbe":9949,"bcebcbd":9950,"bcebecbb":9951,"bfebebee":9952,"bddbcbd":9953,"ccdc</w>":9954,"ccdbebf":9955,"ceeecdee":9956,"ccfccbe":9957,"caeeebe":9958,"beccded":9959,"cebebebb":9960,"ccbbcbbe":9961,"cbbbbbcd":9962,"ddbbcbe":9963,"fececbc":9964,"bdecebbbb":9965,"fedeebebbcee</w>":9966,"bedbbdbbecc":9967,"ebecbb":9968,"cdcbef":9969,"cfbecbb":9970,"cbebbeebd":9971,"bedbbdbc":9972,"cbcefbc":9973,"cbdebde":9974,"febbbebe":9975,"cdbdcee":9976,"bfbebcbb":9977,"beebcbdf":9978,"cbcbbbfe":9979,"ceeeebbbb":9980,"bbbbfbbe":9981,"cfecccccdbebe":9982,"caedbbecfbdccccecbcbfed":9983,"acbed":9984,"accce":9985,"bbedebd":9986,"bedbeebb":9987,"bedbbebe":9988,"cbdbedd":9989,"ffbbef":9990,"cbeebcde":9991,"befbece":9992,"bbfbebe":9993,"bceeccbd":9994,"aefbd":9995,"cebbcecc":9996,"bfdfbd":9997,"bbbdeeee":9998,"cdeecef":9999}