{"<unk>":0,"<pad>":1,"a":2,"b":3,"c":4,"d":5,"e":6,"f":7,"c</w>":8,"b</w>":9,"e</w>":10,"d</w>":11,"f</w>":12,"a</w>":13,"bb":14,"be":15,"bc":16,"ee":17,"cc":18,"bd":19,"ec":20,"bf":21,"ed":22,"ebb":23,"dc":24,"bbbb":25,"ef":26,"ebe":27,"dd":28,"ebc":29,"bbc":30,"fc":31,"bec":32,"ecc":33,"ebd":34,"bcc":35,"eec":36,"bbd":37,"df":38,"bbbe":39,"bbf":40,"dbe":41,"ebf":42,"bdc":43,"edc":44,"ba":45,"ff":46,"bbbc":47,"dee":48,"ccc":49,"dbc":50,"bbee":51,"bebe":52,"bfc":53,"ebbc":54,"dbb":55,"dec":56,"dbd":57,"bef":58,"dcc":59,"ea":60,"bbbd":61,"bebc":62,"efc":63,"ded":64,"bbec":65,"fbc":66,"beee":67,"bbcc":68,"fee":69,"bbebb":70,"ebec":71,"bcbc":72,"ebcc":73,"fbe":74,"ddc":75,"dbf":76,"fec":77,"debb":78,"bbbf":79,"bbed":80,"fcc":81,"beec":82,"eeee":83,"ac":84,"bbbbc":85,"eebc":86,"bebd":87,"becc":88,"fbd":89,"def":90,"eccc":91,"ecbc":92,"ebdc":93,"fed":94,"bbebe":95,"eecc":96,"bbdc":97,"dbbc":98,"eebe":99,"debe":100,"eef":101,"debc":102,"ecbe":103,"bbef":104,"bcbe":105,"bcf":106,"eebd":107,"dfc":108,"bbdd":109,"da":110,"bccc":111,"dbbbb":112,"dbec":113,"bcbd":114,"bcee":115,"fbf":116,"beebb":117,"fdc":118,"bbbbbbbb":119,"bcec":120,"bbebc":121,"deec":122,"beed":123,"bba":124,"febb":125,"bebf":126,"eeec":127,"eba":128,"bbfc":129,"bdbd":130,"bedc":131,"cccc":132,"dbbd":133,"bbbec":134,"decc":135,"ecbd":136,"eedc":137,"ebfc":138,"debd":139,"dbcc":140,"ecf":141,"bced":142,"eeebb":143,"fef":144,"bbbcc":145,"fdd":146,"eebf":147,"ecec":148,"beebe":149,"bcbf":150,"bedd":151,"eeed":152,"bcebb":153,"bebbc":154,"ffc":155,"bebbbb":156,"bbebd":157,"dedc":158,"febe":159,"beef":160,"edcc":161,"edbd":162,"fbbc":163,"eedd":164,"bcdc":165,"bbeec":166,"ecdc":167,"dbdc":168,"dbbf":169,"dccc":170,"eeebe":171,"dbbbe":172,"bbecc":173,"fa":174,"bdcc":175,"ecbf":176,"ecee":177,"bdbc":178,"febc":179,"bac":180,"bcbbc":181,"eced":182,"bdbe":183,"bdf":184,"bea":185,"bfcc":186,"bded":187,"ecebb":188,"befc":189,"eeef":190,"bcbbbb":191,"beebc":192,"bdbf":193,"bcef":194,"dbbbc":195,"bcdd":196,"ecdd":197,"debf":198,"bb</w>":199,"eac":200,"eebbc":201,"ebbcc":202,"fbbbb":203,"bbbdc":204,"bbebf":205,"bdee":206,"ebbebb":207,"bbccc":208,"bebec":209,"eddc":210,"bddd":211,"fbec":212,"bcebe":213,"bddc":214,"efcc":215,"fecc":216,"bebbbe":217,"bdec":218,"fbcc":219,"bdebb":220,"dbbee":221,"bcfc":222,"bcebc":223,"eddd":224,"dbfc":225,"bebbd":226,"fdf":227,"dcdc":228,"eebbbb":229,"ecbbc":230,"bbedc":231,"bebcc":232,"edbf":233,"fbbd":234,"eea":235,"febd":236,"edbc":237,"debbc":238,"ebecc":239,"ebccc":240,"feec":241,"bfbf":242,"bca":243,"dddd":244,"eefc":245,"defc":246,"bedf":247,"bedbe":248,"bcbec":249,"beecc":250,"bbebbc":251,"dba":252,"fbbf":253,"bbba":254,"eded":255,"ecef":256,"bebbf":257,"ebbbbbb":258,"fdbe":259,"ebbee":260,"bdbbc":261,"ecbec":262,"bbbfc":263,"ebbbc":264,"beebd":265,"bdef":266,"eeebc":267,"bdbbbb":268,"ebbbf":269,"ecebc":270,"beeec":271,"fbbbe":272,"ecebe":273,"ecfc":274,"dced":275,"fccc":276,"bcbbd":277,"ecdf":278,"ddcc":279,"eebec":280,"bcbcc":281,"fedc":282,"ebbbd":283,"eebcc":284,"bebbee":285,"bebbbc":286,"bcdf":287,"bfdc":288,"dea":289,"bceec":290,"deecc":291,"dbbcc":292,"eedbe":293,"bfed":294,"fbdc":295,"ebbed":296,"dcbd":297,"ecbbbb":298,"bfbd":299,"eca":300,"eedf":301,"ebbbbc":302,"fdbc":303,"ecccc":304,"bfbc":305,"ebbebe":306,"be</w>":307,"beff":308,"bd</w>":309,"febf":310,"eebbd":311,"eebbbe":312,"debcc":313,"debec":314,"ecbcc":315,"bebdc":316,"bda":317,"bdebe":318,"bc</w>":319,"dcdd":320,"bedbc":321,"edbbc":322,"eebbf":323,"dcbc":324,"eeecc":325,"beccc":326,"efbf":327,"dcec":328,"acc":329,"beebf":330,"bcebd":331,"dbecc":332,"ecbbd":333,"bcecc":334,"dfcc":335,"fbbbc":336,"dcbf":337,"bdfc":338,"eebbee":339,"bcbbbe":340,"dded":341,"bdebc":342,"ebbef":343,"bedee":344,"eceec":345,"bbbbbbc":346,"fdee":347,"bbefc":348,"beedc":349,"bbea":350,"fbebe":351,"eeccc":352,"eb</w>":353,"bbbbcc":354,"bfebb":355,"efdc":356,"bcbbf":357,"bbebec":358,"fbef":359,"ecdbe":360,"ececc":361,"bcdbe":362,"bdbbd":363,"bfef":364,"fbbee":365,"bbcbbc":366,"bdbec":367,"ebdcc":368,"ebbdc":369,"ebeebe":370,"bfbbc":371,"ecdee":372,"bddf":373,"eeeec":374,"dac":375,"bedbb":376,"bcccc":377,"edef":378,"bffc":379,"fdcc":380,"fdbd":381,"eddf":382,"bcbbbc":383,"ffcc":384,"edebb":385,"eebebe":386,"eeebd":387,"bbdcc":388,"dddc":389,"bbbbebb":390,"ddbd":391,"bfec":392,"fbfc":393,"eebdc":394,"fdbb":395,"bfebe":396,"eedbc":397,"bfdd":398,"edec":399,"eeff":400,"dcef":401,"deccc":402,"fdec":403,"ebeebb":404,"bedbd":405,"bcdee":406,"edbec":407,"bbebcc":408,"edebc":409,"eebeee":410,"bfa":411,"eedee":412,"bcff":413,"ebbec":414,"debdc":415,"bedcc":416,"dbbbd":417,"efef":418,"dbbbbc":419,"edebe":420,"bbcbbbb":421,"fcdc":422,"bcdbc":423,"bebbbd":424,"ebbebc":425,"fba":426,"eda":427,"bfbbbb":428,"ecebd":429,"bdeec":430,"eeebf":431,"eebbbc":432,"bedec":433,"bebbebb":434,"bebbec":435,"ebbdd":436,"bbfcc":437,"beba":438,"edfc":439,"bbcbd":440,"febbc":441,"dcebe":442,"fbebc":443,"ebba":444,"bebfc":445,"bcbdc":446,"dcfc":447,"eebef":448,"efdd":449,"dcebc":450,"ebbbec":451,"efbd":452,"fbeee":453,"eddee":454,"bbac":455,"beebbc":456,"bcbebe":457,"bbbbbd":458,"ee</w>":459,"aa":460,"dcbbc":461,"ebebf":462,"ebbfc":463,"bcedc":464,"eddbe":465,"eedcc":466,"ecdbc":467,"bbbecc":468,"bdbcc":469,"ecdec":470,"bebbcc":471,"bbcbf":472,"bddbe":473,"dcebb":474,"fbbbd":475,"ec</w>":476,"dedcc":477,"ed</w>":478,"ebfcc":479,"ecbbf":480,"edee":481,"fefc":482,"edbcc":483,"bfebc":484,"ebbbbbe":485,"ecbbbe":486,"efebe":487,"dbbdd":488,"edbbbb":489,"fbbcc":490,"fbbec":491,"db</w>":492,"bbdbd":493,"ecbdc":494,"dbccc":495,"ebebbc":496,"dcbec":497,"eeedc":498,"fea":499,"dceec":500,"ebac":501,"befcc":502,"fdbf":503,"fddc":504,"bcbbee":505,"dcccc":506,"ecff":507,"ebbbbd":508,"eefee":509,"bdebd":510,"bdecc":511,"efbbc":512,"bcdec":513,"edeec":514,"ebebbbb":515,"bbbccc":516,"bfbec":517,"dca":518,"fded":519,"eedbd":520,"fcbf":521,"efebb":522,"dcecc":523,"bbcebb":524,"bbdbbbb":525,"bbbebbbb":526,"bcebf":527,"ebebd":528,"bcdbd":529,"bcbebc":530,"effc":531,"dbbebb":532,"edbbd":533,"efa":534,"bcbef":535,"efed":536,"fbecc":537,"dcdf":538,"eeba":539,"dbbbf":540,"bebecc":541,"dbbed":542,"ebedc":543,"fbbbf":544,"bcfbc":545,"fcdd":546,"bedbf":547,"bcbbbd":548,"ecedc":549,"bdbbbe":550,"ebeef":551,"ecbbbc":552,"beded":553,"bebbbf":554,"beea":555,"dcee":556,"ecded":557,"bddee":558,"ddbf":559,"beddc":560,"bbb</w>":561,"bbbbbf":562,"bebbed":563,"ebced":564,"bbdbbc":565,"ebcbf":566,"bcbfc":567,"ebcbbc":568,"bdbbf":569,"eedec":570,"fcfc":571,"fbbebb":572,"ebedd":573,"dcbcc":574,"eebebc":575,"ebbbcc":576,"becbbc":577,"ebeed":578,"bbbbbbbe":579,"dd</w>":580,"bbdbf":581,"bf</w>":582,"ecdbd":583,"ebbeec":584,"eebbec":585,"bbeecc":586,"bbebdc":587,"bedebb":588,"fbccc":589,"becbf":590,"bbced":591,"bcbbec":592,"eefbe":593,"febcc":594,"bcded":595,"ebcebb":596,"bdff":597,"eebbebb":598,"ecced":599,"ecdcc":600,"bcdcc":601,"dbbdc":602,"bcebbc":603,"ecbebe":604,"fcbbc":605,"feecc":606,"fac":607,"add":608,"bebccc":609,"bddbc":610,"dbbebe":611,"beefc":612,"bfdf":613,"bfbcc":614,"eeebbc":615,"ebcdd":616,"bdbdc":617,"dcebd":618,"ecbef":619,"edecc":620,"bbeccc":621,"bcbbcc":622,"eebbbd":623,"ebea":624,"ebbbbf":625,"bbbcbbbb":626,"bcba":627,"ebcbec":628,"ddbbc":629,"ebcdc":630,"fcdf":631,"ebcbd":632,"ddef":633,"febec":634,"fdebb":635,"bbbbbbbbbbbb":636,"dbdcc":637,"eefbc":638,"edebd":639,"ebbdf":640,"fcef":641,"bebbebe":642,"bebbbbc":643,"fcbd":644,"fbbed":645,"ecbebc":646,"bbded":647,"ebbebd":648,"beebec":649,"eeddc":650,"eebfc":651,"ebcef":652,"bbbbebe":653,"bbcbec":654,"eebcbc":655,"bcfee":656,"fced":657,"ecbfc":658,"abf":659,"bbcdd":660,"becbec":661,"bbcef":662,"bbbbbbd":663,"bddbd":664,"fdef":665,"ebbdbe":666,"bbcebe":667,"cccccccc":668,"ecbbec":669,"bcbeee":670,"dbbef":671,"eddbc":672,"ecebf":673,"dfdc":674,"eebbcc":675,"bdedc":676,"ebcebc":677,"de</w>":678,"eeea":679,"beac":680,"bbcdc":681,"bfbbf":682,"dda":683,"edccc":684,"bcfec":685,"ecbbee":686,"debfc":687,"beebcc":688,"ebbbbbc":689,"becdc":690,"bcbbebb":691,"eedbf":692,"bfecc":693,"eecdc":694,"ebbecc":695,"ddebe":696,"dbbfc":697,"dc</w>":698,"bcced":699,"aed":700,"ddfc":701,"eecbf":702,"abd":703,"ebbbebe":704,"bcfcc":705,"bcfbe":706,"feccc":707,"adc":708,"ecfbc":709,"ecebbc":710,"ebcbbbb":711,"ecbeec":712,"bbddc":713,"bcefc":714,"dfdd":715,"bbdebb":716,"ebebec":717,"bbcbcc":718,"bdbbbc":719,"bbcfc":720,"efbcc":721,"bdccc":722,"ebefc":723,"dfed":724,"eecdd":725,"ebebbbe":726,"bcbeec":727,"bfff":728,"ebb</w>":729,"bedbbc":730,"ecbcbc":731,"eeded":732,"bfbbbe":733,"eedbb":734,"becdd":735,"bcdbb":736,"dcdbe":737,"bdbebe":738,"defcc":739,"bfdbe":740,"eddec":741,"bbcccc":742,"dcbbbb":743,"ebceec":744,"aef":745,"bceebc":746,"ebcfc":747,"bfebd":748,"becebb":749,"ebebcc":750,"ecbbbd":751,"fdbbc":752,"bbbbbbbc":753,"fcccc":754,"fbbef":755,"efdf":756,"bacc":757,"abbc":758,"ebddd":759,"eebeec":760,"bebbef":761,"fbbdc":762,"edbbf":763,"bcdebb":764,"bfbbd":765,"edbdc":766,"bcdbf":767,"bcbbed":768,"eebbed":769,"beeecc":770,"dcbbd":771,"afc":772,"dffc":773,"bcbccc":774,"bbcebc":775,"bebbdc":776,"bbbbdd":777,"bcbebd":778,"eeeecc":779,"becbd":780,"deba":781,"fda":782,"bbebfc":783,"ecba":784,"fbbbbc":785,"ecfec":786,"efebc":787,"efbbbb":788,"bedef":789,"bbeba":790,"edbbbe":791,"bfeec":792,"edff":793,"bcfbd":794,"ddebb":795,"ecceec":796,"ebcebe":797,"bcbbbbc":798,"efbec":799,"fdfc":800,"ddeec":801,"bbcbbd":802,"aebe":803,"bcbbbf":804,"dcdee":805,"dddf":806,"dbfcc":807,"ddebc":808,"eebbebe":809,"eacc":810,"bedebe":811,"ebbff":812,"bccbbc":813,"fbbebe":814,"bdbbbd":815,"bddec":816,"abbbb":817,"dbedc":818,"bcddc":819,"ecfee":820,"fedcc":821,"eebbbf":822,"bcebec":823,"eefcc":824,"ebcdf":825,"ebbbbee":826,"bbdebe":827,"ecbecc":828,"bbbbbbbbbbbbbbbb":829,"bbfbf":830,"ebded":831,"bdbbee":832,"ddbec":833,"bccccc":834,"dcedc":835,"ddecc":836,"eebccc":837,"bcbecc":838,"dbbbec":839,"eecbec":840,"bccbf":841,"ecdebb":842,"bbdef":843,"bbbeebb":844,"ecddc":845,"fdebe":846,"fcbec":847,"bdebf":848,"cccccc":849,"eecdf":850,"deedc":851,"efdbe":852,"aebb":853,"bbbebbc":854,"dbbebc":855,"fcebe":856,"bccbcc":857,"ecbbcc":858,"eebecc":859,"bebbebc":860,"eebebd":861,"febdc":862,"ebdbf":863,"ebebebe":864,"dfbf":865,"bedbbbb":866,"ededc":867,"efff":868,"ebeebc":869,"ddbbbb":870,"dcff":871,"ecefc":872,"eecbbc":873,"eddbd":874,"bdbef":875,"eedebb":876,"becbbbb":877,"eefec":878,"ecbeee":879,"bbdbbd":880,"dbba":881,"bedebc":882,"efecc":883,"fdebc":884,"efbbf":885,"fcbcc":886,"ecbebd":887,"eefbd":888,"ecdbf":889,"bbcbbbe":890,"beced":891,"ecbccc":892,"bceebe":893,"ebcbcc":894,"bcebcc":895,"ecfcc":896,"bcea":897,"bbbdcc":898,"dbedd":899,"ef</w>":900,"dbbbcc":901,"bbfbbbb":902,"dcdbc":903,"dcbdc":904,"fcebb":905,"dbbebd":906,"ecfbe":907,"bdfbc":908,"becebe":909,"eccecc":910,"bdbebc":911,"ecbbed":912,"edded":913,"eeefc":914,"becebc":915,"ebbebf":916,"fca":917,"bcfed":918,"bdded":919,"becef":920,"bbceec":921,"ddbcc":922,"ebbccc":923,"fcebc":924,"ebebbf":925,"fbdcc":926,"bebbdd":927,"bddcc":928,"dcdec":929,"bedbec":930,"bbbbed":931,"ecbbebb":932,"bceeee":933,"bcdef":934,"bcecbc":935,"bbbebf":936,"ebbdbc":937,"dbebf":938,"eebbef":939,"eeebcc":940,"bdbfc":941,"debbcc":942,"bebba":943,"bceecc":944,"bcecbe":945,"ebbbdc":946,"ddebd":947,"eeebec":948,"bbcbbf":949,"dddbe":950,"ecdef":951,"bbca":952,"eccef":953,"bebbbec":954,"fbbdd":955,"eeac":956,"eceebc":957,"bbbbbcc":958,"becdf":959,"dbac":960,"ecebcc":961,"bccef":962,"bbdebc":963,"bbd</w>":964,"ebebbee":965,"eeecbc":966,"eccbf":967,"bcdebe":968,"bceebd":969,"ebddc":970,"becfc":971,"bceef":972,"eddcc":973,"beeccc":974,"bbbbbbf":975,"bbbbbbbd":976,"bbbcbbc":977,"ffdc":978,"bbbebbbe":979,"edbebe":980,"fcdbe":981,"bcac":982,"efccc":983,"ffbf":984,"beda":985,"bbdbec":986,"bbbbbec":987,"bdba":988,"deedd":989,"bedfc":990,"fdbec":991,"bbda":992,"bbcdf":993,"bccebe":994,"bbdfc":995,"eccebc":996,"deac":997,"eedbbc":998,"ecebec":999,"dbbeec":1000,"eccbec":1001,"eccdc":1002,"ebdef":1003,"bbbeebe":1004,"ebbedc":1005,"bfccc":1006,"fbbfc":1007,"bfbdc":1008,"bfebf":1009,"eebbbbc":1010,"becccc":1011,"edbef":1012,"beebdc":1013,"eecccc":1014,"eedef":1015,"ebbbbbd":1016,"bbcdbe":1017,"bbbbebc":1018,"bbbbef":1019,"ebbbef":1020,"bebdcc":1021,"dcbbf":1022,"ebbdee":1023,"ebedf":1024,"dcdcc":1025,"bbcebd":1026,"edbbbc":1027,"fdbbbb":1028,"bdbbec":1029,"bccfc":1030,"bcbbdc":1031,"bbcbbbc":1032,"eecef":1033,"ecfbd":1034,"bccdd":1035,"bbebbcc":1036,"bbc</w>":1037,"bfbebe":1038,"ebca":1039,"dbddd":1040,"bfbbbc":1041,"bebbfc":1042,"ecfed":1043,"bccbd":1044,"ebbbebc":1045,"bbe</w>":1046,"eccdd":1047,"debecc":1048,"bfedc":1049,"eceecc":1050,"ebddf":1051,"ffdd":1052,"bfdbc":1053,"eccfc":1054,"edbbec":1055,"bbebbbbbb":1056,"bcdbbc":1057,"bccbec":1058,"fbbebc":1059,"bdebbc":1060,"bccebc":1061,"dfa":1062,"bccdc":1063,"bcceec":1064,"ececbc":1065,"dbeed":1066,"dfef":1067,"fbba":1068,"ebebbd":1069,"bbbba":1070,"bbbfcc":1071,"bbfef":1072,"ebbbeee":1073,"eebbdc":1074,"ebdbd":1075,"dfbd":1076,"ddbbd":1077,"bccebb":1078,"ddedc":1079,"bcbbebe":1080,"ebcecc":1081,"bfbbee":1082,"eecbd":1083,"ebdbec":1084,"dddbc":1085,"bfdee":1086,"ebebeee":1087,"ebedbe":1088,"ecea":1089,"ecdebc":1090,"edbebc":1091,"ebdebb":1092,"eccbd":1093,"ebdbbc":1094,"ebe</w>":1095,"bbbbdc":1096,"eccbbc":1097,"bbbbfc":1098,"eeecbe":1099,"ecdeec":1100,"bbfbbc":1101,"edbbee":1102,"bbbac":1103,"bbbb</w>":1104,"bedeec":1105,"bbdeec":1106,"bcdebc":1107,"eccebb":1108,"bbedcc":1109,"ebdeec":1110,"fceec":1111,"edebf":1112,"eedbec":1113,"ebdebc":1114,"dcdbd":1115,"fbbbec":1116,"ecdbb":1117,"ffef":1118,"fcdee":1119,"ecbbbf":1120,"bcbbef":1121,"bbfebb":1122,"bcbbdd":1123,"fdbcc":1124,"beca":1125,"fdbbd":1126,"dfbbc":1127,"bfbef":1128,"eccccc":1129,"eccedc":1130,"beceec":1131,"ebeeec":1132,"bedbbd":1133,"dbebbc":1134,"dbebd":1135,"dddbd":1136,"ddbdc":1137,"eebba":1138,"bbdbbbe":1139,"efbbbe":1140,"bccbbbb":1141,"fffc":1142,"fbfcc":1143,"ebbebbc":1144,"bdfee":1145,"dfebc":1146,"ecdbec":1147,"efeec":1148,"edced":1149,"eeeccc":1150,"ebbbbebb":1151,"ebeebf":1152,"ebeff":1153,"bcdfc":1154,"bdbeee":1155,"ebdbbbb":1156,"aebc":1157,"ebebbbc":1158,"bebebbbb":1159,"ebeecc":1160,"bbbdbbbb":1161,"becbcc":1162,"edbfc":1163,"ebbdec":1164,"efbdc":1165,"dcded":1166,"dcbbbe":1167,"bdddc":1168,"eeceec":1169,"ebd</w>":1170,"debccc":1171,"ebcbbd":1172,"bbffc":1173,"ecdfc":1174,"dbb</w>":1175,"bcdbbbb":1176,"edddc":1177,"dddee":1178,"fdeec":1179,"becdbe":1180,"efbbee":1181,"bedbcc":1182,"ebebdc":1183,"ebeeeee":1184,"ebcebd":1185,"ebeccc":1186,"bdbcbc":1187,"efbbd":1188,"dbbbdc":1189,"ebc</w>":1190,"ddccc":1191,"bdfbe":1192,"efbebe":1193,"bebbbbbbbb":1194,"ebbdbd":1195,"efebf":1196,"adf":1197,"eeda":1198,"ebbfee":1199,"ebeebd":1200,"bebbbcc":1201,"ecbbdc":1202,"efdbc":1203,"ecca":1204,"fdecc":1205,"efebd":1206,"bfbfc":1207,"edfbc":1208,"ebbbbec":1209,"bffbc":1210,"ecdebe":1211,"edceec":1212,"ecdbbc":1213,"ebcdbe":1214,"bbfdc":1215,"ebebef":1216,"fcbbbb":1217,"eebbebc":1218,"edbeec":1219,"bceccc":1220,"ecbbbbc":1221,"ebcccc":1222,"bcbcbcbc":1223,"bdefc":1224,"bdfec":1225,"ebcbbbe":1226,"efdee":1227,"edba":1228,"eeca":1229,"bddebb":1230,"bbcbdc":1231,"dcebf":1232,"bebbeec":1233,"eedebc":1234,"ddff":1235,"eceebd":1236,"bdbbcc":1237,"fcff":1238,"ebda":1239,"ebbba":1240,"bebebbc":1241,"bdbeec":1242,"bbeebbbb":1243,"bbbcbbbc":1244,"bcebdc":1245,"fbebf":1246,"bbdbcc":1247,"ebbeeee":1248,"ecac":1249,"eceeec":1250,"bbcdee":1251,"ebbfbc":1252,"ececcc":1253,"dbefc":1254,"ebbbfc":1255,"df</w>":1256,"ebdfc":1257,"eecebc":1258,"edbbbd":1259,"bcbbebc":1260,"eccebe":1261,"becbbd":1262,"eedebe":1263,"bbfa":1264,"decdc":1265,"bcdbec":1266,"fdebd":1267,"befbf":1268,"bcca":1269,"bedebd":1270,"bbcdbc":1271,"eefed":1272,"becdee":1273,"bbbbdbe":1274,"bebbebd":1275,"fbbbcc":1276,"beeba":1277,"eceeee":1278,"bddbf":1279,"eddef":1280,"baa":1281,"eedbbbb":1282,"ecdecc":1283,"edebbc":1284,"eccdf":1285,"ffa":1286,"bcbbfc":1287,"bbbcbf":1288,"eebdcc":1289,"dbbccc":1290,"beb</w>":1291,"bbbbcbbbb":1292,"feba":1293,"eccbcc":1294,"ebfbf":1295,"ececbe":1296,"eecfc":1297,"ecda":1298,"efbef":1299,"effee":1300,"eceef":1301,"bcda":1302,"edcdc":1303,"ecfdc":1304,"bbfdd":1305,"eddebb":1306,"bbebecc":1307,"eebbdd":1308,"edfee":1309,"ebdebe":1310,"dfebe":1311,"febfc":1312,"bbcbebe":1313,"dbbecc":1314,"dfbec":1315,"edcef":1316,"deebf":1317,"eecebb":1318,"ffff":1319,"eddbf":1320,"fb</w>":1321,"bcdeec":1322,"bdbbebb":1323,"dddec":1324,"bbbbbebe":1325,"bbdbbf":1326,"fdbbf":1327,"bbbbbbebb":1328,"bdfcc":1329,"dddcc":1330,"eedfc":1331,"ebcbbf":1332,"eceedc":1333,"bbdebd":1334,"bdbebd":1335,"bbbebec":1336,"bbeebf":1337,"eecbcc":1338,"bdfbd":1339,"eebeebe":1340,"bdcdc":1341,"bedecc":1342,"eeebdc":1343,"bbbedc":1344,"febbcc":1345,"fcecc":1346,"bebfcc":1347,"dfecc":1348,"ebcdee":1349,"ebedbc":1350,"dfbcc":1351,"beedcc":1352,"bdcdd":1353,"eedeec":1354,"ecebdc":1355,"eeced":1356,"dbebbbb":1357,"bbcecc":1358,"bbdbbbc":1359,"bdeebc":1360,"bbcff":1361,"abec":1362,"bebebf":1363,"bbfed":1364,"bbeeebe":1365,"dbcdc":1366,"edcdd":1367,"bbfebe":1368,"bbbedd":1369,"edbeee":1370,"edcbec":1371,"eecbbbb":1372,"bdcbf":1373,"adbe":1374,"bebebebe":1375,"dfebb":1376,"becebd":1377,"fdccc":1378,"ebcdbc":1379,"abcc":1380,"bdcef":1381,"eeeeeeee":1382,"eebbfc":1383,"bbeeebb":1384,"bbbcebb":1385,"dacc":1386,"dcfbc":1387,"bcbbbec":1388,"fcdbc":1389,"eecdec":1390,"fcbbf":1391,"fbbeec":1392,"eecdbe":1393,"ebcff":1394,"dfdf":1395,"ebcdec":1396,"bdbbed":1397,"dcbbbc":1398,"bfdbd":1399,"fcbbd":1400,"eceebe":1401,"bebbecc":1402,"fbeef":1403,"bdced":1404,"ddddc":1405,"ebcedc":1406,"bcbbbbbbbb":1407,"dcbfc":1408,"bcdbbd":1409,"dfdbe":1410,"dcddc":1411,"edfec":1412,"ebefee":1413,"ebbbbcc":1414,"ecbbdd":1415,"bddbb":1416,"bbefcc":1417,"eecdee":1418,"bbbebebe":1419,"bbbeef":1420,"eccebd":1421,"fcebd":1422,"bdea":1423,"dcbebe":1424,"bcbbbcc":1425,"bedbbbe":1426,"dbcdd":1427,"bffee":1428,"ebfef":1429,"bfdec":1430,"bdcbbc":1431,"edefc":1432,"eebbbec":1433,"dbebec":1434,"bbfbbf":1435,"bbeac":1436,"bbdbbbd":1437,"bbbbbbee":1438,"bfbebc":1439,"bbcbbee":1440,"bedbbf":1441,"ecbbebe":1442,"bdbecc":1443,"dbeef":1444,"bbcdbf":1445,"ebbbcbc":1446,"bcbdcc":1447,"bbbeed":1448,"edcebc":1449,"bfdcc":1450,"bdcebe":1451,"eeeba":1452,"beebfc":1453,"aff":1454,"ecfbf":1455,"ebbfbe":1456,"dbeebe":1457,"fdbdc":1458,"bbbebbbc":1459,"bdebec":1460,"dcfec":1461,"eecebd":1462,"deddd":1463,"ebcbbbc":1464,"bbbbbbbbc":1465,"eedbcc":1466,"dbbebf":1467,"fefcc":1468,"bcbba":1469,"fe</w>":1470,"bbbbebd":1471,"dbeebb":1472,"bccecc":1473,"efbbbc":1474,"edcdf":1475,"bcdebd":1476,"eecebe":1477,"eedbbd":1478,"bfba":1479,"fbbebd":1480,"efbeee":1481,"dcbef":1482,"bccebd":1483,"dbcbbc":1484,"dbea":1485,"ffbbc":1486,"ebbbbbf":1487,"bbdbdc":1488,"fcdec":1489,"ecdedc":1490,"ecbbebc":1491,"ecdebd":1492,"bdbcbe":1493,"becbbbe":1494,"ececbd":1495,"edbecc":1496,"fcbdc":1497,"ecfebb":1498,"bddef":1499,"becdbc":1500,"bccdf":1501,"bbcbbbd":1502,"bececc":1503,"efedc":1504,"bebeebe":1505,"ebcbdc":1506,"edbbebb":1507,"bffbe":1508,"edbbcc":1509,"decccc":1510,"bbbebbf":1511,"decdd":1512,"bbbea":1513,"ebdebd":1514,"bebeebb":1515,"bdbbbf":1516,"fbbecc":1517,"deebbc":1518,"ebfdc":1519,"edbcbc":1520,"bcdbcc":1521,"bcb</w>":1522,"bffcc":1523,"ecbbef":1524,"eecdbc":1525,"bbbeebc":1526,"bfebbc":1527,"bfbeee":1528,"ecbdbd":1529,"aba":1530,"bbebccc":1531,"bbdff":1532,"bcedcc":1533,"bbbddd":1534,"ebfbbc":1535,"befdc":1536,"fbebbc":1537,"dbedbe":1538,"aecc":1539,"bfbbec":1540,"bddbbbb":1541,"deddc":1542,"bbbebbee":1543,"becdec":1544,"bdbcf":1545,"efdcc":1546,"abbf":1547,"abbd":1548,"bedccc":1549,"ebbdcc":1550,"dbddc":1551,"bddebe":1552,"becff":1553,"bddbbc":1554,"edcfc":1555,"bdeebe":1556,"fdbbbe":1557,"ebffc":1558,"ebcbebe":1559,"bbbebbd":1560,"dfccc":1561,"beebbcc":1562,"eddebe":1563,"dcbbee":1564,"becbbbc":1565,"dcefc":1566,"edcebe":1567,"bbcbebc":1568,"edcbf":1569,"ebbded":1570,"bdebcc":1571,"bdcebc":1572,"befdd":1573,"bdcfc":1574,"bdac":1575,"befef":1576,"edbbed":1577,"edfbe":1578,"ebfa":1579,"bcdecc":1580,"ebbeebe":1581,"bdbbbbc":1582,"ebbeebc":1583,"becbbf":1584,"bfbbbd":1585,"bbcdec":1586,"ebfebe":1587,"eecbbd":1588,"dcbebc":1589,"ebcbebc":1590,"ecbbfc":1591,"bdcbec":1592,"ddded":1593,"ebbbebd":1594,"ffebe":1595,"ccccccc":1596,"dbcfc":1597,"ebddbe":1598,"ececf":1599,"dbbedc":1600,"dbbbbbbbb":1601,"ebbdebb":1602,"bccbbd":1603,"bdbbdd":1604,"ebbcbbc":1605,"dbcef":1606,"fbeebe":1607,"ddbbf":1608,"dbcbf":1609,"eececc":1610,"bbeebbc":1611,"bbbcebe":1612,"accc":1613,"bdeef":1614,"bbbefc":1615,"bdbcbd":1616,"ebbbbbbc":1617,"eecff":1618,"edbebd":1619,"bdbcee":1620,"bebbebf":1621,"eedebd":1622,"ebbfec":1623,"bbcdbd":1624,"eeedcc":1625,"deefc":1626,"dcfee":1627,"ecbdcc":1628,"bbdbebe":1629,"bedbdc":1630,"bbdecc":1631,"befebe":1632,"bdfed":1633,"bccdbe":1634,"edeebc":1635,"dfebd":1636,"edfcc":1637,"bdceec":1638,"bdeeee":1639,"dbcbbbb":1640,"ecbedc":1641,"aebd":1642,"ebebebc":1643,"abbbe":1644,"fc</w>":1645,"ddfbc":1646,"becbbec":1647,"ebfbbbb":1648,"bdbbdc":1649,"eccdec":1650,"dfedc":1651,"effbc":1652,"befbbc":1653,"bfcbf":1654,"ecdbbbb":1655,"dfbbbb":1656,"eccbbbb":1657,"dfff":1658,"bdeecc":1659,"ebedee":1660,"bbfebc":1661,"eedecc":1662,"eebbbcc":1663,"ebbea":1664,"bedbbbc":1665,"bccff":1666,"efdbd":1667,"ebbcbbbb":1668,"dcfcc":1669,"bbbedbe":1670,"ebbbeebb":1671,"efba":1672,"beeeebe":1673,"dbced":1674,"bbeebbee":1675,"bfbbcc":1676,"bbfbec":1677,"aeec":1678,"bdecbc":1679,"fdedc":1680,"bccdee":1681,"fbebbbb":1682,"ecdbcc":1683,"efdec":1684,"bdbeed":1685,"dfeec":1686,"bdcbbbb":1687,"ebeedc":1688,"bfbcbc":1689,"dccccc":1690,"bbcebf":1691,"dcebbc":1692,"bcbfcc":1693,"ebdecc":1694,"eceedd":1695,"efbfc":1696,"deb</w>":1697,"ebbefc":1698,"bccbbf":1699,"eebbeec":1700,"bbdbbee":1701,"ebddee":1702,"dfdbc":1703,"ffccc":1704,"bbbcdd":1705,"bbcbfc":1706,"ebbbeec":1707,"dbeebc":1708,"bcffc":1709,"edcecc":1710,"eedccc":1711,"bdeebd":1712,"ebbbbed":1713,"bbcbbec":1714,"becbdc":1715,"babbbb":1716,"debdcc":1717,"eceeed":1718,"dbbdcc":1719,"bbbebcc":1720,"fbedc":1721,"eeb</w>":1722,"bbddcc":1723,"eecded":1724,"eefbf":1725,"eebeef":1726,"ebcded":1727,"bdecbe":1728,"bdfdc":1729,"deeccc":1730,"dfbdc":1731,"dbbebbc":1732,"bbbcbec":1733,"bbcbef":1734,"fbac":1735,"dbbbfc":1736,"dcbbbd":1737,"edebec":1738,"dbcebe":1739,"dbebcc":1740,"efebbc":1741,"ecbbbec":1742,"fd</w>":1743,"edea":1744,"edebcc":1745,"ddbbbe":1746,"ebdbbd":1747,"ebdbcc":1748,"bbcfbc":1749,"dbbba":1750,"bee</w>":1751,"fcbbbc":1752,"edbcec":1753,"ebbbcbe":1754,"adee":1755,"dfbbd":1756,"eeeeebe":1757,"ebbebec":1758,"bbfff":1759,"bdbcec":1760,"dbdbf":1761,"eebbebd":1762,"ddebf":1763,"bbcedc":1764,"bebebbbe":1765,"bcfdc":1766,"dbd</w>":1767,"bbcbcbc":1768,"bdfbf":1769,"bdbdcc":1770,"eccff":1771,"fddcc":1772,"eebfcc":1773,"bfdbf":1774,"adbc":1775,"fdebf":1776,"dccdc":1777,"eebbecc":1778,"fbbebf":1779,"eefebe":1780,"dfbbf":1781,"bccbdc":1782,"bbdccc":1783,"fdbbbc":1784,"becbebc":1785,"edfbd":1786,"bddebc":1787,"bcfdd":1788,"fbefc":1789,"dccdd":1790,"abbbc":1791,"beeebbbb":1792,"bccbbbc":1793,"ebcebf":1794,"ebcebbc":1795,"eefef":1796,"bebeef":1797,"ecbedd":1798,"dbdbbbb":1799,"ebbbbebe":1800,"ecdbbd":1801,"abba":1802,"bdbeebb":1803,"feac":1804,"ebbbecc":1805,"bccedc":1806,"bcbedd":1807,"ebddbc":1808,"beffc":1809,"eebebf":1810,"bcbbebd":1811,"bcebfc":1812,"ebcbbee":1813,"deeebe":1814,"abdc":1815,"feebf":1816,"bcebbcc":1817,"bbbcbbbe":1818,"fbedd":1819,"cccdc":1820,"eebebbbb":1821,"fbbccc":1822,"eecbdc":1823,"dbedf":1824,"dbeecc":1825,"decbbc":1826,"bbbfbbbb":1827,"eddeec":1828,"dbe</w>":1829,"dbc</w>":1830,"ebcbfc":1831,"bbfbbbe":1832,"ebbdbf":1833,"dcbbec":1834,"bffbd":1835,"bbeedd":1836,"bdbccc":1837,"ddcdd":1838,"aebf":1839,"bebbbdc":1840,"bbcebbc":1841,"eddebc":1842,"ebdff":1843,"bfefc":1844,"bbeebbbe":1845,"fcfbc":1846,"bcdedc":1847,"bccdbc":1848,"decbec":1849,"fcdbd":1850,"bccbbbe":1851,"edeecc":1852,"bdeeec":1853,"befa":1854,"edbeed":1855,"bffec":1856,"facc":1857,"ebdedc":1858,"bbbbccc":1859,"fcded":1860,"bbacc":1861,"dcbcbc":1862,"bbdedc":1863,"febccc":1864,"bdbedc":1865,"edfed":1866,"bbdbebc":1867,"bebbccc":1868,"ebddec":1869,"ebdccc":1870,"ebfdd":1871,"fcdcc":1872,"bbbdbbc":1873,"bededc":1874,"efbebc":1875,"fbbbdc":1876,"bbbbeec":1877,"bbfdf":1878,"eccbdc":1879,"bddfc":1880,"eceeebb":1881,"bec</w>":1882,"bdfebb":1883,"febecc":1884,"bcfbf":1885,"fcbef":1886,"bebbedc":1887,"bcbedc":1888,"ebeba":1889,"bdda":1890,"efeeee":1891,"ebebfc":1892,"ba</w>":1893,"cccdd":1894,"bbbbdbc":1895,"bed</w>":1896,"ebbfbd":1897,"bbbbbbec":1898,"bcbebbc":1899,"ecbfcc":1900,"bedebf":1901,"bcbbeec":1902,"bcdbbbe":1903,"aea":1904,"bbdebf":1905,"eccdbe":1906,"ebcdbd":1907,"eccdee":1908,"eddbbc":1909,"ebbfcc":1910,"edcbbc":1911,"dcbeec":1912,"ebbebcc":1913,"efea":1914,"fcbfc":1915,"dbbbbcc":1916,"fcbbbe":1917,"becded":1918,"becbebe":1919,"ebcfbc":1920,"ebebbebb":1921,"effcc":1922,"bbbbbebc":1923,"bebac":1924,"eddbec":1925,"ebebbbd":1926,"bbeedc":1927,"bbecbbc":1928,"bbfbcc":1929,"eddfc":1930,"dbdbbc":1931,"beebecc":1932,"edbcf":1933,"fcebf":1934,"edeeee":1935,"bcdbbf":1936,"edca":1937,"bdbebf":1938,"ffdf":1939,"ecedcc":1940,"bbbcbbd":1941,"bfded":1942,"eeebbcc":1943,"bebbebbc":1944,"ebdbbf":1945,"bcbbecc":1946,"ebcbef":1947,"dbeccc":1948,"bbbbbdc":1949,"fcbebc":1950,"edcdec":1951,"eefa":1952,"dbceec":1953,"bfbbebb":1954,"dbcbec":1955,"bddbbd":1956,"ebdbbbe":1957,"ecbba":1958,"bbcbbcc":1959,"eebeebb":1960,"bedbbee":1961,"dcba":1962,"bbbcef":1963,"ddbebe":1964,"bbeeef":1965,"eedbbbe":1966,"dbebbd":1967,"ddbbbd":1968,"eedbdc":1969,"dfdee":1970,"dfdcc":1971,"bcdbdc":1972,"bbbcebc":1973,"dcbeee":1974,"ffbcc":1975,"bfbbbf":1976,"edda":1977,"eedbbf":1978,"ecdccc":1979,"ebdbdc":1980,"becebbc":1981,"eccbbd":1982,"dffbc":1983,"dbcebc":1984,"ecbbecc":1985,"edcdee":1986,"fdbfc":1987,"eddbb":1988,"dfdbd":1989,"eebbebf":1990,"ebebbec":1991,"bbbbebf":1992,"bbbcdc":1993,"edecbc":1994,"ebeebbc":1995,"dbedee":1996,"bcccccc":1997,"dbebbbe":1998,"bdb</w>":1999,"bbbd</w>":2000,"edbedc":2001,"decbf":2002,"eecbbf":2003,"edbbbf":2004,"eaa":2005,"eebebbc":2006,"beefcc":2007,"edbdcc":2008,"ebebbcc":2009,"ebbfebb":2010,"fbea":2011,"beeebf":2012,"ecdbdc":2013,"ebddbd":2014,"bcbebbbb":2015,"bebcbbc":2016,"bbbcbcc":2017,"ebdbebe":2018,"dccfc":2019,"ecbbbcc":2020,"becdbd":2021,"befbbbb":2022,"dceebc":2023,"ebcfec":2024,"ebebcbc":2025,"ebedbd":2026,"ebefbc":2027,"bddbec":2028,"bcfef":2029,"bfcbbc":2030,"bcc</w>":2031,"ebedec":2032,"edbcbe":2033,"edbcee":2034,"eecbbbe":2035,"bdcebb":2036,"dcfbd":2037,"bfcfc":2038,"bbbcfc":2039,"bdbbebe":2040,"badd":2041,"deea":2042,"eecdbd":2043,"ecebbcc":2044,"feedd":2045,"fbeebb":2046,"ebf</w>":2047,"eebea":2048,"ebedcc":2049,"bbbebbebb":2050,"bddeec":2051,"fdbbee":2052,"edac":2053,"ebcbbbd":2054,"dbebbf":2055,"ebcbbec":2056,"deebec":2057,"bbeea":2058,"bbdfbc":2059,"efbbec":2060,"eecbebc":2061,"dceecc":2062,"bcfbbc":2063,"ecebfc":2064,"ebcdcc":2065,"edcbcc":2066,"bdca":2067,"efcdf":2068,"feeebe":2069,"eccded":2070,"eccdbc":2071,"ecbbeec":2072,"efcbf":2073,"ebfebb":2074,"becfbc":2075,"bcbebf":2076,"bbdbbec":2077,"fbebcc":2078,"bbbbdbd":2079,"edbcbd":2080,"bedbfc":2081,"bdbbef":2082,"ebbcbf":2083,"deebcc":2084,"fcedc":2085,"feedc":2086,"becbfc":2087,"ffbbf":2088,"ebbddc":2089,"eadd":2090,"bbbbbbcc":2091,"bebedc":2092,"beddcc":2093,"eefdd":2094,"fecdd":2095,"fbcbf":2096,"dbeeec":2097,"edbeebb":2098,"bcdccc":2099,"efbcbc":2100,"eeebfc":2101,"ebcbcbc":2102,"eceebf":2103,"ebbecbc":2104,"ecb</w>":2105,"dbcdbc":2106,"edbbdc":2107,"efddc":2108,"bbcbbebb":2109,"bbf</w>":2110,"bbbbdf":2111,"bebedd":2112,"dcdbf":2113,"dbeebd":2114,"ebbbcbd":2115,"fbebec":2116,"babf":2117,"eecdcc":2118,"bdcdf":2119,"bbbdbf":2120,"edcebd":2121,"bebebec":2122,"cccfc":2123,"fbbbbbbbb":2124,"bbeebbf":2125,"eecbbbc":2126,"bbbbebbc":2127,"eccfec":2128,"ebceebc":2129,"ecbbebd":2130,"eccbbf":2131,"bccdec":2132,"bebbba":2133,"bbbbbcbc":2134,"beeebeee":2135,"babbc":2136,"bebefc":2137,"befebb":2138,"deedbe":2139,"eefdc":2140,"effbe":2141,"bebcbf":2142,"bbccbbc":2143,"bdcebd":2144,"deebbbb":2145,"bebcbec":2146,"bcbbccc":2147,"ddcdc":2148,"fcbbec":2149,"ffed":2150,"edcebb":2151,"bbdbfc":2152,"ddbbbc":2153,"bbcded":2154,"ecedbd":2155,"dbcebb":2156,"dcceec":2157,"bebea":2158,"bebcbbbb":2159,"bceba":2160,"bcebecc":2161,"bdcbcc":2162,"bbfdbe":2163,"cccbf":2164,"bcefcc":2165,"bbfbbd":2166,"dcebec":2167,"becebf":2168,"bdebdc":2169,"fcfee":2170,"edbccc":2171,"ebbbcf":2172,"ecbebbc":2173,"becbef":2174,"fbbedc":2175,"edcedc":2176,"efbbbd":2177,"ddbfc":2178,"decdee":2179,"bbfbbbc":2180,"ebbbebf":2181,"dbca":2182,"bbbbff":2183,"edfdc":2184,"ebbbbbbbbbb":2185,"bcdebf":2186,"fecdc":2187,"eebebbbe":2188,"dfbbbe":2189,"bccebf":2190,"dfebf":2191,"bbebbbbc":2192,"bfea":2193,"ebdded":2194,"ebdbebc":2195,"bbdbef":2196,"bbbc</w>":2197,"ded</w>":2198,"beeebbee":2199,"bbbbbef":2200,"eededc":2201,"ebbcebc":2202,"bdcdbe":2203,"decfc":2204,"dcfed":2205,"bedebbc":2206,"efdbf":2207,"bceedd":2208,"decebc":2209,"ecceecc":2210,"adbd":2211,"bebebcc":2212,"ebbeecc":2213,"eefbbc":2214,"beacc":2215,"bedefc":2216,"dcdebb":2217,"efbbcc":2218,"ecffc":2219,"eeddcc":2220,"fbebbf":2221,"aedc":2222,"becedc":2223,"bfddc":2224,"bdbced":2225,"fbebbbe":2226,"ebbcdd":2227,"fdebbc":2228,"eed</w>":2229,"dbcdf":2230,"abbee":2231,"dcbecc":2232,"cccbcc":2233,"decdf":2234,"ebcefc":2235,"feeef":2236,"ebbeebd":2237,"bbeb</w>":2238,"bbbbdee":2239,"dec</w>":2240,"becbbee":2241,"dedbbc":2242,"bebbbfc":2243,"bfcef":2244,"beeebbbe":2245,"fbeff":2246,"ebbeeebb":2247,"bbdebbc":2248,"fbbbfc":2249,"bdfdd":2250,"bfbeec":2251,"ebfff":2252,"ecceebc":2253,"bedba":2254,"edcff":2255,"becdcc":2256,"fecccc":2257,"beeebbc":2258,"bbbdbbbd":2259,"fbcbbc":2260,"dee</w>":2261,"bbbbbbbf":2262,"ebbfed":2263,"ebbeef":2264,"efefc":2265,"bebeebc":2266,"dbebdc":2267,"eec</w>":2268,"bdeedc":2269,"bfbcf":2270,"bbbbcbbc":2271,"ecbeecc":2272,"bfcdd":2273,"beebccc":2274,"abef":2275,"fdba":2276,"bfac":2277,"ebbbcee":2278,"efded":2279,"ebdbbbc":2280,"ebbbbdc":2281,"dbcccc":2282,"fecdf":2283,"ebcfee":2284,"bcbefc":2285,"ebcdebb":2286,"bbbbecc":2287,"ebeea":2288,"bbdbbcc":2289,"fbcfc":2290,"bdfef":2291,"deedf":2292,"eddecc":2293,"edeebd":2294,"ebfbbf":2295,"dbcbcc":2296,"ecfdd":2297,"edbced":2298,"bcdbbbc":2299,"ebcbeec":2300,"dbeff":2301,"eedbbbc":2302,"dcbebd":2303,"bfdebb":2304,"bebebbf":2305,"deeef":2306,"ebfbec":2307,"ecdbbf":2308,"ebfbcc":2309,"dcbbcc":2310,"ebbbebbbb":2311,"bebebbee":2312,"dbddbd":2313,"bdcbdc":2314,"bdeccc":2315,"becbeec":2316,"ebcbebd":2317,"bdbebbc":2318,"dcbbed":2319,"ebbfbf":2320,"fbcef":2321,"edeeec":2322,"eeeebeee":2323,"fcbeec":2324,"ebbdbbc":2325,"eecedc":2326,"cccbbc":2327,"dcebcc":2328,"bbbebbbd":2329,"ebbcebe":2330,"ebbbcec":2331,"bbbeebd":2332,"bbbbba":2333,"eee</w>":2334,"bfbecc":2335,"bdcecc":2336,"bdecbd":2337,"bbcba":2338,"fcbcbc":2339,"bbbe</w>":2340,"dbebbbc":2341,"efcdd":2342,"decbcc":2343,"ebcba":2344,"bcbbbdc":2345,"bdcdee":2346,"debfcc":2347,"bdffc":2348,"bbdbbebb":2349,"bddebd":2350,"cccecc":2351,"befbbf":2352,"dccef":2353,"bcfebe":2354,"edeccc":2355,"ebbbccc":2356,"eebebbee":2357,"bbecbbbb":2358,"edbdbd":2359,"bdecf":2360,"bbecbf":2361,"becbbbd":2362,"dbedbc":2363,"edbbdd":2364,"ebbcfc":2365,"bbdba":2366,"bfcdc":2367,"bbcbeee":2368,"ebbdbbbb":2369,"eebbedc":2370,"edbbbbc":2371,"bbbca":2372,"bfeeee":2373,"bfcdf":2374,"ecdbbbe":2375,"edbbebe":2376,"ebecbbc":2377,"dbdef":2378,"ddbbee":2379,"ebacc":2380,"bdbbfc":2381,"ebcbecc":2382,"bccbebe":2383,"ebbdbb":2384,"dcfbe":2385,"bdbedd":2386,"fcfcc":2387,"becbcbc":2388,"bbbebebc":2389,"dbbfcc":2390,"befdf":2391,"dbcecc":2392,"eecfec":2393,"ddfec":2394,"afbc":2395,"bfbbed":2396,"ffebc":2397,"bcbeebe":2398,"deeecc":2399,"fdefc":2400,"dcea":2401,"cccef":2402,"bbbcbbf":2403,"befbcc":2404,"ecbeebc":2405,"fbbba":2406,"bffbf":2407,"edeef":2408,"bce</w>":2409,"abebe":2410,"bdcbbd":2411,"edbebf":2412,"ecbefc":2413,"afee":2414,"ebbbeebe":2415,"ffecc":2416,"ebbcbec":2417,"bdbbebc":2418,"ebfdf":2419,"bebbbbcc":2420,"bcd</w>":2421,"dbfdd":2422,"bbbeeec":2423,"bbcfee":2424,"ebfebc":2425,"bbdddd":2426,"bcdbbee":2427,"dbcbbd":2428,"bbbbfbc":2429,"bfeebc":2430,"fbbebbc":2431,"beeac":2432,"ffdbe":2433,"bbebbebe":2434,"bfcebe":2435,"dbcdee":2436,"bcebccc":2437,"bbebbbbbe":2438,"bccfbc":2439,"edcdbe":2440,"efcdc":2441,"baebe":2442,"dbcdbe":2443,"eecbebe":2444,"bcbebec":2445,"befebc":2446,"bbebdcc":2447,"edcded":2448,"bdfbbc":2449,"ffbec":2450,"decef":2451,"dcced":2452,"ff</w>":2453,"feddd":2454,"bfbebd":2455,"eecbeec":2456,"eebbbdc":2457,"bfca":2458,"eccbebc":2459,"ffbbbb":2460,"bccdbd":2461,"bcfebc":2462,"bdecec":2463,"ecc</w>":2464,"bbbcccc":2465,"eceba":2466,"eecbecc":2467,"bbeedbe":2468,"bbbdbbd":2469,"ebdfbc":2470,"bceedc":2471,"bcbcbbc":2472,"effec":2473,"bdeeebb":2474,"ebbbbef":2475,"befbec":2476,"ebbac":2477,"eebedd":2478,"cccccccccccccccc":2479,"ebcfbe":2480,"eecbbec":2481,"edfbf":2482,"dbbebec":2483,"decdbe":2484,"bbdfee":2485,"dbbefc":2486,"ebcbbcc":2487,"bcbac":2488,"bdbcebb":2489,"bdcccc":2490,"eddebd":2491,"dbdfc":2492,"bdbcbf":2493,"adcc":2494,"bdcff":2495,"bbeddd":2496,"decebe":2497,"dbdebe":2498,"bbeebec":2499,"bccbfc":2500,"bbecccc":2501,"fcebbc":2502,"dcdef":2503,"eecbfc":2504,"bbeebebe":2505,"eccefc":2506,"bbfebd":2507,"bbecbec":2508,"bbbfbbc":2509,"befdbe":2510,"eecebbc":2511,"ebfbbbe":2512,"eebac":2513,"ebbbedc":2514,"bdbebbbb":2515,"bffdc":2516,"dfbfc":2517,"bdbbbec":2518,"eecfbc":2519,"bfebec":2520,"eddbbbb":2521,"eccfbc":2522,"bbbdbbbe":2523,"fdfcc":2524,"beeebebe":2525,"dffcc":2526,"badc":2527,"ebbdebe":2528,"dbcebd":2529,"fbeebc":2530,"eeeeef":2531,"deeebc":2532,"ddefc":2533,"bfebcc":2534,"eccbbbe":2535,"bebb</w>":2536,"bebebbbc":2537,"bbfccc":2538,"eebefc":2539,"eecdebb":2540,"bbbbdbbbb":2541,"bddbcc":2542,"bdeebf":2543,"dbffc":2544,"edfebb":2545,"bbcdcc":2546,"edcccc":2547,"bbeefc":2548,"effbd":2549,"ddfcc":2550,"bfbccc":2551,"eeebecc":2552,"ebbbbdd":2553,"feea":2554,"bcfa":2555,"dfdec":2556,"bcbbebf":2557,"edeedc":2558,"bdbba":2559,"eadc":2560,"eebbccc":2561,"bbcbeec":2562,"bdbcdc":2563,"eefbbbb":2564,"bbdbeee":2565,"bcddcc":2566,"bbcbbbbc":2567,"decdec":2568,"ddbef":2569,"eccdcc":2570,"eccebbc":2571,"edebdc":2572,"bbccbbbb":2573,"eecbef":2574,"bbfebf":2575,"ddbebc":2576,"bdbeebe":2577,"bdecee":2578,"dbbbdbd":2579,"ebbecbe":2580,"ebebecc":2581,"ecefcc":2582,"efbbebb":2583,"becfec":2584,"ecdeecc":2585,"eeefcc":2586,"bbbfbf":2587,"fbedf":2588,"ecddcc":2589,"ddfee":2590,"bccbef":2591,"dbbbecc":2592,"bdcdbc":2593,"deddf":2594,"bccbbee":2595,"ebebeebb":2596,"beeea":2597,"ebebebd":2598,"dbddf":2599,"bbccccc":2600,"bcbcbbbb":2601,"bbbedf":2602,"bbcfec":2603,"ece</w>":2604,"dcfdc":2605,"bfdef":2606,"eebeebc":2607,"ebfccc":2608,"fcbebe":2609,"deceec":2610,"ebddebb":2611,"bddecc":2612,"bdeeed":2613,"fcfec":2614,"ebdebbc":2615,"bfecbc":2616,"eebedc":2617,"ebcfcc":2618,"bccdcc":2619,"bdedbd":2620,"ecdebf":2621,"ebbbcebb":2622,"bfcbec":2623,"bebcef":2624,"eedbfc":2625,"dbebebe":2626,"ebbbeed":2627,"bbbeff":2628,"eceeebe":2629,"bfbcbe":2630,"ebeded":2631,"bdfebe":2632,"bbfeec":2633,"eccbebe":2634,"eebeebf":2635,"ebebbbf":2636,"ebbcef":2637,"edbedd":2638,"dbda":2639,"bcbbbbcc":2640,"bbdbebd":2641,"beeeef":2642,"bbebebbbb":2643,"bbfbebe":2644,"efcfc":2645,"ecfbbc":2646,"dceebd":2647,"bccfec":2648,"bebcebc":2649,"bdd</w>":2650,"dbbea":2651,"bbbcbbbd":2652,"ecebccc":2653,"eccebf":2654,"feebbc":2655,"fbeccc":2656,"becdebb":2657,"eccbfc":2658,"bccded":2659,"baba":2660,"dbddbe":2661,"fbebbee":2662,"deedbc":2663,"deedcc":2664,"ebceecc":2665,"bbbced":2666,"ebbdebc":2667,"eecbcbc":2668,"bbfbbee":2669,"ebbebdc":2670,"eeffc":2671,"ebbbebbc":2672,"ebdbbee":2673,"eecba":2674,"ecdefc":2675,"bfcbbbb":2676,"abca":2677,"ebdebf":2678,"ebbdef":2679,"fbcdd":2680,"bbbcdbe":2681,"eddbbd":2682,"eaebe":2683,"abea":2684,"ecbeccc":2685,"bebcebe":2686,"eedba":2687,"fcbbee":2688,"eccdbd":2689,"bccbcbc":2690,"bbdbcbc":2691,"efcef":2692,"bccbbcc":2693,"bbdbeec":2694,"fdbbcc":2695,"ecebecc":2696,"ebcecbc":2697,"debbbbbb":2698,"becbecc":2699,"ebdbbbd":2700,"bdcdbd":2701,"bbecebe":2702,"eebebbf":2703,"bcbebbbe":2704,"ebcebcc":2705,"fbcdf":2706,"dbcff":2707,"eebcbbc":2708,"befccc":2709,"abfc":2710,"adec":2711,"ddba":2712,"eccbbbc":2713,"dbebbee":2714,"bdcedc":2715,"ebbeeebe":2716,"bcbeef":2717,"bbfdee":2718,"eccfcc":2719,"ebbbdbd":2720,"dcbcee":2721,"bfbbbbc":2722,"bccbebc":2723,"bbbdebe":2724,"bfbcee":2725,"fcdbf":2726,"bdbeef":2727,"bbecdd":2728,"decbbbb":2729,"bdbbbbbbbb":2730,"bbbcbebe":2731,"dccbbc":2732,"deedee":2733,"bcfccc":2734,"ecfef":2735,"ebbeebf":2736,"becbbcc":2737,"ecdebbc":2738,"dccebe":2739,"fbbdcc":2740,"edbebbc":2741,"dcbeed":2742,"bbdeebc":2743,"bbbeccc":2744,"fcbbcc":2745,"ebcebec":2746,"ecbeebe":2747,"bbbceec":2748,"bcdbfc":2749,"eddbcc":2750,"bbfdbc":2751,"ebbeeec":2752,"dceeee":2753,"baef":2754,"edbbef":2755,"efcbbc":2756,"fbddd":2757,"bedbbcc":2758,"ebbfdc":2759,"becfee":2760,"bedbecc":2761,"fceebc":2762,"abbbd":2763,"dedbf":2764,"bbedbbc":2765,"ebdbfc":2766,"bbbebbec":2767,"eedbbee":2768,"eefccc":2769,"bbbeebf":2770,"ecbbedc":2771,"dceeec":2772,"dbedbd":2773,"ffebf":2774,"bcbbedc":2775,"fbeebf":2776,"bcfbec":2777,"dbeedc":2778,"fecbbc":2779,"bdcdec":2780,"ebcddc":2781,"edecbd":2782,"dccecc":2783,"dedbec":2784,"eebebcc":2785,"efbeec":2786,"bbfbfc":2787,"eecfee":2788,"eecbbee":2789,"ebebbebe":2790,"ebcdbf":2791,"bebbea":2792,"eebbbbbbbb":2793,"eddedc":2794,"fbcbec":2795,"ebbbbbec":2796,"bbbebdc":2797,"bcfdf":2798,"bbbbbeee":2799,"ebcbeee":2800,"deebbd":2801,"ebddcc":2802,"dcecbc":2803,"dcdebe":2804,"efcbec":2805,"ccccc":2806,"eefdf":2807,"dbcbbf":2808,"fdac":2809,"dddbf":2810,"eccbecc":2811,"eecbebd":2812,"eeceecc":2813,"eaea":2814,"fcba":2815,"deebdc":2816,"ebbbbebc":2817,"dbebebc":2818,"eeeebbee":2819,"ebebeec":2820,"fcbbbd":2821,"eecebf":2822,"ecdbbbc":2823,"ecbbccc":2824,"bbbcebd":2825,"dbcbbbe":2826,"debbbbc":2827,"bcbeebc":2828,"deebbf":2829,"ebefcc":2830,"ffbdc":2831,"ffbbd":2832,"ddfbd":2833,"beebbbbbb":2834,"efac":2835,"dcdfc":2836,"abeee":2837,"edbcebb":2838,"bcfbcc":2839,"ddbeee":2840,"eecbbbd":2841,"edfef":2842,"becba":2843,"edbbebc":2844,"bcbedbe":2845,"bdfa":2846,"edcbbbb":2847,"ecbea":2848,"bbceebc":2849,"ffdcc":2850,"fdbecc":2851,"fcefc":2852,"bbdbbed":2853,"dceccc":2854,"eeeebf":2855,"bbeeebc":2856,"ecbebcc":2857,"dcbcbd":2858,"ffdbc":2859,"fbcbbbb":2860,"ddebbc":2861,"fecbf":2862,"bccbbbd":2863,"bebcbebc":2864,"bbcebec":2865,"dcbbebb":2866,"efbbbf":2867,"bbbcdf":2868,"ebdeebc":2869,"bbccebe":2870,"beecbec":2871,"eefbeee":2872,"fcdef":2873,"aac":2874,"eebeecc":2875,"bbbcbcbc":2876,"bdedcc":2877,"bbfecc":2878,"bcfbbbb":2879,"ebfebf":2880,"eeeebbbb":2881,"bfcebc":2882,"eeceebc":2883,"deeed":2884,"fbbbbcc":2885,"eedebf":2886,"dccbec":2887,"bcfdbe":2888,"febdcc":2889,"bbdfbd":2890,"ecbebf":2891,"ebdfec":2892,"dcbccc":2893,"bccefc":2894,"edcbdc":2895,"edcfec":2896,"dbdbec":2897,"bbcbebd":2898,"edcdbc":2899,"fbebbbc":2900,"eeeebebe":2901,"ebbcbbbe":2902,"bccbbec":2903,"effbf":2904,"bdbbebd":2905,"edcbbd":2906,"bdfebc":2907,"feddf":2908,"fdea":2909,"ebbdfc":2910,"dcbcec":2911,"ecbebbbb":2912,"eeebccc":2913,"dbdbbd":2914,"bbbebeee":2915,"ecd</w>":2916,"fcbecc":2917,"ecbedbe":2918,"deddbe":2919,"eeacc":2920,"bfbcec":2921,"fcebec":2922,"dedccc":2923,"ebceebd":2924,"deca":2925,"eedbecc":2926,"ecfccc":2927,"bbbdbbee":2928,"ebebbed":2929,"decdbc":2930,"dbded":2931,"acba":2932,"bbcbbbf":2933,"befbebe":2934,"ebfbebe":2935,"bbffbc":2936,"efbbed":2937,"dfddc":2938,"bcbbebbc":2939,"eeeea":2940,"fcddc":2941,"ecdbfc":2942,"efecbc":2943,"bcbebcc":2944,"bbcefc":2945,"ecbbbdc":2946,"ecfa":2947,"bffed":2948,"eebeff":2949,"bbfbdc":2950,"bcbea":2951,"edfdd":2952,"deebbbe":2953,"fccccc":2954,"defdd":2955,"bfbebf":2956,"becefc":2957,"ebcfed":2958,"becbebd":2959,"dfbebe":2960,"beecbbc":2961,"bbdbbbbc":2962,"bccebbc":2963,"bdbbbcc":2964,"efbebd":2965,"befbbbe":2966,"fbedbe":2967,"dececc":2968,"edbcdc":2969,"dbddee":2970,"dcac":2971,"bbbbbfc":2972,"fcfbd":2973,"bbcbbed":2974,"eecddc":2975,"bbdfec":2976,"feebbee":2977,"fbcebe":2978,"bedebec":2979,"bfbcbd":2980,"bbbbbbed":2981,"ecbeedc":2982,"bcdebbc":2983,"bcbcdd":2984,"eefbebe":2985,"ebbeccc":2986,"ffebd":2987,"beceebc":2988,"bbdebec":2989,"eaef":2990,"bbcdebb":2991,"ebbbced":2992,"eecefc":2993,"bedebcc":2994,"edbbfc":2995,"fbebdc":2996,"bebbebec":2997,"dbbebcc":2998,"edb</w>":2999,"edeebe":3000,"bebcfc":3001,"feeccc":3002,"ebbeedc":3003,"bfcbcc":3004,"befbbee":3005,"bbbda":3006,"dccbf":3007,"fbb</w>":3008,"ebcbbed":3009,"bbbedbc":3010,"eefbbf":3011,"bdeedd":3012,"fbbefc":3013,"bddbbbe":3014,"fbcccc":3015,"ebbbcdc":3016,"bbccbf":3017,"dfbbbc":3018,"bebbefc":3019,"bddbdc":3020,"bbbbbebbbb":3021,"ebcfbd":3022,"becebec":3023,"bbebbbf":3024,"ddbbec":3025,"ddeecc":3026,"fccfc":3027,"dbfbf":3028,"bbdefc":3029,"eebbebbc":3030,"bbbbbebd":3031,"ebdbef":3032,"bdcbbbe":3033,"ebdbbec":3034,"bbbdef":3035,"eabf":3036,"fdebcc":3037,"fcdebb":3038,"fdebec":3039,"abbec":3040,"ebcbbebb":3041,"fccef":3042,"bceebbc":3043,"fbbea":3044,"eebbba":3045,"ebbfef":3046,"ebbfebe":3047,"fecbec":3048,"ecfecc":3049,"deddee":3050,"bcfbbf":3051,"bbbeecc":3052,"ebedebb":3053,"eefbcc":3054,"bdcbbf":3055,"befebf":3056,"dbfdc":3057,"eeeeccc":3058,"ebbbba":3059,"dddebb":3060,"bbccef":3061,"abebc":3062,"bdecdc":3063,"ebbdbec":3064,"ebbcdc":3065,"ebdbebd":3066,"bedea":3067,"ebcea":3068,"ebbcbbd":3069,"ebfecc":3070,"fbebbd":3071,"ecbac":3072,"bcbedf":3073,"edffc":3074,"bdeced":3075,"eedebbc":3076,"afcc":3077,"ebbbcbf":3078,"ebdfee":3079,"edbeebc":3080,"edceecc":3081,"ffdee":3082,"eefbbee":3083,"eeeac":3084,"ebbcbcc":3085,"dccebc":3086,"eedefc":3087,"ebdefc":3088,"debac":3089,"dbdeec":3090,"bbbedee":3091,"bbbcbebc":3092,"ebbbbfc":3093,"edecec":3094,"ebbecbd":3095,"ebeeebc":3096,"bafc":3097,"ebbbeef":3098,"ebeddc":3099,"bbecdf":3100,"bbccdd":3101,"fbeecc":3102,"bcfecc":3103,"bbbcbbee":3104,"bbcbecc":3105,"bffebb":3106,"dcbbdc":3107,"fecef":3108,"bdecbf":3109,"bebbdcc":3110,"ebeefc":3111,"dccbcc":3112,"bbccbec":3113,"eebeccc":3114,"bbfbbbd":3115,"dbeebf":3116,"beecccc":3117,"dceedc":3118,"bceac":3119,"ebdbeec":3120,"bbbcdee":3121,"bbecebc":3122,"bcfeec":3123,"bbcfbd":3124,"dbbb</w>":3125,"bebcdd":3126,"dcdeec":3127,"bdebfc":3128,"bdbfcc":3129,"bfdbbc":3130,"ecbedbc":3131,"bdbdbdbd":3132,"bbfbef":3133,"efbecc":3134,"ecbebec":3135,"beeedd":3136,"eebebec":3137,"bebeccc":3138,"bddbbf":3139,"dcdbbc":3140,"aca":3141,"eecfed":3142,"ebbca":3143,"ebeebcc":3144,"bbbcdbc":3145,"ebfbef":3146,"ffbbbe":3147,"bcbcfc":3148,"ebbbebbbe":3149,"bbecef":3150,"dcbbbf":3151,"ebefbe":3152,"ebebeebe":3153,"eecebcc":3154,"bbbddbd":3155,"bcbcccc":3156,"ebefbd":3157,"ebffee":3158,"edceebc":3159,"bceebf":3160,"dbbbccc":3161,"dcdebc":3162,"dbedec":3163,"edcbebc":3164,"fffbc":3165,"bdddcc":3166,"ebcbedc":3167,"bebebeee":3168,"ebbceec":3169,"dcbedc":3170,"ebcdebe":3171,"eccfed":3172,"bbebfcc":3173,"ecdfcc":3174,"dbedcc":3175,"eccbbee":3176,"ebdddc":3177,"dfbbee":3178,"eccebcc":3179,"ea</w>":3180,"efebcc":3181,"bbccfc":3182,"bcbcbf":3183,"efca":3184,"ebdba":3185,"fffee":3186,"eabbc":3187,"ebebccc":3188,"bebddd":3189,"ffdbd":3190,"ecfbcc":3191,"eecbedc":3192,"dedfc":3193,"eeeebbbe":3194,"edbeebe":3195,"bcdefc":3196,"ebbfbbc":3197,"ebeebec":3198,"dbbecbc":3199,"ffbef":3200,"bedfcc":3201,"eecdbf":3202,"bbfbebc":3203,"ddeebc":3204,"bbbcbbec":3205,"bbebbbbebb":3206,"bbbbbbebe":3207,"dddddddd":3208,"bddedc":3209,"bedeecc":3210,"ebbdbbd":3211,"bbdbbbf":3212,"bbcfcc":3213,"edbcbf":3214,"edcdbd":3215,"becbbed":3216,"bdbbeec":3217,"efdef":3218,"ddbeec":3219,"dcbcbe":3220,"bbbebef":3221,"bbbeebbc":3222,"dccdf":3223,"ebdbecc":3224,"ecdbbee":3225,"bfbbef":3226,"fbcebc":3227,"bcbbbfc":3228,"ebefec":3229,"becebcc":3230,"fbeed":3231,"efdebb":3232,"ebfdbe":3233,"eedeecc":3234,"ecdbecc":3235,"becfcc":3236,"eecfbd":3237,"bbbcbdc":3238,"fbbfcc":3239,"bfcdbe":3240,"ebebbbbc":3241,"bdeebbc":3242,"bfbbdc":3243,"bbecfc":3244,"eecbbcc":3245,"bebebbd":3246,"dbddbc":3247,"ecbeebd":3248,"bebbebcc":3249,"bbbcbbebb":3250,"dbdebc":3251,"efbccc":3252,"becbbebb":3253,"ebeeeebb":3254,"becbeee":3255,"bfcdee":3256,"bfbeebb":3257,"ebedbf":3258,"bebebdc":3259,"eefbef":3260,"bccfcc":3261,"ebbcdf":3262,"edbefc":3263,"bbeebeee":3264,"bccfee":3265,"ebccbbc":3266,"dbebbbd":3267,"bfcff":3268,"bcfebd":3269,"efebec":3270,"beecdf":3271,"edddcc":3272,"eebebdc":3273,"fdeecc":3274,"fbca":3275,"dccdcc":3276,"ecceebd":3277,"dbcbdc":3278,"ebebebf":3279,"badf":3280,"fbcdc":3281,"edcefc":3282,"efbcec":3283,"bcbebbf":3284,"deacc":3285,"ddebec":3286,"bbbebbcc":3287,"bcceebc":3288,"bbbcbbbbc":3289,"dbdbdc":3290,"ddbbcc":3291,"ebbbedd":3292,"becdbf":3293,"deda":3294,"ecfebc":3295,"ebbcdbe":3296,"bdecebb":3297,"ddbebd":3298,"ecceccc":3299,"bcbbba":3300,"eefbbbe":3301,"ebfed":3302,"decbbd":3303,"dcca":3304,"ddbecc":3305,"eecbeee":3306,"eccbef":3307,"eccbbec":3308,"ebebcec":3309,"fbdbf":3310,"bebcbbbe":3311,"bbbddc":3312,"beecbf":3313,"ecbedcc":3314,"bcbeccc":3315,"bcceecc":3316,"becfed":3317,"eecdebc":3318,"ebbcbbf":3319,"decded":3320,"eccecbc":3321,"ebecbbbb":3322,"ebcbbbf":3323,"edcbbf":3324,"effdc":3325,"dbdccc":3326,"ffbbee":3327,"feebeee":3328,"deced":3329,"bcbeed":3330,"ebcdebc":3331,"ebeecbc":3332,"dffec":3333,"bebcdc":3334,"ebbbbbcc":3335,"edcdcc":3336,"ecbbebf":3337,"bccbeee":3338,"bdcebf":3339,"bbbddbe":3340,"deeebd":3341,"bbdbecc":3342,"bebca":3343,"ebbda":3344,"ecbeed":3345,"bbbbbeebb":3346,"bbdbbdd":3347,"bccbccc":3348,"dfbef":3349,"feefc":3350,"bebeecc":3351,"bbbcff":3352,"decebd":3353,"bebceec":3354,"ecdebcc":3355,"eebbbfc":3356,"ecfbec":3357,"bfbbebe":3358,"ebbbcbbc":3359,"deebbee":3360,"bde</w>":3361,"edcfbc":3362,"bfeecc":3363,"ebcbcec":3364,"bfcbbf":3365,"feeff":3366,"bdc</w>":3367,"fcbebd":3368,"ecceedc":3369,"ddebcc":3370,"fcbbed":3371,"ebbcebd":3372,"dbfbbc":3373,"efbbef":3374,"fbddf":3375,"fcdbec":3376,"abbcc":3377,"bebcccc":3378,"fcebcc":3379,"eecdfc":3380,"ebebcbe":3381,"dbbac":3382,"bbbdbec":3383,"ebdeecc":3384,"dbcdec":3385,"edeeebb":3386,"eefebc":3387,"eefbec":3388,"bebbbecc":3389,"edcebf":3390,"bdbddd":3391,"dcbbdd":3392,"bbdfcc":3393,"dbebef":3394,"bebcdf":3395,"ebeeeebe":3396,"afec":3397,"ebbecec":3398,"eefebf":3399,"bbbcebf":3400,"bfdbbbb":3401,"debbdd":3402,"ecbebbbe":3403,"fbcbcc":3404,"eebbea":3405,"eccbcbc":3406,"bbdfbe":3407,"ecbcbbc":3408,"edbbbec":3409,"deddbc":3410,"bbeebcc":3411,"bbeebbbc":3412,"effef":3413,"ecccccc":3414,"ebbbcbbbb":3415,"dbbcbbbb":3416,"edfbbc":3417,"bbccebc":3418,"bcacc":3419,"abcbc":3420,"bbee</w>":3421,"ecfedc":3422,"ebebcee":3423,"eabbbb":3424,"bcbb</w>":3425,"dcebdc":3426,"efeebc":3427,"dcfbf":3428,"bbdbbdc":3429,"ebdbcbc":3430,"eecfcc":3431,"afbd":3432,"dbebbec":3433,"bcbddd":3434,"efbcf":3435,"bffef":3436,"bbcddc":3437,"bebeebf":3438,"bbbdbbf":3439,"bbebac":3440,"beecdd":3441,"babbbe":3442,"dedebc":3443,"bfdebe":3444,"dbdbcc":3445,"edbeef":3446,"bbccbcc":3447,"bbebbbbbc":3448,"ecbebdc":3449,"eceeccc":3450,"ebeeebe":3451,"dbbeecc":3452,"bebbfcc":3453,"efbbebe":3454,"feebbf":3455,"beeeeeee":3456,"eccbebd":3457,"dffbd":3458,"beccbec":3459,"bcdba":3460,"dcfdd":3461,"bfdfc":3462,"bbdbdbd":3463,"bbbebcbc":3464,"fbcff":3465,"dccedc":3466,"dedef":3467,"bcbebbbc":3468,"ddddcc":3469,"fbedbc":3470,"bbecdee":3471,"bcbeecc":3472,"ddcfc":3473,"fccbec":3474,"ebbdeec":3475,"bbabbbb":3476,"bdbebec":3477,"bdcbebe":3478,"befbef":3479,"ecfdf":3480,"bebcbcc":3481,"dbfa":3482,"dcdbec":3483,"bdebbcc":3484,"ddbcbc":3485,"ddea":3486,"eccdebb":3487,"eebbbbcc":3488,"ebecbec":3489,"bebdbbc":3490,"bbbddf":3491,"efcdee":3492,"dbfef":3493,"ebefbf":3494,"bbeedf":3495,"ebbbdbc":3496,"fcbeee":3497,"eebcbec":3498,"dcdecc":3499,"decdcc":3500,"bebedf":3501,"fecbcc":3502,"ddfdc":3503,"eccbeec":3504,"bcfebf":3505,"bdcfbc":3506,"dbcdbd":3507,"bfdbb":3508,"ebebcbd":3509,"dedeec":3510,"ebcbcbd":3511,"bbedbbbb":3512,"bddccc":3513,"dbcbbbc":3514,"bbeeccc":3515,"bbcbccc":3516,"dcdcdcdc":3517,"eedbbcc":3518,"bbfdbd":3519,"ebebbef":3520,"bebedbe":3521,"feebbbb":3522,"edcfcc":3523,"deedbd":3524,"bfeef":3525,"edecbe":3526,"ebcbccc":3527,"bfeebd":3528,"dedbcc":3529,"bebebebc":3530,"ebedbbc":3531,"deeeec":3532,"ebbcebb":3533,"ececccc":3534,"bfceec":3535,"bbbdbbbc":3536,"bbbbcbbbe":3537,"bbeebbd":3538,"eebcfc":3539,"bcbeeec":3540,"eeecccc":3541,"eafc":3542,"ededcc":3543,"ecbbbbbbbb":3544,"defdc":3545,"eccebec":3546,"bbbdfc":3547,"edfebe":3548,"efdbbc":3549,"edcbecc":3550,"efbeebb":3551,"ebfebd":3552,"bcdebec":3553,"ebcdfc":3554,"abda":3555,"edbeecc":3556,"bfda":3557,"fbeebd":3558,"feebebe":3559,"bbbbebec":3560,"edeeed":3561,"eeeebbc":3562,"bffdd":3563,"fbeeec":3564,"efbcee":3565,"bbecbbd":3566,"ebbdebd":3567,"decbdc":3568,"bcfbbbe":3569,"efbcbd":3570,"ccceec":3571,"fbebfc":3572,"bbeebbebb":3573,"bbbdebc":3574,"aebbc":3575,"dbebcbc":3576,"fcceec":3577,"dceebe":3578,"ebccdd":3579,"ebccfc":3580,"eebcbbbb":3581,"ebbeeef":3582,"befebd":3583,"bbecbcc":3584,"bbbbcbbbc":3585,"dbefbc":3586,"aefc":3587,"dcecec":3588,"decbbf":3589,"dccebd":3590,"addc":3591,"bddebf":3592,"feedf":3593,"fccbbc":3594,"bbbeba":3595,"bdcded":3596,"ddbbed":3597,"ffeec":3598,"bcbebbee":3599,"beeebbf":3600,"ebfbbd":3601,"beeefc":3602,"bdeba":3603,"befbbd":3604,"ebbfbbbb":3605,"fecfc":3606,"edcebbc":3607,"bebdbbbb":3608,"edeedd":3609,"ebbcccc":3610,"bceefc":3611,"ebfeec":3612,"abbbf":3613,"bcdeecc":3614,"ebccebe":3615,"fbceec":3616,"ededbd":3617,"deebbbc":3618,"bcbcbcc":3619,"fbcbbf":3620,"beeeccc":3621,"bcdfcc":3622,"becbedc":3623,"ffedc":3624,"fbdef":3625,"bdbefc":3626,"ebbfebc":3627,"feebbbe":3628,"bddbbbc":3629,"dcda":3630,"ebcdef":3631,"beebdcc":3632,"ebceedc":3633,"bbbbbcbbbb":3634,"ffbebe":3635,"aded":3636,"eddbdc":3637,"ddfed":3638,"beceecc":3639,"eccddc":3640,"bbcceec":3641,"deeddc":3642,"bbcea":3643,"bbbcebbc":3644,"eebeebd":3645,"ecfeec":3646,"ebfbbee":3647,"babba":3648,"bfeccc":3649,"babbf":3650,"bcbeebd":3651,"bccebec":3652,"bcfedc":3653,"ebbffc":3654,"bbbbdebb":3655,"eefdbe":3656,"ecbeef":3657,"dbcbebe":3658,"beccbbc":3659,"eebeedc":3660,"becfbd":3661,"bebcebd":3662,"dfefc":3663,"ebefebb":3664,"dbcedc":3665,"ebccef":3666,"bbebebbc":3667,"bceedbe":3668,"dccdee":3669,"dcbebf":3670,"fbbebec":3671,"babcc":3672,"bcbbdcc":3673,"abbebb":3674,"dcdbb":3675,"bbbebfc":3676,"ecbcdd":3677,"bbbbbbdd":3678,"feebcc":3679,"bbecdbe":3680,"dceeed":3681,"debb</w>":3682,"bbbedbd":3683,"ebebbdc":3684,"bfbeed":3685,"ebceccc":3686,"bbfebbc":3687,"ebbfdd":3688,"efbebf":3689,"eefecc":3690,"bcbebbd":3691,"eddccc":3692,"bfbcbf":3693,"ebcbbdc":3694,"befeec":3695,"bbbbdec":3696,"ada":3697,"bbbebbbbc":3698,"edfa":3699,"bdcbbbc":3700,"eceebbc":3701,"dcffc":3702,"fffcc":3703,"bbbebbbf":3704,"dddef":3705,"fbdbbc":3706,"fbbbecc":3707,"adbf":3708,"edcbeec":3709,"ecbedf":3710,"befdbc":3711,"becceec":3712,"ebbbbebd":3713,"edcbebe":3714,"bcbcef":3715,"eeecbbc":3716,"bdbbecc":3717,"becddc":3718,"ddbbdd":3719,"edecdc":3720,"bbfbbbf":3721,"beeebcc":3722,"bef</w>":3723,"eadf":3724,"bbfbbebb":3725,"bdcfec":3726,"eedea":3727,"feb</w>":3728,"dbbbbbbc":3729,"bdcbfc":3730,"ffbfc":3731,"edd</w>":3732,"babec":3733,"ecbcccc":3734,"bedbbbbc":3735,"bbbcbbcc":3736,"fccdf":3737,"edbba":3738,"dcbced":3739,"bcbedee":3740,"eedebcc":3741,"bebebbebb":3742,"ddcef":3743,"bbeca":3744,"bbbddbc":3745,"dbdebd":3746,"befecc":3747,"edcbfc":3748,"ddbdbd":3749,"bdcefc":3750,"ebcceec":3751,"bcfbbd":3752,"dcbdbd":3753,"cccbec":3754,"dbebfc":3755,"ebfdee":3756,"bcecbbc":3757,"bcdbbcc":3758,"ddcbbc":3759,"bbbbcbbbbc":3760,"acea":3761,"bceebec":3762,"bcfdbc":3763,"edbfcc":3764,"dffee":3765,"edbbecc":3766,"ebceeec":3767,"ecbcfc":3768,"bebcbbd":3769,"bceebbbb":3770,"dcbedd":3771,"dbbcbbc":3772,"ebfbbbc":3773,"deddec":3774,"edecf":3775,"eccfee":3776,"befbdc":3777,"eccfbd":3778,"eeeebbf":3779,"effebb":3780,"ecdea":3781,"edcdebb":3782,"ebddbf":3783,"ebfbdc":3784,"beecbbbb":3785,"becfbe":3786,"badbe":3787,"ebbeeed":3788,"ebccebc":3789,"eebbdcc":3790,"bcecccc":3791,"eccfdc":3792,"dfbbcc":3793,"dccff":3794,"dcbeebb":3795,"dfebbc":3796,"ebecebc":3797,"deeff":3798,"bbbcdbd":3799,"dfbebc":3800,"eeeefee":3801,"dffdc":3802,"dcecbe":3803,"ebbdecc":3804,"ebdea":3805,"ebdfbd":3806,"deebbec":3807,"bccbecc":3808,"bfbedc":3809,"bbdcbbc":3810,"fdbccc":3811,"bbed</w>":3812,"eecdef":3813,"dcecbd":3814,"fcfed":3815,"dcbbbbc":3816,"effed":3817,"bbfedc":3818,"bdeeebe":3819,"ebeeecc":3820,"eebcdd":3821,"bfdebc":3822,"bbbefbc":3823,"fccdd":3824,"bfecbe":3825,"bcfbdc":3826,"dccbbbb":3827,"ebdfed":3828,"fcbccc":3829,"edfebc":3830,"ebcebdc":3831,"bbfba":3832,"ebecbcc":3833,"ebbecf":3834,"ebdbeee":3835,"bbebbbebe":3836,"bbeeebf":3837,"bbeceec":3838,"bbebbbbd":3839,"bbebebbbe":3840,"febfcc":3841,"eebebbd":3842,"fcecbc":3843,"eccbbcc":3844,"efcbcc":3845,"edbebec":3846,"ebbedbd":3847,"bfcbbd":3848,"ebbeebbbb":3849,"ebcbbbbc":3850,"bebdbec":3851,"dbf</w>":3852,"ebdfcc":3853,"bdfdf":3854,"dddbbbb":3855,"ebdbbcc":3856,"edcbbbe":3857,"babbd":3858,"fcbeed":3859,"feca":3860,"beccebc":3861,"bcbedbc":3862,"bbbbbbbbbbc":3863,"bcecdd":3864,"efbbdc":3865,"ebccbec":3866,"edeebf":3867,"eeccccc":3868,"dbdbbbe":3869,"ddcbcc":3870,"ebcbeed":3871,"bebebef":3872,"fbe</w>":3873,"dfdbf":3874,"ccccccccc":3875,"ebcbcee":3876,"edbebbbb":3877,"edbea":3878,"bdebbebb":3879,"dcfebb":3880,"bbffee":3881,"ecacc":3882,"bdefcc":3883,"bbecbbbe":3884,"ebfbeee":3885,"bebedbc":3886,"bfecbd":3887,"ddceec":3888,"bdbbbdc":3889,"ebbcbbbc":3890,"decff":3891,"decbeec":3892,"bbbffc":3893,"aeeee":3894,"bdecdd":3895,"ebddebe":3896,"bbbdbcc":3897,"dedebe":3898,"bbedbec":3899,"afbe":3900,"dfbcbc":3901,"edcbbee":3902,"bccccccc":3903,"eedfcc":3904,"beebbebe":3905,"ebbcdee":3906,"fbbebcc":3907,"eceac":3908,"bdcdcc":3909,"ecdebec":3910,"befbbbc":3911,"ebfdbc":3912,"bbdea":3913,"bcfdee":3914,"ecdba":3915,"befbeee":3916,"eecea":3917,"bcfbfc":3918,"efda":3919,"bbfbbcc":3920,"bebcbebe":3921,"ebbecebb":3922,"ddeeee":3923,"befdee":3924,"dedbbbb":3925,"eccbedc":3926,"eebcebc":3927,"bcdbecc":3928,"fbdbec":3929,"ffbbbc":3930,"eeebbbbbb":3931,"bbebbef":3932,"bbbbbbbbcc":3933,"cccebe":3934,"bfeebe":3935,"bbceebd":3936,"bbec</w>":3937,"dbeebbc":3938,"bbebbbbf":3939,"bbcfed":3940,"bbbfbbbe":3941,"dfded":3942,"dbbbddd":3943,"dcbbef":3944,"bcecdee":3945,"bbbbfee":3946,"dbebeec":3947,"ebbb</w>":3948,"bbebbbec":3949,"bdcbbee":3950,"dddddd":3951,"ebbdbcc":3952,"eeccfc":3953,"eccbbbd":3954,"eecebec":3955,"dbbecbe":3956,"bebcbbbc":3957,"ebccbf":3958,"edbbebd":3959,"ebbbdcc":3960,"eccea":3961,"dccdbc":3962,"beccef":3963,"beeb</w>":3964,"bccbeec":3965,"ebcdbbc":3966,"eddbbf":3967,"bcbcebe":3968,"ebbbdbe":3969,"bebbbccc":3970,"ebffbc":3971,"bbfbbec":3972,"dcecdc":3973,"ecceeec":3974,"ecbbebbc":3975,"becbeed":3976,"dbfdf":3977,"dceef":3978,"dddebe":3979,"efcff":3980,"ebbcbdc":3981,"ebecfc":3982,"bbbdbebe":3983,"ddfbe":3984,"bbdbcbd":3985,"dbebbcc":3986,"edbcdd":3987,"ebbeebbc":3988,"bbcdef":3989,"ebdecbc":3990,"ecbbbfc":3991,"bbfdec":3992,"dbdff":3993,"bcfbbbc":3994,"bfbced":3995,"efbeebe":3996,"ebcfdc":3997,"fcbbbf":3998,"bbeddf":3999,"ebbecdc":4000,"bbcbbdc":4001,"fcdeec":4002,"ecdeccc":4003,"fecdee":4004,"eeebeebe":4005,"bbfbcbc":4006,"baff":4007,"bcbeff":4008,"ebcfebb":4009,"fcbcbd":4010,"bceeebe":4011,"bebcdee":4012,"ebbedcc":4013,"dbbebdc":4014,"eebcccc":4015,"beffcc":4016,"bcdea":4017,"bdeeef":4018,"edbebcc":4019,"eebebbbc":4020,"ebdeebd":4021,"ddcebe":4022,"acdd":4023,"ecbbdcc":4024,"ebbcdbc":4025,"bebcdbe":4026,"ebeca":4027,"eebcbcc":4028,"dcbcf":4029,"ececbbc":4030,"ebfbfc":4031,"dedded":4032,"bbbbbbbbbbbe":4033,"bbbfebe":4034,"fbcdee":4035,"bbeebdc":4036,"decdbd":4037,"ecdbbcc":4038,"edbcbbc":4039,"dceedd":4040,"efbeed":4041,"fbedee":4042,"ebbeedd":4043,"dcbcdc":4044,"bebeff":4045,"bbedebe":4046,"ebfedc":4047,"bfbcebb":4048,"bbbfbbf":4049,"ecccdd":4050,"bdbcbbc":4051,"dcfef":4052,"dccdbe":4053,"eebeeec":4054,"bcecbec":4055,"bdbebbbe":4056,"bfbbfc":4057,"dfbbbd":4058,"bedebdc":4059,"bbbbdbf":4060,"bfbebbc":4061,"bbecebd":4062,"bcbcbec":4063,"eecceec":4064,"dcbbebe":4065,"dccbdc":4066,"ecbcbec":4067,"bdfbec":4068,"bdfdbe":4069,"bccfed":4070,"feefee":4071,"bbbfef":4072,"ecbebbd":4073,"bebbeecc":4074,"bbbbbcbd":4075,"ecfebe":4076,"bedac":4077,"cccdf":4078,"bfbbebc":4079,"edbbbcc":4080,"ebcbebf":4081,"bbcebcc":4082,"eebedbc":4083,"ecbeeec":4084,"bbbbbbbbbbbc":4085,"eccdebc":4086,"efceec":4087,"eebddd":4088,"daa":4089,"ebbcbebe":4090,"fdeccc":4091,"edcbbbc":4092,"bbceeec":4093,"eccbccc":4094,"bbcdebe":4095,"ebdebcc":4096,"bccddc":4097,"ecdedcc":4098,"ebbcbbee":4099,"efcdbe":4100,"eefbdc":4101,"bddddd":4102,"bbbbbbdc":4103,"fbdfc":4104,"bebe</w>":4105,"edcbebd":4106,"dbdbbbd":4107,"bbcbcbd":4108,"dfba":4109,"fbeba":4110,"bccba":4111,"cccebc":4112,"ebecdd":4113,"efdfc":4114,"ebddebc":4115,"efcdec":4116,"dfac":4117,"ecbbbbcc":4118,"ebfbebc":4119,"edcfed":4120,"bffebe":4121,"deffc":4122,"bffbbc":4123,"bccdbf":4124,"bbbddee":4125,"debbebe":4126,"dcdccc":4127,"cccbbbb":4128,"edcfee":4129,"bcbcbbbc":4130,"beccfc":4131,"eefbbd":4132,"beecdec":4133,"eddbbbe":4134,"fecff":4135,"dbdbbf":4136,"bbecbebe":4137,"bddbbee":4138,"bfeebf":4139,"edbcebc":4140,"ebbcebbc":4141,"bfebdc":4142,"eececbc":4143,"bcbcbcbcbcbcbcbc":4144,"bccbebd":4145,"bbebba":4146,"ebbfa":4147,"bbebeebe":4148,"bceea":4149,"dcb</w>":4150,"eebb</w>":4151,"deedec":4152,"bbcfbe":4153,"ddcbec":4154,"bcbebdc":4155,"bfbbdd":4156,"ebbbebec":4157,"dcecee":4158,"efcebc":4159,"bdbcbbbb":4160,"bceeebc":4161,"dbeded":4162,"bebeebd":4163,"eebcecc":4164,"bceedf":4165,"eddebf":4166,"dbacc":4167,"bfcdbc":4168,"dbebeee":4169,"eebceec":4170,"efbeef":4171,"bbcdbbc":4172,"eeecdd":4173,"bfbba":4174,"edbcfc":4175,"bbeeebd":4176,"bfdbec":4177,"bbffcc":4178,"bbceeee":4179,"bbeeeec":4180,"dbdecc":4181,"dcdebd":4182,"bbcecbc":4183,"bbcbeed":4184,"cccdcc":4185,"dcdbbbb":4186,"eebcef":4187,"bebcecc":4188,"bfbdbd":4189,"bfffc":4190,"bfbeebe":4191,"ebcecbd":4192,"fecdec":4193,"ecfbbbb":4194,"ebbbdebb":4195,"bbeedbc":4196,"ebccbbbb":4197,"ebbeba":4198,"dcedcc":4199,"bdfbbbb":4200,"fcac":4201,"bbddbbbb":4202,"fceecc":4203,"fbcbbd":4204,"bdcbbbd":4205,"babca":4206,"efbbbbc":4207,"ebceeee":4208,"eeceebd":4209,"ffddc":4210,"bbecbbf":4211,"edeced":4212,"ebbebfc":4213,"ebdebec":4214,"beccccc":4215,"bdbcdd":4216,"ebbbcdd":4217,"eeceedc":4218,"abbed":4219,"bceeccc":4220,"ecbbba":4221,"edfbec":4222,"bccfbd":4223,"bcdebcc":4224,"fcbcec":4225,"bbdfed":4226,"edebfc":4227,"dcdbcc":4228,"efeccc":4229,"ebbcbbbd":4230,"bbdeebd":4231,"eccdbf":4232,"bbeeff":4233,"dcbcbf":4234,"edbebbd":4235,"bbbedec":4236,"bfcbbbc":4237,"bebcbbf":4238,"ebbbeebc":4239,"edbcef":4240,"dddbbc":4241,"becdef":4242,"dbcded":4243,"fcbbebb":4244,"edcebcc":4245,"eefdee":4246,"ecfbdc":4247,"fcea":4248,"edceebd":4249,"eebcebe":4250,"ebbcecc":4251,"ebbbebbd":4252,"beeca":4253,"beecef":4254,"eecbbed":4255,"fcbedc":4256,"fbcdbe":4257,"dddfc":4258,"bbecbbbc":4259,"eefdbc":4260,"ddbbebb":4261,"dbbecbd":4262,"ddcddc":4263,"ecccecc":4264,"ebddef":4265,"debbbec":4266,"beeebec":4267,"eebca":4268,"bbdebcc":4269,"bbcbbef":4270,"bebeeeee":4271,"bbdcbbbb":4272,"bebbac":4273,"dbeba":4274,"bcbbefc":4275,"bfbbbec":4276,"fcfbf":4277,"cccdee":4278,"efcbbbb":4279,"eefba":4280,"fbebbcc":4281,"ebbbea":4282,"ecbebbf":4283,"ddac":4284,"fcdfc":4285,"bdebecc":4286,"dbcbcbc":4287,"bbbdebd":4288,"ecbedbd":4289,"bceeeec":4290,"bbbcbef":4291,"bbbfa":4292,"ede</w>":4293,"ebbbcebe":4294,"dbebbed":4295,"bdcbebc":4296,"decbebc":4297,"debbbbbe":4298,"ecbeddc":4299,"bfeeec":4300,"ebefef":4301,"bbdeecc":4302,"eebedf":4303,"bfcecc":4304,"ecbcebc":4305,"dbfbbbb":4306,"ebefdc":4307,"bdcfee":4308,"dbcdcc":4309,"bcbebbec":4310,"ebbbefc":4311,"bbcbcec":4312,"fcdebc":4313,"bccbbed":4314,"bdbea":4315,"ebebeef":4316,"dbeddc":4317,"bbbfbec":4318,"fbcebd":4319,"ffdec":4320,"ebbbdf":4321,"fbeedc":4322,"beecdee":4323,"dbcbbbd":4324,"bfcebd":4325,"bccdebb":4326,"eecdbbc":4327,"feeeeee":4328,"bfcccc":4329,"bbebebebe":4330,"edeebbc":4331,"bbaa":4332,"eecfdc":4333,"bbbebbed":4334,"eebeba":4335,"ebebeed":4336,"eebbefc":4337,"ecebdcc":4338,"bbbbbbbbbbbbbbbbbbbb":4339,"dcdedc":4340,"fbc</w>":4341,"fdbbbbc":4342,"ddbcbd":4343,"bbdbeed":4344,"bcecdf":4345,"ecbedee":4346,"ecfebd":4347,"eccbeee":4348,"edcddc":4349,"dbcfbc":4350,"eccba":4351,"bfcdec":4352,"bbdeeec":4353,"dedbdc":4354,"eebcdf":4355,"bfbeef":4356,"ebbdbbbe":4357,"bbbcfbc":4358,"dbcbebc":4359,"bcbcebc":4360,"ebebedc":4361,"ffdbf":4362,"dbcbef":4363,"dceebf":4364,"bbcbbebe":4365,"becdebc":4366,"dbcebf":4367,"fbfef":4368,"eefeec":4369,"bdbedbe":4370,"ebeeebd":4371,"bccebcc":4372,"ccca":4373,"bbbdbdc":4374,"eebebbebb":4375,"dccdec":4376,"fccebc":4377,"dcdbbd":4378,"bbcbeebb":4379,"fecdbe":4380,"bbdb</w>":4381,"bbfbeee":4382,"bcbbebec":4383,"fbda":4384,"bbdeeee":4385,"bbbeedc":4386,"dbcbbee":4387,"bbdcdd":4388,"feedbe":4389,"bdbac":4390,"dbbbdbbbb":4391,"bbfdbf":4392,"eebedbe":4393,"ebeac":4394,"deebebe":4395,"deebebc":4396,"bbbdeec":4397,"fcdbbc":4398,"bbdbebf":4399,"bbbebeebb":4400,"bbecdec":4401,"fbd</w>":4402,"ebbcff":4403,"fdcdf":4404,"fdebdc":4405,"ebbebbcc":4406,"ebecdf":4407,"ddcdf":4408,"bececbc":4409,"ebdbbed":4410,"bbbedebb":4411,"bdcbef":4412,"bebdebc":4413,"bbbcecc":4414,"bbbfdd":4415,"ebefebe":4416,"eecbccc":4417,"ebbecbf":4418,"eadbe":4419,"ebedebe":4420,"becdbec":4421,"bedbccc":4422,"ebeeebf":4423,"eaba":4424,"ddeccc":4425,"dbddec":4426,"bdbeebc":4427,"eebbfcc":4428,"bbbbbeec":4429,"fbebecc":4430,"fedccc":4431,"ebebebbbb":4432,"dbdded":4433,"ebbbded":4434,"eecdecc":4435,"eccedcc":4436,"bbcca":4437,"fcca":4438,"edc</w>":4439,"def</w>":4440,"ebbecee":4441,"ebbbdbf":4442,"dceced":4443,"becbbbbc":4444,"debbef":4445,"eecdeec":4446,"beecbcc":4447,"fcfbe":4448,"ebcbbebe":4449,"bbffbd":4450,"eccdecc":4451,"dfcdd":4452,"febbbbbb":4453,"ebbeebbee":4454,"edcebec":4455,"edceccc":4456,"dbbbdbc":4457,"bebdef":4458,"debebbc":4459,"bceedee":4460,"fbbbccc":4461,"bbecbbec":4462,"bbbcbfc":4463,"fbefcc":4464,"bfbebbbb":4465,"bebcff":4466,"bbeda":4467,"dbbcdd":4468,"bfbdcc":4469,"ebedebc":4470,"feebec":4471,"bbeeecc":4472,"bebcdec":4473,"edbbeec":4474,"fcfdc":4475,"dbebbebb":4476,"ebfeeee":4477,"eecbcbd":4478,"edfbcc":4479,"eaccc":4480,"bcfdbd":4481,"bbebb</w>":4482,"eecda":4483,"bdbebcc":4484,"bbcfbf":4485,"bbccbbcc":4486,"defccc":4487,"baebc":4488,"fedbec":4489,"fbcbfc":4490,"beeddd":4491,"eaff":4492,"fbcbbbe":4493,"ebebced":4494,"dbedebb":4495,"bcbca":4496,"bebd</w>":4497,"eedebec":4498,"ebeeef":4499,"babbbc":4500,"fccff":4501,"eccebdc":4502,"dbcbfc":4503,"becca":4504,"ddcdcc":4505,"ebbbbeec":4506,"ebccccc":4507,"bbecdc":4508,"fbedec":4509,"bdcebbc":4510,"efeef":4511,"bbdbeebb":4512,"fecbbbb":4513,"fdddd":4514,"bbceecc":4515,"dbcfee":4516,"ddcdee":4517,"bcceeec":4518,"dbdbbbc":4519,"beeeff":4520,"bcccdd":4521,"efbced":4522,"dbbdbbbb":4523,"fbbeecc":4524,"bbebbbbee":4525,"eebbebec":4526,"bdcebec":4527,"ddca":4528,"eef</w>":4529,"bbbebebbbb":4530,"bebeeec":4531,"befbfc":4532,"ebcbeebb":4533,"bbdfbf":4534,"bbeedee":4535,"befbebc":4536,"beeefee":4537,"bebddf":4538,"efeecc":4539,"eccecdc":4540,"bcbcdf":4541,"bbbbbbbbbbbbbbbbbbbbbbbbbbbbbbbb":4542,"becbeebb":4543,"dbedbf":4544,"bdfccc":4545,"ebdbbebb":4546,"bbbebbebe":4547,"fbcdec":4548,"fee</w>":4549,"acdf":4550,"edbcebe":4551,"efcccc":4552,"bceebcc":4553,"ebcbedd":4554,"debba":4555,"bfeeebb":4556,"bbeebbec":4557,"acda":4558,"defa":4559,"becdeec":4560,"eecbeed":4561,"bfecf":4562,"ddecbc":4563,"edceeec":4564,"baccc":4565,"dbbeccc":4566,"dbdbebe":4567,"becbbbf":4568,"bdcbbec":4569,"bdbbbbcc":4570,"bdfbcc":4571,"bddbfc":4572,"ebddfc":4573,"efcebe":4574,"acbbc":4575,"eebeea":4576,"bcbeebf":4577,"bcfdec":4578,"bbbbfbd":4579,"effdd":4580,"bebfbbc":4581,"bbbcdec":4582,"feceec":4583,"fbcecc":4584,"eceebcc":4585,"aeba":4586,"bcbedec":4587,"debbfc":4588,"fbbac":4589,"edfecc":4590,"ebddbbc":4591,"ebbcdec":4592,"eceedbe":4593,"fccbf":4594,"bceeef":4595,"bcfbebe":4596,"ebbcebf":4597,"bbebbebc":4598,"bcbcdee":4599,"eebcbbf":4600,"bbbbedc":4601,"babea":4602,"beeeecc":4603,"bcffcc":4604,"bbbbbbbbbbbbc":4605,"bebc</w>":4606,"edebbcc":4607,"bbbbfbe":4608,"bbdfdc":4609,"ebbcedc":4610,"beecfc":4611,"ebeeccc":4612,"ddb</w>":4613,"eeceeec":4614,"befdec":4615,"bbeddbe":4616,"dcbdcc":4617,"becdbbc":4618,"bfecbf":4619,"deddbd":4620,"bebebbcc":4621,"ebecef":4622,"badee":4623,"feebdc":4624,"eecdebe":4625,"dfbbec":4626,"ddcecc":4627,"becbcec":4628,"dcccccc":4629,"dedecc":4630,"bbedef":4631,"eebbebcc":4632,"dedbeec":4633,"bfcbdc":4634,"ebcbced":4635,"ebccbcc":4636,"ebbbdee":4637,"edcea":4638,"dbfff":4639,"bcfbbee":4640,"ebbdedc":4641,"ebbbebbf":4642,"eeebeeeee":4643,"eceeecc":4644,"bbbbbbbec":4645,"ebcfbf":4646,"dbebebd":4647,"ebdcdd":4648,"ebbdbbf":4649,"becbcbd":4650,"bbccbbbc":4651,"dadd":4652,"efdbec":4653,"edcdebc":4654,"bbdbbebe":4655,"bbcdbbbb":4656,"bfcfbc":4657,"ebbcbebc":4658,"beeeebc":4659,"eebcebd":4660,"bbcbbdd":4661,"bebbeccc":4662,"ebbbebbee":4663,"efdebe":4664,"cccff":4665,"ebedef":4666,"ebebba":4667,"bbdfebb":4668,"bbbebebd":4669,"eeccbec":4670,"edecbf":4671,"efeebd":4672,"bbffec":4673,"bbeddee":4674,"bbbbded":4675,"bdbbebf":4676,"fcbbdc":4677,"ebfbbcc":4678,"bdcfbd":4679,"ebcdeec":4680,"ebbeced":4681,"ddeebd":4682,"dcecbf":4683,"dbebecc":4684,"bbeebef":4685,"eeccbbc":4686,"bcccbcc":4687,"afbf":4688,"dbfbec":4689,"fccbcc":4690,"ebbbdec":4691,"ebebcebb":4692,"bebeba":4693,"fbcdbc":4694,"adebb":4695,"ebbbcebc":4696,"ddeeec":4697,"ffbcbc":4698,"aebec":4699,"effebe":4700,"edcbef":4701,"ebbbfcc":4702,"bbdecbc":4703,"bfcbbbe":4704,"eefea":4705,"bbbbbdbd":4706,"bbfefc":4707,"dcbbfc":4708,"efbcbf":4709,"ebfdec":4710,"dcbded":4711,"ebcbbdd":4712,"ebdbedc":4713,"bcbeedc":4714,"efeebf":4715,"dddebc":4716,"bbefbbc":4717,"ecdebdc":4718,"dbbecec":4719,"efdebc":4720,"eecbbdc":4721,"bbeeeeee":4722,"ebefed":4723,"fbdff":4724,"eefebd":4725,"ecbebbbc":4726,"bbbbbcbe":4727,"bbcbebf":4728,"becea":4729,"bbdbcec":4730,"bdacc":4731,"bbbefee":4732,"bbbbbbbbbbbd":4733,"bbdbedc":4734,"fdcdd":4735,"dceeebb":4736,"bebeedc":4737,"eefbbbc":4738,"fccecc":4739,"afed":4740,"ebcac":4741,"bbcbedc":4742,"becbccc":4743,"dcdbdc":4744,"ebfba":4745,"bfcbfc":4746,"bcbbfcc":4747,"ebcdbec":4748,"deebef":4749,"bebebbbd":4750,"efcded":4751,"fecdbc":4752,"ebdfbe":4753,"bccbbebb":4754,"beeceec":4755,"ebbfbec":4756,"ebbbcfc":4757,"deebcbc":4758,"bbcbcee":4759,"dbfdbe":4760,"dbbbbbbbd":4761,"edbeebd":4762,"bbbbbebf":4763,"beebfcc":4764,"efebdc":4765,"feeebf":4766,"bbfdcc":4767,"eeebdcc":4768,"beceebd":4769,"fbcfbc":4770,"ddcbf":4771,"ebedfc":4772,"becdfc":4773,"dbfbcc":4774,"debbebc":4775,"bbbfff":4776,"bdfbbf":4777,"eedbccc":4778,"eeeeff":4779,"bddefc":4780,"fcdebe":4781,"edfdf":4782,"fecebc":4783,"debbdf":4784,"fdcccc":4785,"deeba":4786,"bbedbf":4787,"bceddd":4788,"dbefcc":4789,"fed</w>":4790,"bbbebecc":4791,"ebbbcef":4792,"dcbcdd":4793,"bebebbec":4794,"bebebcbc":4795,"ebbcfbc":4796,"ebbbbbbcc":4797,"dbbbdcc":4798,"eebcedc":4799,"bbcbcbe":4800,"bbfbbef":4801,"bdcddc":4802,"bbeeba":4803,"beecebc":4804,"bcebdcc":4805,"dbcbbec":4806,"dccdbd":4807,"dfebcc":4808,"bebda":4809,"eeccdd":4810,"bdbbccc":4811,"ededbf":4812,"bccffc":4813,"ebecbf":4814,"eeccecc":4815,"bbbbbccc":4816,"dcbbebc":4817,"ebebbebc":4818,"ebbcdbd":4819,"bdbebbd":4820,"bbbbdbbc":4821,"efeeebe":4822,"fdb</w>":4823,"eeeeebf":4824,"beceedc":4825,"ebebebbc":4826,"befba":4827,"eecca":4828,"eebcbf":4829,"bebbbbbbc":4830,"bbbbbbbcc":4831,"eececcc":4832,"edcecbc":4833,"dbbcccc":4834,"dedbbec":4835,"beeeebf":4836,"bbebbdd":4837,"edecebb":4838,"dcbeef":4839,"bbccbbbe":4840,"bccdef":4841,"eecdbec":4842,"beeebbbc":4843,"bbccebd":4844,"bbbfdf":4845,"bbbbbecc":4846,"edcbbec":4847,"bcbbbecc":4848,"ffba":4849,"bcfdcc":4850,"bcfbebc":4851,"abdbf":4852,"edceedc":4853,"bfcebf":4854,"eecebdc":4855,"dedbebc":4856,"bbbbcbbd":4857,"fec</w>":4858,"edeba":4859,"beeeba":4860,"ebbbdbbbb":4861,"dcbcebb":4862,"eecdedc":4863,"ebecebe":4864,"ecbedec":4865,"beebbbbbe":4866,"bbbbcbec":4867,"eddefc":4868,"bbbbbbebc":4869,"ebfebbc":4870,"bbbdff":4871,"ddcebc":4872,"ddcdbe":4873,"eeccebc":4874,"bcbbbbbbc":4875,"fbedcc":4876,"ecfdbe":4877,"abeec":4878,"bbbbeebc":4879,"deddcc":4880,"fbebbebb":4881,"bcccfc":4882,"bdcdbf":4883,"feebef":4884,"bebbbbbbbe":4885,"eccbcec":4886,"bcceebd":4887,"bcbcbbbe":4888,"bffa":4889,"ebbbbecc":4890,"bbeebebc":4891,"dedbbd":4892,"fbcbebe":4893,"bedeccc":4894,"ebbbebcc":4895,"eccbbed":4896,"edcdbf":4897,"fffbd":4898,"efcdbc":4899,"fbebbec":4900,"ddfbf":4901,"beeebef":4902,"ddcdbd":4903,"ebbdbdc":4904,"ebeeeef":4905,"bbcfdc":4906,"becbbdc":4907,"ececdf":4908,"bbccdf":4909,"fbeebbc":4910,"bbbbcbf":4911,"bdbbedc":4912,"eadee":4913,"ebccecc":4914,"eebcbedf":4915,"bfcbebc":4916,"dfcfc":4917,"ecffcc":4918,"efbcbe":4919,"effbbc":4920,"ecbebbee":4921,"bcbcbbf":4922,"dcedbd":4923,"bfcbef":4924,"decbbbe":4925,"edecee":4926,"edbedbe":4927,"bbecbebc":4928,"bbccbbd":4929,"defdf":4930,"ddbbdc":4931,"bddebbc":4932,"eddbbee":4933,"eabcc":4934,"efeeef":4935,"ecccfc":4936,"edefcc":4937,"bdceebc":4938,"bdcbebd":4939,"beeebbd":4940,"ddcdbc":4941,"fbebbbd":4942,"fecded":4943,"bdbedf":4944,"cccccccccc":4945,"bbfdebb":4946,"dbfccc":4947,"beebbbbc":4948,"bdcfcc":4949,"fedbbc":4950,"bdbebbbc":4951,"edeefc":4952,"efbedc":4953,"dbefee":4954,"ddcdec":4955,"bbbfbbd":4956,"bbbbcbcc":4957,"dcbcef":4958,"ddbeed":4959,"deeebf":4960,"beccecc":4961,"bbbbfbf":4962,"eecbbebb":4963,"deeedc":4964,"bebeebbc":4965,"dbddcc":4966,"edecbbc":4967,"bebefee":4968,"ebccedc":4969,"bcbbbccc":4970,"dcbeebe":4971,"ebeebdc":4972,"fbcbbbc":4973,"bcfbef":4974,"ecfbbf":4975,"bdfdbc":4976,"bbbebeec":4977,"bbecdbc":4978,"ebbbddd":4979,"eeeebef":4980,"ecbcbcc":4981,"bdbeccc":4982,"bbbbdcc":4983,"dedff":4984,"eebcdbc":4985,"ecbefcc":4986,"bfdbbd":4987,"fceeec":4988,"eecbedd":4989,"bcfefc":4990,"ebcdecc":4991,"dbbedbd":4992,"ebcca":4993,"ebffcc":4994,"ebecebd":4995,"bfdeec":4996,"beecdbe":4997,"bcbbea":4998,"bcbdbbc":4999,"fdbdcc":5000,"ebbbcbec":5001,"bbbedcc":5002,"bebcdbc":5003,"bbebbbbbd":5004,"bdbebbf":5005,"bdbb</w>":5006,"ededdc":5007,"bbbbbbef":5008,"bbbfbbbc":5009,"beccedc":5010,"efecbd":5011,"becdebe":5012,"beebba":5013,"ebebbdd":5014,"dbbd</w>":5015,"bcecdbe":5016,"bfbcdc":5017,"eabbf":5018,"eebdbbc":5019,"edfeec":5020,"bbdbbef":5021,"bbbfebc":5022,"ebbfbbf":5023,"ebccebd":5024,"ddcebd":5025,"ececdd":5026,"edeeebe":5027,"edecdd":5028,"ebbfbbd":5029,"bbbbcebe":5030,"bcbedbd":5031,"dcfebc":5032,"edcbcbc":5033,"bbbcba":5034,"bbececc":5035,"ebbbddc":5036,"ffbbcc":5037,"bbdcebe":5038,"becebdc":5039,"bebedee":5040,"ecfdbc":5041,"feedbc":5042,"eddbbbc":5043,"acfc":5044,"defbbc":5045,"ebcbbef":5046,"eebcdbe":5047,"bccfdc":5048,"eeeca":5049,"bbbf</w>":5050,"ebbfbcc":5051,"edcfbd":5052,"dbbbded":5053,"bebdfc":5054,"bcccbbc":5055,"ddfdd":5056,"ebdfebb":5057,"decbef":5058,"dcecdd":5059,"ebecdbe":5060,"bdfbbd":5061,"bdfdee":5062,"bebbebdc":5063,"bddba":5064,"bdcba":5065,"bdcbeec":5066,"bbccecc":5067,"bdceecc":5068,"bbccdbe":5069,"eebebbbd":5070,"ebbcbbec":5071,"bebdbf":5072,"dbdbdbd":5073,"deecdf":5074,"ebbfecc":5075,"dcfebe":5076,"edcbedc":5077,"eddebbc":5078,"bbbbfec":5079,"edcbbbd":5080,"bebebeebb":5081,"bcdbbbd":5082,"beeedbc":5083,"ecbcecc":5084,"bbdbcee":5085,"bebebfc":5086,"adef":5087,"eddbfc":5088,"befdbd":5089,"befbbebb":5090,"ecbcdf":5091,"beeddf":5092,"bdfecc":5093,"dcfbbc":5094,"dbbbdee":5095,"bcbcdbe":5096,"efbbebc":5097,"ebdbbdc":5098,"ebfbbbd":5099,"debbbbf":5100,"eebebbebe":5101,"ecbddd":5102,"cccdbe":5103,"befdcc":5104,"ffbbec":5105,"eabbbe":5106,"ecbcbbbb":5107,"eebbbecc":5108,"ebcbcdc":5109,"ebfdbd":5110,"bcecfc":5111,"bdfeec":5112,"dcecf":5113,"efeeebb":5114,"bebdeec":5115,"bdbeecc":5116,"bfbcef":5117,"bbeefee":5118,"ebbeea":5119,"efbbdd":5120,"bbdbbbbbbbb":5121,"bcbceec":5122,"bbbbcdd":5123,"eceedcc":5124,"fbebccc":5125,"bfcdbd":5126,"efcecc":5127,"beceeec":5128,"ebdbbbf":5129,"ebfdcc":5130,"bceeecc":5131,"ecf</w>":5132,"bebefbc":5133,"bcbcbebc":5134,"eebcbbd":5135,"edcdecc":5136,"fbebbbf":5137,"dbbbbdd":5138,"eedeccc":5139,"ebebcf":5140,"ebecbbd":5141,"bceebbf":5142,"fcda":5143,"ebdeedc":5144,"bbebbbbbbbbbb":5145,"ebebbfc":5146,"ebebbbec":5147,"decbbbc":5148,"bbedebc":5149,"bfecec":5150,"efeeec":5151,"bdcdebb":5152,"dbcfec":5153,"fbdccc":5154,"ebdfdc":5155,"eebefcc":5156,"eedac":5157,"deebbbd":5158,"dbbbbbbbbbbbb":5159,"bcbdbbbb":5160,"bebbcbbbb":5161,"deebeec":5162,"bbebbfc":5163,"edbeeec":5164,"bdcbeee":5165,"bdebccc":5166,"dfea":5167,"fecbbf":5168,"bcebbbbbb":5169,"ebeceec":5170,"eceea":5171,"eebbac":5172,"bbebbbcc":5173,"fbedbd":5174,"eddeecc":5175,"ebedbec":5176,"bbcfebb":5177,"ddcff":5178,"bbedfc":5179,"ecbeff":5180,"eefdcc":5181,"da</w>":5182,"edfbbbb":5183,"bbccbbf":5184,"ddcbbbb":5185,"beecbebc":5186,"ecbcbf":5187,"edeeef":5188,"bcfbbec":5189,"ececbcc":5190,"eedebdc":5191,"ebbbbbdc":5192,"dfbecc":5193,"decbbec":5194,"eabec":5195,"eceefc":5196,"ebbeebbbe":5197,"deebfc":5198,"fbdeec":5199,"debedd":5200,"bcbc</w>":5201,"ebeda":5202,"dbbbdebb":5203,"bcbebfc":5204,"bcfebbc":5205,"edcdfc":5206,"debbbbd":5207,"dbbbbbbbe":5208,"bdcfed":5209,"bbbdbebc":5210,"bbbacc":5211,"ebebdbd":5212,"deefbc":5213,"dbfebc":5214,"bcbbebcc":5215,"bdcbecc":5216,"dccbbf":5217,"ebbbedbe":5218,"bbbcbbbf":5219,"eceeebc":5220,"dbcbeee":5221,"eeeedd":5222,"fbfbbc":5223,"ebbbebdc":5224,"efbba":5225,"bedb</w>":5226,"ebbbbebf":5227,"decbfc":5228,"fbeea":5229,"bdfebd":5230,"befbbec":5231,"debbbf":5232,"dccbbd":5233,"bcecbf":5234,"dccded":5235,"eebeebbc":5236,"bceebbbe":5237,"effa":5238,"ebcbdbd":5239,"feda":5240,"febbbbc":5241,"ededbc":5242,"ebecccc":5243,"bccbbbbc":5244,"deeebbc":5245,"bbeeebbc":5246,"bbeddbc":5247,"eccac":5248,"bbfbeec":5249,"deebbcc":5250,"badbc":5251,"befdbf":5252,"fedbf":5253,"bdbeeec":5254,"eedbbbd":5255,"ecbbefc":5256,"dcbdee":5257,"eccbeed":5258,"dbefbd":5259,"bbeebbbd":5260,"efffc":5261,"ebdeeec":5262,"eeebbebe":5263,"ebfbcbc":5264,"ebecdbc":5265,"bdcbcbc":5266,"bcdbbbbc":5267,"ebcecdc":5268,"fceebd":5269,"bccecbc":5270,"dedbbf":5271,"defbf":5272,"bcf</w>":5273,"dcbebbc":5274,"bbbbefc":5275,"ddbccc":5276,"eccecbd":5277,"dfcdf":5278,"dbbbdbf":5279,"dedebd":5280,"bcbebbebb":5281,"ebfbbec":5282,"eeccedc":5283,"dbbbbbbbc":5284,"fceccc":5285,"eecbbbf":5286,"edbedf":5287,"bbbbbcbbc":5288,"ecfbbd":5289,"eebbeecc":5290,"ebbbfbf":5291,"befbcbc":5292,"feeba":5293,"cccebd":5294,"abebd":5295,"debbdbe":5296,"beedbbc":5297,"fbcfec":5298,"beccdd":5299,"cccedc":5300,"fbcbebc":5301,"bcbebbcc":5302,"ebbedbc":5303,"dfbeee":5304,"bebebbebe":5305,"bcecdec":5306,"bdfebf":5307,"ebbdbbbc":5308,"eebcbbbe":5309,"bbbecbbbb":5310,"eedcccc":5311,"ebecbbbe":5312,"edbbedc":5313,"ebbfebd":5314,"ebbfbbbe":5315,"fcbeebb":5316,"ecceedd":5317,"eefbfc":5318,"bcdac":5319,"afdc":5320,"fbdebc":5321,"eebedcc":5322,"ebbbebbbc":5323,"ebbecbbc":5324,"dcc</w>":5325,"ebeecbd":5326,"dbedef":5327,"efcbbf":5328,"eeecdf":5329,"fffbf":5330,"decedc":5331,"fbdbbbb":5332,"bcfdbf":5333,"ddda":5334,"debbbcc":5335,"eeecbec":5336,"afa":5337,"efbcebb":5338,"bbdac":5339,"bbefbf":5340,"bbedeec":5341,"bbbcbeee":5342,"efbdbd":5343,"bbffbf":5344,"ebebdcc":5345,"ddbcee":5346,"edfbbd":5347,"ebdeccc":5348,"edcba":5349,"bbbfbcc":5350,"ffcdf":5351,"edeea":5352,"bbecff":5353,"ebccdf":5354,"bdbcebe":5355,"abcbd":5356,"bbbbeeee":5357,"ebecdee":5358,"bbabbc":5359,"bfbbbcc":5360,"eccdfc":5361,"dbbecbf":5362,"ebecdec":5363,"bbbecbbc":5364,"eceedf":5365,"bfbcbbc":5366,"bbbbea":5367,"bcceeee":5368,"bbbcfee":5369,"fdddf":5370,"abecc":5371,"beeebdc":5372,"fceedc":5373,"ebdbcbd":5374,"ebdbeed":5375,"debbccc":5376,"bcdbccc":5377,"efbbfc":5378,"fccedc":5379,"dbbbbbbd":5380,"edbeccc":5381,"ebdbcec":5382,"bbfbbed":5383,"ffbebc":5384,"bedcccc":5385,"aeebc":5386,"befeeee":5387,"beeedbe":5388,"fedbcc":5389,"ebebcdc":5390,"bbdcbec":5391,"ecbbfcc":5392,"dcbddd":5393,"bbbdccc":5394,"eccbedd":5395,"fbcebf":5396,"ebbbbccc":5397,"bbbbfebb":5398,"decbebe":5399,"ddcbbd":5400,"bfdbcc":5401,"bbbcbbed":5402,"bdbedee":5403,"ebcdebd":5404,"dccfec":5405,"beeebbebb":5406,"bbddbbc":5407,"defbcc":5408,"bfeeebe":5409,"efbdcc":5410,"dddecc":5411,"bbebcbbbb":5412,"edbcbbbb":5413,"bbefbbbb":5414,"bceedbc":5415,"efbcdc":5416,"eecbeebb":5417,"eecbcec":5418,"ebbcbfc":5419,"ecbcebe":5420,"bcbefcc":5421,"dcfa":5422,"dfcbbc":5423,"bbdddbd":5424,"ddbbbf":5425,"dbbcbec":5426,"ddbddd":5427,"eccfdd":5428,"efcbbd":5429,"bcbebbbd":5430,"cccbdc":5431,"bebcedc":5432,"bbccff":5433,"febba":5434,"eddebcc":5435,"ebcecec":5436,"ebecbbbc":5437,"dbfbbf":5438,"eeebba":5439,"bfeedc":5440,"dcbddc":5441,"ebffec":5442,"bebddbe":5443,"eeccbbbb":5444,"debcdf":5445,"efcbdc":5446,"bdfbbbe":5447,"ddbedc":5448,"befebbc":5449,"bcbcbbd":5450,"beeedc":5451,"beebbbebe":5452,"ebedbbbb":5453,"beccbcc":5454,"fbffc":5455,"fdcef":5456,"bbbccbbc":5457,"eceedbc":5458,"bbfea":5459,"eebcff":5460,"eebebfc":5461,"bfbfcc":5462,"babebe":5463,"dbdddc":5464,"fccebe":5465,"bdbbdcc":5466,"bbeebfc":5467,"dbbbddc":5468,"ecfbfc":5469,"ecdac":5470,"bbfbbbbc":5471,"fdcfc":5472,"ebcbcbe":5473,"bdfbdc":5474,"bdeebbbb":5475,"bbbebbbbbbbb":5476,"fecbdc":5477,"ecbcdbe":5478,"babdc":5479,"bbccdee":5480,"fbfff":5481,"ddd</w>":5482,"ebccdbe":5483,"dbfecc":5484,"bebdebe":5485,"bebdebd":5486,"debebbbb":5487,"bffbbbb":5488,"ebbeddc":5489,"eebdbec":5490,"bbdbccc":5491,"bbfded":5492,"beccebe":5493,"eebddf":5494,"fbbebdc":5495,"bbbdbbebb":5496,"eebdfc":5497,"beecded":5498,"bdbeebd":5499,"ededdd":5500,"dddbbd":5501,"bebcbbee":5502,"bfbefc":5503,"edbeedc":5504,"ebbbdbbc":5505,"bccbedc":5506,"ecccebc":5507,"dcdddd":5508,"efcbbbc":5509,"acbec":5510,"bdeac":5511,"bbcdebc":5512,"ebbcbcbc":5513,"eebebbbf":5514,"dbcddc":5515,"dbdbef":5516,"eeccef":5517,"bbeebeebb":5518,"dbdedc":5519,"fccfec":5520,"ecbcef":5521,"debe</w>":5522,"eebe</w>":5523,"bccbcec":5524,"dffbe":5525,"dbfba":5526,"bbbeeeee":5527,"ebcbbebc":5528,"bebcbfc":5529,"ecbceec":5530,"becbebf":5531,"dbfebe":5532,"bffbbd":5533,"fceeee":5534,"ebecbdc":5535,"ecbcdee":5536,"feddc":5537,"bffebc":5538,"debbeec":5539,"eccbbdc":5540,"ecbcebd":5541,"dddbec":5542,"bebdbbd":5543,"bbbcbbbbbbbb":5544,"bbeedec":5545,"bbeebbebe":5546,"fbdebe":5547,"bbbeea":5548,"bcdebdc":5549,"ebcda":5550,"ddbcec":5551,"dbcebbc":5552,"eedbbbbc":5553,"beeedf":5554,"acef":5555,"bcbedcc":5556,"eebda":5557,"bceeeecc":5558,"dbfdee":5559,"bbbfdbe":5560,"bebdbbbe":5561,"ecbcbbf":5562,"beedbec":5563,"ebbecdd":5564,"ebcbcf":5565,"eccdebe":5566,"ffea":5567,"ffefc":5568,"dbfebd":5569,"beecbbd":5570,"bdbdbbbb":5571,"ecfdcc":5572,"dbbecee":5573,"beebeebe":5574,"bdbcfc":5575,"befedc":5576,"bfedbd":5577,"edbebbbe":5578,"defdbe":5579,"dbcbbed":5580,"bbbddbbbb":5581,"bcbeba":5582,"fcbcf":5583,"dbbbdbe":5584,"ebdcebc":5585,"ebbebbbbbb":5586,"eccdedc":5587,"eecfbe":5588,"cccdec":5589,"eabba":5590,"fbcbdc":5591,"bbbefec":5592,"bebcded":5593,"bbccbdc":5594,"bbccdbc":5595,"deefcc":5596,"dbbeced":5597,"befbbbd":5598,"bbbfbebe":5599,"eeeeba":5600,"ebdcebe":5601,"abbbbc":5602,"ecccbbc":5603,"ebbeebeee":5604,"edfebd":5605,"ddeedc":5606,"fcfef":5607,"bebcebbc":5608,"ebececc":5609,"bdbcef":5610,"fcbcee":5611,"bbffbe":5612,"ffbeee":5613,"feebbd":5614,"dffbf":5615,"dbbecf":5616,"ebebcbf":5617,"bccbcbd":5618,"ebfbbebb":5619,"dbbecebb":5620,"bddeecc":5621,"bbbbbebbc":5622,"ebdcbbc":5623,"ebcbcebb":5624,"baecc":5625,"beecdbc":5626,"bfbdbf":5627,"ebdbebf":5628,"ebecff":5629,"bedcbec":5630,"adbbc":5631,"ddcccc":5632,"dddbcc":5633,"ebccff":5634,"fcbbbbc":5635,"bcccbccc":5636,"dbbdbbc":5637,"bfedcc":5638,"ebccbdc":5639,"bcecbcc":5640,"bfecdc":5641,"fffec":5642,"eebebbec":5643,"bbbdbbec":5644,"dcfecc":5645,"ebcffc":5646,"ebfbbbf":5647,"bbeebbcc":5648,"dbdbebc":5649,"bbedbbbe":5650,"fbddee":5651,"bbdcef":5652,"bceeefc":5653,"dcbbbec":5654,"bdbbba":5655,"bbbbbba":5656,"ebeeeec":5657,"fcbebf":5658,"cccdbc":5659,"ebbcbef":5660,"ecdbccc":5661,"dcebfc":5662,"dcbefc":5663,"dbdfbc":5664,"fdceec":5665,"febac":5666,"ebcbebbc":5667,"eefdec":5668,"dedddc":5669,"bbfcbbc":5670,"dbcefc":5671,"fedef":5672,"bdeebec":5673,"edeebcc":5674,"eebcdec":5675,"eeffcc":5676,"bccbbbf":5677,"dbbebfc":5678,"beecebe":5679,"bccfbe":5680,"bbeefbc":5681,"beccebd":5682,"afebb":5683,"edebecc":5684,"ebfefc":5685,"bdcbbed":5686,"feeecc":5687,"eebebbcc":5688,"abccc":5689,"bbbbbcebb":5690,"eeccdf":5691,"debcbec":5692,"deebbed":5693,"fcebdc":5694,"bbefdd":5695,"ececbec":5696,"ebceeed":5697,"bbbbcbbf":5698,"eefbebc":5699,"fdd</w>":5700,"fbcbef":5701,"ecfbbbc":5702,"ebcfdd":5703,"debbbbbc":5704,"eebcbdc":5705,"fdcbec":5706,"ebbeebebe":5707,"bcceedc":5708,"bbbedbf":5709,"fecbbd":5710,"fbfccc":5711,"bdfdec":5712,"debd</w>":5713,"fcbcbf":5714,"ebffbd":5715,"eefdbd":5716,"ecfdec":5717,"ebdbdbd":5718,"bfcded":5719,"eceebbbb":5720,"bbbbcbbbd":5721,"aebcc":5722,"dcbba":5723,"deebeee":5724,"beebbef":5725,"dbcba":5726,"fecdcc":5727,"bbebcbbc":5728,"dcbdbc":5729,"dddeec":5730,"ebcedcc":5731,"bbeedbd":5732,"defbec":5733,"bbdceec":5734,"bcbeebbc":5735,"dcbdec":5736,"ebdbbdd":5737,"bbfbebd":5738,"bebebbbf":5739,"eeccbcc":5740,"bebfbbbb":5741,"ebdebdc":5742,"dcd</w>":5743,"fcbbfc":5744,"fefa":5745,"ecbb</w>":5746,"edeeebc":5747,"beecbbbe":5748,"bbcdfc":5749,"edbebdc":5750,"bbecded":5751,"eccceec":5752,"bddebec":5753,"ecceddc":5754,"bebeea":5755,"ecebfcc":5756,"ebfea":5757,"efcebd":5758,"fccdec":5759,"ecccbcc":5760,"bbefa":5761,"bbebbbbbbc":5762,"ecfbbbe":5763,"eebbbccc":5764,"bbdeedc":5765,"ffded":5766,"bfcfee":5767,"efcbebc":5768,"ddcbdc":5769,"bebdbebc":5770,"bcecef":5771,"bedddd":5772,"bbcbdbd":5773,"fecfec":5774,"edbddd":5775,"bccea":5776,"befea":5777,"bbebbdbe":5778,"fbfbf":5779,"bceddf":5780,"eceedee":5781,"bdfedc":5782,"bcbdef":5783,"edbbbdc":5784,"beccdf":5785,"faa":5786,"bdbceec":5787,"ebdbbbbc":5788,"bccbbdc":5789,"ecbeebf":5790,"bceedec":5791,"bbbcded":5792,"eddbecc":5793,"dbeeebc":5794,"beecff":5795,"baea":5796,"ecccedc":5797,"ecfebf":5798,"bddbbcc":5799,"bbeebbbf":5800,"dbecdd":5801,"bdeefc":5802,"dceddc":5803,"bbcbebbc":5804,"bbeeedc":5805,"feeebc":5806,"bceddee":5807,"ecbbebec":5808,"bbcac":5809,"eccdef":5810,"dbbc</w>":5811,"ddcded":5812,"bbedbbed":5813,"deecdd":5814,"bdbebdc":5815,"bebbb</w>":5816,"dbbcef":5817,"babbbd":5818,"fecebe":5819,"bccbeed":5820,"bfcbbec":5821,"feedcc":5822,"bbbbebcc":5823,"bbcbbebc":5824,"bbbcbebd":5825,"bfcbcbc":5826,"bbebbbebc":5827,"fccebd":5828,"bbdcdf":5829,"bfbedd":5830,"bbedbbd":5831,"eefedc":5832,"fbfa":5833,"bbbbb</w>":5834,"eeeebeebe":5835,"feddee":5836,"febbef":5837,"ececebc":5838,"becbedd":5839,"fececc":5840,"ebebea":5841,"becfdc":5842,"eefebbc":5843,"ecbebbec":5844,"bdceebd":5845,"eebcbebc":5846,"bcccecc":5847,"bcbd</w>":5848,"edecfc":5849,"bcfbbbd":5850,"bceceec":5851,"dcbbbcc":5852,"ffebbc":5853,"decbecc":5854,"efcdcc":5855,"beeebbebe":5856,"ebbdccc":5857,"bbceedc":5858,"fbcedc":5859,"bbdcfc":5860,"bcbddf":5861,"fbacc":5862,"beebac":5863,"ddebdc":5864,"bcccef":5865,"bdfdbd":5866,"bbcdbec":5867,"eccedbd":5868,"eecac":5869,"bebebeec":5870,"ebecbbf":5871,"debbebd":5872,"bbedbbf":5873,"bdeea":5874,"eccccccc":5875,"bebbbbbbbbbbbb":5876,"edeebbbb":5877,"baebf":5878,"dbefec":5879,"ffac":5880,"bbbcedc":5881,"bfcdcc":5882,"bfcbeec":5883,"dcfbec":5884,"becbbebe":5885,"dbeefc":5886,"fbcded":5887,"feddbc":5888,"bcbedbf":5889,"bceebbd":5890,"bfeeef":5891,"bfbcfc":5892,"eddfcc":5893,"bbbefbd":5894,"bebebebd":5895,"ecbca":5896,"fcfebb":5897,"bbbeebec":5898,"bebedec":5899,"debddd":5900,"bedbdcc":5901,"bbbddec":5902,"bebcbbec":5903,"bdbebbee":5904,"bfeeed":5905,"eeeebcc":5906,"ecbeebbc":5907,"bcdbbdd":5908,"eccfebb":5909,"bbfbebf":5910,"dcbdbf":5911,"becfbf":5912,"bebedbd":5913,"bbecdbd":5914,"bbefebe":5915,"bcfba":5916,"beebebbbb":5917,"bdbeedc":5918,"bdceeec":5919,"deedbf":5920,"fbeefc":5921,"fbedbf":5922,"bbbbcef":5923,"edeebec":5924,"ebbbeebd":5925,"ffeeee":5926,"bbebebbee":5927,"eedcdd":5928,"bdcebcc":5929,"ecfdee":5930,"dbbdddd":5931,"fbedebb":5932,"beecbbbc":5933,"ecbebfc":5934,"bdeedbe":5935,"bbcbbfc":5936,"ebddeec":5937,"beeebeebb":5938,"bdbbebbc":5939,"ebceebf":5940,"bbcbbbec":5941,"bbdbebbbb":5942,"befefc":5943,"bbbccbbbb":5944,"edbac":5945,"ebbecbbbb":5946,"eccbcbd":5947,"bfbded":5948,"ebbfdf":5949,"edcebdc":5950,"bbebbdf":5951,"eeccebd":5952,"fbfdf":5953,"ecdcccc":5954,"fefef":5955,"dcbeebc":5956,"dcddcc":5957,"ddffc":5958,"fbfbbbb":5959,"edfedc":5960,"bcbcecc":5961,"bcecebc":5962,"ebbefcc":5963,"bccdebe":5964,"dbbebbbbbb":5965,"dbbbdbbc":5966,"dccfcc":5967,"dbbcebe":5968,"bcfded":5969,"eeceeee":5970,"decebf":5971,"eebcbbbc":5972,"beccbbbb":5973,"bbefef":5974,"bdbeff":5975,"defef":5976,"edbedbc":5977,"bbbebebf":5978,"dbcbeec":5979,"bebebbbbc":5980,"ddcedc":5981,"ebbdbbee":5982,"baeec":5983,"bcecebe":5984,"bfbebec":5985,"fcdecc":5986,"bfcbbbd":5987,"fbddbe":5988,"eebedee":5989,"eebedbd":5990,"bceebdc":5991,"bbeacc":5992,"becfebb":5993,"bceebbec":5994,"bfbdbc":5995,"ebbbbebbc":5996,"dccbbbe":5997,"eebdebc":5998,"eeecbbbb":5999,"debc</w>":6000,"edbbccc":6001,"dce</w>":6002,"dcbfcc":6003,"dffed":6004,"cccbbf":6005,"dccfbc":6006,"debcbbc":6007,"bfebfc":6008,"ebbedbf":6009,"bbdbcbe":6010,"bfdecc":6011,"edcbbcc":6012,"becdecc":6013,"dbeea":6014,"bcbebecc":6015,"abbebe":6016,"abebf":6017,"beed</w>":6018,"eddea":6019,"bbeebcbc":6020,"decfec":6021,"bebcfbc":6022,"bebcbcbc":6023,"ebceedd":6024,"dbebccc":6025,"bdcbbcc":6026,"fccbbf":6027,"bbeffc":6028,"febbebe":6029,"dcbcbbc":6030,"dceddd":6031,"eecbebf":6032,"dfdebb":6033,"baebd":6034,"bebebebf":6035,"bebcbbbd":6036,"eebdbbbb":6037,"bdbedbc":6038,"efbebbc":6039,"edcfdc":6040,"acdee":6041,"bcdeccc":6042,"ebcdedc":6043,"bbedccc":6044,"eebcdee":6045,"ecbcdec":6046,"fedfc":6047,"dfbebd":6048,"dbedbbc":6049,"fffbe":6050,"eebcebbc":6051,"bfb</w>":6052,"bbdbba":6053,"bebcebf":6054,"dcefcc":6055,"eecbbbbc":6056,"bebebecc":6057,"eeecbcc":6058,"ecbdbbc":6059,"edebccc":6060,"ebcbbfc":6061,"bbbebccc":6062,"befbbcc":6063,"dbcbbcc":6064,"ecbebbcc":6065,"ececfc":6066,"ebdda":6067,"ebddbec":6068,"abcec":6069,"decddc":6070,"bebcbdc":6071,"fbcbcbc":6072,"feebbbc":6073,"bcdcccc":6074,"dbbdbbd":6075,"eedcfc":6076,"bdfdcc":6077,"edcdef":6078,"decbcbc":6079,"eeeb</w>":6080,"ecceeed":6081,"bcceccc":6082,"dbcfcc":6083,"fde</w>":6084,"edbebbf":6085,"ebcdbbbb":6086,"bbbcdebb":6087,"bbebbbbec":6088,"eefbbcc":6089,"dabca":6090,"ddfebb":6091,"bbcbcbf":6092,"ebddbbbb":6093,"dfbccc":6094,"cccbbd":6095,"dcfeec":6096,"efdbcc":6097,"bbbcfec":6098,"deeded":6099,"bbebbeec":6100,"ebbbcbbbe":6101,"bcebfcc":6102,"edebbebb":6103,"fffdc":6104,"dbbeba":6105,"dbfbbd":6106,"bcfddc":6107,"eccdbbc":6108,"eccdeec":6109,"bbbcbeec":6110,"cccfcc":6111,"decfbc":6112,"bcbbcbbbb":6113,"edecbec":6114,"dceeef":6115,"bbddbbd":6116,"bcbdfc":6117,"bceebbee":6118,"bffbcc":6119,"ebbfeec":6120,"bccbebf":6121,"babbee":6122,"eabbee":6123,"bbecbdc":6124,"ebefa":6125,"ebcfbbc":6126,"becac":6127,"becbebbc":6128,"ebbcded":6129,"bebcfec":6130,"bbecbfc":6131,"ebdcfc":6132,"fbfdd":6133,"bdbebbbd":6134,"eecdebd":6135,"dbcdebb":6136,"dbdebf":6137,"dccddc":6138,"bebcbef":6139,"bbbbcfc":6140,"ebefdd":6141,"ebdbeebb":6142,"bccdbbc":6143,"dbddebb":6144,"feacc":6145,"ebbebecc":6146,"ffbbbd":6147,"ebccdec":6148,"bcedbbc":6149,"ebbbedf":6150,"bbedefc":6151,"bcfbbcc":6152,"bffdf":6153,"edfdbe":6154,"bedceec":6155,"edccccc":6156,"bfdbbf":6157,"dbcdbf":6158,"bebddee":6159,"ecbdfc":6160,"ebcfef":6161,"eccecec":6162,"bcbedebb":6163,"bba</w>":6164,"ebcbbbec":6165,"debcef":6166,"eeebebeee":6167,"adba":6168,"eeeddd":6169,"fdbfcc":6170,"bbcbcebb":6171,"bbecbeec":6172,"fccfbc":6173,"dbcfbd":6174,"bbebebbf":6175,"bdbcbbd":6176,"bdeeccc":6177,"edcbeee":6178,"efcbbbe":6179,"efcfec":6180,"bcecded":6181,"bbbbdbbd":6182,"ebedbcc":6183,"dbebbbf":6184,"ebccbbf":6185,"bbdcdee":6186,"bcbbac":6187,"bebdbbf":6188,"fedff":6189,"bfbcebe":6190,"ebeecbe":6191,"ebceebe":6192,"ebcedbd":6193,"eccbbebb":6194,"ecceeee":6195,"eccbcee":6196,"dbbecdc":6197,"dbdbbee":6198,"ebbecebc":6199,"bececcc":6200,"ebccbbd":6201,"bebdbebe":6202,"fbf</w>":6203,"bfcfec":6204,"beccff":6205,"eebd</w>":6206,"bbbdebf":6207,"bfdebd":6208,"efdeec":6209,"becbced":6210,"dccebf":6211,"bbbdbdbd":6212,"ebccbbbe":6213,"abeebb":6214,"ebbdebf":6215,"bbbbfcc":6216,"bfcbbef":6217,"bbecfbc":6218,"eebdeec":6219,"beee</w>":6220,"bddbecc":6221,"efeebe":6222,"dbbe</w>":6223,"bbbbbbbbbbebb":6224,"edecebc":6225,"dbebcbd":6226,"fbfbbf":6227,"eebbebdc":6228,"dbbcfc":6229,"bedcdd":6230,"bfcba":6231,"ebccdee":6232,"dafc":6233,"bddbbbd":6234,"ebbeefc":6235,"bbceeebb":6236,"bbeddec":6237,"eebc</w>":6238,"bfeba":6239,"ebbe</w>":6240,"bdfbbbc":6241,"ebbeddd":6242,"bceebbbc":6243,"beeda":6244,"ebccdbc":6245,"ecbcbbd":6246,"bfcedc":6247,"bcbcff":6248,"fbdbcc":6249,"bcbffc":6250,"ffcdd":6251,"aeca":6252,"bffbec":6253,"dfeccc":6254,"bbbedbbbb":6255,"dbdbbec":6256,"feddec":6257,"debeccc":6258,"eeebbeeee":6259,"ebebcbbc":6260,"bbebebbbc":6261,"bbdcebc":6262,"fdedcc":6263,"ebddecc":6264,"dccbebe":6265,"dbfeec":6266,"bbedbcc":6267,"eefbbebb":6268,"eeebfcc":6269,"bfbcbbbb":6270,"bbcdeec":6271,"ebdeeee":6272,"bbbdfbc":6273,"bebffc":6274,"bfbbebd":6275,"efdbbd":6276,"ebfbecc":6277,"dedbbbe":6278,"bcbddee":6279,"bceb</w>":6280,"bfbbeec":6281,"ebbecbec":6282,"dcfdf":6283,"decefc":6284,"debceec":6285,"fefff":6286,"bdbcccc":6287,"bcbe</w>":6288,"ebdbccc":6289,"dbbebbebb":6290,"beeebeebe":6291,"bdbcbec":6292,"edfccc":6293,"ddbbbbc":6294,"ebcfebe":6295,"dfbcec":6296,"acbbbb":6297,"bfbeebc":6298,"dfdef":6299,"fbdbbf":6300,"bbdbbebc":6301,"dedbef":6302,"debcdd":6303,"abbdc":6304,"bcdedcc":6305,"bddea":6306,"ebbfdbe":6307,"eccffc":6308,"dfecbc":6309,"bbbcebec":6310,"dbdba":6311,"bbbdba":6312,"bbecbef":6313,"ebbeebbf":6314,"ecbbbecc":6315,"ebefbbc":6316,"fbcfcc":6317,"fbdbdc":6318,"bccceec":6319,"bebbcbbc":6320,"bcdbbebb":6321,"eedbbdd":6322,"bbebbbeebb":6323,"deebecc":6324,"fecbebc":6325,"ecccef":6326,"dbbcbcc":6327,"bbbbfbbbb":6328,"ecbdebc":6329,"bebbbbbbbc":6330,"bdbbbfc":6331,"edcdebe":6332,"bfcbbee":6333,"bebdbcc":6334,"eedddd":6335,"dcecebb":6336,"dffdd":6337,"dbfbbbe":6338,"beceeee":6339,"becbcee":6340,"dfbbbf":6341,"bbecbbee":6342,"bcbcdbc":6343,"eefbbbf":6344,"bfbcebc":6345,"ebbcbbebb":6346,"ecbcdbc":6347,"bbbbddc":6348,"fbeeecc":6349,"beec</w>":6350,"dcbcebe":6351,"bddfcc":6352,"eddebec":6353,"edeeecc":6354,"eecfebb":6355,"bbdbced":6356,"bbdeeebb":6357,"beecebd":6358,"ecfdbd":6359,"fdebfc":6360,"ddedcc":6361,"dfebec":6362,"edcbeed":6363,"efcfee":6364,"bbcbced":6365,"bebceebc":6366,"fbcbbee":6367,"dbfbdc":6368,"ecbcbbbe":6369,"bdbcdee":6370,"eefbbef":6371,"bfcbebe":6372,"decebbc":6373,"acbcc":6374,"ecbbebcc":6375,"bbbcdcc":6376,"bfcfcc":6377,"bbbdded":6378,"eefbbec":6379,"eceebdc":6380,"eebebecc":6381,"bbdbbfc":6382,"bfcebbc":6383,"efcdbd":6384,"ecbbea":6385,"dcdbbf":6386,"dcfbcc":6387,"bbcbcbbc":6388,"eeccebe":6389,"ebaa":6390,"bfecebb":6391,"ebbecebe":6392,"ebbbebbebb":6393,"dfbbed":6394,"ffbbbf":6395,"beebebebe":6396,"bbcb</w>":6397,"edcdeec":6398,"dbceebc":6399,"eafee":6400,"dfcdee":6401,"eddba":6402,"bbfebec":6403,"eceebec":6404,"bdbedec":6405,"eedbbed":6406,"eccdbec":6407,"bccbcee":6408,"cccbccc":6409,"feddbe":6410,"eeebbbbbe":6411,"ebbbeeec":6412,"fcfbbc":6413,"ebfded":6414,"defff":6415,"eebfa":6416,"fcbedd":6417,"eccbced":6418,"deefee":6419,"dbcbebd":6420,"beccdec":6421,"bcbeded":6422,"bdecbec":6423,"eecbbdd":6424,"bbbeeebc":6425,"fbebbebe":6426,"beedccc":6427,"ebbebccc":6428,"dcedbf":6429,"ebddebd":6430,"bbbceebc":6431,"bbcbbbbbbbb":6432,"dddccc":6433,"bbdca":6434,"ecbebbbd":6435,"eebdedc":6436,"bbbbbbcbbbb":6437,"ebbbeebf":6438,"bbdbedd":6439,"bbbedfc":6440,"ebfbebf":6441,"befbbbf":6442,"bcbebbed":6443,"ddbced":6444,"ecececc":6445,"eeedbbc":6446,"ebcbcbf":6447,"fcbced":6448,"bbfeebc":6449,"efcbfc":6450,"beececc":6451,"eedbbebb":6452,"ffbccc":6453,"ebbd</w>":6454,"ebdac":6455,"bbdbebbc":6456,"bbbeded":6457,"ebbcbbcc":6458,"dbbebbcc":6459,"ebebebbbe":6460,"ebdfbf":6461,"dfdfc":6462,"dbeac":6463,"dbdbfc":6464,"eefdbf":6465,"bbcbebbbb":6466,"ecbedbf":6467,"abbef":6468,"dcbbebd":6469,"bbbefebb":6470,"bdcdef":6471,"fbeddc":6472,"eeeeeeebe":6473,"eefbbebe":6474,"bedcef":6475,"eeceedd":6476,"eebdecc":6477,"dfeecc":6478,"ecbeded":6479,"eebfef":6480,"edebbbc":6481,"eddeccc":6482,"ebbbac":6483,"becdebd":6484,"dbcfed":6485,"bbdcbcc":6486,"ebedbbd":6487,"ebcbeebe":6488,"becbbdd":6489,"efcbef":6490,"ebecfbc":6491,"fccbbbb":6492,"fefccc":6493,"bbceebe":6494,"ebffbf":6495,"bbbbbbbbbbbbbbbbbbbbbbbb":6496,"ebbbbba":6497,"decbbee":6498,"dbdbeee":6499,"bbccedc":6500,"bbcccccc":6501,"bbebbccc":6502,"bbbbcbbbbbbbb":6503,"fbdebd":6504,"ebdcedc":6505,"afdd":6506,"eedbbbf":6507,"bbfbccc":6508,"dccbef":6509,"ecbcbdc":6510,"ebdcebd":6511,"debcfc":6512,"bfeebbc":6513,"bbceeed":6514,"eefbbbd":6515,"bcecbbbb":6516,"bcdb</w>":6517,"eebdef":6518,"dfcef":6519,"fefdd":6520,"bcbbbbbbbc":6521,"dbbbdbbd":6522,"ddcbbf":6523,"ebdceec":6524,"bededcc":6525,"bcdbbed":6526,"edecef":6527,"eadbc":6528,"dbbcbbd":6529,"dfbeec":6530,"eaebf":6531,"ebdca":6532,"dceebbc":6533,"ebcfebc":6534,"bcbbbbbbbbbbbb":6535,"bfecee":6536,"dceeebe":6537,"fcffc":6538,"dfbcbd":6539,"dbbbdf":6540,"bcbcebd":6541,"fccdbe":6542,"bbbbca":6543,"edbcebd":6544,"eebebccc":6545,"ddbebf":6546,"bbcbbbcc":6547,"becbbef":6548,"dededc":6549,"bbbbcdbe":6550,"eedbdcc":6551,"deeefc":6552,"bbedff":6553,"ebfdbf":6554,"bcbcdec":6555,"debebbbe":6556,"bbfcbbbb":6557,"fcbbef":6558,"becda":6559,"bccbeebb":6560,"bbfbecc":6561,"bbdcdbe":6562,"bdbedbd":6563,"ebcdbcc":6564,"bebbeba":6565,"bcfbecc":6566,"bfbea":6567,"efdbbbb":6568,"eececbd":6569,"fbcbbec":6570,"bbbbcbcbc":6571,"ecfefc":6572,"edfbdc":6573,"bfcefc":6574,"bebcbebd":6575,"feedee":6576,"bbbbcbebe":6577,"fbdbbd":6578,"bcdddd":6579,"bffbbf":6580,"edfdbc":6581,"ebbecef":6582,"ebcecbe":6583,"acca":6584,"bccdfc":6585,"bccbbdd":6586,"bebefcc":6587,"ebdcef":6588,"bbdcbbd":6589,"bcbeddc":6590,"fbbeccc":6591,"dcfebd":6592,"dbbbdec":6593,"fbcefc":6594,"fedbdc":6595,"eebebbef":6596,"bcdcdd":6597,"bccfbf":6598,"eedca":6599,"bdeedf":6600,"bbbeefc":6601,"beecbbec":6602,"bbbedbbc":6603,"ebbcdcc":6604,"ebecdcc":6605,"debbdbc":6606,"fccfcc":6607,"fbbcccc":6608,"ebbbca":6609,"ebbfebf":6610,"bbebbebf":6611,"edbcecc":6612,"ecdbbbd":6613,"ebbbbbfc":6614,"fcbbebe":6615,"ebbcfee":6616,"dbbbfcc":6617,"ecfeecc":6618,"edecbcc":6619,"bbcfef":6620,"fcbbebc":6621,"bbebbbeee":6622,"bbedbebe":6623,"bcbdbec":6624,"ebbcbebd":6625,"beccbdc":6626,"ecbcedc":6627,"ebdcbec":6628,"ecdbbbbc":6629,"edbedcc":6630,"fcbcdc":6631,"dbebeebb":6632,"decdef":6633,"ecccebe":6634,"ebbbeff":6635,"eecbebbc":6636,"eaebc":6637,"dedbebe":6638,"bbebbff":6639,"bbbfbbee":6640,"bbcecbd":6641,"decbbbd":6642,"ebecbebe":6643,"bedcdf":6644,"ebebedd":6645,"bbfbeebb":6646,"bbccdbd":6647,"bbccfbc":6648,"bbebeef":6649,"dbbcebd":6650,"dbbcdee":6651,"fdca":6652,"fdcff":6653,"bfeced":6654,"edbedee":6655,"cccdbd":6656,"ebccbbbc":6657,"fbebbef":6658,"bebdecc":6659,"bebfa":6660,"ebbbdef":6661,"bbbbbdbbbb":6662,"bbccbebe":6663,"ebccebf":6664,"ebccfbc":6665,"fccbdc":6666,"fbddbc":6667,"bafee":6668,"fecbebe":6669,"bdfbfc":6670,"bddebcc":6671,"bbcda":6672,"badbd":6673,"ecccbec":6674,"bceebebc":6675,"dbebcec":6676,"bbecebf":6677,"bbecbbbd":6678,"fecebd":6679,"acebe":6680,"debebec":6681,"bfbebcc":6682,"edbbebf":6683,"deebcec":6684,"eebcfbc":6685,"dcbdebb":6686,"dbbbb</w>":6687,"dccbbbc":6688,"eeebbef":6689,"edbcdf":6690,"bfbdee":6691,"dceefc":6692,"dcbeecc":6693,"debbbbbd":6694,"beecbbf":6695,"bfeedd":6696,"bbcfbbc":6697,"dccbfc":6698,"fecbfc":6699,"bceeebd":6700,"ecdbdcc":6701,"bcdbbbf":6702,"acff":6703,"bdbcebc":6704,"bedebfc":6705,"ecbebecc":6706,"efbcef":6707,"ebeebbebb":6708,"ddbeebb":6709,"bbbcbbdc":6710,"dcceecc":6711,"bcbebbbf":6712,"babeee":6713,"eebdccc":6714,"bcccbec":6715,"bdfbebe":6716,"bbdeebe":6717,"bbbebbdc":6718,"ebbcefc":6719,"eabef":6720,"bfbcbec":6721,"eecbbebe":6722,"bbbcbecc":6723,"dbbedcc":6724,"bbccbbee":6725,"debbbdc":6726,"bbefbbf":6727,"ecfbebc":6728,"fcbbdd":6729,"bebebeebe":6730,"bbedebd":6731,"eeebeef":6732,"ebeeba":6733,"deebcbd":6734,"eefbecc":6735,"dcecef":6736,"bbcebdc":6737,"beedbbbb":6738,"dceded":6739,"dfda":6740,"bbbcbcbd":6741,"decfee":6742,"eabdc":6743,"dbfdbc":6744,"ecbdecc":6745,"bfbdebb":6746,"ebbbeecc":6747,"efbded":6748,"ddbedd":6749,"ddbdcc":6750,"bbdfbbc":6751,"dbdfee":6752,"bbbdbbdd":6753,"decceec":6754,"bbbbebbbbbb":6755,"dbefbe":6756,"ebbcfec":6757,"eabca":6758,"bbccbcbc":6759,"fdc</w>":6760,"ebbfedc":6761,"bbebbebd":6762,"debebcc":6763,"bbbbeeebb":6764,"bebddbc":6765,"eeecdbe":6766,"eeecdbc":6767,"eecbdbd":6768,"debefc":6769,"bceeedc":6770,"bedca":6771,"ebbc</w>":6772,"dcbcfc":6773,"dcbdef":6774,"bbcbcf":6775,"dbddbf":6776,"bbbfbbbf":6777,"beecbebe":6778,"bebdbbbc":6779,"dbbcdf":6780,"ececdbe":6781,"dcdbbbe":6782,"decfcc":6783,"decdeec":6784,"eabbd":6785,"ecfbebe":6786,"bdbcbcc":6787,"eceddd":6788,"edececc":6789,"dcbbecc":6790,"babef":6791,"eabebe":6792,"bfedbf":6793,"ebbcdebb":6794,"fbeded":6795,"bdfefc":6796,"ebebbbcc":6797,"cccded":6798,"ebbcbeee":6799,"bceebecbbec":6800,"bedbfcc":6801,"bbfddc":6802,"ebecbebc":6803,"dbffbc":6804,"dbbca":6805,"dbecbec":6806,"bdeeecc":6807,"bebbcccc":6808,"baac":6809,"bcbcbdc":6810,"bcbcbebe":6811,"dbecef":6812,"bceca":6813,"bdecdee":6814,"bbcbcbbbb":6815,"bccac":6816,"ebfbebd":6817,"bdecdf":6818,"eededcc":6819,"dcebecc":6820,"bbbebbebc":6821,"ebbceebc":6822,"dccfed":6823,"eefddc":6824,"eeecef":6825,"eeecfc":6826,"bbceebf":6827,"befded":6828,"befddc":6829,"beecbecc":6830,"dbbcebc":6831,"ebdedcc":6832,"eecdbcc":6833,"ecccdee":6834,"bbbbeebd":6835,"bbcdbcc":6836,"ebdbedd":6837,"bdcbeed":6838,"dccefc":6839,"dfca":6840,"bbbbdebe":6841,"fecbbbe":6842,"bbbfccc":6843,"eeeebec":6844,"fdebbcc":6845,"eeec</w>":6846,"edfbbbe":6847,"ebeeedc":6848,"ebdecbd":6849,"bbefff":6850,"ebcdbbd":6851,"dbcbcbd":6852,"bbebebcc":6853,"bdbcdf":6854,"edbcbec":6855,"eeeceec":6856,"ecdcdd":6857,"edbcccc":6858,"edfbbf":6859,"ebdcdf":6860,"dfcdbe":6861,"dabba":6862,"beebebbbe":6863,"ecfbecc":6864,"bbcffc":6865,"dbdbbdd":6866,"bbbdbeee":6867,"dbfedc":6868,"bbefdbe":6869,"bceeff":6870,"bdbca":6871,"bcbebccc":6872,"ebecebbc":6873,"beecbfc":6874,"eebcbbee":6875,"defbbf":6876,"ecfebbc":6877,"ececdec":6878,"bddbbdd":6879,"bfebbcc":6880,"bdcbbdc":6881,"deebccc":6882,"eebeddc":6883,"deecbec":6884,"debbecc":6885,"debbbebe":6886,"fbdecc":6887,"eebddbc":6888,"edeedbe":6889,"eefefc":6890,"dcbebbbb":6891,"efbbbec":6892,"edcbcbd":6893,"bbbdbef":6894,"fecfbc":6895,"eebcebf":6896,"eeebebebe":6897,"bafbc":6898,"dbbbfbf":6899,"fecbeec":6900,"bebdff":6901,"eebddbe":6902,"fdcdee":6903,"bccfebb":6904,"bbdeeed":6905,"bbecebbc":6906,"bbccbebc":6907,"bbbbcebc":6908,"bedcebc":6909,"bbbbbcec":6910,"ebddbbd":6911,"debbdee":6912,"dbecbbc":6913,"fcbdbd":6914,"bbbefcc":6915,"bbebbbef":6916,"eebcbebe":6917,"bebddec":6918,"bceedcc":6919,"beeddbe":6920,"bdbcdbe":6921,"bfbbecc":6922,"edeebbd":6923,"ebbdcdc":6924,"bbbefbe":6925,"bedd</w>":6926,"edeac":6927,"edeeccc":6928,"bbbebbbec":6929,"bbffebb":6930,"bbbfbfc":6931,"fedeec":6932,"beeddee":6933,"bbbbbbfc":6934,"ebeecdc":6935,"eabea":6936,"bebdbdc":6937,"fbddec":6938,"eeccbdc":6939,"eedcbec":6940,"beebebbee":6941,"ebedeec":6942,"eeeebeebb":6943,"dbbceec":6944,"eeecebc":6945,"ddecbd":6946,"bbbebcebb":6947,"dfcbec":6948,"dfcbcc":6949,"ecbbbccc":6950,"bbbbecbc":6951,"bbebbebbc":6952,"bbbfebf":6953,"eebcded":6954,"bebdedc":6955,"dbbcdbe":6956,"eeebbbbc":6957,"efbea":6958,"bebcdbd":6959,"bebddbd":6960,"bbebebeee":6961,"bedcfc":6962,"bdfbef":6963,"bcfbccc":6964,"bfbddc":6965,"dcbbeec":6966,"fffef":6967,"bbbcefc":6968,"eabeee":6969,"bbbdbbbbc":6970,"eeccdbe":6971,"edbebbbc":6972,"ebbeded":6973,"bebcbeec":6974,"defebc":6975,"bbbcbccc":6976,"bbbcbeebb":6977,"defebe":6978,"dbbbbdbbbb":6979,"bbbebebbc":6980,"ebecbbec":6981,"ecccebd":6982,"eeccdec":6983,"bbddebe":6984,"beebebeee":6985,"beefa":6986,"dbcdebe":6987,"bbeebeec":6988,"fccdee":6989,"bbdddbe":6990,"bdbeebf":6991,"bebbbebbbb":6992,"ebbecfc":6993,"eccfbf":6994,"bbdfdd":6995,"bbbdbbed":6996,"bebdccc":6997,"eeeda":6998,"bcdbdcc":6999,"dcbebec":7000,"dbdebbc":7001,"ebecbcbc":7002,"bcbeefc":7003,"bbcbedd":7004,"bbdebdc":7005,"bbdbddd":7006,"edcecbd":7007,"babbebb":7008,"dbbecdd":7009,"dbfebf":7010,"beecbdc":7011,"fedded":7012,"bbebea":7013,"eedceec":7014,"fcdebd":7015,"eccbbbf":7016,"bbdfef":7017,"dccfee":7018,"fbcdbd":7019,"bdbebbcc":7020,"bdeebcc":7021,"bcbbeecc":7022,"dcbedbe":7023,"efecdc":7024,"bbedbdc":7025,"bbbbcbbebb":7026,"debea":7027,"eebdbcc":7028,"eeedccc":7029,"fbbcbbc":7030,"bffdbe":7031,"dddcdc":7032,"fecdbd":7033,"fbdedc":7034,"debcebc":7035,"fddbec":7036,"bbeedcc":7037,"dbfda":7038,"beccdee":7039,"bbdda":7040,"eefbccc":7041,"fccefc":7042,"ecbcbebc":7043,"bbebebec":7044,"edebbbf":7045,"bbbbbcbf":7046,"fcdbcc":7047,"ebdbced":7048,"bbdbbbec":7049,"befbeec":7050,"bbbfbbbd":7051,"fccbfc":7052,"fcceecc":7053,"eeeeea":7054,"ebdcdbe":7055,"eedbbdc":7056,"bfecbbc":7057,"ebbbbedc":7058,"dcebbcc":7059,"efbefc":7060,"bbbebcbd":7061,"bbbcdbbbb":7062,"eccca":7063,"bcfea":7064,"bdccccc":7065,"eceedbd":7066,"bcbbcccc":7067,"bfbbbbbbbb":7068,"edebbbd":7069,"eddbbcc":7070,"ebbdced":7071,"dddebd":7072,"ebecded":7073,"aceec":7074,"beccdbe":7075,"eeecbdc":7076,"ececdee":7077,"bebacc":7078,"ebcbcdd":7079,"beceedd":7080,"dbcbbebb":7081,"beccbebc":7082,"eebfebe":7083,"edeedf":7084,"edfdee":7085,"bbdbcebb":7086,"fbcdcc":7087,"fecbbbc":7088,"fccded":7089,"acdbe":7090,"bceebebe":7091,"bbeebbed":7092,"bcbcded":7093,"debbdec":7094,"eeeefc":7095,"eeeebdc":7096,"ebbdebbc":7097,"dbceebd":7098,"befbebf":7099,"bbecbbebb":7100,"eebcbfc":7101,"dbbcbbbc":7102,"eceb</w>":7103,"bfbebbbe":7104,"babebc":7105,"bbeeea":7106,"becceecc":7107,"ebdcecc":7108,"bcfbbbf":7109,"bceebfc":7110,"ebeffc":7111,"befbbed":7112,"debbff":7113,"dbbda":7114,"ebedbb":7115,"fbeebcc":7116,"dbecdf":7117,"eeecdec":7118,"bdbdbbc":7119,"bbbeddc":7120,"babda":7121,"bbccdec":7122,"debbbebc":7123,"bfbdec":7124,"becbbbec":7125,"fccdbc":7126,"defecc":7127,"eebbeccc":7128,"dcfdbe":7129,"bbbeeeebb":7130,"fddef":7131,"bfbcdd":7132,"fcbebbc":7133,"eccbebf":7134,"bbbeebcc":7135,"bbffdc":7136,"bbebbbbbf":7137,"fbbb</w>":7138,"bfebbebb":7139,"ebbfbbbc":7140,"ebdbbebe":7141,"eecbcdc":7142,"bbdfebe":7143,"ebfebcc":7144,"ebecbbee":7145,"debbedc":7146,"beccfec":7147,"bbddbbbd":7148,"bfdbbbe":7149,"dcbcebc":7150,"eecbced":7151,"ebbcbbed":7152,"feeebd":7153,"ecbcbebe":7154,"bbebcbec":7155,"ecbddf":7156,"bbebbdee":7157,"dbeca":7158,"beeeebd":7159,"acebc":7160,"bedcbbc":7161,"eecfbf":7162,"bbbdbebd":7163,"bebbebfc":7164,"eccfbe":7165,"bccbced":7166,"bbfdef":7167,"bbccebf":7168,"ecfbbec":7169,"eceeddc":7170,"bdbebbec":7171,"eccecdd":7172,"bccdebc":7173,"fccfed":7174,"ecbcff":7175,"bbabba":7176,"bdbddbd":7177,"ecbe</w>":7178,"ebbfbebe":7179,"efbedd":7180,"fcdedc":7181,"dbfbbbc":7182,"fecbcbc":7183,"bebfbbf":7184,"eceebbf":7185,"bdbcebd":7186,"dcbdf":7187,"bbbbbeed":7188,"dfbbdc":7189,"cccbbbc":7190,"fbcebbc":7191,"ebecedc":7192,"beebbebc":7193,"bacba":7194,"bbdffc":7195,"efcedc":7196,"eeeebbbc":7197,"bcbebbbbc":7198,"ebbbcdbe":7199,"efbcbbc":7200,"bececbd":7201,"becdedc":7202,"fecfed":7203,"beecbeec":7204,"adca":7205,"bbcbcdc":7206,"ecbcbbbc":7207,"ecfbef":7208,"bcbcbbec":7209,"debbdbd":7210,"bbefbbbe":7211,"bfecdd":7212,"bbbbac":7213,"efbbbcc":7214,"bccebdc":7215,"edcffc":7216,"bcbcbbee":7217,"deecdec":7218,"bcebbbbc":7219,"afef":7220,"bbbdbfc":7221,"bebcfee":7222,"bbccbef":7223,"beebbbbf":7224,"bbef</w>":7225,"dbebeed":7226,"dbcbecc":7227,"fdeba":7228,"ebedecc":7229,"dfeebc":7230,"edcdedc":7231,"dbcdef":7232,"efcfbc":7233,"bbebedd":7234,"bbdcff":7235,"eebdebd":7236,"ebebcbbbb":7237,"fcecec":7238,"becbcbe":7239,"dbbcbbbe":7240,"eefded":7241,"bcccbbbb":7242,"edbceec":7243,"fcecdc":7244,"becffc":7245,"eeeebbd":7246,"ecbcded":7247,"eeccff":7248,"beebea":7249,"efdbb":7250,"becbbebc":7251,"eccbcdc":7252,"dcceebc":7253,"beecdbd":7254,"dceba":7255,"fcecbd":7256,"eccfebc":7257,"dbebced":7258,"efcebf":7259,"dfbcee":7260,"fdcbbc":7261,"eccbdbd":7262,"bbbdebbc":7263,"bcbcdbd":7264,"bcbcbbcc":7265,"bbedbbbc":7266,"eeeebeef":7267,"bbadd":7268,"ebbeebbebb":7269,"bfbdef":7270,"dcfbbd":7271,"bbedbbec":7272,"febea":7273,"bfbebbd":7274,"beeeeeebe":7275,"bbbfbdc":7276,"beccbbf":7277,"ecedccc":7278,"bedebbcc":7279,"efdecc":7280,"ebebfcc":7281,"dfbbebb":7282,"ebfbeec":7283,"eebedec":7284,"bcbda":7285,"fdcebc":7286,"bcbbb</w>":7287,"bcfeecc":7288,"fecbef":7289,"fecfee":7290,"debeebc":7291,"bbaba":7292,"bebfebe":7293,"eeebbbebe":7294,"bdbcbbbe":7295,"bdbcbbbc":7296,"bdeeebc":7297,"ecbebccc":7298,"bbbbbbebd":7299,"efb</w>":7300,"efeeed":7301,"bbeefbe":7302,"dedbfc":7303,"dbfdbd":7304,"fbdbebc":7305,"defdee":7306,"ecbeba":7307,"bedcdec":7308,"edcedcc":7309,"bcbcbef":7310,"bbedbebc":7311,"debcccc":7312,"dcecdee":7313,"fdefcc":7314,"ebdbbef":7315,"bcbcbccc":7316,"ebccbebe":7317,"ddeeed":7318,"bbdbeebe":7319,"ebfbccc":7320,"dbbcbbf":7321,"beeddec":7322,"bbfcbec":7323,"efeba":7324,"ebffbe":7325,"dccbbee":7326,"bbbdbbcc":7327,"ebecdbd":7328,"fecefc":7329,"ecfeccc":7330,"bdcea":7331,"edcbedd":7332,"eeeeebeebe":7333,"bbbbcdbc":7334,"bccfef":7335,"dccbebc":7336,"fbcfee":7337,"debedbe":7338,"bebbbbbbebb":7339,"bdbcdbc":7340,"bfdccc":7341,"bfbdf":7342,"bfeddc":7343,"efdebd":7344,"ddecec":7345,"bdcbcbd":7346,"bbbfdbc":7347,"bbeddbd":7348,"eebcdbd":7349,"bdecbbc":7350,"eedcdf":7351,"bcbbbbbcbbbb":7352,"bbbbbcee":7353,"ebeecbf":7354,"fcfdd":7355,"bbeebebd":7356,"bbddbec":7357,"deecbbc":7358,"ecbdccc":7359,"dcbea":7360,"bccbbef":7361,"ffdef":7362,"bfcbbcc":7363,"ebbcba":7364,"befbeebb":7365,"eedcebc":7366,"eddddd":7367,"bbfac":7368,"ebfdebb":7369,"befbbef":7370,"eeccdbc":7371,"fcbefc":7372,"edcecdc":7373,"dbbecbbc":7374,"dbbedbf":7375,"bebbbdcc":7376,"dedbbbc":7377,"edbeff":7378,"edacc":7379,"eececdc":7380,"ffbbebb":7381,"dedfbc":7382,"dbecdee":7383,"bcdbbdc":7384,"eeebac":7385,"dcfedc":7386,"eccfecc":7387,"eecffc":7388,"bbdbcbf":7389,"bbbebbef":7390,"bbfbcbd":7391,"bbeedbf":7392,"decbeed":7393,"eabbbc":7394,"beeebebc":7395,"ebccbfc":7396,"fcccccc":7397,"eeeeeeebb":7398,"eedbbebe":7399,"ecdbbdd":7400,"bbbbfbbc":7401,"ebdffc":7402,"fffed":7403,"ebccbbee":7404,"eedb</w>":7405,"ebbfccc":7406,"bbbdbbbf":7407,"dbbcdbc":7408,"bcccebc":7409,"bedefcc":7410,"ebbbedbc":7411,"efedcc":7412,"efcbeec":7413,"bcbcfbc":7414,"ecbddee":7415,"bcdbbebe":7416,"beeeeec":7417,"bbebbbdc":7418,"fccbebe":7419,"edbedbb":7420,"feebebc":7421,"ecccdf":7422,"fedebc":7423,"debeebe":7424,"eeecdee":7425,"bdebdcc":7426,"bbbcbbebe":7427,"ebbcbbbf":7428,"feeea":7429,"ebbfdbc":7430,"decdebb":7431,"bbebbdbc":7432,"bcbccccc":7433,"fbdfbc":7434,"ab</w>":7435,"bbdecec":7436,"dbefdc":7437,"dbbbdebe":7438,"bffebd":7439,"bbecbebd":7440,"bcccdee":7441,"bbffef":7442,"efcbebe":7443,"ebcbebbbb":7444,"bcceeed":7445,"ebffebb":7446,"edceedd":7447,"bbecbecc":7448,"bbccbfc":7449,"bcbbcbbc":7450,"bcccccccc":7451,"efecbf":7452,"ebedebd":7453,"ddfef":7454,"deddebb":7455,"bbbbcbbee":7456,"eebeebcc":7457,"eebebba":7458,"bcfbbebb":7459,"bbfcfc":7460,"deccccc":7461,"aeea":7462,"bebcdebb":7463,"fbcba":7464,"bcbcbbbd":7465,"bcfebec":7466,"dcbcbec":7467,"eccdbcc":7468,"bccfdd":7469,"bbbcfbd":7470,"decbebd":7471,"befdebb":7472,"debcdee":7473,"dcbedf":7474,"bbfeeee":7475,"bbccfee":7476,"bcbdebe":7477,"bebfbec":7478,"dcecebe":7479,"becbcebb":7480,"ebdbcee":7481,"bbdbbeec":7482,"bbeedebb":7483,"bbbddebb":7484,"fecba":7485,"bcbdeec":7486,"bffecc":7487,"ebcbdcc":7488,"dbedebe":7489,"bbeebeebe":7490,"defdcc":7491,"ecbebbebb":7492,"dbeceec":7493,"bebfef":7494,"abdbd":7495,"ebfbeebb":7496,"bdcfdc":7497,"decba":7498,"beeeea":7499,"ebebcef":7500,"ecceebf":7501,"fbcfbd":7502,"bbebefc":7503,"bdecccc":7504,"bfdbdc":7505,"ebbfbdc":7506,"ebebefc":7507,"ebeeea":7508,"fecbecc":7509,"bcbeebec":7510,"eebdbbf":7511,"dbbbbbbf":7512,"edbcdee":7513,"ebbbcbbf":7514,"dbdbeec":7515,"bbedbbbd":7516,"bbbbcbbec":7517,"eecceecc":7518,"febbfc":7519,"fadd":7520,"dbdbebd":7521,"debedf":7522,"eefac":7523,"dcbfed":7524,"ebceeebb":7525,"dbeebec":7526,"ffebcc":7527,"bbbbceec":7528,"dadf":7529,"bfbcccc":7530,"dcecbbc":7531,"ebeedcc":7532,"ffbbef":7533,"bebedcc":7534,"decdbf":7535,"fbcdebb":7536,"dabbc":7537,"ebebeebc":7538,"ebffef":7539,"bdcfbe":7540,"ebbcbeec":7541,"bcecdbc":7542,"beeddbc":7543,"bebfbbbe":7544,"ecbdeec":7545,"ecfddc":7546,"beebebbc":7547,"eeeebbebb":7548,"beedfc":7549,"bceddbe":7550,"bdeddd":7551,"edbedbd":7552,"dcecdf":7553,"ebefbbbb":7554,"becbcbf":7555,"eeeeeeef":7556,"bdbebfc":7557,"bdfbbee":7558,"bedeba":7559,"ebbeac":7560,"bececec":7561,"dbfbfc":7562,"fccbbd":7563,"eceeef":7564,"becdbbbb":7565,"ecceebe":7566,"decfed":7567,"ecbcbbee":7568,"bcfbeee":7569,"fbfbcc":7570,"ddeebf":7571,"becfbbc":7572,"ebdcccc":7573,"bebcbeee":7574,"feefbc":7575,"fecedc":7576,"eedcef":7577,"ecfbbcc":7578,"ebbdcbd":7579,"dcdebf":7580,"dceeebc":7581,"eebceebc":7582,"beccbecc":7583,"ecbcdcc":7584,"debca":7585,"bfeebbbb":7586,"edecebe":7587,"ebcbefc":7588,"bbdfbbbb":7589,"dbeebcc":7590,"babfc":7591,"deebbebb":7592,"fbdbfc":7593,"defbbbb":7594,"eedcecc":7595,"ecfbbee":7596,"bebbbbbbbd":7597,"bdcceec":7598,"ecedbbc":7599,"ebdebbcc":7600,"bbbfbef":7601,"bcfac":7602,"beebbbbee":7603,"bbfcdf":7604,"eeebea":7605,"dcecebc":7606,"efcdbf":7607,"defdbc":7608,"bbddef":7609,"fefbbc":7610,"bccbdbd":7611,"ebffdc":7612,"bbdcbdc":7613,"bcfebcc":7614,"eeecbbbc":7615,"bddb</w>":7616,"ecbbeecc":7617,"ecdefcc":7618,"dcbebcc":7619,"bbbebcbe":7620,"bbfebcc":7621,"efcdebb":7622,"bbecbcbc":7623,"beeebbbd":7624,"eeeebbebe":7625,"ecbcdbd":7626,"ebcbeef":7627,"bbfdbbc":7628,"edcbbed":7629,"edcbccc":7630,"bebcbecc":7631,"bcbcfee":7632,"bbbffbc":7633,"bceebeec":7634,"bfecef":7635,"bbdeef":7636,"dbecdbe":7637,"ddbcdc":7638,"bbdbbbcc":7639,"bbdbcbbbb":7640,"bdcdfc":7641,"bdcbedc":7642,"ffbeec":7643,"cccbfc":7644,"bbbfeec":7645,"bcfbbed":7646,"fddeec":7647,"ebbeedbe":7648,"ebbbcbbbc":7649,"fbbebfc":7650,"efeea":7651,"dddbb":7652,"ddeeebb":7653,"bccbbebe":7654,"bbbefbf":7655,"bbffed":7656,"bbbdfee":7657,"ecfded":7658,"edccecc":7659,"bdfba":7660,"bbbfdee":7661,"dbbcdbd":7662,"bfbca":7663,"bffccc":7664,"dddbdc":7665,"fbddbd":7666,"bbfca":7667,"ecbffc":7668,"ebbdbfc":7669,"dcbcdf":7670,"becbeebc":7671,"eccbbdd":7672,"bccbcbf":7673,"efcebbc":7674,"bbebbbebbbb":7675,"bcecbeec":7676,"eeed</w>":7677,"edbebbee":7678,"efbbeec":7679,"ffbcbd":7680,"bceeebbc":7681,"dccccccc":7682,"effebc":7683,"ddbbef":7684,"eaeec":7685,"fbcbbbd":7686,"eba</w>":7687,"dcbcbbbb":7688,"ebeeebbbb":7689,"ecccdcc":7690,"abcbf":7691,"bcdbbef":7692,"bfdebf":7693,"bbcdbbd":7694,"ebfeebc":7695,"efcba":7696,"efcbecc":7697,"beeedee":7698,"beeeebbc":7699,"bbedded":7700,"ebdcdee":7701,"dfcebe":7702,"dadbe":7703,"ebbbedbb":7704,"fcbcbe":7705,"bbdd</w>":7706,"eaecc":7707,"dbfbebe":7708,"eeccfbc":7709,"bbdcebd":7710,"ecbeac":7711,"beedebc":7712,"bede</w>":7713,"ddecdc":7714,"dfbebf":7715,"beeebcbc":7716,"defbdc":7717,"eebebbbbc":7718,"bceedbd":7719,"febbff":7720,"ebecbbbd":7721,"bcbddbe":7722,"bdfded":7723,"dcbcccc":7724,"edefdc":7725,"bbdcbbbe":7726,"ecbeebcc":7727,"ecbdbec":7728,"febeebe":7729,"ebcdbb":7730,"bfcdbf":7731,"bbecbbcc":7732,"fecddc":7733,"bbedbbee":7734,"eebcdcc":7735,"eebddee":7736,"bbabbbe":7737,"ececa":7738,"dcfccc":7739,"ebcbbbcc":7740,"dbceeee":7741,"bebdbbee":7742,"bcecbbd":7743,"edbdbbc":7744,"ebbfbbee":7745,"eccdebd":7746,"bcceedd":7747,"bcfdef":7748,"bcbdccc":7749,"bceefbc":7750,"bdbeebbc":7751,"ddeedd":7752,"ebcbcbbc":7753,"beceeed":7754,"bbbcdbf":7755,"dedba":7756,"bbbfebd":7757,"eeee</w>":7758,"ebbdddd":7759,"bbecfee":7760,"bbbfbebc":7761,"ecfebcc":7762,"edebbed":7763,"eccbdcc":7764,"fbebbed":7765,"febbbbf":7766,"ecdbbbf":7767,"cccbbbe":7768,"fbcfed":7769,"eccceccc":7770,"bfbcbbf":7771,"eedbfcc":7772,"edbbbbbbbb":7773,"fceedd":7774,"bbdeebf":7775,"edcdbec":7776,"bdbebbebb":7777,"edbcbcc":7778,"bfbebbf":7779,"bfcbebd":7780,"efceecc":7781,"bbecfec":7782,"feebcbc":7783,"fbedbbc":7784,"bccca":7785,"fbfebe":7786,"bebfff":7787,"bdcbbebb":7788,"bbbdecc":7789,"efcbcbc":7790,"bbdcbbbc":7791,"bdf</w>":7792,"bbceef":7793,"bbdbeef":7794,"dbbecef":7795,"bbecbeee":7796,"bbecdebb":7797,"bbbfbbebb":7798,"fbdbebe":7799,"bbebebbebb":7800,"bbbecbec":7801,"ecfdbf":7802,"bdeedbc":7803,"edeca":7804,"ebbddcc":7805,"efbdbf":7806,"ebeecebb":7807,"bbcbeebe":7808,"bdcdbbc":7809,"dbdfcc":7810,"bebfbebe":7811,"bdeebbbe":7812,"ecdbbed":7813,"ecfbccc":7814,"bbceccc":7815,"eecfef":7816,"bfceebc":7817,"decbbcc":7818,"eeeedbe":7819,"debddf":7820,"eeebbbeee":7821,"bdfbebc":7822,"edecbbbb":7823,"eecdbbd":7824,"bbdbdcc":7825,"edcdbbc":7826,"bfcebec":7827,"acbbf":7828,"beccbbbe":7829,"debeef":7830,"bcecbbf":7831,"bedcbcc":7832,"bdeebbbc":7833,"bfeea":7834,"bbcfdd":7835,"eccbeebb":7836,"ebfddc":7837,"badcc":7838,"deedebb":7839,"deebebd":7840,"ebbcbbbbc":7841,"feedbf":7842,"ecbcfbc":7843,"debcbbbb":7844,"fbbbdcc":7845,"ecbbac":7846,"ebeb</w>":7847,"bbdbbebd":7848,"deeeebc":7849,"dbcebec":7850,"bebcbbcc":7851,"bcbebbebc":7852,"eeecbbf":7853,"ddc</w>":7854,"dbefebb":7855,"ebfebec":7856,"dacea":7857,"bbbbbeebe":7858,"fcbcebb":7859,"bbdedbd":7860,"dbbeddd":7861,"fbebbbbc":7862,"beaa":7863,"ebbbcccc":7864,"dcfbbbb":7865,"dcecbec":7866,"fceeed":7867,"dbefbf":7868,"bbbdedc":7869,"ebccdbd":7870,"bbdddf":7871,"fdcdec":7872,"deeceec":7873,"ebeecec":7874,"ddeebe":7875,"ebcbba":7876,"bbbebeebe":7877,"bebebccc":7878,"befbbebe":7879,"aeecc":7880,"bfeefc":7881,"fcbeebc":7882,"becbeebe":7883,"bebeeebc":7884,"befbebd":7885,"ddcfbc":7886,"beccdbc":7887,"eefbbed":7888,"bcbdbcc":7889,"bbebe</w>":7890,"efeedc":7891,"ebebdbc":7892,"bbdcccc":7893,"eebdbdc":7894,"ffcccc":7895,"bebebbed":7896,"feedbd":7897,"fccbebc":7898,"debcdec":7899,"bcececc":7900,"ebceced":7901,"ebdecdc":7902,"fbebbdc":7903,"daba":7904,"bcbeeecc":7905,"ebbecbcc":7906,"bbcbba":7907,"dfffc":7908,"bbeebbbbc":7909,"dbbebbbd":7910,"debebbf":7911,"bceeebf":7912,"abfa":7913,"ebbcebec":7914,"fbdded":7915,"feddcc":7916,"bceebef":7917,"adfc":7918,"bfbac":7919,"edecbbd":7920,"ebbbebbbd":7921,"bbbbbebbbe":7922,"efecbe":7923,"edceeee":7924,"bfcdebb":7925,"feeeec":7926,"ecccdec":7927,"beedeec":7928,"bdbeba":7929,"ebebcebe":7930,"dedbbcdbf":7931,"debebdc":7932,"bddbbbbc":7933,"ecbc</w>":7934,"dcbebbd":7935,"ebdbcebb":7936,"bbdecbd":7937,"dfbced":7938,"dbbeddc":7939,"fbeebec":7940,"fbdebf":7941,"bbefbbee":7942,"daccc":7943,"febbdd":7944,"bcbfbbc":7945,"edccfc":7946,"ecbfdd":7947,"bdfbbbd":7948,"bebbebbcc":7949,"edbbebbc":7950,"ebdfdd":7951,"ffdebb":7952,"bbccbbbd":7953,"bbebeccc":7954,"eeccbbf":7955,"bbdcdbc":7956,"bebfdd":7957,"bdfbbec":7958,"acccc":7959,"ebdfbbc":7960,"dfdbbc":7961,"ecbcbbec":7962,"eceebbee":7963,"bebf</w>":7964,"bbbbdef":7965,"fbcbeec":7966,"ecbcbfc":7967,"ebdcff":7968,"effdf":7969,"bccbedd":7970,"dbebbbbc":7971,"bbbcdbbc":7972,"bbefbec":7973,"eeebebbee":7974,"dcbcdee":7975,"fbbbfcc":7976,"bbbbbedc":7977,"ebbcbecc":7978,"fbdbbbe":7979,"bbddbdc":7980,"eebcbbec":7981,"eebeac":7982,"dbbbba":7983,"bceeded":7984,"eebffc":7985,"bcbfdd":7986,"bdbcdbd":7987,"edebbbbc":7988,"bbcecec":7989,"ebddbcc":7990,"debbbbee":7991,"bbdcbbf":7992,"bcecbebc":7993,"feffc":7994,"ecdcfc":7995,"eadcc":7996,"beccded":7997,"bbdcdbd":7998,"eceebbbe":7999,"bdeebbf":8000,"eefeecc":8001,"ebebbebd":8002,"ebdbebbc":8003,"babcbc":8004,"ebbcdbf":8005,"fecbbec":8006,"ebebcebc":8007,"bccecec":8008,"ebfbbed":8009,"badec":8010,"debebebe":8011,"bcbeea":8012,"febbccc":8013,"eeebefee":8014,"eceeedc":8015,"efbfbeee":8016,"bbebbecc":8017,"eebdff":8018,"bcbbbbbbbe":8019,"dcbeeec":8020,"ebcecdd":8021,"ebddedc":8022,"beeebbbf":8023,"fccbef":8024,"eceebbbc":8025,"bebbbebbbe":8026,"eedd</w>":8027,"bfecbec":8028,"dcdbbbc":8029,"dceedbe":8030,"efecec":8031,"babbbf":8032,"bbbdbcbc":8033,"bbccbbec":8034,"deeca":8035,"bdeceec":8036,"ebbeeff":8037,"bbbdddc":8038,"bebdbebd":8039,"becceebc":8040,"bdbedcc":8041,"ebbeefee":8042,"dedebf":8043,"debcbcc":8044,"dfcebc":8045,"eceebbd":8046,"ebbbbbbbbbe":8047,"ebbfbef":8048,"ebdfef":8049,"bcbcbeec":8050,"ebcceecc":8051,"ddcfec":8052,"fecdbf":8053,"beefebe":8054,"edbca":8055,"eccbbbbc":8056,"dbebedc":8057,"efcefc":8058,"fccebf":8059,"eeebbbbf":8060,"bdeebdc":8061,"bedc</w>":8062,"efbebbbb":8063,"ebefebc":8064,"ffebec":8065,"deeeecc":8066,"dbbddbd":8067,"beeedbd":8068,"bcbcdcc":8069,"beedbcc":8070,"ecfba":8071,"ebdfebc":8072,"bbdfebc":8073,"deeea":8074,"bfcdef":8075,"fbceebc":8076,"bbefdf":8077,"eeebebbbe":8078,"bdbcbbf":8079,"dceebec":8080,"ebdeebe":8081,"bbdbded":8082,"deddef":8083,"bbccebbc":8084,"bcbcebf":8085,"bbbfdbd":8086,"dbbcbebe":8087,"bbdddbc":8088,"bbebcbbbe":8089,"edbb</w>":8090,"ebdeedd":8091,"dbefed":8092,"eebdebe":8093,"dbecfc":8094,"febbbbbe":8095,"dceedf":8096,"ddbcdd":8097,"eccecbe":8098,"baedc":8099,"beecdebb":8100,"abcee":8101,"fef</w>":8102,"bfefcc":8103,"dcbfdc":8104,"efbcfc":8105,"bbecedc":8106,"fbcdbf":8107,"acdec":8108,"bbbbcbebc":8109,"beebbbec":8110,"febbdf":8111,"aecbc":8112,"edeedbc":8113,"ddbddc":8114,"bbbcfcc":8115,"bfcfbd":8116,"ebbcfcc":8117,"bcbdebc":8118,"edbbbfc":8119,"feedec":8120,"feeddc":8121,"dbecebc":8122,"beebeeeee":8123,"eeeddf":8124,"bfbcff":8125,"bfbceec":8126,"edecdf":8127,"ebbecbbd":8128,"dcbceec":8129,"eaeeee":8130,"dedbbbd":8131,"bcfdebb":8132,"deecdee":8133,"bdfdbf":8134,"bebbedcc":8135,"edecccc":8136,"bbbbfed":8137,"bbbbebbebb":8138,"edcdebd":8139,"bfcbecc":8140,"beeebbcc":8141,"dbbcbbbd":8142,"dbbbbbbebb":8143,"ecfbbbd":8144,"beddbec":8145,"bfbbebf":8146,"bfbddd":8147,"edebbdc":8148,"dceea":8149,"dcebccc":8150,"ddbbebe":8151,"bcceebf":8152,"ebccebcc":8153,"bcccff":8154,"bebfccc":8155,"beebeef":8156,"bcbbebdc":8157,"dcbeebd":8158,"ebdfebe":8159,"bbfbbebe":8160,"edcbbdc":8161,"bebebebbbb":8162,"fbdfec":8163,"dbbcff":8164,"bdfddc":8165,"befcdf":8166,"bdeeeec":8167,"afbbc":8168,"edbeebf":8169,"ebcbded":8170,"becbdbd":8171,"dbbeded":8172,"bbecbbed":8173,"eebddec":8174,"bbabbbc":8175,"eebfbbc":8176,"dbbebbbc":8177,"ececdcc":8178,"fcebfc":8179,"ebdb</w>":8180,"dbebbebe":8181,"bebcba":8182,"debcebe":8183,"bdeebbd":8184,"dcecfc":8185,"bbeeddc":8186,"fbedef":8187,"fccdcc":8188,"bbbbcdf":8189,"bcecbdc":8190,"bcecbcbc":8191,"dbeeecc":8192,"dbebcbe":8193,"decbeee":8194,"efcdef":8195,"bebdbbbd":8196,"fedbbf":8197,"eeececc":8198,"eeecbbbe":8199,"feffee":8200,"aeebd":8201,"fcbdcc":8202,"bbbccccc":8203,"ebbceebd":8204,"eefdef":8205,"bcccdf":8206,"ececdbc":8207,"fbbbbbbc":8208,"ebbbb</w>":8209,"ebeebfc":8210,"dbeecbc":8211,"bbbcbbdd":8212,"bbbcbeed":8213,"eeccdee":8214,"fefdf":8215,"ececeec":8216,"dbbbebbbb":8217,"abbdd":8218,"edebbbbbb":8219,"fcdbbd":8220,"ebdbcdc":8221,"ebfac":8222,"bebcbbebb":8223,"ecbeefc":8224,"bbefbcc":8225,"ecdcecc":8226,"affc":8227,"ebdeeed":8228,"dbbbdef":8229,"decebec":8230,"dedbbee":8231,"beecdcc":8232,"fbfbec":8233,"bbfcef":8234,"edcac":8235,"edceeed":8236,"debebbd":8237,"bcedbec":8238,"dcbdbbc":8239,"ebeedbd":8240,"bbfbcbf":8241,"fcceebc":8242,"deccef":8243,"bdeedee":8244,"bdbd</w>":8245,"bfcbeed":8246,"dedbbed":8247,"bbecefc":8248,"ebccdcc":8249,"dbfbef":8250,"bfbdbbc":8251,"efedbd":8252,"ddeef":8253,"ebcdbdc":8254,"bccbcbe":8255,"ebfbcbd":8256,"bbeeeecc":8257,"ddcbbbe":8258,"eebeebec":8259,"dbccbbc":8260,"bdfebbc":8261,"edfebf":8262,"dfbcf":8263,"edcbcec":8264,"fecebbc":8265,"dcbdbe":8266,"ebdbdcc":8267,"dbeeebd":8268,"dbebcee":8269,"dbbebbed":8270,"befebec":8271,"ecccbdc":8272,"eecceebc":8273,"dbbbbebe":8274,"eebfff":8275,"bcdcdee":8276,"bdbbefc":8277,"bdffcc":8278,"eecdbdc":8279,"eceeeec":8280,"ebbbcbcc":8281,"abbebc":8282,"fbcbebd":8283,"bbdddee":8284,"bffeec":8285,"bbcecbe":8286,"bbfecbc":8287,"ffdbbc":8288,"bbebbba":8289,"fbeac":8290,"bfdbbbc":8291,"dcdbbee":8292,"dcfbbf":8293,"ddedbd":8294,"ebffed":8295,"bebebcbd":8296,"deceecc":8297,"feebfc":8298,"bcdbbfc":8299,"bfbcdf":8300,"ebcfecc":8301,"bbcbeef":8302,"becdbcc":8303,"bbbebcec":8304,"dbebdbd":8305,"dbceecc":8306,"dbbebbbf":8307,"befbeef":8308,"dfcdbc":8309,"ebebddc":8310,"ddfa":8311,"ebceef":8312,"bbfdbbbb":8313,"edcfebb":8314,"bbbbcdee":8315,"ececbbbb":8316,"bccdecc":8317,"decbbed":8318,"bcbcbfc":8319,"bbbbcbbcc":8320,"beccbebe":8321,"bedcdee":8322,"bcbbeccc":8323,"efdbbf":8324,"ebdedbd":8325,"bbdbcf":8326,"dbdfbd":8327,"debbebbc":8328,"abeed":8329,"bfe</w>":8330,"dceebcc":8331,"eccecbf":8332,"ecceced":8333,"bbdbcdc":8334,"dfecbd":8335,"deceebc":8336,"befbccc":8337,"bbbdbbbbbbbb":8338,"dbbcbdc":8339,"adbbbb":8340,"ebeeeed":8341,"fceebf":8342,"becfef":8343,"bbdbdbbbb":8344,"cccbebe":8345,"befeebc":8346,"dccbeee":8347,"dbfbbee":8348,"debbded":8349,"eeecff":8350,"ececded":8351,"bdbcbdc":8352,"edbcdbc":8353,"ebbeeebf":8354,"becbbfc":8355,"eccbbfc":8356,"bbecebec":8357,"ebccefc":8358,"ebccded":8359,"ececbdc":8360,"fbbeba":8361,"bfbbccc":8362,"bfecfc":8363,"ebebebec":8364,"ebeebbbbbb":8365,"bbecdcc":8366,"feebbbf":8367,"bcbcbcbd":8368,"fbdbbbc":8369,"bceeba":8370,"bcee</w>":8371,"ebeebbebe":8372,"ebcebfc":8373,"ebcbebec":8374,"becbebbbb":8375,"bbfeebd":8376,"fedbbbb":8377,"eedcebd":8378,"cccccccccccc":8379,"becfebc":8380,"bbdeccc":8381,"dbdbbed":8382,"bbddeec":8383,"edcceec":8384,"bfecdf":8385,"fcbfcc":8386,"ecceddd":8387,"bccdbec":8388,"babbcc":8389,"dbbebecc":8390,"dbddbbbb":8391,"beecbbee":8392,"febeef":8393,"bdbcbbbd":8394,"bdebbbbbb":8395,"ebebbeec":8396,"ffbbed":8397,"bfcbeebb":8398,"dbfdec":8399,"beccbbbc":8400,"debedbc":8401,"aeccc":8402,"edbbdcc":8403,"ebceebbc":8404,"bebceebd":8405,"bbecbeebb":8406,"bbefccc":8407,"dbbdef":8408,"ecee</w>":8409,"eccda":8410,"dbceeec":8411,"feebbebe":8412,"ebccfec":8413,"eebebbed":8414,"dbccdd":8415,"eceedec":8416,"bacea":8417,"edf</w>":8418,"becbcdc":8419,"beeedcc":8420,"fccbecc":8421,"fdcdbe":8422,"ecfea":8423,"bbdbdbf":8424,"dffebb":8425,"bbfbbdc":8426,"ffda":8427,"bbccdcc":8428,"bdbeded":8429,"dcdefc":8430,"bbccbeee":8431,"bcbeac":8432,"bfebbbf":8433,"efbdec":8434,"bbcdebd":8435,"beceeebb":8436,"dfbbef":8437,"bbffdd":8438,"fffebb":8439,"dbdbcbc":8440,"bceebcbc":8441,"dbbdfc":8442,"ecbdedc":8443,"ecbd</w>":8444,"efdccc":8445,"ebeeebeee":8446,"bbbcdef":8447,"dbcbeed":8448,"dbdbbebb":8449,"bbbddcc":8450,"bebcdcc":8451,"beebbbeee":8452,"bdbddbe":8453,"edccebc":8454,"ebbeeccc":8455,"bdbbfcc":8456,"eecfdd":8457,"bada":8458,"ffffc":8459,"bbccfec":8460,"dbfdcc":8461,"eeeebebf":8462,"eebdfbc":8463,"bceebbebb":8464,"eeddfc":8465,"eddedcc":8466,"ebbefbf":8467,"babbec":8468,"fbeecbc":8469,"debbebf":8470,"dbecdec":8471,"bceeddc":8472,"fbfbbbe":8473,"bcecbef":8474,"eeecbbd":8475,"abced":8476,"bbcfbec":8477,"eecbeebe":8478,"bdcebdc":8479,"beccfbc":8480,"debcded":8481,"bbfcdee":8482,"dbbdebe":8483,"bffbbbe":8484,"edeebdc":8485,"bccdeec":8486,"dbffcc":8487,"bbebebebc":8488,"bdbdbbbd":8489,"ecbdbbbb":8490,"edfbbbc":8491,"effbcc":8492,"bbcbdbf":8493,"dbebbdc":8494,"bcfdbbc":8495,"bcfdfc":8496,"bbbbbbbbbbbbbbc":8497,"bcecff":8498,"bdecfc":8499,"bdcfbf":8500,"eeebbebf":8501,"dcedbc":8502,"eeceeed":8503,"eadec":8504,"beecfec":8505,"fbdfee":8506,"deffbc":8507,"fdcbcc":8508,"fdcfec":8509,"bdbcbebe":8510,"bebbbfcc":8511,"efebfc":8512,"ebebded":8513,"ddfbbc":8514,"ebecbfc":8515,"eeccdcc":8516,"debcff":8517,"dabbbb":8518,"bebfbcc":8519,"bcebebbbb":8520,"bbebd</w>":8521,"dceeecc":8522,"ebcfa":8523,"bbfbbfc":8524,"efceebc":8525,"beecbedc":8526,"beccebf":8527,"eebdbbbe":8528,"ebabbbb":8529,"adebe":8530,"ddbcbe":8531,"ebcbfcc":8532,"bccbbbcc":8533,"deefec":8534,"bebcfed":8535,"feebbbd":8536,"fbedfc":8537,"ddcbbbc":8538,"bcecbbec":8539,"ffcfc":8540,"ccccccccccc":8541,"ebbbedee":8542,"dcbfbf":8543,"bbfdfc":8544,"feeedc":8545,"eeeedbc":8546,"bebdded":8547,"ebdcdec":8548,"dbbdbbbd":8549,"bdeedec":8550,"eedc</w>":8551,"ebbcfbd":8552,"dbdeebc":8553,"dbfbeec":8554,"bbbbcebd":8555,"ebdcbbbb":8556,"beefbbc":8557,"efbcdd":8558,"ffecbc":8559,"beccbbd":8560,"bbefbebe":8561,"fdcebe":8562,"bdeebbee":8563,"edeeebd":8564,"ddfebe":8565,"edcfebc":8566,"bfceecc":8567,"beeebbec":8568,"beebbfc":8569,"eeecded":8570,"bedcebd":8571,"ecebbbbbb":8572,"ecdbbdc":8573,"ebceddc":8574,"ebfdbbc":8575,"bdcbccc":8576,"cccfbc":8577,"efcfed":8578,"ebccbebc":8579,"bebfdf":8580,"bedcbbbb":8581,"ecdbbebb":8582,"efbdebb":8583,"bcceeebb":8584,"bbdbcbbc":8585,"bebedebb":8586,"efcbbee":8587,"efcbbcc":8588,"acdbc":8589,"beebbeeee":8590,"bddac":8591,"cccddc":8592,"ebbcddc":8593,"befebcc":8594,"beeefbc":8595,"fecdebb":8596,"beebbbbbc":8597,"eeecebd":8598,"ecdbfcc":8599,"effbec":8600,"feebbcc":8601,"beecba":8602,"debcdbe":8603,"dbbbbdbe":8604,"eedcedc":8605,"bbebdbbbb":8606,"bfbbbdc":8607,"ebdbebbbb":8608,"bbebebbebe":8609,"dabea":8610,"bdbebbed":8611,"adbec":8612,"bdbbea":8613,"bcceebe":8614,"fffdd":8615,"dbbdced":8616,"bebceecc":8617,"bcbdbbf":8618,"beefef":8619,"dcfdee":8620,"bbcfebe":8621,"ffbecc":8622,"ffdfc":8623,"dbbecbec":8624,"dbbecebe":8625,"befbeebe":8626,"efcfcc":8627,"eeeeecc":8628,"eefebec":8629,"ebcbeebc":8630,"bbdecbe":8631,"befac":8632,"defeec":8633,"debebbbc":8634,"bcccdcc":8635,"bcbfbbbb":8636,"ddbded":8637,"bbceedd":8638,"eccbbebe":8639,"ebfbbebe":8640,"bcbcba":8641,"fecdfc":8642,"debcbbf":8643,"bbddfc":8644,"bceebbed":8645,"ebfcdf":8646,"abcf":8647,"aeebf":8648,"edeeeec":8649,"ebbfbfc":8650,"dddedc":8651,"bebebebbc":8652,"eadbf":8653,"eeebbbbee":8654,"ecbfecc":8655,"bddbccc":8656,"edbbba":8657,"deedef":8658,"befdef":8659,"ddcebf":8660,"ebdcbcc":8661,"febbbec":8662,"febbeec":8663,"ecbddbe":8664,"eceeebd":8665,"bddebdc":8666,"ebcbcfc":8667,"bbbfba":8668,"fbddcc":8669,"eefdebb":8670,"eeecdcc":8671,"febebebe":8672,"fbbcbbbb":8673,"bbdbefc":8674,"bdcdeec":8675,"fefebe":8676,"bdeb</w>":8677,"bfbdbe":8678,"edeedee":8679,"eddebdc":8680,"ebfeebf":8681,"bdceeee":8682,"ebbcbbebe":8683,"dbbdcbd":8684,"bbccbccc":8685,"eeccfec":8686,"febbdbc":8687,"ecec</w>":8688,"ddbcebb":8689,"fcfebc":8690,"ebdeebf":8691,"eecfebc":8692,"ebfdef":8693,"ebfbbef":8694,"ffbbdc":8695,"decdecc":8696,"eafbc":8697,"ecccdbe":8698,"debeecc":8699,"bedcebe":8700,"bdbcecc":8701,"eefcccc":8702,"bdbc</w>":8703,"bfdced":8704,"ebdbcbe":8705,"eecfa":8706,"eebdbbd":8707,"dbecdbc":8708,"bffbebe":8709,"dcbca":8710,"efdbdc":8711,"fcbeef":8712,"ebdecbe":8713,"bccbbebc":8714,"ebffdd":8715,"deedbbc":8716,"deecccc":8717,"bfcebcc":8718,"dbddbbd":8719,"eaac":8720,"eccdccc":8721,"eecbcee":8722,"dfdebe":8723,"bbbcbebf":8724,"bbbcbbbcc":8725,"cccbcbc":8726,"dedbecc":8727,"ebecbbcc":8728,"bebbcbec":8729,"edbcdbe":8730,"eebeeecc":8731,"eedbbfc":8732,"edebdcc":8733,"edfdbd":8734,"edeedcc":8735,"efbfcc":8736,"bbcbebec":8737,"bdcdebc":8738,"bdceedc":8739,"bbeeefc":8740,"ddcfcc":8741,"dbbbbbcc":8742,"bfc</w>":8743,"bfdedc":8744,"dde</w>":8745,"ddbcbf":8746,"ebcbcebc":8747,"eecedcc":8748,"dbdbbcc":8749,"ebbecdbe":8750,"ebcecbf":8751,"bbcbcef":8752,"edcfbf":8753,"dbdb</w>":8754,"beeebbef":8755,"bcbddbc":8756,"fdcecc":8757,"ffcef":8758,"fbbedcc":8759,"afebe":8760,"ebbbeedc":8761,"eecbbebc":8762,"dffef":8763,"feebbebb":8764,"fbdbef":8765,"bfbeeec":8766,"ebbbedbd":8767,"ebcbcef":8768,"eecbbfc":8769,"ebffebe":8770,"deeac":8771,"efcbbec":8772,"deddbf":8773,"eebebbdc":8774,"bcccebe":8775,"dbecebe":8776,"eeefef":8777,"fbbbbbbbe":8778,"abcebb":8779,"ebbbeccc":8780,"efbcbbbb":8781,"ddecbe":8782,"bdcdebe":8783,"decbedc":8784,"dedebbc":8785,"bebbbbbebbbb":8786,"bffbdc":8787,"edeceec":8788,"edbedec":8789,"bbcbefc":8790,"ffbebd":8791,"befdfc":8792,"bebcbbed":8793,"bbebbfbc":8794,"eeeebbef":8795,"eeccbbd":8796,"bbbecdbe":8797,"ecfac":8798,"fddfc":8799,"ebbfdbb":8800,"bbbebbdd":8801,"dbddebe":8802,"bbecbeed":8803,"bcbcebbc":8804,"beecfbc":8805,"bceedbf":8806,"dfcccc":8807,"bbeebecc":8808,"dedefc":8809,"fccbbbc":8810,"bbbecbbbe":8811,"edfdec":8812,"ebbdded":8813,"efbbebd":8814,"fceef":8815,"ebdbeebe":8816,"dfbcbe":8817,"bbfdebe":8818,"bdceeed":8819,"ebecba":8820,"ebcceebc":8821,"ecbcbeec":8822,"febbebc":8823,"dbbdbec":8824,"eedda":8825,"fbbebbcc":8826,"fdf</w>":8827,"dcdfcc":8828,"bbbbeebbbb":8829,"bccdbcc":8830,"eecdbbbb":8831,"dbcbbbf":8832,"bfcfed":8833,"decbcec":8834,"bbbdbeec":8835,"bbecbbbbc":8836,"ebecebf":8837,"ebccebbc":8838,"deecded":8839,"eeefa":8840,"ebbbcbbd":8841,"bdbe</w>":8842,"efbdbc":8843,"efbeebc":8844,"ebebdbf":8845,"ebebebbf":8846,"ebebebbee":8847,"ddbeebe":8848,"dfedcc":8849,"beebbbbebb":8850,"bebbbbbebe":8851,"bdfea":8852,"edbcedc":8853,"bcfcccc":8854,"ddeced":8855,"ebdecec":8856,"bcceef":8857,"bccfbbc":8858,"bdcbbbf":8859,"bbeebbef":8860,"beeebeef":8861,"bcccedc":8862,"dbecff":8863,"bdfbbcc":8864,"ebbbcbebe":8865,"efbcebe":8866,"efbcbec":8867,"fcbcef":8868,"eccbcbe":8869,"bbfbeed":8870,"bbfbebbc":8871,"cccebf":8872,"dbdefc":8873,"fbdba":8874,"bdeeeecc":8875,"fcbeebe":8876,"eccfef":8877,"eecbcbf":8878,"dffbbc":8879,"decdebc":8880,"dbdfec":8881,"dbddbbc":8882,"feebeebe":8883,"bbdcedc":8884,"eebeefc":8885,"bdecdbe":8886,"ecfedcc":8887,"ebeeebbee":8888,"fcdbdc":8889,"fcbded":8890,"ebdbbebc":8891,"ebdfa":8892,"bbbebebbbe":8893,"bbbcbcbbbb":8894,"fbcbbcc":8895,"ebccbbbd":8896,"bcccdbc":8897,"eceefcc":8898,"bcebac":8899,"edfdcc":8900,"ebbecdf":8901,"bebcbbbf":8902,"fbedebc":8903,"ecbedebb":8904,"fddff":8905,"febebbbb":8906,"bfeded":8907,"edfbfc":8908,"ebbbebbec":8909,"fcbcdd":8910,"bccbdcc":8911,"bbbcfed":8912,"bbfcbbf":8913,"bedcded":8914,"bfbedf":8915,"dceac":8916,"bdcbbdd":8917,"bbbcbbbec":8918,"bfcbeee":8919,"eeeebbbf":8920,"ecccdbc":8921,"eedcbbc":8922,"bcedccc":8923,"bbcbbcbbcbbc":8924,"edfbef":8925,"bbdeced":8926,"bbdfbec":8927,"bdcfebb":8928,"befbcec":8929,"bbebbbebd":8930,"eeeeebc":8931,"bcbedef":8932,"ffcbbc":8933,"ebbeebbec":8934,"bedebecc":8935,"eebbeba":8936,"ecdbbef":8937,"bfbebbbc":8938,"ebbfdee":8939,"dcbbbdc":8940,"ebdbebec":8941,"bccbcdc":8942,"bbbcbebbbb":8943,"bebefbd":8944,"dbbbda":8945,"feebbef":8946,"bbedebbc":8947,"edebbebe":8948,"ebbeca":8949,"ebbeceec":8950,"ebbbbebec":8951,"dcdbfc":8952,"ebedbbbe":8953,"becfdd":8954,"dfbcbf":8955,"deebeebb":8956,"cccfec":8957,"bbeebebbbb":8958,"bebcebec":8959,"ddcbbbd":8960,"eedcdbe":8961,"bddd</w>":8962,"ebbdba":8963,"bbbeac":8964,"bbffebe":8965,"bbeeeeebe":8966,"beccebbc":8967,"ecbcbef":8968,"ffcff":8969,"abedc":8970,"dcbcbcc":8971,"eecbbef":8972,"ebfeecc":8973,"edcbbbf":8974,"bfcbbebb":8975,"decebcc":8976,"bebcfcc":8977,"efcbebd":8978,"bbecba":8979,"dbecbcc":8980,"bcbdff":8981,"bfeeebc":8982,"edecdbe":8983,"fcbbbec":8984,"bbeeded":8985,"bbeebba":8986,"bbedecc":8987,"fdcded":8988,"eedbbef":8989,"eedefcc":8990,"dcbbccc":8991,"ebebcdd":8992,"ebdbbfc":8993,"dfeeee":8994,"bbfbbebc":8995,"ebfbeebe":8996,"befbeed":8997,"eada":8998,"feebeebb":8999,"bdbcff":9000,"dbbbcbbbb":9001,"beeacc":9002,"bfbcbcc":9003,"bffebf":9004,"dcfdbc":9005,"ebdeeebb":9006,"bbbebba":9007,"bbfda":9008,"ebdcbdc":9009,"fedbfc":9010,"dfcff":9011,"dbecbbbb":9012,"bceebbcc":9013,"debddbe":9014,"fdebecc":9015,"efbddc":9016,"ebeeebebe":9017,"ebdbbbec":9018,"bbdbddc":9019,"bbbcdebe":9020,"dbbbfbd":9021,"bebcbeed":9022,"fbcebec":9023,"bbebeebc":9024,"ecbeeccc":9025,"eeecdbbc":9026,"eebcbccc":9027,"bfedbc":9028,"ebbddbd":9029,"effbbbb":9030,"bbcbded":9031,"bbbebcbf":9032,"bbbddbf":9033,"bebcefc":9034,"eebcfec":9035,"dfcbbbb":9036,"dbbbbbbbbc":9037,"bddbbebb":9038,"ebbfdbd":9039,"dcbac":9040,"ddbfcc":9041,"becbefc":9042,"eecfbbc":9043,"dfbdbd":9044,"dfbdcc":9045,"dbddef":9046,"beeeedc":9047,"bcbcedc":9048,"fccfee":9049,"beecedc":9050,"eeebeeeebe":9051,"dcfbdc":9052,"ebebcfc":9053,"ebfbbbbc":9054,"bdcbdbd":9055,"bebeeeebb":9056,"bbbfebbc":9057,"fccebbc":9058,"beecbbbd":9059,"beecbebd":9060,"fbfebc":9061,"ecbddbc":9062,"bdbedebb":9063,"eebacc":9064,"aeeebb":9065,"becdbbd":9066,"becbdcc":9067,"bbdeebbc":9068,"bbbebeed":9069,"bbfbcec":9070,"baebbc":9071,"bbeeeebc":9072,"bbeefebb":9073,"feefbe":9074,"bebecbbc":9075,"dcecdec":9076,"aeeec":9077,"dcbfbd":9078,"fcfa":9079,"eecfecc":9080,"dfebdc":9081,"bbbebcbbbb":9082,"bebcebcc":9083,"beccbfc":9084,"debcecc":9085,"bcbebbdc":9086,"bbfcbcc":9087,"dcbebbf":9088,"ddbcf":9089,"fcfbec":9090,"becbeef":9091,"bbbeecbc":9092,"ebfbeef":9093,"bbbcddc":9094,"cccbbee":9095,"efcddc":9096,"beeebfc":9097,"bbebbbbcc":9098,"bcccdbe":9099,"bceddec":9100,"eebbb</w>":9101,"dcebbebb":9102,"bbcbdcc":9103,"bbdfa":9104,"bbbcea":9105,"dbcbbdc":9106,"beecebbc":9107,"ecccded":9108,"bedcff":9109,"fdda":9110,"febeff":9111,"ebeeebbbe":9112,"ebcbbebd":9113,"dbbdcdc":9114,"befbecc":9115,"ebecfec":9116,"eeeeeebf":9117,"deecef":9118,"deecdbe":9119,"bedcecc":9120,"ecbda":9121,"ecececec":9122,"bebbbbbbf":9123,"bcdd</w>":9124,"ddbba":9125,"ebcfbec":9126,"bbbeeebd":9127,"bbbcbcbbc":9128,"dedbcec":9129,"feebeef":9130,"bcbebbebe":9131,"fbfdbe":9132,"deccbec":9133,"ecbdef":9134,"bdeedbd":9135,"bdecbcc":9136,"ecdebfc":9137,"bfebecc":9138,"edbebfc":9139,"dcbedee":9140,"ebebcbec":9141,"bfcbbed":9142,"efcdebc":9143,"fbcddc":9144,"ebecbef":9145,"fbeda":9146,"ecccff":9147,"bbdcbbdc":9148,"dfceec":9149,"fdcdbc":9150,"dedceec":9151,"bfeddd":9152,"bbbbbcf":9153,"dfeebd":9154,"dcceebd":9155,"bbdcecc":9156,"ecbbeccc":9157,"bbbbbced":9158,"bbdbeebc":9159,"edcdbcc":9160,"badbf":9161,"beebbff":9162,"ebbeebec":9163,"bbbbbbbdc":9164,"bccdbbbb":9165,"dfbbbbc":9166,"dccbcbc":9167,"bbebbbcbc":9168,"bbebbbbebe":9169,"bebdebbc":9170,"bbddebc":9171,"eeecbebe":9172,"ecdbbebe":9173,"becbbbcc":9174,"eccbcbf":9175,"bbdbebec":9176,"deeecbc":9177,"deedbec":9178,"befbcbd":9179,"fbcbbbf":9180,"feebebf":9181,"bcbebbbec":9182,"ecbdbdc":9183,"bcec</w>":9184,"ddbcef":9185,"bbdbdebb":9186,"bbbeebbebb":9187,"edcda":9188,"baded":9189,"bbeebebf":9190,"bfcddc":9191,"bceebbbd":9192,"bfecebc":9193,"efbbecc":9194,"ebeeebbc":9195,"bbbebdbd":9196,"ebecfee":9197,"dfcdec":9198,"dbbbbbec":9199,"fbfbbbc":9200,"edccdd":9201,"bdeeebd":9202,"bdbefcc":9203,"ebbdcdd":9204,"bbcbeebc":9205,"ebfecbc":9206,"bebefbe":9207,"dbbefcc":9208,"dbbebbbbc":9209,"dcceedc":9210,"bbbdb</w>":9211,"beeebebf":9212,"eefebcc":9213,"abeef":9214,"bfbcbbd":9215,"ebebdec":9216,"ebebebbd":9217,"ebcecebb":9218,"bbfbba":9219,"dbcea":9220,"dbbecbbbb":9221,"decdebe":9222,"dccfbd":9223,"bebcbedc":9224,"bebdebf":9225,"fedecc":9226,"eeecfec":9227,"ddeddc":9228,"dbebbdd":9229,"deebced":9230,"bebedbbc":9231,"bbccded":9232,"eebeeccc":9233,"bcfbbbbc":9234,"bdfdebb":9235,"dcdebbc":9236,"fcbbbcc":9237,"eecbdcc":9238,"bfcbbbf":9239,"dbbdded":9240,"dccbbbd":9241,"bbeceebc":9242,"bcbedebe":9243,"dfcbbf":9244,"bebbbbbbee":9245,"ebbeebcc":9246,"bfd</w>":9247,"bfbeebd":9248,"dcfebf":9249,"efeced":9250,"bbcbbeec":9251,"eccefcc":9252,"bceebecc":9253,"fbbbbbbf":9254,"abbba":9255,"ecdb</w>":9256,"dcbeff":9257,"bccbbbec":9258,"bbbcfbe":9259,"eadbd":9260,"bbdcbbbd":9261,"ecbebbed":9262,"ebbbcdee":9263,"eeeeeeeeeeeeeeee":9264,"ecfcccc":9265,"edfbbee":9266,"edbeebbc":9267,"ebbdcbc":9268,"eecbcebb":9269,"bdcbbbbc":9270,"fbcbbed":9271,"bbebcdf":9272,"edbdfc":9273,"ddbeef":9274,"ebcb</w>":9275,"bbcdbfc":9276,"edcecec":9277,"babbed":9278,"dbbbac":9279,"eabbbd":9280,"eebcbbbd":9281,"debcebd":9282,"bcbedbbc":9283,"bcbdbbbc":9284,"febbbebe":9285,"bbbccbbbcc":9286,"edeebbbe":9287,"dcbbedc":9288,"bbbbeeec":9289,"efeebbc":9290,"efbcebc":9291,"ffbebf":9292,"ebbceecc":9293,"dbbedbbc":9294,"debbbbebb":9295,"bbbfbbec":9296,"ebdcedbbec":9297,"bbdcbebe":9298,"abeebe":9299,"abebbc":9300,"bfeac":9301,"bfbebdc":9302,"ebbdefc":9303,"dcdeecc":9304,"fceeebb":9305,"eccbbef":9306,"dbcdbbc":9307,"fbceecc":9308,"fbdefc":9309,"dbcceec":9310,"ebcebbcc":9311,"dfbeed":9312,"dbebebf":9313,"bdcdbec":9314,"bbeefbf":9315,"bebcbcbd":9316,"ebecbecc":9317,"debbbbec":9318,"fedddc":9319,"eeeffee":9320,"edfbebe":9321,"fcfebe":9322,"becbcbbc":9323,"ebdbcbf":9324,"bbbedebe":9325,"ebfeef":9326,"edcbbebb":9327,"bbbcbbef":9328,"dbfdbf":9329,"dabda":9330,"bbfcdd":9331,"bcedeec":9332,"beddeec":9333,"ebbbbbbbbc":9334,"bcdebfc":9335,"becbba":9336,"dbcebcc":9337,"bebdfbc":9338,"eeefeeee":9339,"edbbbbcc":9340,"edeebbbc":9341,"bbbbcccc":9342,"ebedccc":9343,"bbfdebc":9344,"ebfeeebb":9345,"dbcbbbbc":9346,"fbedebe":9347,"fecbedc":9348,"edbddee":9349,"bdbcdec":9350,"eede</w>":9351,"beceebf":9352,"eccfebe":9353,"bbdeedd":9354,"bbfbbbec":9355,"ffeccc":9356,"befbbbbc":9357,"acdbf":9358,"bbdcdcc":9359,"bcccbcbc":9360,"eeecdbd":9361,"bebbbbbbbbc":9362,"bfbeff":9363,"ebcdccc":9364,"bbcdecc":9365,"bbdbebbd":9366,"bbbcbebbc":9367,"eebdbebe":9368,"dbdcdd":9369,"eeaa":9370,"bfbeecc":9371,"bbbbda":9372,"bbbbbddd":9373,"bbcebfc":9374,"fcdbbbb":9375,"becbded":9376,"bccecbd":9377,"dfdebc":9378,"dbeeeee":9379,"dbccccc":9380,"eabbec":9381,"fcceedc":9382,"fbdbbee":9383,"feddbd":9384,"bceebeee":9385,"bdbcebf":9386,"bebecbbbb":9387,"bccecbe":9388,"ebbcebcc":9389,"dbbecebc":9390,"eceeeecc":9391,"ebcbcbbbb":9392,"eccfbbc":9393,"cccbebc":9394,"dbcecbc":9395,"efcdfc":9396,"bcbcbbebb":9397,"eeefebe":9398,"bdbbebec":9399,"ecbeeecc":9400,"ebcdbbbe":9401,"fcecbf":9402,"dccbeec":9403,"dbfbebc":9404,"fecbebd":9405,"eceefbc":9406,"edfdbb":9407,"edbebbbd":9408,"ebbdbbcc":9409,"bbbbeebe":9410,"bbbbbdebb":9411,"efecf":9412,"fcbdbf":9413,"becbcf":9414,"ebdbcf":9415,"bccbcebb":9416,"eecbbbec":9417,"dbedebc":9418,"ebfeccc":9419,"ebfeeebe":9420,"dbbebbee":9421,"fedbebc":9422,"deccdf":9423,"eebbcccc":9424,"adebc":9425,"adea":9426,"bfdcdc":9427,"efe</w>":9428,"dbefdd":9429,"ebfeebd":9430,"bbbcebcc":9431,"efcbbbd":9432,"dbfea":9433,"acfa":9434,"ebedbbf":9435,"ebcbddc":9436,"ebcbdec":9437,"bccfebe":9438,"cccbbcc":9439,"bebebcebb":9440,"fecfcc":9441,"bbedbbebb":9442,"eebceecc":9443,"abcbe":9444,"febb</w>":9445,"ebcbdbf":9446,"bccbeef":9447,"bbbebcee":9448,"dbcfdc":9449,"bebeebcc":9450,"bebeddc":9451,"dbbbdfc":9452,"fbfbfc":9453,"bdeebebc":9454,"bbebc</w>":9455,"bfdbfc":9456,"bfecebe":9457,"ebbdcec":9458,"bbbbfebe":9459,"ebefbcc":9460,"bbcfbbbb":9461,"bbdbcdd":9462,"dfbbdd":9463,"ebfbcec":9464,"dadee":9465,"ececbbf":9466,"bcbfbbf":9467,"edcedbd":9468,"dbcbbdd":9469,"bbeebbebc":9470,"decbcbd":9471,"befeebf":9472,"fbcebcc":9473,"bbccfcc":9474,"debbeebc":9475,"bbedbeec":9476,"bcccebd":9477,"beedbebc":9478,"ecfebec":9479,"bcedfc":9480,"ecde</w>":9481,"dcbeedc":9482,"ddfecc":9483,"bbcecbf":9484,"ecceeebb":9485,"dbedbec":9486,"bdcecbc":9487,"edcfbe":9488,"bbeefbd":9489,"decdbec":9490,"beeebba":9491,"edebbee":9492,"dcbcbbd":9493,"ebcfebd":9494,"bdcac":9495,"bdcfdd":9496,"ffbcec":9497,"eaebd":9498,"fbcbecc":9499,"bbccbbbbc":9500,"daebe":9501,"fbfdbc":9502,"bcdbfcc":9503,"ebbbbdcc":9504,"ebbfebbc":9505,"fcbeecc":9506,"deebeed":9507,"dbbddcc":9508,"dccebbc":9509,"ecbcebbc":9510,"eeccfcc":9511,"eeecbfc":9512,"bceebccc":9513,"bced</w>":9514,"ebcbedbe":9515,"bbfeebf":9516,"bdcbebf":9517,"bdcffc":9518,"bbbceebd":9519,"bebdbfc":9520,"eefbba":9521,"bbbccbcc":9522,"bdbcbbee":9523,"bffdbc":9524,"ddbbebc":9525,"ebcbebcc":9526,"bbbedef":9527,"dbebebbc":9528,"bedcedc":9529,"bcdcdf":9530,"bdfbeee":9531,"bfddcc":9532,"ebebdebb":9533,"dccbecc":9534,"dccfdc":9535,"fbecccc":9536,"bbedbfc":9537,"eefdbbc":9538,"dbbdbbbe":9539,"fafc":9540,"abbfc":9541,"ebbbeba":9542,"ebfbbdc":9543,"bdcbced":9544,"cccbef":9545,"cccfee":9546,"dbbbbdbd":9547,"ebbbcdf":9548,"edebeebb":9549,"ebcbcebe":9550,"ebcfeec":9551,"bbbebbfc":9552,"dbebcebb":9553,"baeba":9554,"ffbcf":9555,"ebecbeec":9556,"dbbbbbebe":9557,"bceefcc":9558,"bfebbbbbb":9559,"ddfebc":9560,"fcbcfc":9561,"bbdbdbc":9562,"bbbedebc":9563,"bdcbedd":9564,"dedfec":9565,"bbecbedc":9566,"fbcbeee":9567,"eebdbebc":9568,"febbbcc":9569,"bdbddee":9570,"bcbfa":9571,"edccedc":9572,"fa</w>":9573,"beebb</w>":9574,"dcefdc":9575,"efbebcc":9576,"ddcbfc":9577,"bbbfbeee":9578,"bbebebef":9579,"eebddbd":9580,"daef":9581,"ecdceec":9582,"eceedbf":9583,"eceddf":9584,"ebebbbbbbbb":9585,"ddecbf":9586,"becbfcc":9587,"bebeeeebe":9588,"eabcec":9589,"bcbcbeee":9590,"ddcbebe":9591,"fecbbee":9592,"bbefdee":9593,"dbbdbcc":9594,"bdbedbf":9595,"ecebbbbc":9596,"eeefbeee":9597,"edbcdec":9598,"ecebac":9599,"bfeebcc":9600,"bfefbf":9601,"edefbf":9602,"ebebebcc":9603,"bbfbeef":9604,"ebfbedc":9605,"bbbcbbebc":9606,"ebccbbec":9607,"fbdebbc":9608,"fededc":9609,"bdbddf":9610,"bdecdbc":9611,"bbbbdbbbe":9612,"ebdeddc":9613,"bbffbbc":9614,"babbbbc":9615,"bbbcbedc":9616,"dccdef":9617,"bcbddbd":9618,"ecddecc":9619,"bcbcbcbcbcbcbcbcbcbcbcbcbcbcbcbc":9620,"bddbbed":9621,"dcbebbbe":9622,"bccbcbbc":9623,"eecbcdd":9624,"ddcefc":9625,"bbbfdec":9626,"acac":9627,"beccfcc":9628,"ecbcecbc":9629,"edbdecc":9630,"bbbbeebf":9631,"ebebbebf":9632,"ebcbbeec":9633,"ebdeebbc":9634,"eecbcbe":9635,"bbeefcc":9636,"beecbef":9637,"eebcfcc":9638,"bebdbbec":9639,"ecdcedc":9640,"eceeff":9641,"eeeacc":9642,"bfdbbee":9643,"bbbbbedd":9644,"bbbbbebec":9645,"efeedd":9646,"efbfbf":9647,"becebbcc":9648,"ebdbddd":9649,"bdcbbebe":9650,"dbbecdf":9651,"dbbdcdd":9652,"bbbdbeebb":9653,"debeedc":9654,"deccecc":9655,"ecfbbbf":9656,"fefbcc":9657,"bcdcfc":9658,"ddccccc":9659,"adbbd":9660,"dcbbbbbbbb":9661,"efbebec":9662,"dddcdd":9663,"bbdecbf":9664,"bbfbcf":9665,"ddcfee":9666,"defdec":9667,"ebdcdbc":9668,"bcecdcc":9669,"eceebbcc":9670,"eebbbbbbbe":9671,"bfbebbee":9672,"ebebbecc":9673,"fcbcbbc":9674,"bbbdbcbd":9675,"deddbec":9676,"fbcfdc":9677,"bcbcfec":9678,"bedddf":9679,"bcbbbdcc":9680,"bfeebbbe":9681,"badebb":9682,"bbeeebcc":9683,"fecdebc":9684,"ecbedef":9685,"bdbdbbd":9686,"bdecdec":9687,"dcebbed":9688,"efebbcc":9689,"bccbbfc":9690,"eeceebf":9691,"bbfbebbbb":9692,"bdcbeebb":9693,"cccefc":9694,"befdbbc":9695,"dccbbcc":9696,"fecebf":9697,"bbdcdec":9698,"ecbebbbf":9699,"bdbda":9700,"ebbeebbebe":9701,"bdbebecc":9702,"eddbccc":9703,"ebbdcbf":9704,"ddfbec":9705,"ebcdbbf":9706,"eccbcf":9707,"ebddbdc":9708,"ebdbcdd":9709,"bebeebec":9710,"befecbc":9711,"dedbbcc":9712,"beeeeeebb":9713,"bbebbfee":9714,"bcbcbbbbc":9715,"fccdbd":9716,"beeceecc":9717,"deecdbc":9718,"ecdcdcc":9719,"dcbeccc":9720,"bbcbcdd":9721,"bccfebc":9722,"eecbeef":9723,"bbdc</w>":9724,"dbedbbbb":9725,"bbbcfebb":9726,"deefbd":9727,"beeceebc":9728,"beebbebf":9729,"ebbbcbbbd":9730,"ebedbdc":9731,"ebeeced":9732,"bbceebbc":9733,"bdcbcec":9734,"edcbced":9735,"eabfc":9736,"fccfdc":9737,"bebddebb":9738,"defbfc":9739,"dabcc":9740,"ebbbcebd":9741,"ebbececc":9742,"ebbbebfc":9743,"ebeebbcc":9744,"bbcbbebd":9745,"dbebbebc":9746,"dbbecfc":9747,"dbddddd":9748,"bbddccc":9749,"eedcbcc":9750,"eeddecc":9751,"ebdbddc":9752,"bbfbcebb":9753,"bbeeebec":9754,"dccdebb":9755,"fbfebf":9756,"dedcdf":9757,"ecbcbccc":9758,"edffcc":9759,"bbbbdebc":9760,"efbdf":9761,"bbcbcebe":9762,"ecceef":9763,"bbde</w>":9764,"bcbdbbbe":9765,"ecbdbcc":9766,"eedcdec":9767,"edeebbf":9768,"edebbef":9769,"ebbfdec":9770,"bbbbeecc":9771,"ebeeedd":9772,"bbdecdc":9773,"baeeee":9774,"bafbd":9775,"bbeedbbc":9776,"fbcbedc":9777,"beecbbcc":9778,"ecbeebec":9779,"fbfbebe":9780,"beebbccc":9781,"eeecbecc":9782,"eddcecc":9783,"dcecded":9784,"aeebe":9785,"eebbebfc":9786,"efbdee":9787,"efdced":9788,"ddbebbc":9789,"ebcefcc":9790,"becdbdc":9791,"feebbec":9792,"ebecdebb":9793,"debbbfc":9794,"fedbebe":9795,"bcbdbebe":9796,"beebbbeebb":9797,"eccbbebc":9798,"ebdbbebd":9799,"bafcc":9800,"dbbedebb":9801,"bbbdbbdc":9802,"bbbbcdbd":9803,"ecbcebf":9804,"bcecdbd":9805,"ecdddd":9806,"ebcbdbc":9807,"becfbec":9808,"bbdebfc":9809,"dccbccc":9810,"bebcbbebe":9811,"bbbfbcbc":9812,"eceebbec":9813,"edbcfbc":9814,"bcbacc":9815,"bffdee":9816,"bbcfebc":9817,"eecbeebc":9818,"bbfbcee":9819,"bbfffc":9820,"bbebcfc":9821,"bbfcff":9822,"dcecdbe":9823,"eecbefc":9824,"bbfbbdd":9825,"edcfdd":9826,"bbbcbcebb":9827,"fbcea":9828,"ebccddc":9829,"ebccfcc":9830,"ecccfcc":9831,"eeccebbc":9832,"bbeffee":9833,"bcbddec":9834,"beeddbd":9835,"febbebf":9836,"dcccdd":9837,"eeebebef":9838,"bdbbb</w>":9839,"bbcedbd":9840,"dccbbec":9841,"bbbdebec":9842,"bbeddebb":9843,"beecfee":9844,"ecbcfcc":9845,"bbabbd":9846,"eeecbebc":9847,"eeecfbc":9848,"eceebcbc":9849,"eebbbdcc":9850,"bfbbbfc":9851,"bbbbbeef":9852,"bccb</w>":9853,"babebd":9854,"ffeebc":9855,"bfcfbe":9856,"efcbedc":9857,"eeeeeec":9858,"acbbbe":9859,"ecbddec":9860,"bcbfdf":9861,"aebdc":9862,"abdcc":9863,"dcbbebf":9864,"edceebf":9865,"ffdbec":9866,"dbcdfc":9867,"acbdc":9868,"bcfdebe":9869,"bdeddee":9870,"ebeefcc":9871,"edceced":9872,"dbcfbf":9873,"dedeecc":9874,"fbebdcc":9875,"bebdeebc":9876,"fbdeebc":9877,"eefbbbbc":9878,"bbefebc":9879,"beebbdd":9880,"edbcbbbe":9881,"dceebbbb":9882,"bbbbbbeec":9883,"eccbcdd":9884,"ebdbba":9885,"bbbcbcbe":9886,"ebccebec":9887,"bceedebb":9888,"bcecbebe":9889,"bfccccc":9890,"ebcdcdc":9891,"fcbbeec":9892,"ebdbeef":9893,"bbecfbd":9894,"eebdebbc":9895,"febbeeee":9896,"abbbec":9897,"ebbacc":9898,"bbbbecebb":9899,"bbcecebb":9900,"fcbbecc":9901,"eecbcef":9902,"dfdbec":9903,"dbbbfdc":9904,"bbccefc":9905,"bbebbdbd":9906,"fbebbebc":9907,"bbedebf":9908,"beecefc":9909,"acecc":9910,"eebedbf":9911,"debebbee":9912,"ebcccccc":9913,"bdebfcc":9914,"dbedefc":9915,"ffbbebe":9916,"bbbcbcec":9917,"dbbbdebc":9918,"bbbdfbd":9919,"bbcceebc":9920,"ebdcbbd":9921,"eebedebb":9922,"bcbdbcbd":9923,"beebbbcc":9924,"bbadbe":9925,"febbfee":9926,"eeecebe":9927,"ececbbd":9928,"bebbcbbbe":9929,"bcdcbec":9930,"dcccdcc":9931,"ebbbceec":9932,"fdacc":9933,"fcedcc":9934,"bdcdecc":9935,"dbcbccc":9936,"bebeeebf":9937,"befbbdc":9938,"defebf":9939,"bebfbbee":9940,"bbfcebe":9941,"fbbcbec":9942,"bebbbcbbbb":9943,"bfbcdee":9944,"aeef":9945,"bfbbedc":9946,"bfbedbe":9947,"bfeebbee":9948,"ebcbcbec":9949,"ebdbefc":9950,"dbdbbdc":9951,"ecbcfec":9952,"ebdcbbbe":9953,"edbcbbd":9954,"bceebecbbecbbdbbc":9955,"bdbbbebbbb":9956,"becb</w>":9957,"bebefec":9958,"bebcfbd":9959,"eebdbbbc":9960,"beebbdf":9961,"bdbdbbbe":9962,"fddbbc":9963,"bcbfff":9964,"bcbbbbbbbbc":9965,"bdecbbbb":9966,"cccccccccccccccccccccccccccccccc":9967,"ebceddd":9968,"ebddbbbe":9969,"bebeded":9970,"bfcbbbbc":9971,"befda":9972,"bbbdfec":9973,"bebcbbbbc":9974,"beecebf":9975,"beecbcbc":9976,"eebeebbebb":9977,"bbddbbbe":9978,"beedef":9979,"ebbbcff":9980,"bfeca":9981,"bccbcf":9982,"bbbdeebc":9983,"bbbddbbd":9984,"bbecdbf":9985,"ecbedbbc":9986,"bedcdbe":9987,"dbccfc":9988,"febebbc":9989,"edbddf":9990,"ebbdbbbd":9991,"ddbbbec":9992,"bccedcc":9993,"edcfecc":9994,"dbcdebc":9995,"fbcfbf":9996,"debbdebb":9997,"bcebbbec":9998,"bdfebcc":9999,"bffbef":10000,"ebefbec":10001,"ebcbddd":10002,"dbbbdbec":10003,"eeeedf":10004,"bbebebbd":10005,"eebebbebc":10006,"beedded":10007,"debdbec":10008,"eeedbec":10009,"ebbeebef":10010,"dceddee":10011,"eddac":10012,"dbcb</w>":10013,"beeefcc":10014,"beccfed":10015,"ecbeea":10016,"bdbdbdc":10017,"ecbdebd":10018,"efccccc":10019,"bfebbebe":10020,"bbbbfdc":10021,"effecc":10022,"ebcbebbd":10023,"dbebcbf":10024,"edcfef":10025,"dbcbedc":10026,"bebedbf":10027,"dbbebbebe":10028,"bebcfebb":10029,"efcfbd":10030,"feefbf":10031,"bbebbbfc":10032,"defdbf":10033,"bbebeebf":10034,"bbddebd":10035,"daecc":10036,"beefff":10037,"eebbcbbc":10038,"dcbb</w>":10039,"ebbcbcbd":10040,"decfbd":10041,"ebecefc":10042,"ddcbcbc":10043,"ecccdbd":10044,"daff":10045,"deecff":10046,"bdbdfc":10047,"ececdbd":10048,"febebbf":10049,"eeebeff":10050,"bdeca":10051,"bcbbebfc":10052,"ebbfbbbd":10053,"ebbbbbbbbbbbbbb":10054,"bbeeeeebb":10055,"bebcea":10056,"bbecebcc":10057,"beccefc":10058,"beedbbbe":10059,"eeecedc":10060,"bbbccbec":10061,"ffca":10062,"fbbcfc":10063,"ebeeddc":10064,"ebcbea":10065,"ebcbdebb":10066,"bbcfa":10067,"eecbebbbb":10068,"dbcbcec":10069,"bebcecbc":10070,"fccbbbe":10071,"bbebebdc":10072,"deecfc":10073,"eeebebeebe":10074,"bdbbebcc":10075,"bfebbed":10076,"bfacc":10077,"ebbfbebc":10078,"bbcbfcc":10079,"ebdbfcc":10080,"bafec":10081,"dbcfbe":10082,"bebebba":10083,"bfcbedc":10084,"bbbbcbbbf":10085,"ebdcbbf":10086,"eeccbbbe":10087,"eefeccc":10088,"eefbbdc":10089,"debcbbbe":10090,"bcccdec":10091,"bceefec":10092,"edbdccc":10093,"bdeeff":10094,"bddcdd":10095,"bddeccc":10096,"bbbbfef":10097,"eccbded":10098,"dfbedc":10099,"dbbebccc":10100,"fbcdef":10101,"eeeedcc":10102,"eebcbebd":10103,"bcccbbbc":10104,"fdcbdc":10105,"bbbbbbbbbbd":10106,"bbebcccc":10107,"bebbbbbec":10108,"febebeee":10109,"eeddedc":10110,"dcedbbc":10111,"ebbdebec":10112,"efecdd":10113,"eecbcf":10114,"bbfbcef":10115,"deeebcc":10116,"bfcea":10117,"dbbbfed":10118,"dedbeee":10119,"deecbcc":10120,"ecfdfc":10121,"febebbbe":10122,"bcbbbbbbbd":10123,"bdeedcc":10124,"bdeebbcc":10125,"bbbbbebbd":10126,"dbebdcc":10127,"baddc":10128,"dbceedc":10129,"bebebbdc":10130,"fbcdfc":10131,"eebcefc":10132,"ecbcbbcc":10133,"bdbdbec":10134,"eddbbbd":10135,"dceedee":10136,"dbebcdc":10137,"deefbe":10138,"bbeebcebb":10139,"bebebcec":10140,"dedbebd":10141,"dbffee":10142,"bbbbcbdc":10143,"fbdfbd":10144,"ececebd":10145,"baca":10146,"ecdbbfc":10147,"bfdebbc":10148,"bfebbbd":10149,"ebbdddc":10150,"ebbfbeee":10151,"dceca":10152,"ddebfc":10153,"fcfbcc":10154,"eecdccc":10155,"bbbebbbcc":10156,"bebebbef":10157,"bebefebb":10158,"bebeecebc":10159,"bfcfbf":10160,"dedfee":10161,"deddfc":10162,"ebdcdbd":10163,"debeebd":10164,"bcfbbef":10165,"dbecebd":10166,"debdccc":10167,"eebbedcc":10168,"eedebfc":10169,"ebbdfcc":10170,"bbdecebb":10171,"bbecbbdc":10172,"beecfed":10173,"bbebcef":10174,"eeecbcbc":10175,"bedda":10176,"bbeecbec":10177,"bdbcbef":10178,"eced</w>":10179,"bfeebec":10180,"bbbbecbd":10181,"decbced":10182,"dbdfed":10183,"dbdda":10184,"dbdbcbd":10185,"debbbcbc":10186,"fccfbd":10187,"bcbfbec":10188,"ebbebbbbbe":10189,"bbcdedc":10190,"bbdedcc":10191,"bbdbea":10192,"ebfdfc":10193,"ddcbef":10194,"bbbfbbcc":10195,"eebedbbc":10196,"beedff":10197,"bbabec":10198,"bebfbdc":10199,"deccfc":10200,"eedcff":10201,"ececbbbe":10202,"edbbcdbf":10203,"dcbfbc":10204,"dceeeec":10205,"fbcbcec":10206,"fbeeccc":10207,"bbedfbc":10208,"acbbbc":10209,"bbbbcbef":10210,"fedfec":10211,"bebfbef":10212,"bcebbbbbe":10213,"ecbfccc":10214,"bdeddf":10215,"befcfc":10216,"bcdc</w>":10217,"bdbbbecc":10218,"ebcbebbbe":10219,"eccbddc":10220,"dbdbecc":10221,"dcceccc":10222,"ebecea":10223,"debedee":10224,"dbccef":10225,"ecfdebb":10226,"ecfdbbc":10227,"bcbfbcc":10228,"bcbfdbe":10229,"fbbcdf":10230,"eceebebc":10231,"bdbcbebc":10232,"dcbcdbe":10233,"ebcfbcc":10234,"bbceced":10235,"bbfbcbe":10236,"dbcfebb":10237,"dabec":10238,"bbfcdbe":10239,"bdbebbbf":10240,"ecdebbcc":10241,"edbefcc":10242,"ebcbbecc":10243,"bbbcfbf":10244,"fecebcc":10245,"eebcba":10246,"bebdbeec":10247,"ebdcebf":10248,"bbebeff":10249,"bcbedebc":10250,"eedcbdc":10251,"dbccbcc":10252,"fddccc":10253,"dceeccc":10254,"ddeddd":10255,"bbcebbcc":10256,"eccebfc":10257,"dbbbfbc":10258,"efcea":10259,"dbffbd":10260,"debbbebd":10261,"fbfbef":10262,"bcecebd":10263,"decceecc":10264,"edbcbdc":10265,"bedebccc":10266,"ecbbebdc":10267,"effccc":10268,"bbdbcef":10269,"dbecccc":10270,"bbbceeee":10271,"bbecbbbf":10272,"beeedec":10273,"bbedbef":10274,"bbbbcebbc":10275,"defedc":10276,"bbddddc":10277,"beedbdc":10278,"eeedbcc":10279,"ebbbcbbee":10280,"bfbbebbc":10281,"ebbecdee":10282,"dfbcdc":10283,"bbfbced":10284,"fbcbcbd":10285,"bbccbbebb":10286,"dbffec":10287,"defddc":10288,"debebebc":10289,"bbabcc":10290,"bbbecdee":10291,"ecbdff":10292,"eeebeebf":10293,"dcacc":10294,"eecbcbbc":10295,"eecbded":10296,"bbfbdbd":10297,"bbccbebd":10298,"bcbcfcc":10299,"eebfbbbb":10300,"beddedc":10301,"edbddbe":10302,"eeebebbbb":10303,"faccc":10304,"bdccdd":10305,"bdbcded":10306,"ecbecccc":10307,"ebbfba":10308,"dcecbcc":10309,"dbcbbef":10310,"dbdea":10311,"dabbbe":10312,"bceebebd":10313,"fdcefc":10314,"bcecbbbe":10315,"eedcdee":10316,"bcbfef":10317,"ebcdebf":10318,"fcdbbf":10319,"eccbefc":10320,"eeceba":10321,"eecbbbcc":10322,"eecbfcc":10323,"dbcbeebb":10324,"dbbbfbbbb":10325,"decbeebb":10326,"ddcbbee":10327,"dbfbbec":10328,"fecbbbd":10329,"beccdcc":10330,"eeccded":10331,"bcccbdc":10332,"beadd":10333,"bcdefcc":10334,"dceebbd":10335,"efdedc":10336,"dfbeebb":10337,"dbcbdbd":10338,"bebebcbe":10339,"fbceebd":10340,"beecbeee":10341,"dbbcdbbc":10342,"eefdfc":10343,"bbddbbbc":10344,"ebfcbbc":10345,"bdeebfc":10346,"edbcff":10347,"edbcdbd":10348,"bfdba":10349,"ebbecccc":10350,"effbbd":10351,"fcfecc":10352,"bececdc":10353,"becbeecc":10354,"dbedfc":10355,"bbeebcbd":10356,"bbecfcc":10357,"ebccbef":10358,"bbbfecc":10359,"bbebcdee":10360,"bedcfec":10361,"dbbdccc":10362,"eeebbfee":10363,"eebfebf":10364,"bcbfccc":10365,"bebbbbebe":10366,"febebcc":10367,"bebbbac":10368,"edbebbcc":10369,"fcb</w>":10370,"dfbbebe":10371,"dfbcef":10372,"bbbefbbbb":10373,"dbeecbd":10374,"ebbcbebf":10375,"ebdcdcc":10376,"ebdcfbc":10377,"eeccbbbc":10378,"bbbccbbbc":10379,"ffcdee":10380,"bdecebc":10381,"eccbebbc":10382,"edcbcdc":10383,"ebccbeee":10384,"eeeefef":10385,"eeeefebe":10386,"eebcecbc":10387,"defbbbc":10388,"ecccfbc":10389,"eeccbebc":10390,"bcfbbdc":10391,"bcecbbbc":10392,"eeeddee":10393,"efecbbc":10394,"eccbbbec":10395,"eccbcebb":10396,"bbbefed":10397,"bfcdfc":10398,"feefef":10399,"fbdddc":10400,"bbebebbbd":10401,"dbbcecc":10402,"bcbdbbd":10403,"fdcedc":10404,"eedcebe":10405,"edfcdc":10406,"ddbbfc":10407,"bbfeeebb":10408,"bfcdebc":10409,"bfcdeec":10410,"eaedc":10411,"feeebbc":10412,"ebecebec":10413,"dbfbbcc":10414,"eeeeeebe":10415,"eebcdebb":10416,"bbefbdc":10417,"bbefbbbc":10418,"debddee":10419,"ffcdbe":10420,"eceddee":10421,"bdfbbebb":10422,"bebeefc":10423,"dedbeed":10424,"ebccfbd":10425,"bbbecebe":10426,"fbbcbbf":10427,"bdbeddc":10428,"bddddbd":10429,"bbbabbbb":10430,"fdbac":10431,"bcde</w>":10432,"bffbbee":10433,"ebbbeebbc":10434,"ebbbebbebe":10435,"dddbbf":10436,"bebebeed":10437,"ebccbcbc":10438,"bbbfbbbbc":10439,"eebcbeec":10440,"defebd":10441,"ecbcbbbd":10442,"eefda":10443,"febbbbee":10444,"dbbdbbf":10445,"febebbee":10446,"bfebccc":10447,"bffbbbc":10448,"dcecccc":10449,"bbbbdbec":10450,"beceebe":10451,"ebfbeed":10452,"ffbbbbc":10453,"eaddc":10454,"efcbeed":10455,"dabdc":10456,"bbebcbbbc":10457,"edecdee":10458,"edfefc":10459,"efc</w>":10460,"ddbdbf":10461,"fcfdf":10462,"eececec":10463,"dbebebbbb":10464,"befdbec":10465,"bbecfed":10466,"beeefbe":10467,"beccbebd":10468,"defbbbe":10469,"debcbebc":10470,"bbfcebc":10471,"ecbdebe":10472,"eeebebbf":10473,"bcbbebbcc":10474,"fdebccc":10475,"edfbebc":10476,"dcfbbbe":10477,"bbcbdbc":10478,"fcecbe":10479,"becbebcc":10480,"bccecbf":10481,"bbdbebbbe":10482,"decdfc":10483,"fbcbccc":10484,"bbccba":10485,"dbfbcbc":10486,"beccebcc":10487,"ecbcddc":10488,"bfbcbbbe":10489,"bbbbbcbbd":10490,"fcbba":10491,"ebdfecc":10492,"bbdbbbdc":10493,"dbceebe":10494,"dccba":10495,"fbfbbee":10496,"bcecbfc":10497,"eeeceecc":10498,"ededccc":10499,"ebbbbea":10500,"dcebbee":10501,"dcbdbbbb":10502,"bbcecdc":10503,"dffa":10504,"dbbdcbc":10505,"bebcdbf":10506,"beeebbbbc":10507,"beecdbf":10508,"defdbd":10509,"ecccbbf":10510,"bcbdbbbd":10511,"deeceecc":10512,"ecddccc":10513,"edbcbbbc":10514,"eebecccc":10515,"effbbf":10516,"fcdccc":10517,"bbdbfcc":10518,"dfbcebb":10519,"ebfbced":10520,"bebefdc":10521,"bebcbedd":10522,"fccbebd":10523,"fedbbbe":10524,"bcfeccc":10525,"bcccdbd":10526,"bcbdbdc":10527,"deccedc":10528,"eceeebbc":10529,"ebbbbbbbbbc":10530,"ecbbcccc":10531,"bbcdbdc":10532,"bbcdbbbe":10533,"fcbea":10534,"bbeeecbc":10535,"efcbeee":10536,"fbedbec":10537,"eebcfbd":10538,"beccbbec":10539,"dfcbdc":10540,"bebfebc":10541,"edbdebc":10542,"ebbbcdbc":10543,"eedebbcc":10544,"bdbbbccc":10545,"edbeddc":10546,"dcebbbf":10547,"ddfdf":10548,"decbbebb":10549,"bbbddbbc":10550,"fbcbbebb":10551,"eebcebcc":10552,"defbef":10553,"bbdcbebc":10554,"febbbbbc":10555,"dbccbec":10556,"ffcbec":10557,"bdeefbc":10558,"fbbefcc":10559,"eceebccc":10560,"bfbdbbbb":10561,"ebfbcebb":10562,"efcecbc":10563,"bbccbeec":10564,"debbfec":10565,"acfee":10566,"eebcbeee":10567,"eebdded":10568,"beebebbf":10569,"eedddf":10570,"eddcdd":10571,"ebedbbbc":10572,"dddbbbe":10573,"bcceced":10574,"dbeeccc":10575,"edcbbdd":10576,"bfcdbec":10577,"ebbcea":10578,"bbeddcc":10579,"bebdbef":10580,"ecbedbec":10581,"dfcbef":10582,"bbebcebc":10583,"bbaebe":10584,"bbabbf":10585,"dbccdf":10586,"beeffee":10587,"edbcdcc":10588,"dceceec":10589,"abcbbc":10590,"bbbbbcebe":10591,"bbbebced":10592,"dbedeec":10593,"ebfcccc":10594,"fbcdebe":10595,"bbccbecc":10596,"eebcbef":10597,"bcecbbee":10598,"deccebc":10599,"debdfc":10600,"eebffee":10601,"bcfedcc":10602,"ebbebdcc":10603,"ebbfdcc":10604,"efbddd":10605,"ddbefc":10606,"eccdbdc":10607,"dbeda":10608,"ebbcfed":10609,"eeeedee":10610,"bbebcbbf":10611,"eeecea":10612,"eebfbbbe":10613,"bebbbbbcc":10614,"edccebd":10615,"ecdcdf":10616,"bddbbdc":10617,"ebbdbecc":10618,"ebebfbf":10619,"fcfeec":10620,"dbcdbec":10621,"decbedd":10622,"bbedbecc":10623,"fdcebd":10624,"bbbecebc":10625,"bbbccbbbe":10626,"eebfccc":10627,"eceebebe":10628,"ebbbbcbbbb":10629,"bfebbee":10630,"bbbbbdbbc":10631,"bbceeebc":10632,"dbcdbbbb":10633,"ebbcbeebb":10634,"ebbcbeed":10635,"dececbc":10636,"ebecfbd":10637,"defbbd":10638,"ecbedebe":10639,"bcfdebc":10640,"edbcbbf":10641,"debf</w>":10642,"bedbac":10643,"bfbbba":10644,"efbbebf":10645,"efecef":10646,"ebeecbbc":10647,"dbfded":10648,"bcfbbfc":10649,"dfcecc":10650,"beebbfee":10651,"debdeec":10652,"eeebbff":10653,"ecdcebc":10654,"ebbccccc":10655,"bfbcbbbc":10656,"bfeceec":10657,"ebbbebbbf":10658,"efdbbbe":10659,"bbbeeecc":10660,"dbebbef":10661,"edcbebf":10662,"dbdeeee":10663,"eabbebb":10664,"eabbbf":10665,"fbcecbc":10666,"bbddbbf":10667,"bbebcbcc":10668,"ecfebdc":10669,"eebfbbf":10670,"beefdd":10671,"beefccc":10672,"aecec":10673,"ebededc":10674,"eecfebe":10675,"dbcbced":10676,"bbeefec":10677,"deceedc":10678,"bbbddebe":10679,"bbecdef":10680,"fedbbd":10681,"ecbebbbbc":10682,"bcfebdc":10683,"bbddbcc":10684,"bcccfcc":10685,"fdcfbc":10686,"bdeebebe":10687,"eccfedc":10688,"bdcbbef":10689,"edcbcee":10690,"befeebd":10691,"ebecebcc":10692,"debbbbcc":10693,"bbedba":10694,"eebcbbcc":10695,"fbfdee":10696,"ecdcdee":10697,"dcbddf":10698,"efeddc":10699,"eecbea":10700,"dbcbebf":10701,"dbbbfebb":10702,"efcdeec":10703,"dedbcbc":10704,"fbebbbec":10705,"ddcbebc":10706,"becceebd":10707,"daeca":10708,"bcecdeec":10709,"febbdbe":10710,"dbbdebd":10711,"fefbbf":10712,"beefbeee":10713,"bdccfc":10714,"bfbcbfc":10715,"abcdc":10716,"bfeebbf":10717,"bbbbdfc":10718,"efbdef":10719,"ddfbcc":10720,"edcbdbd":10721,"bebebbbec":10722,"dbdbeed":10723,"dccfdd":10724,"bbedfee":10725,"beccbeec":10726,"bcbeebcc":10727,"bedcbebc":10728,"eedcfbc":10729,"febefc":10730,"fbecbbc":10731,"aecbe":10732,"aecbf":10733,"edbeded":10734,"bbbbebdc":10735,"efdcdc":10736,"ebcfbbbb":10737,"bbdeebbbb":10738,"ffbcdc":10739,"bbbcbdbd":10740,"debbbef":10741,"eeeebcbc":10742,"acded":10743,"dbbdbdc":10744,"bfbcdbe":10745,"bcbebdcc":10746,"bebbd</w>":10747,"bfebbbbc":10748,"ebebac":10749,"bccbebbc":10750,"bbdeba":10751,"ebfdebe":10752,"ebbcdbbc":10753,"dbfbbbd":10754,"fedba":10755,"dbbbbbbee":10756,"bcebbbbbc":10757,"bdeeba":10758,"ebebeebf":10759,"becfa":10760,"bbdebbcc":10761,"bbbebedc":10762,"dbbecbbd":10763,"efcebcc":10764,"beecdebc":10765,"ecbebbdc":10766,"bbebceec":10767,"ecbdfbc":10768,"eeeddbc":10769,"bdfebec":10770,"ecefccc":10771,"efbcbbd":10772,"ebebddd":10773,"ebceeebe":10774,"becbbeec":10775,"bebeecbc":10776,"bfcbbdc":10777,"ebbcbccc":10778,"decbccc":10779,"dbddebc":10780,"bebcbebf":10781,"beeeddc":10782,"bbedbebd":10783,"acdcc":10784,"bbadf":10785,"fbbd</w>":10786,"eeecbccc":10787,"bdfbecc":10788,"bfebbbc":10789,"edbbfcc":10790,"ebbbebbcc":10791,"bbcbbbdc":10792,"becebfc":10793,"fffebe":10794,"eebeebeebe":10795,"fbfbdc":10796,"fbffbc":10797,"beefbbf":10798,"bcdcdbe":10799,"bdbebbbbc":10800,"bdececc":10801,"ebebca":10802,"bccecdc":10803,"ebfdebc":10804,"bebebbebc":10805,"befeecc":10806,"eabebc":10807,"bebcbbdc":10808,"bbccfbd":10809,"dbfebbc":10810,"fccbbee":10811,"ecccbbbb":10812,"ecccddc":10813,"bdbddbc":10814,"eedcdbc":10815,"bdeebcbc":10816,"bebbe</w>":10817,"bfeedf":10818,"edeeff":10819,"ebbdbbbbc":10820,"efbeecc":10821,"ddecdd":10822,"ebceefc":10823,"bbdfbbd":10824,"edcbbebe":10825,"edcbeebb":10826,"bbbdefc":10827,"feceebc":10828,"fccbeec":10829,"eebfbeee":10830,"ffcbcc":10831,"bdbbbbbbbd":10832,"dcbedbc":10833,"ebefecc":10834,"bbcebbebb":10835,"fceced":10836,"becbbecc":10837,"ebdeef":10838,"ebdbbbcc":10839,"dbbdcbf":10840,"decdbbc":10841,"befdebc":10842,"ebecbeee":10843,"debbfee":10844,"eebeded":10845,"eebeeba":10846,"bebfbbbc":10847,"dbbdbbbc":10848,"ecbdbbf":10849,"bdbcbbec":10850,"bdfbbbf":10851,"ecbebdcc":10852,"aeda":10853,"fbbbac":10854,"dcbebdc":10855,"efbca":10856,"ebcebbebb":10857,"ebcfedc":10858,"becbebec":10859,"ebdbded":10860,"bccc</w>":10861,"eeceeebb":10862,"eecfeec":10863,"bbbebbeec":10864,"bdcdbbbb":10865,"debbba":10866,"bcbebbef":10867,"bdfbbed":10868,"adbcc":10869,"bfecbcc":10870,"efecebb":10871,"ebefbbbe":10872,"bfcdbbc":10873,"dedcccc":10874,"bbbbcff":10875,"eebcdbf":10876,"beccbbee":10877,"fdcdcc":10878,"eeecbbbd":10879,"eebfbbee":10880,"eebbcbbbb":10881,"bddbbbf":10882,"bfdefc":10883,"bfecbbd":10884,"bffdbd":10885,"edfba":10886,"ebeecf":10887,"ebcedbf":10888,"ebdbdbf":10889,"deebbbf":10890,"ebbcfbe":10891,"dbbedbc":10892,"ddcdfc":10893,"feceecc":10894,"defba":10895,"bbebedf":10896,"dadbc":10897,"beddbbc":10898,"fadf":10899,"fbbe</w>":10900,"efbebbbe":10901,"efbcdf":10902,"ddefcc":10903,"ebdbebbd":10904,"edcecdd":10905,"bebefbf":10906,"ebbcdebe":10907,"ebecfcc":10908,"bcbcbebd":10909,"ddceecc":10910,"bcbedbec":10911,"fdcbfc":10912,"bbbbbbbbdbbbb":10913,"ebfcfc":10914,"bcedbcc":10915,"ecbacc":10916,"edeebbee":10917,"ebebbbdc":10918,"bbcbcfc":10919,"ebdeced":10920,"eecbebcc":10921,"bbdbcebe":10922,"bebcbcec":10923,"dedfcc":10924,"bbebedbe":10925,"febbbef":10926,"eeecbbec":10927,"bbbecbbbc":10928,"dbccbbbb":10929,"bdbedebe":10930,"efbdbbc":10931,"ebcecf":10932,"bbcbebcc":10933,"bccedbd":10934,"eaebbc":10935,"fdcfed":10936,"dbbdff":10937,"fbbca":10938,"ebbbebbed":10939,"dcdba":10940,"fcbddc":10941,"bccbeebe":10942,"dfecbf":10943,"bbbebcbbc":10944,"ebfda":10945,"dedbedc":10946,"beecbbed":10947,"deececc":10948,"dedcbec":10949,"febeccc":10950,"bdbcfbc":10951,"eceddbc":10952,"ebbbcdbd":10953,"bebbbb</w>":10954,"bfbeebf":10955,"ebbdebcc":10956,"efbac":10957,"bbcdbbf":10958,"bebeac":10959,"befdebe":10960,"dccecbc":10961,"bbebbbbed":10962,"fbebbfc":10963,"beecddc":10964,"eeccebf":10965,"bbddbbdd":10966,"ecbddbd":10967,"ececfbc":10968,"bdbeea":10969,"bdfac":10970,"bffedc":10971,"bbffa":10972,"decbbdc":10973,"bebcdebe":10974,"eebcebec":10975,"bebdba":10976,"fbddbf":10977,"ebdcebbc":10978,"bceeecbc":10979,"ecdcbec":10980,"edbbefc":10981,"dcebbbd":10982,"dcfdcc":10983,"efebbebb":10984,"deeebec":10985,"bbeebebbc":10986,"bfcbccc":10987,"efcbccc":10988,"deddebe":10989,"eebcbecc":10990,"fbdbbbd":10991,"bcfdbec":10992,"bbebca":10993,"bcedebc":10994,"beebebef":10995,"bebbbbbbd":10996,"eceeebf":10997,"bdeebbec":10998,"bcdebbcc":10999,"bbcbbecc":11000,"bbbefdc":11001,"dbeb</w>":11002,"bbbcecbc":11003,"deebbebe":11004,"bbeedbec":11005,"ebbcdebc":11006,"dbdeebd":11007,"bbccebcc":11008,"ddcbeee":11009,"fecbbcc":11010,"deecebc":11011,"eeebbccc":11012,"eeedbbbb":11013,"beefbbbb":11014,"eacba":11015,"ebbccfee":11016,"bdeeedc":11017,"bdeebbbd":11018,"bbbbebbbbbe":11019,"eddbbdd":11020,"efd</w>":11021,"fcecebb":11022,"bdcdbcc":11023,"dccbebd":11024,"bbebbdbbbb":11025,"decca":11026,"ececbcbc":11027,"febcccc":11028,"ddddddc":11029,"bbcc</w>":11030,"bececbf":11031,"ebdbeebc":11032,"bccbba":11033,"eecb</w>":11034,"bbbcbced":11035,"dbfefc":11036,"fbdfed":11037,"eebfeeee":11038,"febefee":11039,"bdeebef":11040,"bebbdbbbb":11041,"dcbcff":11042,"eebebdcc":11043,"abded":11044,"bccbcef":11045,"bdceedd":11046,"dbceeed":11047,"eafbe":11048,"ddcfed":11049,"acbebc":11050,"beccbef":11051,"bbddded":11052,"bebfebf":11053,"ecfbbed":11054,"ececbebc":11055,"beebeccc":11056,"bdfdef":11057,"eeefbbee":11058,"bcbbbbbbbbbbbbbbbb":11059,"ddfbbbb":11060,"ebcbedf":11061,"fceebbc":11062,"bccdbbd":11063,"eecedbd":11064,"bbeebcec":11065,"dbbbddf":11066,"fbcdebc":11067,"bbebbdebb":11068,"bbebbeeee":11069,"fbdbeec":11070,"bbdcebf":11071,"bcfbbbec":11072,"bcbdebd":11073,"bceedbec":11074,"beebbdbe":11075,"fefbeee":11076,"edebeebe":11077,"ebeedbf":11078,"eccfa":11079,"eecbba":11080,"bbbceecc":11081,"deeeccc":11082,"ebbcecbc":11083,"dbbecdbe":11084,"bbbffee":11085,"dbbbbbdc":11086,"beebbbbd":11087,"eebfbebe":11088,"bdbeefc":11089,"edbcfcc":11090,"edeedbd":11091,"dcfdbd":11092,"bbcbea":11093,"dcceeee":11094,"bcbdfbc":11095,"bceeea":11096,"dbccebe":11097,"eceebfc":11098,"bececed":11099,"bbbeeebe":11100,"dbeecbe":11101,"ebbcdef":11102,"ebbcfbf":11103,"bebdfee":11104,"fedfee":11105,"bbefebf":11106,"dbbbbccc":11107,"beedbecc":11108,"bbfcbbbe":11109,"bbbeceec":11110,"eeefff":11111,"ececbccc":11112,"bfecbbbb":11113,"eddcccc":11114,"effeec":11115,"ebebebdc":11116,"eccdcdc":11117,"bbfeecc":11118,"deebbdc":11119,"decbbbf":11120,"dccebec":11121,"bbeceedc":11122,"bbcceecc":11123,"dbbcbbee":11124,"dbbcded":11125,"dbbcdbf":11126,"dfcded":11127,"beedebd":11128,"deccdd":11129,"ececbbbc":11130,"dcbddee":11131,"bcbecccc":11132,"abbbcc":11133,"bcecbccc":11134,"bfbedbc":11135,"ebeebbee":11136,"ebbcbedc":11137,"debbfbc":11138,"acfbc":11139,"bbbbcebf":11140,"beccdbd":11141,"becccccc":11142,"fbdbcbc":11143,"debeff":11144,"bbefba":11145,"bceeebcc":11146,"eeecba":11147,"eeeddbe":11148,"bebbcebc":11149,"bdbebbdc":11150,"bdeddbe":11151,"eefbdcc":11152,"ecdbbbec":11153,"dcebbbc":11154,"efbbbdc":11155,"ebebceec":11156,"ebdbdbc":11157,"ebdfebd":11158,"dfedbd":11159,"bbffbbbb":11160,"bdceccc":11161,"fecda":11162,"eeeebbbd":11163,"bcbdecc":11164,"bceefee":11165,"dbbdeec":11166,"eebfecc":11167,"bfccfc":11168,"bfcceec":11169,"bdeeddc":11170,"bdbbac":11171,"bfebbef":11172,"edbebbec":11173,"edfded":11174,"bebcbeebb":11175,"fccfdd":11176,"fedfbc":11177,"debcdbc":11178,"febbebd":11179,"ebadd":11180,"bceddbc":11181,"eeebbdd":11182,"bcdcbbc":11183,"bdedccc":11184,"eebbbbbbc":11185,"edbcbebe":11186,"bddbdcc":11187,"fceeebc":11188,"edceddc":11189,"dbbedbbbb":11190,"dbdeecc":11191,"dccebcc":11192,"beecdfc":11193,"acebf":11194,"febeeeee":11195,"bdccbbc":11196,"bcfcdf":11197,"aecbd":11198,"effdbe":11199,"bececebb":11200,"eccfebd":11201,"bbdfbcc":11202,"bbdeebec":11203,"dbebbfc":11204,"ebffbbc":11205,"ffdbcc":11206,"dedeebc":11207,"bbebbdec":11208,"ecccbfc":11209,"debeeec":11210,"fbffee":11211,"beebbeec":11212,"bbbbbbbbbebbbb":11213,"eeecbbcc":11214,"bedddec":11215,"feccccc":11216,"ecdeac":11217,"ebefbbd":11218,"deeeeee":11219,"dccdbf":11220,"efcdbbc":11221,"bcbceebc":11222,"fecbeed":11223,"acdbd":11224,"ebfcbcc":11225,"ecfbbdc":11226,"bfeebbd":11227,"bfbeccc":11228,"bbbbecbe":11229,"ddbdbc":11230,"bbbcbcbf":11231,"deeda":11232,"bcbcbbed":11233,"dfcdbd":11234,"bcecfbc":11235,"bedcbdc":11236,"eebbebbcc":11237,"bebbebecc":11238,"aeedc":11239,"ebcecbbc":11240,"fcebbcc":11241,"eecbeecc":11242,"bbdebbebb":11243,"bbdbdec":11244,"bbbcbbfc":11245,"fecbccc":11246,"acbfc":11247,"eebcfee":11248,"fbddebb":11249,"deffcc":11250,"feddbf":11251,"eeccfdc":11252,"dbbbbdbc":11253,"bebbefcc":11254,"bceacc":11255,"bbcbddd":11256,"fcfccc":11257,"beceef":11258,"dfecbe":11259,"bbfbeebe":11260,"efcbcbd":11261,"beeebebd":11262,"acebd":11263,"fedbef":11264,"beebbbbcc":11265,"bcecfec":11266,"bbebcbebc":11267,"bdbdccc":11268,"ecdcdbe":11269,"bfbcebd":11270,"bfbcfbc":11271,"ebbbbefc":11272,"ebebeff":11273,"ebcfdf":11274,"bdcb</w>":11275,"ffbcbf":11276,"deefdc":11277,"dbbebbef":11278,"efcbbebd":11279,"fedbecc":11280,"bbdcbbee":11281,"bbdcebbc":11282,"bbabbbd":11283,"eeecbef":11284,"dbbdbebe":11285,"fdddbe":11286,"edbda":11287,"fbbcbbbe":11288,"ecdcbcc":11289,"bdeeebf":11290,"bcdeba":11291,"ecfbdcc":11292,"ebbfbbcc":11293,"bafbe":11294,"dbbbd</w>":11295,"dbbedebe":11296,"bbecfbe":11297,"fecbeee":11298,"debcbbbc":11299,"beebbbef":11300,"bcecdebb":11301,"bedcdbc":11302,"deccdec":11303,"bebbbebbee":11304,"edecbdc":11305,"fcdcdc":11306,"eecefcc":11307,"dbbebbdc":11308,"ebecddc":11309,"beccbcbc":11310,"beebbebd":11311,"bbbeca":11312,"edbeba":11313,"ebeecdd":11314,"bbfbbbcc":11315,"dedebcc":11316,"dbfddc":11317,"bbedfec":11318,"ebabba":11319,"debdbbc":11320,"bcebbccc":11321,"bebbcbbbc":11322,"bcefbebe":11323,"bffdbb":11324,"edfbbbd":11325,"dceeebd":11326,"efddcc":11327,"bccda":11328,"deebbbbc":11329,"dbdbbbbc":11330,"bbbffec":11331,"acbbd":11332,"fbdea":11333,"dbbcbef":11334,"debcedc":11335,"dfcdcc":11336,"bcecfee":11337,"beedbbd":11338,"bebfbebc":11339,"ececebe":11340,"edccbec":11341,"fceefc":11342,"eccbeebe":11343,"eccebbcc":11344,"dfeeec":11345,"bbfdbec":11346,"deebedc":11347,"bbebbbeec":11348,"fccbcbc":11349,"bbdcbfc":11350,"bcbebbfc":11351,"bcccded":11352,"febbfbc":11353,"bdbdbebe":11354,"ecdcdec":11355,"adeec":11356,"bebbc</w>":11357,"bbbbdbbf":11358,"ebefdf":11359,"ebcbeecc":11360,"ebceebec":11361,"beceebbc":11362,"eecbddc":11363,"bbbeeebbbb":11364,"dbeeeebb":11365,"ebfbcbf":11366,"ebbcfdc":11367,"dbbdddc":11368,"bcbedfc":11369,"ecdcbbc":11370,"bdbcbfc":11371,"bcbbcbcc":11372,"bcebebbc":11373,"dcdbbcc":11374,"bbbbbcbbbc":11375,"dbeeeec":11376,"dccbbed":11377,"bbbdbbebe":11378,"bbccebec":11379,"ebccfdc":11380,"fccffc":11381,"bebdfec":11382,"bebdbecc":11383,"eeccdbd":11384,"bbefdbc":11385,"febbbeee":11386,"dedcdd":11387,"ebbbbbbbbebb":11388,"ebbeedf":11389,"ebbdea":11390,"ebefdbe":11391,"ebebdbbc":11392,"fcbbebd":11393,"bafbf":11394,"deebcdc":11395,"bbbdbecc":11396,"bbecbcbd":11397,"ebccbeec":11398,"eebeebdc":11399,"bcecebf":11400,"beedbbf":11401,"bfbcdbc":11402,"eedeba":11403,"edfbeee":11404,"dcbedec":11405,"ebedebbc":11406,"ecceebbc":11407,"ebdebfc":11408,"eececdd":11409,"deefbf":11410,"eaded":11411,"fccbedc":11412,"eebcbbebb":11413,"deffee":11414,"bbebebcbc":11415,"fdcbebe":11416,"bbebcbebe":11417,"ebabbc":11418,"bbbecdd":11419,"fefbbbb":11420,"bcebbfc":11421,"bebbcbbf":11422,"edbddbc":11423,"defcdf":11424,"bcbbbfcc":11425,"bfeebebe":11426,"edeb</w>":11427,"ebbbbdbd":11428,"ebeebbef":11429,"becfbbbb":11430,"eccbcef":11431,"bbbefbbc":11432,"bbfecbd":11433,"fccddc":11434,"eeeeeebeee":11435,"ecbccccc":11436,"debcbdc":11437,"dbecded":11438,"bceebbbbc":11439,"fddedc":11440,"bebbcfc":11441,"edfbbec":11442,"efbebbf":11443,"ebeebbbf":11444,"eccedbf":11445,"eeceebe":11446,"bbfbedc":11447,"ccceccc":11448,"eabda":11449,"fedebd":11450,"bbebebbbf":11451,"bcbedbbbb":11452,"dfcbbd":11453,"bcbdbcbc":11454,"bebfbfc":11455,"eeebbbbbc":11456,"fdddec":11457,"bebbcbcc":11458,"aeeebe":11459,"efedbf":11460,"bbbebeef":11461,"bbeebeef":11462,"ebbcfebb":11463,"dbbeca":11464,"dbbbfbbc":11465,"efceebd":11466,"efceedc":11467,"fbcfbe":11468,"ebecbbbf":11469,"fccbbec":11470,"bebffee":11471,"bbbecdf":11472,"edbdbbbb":11473,"bcdceec":11474,"bebbbbbbbbbbbbbbbb":11475,"ebbbedec":11476,"effebd":11477,"ddeeef":11478,"ddbdebb":11479,"fcbebcc":11480,"bbbeebdc":11481,"ebbcdfc":11482,"dbdbbbf":11483,"ddcfbd":11484,"bbedbeee":11485,"dbbcdec":11486,"daea":11487,"beebeebf":11488,"eeddbec":11489,"bcdcdebe":11490,"ebbeebdc":11491,"ebbeedbc":11492,"bfeddf":11493,"aedcc":11494,"edbebecc":11495,"ebefbbf":11496,"bbcbfbf":11497,"bccebfc":11498,"bccbcdd":11499,"ffbdcc":11500,"bfcecbc":11501,"dbbbfdd":11502,"decebdc":11503,"bbcceebd":11504,"fecdecc":11505,"bbededc":11506,"acbebe":11507,"eebceebd":11508,"dbececc":11509,"bceeebec":11510,"dbbdebc":11511,"bbbdcbbbb":11512,"ccccccccccccc":11513,"aeeef":11514,"bffbfc":11515,"bbbbbcef":11516,"efbceec":11517,"fcbdec":11518,"dbdfdc":11519,"bbeceecc":11520,"fbcffc":11521,"feebccc":11522,"bbbfedc":11523,"bbebebbcc":11524,"eebeebbebe":11525,"bbeecdf":11526,"eceeba":11527,"bdbcedc":11528,"bdfdfc":11529,"bfecff":11530,"bcfbdcc":11531,"afbbbb":11532,"bbcbbbbbbc":11533,"dfbdbf":11534,"dbefbbc":11535,"deebcebb":11536,"dbbeceec":11537,"deddeec":11538,"bebdbcbc":11539,"bbdddbbbb":11540,"daedc":11541,"bcecdef":11542,"eeecbbee":11543,"ecbdded":11544,"befcbbc":11545,"afdf":11546,"eddbdcc":11547,"ebbbedcc":11548,"ebbfbbebb":11549,"bbdbdbbc":11550,"dbeebdc":11551,"dedebec":11552,"fecfbd":11553,"eebcddc":11554,"eeccbfc":11555,"bccccccccc":11556,"bbeecbbbb":11557,"ebdecbf":11558,"eeceebbc":11559,"bbfeccc":11560,"ebfebdc":11561,"bdcfef":11562,"ffdebe":11563,"ffbeebb":11564,"bebebeef":11565,"dbbedebc":11566,"dccecdc":11567,"fbcfebb":11568,"fbccccc":11569,"beeebecc":11570,"feebeec":11571,"acbef":11572,"ecedfc":11573,"bdecbeec":11574,"aeeed":11575,"afba":11576,"edbbdbd":11577,"ddbcbbc":11578,"ebceebbbb":11579,"bccbebbbb":11580,"bbdbedbe":11581,"bbbeeebf":11582,"ffbeef":11583,"ebbcbbdc":11584,"dbdd</w>":11585,"bbecea":11586,"bbececbc":11587,"fecea":11588,"debbebcc":11589,"eeeefbe":11590,"fbdbecc":11591,"eecccccc":11592,"bcccbbbe":11593,"edccdee":11594,"bebebebebebebebe":11595,"edfea":11596,"efbdebe":11597,"ebee</w>":11598,"dbefef":11599,"dbdecbc":11600,"bebddcc":11601,"eefdebe":11602,"bcfbba":11603,"bcbdbebc":11604,"bdecbdc":11605,"bffdcc":11606,"dceeedc":11607,"efefcc":11608,"ebebcbbd":11609,"bbcbcbcc":11610,"eccecebb":11611,"ebddbbf":11612,"eecbdbf":11613,"bbdfeec":11614,"bbdeeebc":11615,"bbdbcbbd":11616,"dfbedd":11617,"babeebb":11618,"eebcbbed":11619,"defbcbc":11620,"ecbeebdc":11621,"bcecedc":11622,"deccff":11623,"ecfbeee":11624,"bcedded":11625,"bdbcfee":11626,"ebbbdbbbe":11627,"bbbbbdcc":11628,"ddbbbcc":11629,"ddfbbd":11630,"eecdbbbe":11631,"cccbeee":11632,"deceebd":11633,"befebdc":11634,"bbecddc":11635,"eeeebbcc":11636,"bcecbeee":11637,"dbccff":11638,"ecfbbebb":11639,"bdedbec":11640,"bcbbeba":11641,"ecdd</w>":11642,"edbbbbbd":11643,"efdebf":11644,"efbeff":11645,"bccfbec":11646,"eecbedbe":11647,"bfceebd":11648,"dbffdc":11649,"eebcbbbf":11650,"bbebebeebb":11651,"bbdcfbc":11652,"dbbcbebc":11653,"eefdebc":11654,"bbddff":11655,"bebbbebbc":11656,"ebbbcbebc":11657,"cccccccccccccc":11658,"edfebbc":11659,"dcdeccc":11660,"fceebe":11661,"fcbfdc":11662,"bccdebd":11663,"bbbcb</w>":11664,"dcceeec":11665,"eaeba":11666,"bbecdeec":11667,"ebccfee":11668,"beecbbebb":11669,"beccbbbd":11670,"defbebc":11671,"feddfc":11672,"daebc":11673,"ecbfedc":11674,"ebbbcecc":11675,"bbcbcebc":11676,"dfeebf":11677,"bdceebf":11678,"deedebc":11679,"deebdbd":11680,"dbcac":11681,"decfbe":11682,"eabcbc":11683,"eeebbbef":11684,"ecbfa":11685,"bdbcbeee":11686,"bdbcfec":11687,"edbcbbee":11688,"bbebbcbbbb":11689,"abebbbb":11690,"bddcccc":11691,"dcdebcc":11692,"efbcbcc":11693,"eccbddd":11694,"dfdbbbb":11695,"dbcecbd":11696,"ebbcbbef":11697,"fccebcc":11698,"eeccefc":11699,"debeebbc":11700,"beedbebe":11701,"bebfdbe":11702,"ecfdef":11703,"ececedc":11704,"eeddccc":11705,"dcfbbbc":11706,"bbcbcbec":11707,"eccbdbf":11708,"bccdedc":11709,"bbdfdf":11710,"bbbebbebd":11711,"dccea":11712,"bcbcdebb":11713,"fccdbf":11714,"faff":11715,"ebbbcbef":11716,"bddbbebe":11717,"bfdded":11718,"bbcfbcc":11719,"eccbfcc":11720,"bccecebb":11721,"bbbcfdc":11722,"deebebbc":11723,"cccbeec":11724,"feefbd":11725,"ebecbbebb":11726,"fcceebd":11727,"bbbbcbfc":11728,"ecccbbbe":11729,"fedebe":11730,"bcccbebe":11731,"bceefbd":11732,"bdfda":11733,"bcefdd":11734,"bddedcc":11735,"ebbffcc":11736,"efbda":11737,"effbef":11738,"becbbebd":11739,"becbebbd":11740,"eecfedc":11741,"bbfebdc":11742,"cccba":11743,"bfcbcbd":11744,"efcdbec":11745,"bbbbcdbbbb":11746,"ecccbbd":11747,"debebcbc":11748,"ecbebbebc":11749,"bcccbbd":11750,"eeecebbc":11751,"ecbdbbbe":11752,"bceda":11753,"fddfec":11754,"dceddf":11755,"bbbbbcdc":11756,"efdbfc":11757,"efeebbee":11758,"fceba":11759,"fcfbbbb":11760,"bccdccc":11761,"bccbebec":11762,"eecebfc":11763,"dbcdbbd":11764,"dbbefbf":11765,"ebecbebd":11766,"eeeebba":11767,"fedbeec":11768,"bbefbebc":11769,"bcbdfee":11770,"bceedef":11771,"beebbfbc":11772,"eeebbbec":11773,"ececff":11774,"edbdedc":11775,"bdbcdcc":11776,"bdecded":11777,"bfbcbebc":11778,"bebbebccc":11779,"bdbbeecc":11780,"ebddddd":11781,"bab</w>":11782,"fecbcbd":11783,"bbbbcbcbbbb":11784,"bbebebbec":11785,"eefeba":11786,"debcebbc":11787,"bbddbebe":11788,"deecbebc":11789,"bebbcdd":11790,"febcdf":11791,"bbebfbbbb":11792,"bdecdbd":11793,"eceacc":11794,"bfeeff":11795,"ebbbbebcc":11796,"ebcfbbd":11797,"dbebeebe":11798,"dbcdebd":11799,"bbeebeed":11800,"bfcfdc":11801,"bbccddc":11802,"bbccbbed":11803,"bbebbedc":11804,"fbeebdc":11805,"dbfdebb":11806,"debedbd":11807,"eefdbec":11808,"bbefecc":11809,"bbefbeee":11810,"dfcebd":11811,"bebfecc":11812,"bdbdbcc":11813,"ecbdbebe":11814,"bbeecbbc":11815,"edbe</w>":11816,"efbbccc":11817,"bccbefc":11818,"eeceddc":11819,"bbbeebbbbbb":11820,"dbebcf":11821,"febbecc":11822,"decceebc":11823,"ecfdebc":11824,"eceebeee":11825,"febcdd":11826,"bdbeebec":11827,"ecddedc":11828,"ecebebdbbbe":11829,"edeeebf":11830,"dcefbf":11831,"dceebdc":11832,"efbebbee":11833,"ebcbbbdc":11834,"bbceefc":11835,"fcbfed":11836,"becdbbbe":11837,"ebdbcbbc":11838,"bccbdbf":11839,"bbdbbecc":11840,"dbebbbec":11841,"dbceebf":11842,"dbbebbebc":11843,"eafbd":11844,"feeded":11845,"ddceebc":11846,"debbbbbf":11847,"becceedc":11848,"bbdddec":11849,"fbfecc":11850,"ffcdec":11851,"bcdcdec":11852,"dcdcdd":11853,"dcbcbbf":11854,"abcef":11855,"eddbbbbc":11856,"edfddc":11857,"dcdbecc":11858,"dcfdec":11859,"ebceeef":11860,"bccbded":11861,"bbdfebd":11862,"bbbedbec":11863,"ebfbdcc":11864,"babeec":11865,"bbeebccc":11866,"dbbbfef":11867,"bbbdbebbbb":11868,"bbebbeebc":11869,"ebccbbcc":11870,"fbedbcc":11871,"eefebdc":11872,"fbbcff":11873,"bacda":11874,"ddbddbd":11875,"adbbf":11876,"bbbbbded":11877,"efbebbd":11878,"bbcbbccc":11879,"fcdebf":11880,"becbebbbe":11881,"bccbbccc":11882,"bcceddc":11883,"cccbbec":11884,"dbcdeec":11885,"bbeebbdc":11886,"fbebba":11887,"fecdef":11888,"eecceccc":11889,"dfcbbbc":11890,"bdbdbbbc":11891,"ccccdd":11892,"eeddeec":11893,"eceebbbd":11894,"ebbbcbbebb":11895,"bbcbddc":11896,"bbcbebbbe":11897,"bbcbdebb":11898,"dfbebbc":11899,"ebfbbfc":11900,"efceccc":11901,"dedecbc":11902,"fbedbbbb":11903,"debbdcc":11904,"fbdbebd":11905,"bbebebbbbc":11906,"bbdcded":11907,"debedec":11908,"bbefbfc":11909,"fdceecc":11910,"bcecbecc":11911,"bedceebc":11912,"ecbddcc":11913,"fbbebecc":11914,"dcfdbb":11915,"efeebeee":11916,"bbdbeeec":11917,"dfdbcc":11918,"dfecdc":11919,"bbeeac":11920,"bebebebbbe":11921,"bebceedc":11922,"fbcbbbbc":11923,"feefcc":11924,"ebeceebc":11925,"beecdef":11926,"fbdbbec":11927,"daeec":11928,"bcbdbef":11929,"ebbbebbbbc":11930,"dcebbbbc":11931,"bbbbdebd":11932,"effebf":11933,"dfecec":11934,"dbedebd":11935,"deebbebc":11936,"efcdecc":11937,"debedcc":11938,"bcccbbf":11939,"bceebbbf":11940,"beebbbebc":11941,"bbbbbbbbbcbbbb":11942,"bebfbeee":11943,"bbbecbbf":11944,"eeebbbbebb":11945,"fdddee":11946,"eeedbdc":11947,"beefbbee":11948,"edbdebd":11949,"eeefbbf":11950,"bcfcdee":11951,"bfdbecc":11952,"edbedbf":11953,"dcebbdc":11954,"ebebcbcc":11955,"bbcedcc":11956,"bbcbedf":11957,"becbcef":11958,"ebfecbd":11959,"ffbbfc":11960,"dbcdbcc":11961,"befbcbf":11962,"deddebc":11963,"bcbcbecc":11964,"ddcb</w>":11965,"feceedc":11966,"ecbcbeee":11967,"debebbbd":11968,"fdcbbf":11969,"bbbbbbbbbbbf":11970,"bbbecfc":11971,"fefbbee":11972,"bebbceec":11973,"dedcecc":11974,"bdeeebbc":11975,"bceecccc":11976,"ebbfbbec":11977,"bbbbbeebc":11978,"ebebbccc":11979,"fcbcebe":11980,"ecceefc":11981,"dfdeec":11982,"dbedbbd":11983,"ccceecc":11984,"dbddbec":11985,"befbced":11986,"bbbbcba":11987,"debeebf":11988,"eceebecc":11989,"bbbbbbccc":11990,"bbceeebe":11991,"eccdbbd":11992,"dbebba":11993,"edceebe":11994,"edcebfc":11995,"dececcc":11996,"befbcf":11997,"fbceedc":11998,"bbebbebec":11999,"bbebbbcebb":12000,"ddcbbed":12001,"eeeeebd":12002,"eebcea":12003,"bbefbbd":12004,"fdcebf":12005,"bcecbbcc":12006,"edecdbc":12007,"fbbc</w>":12008,"bfebeebe":12009,"dcffcc":12010,"efdcbd":12011,"ebec</w>":12012,"fcefcc":12013,"edcefcc":12014,"bbbcac":12015,"bfceedc":12016,"efcebec":12017,"eeeeeef":12018,"debcbebe":12019,"dfcfee":12020,"bcccbbcc":12021,"deecdcc":12022,"fefbbbe":12023,"bcbfbbbe":12024,"bdfdbbc":12025,"dcdcdcc":12026,"dcbbdfdd":12027,"dcfbfc":12028,"bbbbebbcc":12029,"effbbbe":12030,"eecebbcc":12031,"dbeecdc":12032,"dbcbedd":12033,"dbdebcc":12034,"ddcba":12035,"ddcdebb":12036,"ecbcfee":12037,"ecbcdebb":12038,"bbefebbc":12039,"bbebcff":12040,"bbadbc":12041,"ebaba":12042,"bcdcff":12043,"bbbbebbbbbbbbbb":12044,"ffffffff":12045,"ad</w>":12046,"abbeec":12047,"ecdeba":12048,"bfeebeee":12049,"edeebebe":12050,"ebbbbfcc":12051,"ebefbebe":12052,"fce</w>":12053,"becdccc":12054,"dffebe":12055,"bebedbbbb":12056,"decbeebc":12057,"eadef":12058,"efcfdc":12059,"beeeeebe":12060,"bebddbf":12061,"bebdeebd":12062,"eeccbbec":12063,"eceeebcc":12064,"ecddebc":12065,"bfbcecc":12066,"eedbac":12067,"ecbbb</w>":12068,"ebebcebd":12069,"bbcbebbd":12070,"bbcbedbe":12071,"becbdbf":12072,"ebfbcf":12073,"ebfbebbc":12074,"bbeedbbbb":12075,"ebbcbbdd":12076,"eadebb":12077,"ebecfed":12078,"bbbffbf":12079,"bcbedeec":12080,"bcbdded":12081,"fefdee":12082,"bdbcbbcc":12083,"beabbbb":12084,"edbcbfc":12085,"edbcded":12086,"ecdbbbcc":12087,"bfeedbe":12088,"ebbbbbecc":12089,"bbbbbdbf":12090,"ebeeefc":12091,"ddbbebd":12092,"ddedbf":12093,"bbcecbbc":12094,"becbcebe":12095,"becbeebd":12096,"dbefebe":12097,"bdcecbd":12098,"bbecdebc":12099,"beeeeeef":12100,"fbdbeee":12101,"debeba":12102,"beedfbc":12103,"bbadee":12104,"bbbecbbee":12105,"bbeccccc":12106,"ecebbccc":12107,"abdac":12108,"febd</w>":12109,"bfbbbbcc":12110,"edbbea":12111,"ebbbbbccc":12112,"dcbeebf":12113,"ebebeebd":12114,"fcbdebb":12115,"becfeec":12116,"dbbebbec":12117,"ebccbecc":12118,"bebddebc":12119,"ebdcbbbd":12120,"bbefdbd":12121,"deecebd":12122,"beddccc":12123,"dedcdec":12124,"ebbeebbbc":12125,"ebbdeecc":12126,"ebeebecc":12127,"ebebfef":12128,"ebefbbee":12129,"ddeebbc":12130,"bbcfeec":12131,"fcbebec":12132,"becbcebc":12133,"dbebded":12134,"dbbecdee":12135,"debbdbf":12136,"eebcdbbc":12137,"ecccebf":12138,"dbbbbbebc":12139,"bebfeec":12140,"beefbbbe":12141,"bdecbbd":12142,"ebbeeba":12143,"bdbbcdbf":12144,"ebcfbbf":12145,"ebceebcc":12146,"fcecf":12147,"bececbe":12148,"becfedc":12149,"bccbfcc":12150,"bdcdbdc":12151,"edcbbfc":12152,"deedbbd":12153,"bcbcbcec":12154,"debbbbbbc":12155,"beccfdc":12156,"fedebf":12157,"bcfbbebe":12158,"bcfda":12159,"bbaccc":12160,"fefba":12161,"fddfbc":12162,"beebeff":12163,"bdecff":12164,"bedeac":12165,"bfbeedc":12166,"ddbcebe":12167,"bbbcdebc":12168,"dbcebdc":12169,"befeeebe":12170,"dccbeed":12171,"bbecfebb":12172,"beeebbed":12173,"bbccdbf":12174,"ebcceebd":12175,"fecdeec":12176,"eeccbecc":12177,"bbefebd":12178,"dbecbebe":12179,"beebbebbc":12180,"fefdbe":12181,"eeedeec":12182,"eeddfbc":12183,"bbecceec":12184,"eceeded":12185,"bdbedbbc":12186,"ddddccc":12187,"dcedccc":12188,"bfbcbdc":12189,"dba</w>":12190,"eddbbed":12191,"efecbec":12192,"ddbebec":12193,"becedcc":12194,"eccdbbbb":12195,"bbdeefc":12196,"dfeedc":12197,"edceef":12198,"fffa":12199,"deebebf":12200,"bfcac":12201,"befcccc":12202,"bbecdbbc":12203,"beeebeec":12204,"eebebbdd":12205,"ececbbec":12206,"ffcdbc":12207,"beefbebe":12208,"ecedecc":12209,"bdbebbdd":12210,"ebebedf":12211,"ddbcfc":12212,"fcedbd":12213,"bfcbcec":12214,"dbbeac":12215,"dbdebec":12216,"bbdcfee":12217,"bbefbbebb":12218,"bcbdebf":12219,"bcbddcc":12220,"eeebbbcc":12221,"beddbbbb":12222,"eceeac":12223,"ebbeeebc":12224,"edbbebec":12225,"edbbbbebb":12226,"dcbebbbc":12227,"ebeeac":12228,"ebebcbbbe":12229,"bbcfbbd":12230,"fcdbfc":12231,"bececbbc":12232,"dffdf":12233,"dbdbddd":12234,"befbedc":12235,"bbbbcbeee":12236,"fedbbbc":12237,"dada":12238,"dbecbbd":12239,"fbfedc":12240,"bedddbe":12241,"bebbbba":12242,"fbbcbcc":12243,"edbcbbbd":12244,"efeebbbb":12245,"ebeecbec":12246,"bbceebbbb":12247,"fcc</w>":12248,"becbcdd":12249,"ebddccc":12250,"dbbebbdd":12251,"bbebbbbebc":12252,"beecbeed":12253,"bebdeecc":12254,"fbdbbcc":12255,"ebdcbebe":12256,"ebdcfec":12257,"feddebb":12258,"ecbedebc":12259,"eebdbbbd":12260,"fdcfee":12261,"ececfcc":12262,"bcebbeec":12263,"eebbeebbee":12264,"bbbbbdbbbd":12265,"ecbbbdcc":12266,"ebceba":12267,"bbcbdef":12268,"fcbcebc":12269,"dfbded":12270,"dbeeedc":12271,"ddcdbf":12272,"eebcbedc":12273,"bbdcbef":12274,"bbeffbc":12275,"dbbbbbbbf":12276,"dbecbebc":12277,"bbaff":12278,"bdbdebd":12279,"bedddbd":12280,"ecebbbbbe":12281,"bdecef":12282,"ebbeebbd":12283,"dcdebec":12284,"bbbbdbcc":12285,"efbfbd":12286,"ebebdee":12287,"becbedbe":12288,"eececed":12289,"bdcbcee":12290,"ffbced":12291,"ebbcbcec":12292,"bbecbbebc":12293,"dbfbbed":12294,"beecebcc":12295,"defbbec":12296,"ecccbccc":12297,"bbefeec":12298,"eebdfec":12299,"dfcedc":12300,"fbfbbd":12301,"beebbbbbd":12302,"ecbdbbd":12303,"eeebbbbd":12304,"fefebf":12305,"bebbcbbee":12306,"bbebddf":12307,"dbbfbbbb":12308,"bdecbbbe":12309,"bdecbbf":12310,"bfbcbebe":12311,"afbcc":12312,"ecdbbeec":12313,"dcbbba":12314,"ebefebd":12315,"dbcbcee":12316,"bfceeec":12317,"decda":12318,"befeeebb":12319,"deddecc":12320,"bbabea":12321,"fddbdc":12322,"bcbbcbbbc":12323,"eeefbebe":12324,"bebbeebbee":12325,"bfecdbe":12326,"edbbbbbbc":12327,"dcfcdc":12328,"efebbbf":12329,"efbeba":12330,"ddfdbe":12331,"eccbedf":12332,"bdcfbbc":12333,"deedeec":12334,"ccceebc":12335,"ebbceedc":12336,"dbbdcec":12337,"dbdbccc":12338,"eabbcc":12339,"dedda":12340,"fbcbebf":12341,"beeefebb":12342,"bcbcbbbf":12343,"beecdbbc":12344,"ecccbeee":12345,"ecbcbbed":12346,"eeccebcc":12347,"beddfc":12348,"beeffc":12349,"eceedbbc":12350,"dcbcdec":12351,"bdbbbcbbbb":12352,"ebbdbbdd":12353,"dcdcccc":12354,"bbcdccc":12355,"becfebe":12356,"becbea":12357,"bdcdbbd":12358,"deebcbf":12359,"ebbceeee":12360,"dbbaa":12361,"bbccbbbf":12362,"fbebbdd":12363,"beecbbdc":12364,"bbebeecc":12365,"eeccbbee":12366,"beededc":12367,"ebabbbe":12368,"bdbcdebb":12369,"afbec":12370,"ebedced":12371,"ebebdbec":12372,"becfbcc":12373,"dbebedd":12374,"bdceeebb":12375,"fffbbc":12376,"cccbbbd":12377,"dbbedec":12378,"decdedc":12379,"efcbbed":12380,"feeeeebe":12381,"fccea":12382,"defbbee":12383,"dbbbbebd":12384,"beeddebb":12385,"bdccbcc":12386,"eceebbebb":12387,"bcbbbbbbebb":12388,"ecddbccffc":12389,"ebbbcdec":12390,"ecdc</w>":12391,"ebbbedebb":12392,"dceebbf":12393,"efdcbf":12394,"ebcfbdc":12395,"becbdebb":12396,"bbfecbe":12397,"deebbef":12398,"bcbcebec":12399,"beecebec":12400,"bbbbcdebb":12401,"ecbcbebd":12402,"debceecc":12403,"dbbbbbbdd":12404,"bbafc":12405,"febbbbd":12406,"bbbecbbebb":12407,"bebbcbebe":12408,"bcdcecc":12409,"ecbfdf":12410,"bebbbebebe":12411,"bfbddf":12412,"febc</w>":12413,"dcbedcc":12414,"efbeebf":12415,"ddbebbbb":12416,"bbcbeeec":12417,"ebdbedbe":12418,"edcbcbf":12419,"dccbedc":12420,"ebccbbed":12421,"beecdecc":12422,"aceac":12423,"ecbceebc":12424,"bbebefee":12425,"bbefbef":12426,"bcbdbbee":12427,"bbbbbbbbbbbbbbbe":12428,"eeedff":12429,"edbdeec":12430,"bdeedbf":12431,"ebbeedee":12432,"adecc":12433,"efbeebd":12434,"ebcfdbe":12435,"ebdfbec":12436,"eecbebec":12437,"eecbebbd":12438,"bdcda":12439,"dbbebeebb":12440,"bebcddc":12441,"dedea":12442,"ebeceecc":12443,"bbbffbe":12444,"fccbeee":12445,"bbbbcfbc":12446,"bbdceebc":12447,"debcfec":12448,"bcccddc":12449,"fbfba":12450,"fefdbc":12451,"beddecc":12452,"eeedecc":12453,"edccfbc":12454,"bcdcdbc":12455,"bdbcba":12456,"bdecdcc":12457,"ebbbcbbec":12458,"ae</w>":12459,"bfbbbbbbc":12460,"dcbedbb":12461,"ebdbbeec":12462,"edcdccc":12463,"ffbedc":12464,"deebbdd":12465,"bbeebbdd":12466,"ebbcbcee":12467,"decfdc":12468,"fccbbcc":12469,"acbcbc":12470,"defbebe":12471,"debcbbd":12472,"eebdbbec":12473,"bebffbc":12474,"bbbecbcc":12475,"edbddbd":12476,"bdfbbdc":12477,"beebcbbbb":12478,"bdecbebe":12479,"dcdea":12480,"ebebdbe":12481,"ebcebecc":12482,"ebcebccc":12483,"fcbcbec":12484,"becbcbec":12485,"bbdbdbbd":12486,"bbbceeec":12487,"deefbbc":12488,"beccbbcc":12489,"ecccefc":12490,"fbfbebc":12491,"eedcded":12492,"bbbccdd":12493,"dbbffc":12494,"bcefccc":12495,"dcbcdbc":12496,"efbdebc":12497,"ebebebbbc":12498,"ebceeebc":12499,"bbcdbbbc":12500,"bbdfbbf":12501,"bbdebbbbbb":12502,"edcfbbc":12503,"bbbcfbbc":12504,"deebcf":12505,"dedbbebb":12506,"beccebec":12507,"fbdeecc":12508,"defded":12509,"ecbcefc":12510,"ecbcebec":12511,"ecbcdbf":12512,"bbebeebd":12513,"bbebeeeee":12514,"dbbcbfc":12515,"eebdebf":12516,"deecdbd":12517,"eeecfee":12518,"bbfcebf":12519,"bedcbecc":12520,"ececbebe":12521,"bcdcdcc":12522,"bfccff":12523,"fdfccc":12524,"bdee</w>":12525,"edfbecc":12526,"efbcecc":12527,"ebcbbbbbbbb":12528,"ebcbdef":12529,"eecbbecc":12530,"bbbeda":12531,"bebdefc":12532,"ecbcba":12533,"ebdcbfc":12534,"dbbcebf":12535,"beebbecc":12536,"bebfebd":12537,"bedceecc":12538,"fefbdc":12539,"bebbcdbe":12540,"eceddec":12541,"bdfdebc":12542,"bdfeecc":12543,"eddb</w>":12544,"dceedbc":12545,"efeefc":12546,"efbedf":12547,"ebcecebc":12548,"bbcfebd":12549,"fcbebbbb":12550,"edcbbbbc":12551,"dbbecbcc":12552,"eabeef":12553,"debebbcc":12554,"bcbebbeec":12555,"fddbcc":12556,"dbbfdd":12557,"bdbfdd":12558,"ebbbcbdc":12559,"bfcbbefbedd":12560,"adebd":12561,"effbdc":12562,"bbdbebcc":12563,"dfdebd":12564,"edcdbdc":12565,"ebbcbebbc":12566,"bbbfbbed":12567,"bbbffcc":12568,"bbdcfec":12569,"fbfdcc":12570,"bebfbbd":12571,"beddebd":12572,"ebbbcfee":12573,"bcbbdbbbb":12574,"ecdebccc":12575,"fceebcbfdbbbb":12576,"ebbbeea":12577,"efbfed":12578,"ebcbeeec":12579,"ebcecfc":12580,"becfecc":12581,"bcceebbc":12582,"eecdbbf":12583,"eecfebd":12584,"deefebb":12585,"decbeecc":12586,"befbbebc":12587,"deddbbc":12588,"feefdc":12589,"fbebdbd":12590,"fbeecbd":12591,"eeeebbec":12592,"bebddebe":12593,"bbdcbeee":12594,"bcfbbebc":12595,"dbecbbbe":12596,"beedbbbc":12597,"ececbfc":12598,"ffcbbf":12599,"bfbcfec":12600,"eceecccc":12601,"bfbebfc":12602,"dcfbbee":12603,"dcebdcc":12604,"bbcfdf":12605,"bccbbeec":12606,"dfdbbd":12607,"dffbcc":12608,"ebffa":12609,"bafa":12610,"bbbdea":12611,"bbbfded":12612,"bcecebbc":12613,"beedefc":12614,"bdbcddc":12615,"bdeebeee":12616,"edddecc":12617,"fdeac":12618,"bfeeecc":12619,"bbbbfa":12620,"ebeeeff":12621,"ebdbcfc":12622,"eececbf":12623,"eecfbec":12624,"dbcbbebc":12625,"dbceedd":12626,"bcbcddc":12627,"bbebeba":12628,"bedcbebe":12629,"ecedbec":12630,"edeeddc":12631,"eebbbfcc":12632,"bbba</w>":12633,"beef</w>":12634,"ecdebecc":12635,"edbc</w>":12636,"ebbfea":12637,"bbbbeebbc":12638,"efdded":12639,"ebcdbbbc":12640,"ebcbbccc":12641,"bbfdbbd":12642,"dbeecbf":12643,"bdcbcdc":12644,"dbbdcebe":12645,"decdebd":12646,"bbecdebe":12647,"beeebccc":12648,"feecccc":12649,"feefebe":12650,"bcbcdbf":12651,"fbebfcc":12652,"bbbfbebd":12653,"beecbedd":12654,"fedefc":12655,"ecbedfc":12656,"eebdbfc":12657,"dbecfec":12658,"fbfdec":12659,"bedcfbc":12660,"bbbecbebe":12661,"edbeebcc":12662,"bbbbbea":12663,"efbdfc":12664,"ebedcdc":12665,"ebebedbe":12666,"ddbeebc":12667,"bbceebec":12668,"becbedf":12669,"bbdfecc":12670,"bbfecbf":12671,"bdcbdcc":12672,"edcfebe":12673,"deedebe":12674,"dbcdecc":12675,"bebccccc":12676,"ebecbcbd":12677,"bbbffbd":12678,"bcbeda":12679,"fbfbbbd":12680,"bbabbee":12681,"bdbdded":12682,"dbccebd":12683,"eeebbfc":12684,"eebfbef":12685,"bdbcbbebb":12686,"eacea":12687,"edbcebf":12688,"dcedbcc":12689,"ecdbbebc":12690,"efdbbbc":12691,"efbbedc":12692,"efacc":12693,"ddeeebe":12694,"eccbedbe":12695,"bbdbeebd":12696,"dbbdcbbc":12697,"deceeec":12698,"eebdfbd":12699,"bbbbbbbbbbf":12700,"ebfcbbbb":12701,"fefbef":12702,"fddddc":12703,"beebefee":12704,"bdecebd":12705,"fbccfc":12706,"edddccc":12707,"edbcebbc":12708,"afebc":12709,"abddc":12710,"ebcbebbf":12711,"ebcbceec":12712,"bbcfecc":12713,"becbcbbbb":12714,"eccbeef":12715,"ecceeef":12716,"dfbbfc":12717,"dffbec":12718,"bbbedbbd":12719,"babcbd":12720,"baeca":12721,"dccbcec":12722,"eaefc":12723,"bbebbbebf":12724,"bcbcbeed":12725,"bbeddbf":12726,"ecccbebe":12727,"ecbcbecc":12728,"ebdcebec":12729,"eeccbbbd":12730,"dbbcfbc":12731,"bceedebc":12732,"bdeefcc":12733,"ebeecef":12734,"ecceded":12735,"bccebbcc":12736,"dfeced":12737,"bbbebdcc":12738,"bdcfebc":12739,"dbcffc":12740,"eafa":12741,"bebcbccc":12742,"bbecbbebe":12743,"beecfbd":12744,"eeeebebc":12745,"eeeecccc":12746,"dfcfbc":12747,"dbecdbd":12748,"debdff":12749,"fefbebe":12750,"eeeddec":12751,"dcbcded":12752,"ecddbccffcecebebdbbbe":12753,"bbbbbbebbc":12754,"efebbebe":12755,"bccbddd":12756,"bbbeecebb":12757,"bbfbcdc":12758,"bbbdbddd":12759,"bbeceebd":12760,"bcbcefc":12761,"dbfbecc":12762,"debbbeee":12763,"acbeee":12764,"bceedbbc":12765,"bebbbebbebb":12766,"ebbbcebf":12767,"ebbbdbbd":12768,"ebbbddbe":12769,"edeebeee":12770,"edeebef":12771,"dcbedbd":12772,"ddfeec":12773,"ebcbfdc":12774,"bbceeef":12775,"bbcbdbbbb":12776,"becefcc":12777,"becbeeec":12778,"eccbcfc":12779,"eeceef":12780,"bbbeeeebe":12781,"bbbcbedd":12782,"dbcbbebe":12783,"dbbebbbec":12784,"dbbebbbbd":12785,"dccffc":12786,"feefec":12787,"bceeac":12788,"bebbca":12789,"bffdec":12790,"bbbbeeebe":12791,"efecbcc":12792,"ebefebf":12793,"ebebfebe":12794,"ebcdced":12795,"beceefc":12796,"ebdbebcc":12797,"bccfbcc":12798,"eecdcdc":12799,"bbbeecbd":12800,"deeebdc":12801,"deedbcc":12802,"dbcfdd":12803,"dbbf</w>":12804,"dedfed":12805,"bcbcdebe":12806,"dbbcbcbc":12807,"eebdbbcc":12808,"beebbbdc":12809,"beedba":12810,"beedbfc":12811,"bbfcbbd":12812,"ececddc":12813,"bdbedbbbb":12814,"bdedbbc":12815,"bdeebecc":12816,"feccefebbc":12817,"ebbeebbbd":12818,"aecef":12819,"edbebbebb":12820,"edbeefc":12821,"bbbbdeec":12822,"efeeff":12823,"ebcbeebd":12824,"ebcbcbcc":12825,"ebceebbd":12826,"dfbbebc":12827,"bbfeeec":12828,"dbedbcc":12829,"edcbebbc":12830,"ffecbd":12831,"bbbceebe":12832,"deedfc":12833,"bebebced":12834,"ebbcbbebc":12835,"dbbbfebe":12836,"dbdebdc":12837,"dbdbdcc":12838,"beeefebe":12839,"beecfcc":12840,"bcccebf":12841,"bdbebbebe":12842,"bbbbebfc":12843,"bbbbbb</w>":12844,"ebebeeec":12845,"ebebcdf":12846,"ebdecebb":12847,"dbeffc":12848,"dbcbcdc":12849,"bebcbced":12850,"fbcbced":12851,"bbbfdcc":12852,"bebdfcc":12853,"bbdcbbcc":12854,"beebebcc":12855,"dbbbedd":12856,"befcff":12857,"eddcedbbc":12858,"ebbbcfbc":12859,"abedd":12860,"bcbbc</w>":12861,"dcfbebe":12862,"ebebeecc":12863,"ebcecbec":12864,"becedbd":12865,"becfebd":12866,"ebdbcebe":12867,"babbebe":12868,"eebceccc":12869,"eeccfbd":12870,"bcccfec":12871,"fdcfcc":12872,"deecbdc":12873,"bbfcfbc":12874,"bedcbbbe":12875,"eebfdd":12876,"bcebbbebc":12877,"bfccdf":12878,"febe</w>":12879,"bbbbd</w>":12880,"bbbbbdbc":12881,"efbeeec":12882,"ebeeebbf":12883,"ebcbfbf":12884,"ebdecdd":12885,"dbebefc":12886,"edcbeebe":12887,"cccebbc":12888,"bbeebced":12889,"bebeeebd":12890,"dbbedef":12891,"dbbdcef":12892,"beeefbf":12893,"ddcbbec":12894,"ddcbebd":12895,"ebdcefc":12896,"bebfdbc":12897,"bedcbfc":12898,"ffcbdc":12899,"dbbbebbbe":12900,"bdbedef":12901,"bdeddec":12902,"bceffc":12903,"bea</w>":12904,"bebbeac":12905,"edfbbcc":12906,"ebbfbbbf":12907,"dcbbbbcc":12908,"ebcbbebf":12909,"ebceea":12910,"ebcbcbbd":12911,"bbcbcbbd":12912,"bccbeebc":12913,"bccfecc":12914,"eececbe":12915,"ebfbcdc":12916,"edcfa":12917,"bafebb":12918,"bbbceeed":12919,"befbcebb":12920,"dccdfc":12921,"eabbed":12922,"bbedbeed":12923,"beccfbd":12924,"ecbcfbd":12925,"bcccfbc":12926,"bbebcbbee":12927,"beefebf":12928,"ecbfff":12929,"bdfbbef":12930,"feecdf":12931,"ebbbcbbbbc":12932,"bfbcbef":12933,"fbbebccc":12934,"eddbbebe":12935,"bbbbbcbbbe":12936,"efebccc":12937,"bbcfbbf":12938,"eccfbcc":12939,"badef":12940,"deebdcc":12941,"dbcda":12942,"bfcbbdd":12943,"bfcfbbc":12944,"bebcdef":12945,"feedbec":12946,"bbebbebbebb":12947,"bbbfdbf":12948,"bbbfbebf":12949,"bbdcbbec":12950,"fbfbcbc":12951,"beedbeec":12952,"febedd":12953,"febcfc":12954,"eddcfc":12955,"bdecbbec":12956,"eedeac":12957,"bbcbdbbc":12958,"becbcfc":12959,"eccbcebe":12960,"ebdefcc":12961,"bbbeb</w>":12962,"ffdebc":12963,"dbddfc":12964,"dcceeed":12965,"bebcdebc":12966,"bbebbfebb":12967,"ddcdef":12968,"bbeddef":12969,"ecbebbebe":12970,"ecbedbbbb":12971,"dbbdbbee":12972,"ececebbc":12973,"beddbdc":12974,"febefebe":12975,"bdeebbebb":12976,"dcbcbebe":12977,"abfcc":12978,"abefc":12979,"bedbb</w>":12980,"eebf</w>":12981,"eedebccc":12982,"ebefccc":12983,"bbcbca":12984,"bccbcbcc":12985,"bbdeeef":12986,"bbfcccc":12987,"deebcee":12988,"dbbbffc":12989,"decbcdc":12990,"beeeebcc":12991,"feeac":12992,"ddcebbc":12993,"fecdedc":12994,"bbbfdebb":12995,"beccecbc":12996,"eefdbcc":12997,"eeecbebd":12998,"bbfceec":12999,"bbfcdbc":13000,"bdbdff":13001,"fddecc":13002,"beadbe":13003,"dcbcbdc":13004,"bdfbccc":13005,"ebbfefc":13006,"ebbbbbcbbbb":13007,"dcbbbfc":13008,"ebcdebbc":13009,"bbdeded":13010,"baeebc":13011,"dbbedbec":13012,"dbbebbbbbe":13013,"eabeec":13014,"bbbdfbe":13015,"bbbdfcc":13016,"ebecbedc":13017,"fbdfcc":13018,"feddef":13019,"eebebbbec":13020,"beedecc":13021,"bebfedc":13022,"beefbef":13023,"eeddbdc":13024,"eedddbc":13025,"bcbbbbbbd":13026,"ebbbcebbc":13027,"bfecdec":13028,"ebeecebc":13029,"ebfbcee":13030,"bbeedebc":13031,"bbeebbbec":13032,"bebcdbbc":13033,"bbecbced":13034,"ebcceedc":13035,"dbfac":13036,"fecdbec":13037,"eebddebb":13038,"bcbddebb":13039,"fbfeec":13040,"deeceebc":13041,"bbfcbbbc":13042,"eeebbeeebb":13043,"fdddbc":13044,"bbbbbbbbbbbbbbbbbbbbbbbbbbbb":13045,"dcecbbbb":13046,"bbbbedbd":13047,"bbbbbcdd":13048,"ddecebb":13049,"ebcbcdf":13050,"fcecbbc":13051,"ebdd</w>":13052,"ebdeeebe":13053,"ebdfbbbb":13054,"bccbddc":13055,"bebebcdc":13056,"bfcdebe":13057,"eafcc":13058,"ebccdebb":13059,"fbedecc":13060,"bbedebec":13061,"beccbedc":13062,"bbdcebec":13063,"ecbebbef":13064,"bcbdbeee":13065,"bbebcbbd":13066,"bedcbbbc":13067,"ecbdddc":13068,"bdbffc":13069,"bdeebeec":13070,"bdecbef":13071,"abac":13072,"dceedcc":13073,"ddfebd":13074,"ebcbcdbe":13075,"bbfeedc":13076,"dbebcef":13077,"bdcfbec":13078,"edcbbef":13079,"bebeeecc":13080,"bebceccc":13081,"bebcdfc":13082,"bbedddc":13083,"bbedeebc":13084,"ecbedbcc":13085,"eebdfcc":13086,"bedddee":13087,"bebbcdf":13088,"ecdcdbc":13089,"bdbcebbc":13090,"eceddcc":13091,"dcbcdbd":13092,"abdef":13093,"bfbbcbbc":13094,"ebbfcdc":13095,"efecfc":13096,"ebebdebe":13097,"dddbbbc":13098,"ebcecef":13099,"fcecfc":13100,"fcbcdf":13101,"bbfeef":13102,"bbfbcbbc":13103,"ebfffc":13104,"edcbdcc":13105,"ffb</w>":13106,"bfcebdc":13107,"bfcfef":13108,"bebcbbdd":13109,"bbecdbec":13110,"bbedbbcc":13111,"bebdbbebb":13112,"bebdfbd":13113,"dbbcbeee":13114,"debceebc":13115,"fdcdbd":13116,"deecfec":13117,"bbbecebbc":13118,"eeedbbbc":13119,"edcca":13120,"eceebef":13121,"ecedbcc":13122,"bdedeec":13123,"edbcbef":13124,"dceeddc":13125,"bcbbd</w>":13126,"bddefcc":13127,"ebdfbbd":13128,"dfe</w>":13129,"efcda":13130,"feebecc":13131,"ebccfed":13132,"bbbbcecc":13133,"defebbc":13134,"fedfed":13135,"bcecfcc":13136,"ebfcbec":13137,"bcedbeec":13138,"eeebbeeebe":13139,"dcecdcc":13140,"bbbbebbbbebb":13141,"ecbbedcc":13142,"bcbf</w>":13143,"ebedbbee":13144,"ebeeefee":13145,"ddeded":13146,"fcebecc":13147,"bccdbdc":13148,"bbfdebd":13149,"edcfeec":13150,"ffebdc":13151,"dbbbfbec":13152,"fbcdbbc":13153,"ebccbbebb":13154,"fbedbbd":13155,"bebdbbcc":13156,"debebeee":13157,"eefbbfc":13158,"bbebcdbe":13159,"bebfdee":13160,"fabba":13161,"beabbc":13162,"fbbbbbbbc":13163,"dcbdccc":13164,"dcbbdfddeecfdc":13165,"bdbebccc":13166,"dcebbec":13167,"effdee":13168,"ebefeec":13169,"bbdbcebc":13170,"ebfbdbd":13171,"bdcbcbf":13172,"baefc":13173,"ffbeebe":13174,"decbebbc":13175,"bbbdbbeec":13176,"fbcac":13177,"fbebdbf":13178,"dbffbf":13179,"beeceedc":13180,"ecccbbee":13181,"ecccbcbc":13182,"dbbcdebb":13183,"bcfdeec":13184,"eebdbbee":13185,"dfcbbec":13186,"dadcc":13187,"eeecdebc":13188,"deccbbc":13189,"eeebbba":13190,"ececbbcc":13191,"bdfdebe":13192,"ecebbbbbc":13193,"ebbebbbbc":13194,"dcbcdcc":13195,"fbbeac":13196,"bfdbbcc":13197,"eddbbbf":13198,"bbbbecbf":13199,"bccefcc":13200,"bbdbcfc":13201,"bbdbcbec":13202,"bbbefef":13203,"bbedbcbc":13204,"bbdcbcbc":13205,"bcbdbfc":13206,"eeeddbd":13207,"bebbcebd":13208,"bbebddd":13209,"eeddbbc":13210,"dbbbebbc":13211,"bcbbcbcbbc":13212,"bedbbdd":13213,"dcfbef":13214,"bbbbffc":13215,"bbbbdbbbc":13216,"bbbbebbbbc":13217,"efdbbee":13218,"ebcbcecc":13219,"bbdeeebe":13220,"dfb</w>":13221,"bbbebeebc":13222,"dbedecc":13223,"ebfbcbe":13224,"ebfeeef":13225,"babebf":13226,"bebeeebe":13227,"bebebdbd":13228,"ebbcdbec":13229,"dbbecebd":13230,"dedbeebb":13231,"bbbfbeebb":13232,"beecea":13233,"eebceba":13234,"bebdbeee":13235,"bbabebe":13236,"beebebeebe":13237,"bdecebe":13238,"bfbcebf":13239,"bfdddd":13240,"bbbbbebbf":13241,"efdba":13242,"fcdced":13243,"bbdbdbe":13244,"dfbfcc":13245,"ebfeebe":13246,"bfcbcbf":13247,"ebecbbbbc":13248,"bcbcbebf":13249,"acbbee":13250,"bebdebcc":13251,"beccfee":13252,"eefbbdd":13253,"eebddcc":13254,"febca":13255,"bdbfa":13256,"eefcdf":13257,"ddccdd":13258,"bbccccccc":13259,"edebfcc":13260,"efedef":13261,"ebcbdbbc":13262,"fcbddd":13263,"fcbeebd":13264,"eecbcebe":13265,"bbdbb</w>":13266,"bbbebcdc":13267,"bbbeeebbc":13268,"ebfbebbbb":13269,"bdcecec":13270,"deeecbd":13271,"dedfbd":13272,"bbecbccc":13273,"bbecbcec":13274,"ebecdef":13275,"fbeeba":13276,"fecdbbc":13277,"bcbedbcc":13278,"fbfbeee":13279,"fdcebbc":13280,"eedcdcc":13281,"ecfdbec":13282,"eceefee":13283,"bcbbbbbcc":13284,"edbd</w>":13285,"bbbbfbbbe":13286,"efbebdc":13287,"ebeeddd":13288,"ebfbbebc":13289,"deebeecc":13290,"dbceccc":13291,"ebbcdbbbb":13292,"eafec":13293,"bbecbedd":13294,"feedbbc":13295,"ebecdbf":13296,"acbac":13297,"eeccddc":13298,"debcbfc":13299,"fbbcdbe":13300,"bdfdbbbb":13301,"ecdbba":13302,"dcbebbee":13303,"effbbee":13304,"ebcc</w>":13305,"ebcbfed":13306,"eecbdbc":13307,"bbdecbbc":13308,"bbbefebe":13309,"bbfdbcc":13310,"edceeebb":13311,"bbbcdbec":13312,"dbcbcbf":13313,"dbddeec":13314,"befeeec":13315,"bbbdeeee":13316,"beeedbbc":13317,"beccbeee":13318,"beccdebb":13319,"ebdcded":13320,"bcfdbbf":13321,"eebdeebc":13322,"eceddbe":13323,"bffba":13324,"edbbebcc":13325,"dcdebdc":13326,"efeddd":13327,"ebceded":13328,"bbcecf":13329,"bbdfdbe":13330,"dfbba":13331,"bbfeebe":13332,"bdcfa":13333,"ffbeed":13334,"deebded":13335,"befeccc":13336,"bbbdbebf":13337,"efcfebb":13338,"bbecbebf":13339,"feebebd":13340,"ebecbbed":13341,"ecbeedcc":13342,"bcbebbdd":13343,"bceefbe":13344,"fdceebc":13345,"eeecdebb":13346,"debddec":13347,"edecdcc":13348,"bcdebecc":13349,"aeebbc":13350,"bbbbeccc":13351,"bbbbeeed":13352,"ebeecebe":13353,"ebddebf":13354,"eececebb":13355,"edcbcdd":13356,"ffdccc":13357,"bbbceeebb":13358,"deeeebd":13359,"deebbfc":13360,"deebeebe":13361,"dbcecdc":13362,"dbdfebb":13363,"beeeeebf":13364,"bbbfea":13365,"bebdbedc":13366,"dadbd":13367,"fdcbbbb":13368,"beeddcc":13369,"eedddbe":13370,"eebbbbbbebb":13371,"dcbcebd":13372,"edbeea":13373,"ebcbca":13374,"ebcecebe":13375,"bbceba":13376,"eccbcbbc":13377,"dfbbbec":13378,"bbbebebec":13379,"bafef":13380,"bbbcbcee":13381,"bbeeeebe":13382,"ebbcbcebb":13383,"fbceccc":13384,"bcbcecbc":13385,"eebcfed":13386,"debebfc":13387,"bbdddcc":13388,"bcecddc":13389,"bcbfbbbc":13390,"edbfedbf":13391,"bfbda":13392,"bfbbbbebb":13393,"bfeeebf":13394,"edbeac":13395,"ebebbebbc":13396,"bccfeec":13397,"ebbcbced":13398,"decbebf":13399,"fccdef":13400,"beecdeec":13401,"acbba":13402,"fdcbecc":13403,"eeecddc":13404,"ecbdfcc":13405,"edbcbebc":13406,"bbbbbddc":13407,"efecdf":13408,"ebebdbbbb":13409,"ddecee":13410,"ddecef":13411,"eccbba":13412,"ebdfbcc":13413,"bbffdf":13414,"bdcdebd":13415,"bdcdedc":13416,"edcbcbe":13417,"edcbded":13418,"bebebedc":13419,"bfcbebf":13420,"bbebbbbbec":13421,"debbbbed":13422,"eeeedbd":13423,"bebdbbed":13424,"fbddfc":13425,"dbbbbbbcc":13426,"eedcfec":13427,"bcedff":13428,"fefeeee":13429,"fddbbf":13430,"fddefc":13431,"eeedfc":13432,"bbeecdec":13433,"febcff":13434,"dddddbd":13435,"bfedccc":13436,"ac</w>":13437,"abdebb":13438,"efefbf":13439,"ebebbedc":13440,"becebecc":13441,"eecbbeec":13442,"bbbebdebb":13443,"bbbcfef":13444,"deebbecc":13445,"bfcbbfc":13446,"eafbf":13447,"bbebbbeebe":13448,"fbebbbcc":13449,"bbbbcdec":13450,"ecccfec":13451,"deccbebc":13452,"eebfbcc":13453,"bdbfdf":13454,"bfdebec":13455,"bfececc":13456,"dceeff":13457,"efecebc":13458,"ddebbcc":13459,"ebcbac":13460,"ebceedbe":13461,"fceddc":13462,"ebdbdebb":13463,"eecdebbc":13464,"badbbc":13465,"babccc":13466,"dccbcdc":13467,"bbbfefc":13468,"beccea":13469,"ecbcdebe":13470,"bbdcddc":13471,"beebbbbbf":13472,"eeecdbf":13473,"deccebd":13474,
[...]
