{"<unk>":0,"<pad>":1,"a":2,"b":3,"c":4,"d":5,"e":6,"f":7,"e</w>":8,"b</w>":9,"c</w>":10,"f</w>":11,"a</w>":12,"d</w>":13,"bb":14,"be":15,"bc":16,"ee":17,"cc":18,"bd":19,"ec":20,"bf":21,"ed":22,"ebb":23,"dc":24,"bbbb":25,"ef":26,"ebe":27,"dd":28,"ebc":29,"bbc":30,"fc":31,"bec":32,"ecc":33,"ebd":34,"bcc":35,"eec":36,"bbd":37,"df":38,"bbbe":39,"bbf":40,"dbe":41,"ebf":42,"bdc":43,"edc":44,"ba":45,"ff":46,"bbbc":47,"dee":48,"ccc":49,"dbc":50,"bbee":51,"bebe":52,"bfc":53,"ebbc":54,"dbb":55,"dec":56,"dbd":57,"bef":58,"dcc":59,"ea":60,"bbbd":61,"bebc":62,"efc":63,"ded":64,"bbec":65,"fbc":66,"beee":67,"bbcc":68,"fee":69,"bbebb":70,"ebec":71,"bcbc":72,"ebcc":73,"fbe":74,"ddc":75,"dbf":76,"fec":77,"debb":78,"bbbf":79,"bbed":80,"fcc":81,"beec":82,"eeee":83,"ac":84,"bbbbc":85,"eebc":86,"bebd":87,"becc":88,"fbd":89,"def":90,"eccc":91,"ecbc":92,"ebdc":93,"fed":94,"eecc":95,"bbebe":96,"bbdc":97,"dbbc":98,"eebe":99,"debe":100,"eef":101,"debc":102,"ecbe":103,"bbef":104,"bcbe":105,"bcf":106,"eebd":107,"dfc":108,"bbdd":109,"da":110,"bccc":111,"dbbbb":112,"dbec":113,"bcbd":114,"bcee":115,"fbf":116,"beebb":117,"fdc":118,"bbbbbbbb":119,"bcec":120,"bbebc":121,"deec":122,"beed":123,"bba":124,"febb":125,"eeec":126,"bebf":127,"eba":128,"bbfc":129,"bdbd":130,"bedc":131,"cccc":132,"dbbd":133,"bbbec":134,"decc":135,"eedc":136,"ecbd":137,"ebfc":138,"debd":139,"dbcc":140,"ecf":141,"bced":142,"eeebb":143,"fef":144,"bbbcc":145,"fdd":146,"eebf":147,"ecec":148,"beebe":149,"bcbf":150,"bedd":151,"bcebb":152,"eeed":153,"bebbc":154,"ffc":155,"bebbbb":156,"bbebd":157,"dedc":158,"febe":159,"edcc":160,"beef":161,"fbbc":162,"edbd":163,"bcdc":164,"eedd":165,"bbeec":166,"ecdc":167,"dbdc":168,"dbbf":169,"dccc":170,"eeebe":171,"dbbbe":172,"bbecc":173,"fa":174,"bdcc":175,"ecbf":176,"ecee":177,"bdbc":178,"febc":179,"bac":180,"eced":181,"bcbbc":182,"bdbe":183,"bdf":184,"bfcc":185,"bea":186,"bded":187,"ecebb":188,"befc":189,"eeef":190,"bcbbbb":191,"bdbf":192,"beebc":193,"bcef":194,"bcdd":195,"dbbbc":196,"ecdd":197,"debf":198,"eac":199,"eebbc":200,"bb</w>":201,"ebbcc":202,"fbbbb":203,"bbbdc":204,"bbebf":205,"bdee":206,"ebbebb":207,"bbccc":208,"bebec":209,"bddd":210,"eddc":211,"fbec":212,"bcebe":213,"bddc":214,"efcc":215,"fecc":216,"bebbbe":217,"bdec":218,"fbcc":219,"dbbee":220,"bcfc":221,"bdebb":222,"eddd":223,"bcebc":224,"dbfc":225,"fdf":226,"bebbd":227,"eebbbb":228,"dcdc":229,"ecbbc":230,"bbedc":231,"bebcc":232,"edbf":233,"eea":234,"fbbd":235,"edbc":236,"febd":237,"ebecc":238,"debbc":239,"ebccc":240,"feec":241,"dddd":242,"bfbf":243,"bca":244,"bedf":245,"bedbe":246,"eefc":247,"defc":248,"beecc":249,"bcbec":250,"bbebbc":251,"dba":252,"eded":253,"fbbf":254,"bbba":255,"ecef":256,"fdbe":257,"ebbbbbb":258,"bebbf":259,"ebbee":260,"bdbbc":261,"bbbfc":262,"ecbec":263,"ebbbc":264,"beebd":265,"bdef":266,"bdbbbb":267,"eeebc":268,"ebbbf":269,"ecebc":270,"beeec":271,"ecebe":272,"fccc":273,"bcbbd":274,"ecfc":275,"dced":276,"fbbbe":277,"ecdf":278,"ddcc":279,"eebec":280,"fedc":281,"bcbcc":282,"ebbbd":283,"eebcc":284,"bebbee":285,"bcdf":286,"bfdc":287,"bceec":288,"dea":289,"deecc":290,"bebbbc":291,"dbbcc":292,"eedbe":293,"bfed":294,"fbdc":295,"ecbbbb":296,"ebbed":297,"dcbd":298,"bfbd":299,"eedf":300,"eca":301,"ebbbbc":302,"fdbc":303,"ecccc":304,"bfbc":305,"be</w>":306,"ebbebe":307,"eebbd":308,"beff":309,"eebbbe":310,"bd</w>":311,"febf":312,"debcc":313,"ecbcc":314,"debec":315,"bda":316,"bebdc":317,"bc</w>":318,"bdebe":319,"dcdd":320,"edbbc":321,"bedbc":322,"dcbc":323,"eebbf":324,"beccc":325,"eeecc":326,"efbf":327,"dcec":328,"acc":329,"beebf":330,"bcebd":331,"bcecc":332,"dfcc":333,"dbecc":334,"ecbbd":335,"fbbbc":336,"dcbf":337,"bdfc":338,"eebbee":339,"ebbef":340,"bcbbbe":341,"bbbbbbc":342,"bdebc":343,"dded":344,"eceec":345,"fbebe":346,"bedee":347,"fdee":348,"beedc":349,"bbefc":350,"bbea":351,"eeccc":352,"eb</w>":353,"bbbbcc":354,"efdc":355,"bfebb":356,"bcbbf":357,"bbebec":358,"bdbbd":359,"bbcbbc":360,"bcdbe":361,"fbef":362,"bfef":363,"ececc":364,"ecdbe":365,"ebdcc":366,"bdbec":367,"fbbee":368,"ebbdc":369,"ebeebe":370,"bfbbc":371,"bddf":372,"eeeec":373,"ecdee":374,"bedbb":375,"dac":376,"bffc":377,"fdcc":378,"bcccc":379,"edef":380,"eeebd":381,"edebb":382,"ffcc":383,"bcbbbc":384,"eebebe":385,"fdbd":386,"eddf":387,"bbdcc":388,"dddc":389,"bbbbebb":390,"ddbd":391,"fbfc":392,"bfec":393,"eebdc":394,"ebeebb":395,"fdbb":396,"bfdd":397,"eedbc":398,"eeff":399,"edec":400,"deccc":401,"dcef":402,"bfebe":403,"fdec":404,"bedbd":405,"bcdee":406,"edbec":407,"bbebcc":408,"edebc":409,"bfa":410,"eebeee":411,"ebbec":412,"eedee":413,"bcff":414,"dbbbbc":415,"debdc":416,"dbbbd":417,"efef":418,"bedcc":419,"edebe":420,"bbcbbbb":421,"bcdbc":422,"eda":423,"fba":424,"bebbbd":425,"bebbebb":426,"eebbbc":427,"fcdc":428,"ecebd":429,"bdeec":430,"ebbebc":431,"eeebf":432,"bfbbbb":433,"bedec":434,"bebbec":435,"ebbdd":436,"bbfcc":437,"edfc":438,"beba":439,"fbebc":440,"bbcbd":441,"febbc":442,"dcebe":443,"efdd":444,"bebfc":445,"ebba":446,"bcbdc":447,"dcfc":448,"eebef":449,"dcebc":450,"bbac":451,"ebbbec":452,"efbd":453,"fbeee":454,"eddee":455,"beebbc":456,"bbbbbd":457,"ee</w>":458,"bcbebe":459,"ebebf":460,"aa":461,"dcbbc":462,"bcedc":463,"ebbfc":464,"eddbe":465,"ecdbc":466,"eedcc":467,"bbbecc":468,"ecdec":469,"bebbcc":470,"bdbcc":471,"bbcbf":472,"fbbbd":473,"bddbe":474,"ec</w>":475,"dcebb":476,"ebfcc":477,"fefc":478,"dedcc":479,"edbcc":480,"dbbdd":481,"edee":482,"ecbbf":483,"bfebc":484,"ed</w>":485,"efebe":486,"ebbbbbe":487,"ecbbbe":488,"edbbbb":489,"fbbcc":490,"ecbdc":491,"ebebbc":492,"db</w>":493,"fbbec":494,"bbdbd":495,"dcbec":496,"dbccc":497,"fea":498,"eeedc":499,"fddc":500,"dceec":501,"bcbbee":502,"fdbf":503,"bdebd":504,"eefee":505,"befcc":506,"ebac":507,"ecff":508,"bbcebb":509,"edeec":510,"dcccc":511,"bdecc":512,"bbdbbbb":513,"bcdec":514,"fcbf":515,"ebebbbb":516,"dca":517,"efebb":518,"eedbd":519,"fded":520,"bbbccc":521,"bfbec":522,"efbbc":523,"dbbebb":524,"dcecc":525,"bcdbd":526,"effc":527,"ebebd":528,"bcebf":529,"bbbebbbb":530,"efed":531,"bcbebc":532,"efa":533,"bcbef":534,"edbbd":535,"fbecc":536,"dcdf":537,"dcee":538,"dbbbf":539,"ebbbbd":540,"bebecc":541,"bedbf":542,"ddbf":543,"eeba":544,"dbbed":545,"bcfbc":546,"fbbbf":547,"ebeef":548,"bebbbf":549,"bcbbbd":550,"bdbbbe":551,"beded":552,"ecbbbc":553,"beea":554,"ecded":555,"fcdd":556,"beddc":557,"ebedc":558,"ecedc":559,"bddee":560,"ebced":561,"bbb</w>":562,"bebbed":563,"ebcbf":564,"bbdbbc":565,"bbbbbf":566,"bcbfc":567,"eedec":568,"fbbebb":569,"ebcbbc":570,"fcfc":571,"bdbbf":572,"becbbc":573,"ebbbcc":574,"ebeed":575,"ebedd":576,"bbebdc":577,"ecdbd":578,"bf</w>":579,"bbdbf":580,"dd</w>":581,"eebebc":582,"bbbbbbbe":583,"dcbcc":584,"ebbeec":585,"fbccc":586,"eebbec":587,"bcbbec":588,"bedebb":589,"eefbe":590,"bbeecc":591,"becbf":592,"bbced":593,"bcded":594,"ecdcc":595,"ecced":596,"dbbdc":597,"febcc":598,"bdff":599,"ebcebb":600,"bcebbc":601,"bcdcc":602,"fac":603,"eebbebb":604,"feecc":605,"dda":606,"fcbbc":607,"bfbcc":608,"bddbc":609,"ddef":610,"ecbebe":611,"eeebbc":612,"ebea":613,"bdbdc":614,"ddbbc":615,"beefc":616,"ecbebc":617,"bfdf":618,"ecbef":619,"dcebd":620,"bcbbcc":621,"eebbbd":622,"bbbbbbd":623,"edecc":624,"dbbebe":625,"bbeccc":626,"ebbbbf":627,"ddebc":628,"bddbd":629,"febec":630,"fcdf":631,"bbbbbbbc":632,"bcba":633,"fdebb":634,"bebbbbc":635,"bebbebe":636,"fbbed":637,"bbbbebe":638,"ebcbec":639,"eefbc":640,"fcef":641,"ebbdf":642,"edebd":643,"eebfc":644,"bebccc":645,"ebcdc":646,"beebec":647,"fcbd":648,"bbcbec":649,"eeddc":650,"dbdcc":651,"ebcbd":652,"eebcbc":653,"ebbebd":654,"eddbc":655,"ecbfc":656,"bcfee":657,"ebcef":658,"ebcdd":659,"ebbdbe":660,"bbded":661,"fdef":662,"becbec":663,"dbbef":664,"bbcebe":665,"abf":666,"bcbeee":667,"bbcef":668,"ecebf":669,"fced":670,"ecbbec":671,"ebbbbbc":672,"ecbbee":673,"dfdc":674,"bfbbf":675,"ddebe":676,"debfc":677,"cccccccc":678,"bdedc":679,"eeea":680,"edccc":681,"eebbcc":682,"de</w>":683,"bcfec":684,"dcdbe":685,"ebcebc":686,"beac":687,"beebcc":688,"bbcdd":689,"bfecc":690,"bdbbbc":691,"bbbbbbbbbbbb":692,"bbcdc":693,"eedbf":694,"ddfc":695,"bbdebb":696,"dbba":697,"bcced":698,"dc</w>":699,"bcbbebb":700,"ddeec":701,"becdc":702,"bcfbe":703,"dddf":704,"dbbfc":705,"ecfbc":706,"ecbeec":707,"bdccc":708,"ddebb":709,"aed":710,"ecebbc":711,"bcfcc":712,"feccc":713,"dcbbbb":714,"becebb":715,"bbcfc":716,"ecbcbc":717,"eecbf":718,"bbcbcc":719,"bcefc":720,"efbcc":721,"ebefc":722,"bdbebe":723,"bcbeec":724,"eddec":725,"efdf":726,"ebebbbe":727,"dcbbd":728,"bbcebc":729,"bfff":730,"bedbbc":731,"ddbec":732,"defcc":733,"ebbbebe":734,"ebb</w>":735,"ebebec":736,"ebbecc":737,"bbcccc":738,"eeded":739,"bceebc":740,"eecdc":741,"bfdbe":742,"dbbebc":743,"bfbbd":744,"bfebd":745,"efebc":746,"abd":747,"bfbbbe":748,"ebebcc":749,"dbbbec":750,"edbdc":751,"fcccc":752,"fdbbc":753,"ecba":754,"fbbef":755,"ecbbbd":756,"eebeec":757,"adc":758,"bbbcbbbb":759,"edbbf":760,"ddecc":761,"efbec":762,"bebbef":763,"ebeebc":764,"bcdebb":765,"fbbdc":766,"eecbec":767,"bcdbf":768,"eecdf":769,"beeecc":770,"bcbbed":771,"efbbbb":772,"bebbdc":773,"eebbed":774,"bcbccc":775,"bbcbbd":776,"bcbebd":777,"add":778,"fbbbbc":779,"edff":780,"dcdee":781,"ebcbbbb":782,"fda":783,"eeeecc":784,"deba":785,"bedef":786,"edbbbe":787,"ebcfc":788,"bacc":789,"ecfec":790,"bddec":791,"afc":792,"bbebfc":793,"ddbbbb":794,"abbc":795,"bbeba":796,"bfeec":797,"aef":798,"dffc":799,"bcfbd":800,"bbbbbbbbbbbbbbbb":801,"bcbbbf":802,"eacc":803,"fdfc":804,"bcbbbbc":805,"bdbbbd":806,"bbddc":807,"dbfcc":808,"ebceec":809,"dbbbcc":810,"eebbbf":811,"dbbebd":812,"bdbbee":813,"bbbeebb":814,"bcddc":815,"ecceec":816,"fedcc":817,"dfed":818,"bedebe":819,"fbbebe":820,"bcebec":821,"eebbebe":822,"ecfee":823,"dbedc":824,"ebbff":825,"bccccc":826,"fcbec":827,"abbbb":828,"bccbbc":829,"eebccc":830,"bcbecc":831,"eefcc":832,"ebddd":833,"ecbecc":834,"ebebebe":835,"bdebf":836,"ebcdf":837,"dcedc":838,"bbfbf":839,"ecdebb":840,"ecddc":841,"ebbbbee":842,"cccccc":843,"ebded":844,"aebe":845,"bbdef":846,"bccbf":847,"ebcebe":848,"deedc":849,"fdebe":850,"bbdebe":851,"eebebd":852,"eecdd":853,"bbbebbc":854,"efdbe":855,"bebbebc":856,"aebb":857,"bbbbbec":858,"bccbcc":859,"febdc":860,"dfdd":861,"ecbbcc":862,"eecbbc":863,"eebecc":864,"bbdbbd":865,"bdbef":866,"efff":867,"eedebb":868,"bedbbbb":869,"eddbd":870,"efecc":871,"dcff":872,"ecefc":873,"ededc":874,"ecbeee":875,"dfbf":876,"efbbf":877,"fcebe":878,"ecfcc":879,"eefec":880,"bdbebc":881,"bcdbb":882,"ebdbf":883,"ecbccc":884,"bcea":885,"fdebc":886,"dddbe":887,"eedbb":888,"bedebc":889,"fcbcc":890,"eccecc":891,"bbdbec":892,"eefbd":893,"ef</w>":894,"ecdbf":895,"ecbebd":896,"bdfbc":897,"dcdbc":898,"edded":899,"bbcbbbe":900,"dcbdc":901,"ddbcc":902,"bbbdcc":903,"fcebb":904,"bceebe":905,"eeefc":906,"ebebbf":907,"bcebcc":908,"eccbec":909,"ebcbcc":910,"bbbbbbf":911,"ecfbe":912,"bdded":913,"fca":914,"bdbfc":915,"bbceec":916,"ecbbed":917,"bddcc":918,"bbbbed":919,"ddebd":920,"ebbebf":921,"bcfed":922,"fcebc":923,"bbbebf":924,"fbdcc":925,"bebbdd":926,"bbbbbcc":927,"bcecbc":928,"bedbec":929,"dcdec":930,"ecbbebb":931,"bbbbdd":932,"ebbdbc":933,"bebba":934,"bcdef":935,"beced":936,"eebbef":937,"bceeee":938,"fcdbe":939,"ecdef":940,"bcecbe":941,"bceecc":942,"bbca":943,"eeebcc":944,"eeebec":945,"bbcbbf":946,"eccef":947,"ebbccc":948,"ebbbdc":949,"debbcc":950,"bebbbec":951,"becebc":952,"becdd":953,"eeac":954,"eceebc":955,"becebe":956,"fbbdd":957,"efccc":958,"bfccc":959,"bceef":960,"bcdebe":961,"bceebd":962,"bbd</w>":963,"dbac":964,"bfbdc":965,"becbbbb":966,"bbbeebe":967,"ecebcc":968,"dbedd":969,"ebddc":970,"beeccc":971,"bbcbbbc":972,"bfebf":973,"ecebec":974,"eddcc":975,"eeecbc":976,"bbcdf":977,"bbbbbbbd":978,"becef":979,"bbdebc":980,"bdba":981,"ffdc":982,"bfbbbc":983,"bbcdbe":984,"bbda":985,"bcac":986,"ebebbee":987,"bedfc":988,"dbbeec":989,"bbbebbbe":990,"beda":991,"deedd":992,"eccebc":993,"fbbfc":994,"becdf":995,"edbebe":996,"becccc":997,"deac":998,"bfbebe":999,"eccdc":1000,"bbdfc":1001,"eedbbc":1002,"bbbbebc":1003,"becbd":1004,"bccef":1005,"edbbbc":1006,"eecccc":1007,"bccebe":1008,"bfedc":1009,"fdbec":1010,"ebbbbbd":1011,"ebbedc":1012,"bbcebd":1013,"ebbdee":1014,"bcbbdc":1015,"eebbbbc":1016,"edbef":1017,"dcbbf":1018,"becfc":1019,"bfdbc":1020,"ebedf":1021,"eedef":1022,"bbbbef":1023,"ebbbef":1024,"dcdcc":1025,"ebdef":1026,"beebdc":1027,"dddbd":1028,"bebbfc":1029,"bdebbc":1030,"bbc</w>":1031,"bdbbec":1032,"bebdcc":1033,"ebca":1034,"ecfbd":1035,"dfa":1036,"eccfc":1037,"fdbbbb":1038,"eecef":1039,"bccfc":1040,"bbbba":1041,"bbebbcc":1042,"bcdbbc":1043,"dddbc":1044,"ecfed":1045,"fbbebc":1046,"ddedc":1047,"eceecc":1048,"ddbbd":1049,"dfef":1050,"debecc":1051,"becbcc":1052,"bbe</w>":1053,"ebbbebc":1054,"ebcebd":1055,"dbeed":1056,"eccbf":1057,"fbba":1058,"bbbfcc":1059,"dbebf":1060,"bbebbbbbb":1061,"ececbc":1062,"bccbd":1063,"bccdc":1064,"ebebbd":1065,"dfbd":1066,"edbbec":1067,"eebbdc":1068,"ebcecc":1069,"beceec":1070,"bcbbebe":1071,"ffbf":1072,"bcceec":1073,"ddbdc":1074,"bbfbbbb":1075,"ebbbeee":1076,"ecea":1077,"bbbcbbc":1078,"dcdbd":1079,"ebddf":1080,"bbdeec":1081,"bbfef":1082,"ecdebc":1083,"bccbec":1084,"ebdbd":1085,"edbebc":1086,"ebeecc":1087,"edbbee":1088,"bfdee":1089,"ebedbe":1090,"fceec":1091,"bccebb":1092,"bccebc":1093,"bfbbee":1094,"ebdbbc":1095,"ebebeee":1096,"ecdeec":1097,"eeecbe":1098,"bccdd":1099,"ebe</w>":1100,"bbbac":1101,"bbfbbc":1102,"ffdd":1103,"ebdebb":1104,"bedbbd":1105,"bdfee":1106,"bbbb</w>":1107,"fcdee":1108,"bbbbdc":1109,"beca":1110,"eedbec":1111,"fbbbec":1112,"bbedcc":1113,"ffef":1114,"ebdeec":1115,"edebf":1116,"bcdebc":1117,"ebeeec":1118,"eccbbc":1119,"dfbbc":1120,"bdddc":1121,"bedeec":1122,"ecbbbf":1123,"eccdd":1124,"bcbbdd":1125,"ebdbec":1126,"bdbeee":1127,"fdbcc":1128,"eebba":1129,"ebbbbebb":1130,"fdbbd":1131,"efeec":1132,"bfbef":1133,"ebbebbc":1134,"bbbbfc":1135,"bcbbef":1136,"ecdbb":1137,"ebeff":1138,"ebdebc":1139,"fbfcc":1140,"bbdbbbe":1141,"eccccc":1142,"efbbbe":1143,"eccebb":1144,"bcdfc":1145,"dddee":1146,"edced":1147,"eeceec":1148,"bdfbe":1149,"dbebbc":1150,"ecdbec":1151,"ebeebf":1152,"ebebbbc":1153,"bccbbbb":1154,"bbfebb":1155,"fffc":1156,"efbdc":1157,"ddccc":1158,"dcbbbe":1159,"eeeccc":1160,"bebebbbb":1161,"dfebc":1162,"edbfc":1163,"eccbd":1164,"dcded":1165,"ebd</w>":1166,"dbebd":1167,"bbbdbbbb":1168,"aebc":1169,"dbbbdc":1170,"fdeec":1171,"ebbdec":1172,"bcdbbbb":1173,"ebc</w>":1174,"eccedc":1175,"ecdfc":1176,"bebbbbbbbb":1177,"ebeccc":1178,"debccc":1179,"ebdbbbb":1180,"eeda":1181,"dbb</w>":1182,"ebebdc":1183,"becdbe":1184,"ebbdbd":1185,"bbffc":1186,"bdbcbc":1187,"ecca":1188,"efbbee":1189,"bedbcc":1190,"ebda":1191,"efebf":1192,"edddc":1193,"ebeeeee":1194,"efbbd":1195,"efbebe":1196,"ecdbbc":1197,"ebdfc":1198,"ebcbbd":1199,"ecdebe":1200,"bffbc":1201,"bebbbcc":1202,"dbddd":1203,"bdfec":1204,"ebbfee":1205,"ecbbdc":1206,"dcebf":1207,"ebcdbe":1208,"fdecc":1209,"bceccc":1210,"edceec":1211,"bfbfc":1212,"edbeec":1213,"edfbc":1214,"bddebb":1215,"ebcccc":1216,"bdefc":1217,"ebbbbec":1218,"efdbc":1219,"bbfdc":1220,"bebbeec":1221,"eeca":1222,"ebeebd":1223,"efdee":1224,"bdbbcc":1225,"fcbbbb":1226,"bdbeec":1227,"eebbebc":1228,"ebebef":1229,"ebcbbbe":1230,"baa":1231,"ecbbbbc":1232,"bbfa":1233,"fcff":1234,"efebd":1235,"bbcdee":1236,"ddff":1237,"ebbeeee":1238,"eebdcc":1239,"bcca":1240,"fbebf":1241,"eedebc":1242,"fdebd":1243,"bbcbdc":1244,"edba":1245,"bbcdbc":1246,"dbefc":1247,"eedebe":1248,"eccebe":1249,"bddbf":1250,"ebbfbc":1251,"bcbcbcbc":1252,"bbeebbbb":1253,"bcebdc":1254,"becdee":1255,"eccdf":1256,"decdc":1257,"ecac":1258,"ececcc":1259,"bedebd":1260,"ffa":1261,"ebbba":1262,"bebbebd":1263,"ebbbfc":1264,"edbbbd":1265,"efbef":1266,"eceeec":1267,"bcdbec":1268,"bbcbebe":1269,"bcbbebc":1270,"eecebc":1271,"bbdbcc":1272,"fbbbcc":1273,"eefed":1274,"eceeee":1275,"beeba":1276,"eddef":1277,"eebbdd":1278,"bbbbdbe":1279,"bbbcbbbc":1280,"eceef":1281,"beb</w>":1282,"bbdbbf":1283,"dbbecc":1284,"adf":1285,"ecda":1286,"ecdecc":1287,"feba":1288,"edebbc":1289,"dddec":1290,"bdbebd":1291,"bbbbbebe":1292,"eedbbbb":1293,"dbbccc":1294,"bbbcbf":1295,"effee":1296,"df</w>":1297,"eceebd":1298,"ebfbf":1299,"bbdebd":1300,"eddbf":1301,"ebcbbf":1302,"bbbbbbebb":1303,"edfee":1304,"ececbe":1305,"bdbbebb":1306,"bcbbfc":1307,"ebedbc":1308,"bcda":1309,"befbf":1310,"bbebecc":1311,"bdfcc":1312,"bbcecc":1313,"eceedc":1314,"edcdc":1315,"eecfc":1316,"bdeebc":1317,"ebcdee":1318,"bdfbd":1319,"fb</w>":1320,"dddcc":1321,"edcef":1322,"bcdeec":1323,"ffff":1324,"ecfdc":1325,"febfc":1326,"dfbec":1327,"eddebb":1328,"fdbbf":1329,"eeebdc":1330,"eccbcc":1331,"bbbbbbbbc":1332,"bdcdc":1333,"bbbebec":1334,"bbeebf":1335,"febbcc":1336,"beedcc":1337,"eedfc":1338,"bbcff":1339,"bbbedc":1340,"edbeee":1341,"fcecc":1342,"ebdebe":1343,"dfebe":1344,"eecebb":1345,"abec":1346,"eecbcc":1347,"fcbbf":1348,"deebf":1349,"eebeebe":1350,"dfecc":1351,"bedecc":1352,"eeced":1353,"bebebf":1354,"bdcdd":1355,"bebebbc":1356,"fcdbc":1357,"edcbec":1358,"dfbcc":1359,"ecebdc":1360,"bbdbbbc":1361,"bebfcc":1362,"edcdd":1363,"bbeeebe":1364,"bdbbed":1365,"dcbbbc":1366,"bdcbf":1367,"ebcdbc":1368,"dcfbc":1369,"dbebec":1370,"dfebb":1371,"dbebbbb":1372,"eebbfc":1373,"eeeeeeee":1374,"eedeec":1375,"bcbbbec":1376,"bbeeebb":1377,"fdccc":1378,"eceebe":1379,"eecdec":1380,"ddddc":1381,"eecbbbb":1382,"bbfed":1383,"bdced":1384,"ebcdec":1385,"bbfebe":1386,"abcc":1387,"bbfdd":1388,"bcbbbbbbbb":1389,"dacc":1390,"fcbbd":1391,"bbbedd":1392,"efbbbc":1393,"bbbebebe":1394,"bfdbd":1395,"dfdf":1396,"dbeebb":1397,"becebd":1398,"ecbbdd":1399,"becbbd":1400,"eecbd":1401,"ebcff":1402,"bebbecc":1403,"dbcdc":1404,"dbeebe":1405,"efbeee":1406,"ebcedc":1407,"bfdec":1408,"bbbcebb":1409,"dbea":1410,"edefc":1411,"eccebd":1412,"fcebd":1413,"edfec":1414,"dcbfc":1415,"dcddc":1416,"bedbbbe":1417,"fbbeec":1418,"eecdee":1419,"bffee":1420,"bdea":1421,"bbefcc":1422,"dcbebe":1423,"bdcef":1424,"ebbbbcc":1425,"bedbbf":1426,"bfbebc":1427,"bbcdbf":1428,"bcbdcc":1429,"bddbb":1430,"bdcebe":1431,"ecfbf":1432,"bbbbbbee":1433,"bdebec":1434,"bcdbbd":1435,"eecdbe":1436,"eebbbec":1437,"eecebe":1438,"bbfbbf":1439,"bbcbbee":1440,"bdbecc":1441,"bcbbbcc":1442,"eeeba":1443,"ebbfbe":1444,"dcfec":1445,"bbeac":1446,"bbdbbbd":1447,"fefcc":1448,"dbeef":1449,"bbbeef":1450,"bcbba":1451,"edcdf":1452,"ebcbbbc":1453,"dbcdd":1454,"bbbbcbbbb":1455,"ffbbc":1456,"bbbeed":1457,"eedbcc":1458,"dcbef":1459,"bbbebbbc":1460,"ebefee":1461,"bdcbbc":1462,"ecbbebe":1463,"beebfc":1464,"dbbebf":1465,"fdbdc":1466,"bccdf":1467,"ecbbebc":1468,"eecebd":1469,"fe</w>":1470,"bfdcc":1471,"bbbea":1472,"ebbbcbc":1473,"bebebebe":1474,"fcbdc":1475,"ebfef":1476,"fcdec":1477,"becdbc":1478,"bccebd":1479,"bccecc":1480,"bfba":1481,"bbbbebd":1482,"deddd":1483,"edcebc":1484,"ecdedc":1485,"fbeef":1486,"eedbbd":1487,"fbbebd":1488,"bcdebd":1489,"eecdbc":1490,"bbcbbbd":1491,"bbdbdc":1492,"ebbbbbf":1493,"edbecc":1494,"adbe":1495,"bececc":1496,"aff":1497,"bddef":1498,"bdbcbe":1499,"edbbcc":1500,"ecdebd":1501,"ecfebb":1502,"bebeebe":1503,"decccc":1504,"bdbbbf":1505,"edcbf":1506,"bbbebbf":1507,"dcefc":1508,"edbbebb":1509,"dfdbe":1510,"ececbd":1511,"edbcbc":1512,"fbbecc":1513,"ebcbdc":1514,"bbdff":1515,"ebfbbc":1516,"becdec":1517,"deebbc":1518,"fbebbc":1519,"dcbbee":1520,"dbcbbc":1521,"bfbeee":1522,"bfebbc":1523,"bebeebb":1524,"bcb</w>":1525,"efedc":1526,"bddbbbb":1527,"dbedbe":1528,"efdcc":1529,"aba":1530,"becbbbe":1531,"bbbddd":1532,"bbebccc":1533,"ebbded":1534,"ebdebd":1535,"ecbbef":1536,"bdbcf":1537,"bcdbcc":1538,"dfccc":1539,"bcedcc":1540,"bffbe":1541,"bbbeebc":1542,"ecbdbd":1543,"bbbebbee":1544,"ddded":1545,"ebbdcc":1546,"bddebe":1547,"aecc":1548,"dcbebc":1549,"edcebe":1550,"abbf":1551,"ddbbf":1552,"beebbcc":1553,"becbbf":1554,"bdeebe":1555,"abbd":1556,"becff":1557,"ebcbebe":1558,"edcfc":1559,"bbbebbd":1560,"bedccc":1561,"bffcc":1562,"ebffc":1563,"bfbbec":1564,"edfbe":1565,"bdac":1566,"bddbbc":1567,"befdc":1568,"fdbbbe":1569,"bdcfc":1570,"becbbbc":1571,"bbcdbd":1572,"bfbbbd":1573,"befef":1574,"edbbed":1575,"bdbbbbc":1576,"eddebe":1577,"bdceec":1578,"ebddbe":1579,"decdd":1580,"ebfdc":1581,"bdebcc":1582,"bdbcbd":1583,"ececf":1584,"bdbbdd":1585,"bdcebc":1586,"ebbeebc":1587,"ebfa":1588,"bbeebbc":1589,"ebfebe":1590,"bccbbd":1591,"ebbfec":1592,"ecbbfc":1593,"bbbefc":1594,"ebbbbbbc":1595,"edbebd":1596,"eecbbd":1597,"bcdecc":1598,"befdd":1599,"ebbdebb":1600,"bbcbebc":1601,"ebbbebd":1602,"bdbcee":1603,"ebcbebc":1604,"dbddc":1605,"eeedcc":1606,"ebebebc":1607,"bbcdec":1608,"ebbeebe":1609,"eececc":1610,"dbced":1611,"dbbedc":1612,"bdcbec":1613,"bdfed":1614,"ecbedc":1615,"dbcbf":1616,"fbeebe":1617,"eecff":1618,"dbcfc":1619,"bedbdc":1620,"deddc":1621,"bbdbebe":1622,"ebdecc":1623,"ccccccc":1624,"accc":1625,"ebedee":1626,"effbc":1627,"ecbdcc":1628,"bebbebf":1629,"bdeef":1630,"dbbbbbbbb":1631,"bccdbe":1632,"edcecc":1633,"eedebd":1634,"fc</w>":1635,"dbcef":1636,"bfbcbc":1637,"bbdecc":1638,"bdeeee":1639,"ddfbc":1640,"ebbcbbbb":1641,"bbcebf":1642,"dfff":1643,"edfcc":1644,"dcfee":1645,"dbcbbbb":1646,"becbbec":1647,"fdedc":1648,"dfebd":1649,"bdbbdc":1650,"bbcbef":1651,"aeec":1652,"bccff":1653,"dcfcc":1654,"deefc":1655,"ecdbcc":1656,"ebbea":1657,"aebd":1658,"dfbbbb":1659,"ebeedc":1660,"abbbe":1661,"efdbd":1662,"bbfebc":1663,"bfcbf":1664,"efba":1665,"bbfbec":1666,"dfeec":1667,"bdeecc":1668,"eebbbcc":1669,"bbbcebe":1670,"ebbcbbc":1671,"ebfbbbb":1672,"ddbbbe":1673,"deeccc":1674,"edeebc":1675,"ebbbeebb":1676,"ecdbbbb":1677,"eebbeec":1678,"efdec":1679,"ebcded":1680,"bfbbcc":1681,"efbfc":1682,"bbdbbee":1683,"bcbfcc":1684,"dfedc":1685,"bedbbbc":1686,"fbac":1687,"eceedd":1688,"ffebe":1689,"befebe":1690,"dbeebc":1691,"dccccc":1692,"bdecbc":1693,"eccdec":1694,"bcffc":1695,"bbbebcc":1696,"ebbefc":1697,"fbedc":1698,"ebddee":1699,"dfdbc":1700,"ffccc":1701,"eeb</w>":1702,"bbcbfc":1703,"eedccc":1704,"dbebcc":1705,"ebbbeec":1706,"deb</w>":1707,"ebbbbed":1708,"bdfdc":1709,"eedecc":1710,"ebdbcc":1711,"eebeef":1712,"fbebbbb":1713,"bdbeed":1714,"beeeebe":1715,"bbdccc":1716,"fcbbbc":1717,"eccbbbb":1718,"eecded":1719,"bdcbbbb":1720,"dcebbc":1721,"bbeebbee":1722,"bbcbbec":1723,"dbbdcc":1724,"ecbbbec":1725,"bdecbe":1726,"babbbb":1727,"eefbf":1728,"bee</w>":1729,"edea":1730,"bdeebd":1731,"dfbdc":1732,"fd</w>":1733,"eebbecc":1734,"bdbcec":1735,"bbbedbe":1736,"dcbbbd":1737,"debdcc":1738,"bccdee":1739,"becbdc":1740,"befbbc":1741,"eceeed":1742,"fdebf":1743,"bccbbf":1744,"befa":1745,"eebfcc":1746,"edfbd":1747,"ddebf":1748,"efebbc":1749,"bdfbf":1750,"bbbcbec":1751,"edbcec":1752,"dbcebe":1753,"edebec":1754,"edca":1755,"bbddcc":1756,"dbbebbc":1757,"bbcfbc":1758,"edebcc":1759,"bbcbcbc":1760,"ebbbcbe":1761,"fddcc":1762,"bcbbebd":1763,"bcfdc":1764,"eebebf":1765,"dbbbfc":1766,"eeeeebe":1767,"dbd</w>":1768,"bbfff":1769,"eebbebd":1770,"ebdbbd":1771,"bdbdcc":1772,"ebbebec":1773,"dccdd":1774,"dbbba":1775,"dfbbd":1776,"bbcedc":1777,"eccff":1778,"bebbbdc":1779,"bccbbbc":1780,"fbbebf":1781,"dcbbec":1782,"bccbdc":1783,"bbbbccc":1784,"bcebbcc":1785,"ddbbbc":1786,"bddebc":1787,"bffec":1788,"becbebc":1789,"ebbbecc":1790,"fdbbbc":1791,"ddbebe":1792,"bfdbf":1793,"eefef":1794,"eefebe":1795,"fbefc":1796,"bffbd":1797,"bcebfc":1798,"ecdbbd":1799,"bdbeebb":1800,"bbbbeec":1801,"beffc":1802,"eddebc":1803,"eaa":1804,"ebbbbebe":1805,"dccdc":1806,"bfefc":1807,"feac":1808,"bbfbbbe":1809,"dbedf":1810,"ebcebbc":1811,"bccedc":1812,"bbcebbc":1813,"ebcbbee":1814,"bdeeec":1815,"ddbbbd":1816,"dbeecc":1817,"fbbccc":1818,"ebcebf":1819,"bcdedc":1820,"decbec":1821,"bebebbbe":1822,"abbbc":1823,"edbeed":1824,"bdbccc":1825,"deeebe":1826,"ebdccc":1827,"ebcbfc":1828,"eebebbbb":1829,"adbc":1830,"dbc</w>":1831,"bbeebbbe":1832,"dfbbf":1833,"ebdff":1834,"eecbdc":1835,"abba":1836,"facc":1837,"ebbdbf":1838,"fcded":1839,"ebddbc":1840,"bcfdd":1841,"dbe</w>":1842,"fcfbc":1843,"bcbbeec":1844,"ebcdbd":1845,"bbbbbebc":1846,"bccdbc":1847,"ebddec":1848,"ebeba":1849,"adee":1850,"bebeef":1851,"bddfc":1852,"ecbedd":1853,"bbdedc":1854,"febccc":1855,"dcbcbc":1856,"eddeec":1857,"bbcbbcc":1858,"fcdbd":1859,"bededc":1860,"bccbbbe":1861,"bbbcbbbe":1862,"fcdcc":1863,"bbbbbdc":1864,"dcbeec":1865,"abdc":1866,"feebf":1867,"edeecc":1868,"bbbbdbc":1869,"bebbccc":1870,"bbdbebc":1871,"dbeccc":1872,"ebbfbd":1873,"fcbef":1874,"dbbbbcc":1875,"efbebc":1876,"bebbedc":1877,"ecbba":1878,"edfed":1879,"ebdedc":1880,"eccbdc":1881,"ddcdd":1882,"bbbbdbd":1883,"bcdbbbe":1884,"ebebbbd":1885,"fbedd":1886,"febecc":1887,"eccdbe":1888,"ebbfcc":1889,"bcbedc":1890,"bcfbf":1891,"bbfdf":1892,"deebec":1893,"fcbfc":1894,"ba</w>":1895,"fbbbdc":1896,"ecbfcc":1897,"fcebf":1898,"decbbc":1899,"eceeebb":1900,"bdfebb":1901,"ebbebcc":1902,"ebebfc":1903,"bdda":1904,"efeeee":1905,"bbbbbbec":1906,"edcbbc":1907,"eefa":1908,"bbbcdd":1909,"ebcfbc":1910,"fcbbbe":1911,"bebac":1912,"bbfbcc":1913,"bbdebf":1914,"bcbedd":1915,"bfbbebb":1916,"bdbedc":1917,"bed</w>":1918,"eddfc":1919,"bbbdbbc":1920,"bec</w>":1921,"bdbebf":1922,"bcdbbf":1923,"eddbec":1924,"edeeee":1925,"becbebe":1926,"bfded":1927,"bedbbee":1928,"edcdec":1929,"efea":1930,"becded":1931,"deea":1932,"bfbbbf":1933,"bbeedc":1934,"ffdf":1935,"bbeedd":1936,"ebebbebb":1937,"beeebbbb":1938,"bedebf":1939,"ebfdd":1940,"eddbbc":1941,"bebbebbc":1942,"eebeebb":1943,"deedbe":1944,"bbfdbe":1945,"bcdbdc":1946,"bcbbecc":1947,"beebecc":1948,"efbbec":1949,"eebea":1950,"eedbdc":1951,"dcba":1952,"bbacc":1953,"ecedcc":1954,"ecbbecc":1955,"ebcbef":1956,"ebebbec":1957,"edbedc":1958,"dbdbf":1959,"edbcf":1960,"eeebbcc":1961,"fcbebc":1962,"dbceec":1963,"cccdc":1964,"effcc":1965,"ebeebbc":1966,"eedbbbe":1967,"cccdd":1968,"edda":1969,"dffbc":1970,"ecdbdc":1971,"ffbcc":1972,"fbea":1973,"dbcbec":1974,"ebdbbbe":1975,"eecbbbc":1976,"edecbc":1977,"bcbebbc":1978,"ebcfec":1979,"ebdbbf":1980,"bddbbd":1981,"bbbfbbbb":1982,"ebddbd":1983,"eecbebc":1984,"ebefbc":1985,"ebdbdc":1986,"dcbeee":1987,"dfdbd":1988,"eedbbf":1989,"deebcc":1990,"ebedbd":1991,"bdb</w>":1992,"bbbebbebb":1993,"ebedec":1994,"fcedc":1995,"dfdcc":1996,"bbeeef":1997,"befbbbb":1998,"ecdccc":1999,"bcbebbbb":2000,"bbbd</w>":2001,"eebbebf":2002,"bdbbebe":2003,"edbbbf":2004,"eccdee":2005,"bbeea":2006,"edbdcc":2007,"ebbfebb":2008,"bfea":2009,"ecbbbcc":2010,"becdbd":2011,"bcccccc":2012,"beefcc":2013,"bbbcbbd":2014,"bbecbbc":2015,"eccbbd":2016,"dcfbd":2017,"bddbec":2018,"bfcbbc":2019,"dceebc":2020,"eecdbd":2021,"bdca":2022,"ebebcbc":2023,"edbcee":2024,"dbebbd":2025,"dbcebc":2026,"ebbbcf":2027,"fdbfc":2028,"eecbbf":2029,"ecebbcc":2030,"bbbcebc":2031,"feeebe":2032,"dfdee":2033,"becebbc":2034,"ebdbebe":2035,"bddeec":2036,"edac":2037,"eebebbc":2038,"bcc</w>":2039,"beeebf":2040,"bbbcef":2041,"bbbbbbcc":2042,"dceecc":2043,"ebebbcc":2044,"bdcebb":2045,"eddbb":2046,"ebedcc":2047,"ebfebb":2048,"dbebbbe":2049,"fbebcc":2050,"bcbebf":2051,"efcdf":2052,"bfcfc":2053,"bbdfbc":2054,"bbbcbcc":2055,"ebf</w>":2056,"ebcdcc":2057,"bebcbbc":2058,"efcbf":2059,"eccdbc":2060,"decbf":2061,"aebf":2062,"eecbbbe":2063,"edcdee":2064,"dcdbf":2065,"bbbbebf":2066,"bbbbdf":2067,"fdbbee":2068,"ebcbbec":2069,"ddbfc":2070,"fbcbf":2071,"dcebec":2072,"ecebfc":2073,"dbdbbc":2074,"ebbddc":2075,"efddc":2076,"bbfbbd":2077,"bcdccc":2078,"bbbcfc":2079,"ebcbbbd":2080,"fbbbbbbbb":2081,"becbfc":2082,"bdbbef":2083,"edbcbd":2084,"edbcbe":2085,"beddcc":2086,"badd":2087,"efbcbc":2088,"feedd":2089,"ebbcbf":2090,"bbf</w>":2091,"eccfec":2092,"ecb</w>":2093,"ecbbeec":2094,"effbe":2095,"edbbdc":2096,"edbeebb":2097,"babbc":2098,"ebbbcbd":2099,"eccded":2100,"edcedc":2101,"dccfc":2102,"ebdbebc":2103,"eceebf":2104,"ebbecbc":2105,"bbbcdc":2106,"dbebbf":2107,"ebcbcbc":2108,"bcfbbc":2109,"ebbeef":2110,"bbbbff":2111,"dbeeec":2112,"fcbbec":2113,"bebebec":2114,"bebea":2115,"eeebfc":2116,"bccdec":2117,"bcfef":2118,"bdcdf":2119,"bbbbebbc":2120,"dcceec":2121,"bbbbbcbc":2122,"dbedee":2123,"ecbbebd":2124,"babf":2125,"edbccc":2126,"feedc":2127,"ccccc":2128,"bbbbdee":2129,"becfbc":2130,"bedbfc":2131,"bebbba":2132,"bebedc":2133,"ffbbf":2134,"bbcbbebb":2135,"bbbdbf":2136,"ebbbebf":2137,"ebbeecc":2138,"fbebec":2139,"bbbbbbbf":2140,"dbca":2141,"eadd":2142,"bdebdc":2143,"dedbbc":2144,"efdbf":2145,"bbbbbef":2146,"edcebd":2147,"bbeebbf":2148,"eccbbf":2149,"ebceebc":2150,"bbdbbec":2151,"edcbcc":2152,"fbbedc":2153,"becbef":2154,"becebf":2155,"bbccbbc":2156,"eefdd":2157,"ecbebbc":2158,"deedf":2159,"bdcebd":2160,"dcdebb":2161,"bcbbccc":2162,"ebbbbbbbbbb":2163,"dbeebd":2164,"bedebbc":2165,"bcefcc":2166,"cccfc":2167,"dcfed":2168,"bbdbef":2169,"ebbeebd":2170,"dbcdbc":2171,"eededc":2172,"bdcbcc":2173,"eecdcc":2174,"ecedbd":2175,"bbdbfc":2176,"bebedd":2177,"bfddc":2178,"bbbc</w>":2179,"fecdd":2180,"efbbbd":2181,"edfdc":2182,"decdf":2183,"bbfbbbc":2184,"aea":2185,"beeebeee":2186,"bbbbecc":2187,"dee</w>":2188,"decfc":2189,"bdcdbe":2190,"eebebbbe":2191,"bceba":2192,"ebbfed":2193,"bcebecc":2194,"ebfbec":2195,"dbcdf":2196,"feeef":2197,"bbdebbc":2198,"bcdebf":2199,"bebefc":2200,"bbebbbbc":2201,"ebbbcee":2202,"eed</w>":2203,"ecceecc":2204,"bebcbec":2205,"bdbced":2206,"ffed":2207,"bebcbf":2208,"decdee":2209,"ebdded":2210,"bdfdd":2211,"efbbcc":2212,"dcbbcc":2213,"adbd":2214,"ebbeeebb":2215,"eeddcc":2216,"fbebbbe":2217,"aedc":2218,"bbcded":2219,"bebebcc":2220,"decebc":2221,"ffdbe":2222,"becbbee":2223,"dcbecc":2224,"bbbbba":2225,"bfbeec":2226,"efefc":2227,"fdebbc":2228,"ebbbbdc":2229,"fbbbfc":2230,"ded</w>":2231,"ecbeecc":2232,"eefbbc":2233,"bdeccc":2234,"ebbcebc":2235,"ecffc":2236,"abbee":2237,"bdeedc":2238,"dcfbe":2239,"bccebf":2240,"ffebc":2241,"ebeea":2242,"bedefc":2243,"fbcbbc":2244,"fbcfc":2245,"bebbbfc":2246,"efded":2247,"bbeb</w>":2248,"bebcbbbb":2249,"bbbbcbbc":2250,"ebbbebbbb":2251,"becedc":2252,"dcbebd":2253,"bcbefc":2254,"bceedd":2255,"dfebf":2256,"dcebcc":2257,"bbbdbbbd":2258,"fdba":2259,"dbcccc":2260,"bfac":2261,"beeebbbe":2262,"bdfef":2263,"ebbbcec":2264,"dbdbbbb":2265,"dfbbbe":2266,"beeebbc":2267,"bebebbf":2268,"beacc":2269,"bdcdee":2270,"eecbfc":2271,"bcdbbbc":2272,"eecedc":2273,"eec</w>":2274,"edeebd":2275,"ebcefc":2276,"dec</w>":2277,"dbbfcc":2278,"ddbbee":2279,"bebebbee":2280,"bedba":2281,"fbebbf":2282,"eddecc":2283,"beebccc":2284,"bdcecc":2285,"ddfec":2286,"ebbdbbc":2287,"ebdbbbc":2288,"bfbcf":2289,"becbeec":2290,"becdcc":2291,"ebbfbf":2292,"fcfee":2293,"bdecf":2294,"ddbef":2295,"bbecbf":2296,"bebeebc":2297,"ebbcebe":2298,"dbddbd":2299,"ecbeebc":2300,"bccbfc":2301,"abef":2302,"eedbbbc":2303,"eeeebeee":2304,"eefdc":2305,"bbdba":2306,"bdcbdc":2307,"bbdbbcc":2308,"effec":2309,"ddcdc":2310,"bdbebbc":2311,"fecccc":2312,"edcff":2313,"fcbcbc":2314,"bbebbbbbe":2315,"ebbbccc":2316,"dbcbcc":2317,"cccbcc":2318,"bdecbd":2319,"afbc":2320,"ebfbbf":2321,"ebbdbbbb":2322,"edcdbe":2323,"edbced":2324,"ebfebc":2325,"bbbe</w>":2326,"bbcba":2327,"fcbeec":2328,"fbeff":2329,"deebbbb":2330,"bfdebb":2331,"ebfbcc":2332,"ecceebc":2333,"edbbbbc":2334,"ebfff":2335,"edeeec":2336,"eecfec":2337,"bdffc":2338,"bbbcbbf":2339,"bfbecc":2340,"eee</w>":2341,"ebacc":2342,"ebcbeec":2343,"dbeff":2344,"dcbbed":2345,"bdbbfc":2346,"bbbcccc":2347,"fbcef":2348,"bddebd":2349,"ebcdebb":2350,"dbcdee":2351,"bbcbeee":2352,"becbbbd":2353,"ebbcdd":2354,"bbbeebd":2355,"ebbbeebe":2356,"fbbba":2357,"dfbfc":2358,"bfbbed":2359,"ebcfee":2360,"edbbebe":2361,"bbbca":2362,"edbbdd":2363,"debfcc":2364,"dbcdbe":2365,"beeebbee":2366,"bcfebe":2367,"bbdbbebb":2368,"dccef":2369,"edeef":2370,"bcbbbdc":2371,"ebbcfc":2372,"ddfcc":2373,"bffbf":2374,"bbecbbbb":2375,"decbcc":2376,"edbdbd":2377,"ddbebc":2378,"eccbbbe":2379,"eebebbee":2380,"ddefc":2381,"bfcef":2382,"dbebdc":2383,"eebbbdc":2384,"befdf":2385,"deeef":2386,"ecdbbbe":2387,"fecdf":2388,"eebbedc":2389,"bce</w>":2390,"ebecbbc":2391,"ebcbebd":2392,"bdbbebc":2393,"edeccc":2394,"cccbbc":2395,"eccbebc":2396,"bccdbd":2397,"abebe":2398,"dbbefc":2399,"bccbebe":2400,"ebcba":2401,"ecdbbf":2402,"dcea":2403,"ffbec":2404,"dbcebb":2405,"fcfcc":2406,"bdbedd":2407,"dbebbbc":2408,"ebbcbec":2409,"bbbebebc":2410,"befbbf":2411,"bcbeebe":2412,"beeac":2413,"cccecc":2414,"bcbebec":2415,"bfeebc":2416,"bbbebbbd":2417,"bbbeeec":2418,"bdbebbbb":2419,"bcbcbbc":2420,"dcdef":2421,"dbcbbd":2422,"afee":2423,"fdefc":2424,"ffecc":2425,"bfbebd":2426,"edcded":2427,"bccfbc":2428,"bcebccc":2429,"bdbcebb":2430,"fbbebbc":2431,"bfeeee":2432,"fbeebb":2433,"bbecbec":2434,"eecbebe":2435,"ebcbbcc":2436,"ebcbecc":2437,"bbcfee":2438,"bcd</w>":2439,"bbbbfbc":2440,"bdfbbc":2441,"edbebf":2442,"ecbefc":2443,"bdecec":2444,"ebfdf":2445,"deeecc":2446,"bbbbbfc":2447,"ddfee":2448,"dbedbc":2449,"bbebbebe":2450,"ebbbbdd":2451,"ebdbfc":2452,"dbbebec":2453,"eceba":2454,"bdbcbf":2455,"bdcbbd":2456,"fcbbee":2457,"bbbdbbd":2458,"bcfebc":2459,"fecdc":2460,"fcebbc":2461,"ebbbbef":2462,"befbcc":2463,"dfdec":2464,"bdcccc":2465,"bdcff":2466,"bdeeebb":2467,"bbcdcc":2468,"edfbf":2469,"eccefc":2470,"eecbecc":2471,"bbfccc":2472,"edcccc":2473,"deeebc":2474,"bcfa":2475,"bebbbbcc":2476,"ecc</w>":2477,"bffdc":2478,"eccdcc":2479,"befebc":2480,"ebbac":2481,"bcdbbee":2482,"dffcc":2483,"dbdef":2484,"baebe":2485,"bbeedbe":2486,"eccfbc":2487,"eddbbbb":2488,"decef":2489,"bdbba":2490,"befbec":2491,"bdeebf":2492,"eecbbec":2493,"bbfebd":2494,"ff</w>":2495,"ebbdebe":2496,"eddebd":2497,"ebbbedc":2498,"decdbe":2499,"eecbeec":2500,"dbcebd":2501,"bbebdcc":2502,"bfcdc":2503,"bddbcc":2504,"bbeebec":2505,"ffbbbb":2506,"edeedc":2507,"ebbdbb":2508,"edebdc":2509,"ecfdd":2510,"fcbebe":2511,"bfcdd":2512,"beeea":2513,"eecebbc":2514,"bbeebebe":2515,"badc":2516,"bceedc":2517,"fbedf":2518,"efcdc":2519,"fdfcc":2520,"dbfdd":2521,"bcbbebf":2522,"bfebec":2523,"bbcbbbbc":2524,"eebac":2525,"bfcebe":2526,"dbcecc":2527,"decebe":2528,"fcfec":2529,"effbd":2530,"bdbbbec":2531,"bfebcc":2532,"eecdebb":2533,"ebfccc":2534,"efcdd":2535,"fbeccc":2536,"eecbef":2537,"bebb</w>":2538,"eecfbc":2539,"bbdfee":2540,"bfcdf":2541,"bbdddd":2542,"efbbebb":2543,"fbeebc":2544,"ebbecbe":2545,"ebbbeed":2546,"decdec":2547,"ebdfbc":2548,"bdbcdc":2549,"bbcfec":2550,"bcbac":2551,"ebebebd":2552,"bdeeed":2553,"bccbbee":2554,"bebebbbc":2555,"bbbdbbbe":2556,"bfbccc":2557,"eebefc":2558,"eadc":2559,"ebebbbf":2560,"eebbccc":2561,"bccbef":2562,"ebbdebc":2563,"bbccccc":2564,"ebebeebb":2565,"eebedd":2566,"bbcbeec":2567,"bbfebf":2568,"becbcbc":2569,"bbdbeee":2570,"edfebb":2571,"eeefcc":2572,"feddd":2573,"becfec":2574,"bfca":2575,"eceeebe":2576,"bccdcc":2577,"dbebebe":2578,"dbbbdbd":2579,"eecba":2580,"eebedc":2581,"bbccbbbb":2582,"bfdef":2583,"dbffc":2584,"bbbedf":2585,"ecefcc":2586,"fbebbee":2587,"bfecbc":2588,"dbdfc":2589,"beeebebe":2590,"dbdebe":2591,"adcc":2592,"bbfbebe":2593,"eccebbc":2594,"bdfebe":2595,"bbecccc":2596,"bfbcbe":2597,"efbeec":2598,"eebeebc":2599,"eefbbbb":2600,"dbddf":2601,"bebcebc":2602,"eedbfc":2603,"eddbbd":2604,"ece</w>":2605,"befdbe":2606,"bbeefc":2607,"ebfbbbe":2608,"feea":2609,"dbda":2610,"bdecee":2611,"ebbbcebb":2612,"bbbbdbbbb":2613,"bcfccc":2614,"befccc":2615,"bddecc":2616,"dceebd":2617,"edbedd":2618,"deceec":2619,"bbbdebe":2620,"eeeeef":2621,"eccbbbc":2622,"bcddcc":2623,"eccbfc":2624,"bccbcbc":2625,"dcfdc":2626,"deddf":2627,"bdbeebe":2628,"bdcdbc":2629,"beeeef":2630,"eccebf":2631,"ecdeecc":2632,"bccbebc":2633,"deedbc":2634,"bbeddd":2635,"debbbbbb":2636,"bbfeec":2637,"ebdebbc":2638,"bbbeff":2639,"ebbdef":2640,"bbeeebc":2641,"ecddcc":2642,"bbbda":2643,"ebbbebbc":2644,"bbbfbbc":2645,"dbbbecc":2646,"deedcc":2647,"bbecebe":2648,"eeffc":2649,"eebeebf":2650,"dbddbe":2651,"bdedbd":2652,"bfbcee":2653,"bccded":2654,"abca":2655,"bfcbec":2656,"eccbebe":2657,"efcef":2658,"bdd</w>":2659,"bcbcbbbb":2660,"bccfec":2661,"bbbeebf":2662,"bbbceec":2663,"ebdebf":2664,"bbbeccc":2665,"ebcfbe":2666,"ebbebdc":2667,"ecfbbc":2668,"cccccccccccccccc":2669,"ebbeeebe":2670,"ebcfcc":2671,"bbdbebd":2672,"baba":2673,"dcbcee":2674,"feebbc":2675,"ecdebf":2676,"ecbeccc":2677,"fbcdf":2678,"ebbcef":2679,"bfbbbbc":2680,"ebebecc":2681,"fcdbf":2682,"deedee":2683,"eebebbf":2684,"bcbbbbcc":2685,"bbebebbbb":2686,"fdbbcc":2687,"eccfcc":2688,"ebddcc":2689,"bbbcdbe":2690,"baef":2691,"deca":2692,"ddfbd":2693,"bdbbbbbbbb":2694,"becbecc":2695,"eeebecc":2696,"ebbeebf":2697,"dcbeed":2698,"eccdbd":2699,"dbbea":2700,"ebeded":2701,"fbbdcc":2702,"bbbcbbbd":2703,"bdcedc":2704,"ecdefc":2705,"ecebccc":2706,"bbbced":2707,"eecbcbc":2708,"bbdbcbc":2709,"ebceecc":2710,"bdcdbd":2711,"abfc":2712,"bbbfbf":2713,"bbcbebd":2714,"bcfbec":2715,"ecebecc":2716,"bbfbbee":2717,"eebebcc":2718,"bcbeef":2719,"bedbbcc":2720,"eddbcc":2721,"cccef":2722,"ffdcc":2723,"ecdebbc":2724,"eebbbbbbbb":2725,"bbceebc":2726,"dbeedc":2727,"eeeea":2728,"fbcbec":2729,"ebbbdbd":2730,"bebcef":2731,"deebbf":2732,"ebddebb":2733,"bbdbeec":2734,"ebbbbebc":2735,"ddba":2736,"edbebbc":2737,"bbdeebc":2738,"eaebe":2739,"ebdbbee":2740,"dbcbbf":2741,"fceebc":2742,"eedba":2743,"ebcddc":2744,"bebcebe":2745,"ecfef":2746,"ecbea":2747,"ecbeebe":2748,"dbebbee":2749,"ebdbbbd":2750,"bbbebbec":2751,"ffebf":2752,"bbdbbed":2753,"dceeec":2754,"ddebbc":2755,"bccbbcc":2756,"bdbeef":2757,"bbcefc":2758,"ebbfdc":2759,"bedbecc":2760,"edbbef":2761,"beecbec":2762,"edbbebc":2763,"eedbbee":2764,"dedbec":2765,"fcefc":2766,"abea":2767,"ebcebcc":2768,"bdcdec":2769,"bcdbfc":2770,"dbcff":2771,"dddbf":2772,"bbbbbeee":2773,"dcdebe":2774,"bcbedbe":2775,"dccecc":2776,"eecfee":2777,"dcecbc":2778,"eddedc":2779,"ebbeeec":2780,"bbcbbed":2781,"bbbcbebe":2782,"bffed":2783,"bbccebe":2784,"dceeee":2785,"edfef":2786,"bcbbedc":2787,"eefccc":2788,"fcba":2789,"bebbea":2790,"bbbebdc":2791,"bcfdf":2792,"ebcbeee":2793,"bfbcec":2794,"aca":2795,"fecbec":2796,"ebcebec":2797,"fcbbbd":2798,"ebfebf":2799,"ebdeebc":2800,"beebbbbbb":2801,"dcdfc":2802,"deebdc":2803,"bbfecc":2804,"dccebe":2805,"dbdbec":2806,"ddbbec":2807,"bbfbfc":2808,"ddbeee":2809,"dcbcbd":2810,"fccccc":2811,"bbcdebb":2812,"bcbebbbe":2813,"ecfccc":2814,"fcbbcc":2815,"eaea":2816,"ebbbbbec":2817,"ecbbccc":2818,"ecbebcc":2819,"bbbcdf":2820,"eecbbee":2821,"bbcebec":2822,"ebbdfc":2823,"ffbdc":2824,"bbbbbbed":2825,"ffbbd":2826,"eefdf":2827,"bbbcebd":2828,"bfbcbd":2829,"edbcebb":2830,"bbcbbbf":2831,"bbfdbc":2832,"eecbbbd":2833,"ebcecbc":2834,"fdbecc":2835,"bfbebf":2836,"edecbd":2837,"eccbecc":2838,"ebcdbf":2839,"bbffbc":2840,"adec":2841,"becfee":2842,"ecdbbbc":2843,"fccef":2844,"ebebbebe":2845,"becdebb":2846,"bccbbec":2847,"eeeebbee":2848,"bdedcc":2849,"dcbccc":2850,"fbedbe":2851,"ffdbc":2852,"ecdbfc":2853,"fbeebf":2854,"bebcfc":2855,"eeceecc":2856,"ebdfec":2857,"dddebb":2858,"bdfa":2859,"bbbedbc":2860,"eecebf":2861,"becba":2862,"deebbd":2863,"eeeebbbb":2864,"edeebe":2865,"eedebf":2866,"bcbebcc":2867,"dbdbbd":2868,"ecbbedc":2869,"dccbbc":2870,"ecbedbe":2871,"dedbf":2872,"dedccc":2873,"bfcbbbb":2874,"dceccc":2875,"edcdbc":2876,"bcbeebc":2877,"eeeebf":2878,"bbfdee":2879,"eeceebc":2880,"becbbcc":2881,"fcdef":2882,"bccefc":2883,"efbbbf":2884,"edfdd":2885,"bbbdbbee":2886,"edcbdc":2887,"dcbbebb":2888,"bbbbbebbbb":2889,"becefc":2890,"ebebeec":2891,"edbcdc":2892,"edcebb":2893,"eefbeee":2894,"fbbbbcc":2895,"eeebccc":2896,"ebcfed":2897,"dcbcec":2898,"eeeebebe":2899,"eebbebbc":2900,"eecbebd":2901,"bcbea":2902,"bbfbef":2903,"bdfebc":2904,"efac":2905,"eebeecc":2906,"febdcc":2907,"eedbecc":2908,"edcfec":2909,"bbdfec":2910,"deddbe":2911,"fbebbbc":2912,"efbbed":2913,"beceebc":2914,"bbbebeee":2915,"bcbbebbc":2916,"bbbebef":2917,"edcbbbb":2918,"dfbbbc":2919,"bbdfbd":2920,"ebefcc":2921,"ecfa":2922,"ebdbef":2923,"ecd</w>":2924,"bcfbcc":2925,"fbcdd":2926,"fcbecc":2927,"dbddee":2928,"bdbbbcc":2929,"ebbbced":2930,"bedebec":2931,"eecddc":2932,"bdbbebd":2933,"bbbeecc":2934,"effbf":2935,"fdac":2936,"ecbebbbb":2937,"dccbec":2938,"dececc":2939,"fbebdc":2940,"bbdefc":2941,"bccebbc":2942,"ffebd":2943,"fcddc":2944,"edbbfc":2945,"deddee":2946,"dfbebe":2947,"edecec":2948,"dbebebc":2949,"bbfbdc":2950,"dcac":2951,"bfdbbc":2952,"defdd":2953,"ebebbed":2954,"bccbbbd":2955,"dfddc":2956,"dbedbd":2957,"feeccc":2958,"ebbeccc":2959,"dccebc":2960,"bedebcc":2961,"bcfbbbb":2962,"bbecdd":2963,"bbcbecc":2964,"bbecebc":2965,"fdea":2966,"bbbcbcbc":2967,"eecefc":2968,"bafc":2969,"edffc":2970,"bcfbbf":2971,"ebeeebc":2972,"fccfc":2973,"ebbeedc":2974,"eaef":2975,"bfcebc":2976,"decdbc":2977,"bddbdc":2978,"ddeebc":2979,"bffebb":2980,"abbbd":2981,"becbebd":2982,"ddeecc":2983,"fbb</w>":2984,"bcdebbc":2985,"ebbfef":2986,"edb</w>":2987,"ebbdbec":2988,"bcfdbe":2989,"bbdebec":2990,"bfeef":2991,"ebfbebe":2992,"ecbbbdc":2993,"dbbebcc":2994,"decbbbb":2995,"fbbefc":2996,"ecbeedc":2997,"eeacc":2998,"bdeedd":2999,"beecbbc":3000,"ebbbbfc":3001,"ebbcbbbe":3002,"acba":3003,"dbcbbbe":3004,"ebefbe":3005,"ebbfebe":3006,"ebedebb":3007,"eecbbcc":3008,"eebeccc":3009,"ebbbba":3010,"bfcbcc":3011,"ebbca":3012,"fecbf":3013,"ebcbbed":3014,"bbdbbbbc":3015,"bdecdc":3016,"ebdefc":3017,"ebcfbd":3018,"fbcbbbb":3019,"ecbebf":3020,"debac":3021,"ecbac":3022,"bebcbebc":3023,"ebbcdc":3024,"bbcfbd":3025,"ebfecc":3026,"eedebbc":3027,"eefbcc":3028,"bddbbbe":3029,"ebceebd":3030,"bebbebec":3031,"fbcccc":3032,"becebec":3033,"fcfbd":3034,"eebeff":3035,"dbfdc":3036,"ebeefc":3037,"bbebfcc":3038,"ebbecbd":3039,"bebbefc":3040,"fdebec":3041,"bbcfcc":3042,"ebcbbebb":3043,"dbbb</w>":3044,"dcced":3045,"bbccef":3046,"bdecbf":3047,"dccbf":3048,"befbbbe":3049,"eeeeccc":3050,"eeeac":3051,"eebbba":3052,"ffdee":3053,"bdeced":3054,"ebbbcdc":3055,"ddbcbc":3056,"fcebec":3057,"ecfecc":3058,"bbbcdee":3059,"ebeddc":3060,"fcdebb":3061,"bbbdef":3062,"eebebec":3063,"efca":3064,"bdcbbf":3065,"eefbbf":3066,"edceecc":3067,"ebfbef":3068,"ebdbbec":3069,"bbebbbf":3070,"fdebcc":3071,"bebebeee":3072,"bebca":3073,"fecbbc":3074,"eecfed":3075,"dcdeec":3076,"fbbea":3077,"edbeebc":3078,"bbbcbbee":3079,"bcdefc":3080,"eabf":3081,"bcfecc":3082,"bedea":3083,"efecbc":3084,"dfbbee":3085,"bebbdcc":3086,"ebbbeef":3087,"ddbeec":3088,"ebefbd":3089,"edecbe":3090,"eebcbbc":3091,"ddbbcc":3092,"bcbbbfc":3093,"bbbddbd":3094,"efebcc":3095,"abeee":3096,"eecdbf":3097,"dceedc":3098,"edcbbd":3099,"feebbee":3100,"ebbcbcc":3101,"dcbbdc":3102,"bcbedf":3103,"bebeccc":3104,"dcbbbf":3105,"beecccc":3106,"dcdbbc":3107,"eccbbee":3108,"ebeebcc":3109,"dbedec":3110,"dcbedc":3111,"bbbedee":3112,"dccdcc":3113,"eccfed":3114,"befbbee":3115,"fbca":3116,"bbedbbc":3117,"ebbfbbc":3118,"efcfc":3119,"ebbbebbbe":3120,"bdbdbdbd":3121,"ebbdbbd":3122,"fbebbd":3123,"eedefc":3124,"ebbbcbf":3125,"dbbbccc":3126,"ebdbebd":3127,"efbebd":3128,"ebdba":3129,"eccebcc":3130,"ebbceec":3131,"dcdebc":3132,"dddddddd":3133,"ebebccc":3134,"ebebeebe":3135,"bdddcc":3136,"ebffee":3137,"efcbec":3138,"dbdebc":3139,"efdebb":3140,"ddbebd":3141,"edceebc":3142,"efcbbc":3143,"bebceec":3144,"ebefec":3145,"bfbbdc":3146,"bbbbbebd":3147,"bbbebbcc":3148,"bbdbbbf":3149,"ebdddc":3150,"efdef":3151,"ecbedbc":3152,"bedeecc":3153,"ebedbf":3154,"bcbcccc":3155,"ebebbbbc":3156,"deeed":3157,"fffbc":3158,"dbeebf":3159,"bbecdf":3160,"bcbebbf":3161,"ddbecc":3162,"bbbdbec":3163,"ecbebec":3164,"bdbfcc":3165,"bddbbf":3166,"bceebbc":3167,"bdebfc":3168,"efbecc":3169,"bceac":3170,"bcbbba":3171,"aac":3172,"bbbcbebc":3173,"eecfbd":3174,"ebdfee":3175,"dbbecbc":3176,"eefbebe":3177,"dccbcc":3178,"fbcebc":3179,"ebbcbbd":3180,"bbbcdbc":3181,"fbeed":3182,"ecdbbee":3183,"bdbbeec":3184,"feddf":3185,"edcbebc":3186,"deda":3187,"ecfbcc":3188,"bfcdbe":3189,"bddedc":3190,"eeeebbbe":3191,"fbeecc":3192,"dbfbf":3193,"bdcbbbe":3194,"bbfbbbd":3195,"ebdbeec":3196,"bbccbf":3197,"eecebcc":3198,"bedfcc":3199,"bbbbbbebe":3200,"bebebbd":3201,"becbeee":3202,"ecdfcc":3203,"ebdbecc":3204,"ebcea":3205,"edbefc":3206,"eecbedc":3207,"cccbf":3208,"abbec":3209,"eefbbee":3210,"bfcff":3211,"ddebec":3212,"ea</w>":3213,"edbcbf":3214,"befebf":3215,"efbccc":3216,"dccdf":3217,"bebcbbbe":3218,"ebcdebe":3219,"deebbbe":3220,"befbebe":3221,"ebbbbbcc":3222,"bbccbec":3223,"ecdbecc":3224,"feeff":3225,"dedfc":3226,"ddfdc":3227,"ddebcc":3228,"edbeebe":3229,"bbecfc":3230,"bbebbbbebb":3231,"dbcdbd":3232,"deebbee":3233,"bceebf":3234,"debbbbc":3235,"edddcc":3236,"ebeeeebb":3237,"fbcdc":3238,"eabbc":3239,"fdeecc":3240,"beeeeeee":3241,"dffec":3242,"fbbfcc":3243,"eedeecc":3244,"ebfdbe":3245,"fccbec":3246,"bbbddbe":3247,"bfbeebb":3248,"edfbbc":3249,"bbeebcc":3250,"edcdbd":3251,"ebeebec":3252,"bcfeec":3253,"bfbbef":3254,"bbfbebc":3255,"dcbcbe":3256,"bbbcbbec":3257,"ebdeecc":3258,"bdeebbc":3259,"becbbebb":3260,"bbccfc":3261,"ffdbd":3262,"becebcc":3263,"dffbd":3264,"ebebebf":3265,"ebbda":3266,"bfcdee":3267,"bccfee":3268,"bbbcbbbbc":3269,"dedef":3270,"bbdbbdd":3271,"bbbcbdc":3272,"ebbbedd":3273,"dfbef":3274,"ebbcdbe":3275,"bbdbecc":3276,"bfbbebe":3277,"ddcfc":3278,"bbbddc":3279,"deacc":3280,"ebebcec":3281,"bcbcfc":3282,"eefbef":3283,"ecfbec":3284,"ebeecbc":3285,"ffbbbe":3286,"dbcbdc":3287,"eccbbec":3288,"efbcec":3289,"bccfcc":3290,"bbbbbcbbbb":3291,"dbedcc":3292,"bde</w>":3293,"bccbccc":3294,"bebbebcc":3295,"ecfebc":3296,"bcbcbf":3297,"ecceebd":3298,"bcbeccc":3299,"ebccbbc":3300,"abebc":3301,"fffee":3302,"afcc":3303,"bbfdbd":3304,"beecdf":3305,"ebbcdf":3306,"bebebdc":3307,"ffbef":3308,"eefbec":3309,"eccbef":3310,"ecceccc":3311,"effdc":3312,"efeebc":3313,"ecfedc":3314,"fcbebd":3315,"bcfebd":3316,"bbbcbbebb":3317,"ddbbed":3318,"efebec":3319,"bcceebc":3320,"bbccebc":3321,"ebbcbbf":3322,"dcfbf":3323,"bcacc":3324,"bbbbbeebb":3325,"dbdeec":3326,"bffef":3327,"ebbcebd":3328,"bdcebf":3329,"eccbeec":3330,"ecccccc":3331,"ecbeebd":3332,"bbdbdbd":3333,"fbddd":3334,"efbbef":3335,"bcfedc":3336,"bfeecc":3337,"deddbc":3338,"dcca":3339,"fcbbed":3340,"fbcebe":3341,"deeebd":3342,"dbdccc":3343,"ebcbedc":3344,"edeeebb":3345,"ffbbee":3346,"eebebdc":3347,"dbfbbc":3348,"becbbed":3349,"eebbbfc":3350,"bbbebcbc":3351,"edcefc":3352,"eecdebc":3353,"eccbcbc":3354,"decebd":3355,"bebcdd":3356,"afec":3357,"ecbcbbc":3358,"fcebcc":3359,"dbddbc":3360,"bebcdf":3361,"bbbdbbf":3362,"bbdbbdc":3363,"ecbedcc":3364,"eecbeee":3365,"dbdbdc":3366,"bbbeebbc":3367,"bccbeee":3368,"fbedbc":3369,"bbbddf":3370,"ecdebcc":3371,"becfcc":3372,"dbbeecc":3373,"ddea":3374,"bbffee":3375,"ebcbbbf":3376,"dcebdc":3377,"ebfed":3378,"bbeebeee":3379,"bebbbecc":3380,"ebcdebc":3381,"bcceecc":3382,"edcdcc":3383,"badf":3384,"eccecbc":3385,"ecbeed":3386,"deeeec":3387,"bdecebb":3388,"decded":3389,"bdc</w>":3390,"dbded":3391,"bfdbbbb":3392,"bfdfc":3393,"eefbbbe":3394,"eebcbec":3395,"ebbbcbbbb":3396,"bcbeed":3397,"dbfef":3398,"deced":3399,"eceeccc":3400,"ecbbebf":3401,"eecdfc":3402,"ecceedc":3403,"eefebf":3404,"dcfdd":3405,"bcbebbbc":3406,"eebbea":3407,"bfcbbf":3408,"abbcc":3409,"ebcbcec":3410,"ebeeebe":3411,"bbecef":3412,"bbdfcc":3413,"decbdc":3414,"edcbbf":3415,"dbbac":3416,"ddbbdd":3417,"ebecbbbb":3418,"fbcbcc":3419,"dbebef":3420,"dcbbdd":3421,"dbcbbbc":3422,"edcebf":3423,"feefc":3424,"ddfed":3425,"fbcff":3426,"ebdbcbc":3427,"eebbbbcc":3428,"bbecdee":3429,"feebeee":3430,"bcbb</w>":3431,"becdbf":3432,"fecef":3433,"ebeeeebe":3434,"afbd":3435,"bebedbe":3436,"ebebcbd":3437,"bbee</w>":3438,"bcdba":3439,"bbdfbe":3440,"dddef":3441,"ddbdbd":3442,"eefebc":3443,"bebcbcc":3444,"eccbebd":3445,"bfdebe":3446,"ebebcee":3447,"bbccbcc":3448,"dcdbec":3449,"bfeebd":3450,"bbbcebf":3451,"fcbeee":3452,"ebbecec":3453,"dcdecc":3454,"eccebec":3455,"bbbbbbdd":3456,"dbebbbd":3457,"bcbeeec":3458,"fcceec":3459,"becfed":3460,"bbbcff":3461,"ddddcc":3462,"bbcddc":3463,"bbbbdebb":3464,"bbeeccc":3465,"bebbfcc":3466,"bbcbccc":3467,"bebcccc":3468,"bbbedbd":3469,"becfbd":3470,"bfda":3471,"bcfebf":3472,"edbeef":3473,"bbbeba":3474,"effef":3475,"dbebbec":3476,"bbbebbbbc":3477,"bffdd":3478,"dedbcc":3479,"edbbbec":3480,"bbeebbebb":3481,"bebebef":3482,"fcdbec":3483,"decbbd":3484,"dbfa":3485,"eedbbcc":3486,"efbcbd":3487,"bdebbcc":3488,"ebedbbc":3489,"ebbbcbbc":3490,"bebeebf":3491,"bdcfbc":3492,"edfebe":3493,"ebbeeef":3494,"ebbdeec":3495,"eccddc":3496,"feebbf":3497,"bbbdbbbc":3498,"dedebc":3499,"dcecbe":3500,"eabbbb":3501,"edeeed":3502,"abcbc":3503,"bbeebbd":3504,"decdcc":3505,"bbeebbbc":3506,"ffedc":3507,"bccebec":3508,"bbcfbe":3509,"efdbbc":3510,"ebbbdbc":3511,"edbeecc":3512,"bfceec":3513,"dcecec":3514,"bbedbbbb":3515,"ddfbe":3516,"efbcee":3517,"beecbf":3518,"dfba":3519,"efbbebe":3520,"dddbbc":3521,"dbcbebe":3522,"efbebf":3523,"bbbdebc":3524,"bcbeecc":3525,"dfefc":3526,"ebebbef":3527,"bddccc":3528,"ededcc":3529,"bbbebbbf":3530,"dfbebc":3531,"dcdcdcdc":3532,"bbeca":3533,"bbbdfc":3534,"befbef":3535,"beeefc":3536,"dbcdec":3537,"dcffc":3538,"fbcbbf":3539,"bbebbbbbc":3540,"ebefbf":3541,"bcbedee":3542,"bbbbedc":3543,"ebbcccc":3544,"beceecc":3545,"ebccfc":3546,"bbbebfc":3547,"ebcbcbd":3548,"ffeec":3549,"dbdbcc":3550,"bcbebbd":3551,"eebeedc":3552,"fbceec":3553,"dccdee":3554,"bdbefc":3555,"ebcdef":3556,"eeeebbc":3557,"bebeecc":3558,"dceeed":3559,"abda":3560,"eafc":3561,"ecbbbbbbbb":3562,"bbecdbe":3563,"bfbeed":3564,"beeebbf":3565,"ecbebdc":3566,"bdbebec":3567,"ebebbdc":3568,"ebbcbbbc":3569,"bbcceec":3570,"fbddf":3571,"fecbcc":3572,"dddebe":3573,"eddbdc":3574,"bfeccc":3575,"feebbbb":3576,"eeecccc":3577,"efbeebb":3578,"ebecbec":3579,"beebdcc":3580,"dcbced":3581,"efbcf":3582,"eccdebb":3583,"bcbcbcc":3584,"dccebd":3585,"ececccc":3586,"feedf":3587,"ebbffc":3588,"ebfbdc":3589,"bebdbbc":3590,"bbecbcc":3591,"bbfba":3592,"ebccebc":3593,"fbeeec":3594,"edbba":3595,"ebbfdd":3596,"eefdbe":3597,"bcbcdd":3598,"fbeebd":3599,"dedeec":3600,"bcbbdcc":3601,"eebcfc":3602,"dcbbbbc":3603,"bfbcbf":3604,"ebfeec":3605,"bcdfcc":3606,"dccedc":3607,"feebebe":3608,"bbccdd":3609,"bebdbbbb":3610,"ebfebd":3611,"ebccebe":3612,"eccfbd":3613,"edecdc":3614,"daa":3615,"befbbd":3616,"ebbfbbbb":3617,"beccbec":3618,"bddebf":3619,"bbecbbd":3620,"ccceec":3621,"ededbd":3622,"ecfeec":3623,"ebfbbd":3624,"deedbd":3625,"bbebebbc":3626,"bdbbecc":3627,"bbebac":3628,"eddccc":3629,"ffbebe":3630,"becceec":3631,"ebfbbee":3632,"bdeba":3633,"deddec":3634,"bfdbb":3635,"bbabbbb":3636,"feebcc":3637,"bdcfec":3638,"aebbc":3639,"fbbebec":3640,"bddbbbc":3641,"beeedd":3642,"edcfbc":3643,"cccbec":3644,"fffcc":3645,"bceefc":3646,"ebddbf":3647,"deebbbc":3648,"addc":3649,"bbbbcbbbc":3650,"bbcbbdc":3651,"ebcbccc":3652,"dcbcf":3653,"ebcdfc":3654,"edcfcc":3655,"bbebbbbf":3656,"ddeeee":3657,"edeedd":3658,"bbbefbc":3659,"bebebebc":3660,"bbbbdec":3661,"bdcbbbc":3662,"ebdfcc":3663,"bdcded":3664,"dddbbbb":3665,"edcbfc":3666,"bcdbbcc":3667,"dcfebb":3668,"edcebbc":3669,"dbefbc":3670,"ecfdf":3671,"dcda":3672,"dbebfc":3673,"bbcbcbd":3674,"ebefebb":3675,"bcdebec":3676,"ebbfebc":3677,"ebdfbd":3678,"ecbeef":3679,"dbebcbc":3680,"ebebcbe":3681,"bebedf":3682,"ecbebbbe":3683,"debb</w>":3684,"dcbdbd":3685,"aefc":3686,"abbbf":3687,"eefecc":3688,"becfbe":3689,"bbbbebec":3690,"bbeedf":3691,"dceebe":3692,"ebbdebd":3693,"fecfc":3694,"bccba":3695,"aded":3696,"dcdbb":3697,"feebbbe":3698,"ddcef":3699,"befeec":3700,"eedea":3701,"abbebb":3702,"deeff":3703,"dcecbd":3704,"eebcbbbb":3705,"bebddd":3706,"befebd":3707,"beecdd":3708,"fbbbecc":3709,"ebfbbbc":3710,"bef</w>":3711,"ebccef":3712,"decbbf":3713,"eadf":3714,"ebcbbbbc":3715,"babbbe":3716,"dbdebd":3717,"fbdef":3718,"bbeceec":3719,"dcbebf":3720,"ddcbbc":3721,"bebebbebb":3722,"babba":3723,"bdeeebe":3724,"ebbbbebd":3725,"dbcedc":3726,"bccbecc":3727,"bcdeecc":3728,"ecbedf":3729,"ebbeebbbb":3730,"eceebbc":3731,"bedbbbbc":3732,"eccfee":3733,"beeeccc":3734,"bbfbbbf":3735,"ffbfc":3736,"bbfebbc":3737,"fbebfc":3738,"fbdbf":3739,"bceedbe":3740,"feb</w>":3741,"bdfdf":3742,"efcdee":3743,"ccccccccc":3744,"bceebec":3745,"bbbbcbbbbc":3746,"eedebcc":3747,"ebceedc":3748,"adbf":3749,"bcbebbee":3750,"bbdbcbd":3751,"ebcceec":3752,"babec":3753,"dcbedd":3754,"fcfed":3755,"edd</w>":3756,"eebbdcc":3757,"bdcdcc":3758,"edcbecc":3759,"ffbbbc":3760,"ebcbbdc":3761,"ebceccc":3762,"bccbeec":3763,"bbceebd":3764,"edecf":3765,"ebccdd":3766,"dbbcbbbb":3767,"acea":3768,"eebeebd":3769,"bebcebd":3770,"debbdd":3771,"ecdea":3772,"bebcbbd":3773,"fccdf":3774,"bcecccc":3775,"dcbeebb":3776,"edcbeec":3777,"ebcebdc":3778,"bcbcef":3779,"ecbcfc":3780,"deeddc":3781,"eeccccc":3782,"ecbcccc":3783,"bdcefc":3784,"ebfdbc":3785,"bfdebc":3786,"bcfbbbe":3787,"bdcbfc":3788,"bbfedc":3789,"bdcbebe":3790,"deedec":3791,"fcbbbf":3792,"becddc":3793,"ebcbeed":3794,"befecc":3795,"eebebbbc":3796,"bbcdef":3797,"bcbeebd":3798,"dfdbf":3799,"deebbec":3800,"bbed</w>":3801,"dceef":3802,"ada":3803,"becbedc":3804,"bcbedbc":3805,"edfa":3806,"bcfbbd":3807,"dbf</w>":3808,"ebceeec":3809,"effed":3810,"ebbcebb":3811,"bbbbbeec":3812,"eccbbcc":3813,"bcfdbc":3814,"bbebbbbd":3815,"ebeeecc":3816,"deeebb":3817,"befdbc":3818,"bbebbbec":3819,"bdbbbdc":3820,"dfded":3821,"eceac":3822,"aeeee":3823,"ebddebe":3824,"babcc":3825,"edbebbbb":3826,"eecfcc":3827,"beccbbc":3828,"babbf":3829,"bfecbe":3830,"dcbbef":3831,"edcdebb":3832,"ecdba":3833,"ebcdbbc":3834,"dfebbc":3835,"befbdc":3836,"edfebc":3837,"bbdea":3838,"bebeebd":3839,"bbcbbbbbbbb":3840,"bebeff":3841,"bbbebbbbbbbb":3842,"fcbccc":3843,"bbbbbbdc":3844,"bebdbec":3845,"bbbbfee":3846,"edeebf":3847,"bbcebcc":3848,"badbe":3849,"efcbcc":3850,"bfbedc":3851,"decff":3852,"bbfbbec":3853,"edbbebd":3854,"bbcdbbc":3855,"bbcfed":3856,"befbbbc":3857,"ebbeeed":3858,"efbbdc":3859,"eccfdc":3860,"eecea":3861,"fcbeed":3862,"dcbcdc":3863,"dfbbcc":3864,"bbbbdbf":3865,"bcbcbec":3866,"eebebbd":3867,"ebfbeee":3868,"deebebc":3869,"ecacc":3870,"ebbecf":3871,"fdbccc":3872,"edbebec":3873,"bccddc":3874,"ecbcdd":3875,"effebb":3876,"ebdbeee":3877,"bdecdd":3878,"edbea":3879,"bbcea":3880,"bfbced":3881,"eebcdd":3882,"eddbbf":3883,"bbbcdbd":3884,"bbcdebe":3885,"eebcebc":3886,"bbbddbc":3887,"eeeefee":3888,"bbecbbbe":3889,"ebbbdbe":3890,"fcbcec":3891,"dffdc":3892,"ebdebec":3893,"bbceeec":3894,"ebbdecc":3895,"edbbecc":3896,"ecdebec":3897,"dedebe":3898,"dbebbcc":3899,"eecdef":3900,"ebccbec":3901,"ebbedbd":3902,"bebedbc":3903,"fceecc":3904,"bbedbec":3905,"eecebec":3906,"eeeebbf":3907,"bcfbdc":3908,"ebbcdbc":3909,"bbbcbbcc":3910,"bdbddd":3911,"beebbebe":3912,"bbebbef":3913,"febfcc":3914,"bbedbf":3915,"eccbedc":3916,"dccdbe":3917,"bbbbcbbbe":3918,"dffee":3919,"ebfedc":3920,"dfbcbc":3921,"ebdbbcc":3922,"bbbdbcc":3923,"ecbebbd":3924,"ebbedcc":3925,"bbec</w>":3926,"dcecdc":3927,"bbebbbebe":3928,"bbbbbcbd":3929,"feca":3930,"ebcbcee":3931,"ecceeec":3932,"babbd":3933,"bbcbcee":3934,"bebcdbe":3935,"bbcbcec":3936,"bfcbbd":3937,"fcbcbd":3938,"eebeeec":3939,"fcdeec":3940,"eccea":3941,"fbe</w>":3942,"dccff":3943,"decdbd":3944,"bebcbbbc":3945,"ecdeccc":3946,"bccfbd":3947,"ebdebcc":3948,"bfecbd":3949,"bcdbecc":3950,"beccccc":3951,"dceedd":3952,"ecbbbfc":3953,"ebbdbcc":3954,"bebcbbf":3955,"fcecbc":3956,"ecbbebbc":3957,"bbbfbbf":3958,"ebbcdee":3959,"befdee":3960,"bfbbfc":3961,"becbeed":3962,"fedccc":3963,"fccdd":3964,"bbbeedc":3965,"edbfcc":3966,"eedfcc":3967,"efbeebe":3968,"ebfbfc":3969,"beeebcc":3970,"bcfdee":3971,"ddac":3972,"ebdecbc":3973,"ddceec":3974,"dcbbebe":3975,"afbe":3976,"efcff":3977,"decbeec":3978,"bbcecbc":3979,"ebcfdc":3980,"bdebbebb":3981,"dccdbc":3982,"ebbb</w>":3983,"bdcbbee":3984,"efbeed":3985,"bbbfbbbe":3986,"edbebcc":3987,"ebbecebb":3988,"dbbbddd":3989,"dbbebdc":3990,"ebbfa":3991,"bcbcebe":3992,"efdfc":3993,"dbdbbbe":3994,"fbbebcc":3995,"befbeee":3996,"ecfebe":3997,"ebeca":3998,"bffbbc":3999,"bbbdbebe":4000,"ebdfed":4001,"ebbbdcc":4002,"ebdea":4003,"bbcbeed":4004,"eebcccc":4005,"ebbcecc":4006,"ebecebc":4007,"bdefcc":4008,"bfbcebb":4009,"dcfef":4010,"bbbcecc":4011,"ebfdee":4012,"efda":4013,"edcbebe":4014,"becdef":4015,"bccccccc":4016,"fcdfc":4017,"ebbeebbc":4018,"dbcfbc":4019,"bdeeef":4020,"dbbecbe":4021,"ebffbc":4022,"feefee":4023,"bdfdbe":4024,"bbceecc":4025,"dbdbbf":4026,"bcbebdc":4027,"edbcdd":4028,"bececbc":4029,"bbbbbbbbcc":4030,"bbeddf":4031,"bcfbfc":4032,"bbbdeec":4033,"ffddc":4034,"eddbbbe":4035,"ecdedcc":4036,"dcecee":4037,"ebbcbebe":4038,"bccdbf":4039,"bebcdee":4040,"bbecbbf":4041,"cccebe":4042,"edbcbbc":4043,"bfeebe":4044,"fcfbe":4045,"ebcfebb":4046,"edcbbee":4047,"dbdecc":4048,"edcbbbe":4049,"bbebebbbe":4050,"eeebeebe":4051,"bebcbebe":4052,"ecbbdcc":4053,"beecbbbb":4054,"bccebcc":4055,"bcbddd":4056,"eecdbbc":4057,"dbcbbee":4058,"dccbbbb":4059,"ebecdd":4060,"bfbbebc":4061,"baff":4062,"fbcdbe":4063,"eececbc":4064,"efbbbbc":4065,"fcbbebb":4066,"fcbedc":4067,"bbbddee":4068,"bfeebf":4069,"dbacc":4070,"ebecbcc":4071,"bbfbbebb":4072,"fccbbc":4073,"bfffc":4074,"efbeef":4075,"efcdbe":4076,"bbeeebf":4077,"bceeccc":4078,"eddebf":4079,"bceebbbb":4080,"dbfdf":4081,"efeccc":4082,"ebbcbdc":4083,"eefbdc":4084,"bcecdd":4085,"dbcded":4086,"bbfdec":4087,"bdbcbbbb":4088,"ebcbebf":4089,"bdfbec":4090,"ddcebe":4091,"dbdbbbd":4092,"dbbbbbbc":4093,"bfebdc":4094,"edbbbcc":4095,"eecbbed":4096,"bedebdc":4097,"eeceebd":4098,"bcbeff":4099,"bbbcbfc":4100,"bbdeecc":4101,"bbdeebd":4102,"ebbcbbee":4103,"ebddebc":4104,"dbdff":4105,"dcdccc":4106,"dedbbbb":4107,"eebb</w>":4108,"bebcecc":4109,"bcdebcc":4110,"bebe</w>":4111,"bbceeee":4112,"dfbbec":4113,"fcea":4114,"fbeba":4115,"ebbecdc":4116,"bbfbbcc":4117,"bfbebbc":4118,"dcbcbf":4119,"bbfbcbc":4120,"bccfed":4121,"ddcecc":4122,"dddddd":4123,"beeb</w>":4124,"ebdeebd":4125,"bebbbccc":4126,"edbcfc":4127,"beffcc":4128,"bbbcebbc":4129,"bcecbec":4130,"fecdee":4131,"beccef":4132,"ebbeedd":4133,"dedded":4134,"bcecdee":4135,"bbecbebe":4136,"bdcbbbd":4137,"edeced":4138,"efcebc":4139,"dfac":4140,"fbdbec":4141,"bfdbec":4142,"fbdbbc":4143,"bebbeecc":4144,"fcdebc":4145,"fcac":4146,"dbbecbd":4147,"bedac":4148,"edbcebc":4149,"ebfbebc":4150,"ddcddc":4151,"bdbebbbe":4152,"ddeebd":4153,"beccebc":4154,"ebeac":4155,"bdbea":4156,"dcdbbbb":4157,"bffebe":4158,"ecdbbcc":4159,"bbebba":4160,"dbebeec":4161,"eebca":4162,"edcfed":4163,"bdfbbbb":4164,"bcfbbbc":4165,"fecdec":4166,"dddfc":4167,"ddeccc":4168,"ecbbbbcc":4169,"eefbbd":4170,"bccbebd":4171,"bbcbeebb":4172,"fbedee":4173,"ecfbdc":4174,"ebdbbed":4175,"efceec":4176,"eccbbbd":4177,"ebebeef":4178,"eccbccc":4179,"dcdebd":4180,"babca":4181,"fbcdee":4182,"dcedcc":4183,"fcfbf":4184,"bbcfbf":4185,"dcdbcc":4186,"befebb":4187,"bbcbebf":4188,"bddbbee":4189,"dcdedc":4190,"becbbbf":4191,"bfcdbc":4192,"edcfee":4193,"bcbcbbbc":4194,"eefba":4195,"debbebe":4196,"bbbbbbbbbbbc":4197,"bdbedbe":4198,"ecfbbbb":4199,"eebcef":4200,"bbbedec":4201,"efcdec":4202,"bfcccc":4203,"ddbbebb":4204,"bcdea":4205,"bbddbbbb":4206,"eeebbbbbb":4207,"bfbba":4208,"bbcbbebe":4209,"bbdebcc":4210,"ddbbdc":4211,"edcbbbc":4212,"ecbeeec":4213,"edceebd":4214,"bdcbebc":4215,"ebbbebec":4216,"ebecfc":4217,"bbcbbef":4218,"bbdfed":4219,"dcb</w>":4220,"eebedbc":4221,"bceeebe":4222,"bbeeff":4223,"cccebc":4224,"bbeedbc":4225,"ebbbdebb":4226,"eccdebc":4227,"bbedebe":4228,"bbeddbe":4229,"bceeebc":4230,"eadbe":4231,"bbbfa":4232,"bceedf":4233,"edcebcc":4234,"ebbbeebc":4235,"becdebc":4236,"eefdee":4237,"bcbbefc":4238,"eccbeee":4239,"bfbbdd":4240,"bfeeec":4241,"bfbdbd":4242,"eccdbf":4243,"efcbbbb":4244,"edcebec":4245,"fecff":4246,"efeecc":4247,"dbbbdbc":4248,"eecdecc":4249,"feedbe":4250,"bbbdebd":4251,"bbbffc":4252,"bbdeeec":4253,"bcbbebec":4254,"bceea":4255,"ddbcbd":4256,"fdeccc":4257,"eefdbc":4258,"fecdbe":4259,"ddeeec":4260,"bebbac":4261,"dceebf":4262,"dccbdc":4263,"eccedcc":4264,"eebedbe":4265,"bbeeebd":4266,"fdcdf":4267,"ebbdbbbe":4268,"bebeeeee":4269,"ffdec":4270,"cccdf":4271,"eeceedc":4272,"ebbbebbd":4273,"edebfc":4274,"eebbefc":4275,"ebeeebf":4276,"beeca":4277,"ddcbcc":4278,"ddcdf":4279,"ebbbcdd":4280,"bfbeebe":4281,"ebefef":4282,"bfcbbbc":4283,"bbbedebb":4284,"bbfdbf":4285,"ddb</w>":4286,"ebbcbbbd":4287,"ebccbbbb":4288,"feebec":4289,"feeeeee":4290,"ddcbec":4291,"fbda":4292,"eebeba":4293,"ebeeebd":4294,"bbecebd":4295,"beecdec":4296,"ecbcbec":4297,"bbcca":4298,"ecfebd":4299,"fdbbbbc":4300,"bbbebeebb":4301,"edbcef":4302,"edbebbd":4303,"beecef":4304,"ebbebfc":4305,"fbdfc":4306,"dbdded":4307,"bbeda":4308,"edeebbc":4309,"fbcbbd":4310,"bbbfef":4311,"eecfdc":4312,"ebbcff":4313,"ecbcebc":4314,"bbeebdc":4315,"ebefebe":4316,"bcecbbc":4317,"bbaa":4318,"ebebeed":4319,"bccdebb":4320,"dbbcbbc":4321,"bbecbbbc":4322,"ecbebbf":4323,"beeebec":4324,"fcca":4325,"eebcdf":4326,"eebbfcc":4327,"dccdec":4328,"babbbc":4329,"bfbbbec":4330,"bebeeec":4331,"dbbbdbbbb":4332,"bdfccc":4333,"ebbcebbc":4334,"ebefdc":4335,"ede</w>":4336,"edc</w>":4337,"bbccbbcc":4338,"ffdbf":4339,"ebecdf":4340,"bbebbebc":4341,"eebceec":4342,"befbfc":4343,"ebebedc":4344,"edcbebd":4345,"bbebbbbee":4346,"ebbbcebe":4347,"dcccccc":4348,"ebbbea":4349,"fbefcc":4350,"bcbcebc":4351,"edbbeec":4352,"bdebecc":4353,"dbcbbbd":4354,"dceced":4355,"beccfc":4356,"bbdb</w>":4357,"ecbedbd":4358,"debbbec":4359,"eebeea":4360,"dbfbbbb":4361,"fbcbfc":4362,"ebedebe":4363,"ebbbded":4364,"ebbeba":4365,"edfbec":4366,"cccbbbb":4367,"dbcbebc":4368,"bedbccc":4369,"bfbdcc":4370,"bcbebbec":4371,"bccbbed":4372,"dfbbbd":4373,"dedbdc":4374,"dbeba":4375,"deebebe":4376,"fdebdc":4377,"dbcebf":4378,"dbebeee":4379,"dbcdcc":4380,"eccba":4381,"eecdeec":4382,"bbfbeee":4383,"bbbebbed":4384,"dbcbef":4385,"dbddec":4386,"eeccfc":4387,"bbdbeebb":4388,"bbbfbec":4389,"ebbbefc":4390,"eecbcbd":4391,"bfcebd":4392,"bbffcc":4393,"bbecbbec":4394,"bbbcbef":4395,"bbdcbbbb":4396,"dcdbbd":4397,"eccdecc":4398,"edcddc":4399,"fbd</w>":4400,"eaba":4401,"bbbbbbbbbbbbbbbbbbbbbbbb":4402,"ebbecbf":4403,"ebccccc":4404,"ecebdcc":4405,"dddebc":4406,"deddbd":4407,"deffc":4408,"bcecdf":4409,"defccc":4410,"bdcbef":4411,"eebedf":4412,"ebcfbf":4413,"ebeeccc":4414,"ddbeed":4415,"becca":4416,"bdfbcc":4417,"dbcbcbc":4418,"dcbdcc":4419,"eccebdc":4420,"beecdee":4421,"decbebc":4422,"bbdbeed":4423,"eedebec":4424,"eebcbcc":4425,"eecbeed":4426,"bbcdbbbb":4427,"fbcebd":4428,"fbebecc":4429,"bbebebebe":4430,"bbbebebbbb":4431,"bebddf":4432,"ebebebbbb":4433,"ddecbc":4434,"ebedebc":4435,"ebceeee":4436,"eefebd":4437,"ebbeebbee":4438,"bbdeeee":4439,"eceedbe":4440,"bceeeec":4441,"eaccc":4442,"bdbac":4443,"bfbeef":4444,"bcbcbcbcbcbcbcbc":4445,"ecbbba":4446,"eeecbbc":4447,"bcbeedc":4448,"fcdbbc":4449,"ecbeddc":4450,"ebcecbd":4451,"ddda":4452,"ddfdd":4453,"dbfbec":4454,"fbeedc":4455,"fbebbcc":4456,"efcccc":4457,"bbbebebd":4458,"ddbccc":4459,"bbdfbf":4460,"deeedc":4461,"dddbb":4462,"bbecdec":4463,"eefeec":4464,"efdebe":4465,"eecceec":4466,"dbdbebe":4467,"bcbca":4468,"bdbebcc":4469,"bceebcc":4470,"fccff":4471,"def</w>":4472,"edfecc":4473,"bbffbd":4474,"bbebb</w>":4475,"ebcbbebe":4476,"ddfbf":4477,"dbeded":4478,"fbc</w>":4479,"bcbedec":4480,"bfecf":4481,"eebebbebb":4482,"efdbec":4483,"bdcfee":4484,"bfcecc":4485,"baccc":4486,"bbbebbebe":4487,"bfbebbbb":4488,"ebbebbcc":4489,"efbced":4490,"ebbcbebc":4491,"edfbcc":4492,"bbeddee":4493,"defa":4494,"ebbcdec":4495,"fccebc":4496,"ebbbdf":4497,"ebdbbebb":4498,"bbbfebe":4499,"bebcff":4500,"bebcdc":4501,"bfcdec":4502,"feceec":4503,"acda":4504,"efcebe":4505,"fcbbdc":4506,"bcfdbd":4507,"ebbecee":4508,"ecccecc":4509,"ebbbdbf":4510,"bbbdbdc":4511,"bceedee":4512,"bebd</w>":4513,"dbbdbbbb":4514,"bbcbbdd":4515,"defdc":4516,"fbbeecc":4517,"bcffcc":4518,"ecbedee":4519,"bfeeebb":4520,"fbcecc":4521,"bebeba":4522,"bdbeebc":4523,"ebbbbeec":4524,"bfcbdc":4525,"bbeeeec":4526,"edbcebe":4527,"efebdc":4528,"bbccebd":4529,"bebc</w>":4530,"fedbec":4531,"bcbcdee":4532,"bbeedee":4533,"effdd":4534,"eeecbec":4535,"bbdbbbbbbbb":4536,"bbdbbebe":4537,"bbbbfbe":4538,"bbbbded":4539,"ebfba":4540,"eebcecc":4541,"ebbcedc":4542,"ddca":4543,"bebcdec":4544,"fbcfbc":4545,"edecbf":4546,"bcfbebe":4547,"ebcbeebb":4548,"ebcbced":4549,"bbbbfbd":4550,"bbcbcbe":4551,"bfcbbbe":4552,"ffba":4553,"ccca":4554,"ddcdbe":4555,"beecbcc":4556,"fffbd":4557,"bbcbedc":4558,"ecfdbe":4559,"efeef":4560,"bcbcdf":4561,"befba":4562,"ebebced":4563,"fccbf":4564,"effebe":4565,"dbdbbbc":4566,"eebbebec":4567,"fdcccc":4568,"feeebf":4569,"bebda":4570,"eeeeebf":4571,"ecbebbbc":4572,"bbebbbbbbbbbb":4573,"debba":4574,"efdebc":4575,"efeeebe":4576,"dbfdbe":4577,"bbdecbc":4578,"bcfbbee":4579,"fccbcc":4580,"dcdbdc":4581,"eeccbec":4582,"bbecdbc":4583,"befbebc":4584,"bbbbbbbec":4585,"bfcfbc":4586,"ebddbbc":4587,"eebcebe":4588,"dedecc":4589,"bebeedc":4590,"ddcdee":4591,"efbcbe":4592,"ebddef":4593,"bbebeebe":4594,"bdbcbbc":4595,"fbbac":4596,"ebccbcc":4597,"eebbebcc":4598,"bbffec":4599,"eecbccc":4600,"eaff":4601,"bddddd":4602,"ececbbc":4603,"debbebc":4604,"bbccbbbc":4605,"babea":4606,"bddbfc":4607,"dbfccc":4608,"bcfdec":4609,"becbeebb":4610,"ebbbdee":4611,"ebcca":4612,"fbedec":4613,"ecdebdc":4614,"bfecbf":4615,"edbeebd":4616,"bcebdcc":4617,"eceebcc":4618,"bbbfff":4619,"dbbeccc":4620,"efeebf":4621,"fbbbccc":4622,"bbbefee":4623,"efeebd":4624,"eeeebef":4625,"bbecdc":4626,"beecdbe":4627,"ddcebc":4628,"bbeeecc":4629,"bcbbfcc":4630,"eecdebe":4631,"bdcebec":4632,"eebcbbf":4633,"becdbec":4634,"eeeca":4635,"ddcdcc":4636,"bbdcbbc":4637,"bbeebef":4638,"eecda":4639,"bbdbebf":4640,"ebbcebf":4641,"ebebcebb":4642,"bebebbcc":4643,"bbbcfbc":4644,"ddbcee":4645,"bcccbcc":4646,"fcfdc":4647,"becbbbbc":4648,"edebbcc":4649,"badee":4650,"dbcbfc":4651,"ebbeced":4652,"ebbbebbf":4653,"cccdcc":4654,"ebddfc":4655,"ebcac":4656,"bbdfebb":4657,"bdbbbbcc":4658,"bbeebbec":4659,"cccdee":4660,"ebefed":4661,"beeeff":4662,"deddcc":4663,"eeebdcc":4664,"beccecc":4665,"dbebbebb":4666,"eadee":4667,"beeeecc":4668,"edcbef":4669,"eebcbf":4670,"ebedef":4671,"eceeecc":4672,"ecccdd":4673,"debbfc":4674,"dbddcc":4675,"bbbfdd":4676,"feebdc":4677,"bbbbbbbcc":4678,"dbeebbc":4679,"bbbbbdbd":4680,"ebeeef":4681,"fbcbbbe":4682,"ebbdbbf":4683,"decbbbe":4684,"bcbeebf":4685,"bdfbbf":4686,"debbbbbe":4687,"bcceebd":4688,"edcecbc":4689,"debbdf":4690,"eecbbdc":4691,"fecebc":4692,"fee</w>":4693,"bebdebc":4694,"ebedfc":4695,"beeeebf":4696,"ebebba":4697,"becbcec":4698,"dedbeec":4699,"bbdbcec":4700,"bffa":4701,"bbbbbebf":4702,"bfbcdc":4703,"dbefcc":4704,"becea":4705,"bdacc":4706,"cccff":4707,"bebbeccc":4708,"bdcebbc":4709,"beeefee":4710,"ebbbcebc":4711,"edcdebc":4712,"bbcfebb":4713,"bbbbbbebc":4714,"dcecbf":4715,"efcdbc":4716,"eef</w>":4717,"beceebd":4718,"dcbded":4719,"ecccfc":4720,"bbdbedc":4721,"ebbbbbbcc":4722,"edfdf":4723,"ececdf":4724,"deebef":4725,"fbcdec":4726,"bbfdcc":4727,"baebc":4728,"dbedbf":4729,"becdeec":4730,"ededbf":4731,"bbbbdbbc":4732,"dceeebb":4733,"bbbbbcbe":4734,"ebdbedc":4735,"edceedc":4736,"fbedcc":4737,"debebbc":4738,"ebbbebbee":4739,"eefbbbc":4740,"eeccecc":4741,"dcbbfc":4742,"ddbcec":4743,"bcceeec":4744,"bbbbdcc":4745,"aeba":4746,"bbeeeeee":4747,"eefea":4748,"bdbebbd":4749,"bbeebebc":4750,"bebebcbc":4751,"beeebbbc":4752,"bdbbccc":4753,"bbbfbbbc":4754,"afbf":4755,"dbeddc":4756,"beecebc":4757,"bbccbbbe":4758,"dbfff":4759,"fecdbc":4760,"edeba":4761,"dbedebb":4762,"bdcbbec":4763,"eeccebc":4764,"eeceeec":4765,"bbccdf":4766,"fccecc":4767,"ebccecc":4768,"ebbbcef":4769,"edecebb":4770,"dddbbd":4771,"eecbbebb":4772,"edeeebe":4773,"bbedebc":4774,"dbebebd":4775,"bbbbeebc":4776,"abdbf":4777,"efecbd":4778,"ebbfbec":4779,"ffbcbc":4780,"dcbcdd":4781,"ecbcbcc":4782,"bfcebf":4783,"bbcdebc":4784,"fed</w>":4785,"bbbbbccc":4786,"ddbbbf":4787,"ecfbbf":4788,"fbebbebb":4789,"ebccbf":4790,"becbccc":4791,"dbcfee":4792,"ebccebd":4793,"becbcbd":4794,"eecca":4795,"beeeba":4796,"ededdc":4797,"ebbdedc":4798,"fbebbec":4799,"bbeeba":4800,"bccffc":4801,"acdf":4802,"becbbdc":4803,"eecdbec":4804,"beebfcc":4805,"dcbeef":4806,"bbbcdec":4807,"acdd":4808,"ebecbf":4809,"deeebf":4810,"ebbbcfc":4811,"bdbedf":4812,"bebebbbd":4813,"beeeebc":4814,"bfcbfc":4815,"dbebecc":4816,"acbbc":4817,"edcfbd":4818,"beecfc":4819,"deebcbc":4820,"ecfdbc":4821,"eceea":4822,"bbccbbd":4823,"bbbf</w>":4824,"bddefc":4825,"eecebdc":4826,"bbbbbecc":4827,"bbbbcbcc":4828,"bbebbbbbd":4829,"beeebef":4830,"bdcddc":4831,"fbcdbc":4832,"dcbbebc":4833,"edceccc":4834,"ebebebbc":4835,"efeeef":4836,"bcfdcc":4837,"eececcc":4838,"bbdfdc":4839,"bdcfbd":4840,"efbedc":4841,"bbecbebc":4842,"eabcc":4843,"beebbbbc":4844,"eeccbbc":4845,"ebbbfcc":4846,"edbedbe":4847,"beceedc":4848,"efcded":4849,"dddecc":4850,"bdceebc":4851,"bdbbedc":4852,"bebfbbc":4853,"efcecc":4854,"ebbbddd":4855,"beebba":4856,"bedeccc":4857,"bbbbfbf":4858,"bbbebeec":4859,"eeeeff":4860,"bdbbebf":4861,"eedbccc":4862,"becdfc":4863,"ddcdbd":4864,"bbccecc":4865,"becdbbc":4866,"bbedef":4867,"decbef":4868,"ebbcfbc":4869,"eddefc":4870,"edfeec":4871,"bdbb</w>":4872,"ddd</w>":4873,"bcbbbccc":4874,"bbdbccc":4875,"ebcdeec":4876,"ebccedc":4877,"bcbbbecc":4878,"bddebbc":4879,"defdf":4880,"fecded":4881,"dbbbbbbbbbbbb":4882,"beceeec":4883,"bdcbeec":4884,"dbbbbbbbd":4885,"bdceecc":4886,"fceeec":4887,"ebcbbdd":4888,"fec</w>":4889,"aebec":4890,"efbcbf":4891,"ebebcf":4892,"eebcbedf":4893,"ddcccc":4894,"bccbbebb":4895,"afed":4896,"bbccdbe":4897,"ebcbedd":4898,"ebfdec":4899,"bfcbebc":4900,"bbbedcc":4901,"eccecdc":4902,"edceeec":4903,"ecbedec":4904,"ddbedc":4905,"beeddf":4906,"bbfbbef":4907,"befdbd":4908,"bbbacc":4909,"eebcebd":4910,"ebcdbec":4911,"bebdbf":4912,"ebbcdbd":4913,"ddcdbc":4914,"bbcfdc":4915,"dbbecec":4916,"bbbbcbbd":4917,"bebebbec":4918,"bdbebbf":4919,"dbefee":4920,"dbbcccc":4921,"fecbbbb":4922,"becdebe":4923,"edcbcbc":4924,"ebebbebc":4925,"edcbbec":4926,"fcdebe":4927,"bccdef":4928,"beeceec":4929,"dcbcebb":4930,"dbbbdcc":4931,"fbebbbd":4932,"bcbbea":4933,"bddba":4934,"dcedbd":4935,"bdfdbc":4936,"ebbbdbbbb":4937,"dcbeebe":4938,"edefcc":4939,"eddbbee":4940,"ebeebdc":4941,"debbef":4942,"bfdeec":4943,"ebbbbecc":4944,"edfbbbb":4945,"dbdbdbd":4946,"bebdef":4947,"beebbbbbe":4948,"edcdbf":4949,"eebddd":4950,"fbcbbbc":4951,"eebbbecc":4952,"bbbbbbef":4953,"dedebd":4954,"ebbbebcc":4955,"bfdbbd":4956,"fbeea":4957,"befdec":4958,"bdcdbf":4959,"bebdfc":4960,"bfecec":4961,"bbfefc":4962,"ebebdbd":4963,"dedbbd":4964,"ebebbdd":4965,"bdbebbbc":4966,"bbbebecc":4967,"ebbcbbec":4968,"dddbec":4969,"bbbdccc":4970,"bbbbbebbc":4971,"dbebbed":4972,"adebb":4973,"ecbcecc":4974,"bbbbcbec":4975,"dfea":4976,"eecbcec":4977,"eceedcc":4978,"dbcbbec":4979,"bebefee":4980,"ebdbbdc":4981,"dddeec":4982,"fedbbc":4983,"bdfecc":4984,"eecdedc":4985,"abbed":4986,"dedbbec":4987,"efeeebb":4988,"deeba":4989,"bbdbcee":4990,"dcfbbc":4991,"defbbc":4992,"eeebeeeee":4993,"cccccccccc":4994,"eefdcc":4995,"bbbcbeee":4996,"bcccfc":4997,"bccbbbf":4998,"edcea":4999,"bcbebfc":5000,"bcbedbd":5001,"ddeedc":5002,"ffbbec":5003,"dcfebc":5004,"fbedbd":5005,"bbbbfec":5006,"eecbedd":5007,"bbdbbef":5008,"bdbeebd":5009,"ebfebbc":5010,"ddebdc":5011,"eedeccc":5012,"dfcfc":5013,"fdbdcc":5014,"edecdd":5015,"eceefc":5016,"ddcdec":5017,"fbebbbf":5018,"ebbdbdc":5019,"bbbbbcbbc":5020,"bbbcba":5021,"ebecebe":5022,"bfcbef":5023,"dbefbd":5024,"bcfbef":5025,"bbfbeec":5026,"eddeecc":5027,"bdcfcc":5028,"edecbbc":5029,"ebecef":5030,"ebffcc":5031,"deeebbc":5032,"dcfebe":5033,"eddbbbc":5034,"dbbbded":5035,"eebbac":5036,"ebdbbbf":5037,"bdcbcbc":5038,"dbcfec":5039,"ebccdf":5040,"becebdc":5041,"dbfbcc":5042,"ebbfbcc":5043,"ebeeeef":5044,"bdbeecc":5045,"dedbebc":5046,"bcfbebc":5047,"bbbbea":5048,"dedff":5049,"bbffbf":5050,"ecbebbee":5051,"bbbbefc":5052,"eebdbbc":5053,"bbbdff":5054,"ebedbbbb":5055,"bebeebbc":5056,"ebfeeee":5057,"bebbbbbbc":5058,"bfbcef":5059,"bceeecc":5060,"eebcdbe":5061,"feebef":5062,"bceeef":5063,"fdcef":5064,"da</w>":5065,"ecffcc":5066,"eddebbc":5067,"fdb</w>":5068,"ebfdcc":5069,"bebbebdc":5070,"feda":5071,"ebbbdec":5072,"ebbbddc":5073,"deefbc":5074,"dcecf":5075,"ebfbcbc":5076,"fbeebbc":5077,"bdcbebd":5078,"fcda":5079,"edcdfc":5080,"bbbdbbebb":5081,"bbfdebb":5082,"dfbecc":5083,"bdbeccc":5084,"ebfdbd":5085,"bdfebd":5086,"deebfc":5087,"ebecebd":5088,"dccdbd":5089,"bbeeebbc":5090,"bebebeebb":5091,"eccbbed":5092,"bdbcdd":5093,"ebcbcdc":5094,"bebbbbbbbe":5095,"ebcdecc":5096,"ebbbcbec":5097,"bccbbbbc":5098,"dbbcdd":5099,"bedb</w>":5100,"bbbbfebb":5101,"edcbedc":5102,"ebeda":5103,"ebecccc":5104,"ebecdbe":5105,"beecbebc":5106,"dcecdd":5107,"bbdcdd":5108,"ebedbec":5109,"eedebdc":5110,"ebfbbbd":5111,"bbbcbbbbbbbb":5112,"dcbcef":5113,"bbccbbf":5114,"ebebbbec":5115,"bfdbcc":5116,"edbeeec":5117,"fbdff":5118,"fceccc":5119,"dcc</w>":5120,"bebebfc":5121,"efbba":5122,"bbeebbbd":5123,"eccbcec":5124,"eedac":5125,"ebeecbd":5126,"ebcbbef":5127,"fceebd":5128,"ebeeeec":5129,"bcf</w>":5130,"effa":5131,"eecfbe":5132,"fbdccc":5133,"eebcbbd":5134,"bceebbf":5135,"dcbdee":5136,"beeedbc":5137,"ebbeea":5138,"eebebbebe":5139,"fbfbbc":5140,"dbbedbd":5141,"bcbebbebb":5142,"befbbec":5143,"edbcbbbb":5144,"ebdfdc":5145,"babdc":5146,"dccbbd":5147,"effbbc":5148,"bcdbbbbc":5149,"ecf</w>":5150,"eecbbbf":5151,"edcbbbd":5152,"dbefec":5153,"bfeedc":5154,"bebcdbc":5155,"bbeefee":5156,"bcdbbbd":5157,"fbebccc":5158,"abeec":5159,"bcbdbbc":5160,"bdcdebb":5161,"eceedf":5162,"bdebccc":5163,"bcfebbc":5164,"bcbcbbbe":5165,"ecbcbbbb":5166,"ebecbbbe":5167,"edcdecc":5168,"bbedfc":5169,"ebecdbc":5170,"eceeebc":5171,"ebbfecc":5172,"ebbbbbdc":5173,"eddbfc":5174,"bcccbbc":5175,"ebbecbbc":5176,"ebbeebbbe":5177,"ededbc":5178,"bbecff":5179,"ebdeedc":5180,"ecbcbf":5181,"beeebbebb":5182,"ebbfbbd":5183,"bcbedcc":5184,"ebdeeec":5185,"fbcbebe":5186,"beeddd":5187,"bcbcbebc":5188,"eebedcc":5189,"befdcc":5190,"eeebba":5191,"ebecdee":5192,"ecbcdf":5193,"bbececc":5194,"dfcdf":5195,"fbcfec":5196,"bcbcdbe":5197,"bdfdee":5198,"beeedbe":5199,"bdfebf":5200,"bccfdc":5201,"decbbbc":5202,"dedbbf":5203,"bdfbbd":5204,"efbbdd":5205,"bbbbbcebb":5206,"bdfeec":5207,"debbbf":5208,"ecbefcc":5209,"edeefc":5210,"fcbbbbc":5211,"dcbebbc":5212,"bcbceec":5213,"ecbbefc":5214,"eabec":5215,"bbefbbc":5216,"dbdddc":5217,"eebcdbc":5218,"dbbbbbbbe":5219,"bbccff":5220,"bbebbbcc":5221,"efeeec":5222,"ebebbfc":5223,"bbbbeeee":5224,"bcbcbbf":5225,"ddbddd":5226,"badbc":5227,"beccbcc":5228,"fbdebc":5229,"bbbfdf":5230,"eabbbe":5231,"bcdac":5232,"efcbbf":5233,"dbfebc":5234,"dbbbdebb":5235,"beeebbd":5236,"bebedee":5237,"fbcbdc":5238,"debbdbe":5239,"debbccc":5240,"debbbbd":5241,"bcbebbcc":5242,"ffcdf":5243,"dcbddd":5244,"dcbddc":5245,"bfcdbd":5246,"fcbeebb":5247,"ebbfebd":5248,"eccbeed":5249,"beccedc":5250,"fedbf":5251,"decbbec":5252,"eeccef":5253,"ebdfebb":5254,"bbbcbbbf":5255,"eceedbc":5256,"fecbdc":5257,"ebdebdc":5258,"eccdfc":5259,"dbbd</w>":5260,"bbbbbba":5261,"eebcedc":5262,"bdbbdcc":5263,"ddbbbbc":5264,"eebefcc":5265,"ebbbbebf":5266,"bcecdbe":5267,"ebebcbf":5268,"decedc":5269,"bdbeeec":5270,"cccdbe":5271,"ecbeff":5272,"ebebcdc":5273,"dddbcc":5274,"ebdeccc":5275,"eccfdd":5276,"efcbdc":5277,"befbbebb":5278,"bbbbbbbbbbbbbbbbbbbbbbbbbbbbbbbb":5279,"bbbbfcc":5280,"edeeef":5281,"bbcac":5282,"eabbf":5283,"bbbdbebc":5284,"deebeec":5285,"beeebdc":5286,"bfbfcc":5287,"decbebe":5288,"fffbf":5289,"babebe":5290,"ececbcc":5291,"eeccedc":5292,"ebfbbcc":5293,"ebdbeed":5294,"eebcbbbe":5295,"ebbbedbe":5296,"ecbcef":5297,"decbfc":5298,"fbdeec":5299,"ebbbfbf":5300,"bcbbebcc":5301,"fceedc":5302,"befebbc":5303,"ebdbcbd":5304,"bffbbbb":5305,"beeedf":5306,"bfedcc":5307,"dcbdbc":5308,"ebecbbd":5309,"edbedf":5310,"bbfbbed":5311,"bebdeec":5312,"bcfefc":5313,"bcbc</w>":5314,"bfeeebe":5315,"ebcdebd":5316,"eebeebbc":5317,"bbbddbbbb":5318,"bbbfbcc":5319,"beccebe":5320,"ffbbcc":5321,"bcbbbbbbc":5322,"dbfebe":5323,"ebcecdc":5324,"fbcbebc":5325,"dbbbdee":5326,"eedcccc":5327,"ebbfbbf":5328,"bebddbe":5329,"bfbcbbc":5330,"debbbbf":5331,"feedbc":5332,"bbbbbbbbbbbbc":5333,"fffec":5334,"fccfec":5335,"dccded":5336,"eedbbbd":5337,"bbebbfc":5338,"bceddd":5339,"bfbbbcc":5340,"ecbbfcc":5341,"acfc":5342,"efbbfc":5343,"edecee":5344,"bcecfc":5345,"deecdf":5346,"eebebbbd":5347,"bbbbbbbbbbbe":5348,"ebbdbbbc":5349,"ebbfbbbe":5350,"edfebd":5351,"deebbbd":5352,"bdcfed":5353,"efffc":5354,"fdddd":5355,"beebbbebe":5356,"dcdddd":5357,"ebeceec":5358,"dbfecc":5359,"dbbbdbf":5360,"faa":5361,"eefbfc":5362,"edfbbd":5363,"ffefc":5364,"ecbeebf":5365,"bffbbd":5366,"debbbcc":5367,"dbfbbf":5368,"bceedbc":5369,"bcfbbec":5370,"efbbebc":5371,"ffbeee":5372,"bbbbbbbbbbc":5373,"ffbebc":5374,"deebbcc":5375,"bcbcbbd":5376,"ebebdcc":5377,"eeecdf":5378,"febba":5379,"dccbbf":5380,"beedbbc":5381,"ebbcbfc":5382,"ecbceec":5383,"edbeccc":5384,"bbbbebcc":5385,"eebda":5386,"ecbca":5387,"bdcbecc":5388,"bebefbc":5389,"fecbbf":5390,"bedcccc":5391,"bcbebbbd":5392,"fcebdc":5393,"befedc":5394,"cccedc":5395,"eddebcc":5396,"ebdbcec":5397,"bebcedc":5398,"dbbecbf":5399,"ebbbbccc":5400,"efbcebb":5401,"bbdac":5402,"dfcdd":5403,"bbfbbbbc":5404,"eccecbd":5405,"dadd":5406,"bfedbd":5407,"bbeebeebb":5408,"fdcdd":5409,"bccea":5410,"bccbedc":5411,"deedbf":5412,"bfbefc":5413,"ecbcebe":5414,"febbbbbb":5415,"beedbec":5416,"bffebc":5417,"edeea":5418,"eefdbd":5419,"eebebbcc":5420,"dbbbbbbd":5421,"beecdbc":5422,"ddcbbbb":5423,"fcbebf":5424,"beeedc":5425,"bceebbbe":5426,"bdcba":5427,"bbdcbec":5428,"eefbebc":5429,"bcceeee":5430,"eeccdd":5431,"eeebbebe":5432,"bbdddbd":5433,"dffbf":5434,"bbabbc":5435,"feeba":5436,"bbbfbbd":5437,"bfbdbf":5438,"feeebc":5439,"dccfec":5440,"edbebbbe":5441,"ddcff":5442,"efbdbd":5443,"abebd":5444,"ebecbbbc":5445,"bbbeeeee":5446,"bbbfebc":5447,"debbeec":5448,"ecfbfc":5449,"bbeddbc":5450,"fceeee":5451,"ebdfbe":5452,"fcfef":5453,"bbdcebe":5454,"fdddf":5455,"bfbdbc":5456,"bcccbccc":5457,"bfecdc":5458,"ebbbebdc":5459,"bbefbbbb":5460,"bcdbccc":5461,"bcfdbf":5462,"dbdedc":5463,"dbdbebc":5464,"bbeebfc":5465,"bbefa":5466,"ecceedd":5467,"bdbbba":5468,"feddc":5469,"febbbbc":5470,"dbcebbc":5471,"bdfbdc":5472,"befeeee":5473,"ededdd":5474,"befbcbc":5475,"eccac":5476,"bebbcbbbb":5477,"ebcda":5478,"bcccdd":5479,"efcbebc":5480,"ebbedbc":5481,"eedbbbbc":5482,"ebbeddc":5483,"bcbdbbbb":5484,"beecded":5485,"dfebcc":5486,"ecfbbd":5487,"bbbcbbed":5488,"ebdbbdd":5489,"ebfbbec":5490,"debebbbb":5491,"bbbbcebe":5492,"eccdef":5493,"ebcbdbd":5494,"ebdbdbd":5495,"bdbedee":5496,"eeecdd":5497,"ececbec":5498,"fccedc":5499,"abecc":5500,"bdeac":5501,"bbfea":5502,"feebbd":5503,"afdc":5504,"ebcbcbe":5505,"bebdbbbe":5506,"ebbbebbbc":5507,"adef":5508,"ddcbdc":5509,"bbbfdbe":5510,"fbfef":5511,"edbeedc":5512,"bbccbdc":5513,"ebbbdbbc":5514,"bbeebbebe":5515,"fcbcf":5516,"ebffec":5517,"efcebd":5518,"edebecc":5519,"bbffbe":5520,"dfbeee":5521,"aeebc":5522,"dcfa":5523,"dffbe":5524,"efbdcc":5525,"eebdbec":5526,"bdbebdc":5527,"bceeeecc":5528,"bbcdfc":5529,"bbcbdbd":5530,"eebebbbf":5531,"beebeebe":5532,"bbeefbc":5533,"bfcded":5534,"dcebfc":5535,"dcbefc":5536,"efcbbd":5537,"eebdebc":5538,"fbbebdc":5539,"bbbecbbbb":5540,"eebdfc":5541,"bfcbbec":5542,"bebfbbbb":5543,"ececdd":5544,"bbedeec":5545,"ebecbbf":5546,"bbebcbbbb":5547,"bdfbbbe":5548,"bdeebec":5549,"ecccebc":5550,"ebececc":5551,"dbdfbc":5552,"defbcc":5553,"befea":5554,"fbdbbbb":5555,"dbbbddc":5556,"dbbbbbbbc":5557,"ddcbf":5558,"fbffc":5559,"efdeec":5560,"bcdebdc":5561,"bddeecc":5562,"fedbcc":5563,"ecdbccc":5564,"ecbcdee":5565,"ecfebf":5566,"debedd":5567,"bbbfbebe":5568,"abbbbc":5569,"eebddf":5570,"feeecc":5571,"bbbecbbc":5572,"bbedbbd":5573,"ebecdec":5574,"dbcbeee":5575,"efbcdc":5576,"eeccbcc":5577,"befbbbd":5578,"edcdef":5579,"ebccdbe":5580,"dcfecc":5581,"eecbeebb":5582,"bdcbeee":5583,"ececebc":5584,"fcbcee":5585,"babbee":5586,"bdbebbee":5587,"bebcbbee":5588,"babbbd":5589,"acbec":5590,"bcebbbbbb":5591,"eeffcc":5592,"ddcded":5593,"bcbefcc":5594,"bbebbdd":5595,"ddcebd":5596,"bbccdee":5597,"bbddbbc":5598,"bbbcbeec":5599,"eebebbec":5600,"eebbeecc":5601,"fcbced":5602,"bbfbebd":5603,"decbecc":5604,"fbcebf":5605,"eeecbcc":5606,"fbddbe":5607,"ecdac":5608,"bbccdbc":5609,"debcbec":5610,"bebcebbc":5611,"ebcffc":5612,"bcbeebbc":5613,"bdeea":5614,"eccbedd":5615,"deebeee":5616,"bebcded":5617,"bbbbcbbbd":5618,"ffea":5619,"bbbbcbbf":5620,"baebf":5621,"fdcbec":5622,"fccebe":5623,"debbbbbc":5624,"defdbe":5625,"ebecbdc":5626,"bbbedbf":5627,"debcdf":5628,"bdbcfc":5629,"bebebbebe":5630,"ecccbcc":5631,"ecbddd":5632,"bebdebe":5633,"decfbc":5634,"ecbcdbe":5635,"ebcbcf":5636,"bbbeea":5637,"dbbcbec":5638,"edbbedc":5639,"ffebbc":5640,"cccdbc":5641,"befdbf":5642,"ffac":5643,"bfbedd":5644,"eccedbd":5645,"ebdbebf":5646,"eeeebcc":5647,"debe</w>":5648,"bbcbbebc":5649,"eebcdc":5650,"ecfdcc":5651,"bbebbbebc":5652,"bebdbbd":5653,"bfeeef":5654,"dbdebf":5655,"ecfbbbc":5656,"ebddeec":5657,"baea":5658,"ebbeebeee":5659,"afa":5660,"bbbbb</w>":5661,"beccdf":5662,"ecfbbbe":5663,"bedcbec":5664,"eecbbbbc":5665,"decfec":5666,"cccbdc":5667,"fedef":5668,"ffded":5669,"bbcbebbc":5670,"bbdcef":5671,"acef":5672,"dcbba":5673,"ebdbccc":5674,"ddfebb":5675,"bcceedc":5676,"fbedebb":5677,"ebbecdd":5678,"ebbbeebd":5679,"bbcbcbf":5680,"dceddc":5681,"dbdbbee":5682,"beecbbd":5683,"eccdebe":5684,"eebcbdc":5685,"ddffc":5686,"bccbcec":5687,"dccfbc":5688,"fcbbfc":5689,"bbbcfee":5690,"dbedef":5691,"ecbcbbf":5692,"edcebdc":5693,"fcbcbf":5694,"bebddee":5695,"eeccbbbb":5696,"bfeeed":5697,"bbcdbec":5698,"bceeefc":5699,"edeeebc":5700,"bccbcbd":5701,"bbebbbbbbc":5702,"bebcbdc":5703,"eccceec":5704,"decebbc":5705,"ddcbbd":5706,"abccc":5707,"fcfebb":5708,"edcba":5709,"bfdebd":5710,"decebf":5711,"bfcbeec":5712,"bdfdbd":5713,"dabca":5714,"bcebfcc":5715,"bbebebbee":5716,"bbcbced":5717,"edbebdc":5718,"bdbcebe":5719,"bbedbbbe":5720,"dcbbbec":5721,"eccbcbd":5722,"edbbbdc":5723,"bbecded":5724,"bffdf":5725,"abcbd":5726,"dffed":5727,"dbcfcc":5728,"bbfded":5729,"bbcbbfc":5730,"becbebf":5731,"dbfdee":5732,"fecdcc":5733,"edeebcc":5734,"bbbbbbbbbbbd":5735,"ecbebfc":5736,"fbdebe":5737,"dbbecebb":5738,"ecceddc":5739,"eccfebb":5740,"bccbbdc":5741,"ebceebe":5742,"efeebe":5743,"ebccbdc":5744,"eefebbc":5745,"eebcff":5746,"eeeeba":5747,"bbbcbebd":5748,"beecebe":5749,"ebdda":5750,"ebdcebe":5751,"febac":5752,"dbbeced":5753,"eebe</w>":5754,"bebeea":5755,"bdbedbc":5756,"beccdd":5757,"bfebfc":5758,"ebceebf":5759,"eccbbdc":5760,"bbefdd":5761,"fbedbf":5762,"bebcbfc":5763,"bccbeed":5764,"dbebccc":5765,"ebfea":5766,"fbfa":5767,"fdd</w>":5768,"dbdbef":5769,"bbecbdc":5770,"ecdcccc":5771,"ebcbebbc":5772,"bebbb</w>":5773,"edcfdc":5774,"dcbfcc":5775,"bbbbfbbbb":5776,"bfbded":5777,"ebbcbcbc":5778,"bddbbcc":5779,"ebceedd":5780,"deefcc":5781,"eefdec":5782,"bcecdec":5783,"efcbbbc":5784,"ebcbcebb":5785,"eecbebf":5786,"ebbfeec":5787,"bcbebecc":5788,"eebcdec":5789,"bdeefc":5790,"dcd</w>":5791,"eebcbbbc":5792,"bebebbbf":5793,"bbebbdbe":5794,"ebcecec":5795,"eeeebeebe":5796,"ebdbbbbc":5797,"eddbecc":5798,"bcbeba":5799,"edbac":5800,"ebfbbbf":5801,"ebddecc":5802,"bccbcee":5803,"eecac":5804,"ecbb</w>":5805,"bbedccc":5806,"ecccbbc":5807,"bdeebbbb":5808,"bcbcff":5809,"fbfccc":5810,"bdbdbbbb":5811,"fdcfc":5812,"eeeeeeebe":5813,"dbfba":5814,"dcbdbf":5815,"bccfbe":5816,"ebceeed":5817,"bdbcef":5818,"bbecbbee":5819,"fbcbef":5820,"dfdebb":5821,"ddedcc":5822,"ebfefc":5823,"ebffbd":5824,"eccecec":5825,"ecfdec":5826,"bbbccbbc":5827,"ebddbbbb":5828,"defbec":5829,"fecbbd":5830,"ebdcbbc":5831,"dfbebd":5832,"bbbefbd":5833,"bdbcbec":5834,"ecbbebec":5835,"bfdbbf":5836,"bbedbcc":5837,"dbcbeec":5838,"bfcdcc":5839,"ebddbec":5840,"dcefcc":5841,"fbfff":5842,"bebcbcbc":5843,"eefedc":5844,"ebdcdd":5845,"ebbeebebe":5846,"eebbbccc":5847,"feedcc":5848,"ebcfdd":5849,"eeeb</w>":5850,"fcdecc":5851,"cccdec":5852,"dbbdbbc":5853,"bbbcedc":5854,"deeded":5855,"eecdebd":5856,"bceebdc":5857,"bbecbeec":5858,"ebcdedc":5859,"debd</w>":5860,"ecebfcc":5861,"dcbeebc":5862,"ebccff":5863,"bccecbc":5864,"ebcbbfc":5865,"efbebbc":5866,"bdfedc":5867,"bfcbcbc":5868,"eeeedd":5869,"ebbcbef":5870,"bbbcded":5871,"efdbb":5872,"fbacc":5873,"bbbeebec":5874,"fcbbef":5875,"fbcded":5876,"bebfa":5877,"fccdec":5878,"dfbccc":5879,"ebbefcc":5880,"becbedd":5881,"bbbccbbbb":5882,"eebcdee":5883,"bbbeded":5884,"efcdcc":5885,"eceebbbb":5886,"fececc":5887,"bbeedbd":5888,"bddebec":5889,"eebebfc":5890,"ebefdd":5891,"bbccedc":5892,"ecccedc":5893,"ebbedbf":5894,"dbfbbd":5895,"bbbdbbec":5896,"ebbfdf":5897,"ddbedd":5898,"ebcbbebc":5899,"dfcbbc":5900,"dfbcec":5901,"ecbcebd":5902,"bebdbebe":5903,"edfdbe":5904,"beccebd":5905,"dcbdec":5906,"ecfdee":5907,"cccbccc":5908,"dbcba":5909,"beccbbbb":5910,"debc</w>":5911,"bbdbebbbb":5912,"eccdedc":5913,"abcec":5914,"becfbf":5915,"beeebeebb":5916,"afebb":5917,"ebbdccc":5918,"efcfec":5919,"bbbbcdd":5920,"eceedee":5921,"bfbcbbbb":5922,"fcffc":5923,"bdcbbcc":5924,"dbeea":5925,"bdbeff":5926,"eecfebb":5927,"bbceedc":5928,"dfdef":5929,"fbdbcc":5930,"dbbebfc":5931,"ebcedcc":5932,"bbedbbf":5933,"bbeebbcc":5934,"bebdbebc":5935,"ecccbec":5936,"bcbcdbc":5937,"edbedbc":5938,"dcfbec":5939,"edfedc":5940,"bbcbbbec":5941,"acdee":5942,"beecff":5943,"efcbfc":5944,"baecc":5945,"eeecbbbb":5946,"bba</w>":5947,"edeebbbb":5948,"ecbebbcc":5949,"ebdeeee":5950,"edbbccc":5951,"bbbebebf":5952,"bfbcfc":5953,"bcbcecc":5954,"dbbcef":5955,"ebbebbbbbb":5956,"bbeedec":5957,"bdfdcc":5958,"bfbebec":5959,"bdbbebbc":5960,"bccfbf":5961,"bdfdec":5962,"eebc</w>":5963,"ebfbbebb":5964,"fecfec":5965,"fbcedc":5966,"beecbbbc":5967,"dbbbbdd":5968,"bdceebd":5969,"bcbddf":5970,"beebbef":5971,"fdceec":5972,"dbeeebc":5973,"bbeebbbf":5974,"aebcc":5975,"bbbebccc":5976,"edecebc":5977,"dcddcc":5978,"dcbbbcc":5979,"bfbbeec":5980,"fecebe":5981,"dbcddc":5982,"ebdcebc":5983,"bdeeccc":5984,"befefc":5985,"ecbeebbc":5986,"ebecff":5987,"bdecbec":5988,"bceddee":5989,"eceebdc":5990,"debbebd":5991,"bbcbcebb":5992,"bfdecc":5993,"bfcebbc":5994,"efdbcc":5995,"bcfba":5996,"dbcefc":5997,"bebdbbf":5998,"eeceeee":5999,"dcbcbbc":6000,"befbbcc":6001,"bbefebe":6002,"bffbcc":6003,"ebbbbebbc":6004,"fbeefc":6005,"bbdeedc":6006,"eebfa":6007,"dbbcebe":6008,"bcbedbf":6009,"bcecbcc":6010,"edebccc":6011,"bebedec":6012,"bbceeed":6013,"bedbdcc":6014,"ebdcfc":6015,"bbdeeebb":6016,"dbdba":6017,"dfecbc":6018,"fbf</w>":6019,"dbebcbd":6020,"edcbeee":6021,"dccfcc":6022,"bbbefec":6023,"eebd</w>":6024,"eddea":6025,"bbceeebb":6026,"bbeacc":6027,"eecbbdd":6028,"eccdeec":6029,"bbbdebf":6030,"edecfc":6031,"dbbdddd":6032,"bcecded":6033,"dbcdebb":6034,"eeebebeee":6035,"bebebbbbc":6036,"feddee":6037,"dcfeec":6038,"ebdfbf":6039,"beebebbbb":6040,"bbeddec":6041,"eddfcc":6042,"dbbbdbe":6043,"bbbdba":6044,"ddbced":6045,"bbcbcbbc":6046,"bffbec":6047,"ffeeee":6048,"eebedbd":6049,"ebccdee":6050,"bddfcc":6051,"bbebebbf":6052,"dbcfbd":6053,"eccccccc":6054,"fde</w>":6055,"dbbbdbbc":6056,"dbcbbcc":6057,"bbebebbbc":6058,"ddbebf":6059,"bbeebcbc":6060,"ebbcbbebb":6061,"bebcbbec":6062,"bcbd</w>":6063,"bceebbec":6064,"dbbc</w>":6065,"fbcbcbc":6066,"bceebbd":6067,"eebedee":6068,"bcdeccc":6069,"dbbecf":6070,"cccebd":6071,"dce</w>":6072,"ebcdbbbb":6073,"dfeccc":6074,"dbcbebd":6075,"bbbdded":6076,"fcbbdd":6077,"bcfbbcc":6078,"ecceeee":6079,"fdedcc":6080,"ebebea":6081,"bbbbebbbbbb":6082,"bebedbd":6083,"bdcbbed":6084,"ebccbbd":6085,"fbddee":6086,"adbbc":6087,"cccbbf":6088,"dceddd":6089,"bfb</w>":6090,"dbeefc":6091,"bfbeebc":6092,"dbbecee":6093,"bfcfee":6094,"eebbebdc":6095,"becfebb":6096,"becdecc":6097,"bebebeec":6098,"dbbebbebb":6099,"ecbcdec":6100,"bceebbbc":6101,"bbbbbdbbbb":6102,"fccbbf":6103,"bbbefbe":6104,"dfebec":6105,"ffbbbd":6106,"dedddc":6107,"bbdcfc":6108,"bbcdeec":6109,"bbbbcbbbbbbbb":6110,"bebcebf":6111,"beebac":6112,"edeebec":6113,"bdeedbe":6114,"bbbeeebc":6115,"fefa":6116,"ebbbedf":6117,"debceec":6118,"dbcbbed":6119,"bcbe</w>":6120,"bccdebe":6121,"dbceebc":6122,"bbdebdc":6123,"bcdbbdd":6124,"bbbedfc":6125,"dbbecdc":6126,"ebaa":6127,"dfbbbf":6128,"bcfbbbd":6129,"eefbbec":6130,"bbeeedc":6131,"ebbdbbee":6132,"fffbe":6133,"bdfbfc":6134,"ecceeed":6135,"dfbcbd":6136,"bfbbebd":6137,"feddec":6138,"bceedec":6139,"bcecebc":6140,"bebebebd":6141,"dffdd":6142,"dccebf":6143,"bcbeded":6144,"dccddc":6145,"ebbcded":6146,"bbfbebf":6147,"bceceec":6148,"dbcdbf":6149,"bbcbebbbb":6150,"edfccc":6151,"bdbeedc":6152,"baeec":6153,"bddbbbd":6154,"beed</w>":6155,"fbfbbbb":6156,"feebbbc":6157,"eabba":6158,"bbdceec":6159,"bbdbbebc":6160,"becfdc":6161,"dddccc":6162,"bdcebcc":6163,"ebbebecc":6164,"dfbbed":6165,"bcdcccc":6166,"eabbee":6167,"fedff":6168,"bbcebdc":6169,"bcbbac":6170,"defef":6171,"feddbe":6172,"bbdca":6173,"bbcbbbcc":6174,"eefbbebb":6175,"bbefef":6176,"ececfc":6177,"ddbeebb":6178,"beee</w>":6179,"ecbedbf":6180,"eccffc":6181,"bfbcebc":6182,"ebbdebf":6183,"ecbebbec":6184,"dddebd":6185,"bebcbbbd":6186,"beeda":6187,"eeccebd":6188,"beec</w>":6189,"bceebbee":6190,"bfbcebe":6191,"becbbebe":6192,"deebecc":6193,"acbcc":6194,"bdbbbfc":6195,"fccfcc":6196,"bbdcebc":6197,"ebbeddd":6198,"dbbebbbbbb":6199,"bcfded":6200,"acca":6201,"bddbecc":6202,"beecebd":6203,"bbbfccc":6204,"efcdbd":6205,"fdbfcc":6206,"beeebbebe":6207,"bfecebb":6208,"bbbcdebb":6209,"ebbfdbe":6210,"bdbcbbd":6211,"edeeecc":6212,"dbbdbbd":6213,"feacc":6214,"ebbecbbbb":6215,"bbecdbd":6216,"eebdbbbb":6217,"eccdbbc":6218,"bbbedbbbb":6219,"ebefbbc":6220,"fecbfc":6221,"ebccdec":6222,"bbfbecc":6223,"ddcedc":6224,"ebdbeebb":6225,"eececbd":6226,"ecbbebcc":6227,"bebebecc":6228,"ebfbecc":6229,"fdcff":6230,"bddea":6231,"bdceeec":6232,"ebcfef":6233,"ebcbcbf":6234,"bbbcdcc":6235,"fcbedd":6236,"debeccc":6237,"bfecee":6238,"bebcfbc":6239,"efcfbc":6240,"ecbbbecc":6241,"bbbbcef":6242,"eeccdf":6243,"bedceec":6244,"badbd":6245,"bebdbcc":6246,"bbcbcf":6247,"bcbdef":6248,"beecbbf":6249,"bdbebbbd":6250,"beecbbbe":6251,"ebccbbbe":6252,"bceb</w>":6253,"bebdebd":6254,"befbbbf":6255,"edcbbcc":6256,"edebbebb":6257,"bbdbced":6258,"ebcbbbec":6259,"beeebeebe":6260,"febbebe":6261,"becbbdd":6262,"bcdbbebb":6263,"ebccbbf":6264,"bbbbeeebb":6265,"ebfdbf":6266,"debcef":6267,"fcfbbc":6268,"deebbebb":6269,"bbedefc":6270,"ddecbd":6271,"ebbecebc":6272,"ebbeebbf":6273,"bdcdef":6274,"bcbcebd":6275,"bcecebe":6276,"dbbe</w>":6277,"ddbdcc":6278,"becda":6279,"eefbbcc":6280,"ebcedbd":6281,"bbbbca":6282,"ebbe</w>":6283,"fccfbc":6284,"eedbbdd":6285,"ebcfbbc":6286,"ebbbebbebb":6287,"deebbed":6288,"bfeba":6289,"ecbcbbd":6290,"bcecef":6291,"bfeebbc":6292,"bbecbef":6293,"bebcfec":6294,"fccebd":6295,"bfeced":6296,"eddebec":6297,"dceeef":6298,"bfcbbee":6299,"bcccecc":6300,"bfcbebe":6301,"becbebbc":6302,"febbef":6303,"fefef":6304,"eebdecc":6305,"bbecebbc":6306,"eddba":6307,"ffdef":6308,"bbbcfec":6309,"edcdebe":6310,"ebcfebc":6311,"fbbeccc":6312,"decdebb":6313,"bbdbbfc":6314,"fedfc":6315,"eeebbeeee":6316,"ddeeed":6317,"ebccdbc":6318,"edbebbf":6319,"ebefa":6320,"bdbceec":6321,"dfeecc":6322,"eedbbbf":6323,"ecccef":6324,"bbbbbbfc":6325,"abebf":6326,"bbbdbdbd":6327,"baebd":6328,"ebbbbba":6329,"decbcbc":6330,"bdbcccc":6331,"dbfebd":6332,"bcccef":6333,"bbefbbf":6334,"dccbbbe":6335,"bebbbbbbbbbbbb":6336,"bbcfbbc":6337,"bbdbebbc":6338,"edecbec":6339,"fefff":6340,"edcbeed":6341,"ebbbac":6342,"ebedbcc":6343,"dbedbbc":6344,"ebebebbbe":6345,"fccdee":6346,"bdfbbbc":6347,"dbebbbf":6348,"becac":6349,"fdca":6350,"ebbeefc":6351,"dfbeec":6352,"ebbecbec":6353,"bfbea":6354,"bebebebf":6355,"bcbebbed":6356,"dbbeba":6357,"edcdeec":6358,"fbcbbee":6359,"dedbef":6360,"becbced":6361,"bbdbedd":6362,"dbebcec":6363,"eefbbbf":6364,"ebecdc":6365,"bccdbbc":6366,"feedee":6367,"fbeeecc":6368,"fcdedc":6369,"bcfddc":6370,"bbdbba":6371,"ebeeedc":6372,"ecbebbbd":6373,"bbecbbbd":6374,"fbcdbd":6375,"fdebfc":6376,"fcbbebe":6377,"ebcdbcc":6378,"bdbedbd":6379,"bbceebe":6380,"bffbbf":6381,"bdbca":6382,"eebcbebc":6383,"ebbcbbcc":6384,"decddc":6385,"eefdbf":6386,"bfcbbbd":6387,"ebffbf":6388,"bcbbbbbbbc":6389,"bccceec":6390,"eefbbbd":6391,"bbbedbbc":6392,"fbcefc":6393,"bececcc":6394,"fecbebc":6395,"fcecbd":6396,"eedbbebb":6397,"dccbebe":6398,"beccff":6399,"eafee":6400,"dcecebb":6401,"bcceccc":6402,"ebddebd":6403,"bbbebbdc":6404,"bbbfbbbf":6405,"bbebbccc":6406,"bcfbecc":6407,"bfeedd":6408,"becbbebc":6409,"ecfbebc":6410,"bebdccc":6411,"eebdeec":6412,"ebdac":6413,"dbbebbcc":6414,"eccbcee":6415,"ddfef":6416,"bcbedebb":6417,"bbcfef":6418,"ebebcbbc":6419,"edebbbc":6420,"ebbbeff":6421,"bccdfc":6422,"bbebeef":6423,"bbebbeec":6424,"bbefff":6425,"fbdbbf":6426,"bbbebebbc":6427,"eebcebbc":6428,"dbfca":6429,"ecfdbd":6430,"dcdbbf":6431,"decbbee":6432,"ebcbeebe":6433,"bbebea":6434,"ecbbea":6435,"bbecfbc":6436,"bbbeefc":6437,"bbbefebb":6438,"bbdcdbe":6439,"bdcbeed":6440,"ebdca":6441,"eebebecc":6442,"ecececc":6443,"bfbdee":6444,"bbbbddc":6445,"bfcfec":6446,"edeeccc":6447,"bbdcdf":6448,"ebbecebe":6449,"dbbbdec":6450,"dcfdf":6451,"bcbcbebe":6452,"ebbbca":6453,"bddebcc":6454,"ebfded":6455,"becbbef":6456,"ecbcdbc":6457,"fccdbe":6458,"ebbcbeee":6459,"bbccbebe":6460,"ebedbbd":6461,"bceddf":6462,"dafc":6463,"bfcbbef":6464,"efbded":6465,"ecbebecc":6466,"ebfbebd":6467,"ebeecbe":6468,"feddbc":6469,"edccccc":6470,"ebfbebf":6471,"defff":6472,"eadbc":6473,"bccbebf":6474,"dbddebb":6475,"edfbbf":6476,"fbbcccc":6477,"debcbbc":6478,"bbbbcdbe":6479,"dcecef":6480,"fcbcdc":6481,"bbdfbbc":6482,"bcdbbed":6483,"bbbbdebe":6484,"dceeebe":6485,"becbcee":6486,"bbedff":6487,"edbcccc":6488,"ebdceec":6489,"dbfdbc":6490,"eeebfcc":6491,"bcbdfc":6492,"bbecbfc":6493,"bbbfbbee":6494,"bbbbdbbd":6495,"dbfeec":6496,"bcdb</w>":6497,"bebedcc":6498,"deebcec":6499,"eccbbebb":6500,"ebdecbd":6501,"fccbdc":6502,"efcbef":6503,"bbdda":6504,"efdbbbb":6505,"eebebbef":6506,"beccdec":6507,"bebcbef":6508,"bdbcbcc":6509,"eeccebe":6510,"efdbbd":6511,"dfbbebb":6512,"eccfbe":6513,"bbfebec":6514,"bbfeebc":6515,"bbbbcfc":6516,"eaebc":6517,"eccfbf":6518,"fbcebbc":6519,"bbdbcbe":6520,"bbcbedd":6521,"bbcecbd":6522,"bcdedcc":6523,"ebccbbbc":6524,"bebbbbbbbc":6525,"deecbec":6526,"dedbbbe":6527,"bedcdf":6528,"bbbbbbbbbbbbbbbbbbbb":6529,"ecbcedc":6530,"bebdbbbc":6531,"fecdbd":6532,"ebbbeeec":6533,"ecfefc":6534,"ebcecbe":6535,"bdfbebe":6536,"bfedbf":6537,"dfcdee":6538,"bbddbbd":6539,"bbbbbcec":6540,"dbfbdc":6541,"ffbccc":6542,"eceebec":6543,"efbbbec":6544,"bebddbc":6545,"dbbcfc":6546,"ecfeecc":6547,"bbebebec":6548,"dededc":6549,"edfbdc":6550,"ebbd</w>":6551,"adba":6552,"bfcefc":6553,"bbdcdee":6554,"bbbebbebc":6555,"eedbbed":6556,"dddcdc":6557,"eefbbef":6558,"fffdc":6559,"bfcfcc":6560,"bfcba":6561,"bbcb</w>":6562,"ebddbbd":6563,"edbbebf":6564,"debbdee":6565,"ddecec":6566,"ddcbbf":6567,"bbdbcebb":6568,"fefccc":6569,"ecdbdcc":6570,"bbeddbd":6571,"ebbbeecc":6572,"bbbddec":6573,"bbcda":6574,"dcfbcc":6575,"bbcccccc":6576,"eebdedc":6577,"dcbcebe":6578,"bebffc":6579,"bbdeebe":6580,"debea":6581,"ebebedd":6582,"bcdbbbf":6583,"ebebbbcc":6584,"eebcbebe":6585,"ddbcdc":6586,"bfbdebb":6587,"bbecebf":6588,"bebcbeec":6589,"ebcdbbd":6590,"bbbbbeed":6591,"eccbbbf":6592,"dcceecc":6593,"eebcfbc":6594,"fbebbebe":6595,"ddecdc":6596,"fecebd":6597,"bdbcdf":6598,"bcbddee":6599,"bbbbbcbf":6600,"edecef":6601,"debebec":6602,"bbbbcbcbc":6603,"dbeebec":6604,"eabdc":6605,"ebedeec":6606,"bccbeebb":6607,"fbfdf":6608,"bbcffc":6609,"bbbebbef":6610,"bbbdbef":6611,"dceded":6612,"ebeeba":6613,"fedbdc":6614,"bbecbbebb":6615,"beecbeec":6616,"eedcfc":6617,"dfca":6618,"deefee":6619,"dbbbbdbbbb":6620,"defbf":6621,"bebebeebe":6622,"bbeedcc":6623,"bbbcebec":6624,"eebdccc":6625,"eecdbcc":6626,"bbdcbbd":6627,"bbccbcbc":6628,"dbbcdf":6629,"bfcedc":6630,"bccac":6631,"babef":6632,"fbeded":6633,"beedccc":6634,"eeeddd":6635,"bebdecc":6636,"dbbca":6637,"babeee":6638,"bceedcc":6639,"dbecbbc":6640,"debbdbc":6641,"debbff":6642,"bbebbbeebb":6643,"beefa":6644,"dbfbbbe":6645,"bbebbebf":6646,"bcbbcbbbb":6647,"eaebf":6648,"ebdedcc":6649,"efcfee":6650,"bdeedf":6651,"ebcfebe":6652,"dbbedcc":6653,"ebbbcbbbe":6654,"bebbcbbc":6655,"eebdef":6656,"bcbda":6657,"fecbebe":6658,"ebdbedd":6659,"fbcfcc":6660,"ecbcff":6661,"eedbdcc":6662,"dbecbec":6663,"eeceedd":6664,"eebfef":6665,"fcbbebc":6666,"edcecbd":6667,"bbebbff":6668,"beccbecc":6669,"ecfebbc":6670,"dceebbc":6671,"fbddbc":6672,"bedcef":6673,"dbeac":6674,"bededcc":6675,"bcccbec":6676,"bbfcbbc":6677,"dcbcfc":6678,"edbedee":6679,"bbffdc":6680,"efcbeec":6681,"debbbbbd":6682,"dbdbeee":6683,"bcbdbec":6684,"eededcc":6685,"ecbcbbbe":6686,"eabebe":6687,"dbdbfc":6688,"dcbbeec":6689,"bbbceebc":6690,"dbbcbbd":6691,"ddeedd":6692,"bbbbcbebe":6693,"decfee":6694,"bdbcdbe":6695,"decdef":6696,"ddedbd":6697,"fbebbef":6698,"bebceebc":6699,"fddef":6700,"eedca":6701,"bfebbcc":6702,"ebbcdcc":6703,"bcedbbc":6704,"ececdbe":6705,"befbebf":6706,"bbabba":6707,"ecdbbbd":6708,"bcbeddc":6709,"eefddc":6710,"ebbfebf":6711,"bbfbccc":6712,"eabea":6713,"bedca":6714,"bbdbbbec":6715,"deeefc":6716,"dbceeee":6717,"bdeebcc":6718,"bbbdfbc":6719,"ebdcedc":6720,"bedbfcc":6721,"debbecc":6722,"debbbebe":6723,"bbcbcbbbb":6724,"dbecdf":6725,"beecbdc":6726,"bbbbbbcbbbb":6727,"beccbdc":6728,"dcdbbbe":6729,"acbbbb":6730,"ebfebcc":6731,"bbebbebd":6732,"dcedbf":6733,"bebcbebd":6734,"bbbdbeee":6735,"bdbedec":6736,"bedd</w>":6737,"dedbebe":6738,"dbbcdee":6739,"bbebbebbc":6740,"beceeee":6741,"bcbebccc":6742,"bebcdbd":6743,"ebdcebd":6744,"bbdeeed":6745,"bccdebc":6746,"dbcfed":6747,"acebe":6748,"bceeff":6749,"eeebeef":6750,"eedcdd":6751,"bebbcccc":6752,"fbeddc":6753,"bbbdbbbbc":6754,"bcbffc":6755,"eebddbe":6756,"ebdcef":6757,"dceefc":6758,"ecbdebc":6759,"beebea":6760,"bdbcebc":6761,"dbbbdbbd":6762,"bafee":6763,"dbbbfcc":6764,"bceebecbbec":6765,"dccbbbc":6766,"beebebebe":6767,"bbebcbbc":6768,"dcfebd":6769,"eecbced":6770,"ebeecdc":6771,"bbeebbed":6772,"bbdddbe":6773,"fbdebd":6774,"edecbcc":6775,"bbbefcc":6776,"dfcef":6777,"bcbcbdc":6778,"edbcdf":6779,"edbcecc":6780,"ebbc</w>":6781,"fbcfee":6782,"ebdcbec":6783,"bbebebcc":6784,"bbbbcebc":6785,"bbbdbbed":6786,"eddeccc":6787,"eabbd":6788,"dbbcebd":6789,"bbbebcebb":6790,"fbdbdc":6791,"bbbebcbd":6792,"bebdff":6793,"edebbbf":6794,"dbdfee":6795,"bcfbbbf":6796,"bbffebb":6797,"fcfdd":6798,"bbbbcbf":6799,"eabef":6800,"bebddec":6801,"ecbcbdc":6802,"bbfddc":6803,"bdccccc":6804,"bbbebbbec":6805,"dbecdd":6806,"ebbcefc":6807,"acff":6808,"bddbbdd":6809,"dabba":6810,"edbcebd":6811,"eccbced":6812,"dbbbdf":6813,"bbebbbeee":6814,"edcbbed":6815,"dccefc":6816,"ebbbeebf":6817,"bafbc":6818,"ebffdc":6819,"bcfbccc":6820,"debcdd":6821,"eecbebbc":6822,"debebcc":6823,"dcbebec":6824,"edeedbe":6825,"eabeee":6826,"dbdbcbc":6827,"beebbbbee":6828,"becffc":6829,"eeebebebe":6830,"eccbebf":6831,"ecfbecc":6832,"befbeec":6833,"bfebbebb":6834,"bceca":6835,"ebbbbbfc":6836,"dcbbebd":6837,"bfbcdd":6838,"bcbbeecc":6839,"bfbbecc":6840,"cccfcc":6841,"ecbdbbc":6842,"bfdbbbe":6843,"bbbcbcbd":6844,"dcebbcc":6845,"dccbfc":6846,"ebcbcdd":6847,"bfbddc":6848,"bfbdec":6849,"eebebccc":6850,"ebbebccc":6851,"eecffc":6852,"decfcc":6853,"bffdbe":6854,"bebbeba":6855,"eabca":6856,"bbecbcbc":6857,"dbbcdbe":6858,"dfbcee":6859,"bbccbbee":6860,"ebecbebe":6861,"dbbcbcc":6862,"bbbbeebd":6863,"bbbbecbc":6864,"bfbcbec":6865,"fcdebd":6866,"ebbbdef":6867,"fcecec":6868,"eeebbef":6869,"fbdbbd":6870,"eebcded":6871,"ddbbebe":6872,"fbddec":6873,"acbbf":6874,"beeddbe":6875,"fbfbbf":6876,"ddbbef":6877,"edfdbc":6878,"beccfec":6879,"dfdfc":6880,"fcdbcc":6881,"dcbdef":6882,"fbcbbec":6883,"bdfefc":6884,"edbedcc":6885,"eeecdec":6886,"befddc":6887,"bbdcbcc":6888,"eeebbbbbe":6889,"bbedebd":6890,"bbbdbebd":6891,"eeecdbe":6892,"bbedbebe":6893,"eefbecc":6894,"ebbecef":6895,"fffef":6896,"dbddbf":6897,"efbcef":6898,"fccdbc":6899,"ddbddc":6900,"ebbcfee":6901,"eeccbdc":6902,"ecbeded":6903,"bcfebec":6904,"ebbcbebd":6905,"defbbf":6906,"acebc":6907,"bfbebbbe":6908,"bbceccc":6909,"bedebfc":6910,"eebbeccc":6911,"beeeebd":6912,"bceeebd":6913,"ffbbbf":6914,"beebbbbf":6915,"bebcdebb":6916,"cccbbbc":6917,"cccbbd":6918,"eedcbec":6919,"bbccebf":6920,"fdc</w>":6921,"dbbbb</w>":6922,"deebccc":6923,"decceec":6924,"eeeda":6925,"eccbcdc":6926,"bccbbef":6927,"bbbdbbdd":6928,"eefbbebe":6929,"fbcdcc":6930,"ebbfedc":6931,"deebcbd":6932,"bbedbbbc":6933,"dcbebbbb":6934,"dbdbbec":6935,"bbccdec":6936,"fecbeec":6937,"ebeebbebb":6938,"eeecef":6939,"bbebbdf":6940,"bfbbbbbbbb":6941,"bbeebeec":6942,"eceeddc":6943,"debefc":6944,"befded":6945,"dbbcbbbc":6946,"ebccebf":6947,"fecbbbc":6948,"eeecdbc":6949,"dcbdebb":6950,"bbbeddc":6951,"eeebbbbc":6952,"bcfea":6953,"fccbbbb":6954,"edcbcbd":6955,"bbebbbbbf":6956,"fcceecc":6957,"bdecbbc":6958,"eedbbdc":6959,"dfcdbe":6960,"efeba":6961,"ecbcbbbc":6962,"fccefc":6963,"afef":6964,"fccbfc":6965,"bcecbbbb":6966,"eccdbec":6967,"ebbcdebb":6968,"ebbdebbc":6969,"edeedf":6970,"ebccfbc":6971,"dbbceec":6972,"bbdfdd":6973,"beccdbe":6974,"bdbeebf":6975,"bdbcbbbc":6976,"dfda":6977,"dcbeecc":6978,"dfeebc":6979,"eeecbdc":6980,"bcbcdec":6981,"ececdec":6982,"bceebebc":6983,"bececbd":6984,"dccfee":6985,"eceedbd":6986,"bbbddebb":6987,"ecdbbbbc":6988,"defebc":6989,"dbbcebc":6990,"bbccdbd":6991,"edebbbd":6992,"bccca":6993,"beecbebe":6994,"ebbeded":6995,"ebccbebe":6996,"edcedcc":6997,"bedcbbc":6998,"fcbdbd":6999,"debddd":7000,"ececdee":7001,"bbdbddd":7002,"deecdd":7003,"ebbcfec":7004,"fcbebbc":7005,"bdbcdee":7006,"fccded":7007,"edfbbbe":7008,"cccded":7009,"bfcdbf":7010,"bdcbcbd":7011,"bfbdf":7012,"bccbbdd":7013,"dbcbcbd":7014,"dccfed":7015,"bcccebc":7016,"ebdbbebe":7017,"ebecfbc":7018,"eefded":7019,"bcceeed":7020,"beebebbbe":7021,"fcbefc":7022,"bebbbebbbb":7023,"bebfef":7024,"cccdbd":7025,"bbcbba":7026,"edbddd":7027,"eccbbdd":7028,"bbccfbc":7029,"baac":7030,"bfbebcc":7031,"bbfeeee":7032,"bccfebb":7033,"becdedc":7034,"ebecbebc":7035,"ebbceebc":7036,"babfc":7037,"feeebd":7038,"bbcdbbd":7039,"beecbfc":7040,"fbfdd":7041,"ecbe</w>":7042,"eabbbc":7043,"bbfbeebb":7044,"eeccdbc":7045,"decefc":7046,"beececc":7047,"bbfbcbd":7048,"dbefbe":7049,"bbbbcbbebb":7050,"bdbddbd":7051,"fecbbbe":7052,"bdeeecc":7053,"bcbebbbf":7054,"bbbdbfc":7055,"eecbbebe":7056,"fccfed":7057,"ecccebd":7058,"abeebb":7059,"ecccebe":7060,"bbccbebc":7061,"bbccbfc":7062,"bcbeefc":7063,"eeecfc":7064,"bcbbcccc":7065,"bebddbd":7066,"edeac":7067,"debebbbe":7068,"eeecbbbc":7069,"eebcbbee":7070,"ebfdebb":7071,"edbcbec":7072,"dcebecc":7073,"beeebcbc":7074,"edcffc":7075,"fbcfed":7076,"ebbcbbbf":7077,"bdeeebc":7078,"bcbbcbbc":7079,"bbedbbed":7080,"dbfdbd":7081,"beebeeeee":7082,"eeec</w>":7083,"dedbbbc":7084,"bbdbcbf":7085,"bfecef":7086,"dbecef":7087,"eefbccc":7088,"bedddd":7089,"decbbbd":7090,"eecbdbd":7091,"bcbbb</w>":7092,"bfecbbc":7093,"dcbedbe":7094,"ebdcecc":7095,"bbebbbbec":7096,"abbef":7097,"edceeee":7098,"dccbef":7099,"edeebbd":7100,"edbebbbc":7101,"ebedbb":7102,"dbfda":7103,"ebedecc":7104,"beebebbee":7105,"dfcbec":7106,"debedf":7107,"ebfbeec":7108,"eebddbc":7109,"bedcebc":7110,"beeddee":7111,"ecbdfc":7112,"bbdfef":7113,"eecfbf":7114,"bbef</w>":7115,"fbeebcc":7116,"ecfbef":7117,"abbdc":7118,"bbcbcdc":7119,"bcfeecc":7120,"acdbe":7121,"ebdcdbe":7122,"ebbdcdc":7123,"dbffbc":7124,"decba":7125,"eefefc":7126,"fddbec":7127,"bfecdd":7128,"ecdcecc":7129,"dcbbecc":7130,"bbceebf":7131,"efb</w>":7132,"bebbebfc":7133,"bcbbbbbbbbbbbb":7134,"ebdcdf":7135,"edececc":7136,"beecbbec":7137,"abbebe":7138,"bedcdd":7139,"ebecdbd":7140,"ecbcbebc":7141,"dbfebf":7142,"bbbfdbc":7143,"beebebeee":7144,"bebacc":7145,"dbbcbbbe":7146,"deeeecc":7147,"bdcfdc":7148,"fbdfbc":7149,"dcbedf":7150,"dbefdc":7151,"ebbbbedc":7152,"ebeffc":7153,"ecbebccc":7154,"babebc":7155,"bbbbbcee":7156,"eeeebbbc":7157,"ebbdced":7158,"ebecded":7159,"bbeeea":7160,"dbfbbbc":7161,"bbbfbbbd":7162,"ebcbebbbb":7163,"bcbbbbbcbbbb":7164,"bbeffc":7165,"eebcebf":7166,"eceebbf":7167,"beceedd":7168,"edacc":7169,"debcccc":7170,"bdecdee":7171,"eedb</w>":7172,"eccfecc":7173,"fbbb</w>":7174,"decbeed":7175,"ebbfbbbc":7176,"edcdedc":7177,"bbebbbef":7178,"bbdbbebd":7179,"dcbea":7180,"fbebbed":7181,"bbccbef":7182,"bdbcbbbe":7183,"afdd":7184,"bebdbdc":7185,"eddbbcc":7186,"bdecdf":7187,"dbebeebb":7188,"eeeebeebb":7189,"bbdecbd":7190,"eebeddc":7191,"ecfbebe":7192,"efedcc":7193,"bbccbbbd":7194,"ebedebd":7195,"becceecc":7196,"ebdffc":7197,"eeeebec":7198,"bbbbfbbc":7199,"debcebc":7200,"eebdbcc":7201,"bbbfbfc":7202,"debcfc":7203,"bdfbbee":7204,"efbea":7205,"bcebbbbc":7206,"bfdccc":7207,"fbdecc":7208,"dddbdc":7209,"bbbeebcc":7210,"aceec":7211,"bbbefbf":7212,"bbebebeee":7213,"beccdee":7214,"fecbef":7215,"ecedccc":7216,"bebdedc":7217,"bcbebbbbc":7218,"bedcfc":7219,"bbbcbbdc":7220,"bbbcbeebb":7221,"decdeec":7222,"bdbebbec":7223,"eeeceec":7224,"bbccfee":7225,"bbbdebbc":7226,"eedcdf":7227,"bacba":7228,"ecfbbec":7229,"efdebd":7230,"efbefc":7231,"bbbbbbbbbbebb":7232,"debbbebc":7233,"eccecdd":7234,"debeebc":7235,"ebdbced":7236,"ebeedcc":7237,"bdebdcc":7238,"dbeceec":7239,"fecfbc":7240,"bdcea":7241,"bbfcfc":7242,"eeecebc":7243,"ebbcbeec":7244,"fecbcbc":7245,"efecdc":7246,"ebeecec":7247,"bbefdbe":7248,"bcccbbbb":7249,"bdcbbdc":7250,"dbcbbebb":7251,"debbbbee":7252,"defdee":7253,"dfcbcc":7254,"ebbcebec":7255,"dbfedc":7256,"bceeedc":7257,"bdfbef":7258,"bbddbbbd":7259,"ebbecfc":7260,"fdebbcc":7261,"dcbcccc":7262,"bceedbd":7263,"dedbfc":7264,"bdf</w>":7265,"dbceebd":7266,"bebbbbbbebb":7267,"bcbddbe":7268,"ebbbcdbe":7269,"fccbebe":7270,"ebbfbebe":7271,"eeccdec":7272,"ecbbbccc":7273,"bfbebbd":7274,"bbedbebc":7275,"becdebd":7276,"fffed":7277,"bdbcebd":7278,"bcfbeee":7279,"debbbdc":7280,"ddbcdd":7281,"dceba":7282,"bfdbdc":7283,"babbebb":7284,"defecc":7285,"bbfcdf":7286,"eeeeea":7287,"ddeebe":7288,"beedbbbb":7289,"eeccdbe":7290,"ebcbdcc":7291,"defebe":7292,"edcbedd":7293,"bbbebcec":7294,"beecdbd":7295,"bbdffc":7296,"eecbcdc":7297,"ecfddc":7298,"defbdc":7299,"bbbdecc":7300,"babbbf":7301,"bcdbbdc":7302,"fceeed":7303,"ecbdecc":7304,"efcbcbc":7305,"bbbeeeebb":7306,"ddeebf":7307,"bbedbdc":7308,"bbdeebf":7309,"dbbecbbc":7310,"ebecdcc":7311,"febea":7312,"bcbdebe":7313,"bdbebbcc":7314,"eebdebd":7315,"bffebd":7316,"ebecbbee":7317,"bbbbac":7318,"fdcdee":7319,"ebffebb":7320,"ebceeebb":7321,"bbddebe":7322,"efcedc":7323,"eeeeebeebe":7324,"bbbcbccc":7325,"beeddec":7326,"cccbcbc":7327,"fbfbcc":7328,"dcbcebc":7329,"dcfedc":7330,"edbceec":7331,"bbbdbcbc":7332,"dbbbfbf":7333,"ddfbbc":7334,"bcdbdcc":7335,"beeebebc":7336,"dfbbdc":7337,"efbedd":7338,"fcecdc":7339,"ecbcbebe":7340,"debedbe":7341,"bedefcc":7342,"beccbebc":7343,"fbdbfc":7344,"defdbc":7345,"dcceebc":7346,"edfdee":7347,"bceebebe":7348,"bebfbec":7349,"fbdbebe":7350,"bacea":7351,"bbfcbbbb":7352,"dccbebc":7353,"bebfbbf":7354,"bffecc":7355,"ebffef":7356,"befbeebb":7357,"efcbbbe":7358,"eeedbbc":7359,"edceedd":7360,"bbeefbe":7361,"bebbbdcc":7362,"ebfbeebb":7363,"debbdbd":7364,"dbecdee":7365,"bccfdd":7366,"ebffbe":7367,"ecccdf":7368,"fdcdec":7369,"fedeec":7370,"bbedded":7371,"eeccff":7372,"bbeebbbbc":7373,"befbbef":7374,"eccca":7375,"ecccdee":7376,"dfcebe":7377,"edcfebb":7378,"dbbecdd":7379,"dbbda":7380,"ddeeebb":7381,"dbbcbbf":7382,"eedcecc":7383,"ecbdccc":7384,"bbdd</w>":7385,"bbedbbec":7386,"ecbebbebb":7387,"bceebfc":7388,"ecbdbec":7389,"ecfded":7390,"ebfbccc":7391,"eaecc":7392,"bdcfbe":7393,"efcbebe":7394,"eaeec":7395,"eebfebe":7396,"babda":7397,"bccbced":7398,"fbbcbbc":7399,"bccebdc":7400,"fecbecc":7401,"dbcebec":7402,"bccbbebe":7403,"decbebd":7404,"bcbeebec":7405,"fdcebc":7406,"bcdbbebe":7407,"eebcdbd":7408,"dccbbee":7409,"fbddbd":7410,"deccccc":7411,"fdeba":7412,"bfeddc":7413,"deebebd":7414,"eeeebeef":7415,"eeebac":7416,"becbcebb":7417,"ecfbbcc":7418,"bbdcff":7419,"bbcecec":7420,"ebccbfc":7421,"bbdcebd":7422,"bedebbcc":7423,"fecfed":7424,"ecbcfbc":7425,"bbbcdbbbb":7426,"bbbfbbebb":7427,"bcccccccc":7428,"eeebea":7429,"bcbcbbec":7430,"bdbcdbc":7431,"bbbbbbebd":7432,"bbbcbecc":7433,"bbdfebe":7434,"eebedec":7435,"bbcfdd":7436,"ebebcbbbb":7437,"bbceef":7438,"dcecdee":7439,"eceb</w>":7440,"feeea":7441,"effdf":7442,"eeedccc":7443,"dcfdbe":7444,"eedddd":7445,"bcecdbc":7446,"debbedc":7447,"fcbdcc":7448,"ebbfbdc":7449,"dbedebe":7450,"bcfbbebb":7451,"fcbcbe":7452,"defdcc":7453,"ebcbeef":7454,"beeeebbc":7455,"febbff":7456,"dcbdf":7457,"efcebf":7458,"fefdd":7459,"bbbfebd":7460,"beeeea":7461,"decdbf":7462,"ebecebbc":7463,"beecbecc":7464,"bbdddf":7465,"ecbddf":7466,"deeeebc":7467,"ecbeba":7468,"aeecc":7469,"edecbbbb":7470,"dcdebf":7471,"bceddbe":7472,"bbfbbebe":7473,"efbcbbc":7474,"bbbcfbd":7475,"ebbeedbe":7476,"dbbedbf":7477,"eedceec":7478,"bcbcdbd":7479,"eeed</w>":7480,"dbcbecc":7481,"eeebbbebe":7482,"bbbbcbbee":7483,"bbefdf":7484,"becbbbec":7485,"defbbbb":7486,"debcdee":7487,"bbfdbbc":7488,"eccfebc":7489,"ebcbbbcc":7490,"eceddd":7491,"fedded":7492,"bbcbeebe":7493,"befbbed":7494,"ebfddc":7495,"bfbca":7496,"ecccdcc":7497,"fbdedc":7498,"dbfbfc":7499,"fdefcc":7500,"dcfbbd":7501,"efdecc":7502,"debeebe":7503,"abcbf":7504,"bebfebe":7505,"debebebe":7506,"eebcbfc":7507,"ecdefcc":7508,"dceeebc":7509,"ecdbbdd":7510,"dcecebe":7511,"fecefc":7512,"ebcbefc":7513,"eebdebe":7514,"befbebd":7515,"ebbdbfc":7516,"deeceec":7517,"fefdf":7518,"feedbd":7519,"bebbebbcc":7520,"eeeebbebe":7521,"bbccbbec":7522,"eceeedc":7523,"bdcbbebb":7524,"ffbbef":7525,"ecbcded":7526,"bcdbbef":7527,"feeeec":7528,"bbbfbebc":7529,"bcfac":7530,"befdebb":7531,"fecba":7532,"eccdebd":7533,"dadf":7534,"fbbebfc":7535,"ebecbbec":7536,"beeeeeebe":7537,"eceebbd":7538,"efbbbcc":7539,"bbfebcc":7540,"eebebba":7541,"bdceeee":7542,"dbecdbe":7543,"bbbfebf":7544,"dcecdf":7545,"fecedc":7546,"edebbed":7547,"dbdbbdd":7548,"fbfebe":7549,"bceeebbc":7550,"ab</w>":7551,"becbcbf":7552,"bbbcbbebe":7553,"bbeebebd":7554,"edbedbd":7555,"bbfdef":7556,"efcbecc":7557,"bedeba":7558,"dbfbebe":7559,"bbcbeef":7560,"bbffed":7561,"deedebb":7562,"bdbebfc":7563,"dbbeddd":7564,"aecbc":7565,"fbcba":7566,"bcececc":7567,"edbbbbbbbb":7568,"bbbbcdf":7569,"becbcbe":7570,"bbbbbebbbe":7571,"bbeebbef":7572,"fbbbdcc":7573,"bbbebcbe":7574,"bbbdbbcc":7575,"bfe</w>":7576,"eeeeeeef":7577,"bcbcbccc":7578,"bbcdbcc":7579,"edbeff":7580,"eedbbebe":7581,"ddc</w>":7582,"ebdcccc":7583,"dbebbdc":7584,"eeeddf":7585,"ebbfdbc":7586,"aeea":7587,"ecfbccc":7588,"bbdeef":7589,"bbbbcdbc":7590,"dbbcdbc":7591,"bbffef":7592,"dbbcdbd":7593,"feebebc":7594,"efecbf":7595,"ebcbcbbc":7596,"ebbcba":7597,"becbbfc":7598,"dbbbdebe":7599,"deecdec":7600,"ebbfbbee":7601,"bbdbdcc":7602,"bbbdbbbbbbbb":7603,"fceef":7604,"bfbdef":7605,"ebbcbbed":7606,"ebdbbef":7607,"bdfbebc":7608,"bccecec":7609,"edcbccc":7610,"bbbcefc":7611,"bbeedbf":7612,"ebdfdd":7613,"dcbebcc":7614,"bcfebcc":7615,"bbbfeec":7616,"bbdbcbbbb":7617,"bdbdbbc":7618,"ebefbbbb":7619,"bcbcded":7620,"ebdbcee":7621,"bbebebbebb":7622,"bbfac":7623,"eeccfbc":7624,"ebbdddd":7625,"edcecdc":7626,"ffbecc":7627,"ecbdeec":7628,"bbbbbeebe":7629,"bcecbeec":7630,"fccebf":7631,"ebbfccc":7632,"bffccc":7633,"dbdbeec":7634,"eebcbbec":7635,"dabbc":7636,"fcbcebb":7637,"fdcbbc":7638,"becfbbc":7639,"bcbcbef":7640,"edefdc":7641,"dcbcbec":7642,"bbdcbdc":7643,"ecbbeecc":7644,"fcccccc":7645,"beeebbbd":7646,"ebceef":7647,"beaa":7648,"fbebbbbc":7649,"debca":7650,"eeeebdc":7651,"ddeef":7652,"dbebeed":7653,"efecec":7654,"efecbe":7655,"dbbebbbd":7656,"bbdcdbc":7657,"ebcbba":7658,"bcbcbbbd":7659,"ebebfcc":7660,"efbbeec":7661,"ebebdbc":7662,"bebcbecc":7663,"ebbeebbebb":7664,"ffbbebb":7665,"febbfc":7666,"bbbcdbf":7667,"bccbdbd":7668,"ebdecdc":7669,"feefbc":7670,"becdbbbb":7671,"dbebbebe":7672,"eeebbbeee":7673,"bfbebbf":7674,"dcbcdf":7675,"eeeebbebb":7676,"edbca":7677,"eeee</w>":7678,"edeca":7679,"dedbecc":7680,"edecebe":7681,"ddbcbf":7682,"bfeebbbb":7683,"ebbbedbc":7684,"bbdbeebe":7685,"ebfeebc":7686,"becbeebc":7687,"babbec":7688,"ddbded":7689,"bbbffbc":7690,"fbdbebc":7691,"dcfccc":7692,"bdeedbc":7693,"ecbcdbd":7694,"eebeebcc":7695,"bccbedd":7696,"efcebbc":7697,"bbdecec":7698,"dcbcbbbb":7699,"cccbfc":7700,"dbbcff":7701,"bfefcc":7702,"bbbbdef":7703,"feddcc":7704,"ebbeac":7705,"edbedbb":7706,"ebbbcbbf":7707,"dedbbcdbf":7708,"bbecdebb":7709,"eecdbbd":7710,"ddbcbe":7711,"abfa":7712,"bbcfebe":7713,"bdbcdbd":7714,"eedcebc":7715,"ecfbbee":7716,"febbdf":7717,"ebebefc":7718,"ebeeebbbb":7719,"ecbcdcc":7720,"eccbdcc":7721,"fedebc":7722,"cccbbbe":7723,"feeddc":7724,"dbcdebe":7725,"bfcbbcc":7726,"daba":7727,"bdfebbc":7728,"ecceebf":7729,"efeeed":7730,"ebecbbbd":7731,"dbebced":7732,"bbdbcf":7733,"dedfbc":7734,"eebceebc":7735,"fddeec":7736,"bcbcbbee":7737,"fbfbec":7738,"bbbfbef":7739,"bbedbbbd":7740,"ebecedc":7741,"ecbddee":7742,"bccfef":7743,"beecdebb":7744,"bebebccc":7745,"ecccdec":7746,"bbbbcbbec":7747,"bedcdec":7748,"bccbcbf":7749,"dfcff":7750,"bdeebbf":7751,"bebefcc":7752,"eebeac":7753,"dbcdef":7754,"dcbdbe":7755,"bddb</w>":7756,"ebbdcbd":7757,"dbdbebd":7758,"bceefbc":7759,"bbbfbdc":7760,"effebc":7761,"dedba":7762,"bdbcbbf":7763,"cccfbc":7764,"ebdbebbc":7765,"ecbcbbec":7766,"dbbbbbbf":7767,"eccbdbd":7768,"ddcfbc":7769,"bbdbbbcc":7770,"bbbebeebe":7771,"beceeed":7772,"bbdbcdc":7773,"eebcdcc":7774,"ecfebcc":7775,"eebdbbf":7776,"dfdebe":7777,"ebeecbf":7778,"bcbcfbc":7779,"bbccdcc":7780,"bbbfdee":7781,"bbbbfed":7782,"dbdebbc":7783,"beedeec":7784,"fbbbfcc":7785,"efcba":7786,"ebebbebd":7787,"bbdbbeec":7788,"bfbdbe":7789,"dcecbbc":7790,"ddecbe":7791,"ebecbfc":7792,"fccbebc":7793,"bceebeec":7794,"efeedc":7795,"eeebebbee":7796,"befbbebe":7797,"bbdbeef":7798,"bcfdef":7799,"aeca":7800,"efbebbbb":7801,"bcbeeecc":7802,"ecdbbbf":7803,"ebccbbee":7804,"fecddc":7805,"bbcecbe":7806,"fecfee":7807,"bebdbbee":7808,"eeeeeeebb":7809,"fbdbbbe":7810,"ebecbcbc":7811,"bcbdebc":7812,"bfeea":7813,"bbbbcbebc":7814,"eedbfcc":7815,"ffbeec":7816,"adfc":7817,"dddedc":7818,"dfdbbc":7819,"fbebbdc":7820,"dbbbbbbebb":7821,"dcbfed":7822,"bbedbbee":7823,"ebebcebe":7824,"fecbbec":7825,"dccccccc":7826,"bffeec":7827,"ecbbac":7828,"beeddbc":7829,"eeecdee":7830,"febbbbf":7831,"fbedbbc":7832,"dcfbbbb":7833,"bfbcccc":7834,"ffcccc":7835,"bebdded":7836,"ebddedc":7837,"eadbd":7838,"ecbffc":7839,"feedbf":7840,"bbbbbedc":7841,"bebcba":7842,"bcedbec":7843,"efbdbf":7844,"ebcebfc":7845,"dbefbf":7846,"eececdc":7847,"debbdec":7848,"beebbbbbc":7849,"edcdebd":7850,"deecbbc":7851,"bede</w>":7852,"bbebcbec":7853,"edccecc":7854,"bbdcccc":7855,"beccbbf":7856,"bbddbec":7857,"eeececc":7858,"bdcbedc":7859,"eedd</w>":7860,"bdecccc":7861,"edcdbbc":7862,"edbebbee":7863,"edfebf":7864,"bbdcbbbc":7865,"bfeefc":7866,"edbbebbc":7867,"ddfebe":7868,"eecfef":7869,"ffbbed":7870,"dbbddbd":7871,"bfbac":7872,"efdccc":7873,"bcbcbbcc":7874,"ebbcbbbbc":7875,"ebceced":7876,"eeceeed":7877,"bbefbec":7878,"ebbbedbb":7879,"bebbedcc":7880,"bcceedd":7881,"bbcbbcbbcbbc":7882,"eceebbbe":7883,"ffebcc":7884,"dadbe":7885,"ecfba":7886,"bbbbebbebb":7887,"deeea":7888,"ecfeccc":7889,"bbeeddc":7890,"dbbebbbc":7891,"feebfc":7892,"ebeecebb":7893,"fcbeebc":7894,"dceedf":7895,"dfbced":7896,"eba</w>":7897,"bdbd</w>":7898,"bcbfbbc":7899,"bbecbeee":7900,"dbdfbd":7901,"adebe":7902,"debbebbc":7903,"dbefebb":7904,"bbabbbe":7905,"ecbc</w>":7906,"bdbebbebb":7907,"feebcbc":7908,"fccbbd":7909,"efcefc":7910,"bddbbbbc":7911,"fbcbeec":7912,"dcbebbd":7913,"ebebeebc":7914,"bbecbebd":7915,"dceedbe":7916,"bbebefc":7917,"ececdbc":7918,"bcfbbed":7919,"bbcdebd":7920,"bdceedc":7921,"bbebe</w>":7922,"beebbebc":7923,"ffcdd":7924,"efbcfc":7925,"ecbeebcc":7926,"ebdfebe":7927,"ecbcbfc":7928,"dedebf":7929,"dacea":7930,"ecdbbed":7931,"dcbeeec":7932,"ebdbcdc":7933,"fbdfec":7934,"bebfbbbe":7935,"bdfddc":7936,"beccbbbe":7937,"bceebef":7938,"ebeedbd":7939,"beedfc":7940,"bbbcdbbc":7941,"ebdebbcc":7942,"beebbbec":7943,"bfdebf":7944,"bffbbbe":7945,"dcdbbbc":7946,"dbeebcc":7947,"ebdfbbc":7948,"decbedc":7949,"dbbbba":7950,"bbdcbbbe":7951,"ebeeea":7952,"bebfff":7953,"bfbddd":7954,"becceebc":7955,"dcecbec":7956,"bcecbbf":7957,"bbecfec":7958,"ebebded":7959,"bcceeebb":7960,"bbbecbec":7961,"bdbeba":7962,"edbeebf":7963,"eecceecc":7964,"eebdbdc":7965,"eebdff":7966,"bebcbeee":7967,"bbfcbec":7968,"bcbdeec":7969,"fcceebc":7970,"ebbcfbd":7971,"edebbbbc":7972,"bbebbdee":7973,"bebfbebe":7974,"dbebbbbc":7975,"eeecbbbe":7976,"bfebbbf":7977,"edccfc":7978,"beedebc":7979,"ebbefbf":7980,"dcbeebd":7981,"bdfdbf":7982,"eeeefc":7983,"dfffc":7984,"bebcefc":7985,"bfecbec":7986,"bbebbbdc":7987,"bbccfec":7988,"eadcc":7989,"ecbcbbee":7990,"dbebcee":7991,"bfcdebb":7992,"bcdddd":7993,"bbdddbc":7994,"bdbcff":7995,"bbefbbbe":7996,"bbdfbbbb":7997,"dbeca":7998,"fbcfbd":7999,"deefec":8000,"ebebcef":8001,"bcbcbeec":8002,"bdfbbbd":8003,"effbcc":8004,"fbcdebb":8005,"badcc":8006,"fccdcc":8007,"ebbeefee":8008,"ecceebe":8009,"eeefa":8010,"dbbbebbbb":8011,"bcbcebf":8012,"decbeee":8013,"bebcfee":8014,"ecfdbf":8015,"dabea":8016,"bcfdebb":8017,"eefac":8018,"edceeed":8019,"dbbebecc":8020,"eebddee":8021,"ebceebbc":8022,"dbbbdef":8023,"febbbbbe":8024,"dcebccc":8025,"bdcdfc":8026,"ebebebbee":8027,"dcbceec":8028,"efcdbf":8029,"bbccebbc":8030,"ecceddd":8031,"deddebb":8032,"edecbbd":8033,"fbcbbbd":8034,"bcbcbfc":8035,"bbfbcbf":8036,"bdbbefc":8037,"bcbebbebc":8038,"bebcbbebb":8039,"efedbd":8040,"ebbeeebf":8041,"fbeebec":8042,"bdeebbbe":8043,"ebeb</w>":8044,"ebbbcbbbc":8045,"efcdef":8046,"dbddbbbb":8047,"bcbbebdc":8048,"bbbbceec":8049,"ebbbb</w>":8050,"abdbd":8051,"ebdfebc":8052,"bbdbded":8053,"badec":8054,"bbadd":8055,"bdeedee":8056,"edcdbec":8057,"efbfcc":8058,"ebceddc":8059,"edbcdbe":8060,"debebdc":8061,"ebcbded":8062,"eccdbcc":8063,"bccdeec":8064,"bebebebbbb":8065,"ebfbcbd":8066,"bdeeeec":8067,"bedcdee":8068,"bfbcdf":8069,"bebdbbbd":8070,"bbebbbebbbb":8071,"dedebbc":8072,"ebccdbd":8073,"eceebbbc":8074,"bfbcbbf":8075,"bcccdee":8076,"bdffcc":8077,"ebccfec":8078,"bebcbbcc":8079,"ffdebb":8080,"ebfac":8081,"ecbeac":8082,"bbbbcdee":8083,"bdbcbdc":8084,"ebefebc":8085,"beebeef":8086,"ffebec":8087,"fceedd":8088,"bbefbbee":8089,"fbdbbbc":8090,"ebbbebbbd":8091,"ebdfef":8092,"decbbed":8093,"abcee":8094,"edbcdbc":8095,"ebbddcc":8096,"ffbcbd":8097,"bbaba":8098,"dcbcdee":8099,"ebfbbed":8100,"fcebfc":8101,"decbbcc":8102,"bbecfee":8103,"bebf</w>":8104,"bbcbebec":8105,"bccdbec":8106,"edbbbfc":8107,"dedbbee":8108,"bbdedbd":8109,"bbbdfee":8110,"ececbbbb":8111,"bbbdddc":8112,"ebeeeed":8113,"edcbbdc":8114,"bebebbed":8115,"bfcbecc":8116,"debeef":8117,"fef</w>":8118,"efcdebb":8119,"debebbf":8120,"beeebbbf":8121,"ebcecdd":8122,"bbddef":8123,"bbfca":8124,"edecdf":8125,"bccbcbe":8126,"bbecbecc":8127,"edebbbbbb":8128,"eebebbbbc":8129,"bcecbcbc":8130,"ebddbcc":8131,"eeecbbf":8132,"bbecbbcc":8133,"debcbbbb":8134,"fcbded":8135,"ddfa":8136,"ebcfa":8137,"ececbdc":8138,"bdeceec":8139,"fedbbbb":8140,"bfcbebd":8141,"dfbebf":8142,"dde</w>":8143,"bfbbebf":8144,"ebdcdee":8145,"bbecdcc":8146,"debcdec":8147,"eceebbee":8148,"becfef":8149,"febbeec":8150,"cccddc":8151,"bbdfebc":8152,"ebdedbd":8153,"becbdbd":8154,"beebebbc":8155,"bbdbdbbbb":8156,"beeedcc":8157,"ebcbebec":8158,"ebdeedd":8159,"dbbcbebe":8160,"bdfba":8161,"bbebbdbc":8162,"bbbdedc":8163,"efbfbeee":8164,"bedc</w>":8165,"bbdbcbbc":8166,"ecbda":8167,"deddef":8168,"ececeec":8169,"ebdbdcc":8170,"ebccdcc":8171,"ddbcebb":8172,"bbecedc":8173,"dbbeddc":8174,"bfecdf":8175,"ebebbeec":8176,"ebfebec":8177,"fffdd":8178,"beeeeec":8179,"bcbccccc":8180,"dbdbbed":8181,"ebebcebc":8182,"dbbeded":8183,"ddeced":8184,"beccdbc":8185,"bdeebdc":8186,"deddbf":8187,"bbbddcc":8188,"bbdeccc":8189,"eccbbebe":8190,"bdbeebbc":8191,"febbccc":8192,"eceeef":8193,"edeedbc":8194,"bcceebf":8195,"dcecfc":8196,"bbbebbdd":8197,"bbbebcee":8198,"edecccc":8199,"bfcebec":8200,"dabbbb":8201,"bbecba":8202,"befbccc":8203,"beeedee":8204,"ecceced":8205,"bbdecbe":8206,"bfbceec":8207,"eefeecc":8208,"ebbceebd":8209,"deceecc":8210,"ebbecbcc":8211,"dceea":8212,"decbcec":8213,"eeebefee":8214,"dbceecc":8215,"dbeeecc":8216,"ebccefc":8217,"ecbdedc":8218,"ebebebec":8219,"acccc":8220,"eceeeec":8221,"bfdbbbc":8222,"ebffed":8223,"ebeeebeee":8224,"fcbfcc":8225,"edbcbcc":8226,"fcfebc":8227,"ebcecbf":8228,"bfbbccc":8229,"ebdeebf":8230,"ebccbebc":8231,"befeebc":8232,"bbbdbbbf":8233,"eeebbbbf":8234,"edbcdee":8235,"bbdcdbd":8236,"ebdb</w>":8237,"ebbeeccc":8238,"ebbcbecc":8239,"fcdbbd":8240,"ecfac":8241,"ebdeebe":8242,"dffebb":8243,"debcdbe":8244,"bbeedebb":8245,"edcbcec":8246,"beeebbcc":8247,"eeecff":8248,"fbedef":8249,"efeea":8250,"bdbedcc":8251,"bcbcdcc":8252,"abeed":8253,"efcfed":8254,"bfceebc":8255,"bfcbeed":8256,"bdcfbf":8257,"ebbbcccc":8258,"beeefbc":8259,"ebbecbbd":8260,"becdbcc":8261,"babbcc":8262,"ebdbcebb":8263,"efebfc":8264,"decfed":8265,"fbbeba":8266,"bfdedc":8267,"bbefccc":8268,"bbfecbc":8269,"ebbcdbf":8270,"adbbbb":8271,"bccbbbcc":8272,"bdfded":8273,"dcecebc":8274,"ebcbcfc":8275,"ebbeeff":8276,"beccbebe":8277,"bcbbbbbbbe":8278,"baedc":8279,"fbbedcc":8280,"fdcdbe":8281,"eeeeecc":8282,"dcdefc":8283,"ebcceecc":8284,"bbddbdc":8285,"bbabbbc":8286,"bbfbcec":8287,"bcccdf":8288,"ebcfecc":8289,"fcbeef":8290,"eeebebbbe":8291,"ebcdbdc":8292,"bcbdccc":8293,"ececa":8294,"cccccccccccc":8295,"dbffcc":8296,"beeebbec":8297,"bdeebbbc":8298,"fbceebc":8299,"bfcfbd":8300,"decebec":8301,"bedcecc":8302,"deeca":8303,"ebeeebbee":8304,"dbcbeed":8305,"daccc":8306,"effbbbb":8307,"ebbcfcc":8308,"bcceebe":8309,"edcceec":8310,"bebdbebd":8311,"debddf":8312,"edfbbbc":8313,"bdbcbebe":8314,"befebec":8315,"ebfdef":8316,"dedbbbd":8317,"bdbddbe":8318,"eefdef":8319,"befbeef":8320,"bebceecc":8321,"bbebcbbbe":8322,"bebbbbbebbbb":8323,"beddbec":8324,"beeebeef":8325,"bdcceec":8326,"bccdecc":8327,"feedec":8328,"ddcfec":8329,"bfbdbbc":8330,"bbffdd":8331,"efbeebc":8332,"bccbcdc":8333,"bcccebe":8334,"fceebf":8335,"bcbeea":8336,"beeedbd":8337,"edbedec":8338,"fdcfec":8339,"babcbc":8340,"debebbbc":8341,"dbfbeec":8342,"ecccbdc":8343,"ececdcc":8344,"bcbdff":8345,"bcee</w>":8346,"deedef":8347,"bbeebeebe":8348,"bceeebf":8349,"eccecbe":8350,"dbbdbbbd":8351,"bbddeec":8352,"ebccded":8353,"debcebe":8354,"bbeebecc":8355,"efbdec":8356,"eccbbbbc":8357,"efcbbec":8358,"efdbdc":8359,"dcbfdc":8360,"fbeecbc":8361,"deceebc":8362,"bbbcfcc":8363,"deeac":8364,"ffcff":8365,"ebdcff":8366,"bcfdfc":8367,"dbbebbbf":8368,"bebedebb":8369,"bbfbbdc":8370,"eedcbbc":8371,"fbeac":8372,"fbbcbbbb":8373,"befbecc":8374,"eedda":8375,"dceebec":8376,"ebfeebf":8377,"dbeeebd":8378,"eddedcc":8379,"bcecff":8380,"ecec</w>":8381,"fdda":8382,"dbeecbc":8383,"dcfbbf":8384,"bccdbcc":8385,"ebfbbebe":8386,"dbcdbbc":8387,"eaeeee":8388,"bedcebe":8389,"ebbfbef":8390,"bfcdef":8391,"bbbcbeed":8392,"dbecebc":8393,"edf</w>":8394,"bbbbbced":8395,"eedcedc":8396,"bdbcbbbd":8397,"dedfec":8398,"bececec":8399,"eefbbed":8400,"bcecbebc":8401,"eceeebd":8402,"dffef":8403,"beecfec":8404,"eebdfbc":8405,"eebebbed":8406,"bbbccccc":8407,"deecdee":8408,"edbb</w>":8409,"bcccdcc":8410,"becbeebe":8411,"bebbbebbbe":8412,"bbbfdbd":8413,"bcecbbd":8414,"becbcdc":8415,"bbbfba":8416,"decebcc":8417,"efceecc":8418,"dcbfbf":8419,"ebcbeebc":8420,"bdbeded":8421,"bbbbcbbcc":8422,"bdcdbbc":8423,"dbbecef":8424,"ebcbfcc":8425,"bbecbbed":8426,"bceebcbc":8427,"ffdbbc":8428,"ecdbbdc":8429,"befdef":8430,"bbebd</w>":8431,"decdebc":8432,"bccbbfc":8433,"bfbedf":8434,"ebebdbf":8435,"edbdbbc":8436,"dcbdbbc":8437,"dcbbbdc":8438,"ebdeeed":8439,"dbfbbee":8440,"bbbcbebf":8441,"ebfbbef":8442,"dccfbd":8443,"ecfea":8444,"eccbeebb":8445,"ebbbeccc":8446,"bdcbbdd":8447,"ddfebc":8448,"ecee</w>":8449,"ebfbbbbc":8450,"dcdbbee":8451,"decfbd":8452,"fefbbc":8453,"bbbbeebbbb":8454,"eebcbbbd":8455,"dbbbbdbe":8456,"ecccdbe":8457,"efdbbf":8458,"bbdcbbf":8459,"abbdd":8460,"bbdbefc":8461,"dbdfcc":8462,"beebbbeee":8463,"eebeebec":8464,"dfceec":8465,"eefdebb":8466,"bbebbba":8467,"bbecefc":8468,"ddcbbbe":8469,"bdecfc":8470,"fbcdbf":8471,"bcbcbcbd":8472,"bbdbdbf":8473,"febbdd":8474,"efbdebb":8475,"eeeedbe":8476,"bfbbbdc":8477,"bdcdebe":8478,"bcdcdee":8479,"edcac":8480,"dbdfec":8481,"dceeecc":8482,"ebbcebcc":8483,"ecdbbebb":8484,"eebeefc":8485,"dcbcbcc":8486,"bdcdeec":8487,"beecdcc":8488,"bbfeebd":8489,"ebdcbcc":8490,"affc":8491,"eebceecc":8492,"bbdfa":8493,"ebbbebbec":8494,"ecccdbc":8495,"dcbbccc":8496,"eeebbbbee":8497,"efbcdd":8498,"fdcbcc":8499,"efbcbec":8500,"bcdbbfc":8501,"bbebeccc":8502,"feffc":8503,"bbbcbbdd":8504,"efbbebd":8505,"ebecbef":8506,"abced":8507,"ebebddc":8508,"ecfbbbd":8509,"badbf":8510,"dbbecebe":8511,"ddeddc":8512,"bbbedebe":8513,"eaebd":8514,"ebeebfc":8515,"edbbdcc":8516,"ebebcdd":8517,"bfecfc":8518,"ecbedebb":8519,"bcbcfee":8520,"bbceedd":8521,"eebcfec":8522,"becbebbbb":8523,"dbcbbbf":8524,"bdfbbec":8525,"bdcbbbf":8526,"bbedbfc":8527,"feddbd":8528,"eecbcbf":8529,"dbebedc":8530,"ebdcbbbb":8531,"ffbbdc":8532,"ebecfec":8533,"bbefbebe":8534,"eebeeecc":8535,"edcfdd":8536,"ebccebcc":8537,"edeebdc":8538,"eeccdee":8539,"eecfa":8540,"bdbbebec":8541,"ddbbfc":8542,"bbefbcc":8543,"bceeddc":8544,"ddbeef":8545,"bbebbbbebe":8546,"ebfecbc":8547,"bebfccc":8548,"eecdbdc":8549,"bbbcbebbbb":8550,"ecebbbbbb":8551,"ebeebbebe":8552,"bcbdbcc":8553,"edebbdc":8554,"ebbdba":8555,"ddbbebc":8556,"fbedfc":8557,"ccccccccccc":8558,"fbbbbbbc":8559,"ecedbbc":8560,"eecedcc":8561,"deebced":8562,"bdbddf":8563,"ecccff":8564,"eedbbfc":8565,"beecba":8566,"bdbcecc":8567,"fdcecc":8568,"edeeeec":8569,"ebfbcec":8570,"befac":8571,"eedbba":8572,"debcff":8573,"dbfdcc":8574,"dbbdbec":8575,"bebcbbed":8576,"ddcfcc":8577,"debcbbf":8578,"fbdded":8579,"dbbbbbbbbc":8580,"befcdf":8581,"bdcbccc":8582,"beebbeeee":8583,"bebcdcc":8584,"bebfdf":8585,"dbcbbbbc":8586,"bcbedef":8587,"feebbbf":8588,"dceac":8589,"beedbcc":8590,"fcbcef":8591,"bebeeebc":8592,"beccded":8593,"edeeebd":8594,"fbcbbcc":8595,"eebdbbbe":8596,"ebeebbbbbb":8597,"dbdbbcc":8598,"eeecdcc":8599,"fbddcc":8600,"bedebecc":8601,"bbdeedd":8602,"afbbc":8603,"ebeeebbbe":8604,"befebcc":8605,"dbcea":8606,"ecbeefc":8607,"bcbbeccc":8608,"fffebb":8609,"dfcebc":8610,"eecfebc":8611,"deedbbc":8612,"fbcbebd":8613,"eceedec":8614,"ebeeebbc":8615,"eecbbef":8616,"bebbcbec":8617,"ecbdbbbb":8618,"dbfdec":8619,"ebdbbebc":8620,"bbfdebe":8621,"bbdbddc":8622,"bbcdecc":8623,"bcecbbec":8624,"ebbbcbcc":8625,"bffbebe":8626,"bdfbbcc":8627,"bfbcbcc":8628,"dcbca":8629,"ecbd</w>":8630,"bbcbcef":8631,"beecbebd":8632,"ebcdbb":8633,"ecdbfcc":8634,"dbecfc":8635,"eecbcee":8636,"bedcbcc":8637,"fbdebf":8638,"ebabbbb":8639,"debcded":8640,"efbcebc":8641,"dfedcc":8642,"feebeef":8643,"bcbdbbf":8644,"eecceebc":8645,"bdbbfcc":8646,"ddbcf":8647,"edeceec":8648,"aeeec":8649,"bdeebbee":8650,"bedcff":8651,"fedbbf":8652,"fecdbf":8653,"ebebcfc":8654,"edcecec":8655,"bbbcddc":8656,"dfbcf":8657,"bbbddbf":8658,"bfcbbed":8659,"eecbbfc":8660,"ebdcdbc":8661,"ebecebf":8662,"bcdebfc":8663,"fcdbdc":8664,"edfdec":8665,"ebccebbc":8666,"bbcbdbf":8667,"fbcbecc":8668,"bbbeeebd":8669,"bcccff":8670,"bdecdbe":8671,"edeebbbe":8672,"dbdbbebb":8673,"bbdbebec":8674,"deecccc":8675,"ebccbbec":8676,"bfbcff":8677,"bada":8678,"bcbedebe":8679,"eedbbebc":8680,"beecbef":8681,"efbddc":8682,"edebdcc":8683,"cccbebe":8684,"edbbba":8685,"dfcccc":8686,"bdcdebc":8687,"fddff":8688,"ebdbbfc":8689,"eeccbbf":8690,"bdecdec":8691,"fcbbbec":8692,"effbec":8693,"bbbbbbbbbbbbbbc":8694,"edfdcc":8695,"bebbbfcc":8696,"edcfbe":8697,"bcdcdd":8698,"feebbcc":8699,"ebedbbbe":8700,"bdceeed":8701,"bfedbc":8702,"eecbbebc":8703,"beceeebb":8704,"efbcebe":8705,"fbfbbbe":8706,"eeecded":8707,"ebecbbcc":8708,"bcbeac":8709,"bbcbdcc":8710,"dfbcbf":8711,"eecbeebe":8712,"dfecbd":8713,"bdebbbbbb":8714,"dfeebd":8715,"dbecff":8716,"beccebbc":8717,"deefbd":8718,"ecdcdd":8719,"bcdbba":8720,"eeddfc":8721,"bcbddbc":8722,"bfbcbbd":8723,"eeeebbef":8724,"ffcfc":8725,"abbebc":8726,"bffebf":8727,"beccbbbc":8728,"bbbecbbbe":8729,"efcfcc":8730,"bebeeeebb":8731,"dbefed":8732,"bbeebebf":8733,"debbebf":8734,"ececded":8735,"eedbbef":8736,"bcbedbbc":8737,"bceeded":8738,"debcecc":8739,"ebbbedee":8740,"ebbfbfc":8741,"dbfbef":8742,"ecdcfc":8743,"bdbdbbbd":8744,"debcbcc":8745,"bfeddd":8746,"efcbebd":8747,"eeeeebc":8748,"dbebebf":8749,"eeecbbd":8750,"bdbc</w>":8751,"bbcbefc":8752,"bbedecc":8753,"bfcbbbf":8754,"aeebf":8755,"bdeb</w>":8756,"aeeebb":8757,"eadec":8758,"dbbebbed":8759,"bddbbebb":8760,"ebbdcbc":8761,"beecbcbc":8762,"bebbbbbbf":8763,"bbcfebc":8764,"eebdbbd":8765,"beebbebf":8766,"fbbcfc":8767,"feebbebb":8768,"debeecc":8769,"bbedbef":8770,"eeeebebf":8771,"bffdbc":8772,"bbddfc":8773,"bbddebc":8774,"bfecebc":8775,"ebebdebb":8776,"fbbebbcc":8777,"bbcfbec":8778,"bbfcbbf":8779,"bfcbeee":8780,"ebeeebebe":8781,"dbbebbbbc":8782,"feebbebe":8783,"fbceecc":8784,"dcdbfc":8785,"eedc</w>":8786,"bebebcbd":8787,"bcecbef":8788,"fccbef":8789,"bceedbf":8790,"beccbbd":8791,"dbecdec":8792,"eaac":8793,"beecbedc":8794,"fecdfc":8795,"ebebebcc":8796,"ddeddd":8797,"feebbbd":8798,"edeedee":8799,"bddac":8800,"dbbdcbd":8801,"bbbcbbbcc":8802,"bbbebba":8803,"dbebdbd":8804,"bbbbcebd":8805,"fecdebb":8806,"bebbbbbbbd":8807,"ddcebf":8808,"bcbcedc":8809,"bfcebcc":8810,"ebdcbdc":8811,"cccbbee":8812,"bbbbcbdc":8813,"efceebc":8814,"bceebbebb":8815,"dedceec":8816,"aeebd":8817,"bbebc</w>":8818,"bbccded":8819,"febbbec":8820,"dbddbbc":8821,"dbbecbec":8822,"beecfbc":8823,"eedbbbec":8824,"decdecc":8825,"dddcdd":8826,"ffbebf":8827,"edfdbd":8828,"ddbebbc":8829,"dbdb</w>":8830,"febebebe":8831,"ddbba":8832,"eeeebbbf":8833,"ebbeebbec":8834,"bccbbebc":8835,"bebdebbc":8836,"bcbfbbbb":8837,"eebcbccc":8838,"bbbcbcbbbb":8839,"ebbeca":8840,"bbfdfc":8841,"eccda":8842,"bcceef":8843,"beeebbef":8844,"bcbebbebe":8845,"efcbbee":8846,"eebffc":8847,"eecbeef":8848,"ebbbcbebe":8849,"ebebebbf":8850,"bbccbccc":8851,"bcedccc":8852,"ecfedcc":8853,"eebbeba":8854,"bccbdcc":8855,"bebceebd":8856,"bbcfbbbb":8857,"bdeebbd":8858,"eddebdc":8859,"beecbbee":8860,"eecfdd":8861,"bbebdbbbb":8862,"eefcccc":8863,"bceeba":8864,"dbceeec":8865,"ebfbeebe":8866,"bdbbea":8867,"bdbedebb":8868,"dbddebe":8869,"bbbcfbf":8870,"dccbcbc":8871,"dbccccc":8872,"fecebbc":8873,"bfdced":8874,"dbcbbdc":8875,"bccdbbbb":8876,"bcfcccc":8877,"beebbbbebb":8878,"beecebbc":8879,"ebbbbbbbbbe":8880,"dcdeecc":8881,"bbcbded":8882,"bbfdbbbb":8883,"eccceccc":8884,"feeedc":8885,"eeeeeebf":8886,"fbdbef":8887,"dbedbec":8888,"baeba":8889,"beccfbc":8890,"eecdbbbb":8891,"bbdfbec":8892,"ebdcdec":8893,"dcbac":8894,"fcbeebe":8895,"efbdbc":8896,"efbbecc":8897,"ebebebbd":8898,"fcfbec":8899,"ebdecec":8900,"bbdbdbc":8901,"dbfbebc":8902,"ebbecdbe":8903,"dbdeebc":8904,"bbecebec":8905,"bfcbbebb":8906,"dcceebd":8907,"bcfdbbc":8908,"dcedbc":8909,"ddbeebe":8910,"bddebdc":8911,"ebffebe":8912,"bebbcbbbe":8913,"fdf</w>":8914,"dfbbef":8915,"eefebec":8916,"bbbbeeec":8917,"eccfef":8918,"beeacc":8919,"bebdfbc":8920,"bcccedc":8921,"eecbcbe":8922,"eafbc":8923,"bbbcfbe":8924,"feebeebe":8925,"dceebcc":8926,"ebbecdf":8927,"bfc</w>":8928,"fcbcfc":8929,"acdbf":8930,"ddfecc":8931,"bdcdbec":8932,"eecfecc":8933,"fdcebe":8934,"ebbfdee":8935,"ffbcec":8936,"bfeded":8937,"ebdbcbe":8938,"afebe":8939,"ebbcbbebe":8940,"ebcbbebd":8941,"bbcbeebc":8942,"bcdbbebc":8943,"baded":8944,"ecbebbed":8945,"eccefcc":8946,"dbcecbc":8947,"eedefcc":8948,"edfdbb":8949,"efebbcc":8950,"dfbbdd":8951,"feebbef":8952,"dfbdbd":8953,"efcdfc":8954,"bbcbbeec":8955,"ebfbeef":8956,"bbbbdbbbe":8957,"fccbecc":8958,"fedddc":8959,"ebbeceec":8960,"bebcebec":8961,"fccbbbe":8962,"deccbec":8963,"ebcecebb":8964,"ebbbcbbd":8965,"fdcded":8966,"bbbbda":8967,"beeebebf":8968,"ebbeebcc":8969,"fccebbc":8970,"dcceedc":8971,"ebbdded":8972,"edbbcdbf":8973,"dbcbccc":8974,"bbfbbfc":8975,"dbbbda":8976,"ebcbcebe":8977,"eccbbfc":8978,"eeeebbd":8979,"eeccfec":8980,"edcda":8981,"cccebf":8982,"ecbddbe":8983,"bedcdbe":8984,"bdfea":8985,"beebbfc":8986,"bcec</w>":8987,"ebbddbd":8988,"dbcebcc":8989,"bdeedec":8990,"bbebbbcbc":8991,"eebcbef":8992,"ebdbebbbb":8993,"bfbeff":8994,"ecbeeccc":8995,"bddbccc":8996,"bfebecc":8997,"bffbdc":8998,"aeccc":8999,"dccbeee":9000,"bfeeebc":9001,"cccbef":9002,"dfbdcc":9003,"bbecbeed":9004,"bbbbeebe":9005,"bbbcfed":9006,"bceddec":9007,"bbbcdef":9008,"ebbcddc":9009,"ebebcbec":9010,"fddfc":9011,"bfcfed":9012,"bcebbbec":9013,"bbbdbeec":9014,"bbeefebb":9015,"bcbddbd":9016,"bdbe</w>":9017,"bbeebebbbb":9018,"bbbceebd":9019,"debcebd":9020,"bbebbecc":9021,"edfbfc":9022,"bbdcecc":9023,"bcecbdc":9024,"ddbcef":9025,"bbceebbc":9026,"dbbbac":9027,"dcecdec":9028,"edcbcee":9029,"dbbbbbec":9030,"ecbdbcc":9031,"dcfdee":9032,"eecbdcc":9033,"ebfdbbc":9034,"bbedfbc":9035,"eefebcc":9036,"bcbbbbbbbbc":9037,"fcfa":9038,"bcdbbbec":9039,"dbddef":9040,"ffecbc":9041,"dccbccc":9042,"bcbdbebe":9043,"bebfbcc":9044,"bbeebba":9045,"ebedccc":9046,"dfbedc":9047,"dbebcbe":9048,"bbdddee":9049,"ebbbeedc":9050,"bebcebcc":9051,"efcddc":9052,"dbcfdc":9053,"bcbdbbbe":9054,"ebcbcebc":9055,"ebbfdbb":9056,"edefbf":9057,"ffda":9058,"eedcebd":9059,"edeedcc":9060,"ebcfbec":9061,"dbccbbc":9062,"deecded":9063,"adbec":9064,"bbebbfbc":9065,"bebcbbbf":9066,"beeebfc":9067,"feeebbc":9068,"dfeeee":9069,"bbecbeebb":9070,"bdcac":9071,"dfdebc":9072,"ebcdccc":9073,"beedef":9074,"ffdfc":9075,"bdbebbed":9076,"ecccded":9077,"dcdfcc":9078,"dbbcbbbd":9079,"bebcfcc":9080,"edecdbe":9081,"debbded":9082,"bbdbcdd":9083,"ffbebd":9084,"bbbbbebec":9085,"bdcebdc":9086,"ebcbbeec":9087,"bcbacc":9088,"bebcfed":9089,"bebcbedc":9090,"efcbbbd":9091,"edcfbf":9092,"befbcec":9093,"bbdcdec":9094,"ebcbedbe":9095,"bdcbdbd":9096,"bbeceebc":9097,"ebebbbbbbbb":9098,"bbebebbebe":9099,"dbbedbbc":9100,"cccfec":9101,"ecbeeecc":9102,"ddcbebe":9103,"bbffbbc":9104,"bccbbbec":9105,"feffee":9106,"becbeef":9107,"ebebbecc":9108,"ebdfa":9109,"bbcebfc":9110,"eccbbef":9111,"ddcbbbd":9112,"eccdccc":9113,"bbeeded":9114,"bbddbbbe":9115,"dbbdcdc":9116,"eccbcbf":9117,"bcfbbbbc":9118,"dbebcebb":9119,"eccfbbc":9120,"dcbedee":9121,"bbedbeec":9122,"deeecbc":9123,"bbccbeee":9124,"ebcebbcc":9125,"eebddec":9126,"debedbc":9127,"bccedcc":9128,"febbbebe":9129,"bcdd</w>":9130,"acdec":9131,"efeced":9132,"bcebac":9133,"dfebdc":9134,"edfbebe":9135,"ffffc":9136,"bbcecbf":9137,"fbcbbbf":9138,"bfcbeebb":9139,"dbbbbdbd":9140,"dbecbbbb":9141,"becdbbd":9142,"bccbcbbc":9143,"ddecbf":9144,"dbbbfbd":9145,"ebcfebd":9146,"eeccdcc":9147,"edebbebe":9148,"fccdbd":9149,"bbbcbbebc":9150,"edbcbbbe":9151,"efe</w>":9152,"fceeebb":9153,"bbdbdebb":9154,"bcecdbd":9155,"bdcffc":9156,"bbecbedc":9157,"dfcdec":9158,"ecbcbeec":9159,"bcccdbe":9160,"fcdccc":9161,"efcbedc":9162,"ebbbbebec":9163,"ecbcbccc":9164,"ddbfcc":9165,"bccecbd":9166,"ebfeef":9167,"ffbbebe":9168,"edebeebb":9169,"bbbcea":9170,"eecfbbc":9171,"fecbedc":9172,"bfeebcc":9173,"fccfee":9174,"bccfbbc":9175,"dbbdced":9176,"bebbbbbebe":9177,"eeeeeeeeeeeeeeee":9178,"dfbbbbc":9179,"abeef":9180,"bbebbbebd":9181,"dcfbdc":9182,"dffbbc":9183,"bfbeecc":9184,"bbbcdebe":9185,"efeebbc":9186,"beccbfc":9187,"edcfebc":9188,"bbeeeecc":9189,"fccfdc":9190,"ebbdcbf":9191,"edebbee":9192,"dccbbbd":9193,"bbdeced":9194,"debbdebb":9195,"dbbcbdc":9196,"dcbfbd":9197,"ecceeebb":9198,"fcdbbbb":9199,"bcbcebbc":9200,"dbcfbf":9201,"dfbeed":9202,"dbedebc":9203,"becbcf":9204,"dcbcbbd":9205,"ebbbcdee":9206,"bbbbeebf":9207,"eeebebeebe":9208,"fcecbf":9209,"feebebf":9210,"eefbbdc":9211,"edcedbd":9212,"abcebb":9213,"dbecebe":9214,"befecbc":9215,"bbccefc":9216,"ebbdcec":9217,"eeecebd":9218,"bbbcebcc":9219,"beddeec":9220,"dbffbd":9221,"ecbbeccc":9222,"bdeeeecc":9223,"bbdeebbc":9224,"bbffebe":9225,"fedbfc":9226,"becfebc":9227,"debebbee":9228,"ebcbcef":9229,"ebfeecc":9230,"dbebbdd":9231,"dfbeebb":9232,"dbbddcc":9233,"fcbcdd":9234,"ebbceecc":9235,"ebcbdbf":9236,"eccecbf":9237,"bbfbebbc":9238,"bdcfebb":9239,"eedcef":9240,"bddd</w>":9241,"bfd</w>":9242,"dbbecebc":9243,"dcebbebb":9244,"befbcbd":9245,"dfcdbc":9246,"edbebfc":9247,"bbbcbbbec":9248,"bedda":9249,"bbbcbbef":9250,"ebdbbbec":9251,"bbdcbbbd":9252,"eeeedbc":9253,"eceefcc":9254,"bbfbeed":9255,"feebeebb":9256,"bccb</w>":9257,"edcbced":9258,"fbcebec":9259,"becbbbcc":9260,"bbbbeecc":9261,"beebb</w>":9262,"fecbbee":9263,"bceebbcc":9264,"dbbefcc":9265,"bbebbbbcc":9266,"fbdefc":9267,"eecbbbec":9268,"deebeed":9269,"bbfcdbe":9270,"bbbbbddd":9271,"acdbc":9272,"efbebcc":9273,"fadd":9274,"dccbecc":9275,"ebefbcc":9276,"eebcbebd":9277,"feebbec":9278,"befdbbc":9279,"eada":9280,"deebbbf":9281,"adebc":9282,"ebdbcbf":9283,"bfbeeec":9284,"becbefc":9285,"bfbebbbc":9286,"fcbbbcc":9287,"befbeebe":9288,"deedbec":9289,"eceefbc":9290,"fbfebf":9291,"fecbebd":9292,"bbbdb</w>":9293,"aebdc":9294,"fcbcbbc":9295,"bbbebeed":9296,"dddbbbe":9297,"ecbebbbf":9298,"bbcedbd":9299,"eebcfcc":9300,"bbdbebbd":9301,"fbecccc":9302,"ebdbeebe":9303,"dbbecbbbb":9304,"ffeccc":9305,"fecebf":9306,"dbdefc":9307,"eeefef":9308,"bfecebe":9309,"bbbeecbc":9310,"baebbc":9311,"bdcecbc":9312,"ebbbcbbee":9313,"deebeebb":9314,"bbdcbebe":9315,"becfdd":9316,"bbfbcebb":9317,"deecdbe":9318,"eebbcccc":9319,"bbebebebc":9320,"bccbcebb":9321,"bbbbbedd":9322,"debbbbebb":9323,"febeebe":9324,"becbba":9325,"eebedbf":9326,"eeaa":9327,"eedcdbe":9328,"ebcdbbbe":9329,"beccefc":9330,"ecbddbc":9331,"befbbbbc":9332,"ddbbbec":9333,"bfceecc":9334,"deccef":9335,"feefbe":9336,"bbeefbd":9337,"ebbdcdd":9338,"bbbbbbbdc":9339,"bceebbbd":9340,"ecdebfc":9341,"ecdb</w>":9342,"ddcbbbc":9343,"dbdbcbd":9344,"dccebbc":9345,"bdbdbbd":9346,"eebeeccc":9347,"bbeeefc":9348,"bdecbcc":9349,"bebeebcc":9350,"decbcbd":9351,"bebebebbc":9352,"ebbbedbd":9353,"bfdbbee":9354,"abcf":9355,"dcbeedc":9356,"eebacc":9357,"bbbeac":9358,"eefda":9359,"ecfebec":9360,"dbddbbd":9361,"bcecebd":9362,"bbbebcbf":9363,"ddfbec":9364,"fbedebc":9365,"ebedbbf":9366,"bbfda":9367,"ebbdefc":9368,"ebbfdbd":9369,"bebeded":9370,"ebcbdbc":9371,"bedcebd":9372,"ebcbddc":9373,"bebefbd":9374,"bceebbed":9375,"fbfdbe":9376,"eadbf":9377,"bfcddc":9378,"eccbcf":9379,"eeefeeee":9380,"dccbbec":9381,"ebeeced":9382,"bbcbcdd":9383,"bbfbba":9384,"bbdebfc":9385,"dbecbcc":9386,"bbeebbebc":9387,"bbbbcccc":9388,"ddecdd":9389,"fcbba":9390,"edbcedc":9391,"bbdcbbdc":9392,"eabbbd":9393,"dedefc":9394,"fdebecc":9395,"edfbef":9396,"bbbfbbec":9397,"bbcbbebd":9398,"dbbdded":9399,"eefdbbc":9400,"deecef":9401,"bfbebbee":9402,"eccfebe":9403,"bbddbbdd":9404,"ebbdbbcc":9405,"dbbdef":9406,"beeeeeebb":9407,"bddeccc":9408,"debddbe":9409,"bfacc":9410,"fecfcc":9411,"debbfbc":9412,"eedcbcc":9413,"eeebeebf":9414,"fcedcc":9415,"abedc":9416,"bbcecebb":9417,"deeebcc":9418,"ebdcedbbec":9419,"dbcfbe":9420,"bbcdbbbe":9421,"bebebbef":9422,"febbdbe":9423,"bbfeebf":9424,"eebddbd":9425,"acfa":9426,"bbbebcbbbb":9427,"bbedebbc":9428,"bfdbfc":9429,"bdbdbdc":9430,"bedddf":9431,"becbcbbc":9432,"fcbeecc":9433,"fcfebe":9434,"eeebebbbb":9435,"bbebbdbd":9436,"ebbbcebd":9437,"dccdef":9438,"bcbebbdc":9439,"bfbedbe":9440,"bbbedebc":9441,"cccbbcc":9442,"beecbbbd":9443,"ebbbbdbbbb":9444,"eeecdbd":9445,"debbbbec":9446,"ecfcccc":9447,"bebeddc":9448,"befeebf":9449,"bbbbcdbd":9450,"beeeedc":9451,"bcbeebcc":9452,"bbbedef":9453,"bfcfbf":9454,"efbebec":9455,"feceecc":9456,"eccbddc":9457,"ebecba":9458,"eeeedf":9459,"bcdbfcc":9460,"bbceced":9461,"bebcfbd":9462,"dcbebbf":9463,"feefbf":9464,"dfcbbf":9465,"bfbebdc":9466,"debebbd":9467,"beedded":9468,"bbbebbfc":9469,"beecedc":9470,"dcefdc":9471,"febbebc":9472,"eecbcebb":9473,"eccbcdd":9474,"bcecbbbc":9475,"bbbbfdc":9476,"fddccc":9477,"bbebeebc":9478,"bbbbbcf":9479,"fceced":9480,"bbbfebbc":9481,"ebdbcf":9482,"bebdbfc":9483,"ebdeeebb":9484,"dcbebbbe":9485,"ebbbbdcc":9486,"beeceecc":9487,"eede</w>":9488,"efcbbcc":9489,"dbbebbee":9490,"eeefbeee":9491,"edeebbf":9492,"bbbdbcbd":9493,"bdeedcc":9494,"dbecdbc":9495,"edccebc":9496,"adca":9497,"bfdcdc":9498,"bbeeeebc":9499,"bccfebe":9500,"bbedebf":9501,"bbbebdbd":9502,"ecdbbebe":9503,"bbdbeebc":9504,"efecf":9505,"ebdbddd":9506,"bbfbeef":9507,"eabbec":9508,"eedcdec":9509,"ecdcdcc":9510,"bbfbbbec":9511,"dbebebbc":9512,"eecbefc":9513,"edbcfbc":9514,"bcbcba":9515,"bbbbbdebb":9516,"eebbedcc":9517,"bfbeebd":9518,"bbfbcf":9519,"beccebf":9520,"edbbbbcc":9521,"bebefbe":9522,"efeedd":9523,"ebeeedd":9524,"ecdcebc":9525,"edccedc":9526,"eecbfcc":9527,"efcdebc":9528,"becbded":9529,"becbdcc":9530,"ebeebbcc":9531,"ddcfee":9532,"fbdfbd":9533,"eebcebcc":9534,"eeecfec":9535,"ecdbbef":9536,"eceeeecc":9537,"dbcbedc":9538,"eebebbdc":9539,"bbbbcbbbf":9540,"ebefbec":9541,"fdcbdc":9542,"bcccbcbc":9543,"eceedbf":9544,"ecdddd":9545,"bbeefcc":9546,"bccbebbc":9547,"bbbebced":9548,"bebcecbc":9549,"dcbbedc":9550,"bafcc":9551,"befdfc":9552,"dcdebbc":9553,"dabda":9554,"bbfbbebc":9555,"bccecbe":9556,"ebebbebf":9557,"eebdbebe":9558,"bbfbced":9559,"eccbcbe":9560,"eeeeeebe":9561,"bfeac":9562,"ecbddec":9563,"efbfbf":9564,"fbedebe":9565,"bbbebebbbe":9566,"bcbfa":9567,"deffbc":9568,"dedbcbc":9569,"eeeeeec":9570,"dedbbed":9571,"bfeebbbe":9572,"effbbf":9573,"edcfecc":9574,"bebebbdc":9575,"eddddd":9576,"defdec":9577,"ebcbebcc":9578,"ebecbecc":9579,"ebddbdc":9580,"dccbbcc":9581,"ddcefc":9582,"bccbcf":9583,"bddddbd":9584,"bbcbcebe":9585,"eeebeeeebe":9586,"bcbbbdcc":9587,"bbbbbbeec":9588,"ebfbbdc":9589,"bceebecc":9590,"bfebbbbbb":9591,"eddbccc":9592,"bbbbbeef":9593,"ecbbebdc":9594,"bceebccc":9595,"eeedbec":9596,"bcbdbbbc":9597,"ebbfebbc":9598,"eceebcbc":9599,"ebfdfc":9600,"acbdc":9601,"ebfcdf":9602,"ffcbec":9603,"bcdbbbcc":9604,"eeecdbbc":9605,"bdbda":9606,"edcbbebb":9607,"bebddebb":9608,"fdcdbc":9609,"edfbbee":9610,"bccbeef":9611,"beeebba":9612,"eebfff":9613,"bfddcc":9614,"bbddebd":9615,"bbeeebcc":9616,"ddbefc":9617,"fdcebd":9618,"eeecbebe":9619,"bbdecebb":9620,"fcfbcc":9621,"febb</w>":9622,"bdeca":9623,"fbdebbc":9624,"fbfbbbc":9625,"bebdbef":9626,"bdfdebb":9627,"bbbbfef":9628,"eedbbbcc":9629,"daebe":9630,"bdcbbbbc":9631,"debeebd":9632,"ebbeebef":9633,"fccbbbc":9634,"bbbfecc":9635,"bfbbedc":9636,"bdbefcc":9637,"bcccdbc":9638,"cccbebc":9639,"bdbebecc":9640,"eecdccc":9641,"bdeedbd":9642,"bbbeeecc":9643,"ddcfed":9644,"ebfeebd":9645,"bddbbed":9646,"eeecbecc":9647,"effbbd":9648,"ebcfeec":9649,"defdbd":9650,"dbedbbbb":9651,"bbfcdee":9652,"bdbddee":9653,"edcdbcc":9654,"ddcbfc":9655,"bdeddd":9656,"bebbbbbbee":9657,"bebefebb":9658,"fbdba":9659,"bebeebec":9660,"eabcec":9661,"ebfeccc":9662,"ebffdd":9663,"abeebe":9664,"bbebedd":9665,"bdbedbf":9666,"dcebbed":9667,"ebcbcbbbb":9668,"fcbbecc":9669,"beecfee":9670,"bdbcdec":9671,"bbedbbebb":9672,"fbdfee":9673,"fbcebcc":9674,"fbcbeee":9675,"ebbbceec":9676,"dccdbf":9677,"bbbfdec":9678,"bcceced":9679,"edbcbbf":9680,"ecbedbbc":9681,"eceebbcc":9682,"abcbe":9683,"bebfdd":9684,"eebbb</w>":9685,"dcfdbc":9686,"dbeeeee":9687,"bcbdbcbd":9688,"bdcbeebb":9689,"bbededc":9690,"bbeddebb":9691,"beecbbcc":9692,"bbbccbbbc":9693,"eebcefc":9694,"eabfc":9695,"bebfbbee":9696,"bbbebedc":9697,"fcbdbf":9698,"beceebf":9699,"eceeff":9700,"bbbeebbebb":9701,"bbbbcff":9702,"eefbba":9703,"bcbfdf":9704,"bbbbcebbc":9705,"ebedbdc":9706,"dbcbcec":9707,"fa</w>":9708,"ebcb</w>":9709,"dbecebd":9710,"dbbecfc":9711,"ecbcbef":9712,"bbfcef":9713,"edbeebbc":9714,"bccda":9715,"febeff":9716,"bebeeeebe":9717,"bcccebd":9718,"dbcbbdd":9719,"bbbfbbcc":9720,"ebcbddd":9721,"eebcbecc":9722,"eebcdebb":9723,"cccfee":9724,"dcbeccc":9725,"bebedbf":9726,"edbdfc":9727,"ecdcedc":9728,"eebbbdcc":9729,"bfdebbc":9730,"bfbdbbbb":9731,"ddefcc":9732,"bbcfa":9733,"eaedc":9734,"ecddecc":9735,"bebdbbec":9736,"beedbebc":9737,"bfcbedc":9738,"dfbcbe":9739,"bebdebf":9740,"eecbcf":9741,"fccfbd":9742,"eebdbebc":9743,"eeccbbd":9744,"bebfbbbc":9745,"debeedc":9746,"ebcefcc":9747,"deefbe":9748,"ebccbef":9749,"edbcdec":9750,"ebccebec":9751,"bbbdfbd":9752,"dccbeec":9753,"bbeefbf":9754,"febbdbc":9755,"eebedbbc":9756,"bbeeeeebb":9757,"bdbbbecc":9758,"fedbebc":9759,"eebdbbbc":9760,"bcdefcc":9761,"bdcdecc":9762,"bbebbbfc":9763,"ebdbeef":9764,"bdeebebc":9765,"eaddc":9766,"bbebedbe":9767,"eecbcdd":9768,"edffcc":9769,"edeebbbc":9770,"bbbbbebbd":9771,"deebbdc":9772,"ecbdef":9773,"bbbbebdc":9774,"bfefbf":9775,"bececdc":9776,"ecbeebec":9777,"deecdbc":9778,"ebdbebec":9779,"ebfeeebe":9780,"bbebbfee":9781,"becebbcc":9782,"bbbddbbc":9783,"bebefec":9784,"beeedec":9785,"dbfbcbc":9786,"dbbdebe":9787,"fefebe":9788,"ddfdf":9789,"bebedbbc":9790,"bbbbbbbbbbd":9791,"ebcdbbf":9792,"dccfdc":9793,"bbebcccc":9794,"dbedfc":9795,"ebbbcdf":9796,"bedcded":9797,"eebdebbc":9798,"dbbbfed":9799,"ffcbbc":9800,"ebbacc":9801,"eebfbbc":9802,"ebecfee":9803,"febeef":9804,"bcbdbdc":9805,"bcbdbbd":9806,"bafbd":9807,"dbefdd":9808,"ecbcebbc":9809,"eeccded":9810,"bebebcec":9811,"eeccfcc":9812,"bbfbebbbb":9813,"bbeeeeebe":9814,"bbbcbebbc":9815,"dbbbbbcc":9816,"bebdbeec":9817,"dbbdfc":9818,"bcedeec":9819,"bbbcbcbbc":9820,"dbbdbbbe":9821,"dadee":9822,"ebbececc":9823,"dbebbef":9824,"bbecfbd":9825,"bffbbbc":9826,"ecfbbbf":9827,"eeccebbc":9828,"abebbc":9829,"fbcddc":9830,"fedecc":9831,"bced</w>":9832,"eebedebb":9833,"acecc":9834,"dceedee":9835,"bbbcbcebb":9836,"edbefcc":9837,"eedcff":9838,"bcbfdd":9839,"dcbeff":9840,"dbcceec":9841,"cccefc":9842,"bfebbbd":9843,"bfebbee":9844,"dbbbfdc":9845,"fdcedc":9846,"dbfdbf":9847,"ebbbeba":9848,"bdcbcec":9849,"bbbcbcec":9850,"bcdcdf":9851,"bbbbdebc":9852,"decdbec":9853,"bbbbecbd":9854,"bdeeebd":9855,"efecebb":9856,"bccecbf":9857,"bcbfff":9858,"abbba":9859,"bbdbcef":9860,"efdedc":9861,"bfebccc":9862,"eeecbebc":9863,"dbccdd":9864,"bdbcebf":9865,"bcbcbbbbc":9866,"baeeee":9867,"bebebba":9868,"becebfc":9869,"aeef":9870,"bcfbbef":9871,"bffdee":9872,"befbbdc":9873,"dbbedbc":9874,"bcfeccc":9875,"fdcefc":9876,"ebcbdec":9877,"ecbcebf":9878,"dbbbdebc":9879,"eeeffee":9880,"bebdeebc":9881,"bfcfbe":9882,"dbbecdf":9883,"fecdef":9884,"ebebdec":9885,"bdfbeee":9886,"bbbbecebb":9887,"fbbbbbbbe":9888,"bdebfcc":9889,"eecbeebc":9890,"bdbcbebc":9891,"bdcfdd":9892,"badebb":9893,"fcceedc":9894,"bbeeebec":9895,"dbdbecc":9896,"bcbcbeee":9897,"edbddee":9898,"bfeebec":9899,"beebbccc":9900,"edebbef":9901,"febbebf":9902,"bebbbbbbbbc":9903,"bbeecbec":9904,"ebdcfbc":9905,"eecbded":9906,"bbecfed":9907,"beebbff":9908,"febebeee":9909,"ebeeddc":9910,"beedff":9911,"bbecbbbbc":9912,"bbdcedc":9913,"febbbcc":9914,"bcfdebe":9915,"dcbbbbbbbb":9916,"faccc":9917,"bbbbdbec":9918,"dceebbbb":9919,"eddac":9920,"bdbdbec":9921,"bbdecbf":9922,"bceebeee":9923,"bbfffc":9924,"beefff":9925,"debdbec":9926,"bffbef":9927,"ebccbbbd":9928,"ebcbebbd":9929,"ebbbeebbc":9930,"dedbcec":9931,"beeddbd":9932,"bcccbdc":9933,"bbcdedc":9934,"ddcbbee":9935,"eebcbbcc":9936,"bbcdbdc":9937,"efbdef":9938,"dececbc":9939,"fdacc":9940,"efbddd":9941,"dddbbf":9942,"bcbfbec":9943,"dbcdfc":9944,"ebcdcdc":9945,"bcbedebc":9946,"bdfbbbf":9947,"ecebac":9948,"fbeda":9949,"deccdf":9950,"fbebdcc":9951,"babbbbc":9952,"fbcea":9953,"dbcbdbd":9954,"bebebcebb":9955,"bfccccc":9956,"dedbbcc":9957,"ecbdebd":9958,"bbbcbdbd":9959,"dbebbebc":9960,"bbbcecbc":9961,"eebfccc":9962,"bbebebbd":9963,"ebbfbeee":9964,"fbebbfc":9965,"ecdbbfc":9966,"ffca":9967,"bcbbebfc":9968,"eecbcbbc":9969,"bbebebbbd":9970,"bbbbdfc":9971,"bceedebb":9972,"bfeca":9973,"edcbbdd":9974,"ecbfccc":9975,"dbdda":9976,"beebbbeebb":9977,"bcbebbbec":9978,"bdcbedd":9979,"dbbdcdd":9980,"eccbded":9981,"acac":9982,"ddebfc":9983,"deeebec":9984,"ebccfcc":9985,"ebdbba":9986,"dceeccc":9987,"bbefebc":9988,"fedbbd":9989,"febcdf":9990,"decdebe":9991,"efdbbbe":9992,"dedbeee":9993,"bebdba":9994,"dbbedebb":9995,"fecbbcc":9996,"ebfbedc":9997,"eececec":9998,"fbebbebc":9999}