#version: 0.2 - Trained by `huggingface/tokenizers`
b b
b e
b c
e e
c c
b d
e c
b f
e d
e bb
d c
bb bb
e f
e be
d d
e bc
bb c
f c
be c
e cc
e bd
bc c
ee c
bb d
d f
bb be
bb f
d be
e bf
bd c
ed c
b a
f f
bb bc
d ee
cc c
d bc
bb ee
be be
bf c
ebb c
d bb
d ec
d bd
be f
d cc
e a
bb bd
be bc
ef c
d ed
bb ec
f bc
be ee
bb cc
f ee
bb ebb
ebe c
bc bc
ebc c
f be
d dc
d bf
f ec
d ebb
bb bf
bb ed
f cc
be ec
ee ee
a c
bbbb c
ee bc
be bd
be cc
f bd
d ef
ecc c
ec bc
ebd c
f ed
ee cc
bb ebe
bb dc
d bbc
ee be
d ebe
ee f
d ebc
ec be
bb ef
bc be
bc f
ee bd
d fc
bb dd
d a
bc cc
d bbbb
d bec
bc bd
bc ee
f bf
be ebb
f dc
bbbb bbbb
bc ec
bb ebc
d eec
be ed
bb a
f ebb
ee ec
be bf
e ba
bb fc
bd bd
be dc
cc cc
d bbd
bb bec
d ecc
ee dc
ec bd
ebf c
d ebd
d bcc
ec f
bc ed
ee ebb
f ef
bb bcc
f dd
ee bf
ec ec
be ebe
bc bf
be dd
bc ebb
ee ed
be bbc
f fc
be bbbb
bb ebd
d edc
f ebe
ed cc
be ef
f bbc
ed bd
bc dc
ee dd
bb eec
ec dc
d bdc
d bbf
d ccc
ee ebe
d bbbe
bb ecc
f a
bd cc
ec bf
ec ee
bd bc
f ebc
ba c
ec ed
bc bbc
bd be
bd f
bf cc
be a
bd ed
ec ebb
be fc
ee ef
bc bbbb
bd bf
be ebc
bc ef
bc dd
d bbbc
ec dd
d ebf
ea c
ee bbc
b b</w>
ebb cc
f bbbb
bb bdc
bb ebf
bd ee
ebb ebb
bb ccc
be bec
bd dd
ed dc
f bec
bc ebe
bd dc
ef cc
f ecc
be bbbe
bd ec
f bcc
d bbee
bc fc
bd ebb
ed dd
bc ebc
d bfc
f df
be bbd
ee bbbb
dc dc
ec bbc
bb edc
be bcc
ed bf
ee a
f bbd
ed bc
f ebd
ebe cc
d ebbc
ebc cc
f eec
dd dd
bf bf
bc a
be df
be dbe
ee fc
d efc
be ecc
bc bec
bb ebbc
d ba
ed ed
f bbf
bb ba
ec ef
f dbe
ebb bbbb
be bbf
ebb ee
bd bbc
bb bfc
ec bec
ebb bc
be ebd
bd ef
bd bbbb
ee ebc
ebb bf
ec ebc
be eec
ec ebe
f ccc
bc bbd
ec fc
dc ed
f bbbe
ec df
dd cc
ee bec
f edc
bc bcc
ebb bd
ee bcc
be bbee
bc df
bf dc
bc eec
d ea
dee cc
be bbbc
dbb cc
ee dbe
bf ed
f bdc
ec bbbb
ebb ed
dc bd
bf bd
ee df
ec a
ebb bbc
f dbc
ecc cc
bf bc
b e</w>
ebb ebe
ee bbd
be ff
ee bbbe
b d</w>
f ebf
d ebcc
ec bcc
d ebec
bd a
be bdc
b c</w>
bd ebe
dc dd
ed bbc
be dbc
dc bc
ee bbf
be ccc
ee ecc
ef bf
dc ec
a cc
be ebf
bc ebd
bc ecc
df cc
dbe cc
ec bbd
f bbbc
dc bf
bd fc
ee bbee
ebb ef
bc bbbe
bbbb bbc
bd ebc
dd ed
ec eec
f bebe
be dee
f dee
be edc
bb efc
bb ea
ee ccc
e b</w>
bbbb cc
ef dc
bf ebb
bc bbf
bb ebec
bd bbd
bbc bbc
bc dbe
f bef
bf ef
ec ecc
ec dbe
ebd cc
bd bec
f bbee
ebb dc
ebe ebe
bf bbc
bd df
ee eec
ec dee
be dbb
d ac
bf fc
f dcc
bc ccc
ed ef
ee ebd
ed ebb
ff cc
bc bbbc
ee bebe
f dbd
ed df
bbd cc
dd dc
bbbb ebb
dd bd
f bfc
bf ec
ee bdc
ebe ebb
f dbb
bf dd
ee dbc
ee ff
ed ec
d eccc
dc ef
bf ebe
f dec
be dbd
bc dee
ed bec
bb ebcc
ed ebc
bf a
ee beee
ebb ec
ee dee
bc ff
d bbbbc
d ebdc
dbb bd
ef ef
be dcc
ed ebe
bbc bbbb
bc dbc
ed a
f ba
be bbbd
be bbebb
ee bbbc
fc dc
ec ebd
bd eec
ebb ebc
ee ebf
bf bbbb
be dec
be bbec
ebb dd
bbf cc
ed fc
be ba
f bebc
bbc bd
f ebbc
dc ebe
ef dd
be bfc
ebb a
bc bdc
dc fc
ee bef
dc ebc
bb ac
ebb bec
ef bd
f beee
ed dee
be ebbc
bbbb bd
e e</w>
bc bebe
ebe bf
a a
dc bbc
bc edc
ebb fc
ed dbe
ec dbc
ee dcc
bbbe cc
ec dec
be bbcc
bd bcc
bbc bf
f bbbd
bd dbe
e c</w>
dc ebb
ebf cc
f efc
ded cc
ed bcc
dbb dd
ed ee
ec bbf
bf ebc
e d</w>
ef ebe
ebb bbbe
ec bbbe
ed bbbb
f bbcc
ec bdc
ebe bbc
d b</w>
f bbec
bbd bd
dc bec
dbc cc
f ea
ee edc
f ddc
dc eec
bc bbee
f dbf
bd ebd
ee fee
bef cc
eba c
ec ff
bbc ebb
ed eec
dcc cc
bd ecc
bbd bbbb
bc dec
fc bf
ebe bbbb
dc a
ef ebb
ee dbd
f ded
bbbc cc
bf bec
ef bbc
dbb ebb
dc ecc
bc dbd
ef fc
ebe bd
bc ebf
bbbe bbbb
ef ed
bc bebc
ef a
bc bef
ed bbd
fbe cc
dc df
dc ee
dbb bf
ebb bbd
bebe cc
be dbf
dd bf
ee ba
dbb ed
bc fbc
f bbbf
ebe ef
be bbbf
bc bbbd
bd bbbe
be ded
ec bbbc
be ea
ec ded
fc dd
be ddc
ebe dc
ec edc
bd dee
ebc ed
bb b</w>
be bbed
ebc bf
bbd bbc
bbbb bf
bc bfc
ee dec
f bbebb
ebc bbc
fc fc
bd bbf
bec bbc
ebb bcc
ebe ed
ebe dd
bb ebdc
ec dbd
b f</w>
bbd bf
d d</w>
ee bebc
bbbb bbbe
dc bcc
ebb eec
fbc cc
ee bbec
bc bbec
be debb
ee fbe
bbee cc
bec bf
bbc ed
bc ded
ec dcc
ecc ed
dbb dc
f ebcc
bd ff
ebc ebb
bc ebbc
bc dcc
f ac
ee bbebb
fee cc
dd a
fc bbc
bf bcc
bd dbc
dd ef
ec bebe
ee ebbc
ebe a
bd bdc
dd bbc
be efc
ec bebc
bf df
ec bef
dc ebd
bc bbcc
ee bbbd
bbbb bbd
ed ecc
dbb ebe
bb eccc
ebb bbf
dd ebc
bd dbd
f ebec
fc df
bbbb bbbc
bc ba
f debb
be bbbbc
be bbebe
f bbed
bbbb ebe
ebc bec
ee fbc
fc ef
ebb df
ed ebd
ee bfc
bebc cc
ebc dc
be ebec
fc bd
bbc bec
ee ddc
dbd cc
ebc bd
ee bcbc
ebb ebd
ed dbc
ec bfc
bc fee
ebc ef
ebc dd
ebb dbe
bbd ed
f def
bec bec
dbb ef
bbc ebe
a bf
bc beee
bbc ef
ec ebf
fc ed
ec bbec
ebb bbbc
ec bbee
df dc
bf bbf
dd ebe
d ebfc
cccc cccc
bd edc
ee ea
ed ccc
ee bbcc
d e</w>
bc fec
dc dbe
ebc ebc
be ac
be ebcc
bbc dd
bf ecc
bd bbbc
bbbbbbbb bbbb
bbc dc
ee dbf
dd fc
bbd ebb
dbb a
bcc ed
d c</w>
bc bbebb
dd eec
bec dc
bc fbe
dd df
dbb fc
ec fbc
ec beec
bd ccc
dd ebb
a ed
ec ebbc
bc fcc
f eccc
dc bbbb
bec ebb
bbc fc
ec bcbc
eec bf
bbc bcc
bc efc
ef bcc
ebe fc
bd bebe
bc beec
ed dec
ef df
ebe bbbe
dc bbd
bbc ebc
bf ff
be dbbc
dd bec
def cc
ebb bebe
e bb</w>
ebe bec
ebb ecc
bbcc cc
ee ded
bc eebc
eec dc
bf dbe
dbb ebc
bf bbd
bf ebd
ef ebc
a bd
bf bbbe
ebe bcc
dbb bec
ed bdc
fcc cc
f dbbc
ec ba
f bbef
ec bbbd
ee beec
a dc
bbbc bbbb
ed bbf
dd ecc
ef bec
be bbef
ebe ebc
bc debb
f bbdc
eec bec
bc dbf
eec df
beee cc
bc bbed
ef bbbb
be bbdc
ee bbed
bcbc cc
bbc bbd
bc bebd
a dd
f bbbbc
ed ff
dc dee
ebc bbbb
f da
eeee cc
d eba
be def
ed bbbe
ebc fc
ba cc
ec fec
bd dec
a fc
bb ebfc
dd bbbb
a bbc
bb eba
bf eec
a ef
df fc
bc fbd
bbbbbbbb bbbbbbbb
bc bbbf
ea cc
f dfc
bc bbbbc
bd bbbd
bbd dc
dbf cc
ebc eec
dbb bcc
ee bbbf
dbb ebd
bd bbee
bbbe ebb
bc ddc
ecc eec
fed cc
df ed
be debe
f bbebe
bc ebec
ee bbebe
ec fee
dbe dc
ebb ff
bccc cc
fc bec
a bbbb
bcc bbc
eebc cc
bc becc
ee fcc
ebd dd
ec becc
ebe bebe
bd ebf
ebc df
dc edc
bbf bf
ec debb
ec ddc
ebb bbee
cccc cc
ebd ed
a ebe
bbd ef
bcc bf
ebc ebe
dee dc
f debe
bbd ebe
ee bebd
eec dd
bbbe bbc
ef dbe
be bbebc
a ebb
bbbb bec
bcc bcc
f ebdc
df dd
ec bbcc
eec bbc
ee becc
bbd bbd
bd bef
ef ff
ee debb
be dbbbb
ed dbd
ef ecc
dc ff
ec efc
ed edc
ec beee
df bf
ef bbf
fc ebe
ec fcc
ee fec
bd bebc
bc dbb
ebd bf
ecbc cc
bc ea
f debc
dd dbe
ee dbb
be debc
fc bcc
ecc ecc
bbd bec
ee fbd
e f</w>
ec dbf
ec bebd
bd fbc
dc dbc
ed ded
bbc bbbe
dc bdc
dd bcc
bbbd cc
fc ebb
bc eebe
ee efc
ebe bbf
bc ebcc
ecc bec
ebc bcc
bbbb bbf
ec fbe
bd ded
fc a
bd bfc
bbc eec
ec bbed
bd dcc
bbbb ed
dd ebd
ebb ebf
bc fed
fc ebc
bbbe bf
fbd cc
be bbdd
bbbb bcc
bc ecbc
be dbec
dc dec
ec bbebb
bbbb dd
ebb dbc
be bba
bc def
bec ed
ee bbef
bc eeee
fc dbe
ec def
bc ecbe
bc eecc
bbc a
ee ebcc
ee ebec
bbc bbf
ecc ef
ebb ccc
ebb bdc
debb cc
be bbbec
bec ebc
bec dd
ee ac
ec eebc
bec ebe
f bbdd
ef ccc
bf ccc
bc eef
bc debe
bc eebd
bb d</w>
d bac
bf bdc
bec bbbb
bbbe ebe
ec ebcc
dbe dd
ebd dc
be eccc
bbc bbbc
bf ebf
ec ebec
ed dcc
ee ecbc
bbc df
bbbb bbbd
bec ef
bbd ebc
bd ba
ff dc
bf bbbc
bbc dbe
bbd a
bc ac
ebe bbee
be dfc
dbb eec
bbbe bbbe
be da
dee dd
ecc ebc
f bbfc
bec df
ed bebe
becc cc
d eac
bf bebe
ecc dc
bbd fc
ee dbbc
bbbb ebc
bec bd
bcc ef
ed bbbc
eecc cc
bcc ebe
bf edc
f dbec
ebb bbbd
ebb edc
bbc ebd
ebb dee
bc bbdc
ee bbbbc
ed bef
dc bbf
bec fc
bf dbc
ebe df
ee def
bbbb ef
ebb bef
dc dcc
ebd ef
be ebdc
dd dbd
be bbfc
bd ebbc
bb c</w>
bd bbec
bebd cc
ebc a
ec fbd
df a
ecc fc
f dbbbb
eec ef
bcc fc
bbbb a
bbebb cc
bc dbbc
dd dbc
ec fed
f bbebc
dd edc
ec eecc
dd bbd
df ef
debe cc
bec bcc
bb e</w>
ebb bebc
ebc ebd
dbe ed
ecc bf
f bba
bbbf cc
dbe bf
bbebb bbbb
ec ecbc
bcc bd
bcc dc
ebe bbd
df bd
ed bbec
ee bbdc
ebc ecc
bec eec
bc bbebe
ff bf
bcc eec
dd bdc
bbf bbbb
ebb beee
ec ea
bbbc bbc
dc dbd
ebd df
bbd eec
bbf ef
ec debc
bcc bec
ebd bd
ed bebc
ebe ecc
ed bbee
bf dee
ebe dbe
fc eec
bcc ebb
bcc ebc
bf bbee
ebd bbc
ebe beee
ec deec
ee ecbe
bcc dd
e be</w>
bb bac
bbf bbc
ff dd
ebd ebb
be dbbd
bd fee
bb bb</w>
fc dee
bbbb dc
bec a
ee dbec
f bbbec
bbed cc
ff ef
ebd eec
ed ebf
bc debc
ebe eec
ecc bbc
df bbc
bd ddc
be deec
ec bbbf
ecc dd
bc bbdd
ebd bec
bd beee
f dbcc
ee bba
ebb bbebb
f dbbd
ef eec
bf bef
ebb ebbc
bbbb fc
bc bbef
ec dbb
ebe ff
ebd ebc
fbf cc
bbd bbbe
ecc ccc
ef bbbe
ecc ebb
bc dfc
dd dee
edc ed
eec eec
bd fbe
dbe bbc
ec dbec
ebe ebf
ebe bbbc
bcc bbbb
bbf ebb
ff fc
ef bdc
dd ccc
dc bbbe
ee eccc
bebe bbbb
df ebc
ed bfc
ecc bd
dc ded
e bd</w>
dbe bd
bbbd bbbb
a ebc
dbb bdc
f deec
ebb dec
bc dbbbb
e bc</w>
ecc edc
ec dfc
be bbbbbbbb
ebe ccc
debc cc
ebd bbbb
ee da
d bb</w>
ebe bdc
bec dbe
ebb dbd
bbf fc
bd bcbc
ecc a
ef bbee
be dbcc
ebd a
ef ebf
ed ddc
ebe eeee
ef bbd
ef bebe
ec dbbc
ebd fc
ebc bbd
ec debe
bf fbc
be bbbcc
dbd dd
bd fec
ebb fee
ec bbdc
dc ebf
ebc dbe
f decc
bc eccc
edc eec
bf bfc
ed beec
ed fbc
bd debb
ebc ccc
bd efc
ebb bbec
ef dbc
bbf dc
be bbeec
eec a
ebe ebd
ef dee
bd bbcc
fc bbbb
bd beec
ee bbebc
ebe bef
ebc bbbe
ba a
ec bbbbc
bbf a
fc ff
ef ebd
bbc dee
dd ff
ebb eeee
eebd cc
bcc a
fbe bf
ee debc
f debd
bbc bdc
ed ba
bbc dbc
dbe fc
ee debe
ecc ebe
bd dbf
ebb fbc
bcbc bcbc
bbee bbbb
bc ebdc
bec dee
ecc df
dec dc
ec ac
ec eccc
be debd
ff a
ebb ba
be bbebd
ebb bfc
ed bbbd
ef bef
ec eeec
bc dbec
bbc bebe
bc bbebc
eec ebc
bbd bcc
f bbbcc
ee fed
ec eeee
be eba
ed def
ee bbdd
bbbb dbe
bbbc bbbc
ec eef
be b</w>
bbd bbf
dbb ecc
a df
ec da
ec decc
f eba
ed ebbc
dd dec
bd bebd
bbbb bebe
ee dbbbb
dbb ccc
bbbc bf
ef fee
d f</w>
ec eebd
ebf bf
bbd ebd
ed dbf
ebc bbf
bbbb bbebb
ed fee
ec ecbe
bd bbebb
bc bbfc
ebe dbc
bc da
bef bf
bbebe cc
bd fcc
bbc ecc
ec eedc
edc dc
eec fc
bd eebc
ebc dee
bd fbd
f b</w>
dd dcc
edc ef
bc deec
ff ff
ec fdc
f ebfc
df bec
ed debb
f dbbf
ee ebdc
ecc bcc
bbbb bbbbc
bdc dc
bbbe bec
bbee bf
febb cc
beed cc
ee dfc
bbc ff
bbbe dc
ed beee
fc ecc
ebd ebe
df ebe
eec ebb
a bec
eec bcc
fc bbf
dee bf
eebe ebe
df ecc
be decc
eec ed
bebe bf
bdc dd
bebe bbc
fc dbc
edc bec
df bcc
ec ebdc
bbd bbbc
bebf cc
edc dd
bbee ebe
bd bbed
dc bbbc
bdc bf
ebc dbc
dc fbc
dbe bec
df ebb
dbe bbbb
ee bbfc
eeee eeee
ee deec
bc bbbec
bbee ebb
f dccc
ec eebe
eec dec
dd ddc
eec bbbb
bbf ed
bdc ed
ebc dec
bbf ebe
a bcc
bbf dd
bc bbbbbbbb
da cc
fc bbd
bbbe dd
ef bbbc
bbbe bebe
bf dbd
df df
dbe ebb
bec ebd
ec bbdd
bec bbd
eec bd
ebc ff
be bbecc
dbc dc
dbe ebe
ef beee
ebc edc
bf dec
bbbc ebb
dbe a
ed efc
ecc ebd
fc ebd
ed fec
dc bfc
dc ddc
be dbbbe
f bbeec
eec dee
bf fee
bd ea
bbef cc
dc bebe
bdc ef
ebb bbcc
be dbbf
bf bebc
bbc dbf
bcbd cc
bd dbb
bdc ebe
ec fbf
bbbb bbee
bd ebec
bc dbbd
eec dbe
ee bbbec
eec ebe
bbf bbf
bbc bbee
bd becc
bc bbbcc
ee eba
ebb fbe
dc fec
bb eac
bbd bbbd
fef cc
dbe ef
bbbe ef
bc bba
edc df
ebc bbbc
dbc dd
bbbbc bbbb
ff bbc
bbbe ed
ee dbcc
dc bef
bbbe bbbc
ebe fee
bdc bbc
ec bbebe
be ebfc
dbb ebf
f dbdc
bcc df
ec bbebc
eec ebd
f e</w>
bf dcc
bbbe a
ebb bcbc
bebe bebe
fc bdc
ebf ef
fc dec
bec dbc
bcc ebd
bcc ecc
bf ba
bbbb ebd
ded dd
edc ebc
ec dedc
fbe ef
ee dbbd
f bbebd
bc debd
eec dbc
bbc bbbd
bbd bdc
ebb bbbf
ed becc
a dbe
bec ecc
a ff
bd def
bd bcbe
ed bbcc
ec debd
ec febb
bebe ebe
decc cc
bd bbbf
edc bf
bbbe bbf
dc efc
ed bbebb
df dbe
ec ecbd
ed bcbc
f bbecc
ebc bdc
bbd ff
ebf bbc
bec dec
dee bbc
fbe bbc
dc bbee
dbc bbc
bf beee
bf ebbc
bebe ebb
bc b</w>
ef edc
bd dbbbb
dbe dbe
ef dcc
a ba
bec bbbe
bbbd dd
bbebc cc
ebb ded
ebd ebd
ec bbef
bd bcf
bc dbcc
df ccc
bced cc
bf fbe
bbbe ebc
ec bdbd
bbbe bbee
dd ded
ebb dcc
bd debe
a ecc
dc bebc
edc ebe
a bbf
dd bbf
beebb cc
bec bbf
bd eebe
a bbd
bec ff
ebc bebe
edc fc
bbbe bbd
be dccc
bf fcc
ebf fc
bf bbec
ed fbe
bd ac
bd dbbc
bef dc
f dbbbe
bdc fc
bec bbbc
bbc dbd
bf bbbd
bef ef
ed bbed
bd bbbbc
ed debe
bdc eec
ebd dbe
dec dd
ebf dc
bd ebcc
bd bcbd
ec ecf
bd bbdd
bdc ebc
ebb eebc
ebf a
bbee bbc
ebf ebe
bcc bbd
ebb fec
ec bbfc
bbbe fc
ebb bbbbc
ed bebd
eec bbd
bc decc
bef dd
ebb debb
bbc bebc
ebb bebd
bd bcee
ebc bebc
dbd dc
eeed cc
ebe bebc
bbc dec
ebb eebe
eec ecc
dbc ed
dbb edc
bdc bec
bd fed
ecbe dc
dbc bf
fbe ebe
eec ff
dbc fc
be dbdc
ded dc
bbd bebe
ebd ecc
cccc ccc
a ccc
ebe dee
ef fbc
ecbd cc
be bbebf
bd eef
dbbbb bbbb
bcc dbe
edc ecc
ee debd
f c</w>
dbc ef
bf bcbc
bbd ecc
bd eeee
dd fbc
ebbc bbbb
bbc ebf
df ff
ed fcc
dc fee
dbc bbbb
bec bbec
f dedc
df ebd
bd bbdc
bbc bef
a eec
bcc ff
dc fcc
dee fc
ec dbcc
ebb ea
a ebd
df bbbb
ebe edc
a bbbe
ef dbd
bbf ebc
bfc bf
ef ba
bbf bec
df eec
bd eecc
ee bbbcc
bbbc ebe
ebbc bbc
ebf bbbb
dd bbbe
dee ccc
ed eebc
ebb beebb
ec dbbbb
ee bbeec
ef dec
ebc ded
bf bbcc
ef bfc
bbd bbee
bcbf cc
df edc
be dbbbc
f bac
ec eedd
ff ebe
bef ebe
dbe ebc
dcc ccc
bd ecbc
ecc dec
bcf fc
bbbe bcc
ebb efc
fbe dc
ebd dee
df dbc
ff ccc
ee b</w>
bbc bfc
ee dccc
dbe bcc
ebb beec
d eb</w>
ebb bbed
bd fdc
ee decc
ebd bcc
eebe ef
fbe bbbb
bd beed
beee ebe
bbd ccc
fc bbbc
ecc bbbb
eec ded
bdc bbbb
dc ebbc
bbee bbee
bbc bbec
dbbd cc
ec bbbec
bd ecbe
ba bbbb
eef bf
be e</w>
ed ea
bd eebd
df bdc
f d</w>
ee bbecc
bd bcec
bbbe dbe
dc bbbd
debd cc
bcc dee
bec bdc
bef bbc
ec eeed
f debf
bcc bbf
bef a
eebf cc
ed fbd
dd ebf
ef ebbc
bd fbf
bbbc bec
ed bcec
dbc ebe
ed ebec
edc a
bbdd cc
dbb ebbc
bbc fbc
ed ebcc
bbc bcbc
ebb bcbe
fdd cc
bc bbebd
bcf dc
eebe bf
dbb bfc
eeee ebe
d bd</w>
bbf ff
ee bbebd
ebd bbd
bdbd cc
ebb ebec
dcc dd
dbb ba
df bbd
bbc edc
ecc ff
be bbbdc
bcc bbbc
f bbebf
dc bbec
bcc bdc
bbbb ccc
bcebb cc
dd bbbc
bd debc
bf fec
bec bebc
ebb becc
f dbbbc
dd bebe
bf dbf
eef ef
eef ebe
fbe fc
bf fbd
bc ebfc
ec dbbd
bd beebb
bbbb eec
bef fc
ed debc
ea a
ebb bbebe
dcc dc
bf efc
f eac
bbf bbbe
dbe df
ebc ebbc
bcc edc
bbc ebbc
ebc bbee
bd eeec
dd bbbd
dbe ecc
f bbccc
ebc ebf
bc dedc
dec bec
bebe bbbe
a bbbc
ed beed
bd bccc
dee ebe
ebd ccc
ebc bfc
eebe bbbb
a dbc
d bc</w>
bbee bbbe
df bbf
ebd ff
eec bdc
a bba
fa cc
ebb dbf
fc ded
ebd dbc
bcf dd
d be</w>
fc fbc
bc bbeec
ebc dbd
bbbb bebc
bcc dbc
ebd dec
ebe ba
a dee
bebe ef
bd dfc
ecbe dd
bbd edc
febc cc
dc bcbc
ed deec
bbc bbcc
fc dbd
be dedc
bcc bbbe
bbbc bbbe
fc dcc
bbbb bdc
dc beec
a bdc
fee bf
ed eecc
bbbb dbc
be bbccc
bbd bebc
dbe ccc
ebb fbd
fc bef
dbbbb cc
ef bebc
be bbedc
ec bba
ed fed
ebd edc
ecc bdc
ddc dd
bbbb dbd
bc dbbbe
ebe bbbd
fbe dd
febe cc
ecc dbe
ebb fcc
bcbe dc
bcf bf
bbf df
dee bec
fc bfc
b a</w>
f bbbdc
ecbf cc
fc ebf
dec bbc
ec eeebb
bd febb
ebb ebcc
ebe bfc
bd da
ef eeee
bbbb bbec
edc bbc
eef a
bbbc dd
ebc fbc
fc bbbe
be bac
bbf bcc
bbd ebf
bcbe dd
bf bbebb
bd bedc
be d</w>
ed dfc
bbbd bbc
be c</w>
bd bebf
bc dbbf
ed dbec
ed eeee
bec bebe
bf ded
be dbbee
edc dec
ef ea
bec ded
dee a
bf bbbf
bbee dc
ff df
bbee dd
ebe bbebb
beee bbbb
be debf
ebf dd
ed dbbc
be bbebbc
eebe ebb
dee dbe
bbf dbe
bc dbdc
bc bbecc
beebe cc
ef bbec
eebe a
ee dbdc
dc ba
bba cc
ec edcc
ec bbecc
ebc bef
ebe bbec
ed bedc
dbd bf
ed bcf
eeebb cc
fc bebc
dbc eec
ccc dc
ef fcc
ebe ebbc
ee dbbbe
ccc dd
ed da
df fbc
ec dbdc
ff bcc
fbe a
dbc bec
ebd bbbe
eec bbbc
ed ecbc
bcbe bbc
ebc fec
ebd bbf
bd dbbd
bbbf bbbb
ebd dbd
eec bebc
ebe fbc
ebd bdc
dc beee
df dbd
ee dbbf
dee bcc
ebe dbd
bd b</w>
bbbe bbebb
ebe dec
fc edc
df dcc
bbee ef
bef bbbb
ec dccc
bcbe bbbb
bb bd</w>
ee bbebf
bd bbebe
ed bbbf
ecc dee
bbee a
edbd cc
ebb febb
bf ea
ec bbbcc
bec dbd
bccc ccc
beef cc
bbbc bbd
bbec bbc
ecc bbd
dc fbd
bd dbec
bfc bbc
dc eebc
eec dbd
bdc a
ebe bcbc
ed bcee
dbe bbd
dbc ebc
ebb bcf
f dbfc
eec bbf
ecebb cc
bbbc ebc
fee ebe
df dee
bec ebbc
ebd bebe
bd deec
ed ac
eebe bbc
bc c</w>
beee bf
bbbc ef
bbbb bbcc
dc eecc
ebe bbcc
bdc ebb
ed dbb
ebe dcc
ebf ebb
dbe bbbe
fbe bcc
bcbe bf
efc df
bfc fc
bbd fbc
bbbc bcc
e bf</w>
ebc dcc
bebc bbc
efc bf
ecc dbc
dec bf
a ebf
eec bbbe
edc dee
dc dbf
bbbb ebf
bbbb df
f dbbee
ebc bbec
dd bfc
fbc bf
dc ebec
ec ebfc
dbd bbc
ebb ddc
ef ddc
bbf bbd
bc dccc
bbbc fc
ebc bbbd
f bbbbbbbb
bec bfc
bd bbef
ed bcbd
ed bcbe
bedd cc
ba dd
ef bcbc
fee dd
ebbc bf
bb f</w>
ecc fec
ec b</w>
ec bbeec
ef fbe
ed bbdc
ed beebb
ba bbc
ebb bcbd
ecc ded
edc edc
dcc fc
ebd bebc
ec eebf
ebb ecbc
bbbc dc
dbe bbf
ebc bcbc
bcf bbc
ebb eef
bbbb ff
dbe eec
fc bbec
bebe bec
bebe a
ee ebfc
bcc dec
bcf ef
bdc df
bbbb ebbc
dcc eec
bbbb bcbc
dbe dee
ec bbebd
ba bf
ed bccc
fee dc
cc ccc
bbbb dee
bec fbc
be dbfc
be bbba
bebe dc
ff bbf
bbc bbebb
bbbd bf
ebb bebf
ebb eecc
fbe bec
bbbb bbbf
dbc a
ea dd
bd ebdc
ded bbc
ef dbf
bbbb bef
edc ebd
bbee bbf
ecc bbf
ebc eebc
bbd bbec
edc bcc
f bbedc
bec bef
bec ebf
bbcc bbc
eef dd
ecbe bbc
dee df
bdc ebd
dc debb
bc bbccc
ebb bbbbbbbb
dbe ebd
be debbc
bcef cc
ccc fc
dc fed
bbd bef
ebb eebd
dbc dbc
ee dedc
bdc bcc
eec dcc
ec edbd
bbd bfc
bebe dd
bf ddc
bb bc</w>
fec dd
ef bbbd
ed fdc
dec df
bbf bbbc
a ea
beee beee
bbbb ecc
d ee</w>
dec fc
bdc dbe
eebe bbbe
bc eba
ebb fed
bcebe cc
ebf bec
dbc df
fee ef
bbd ebbc
bc debf
bebe fc
bbebb bbc
ebb bcee
ee d</w>
ecc eecc
bebc bec
bd bced
ff ed
bebc bf
dec dee
ebd ded
bd fdd
ef bbcc
dc bbcc
a dbd
ebb eeebb
eedd cc
fbe bbbe
a edc
bbc ded
bebe bcc
dec ebc
ff dbe
bec bbee
dc becc
bbbb ba
bf beec
ef efc
f debbc
ebb bbdc
f bbbfc
d ed</w>
ecbe ecc
eef bbc
bd eccc
ebbc ebc
ecf fc
a bbee
bd eedc
dc fbe
bcc ebf
ff ebc
ebe ea
be defc
fbc bbc
fbc fc
be bbbfc
ef ded
bb eb</w>
bebc bbbb
bbbbc bbc
ebb bebbbb
bec edc
dc bebd
bcbe fc
bcee dd
df ebf
dc ebcc
bbbd bbbd
f dba
dbc ccc
bf ac
beee bbbe
bd fef
ebb bcec
dbd bbbb
df bbbe
beee bbc
bebe bbf
bea cc
bdc dee
eec bfc
bc dbbbc
eec edc
ee c</w>
ed eebd
ebc efc
d ec</w>
dbbf cc
dd bbee
bebe bbee
be dba
fbe bbf
ed decc
beebc cc
bdc ecc
dd fec
ebb dbbc
ebd bbbc
bf bcf
bec beec
bec dcc
ebb fbf
fc fee
bd ecf
dd bef
bbec bf
bebe ebc
ebbc ebe
dbd dbd
ecbe ebc
bcc bfc
a bef
ee dbbbc
eeee beee
eef dc
bbd ba
bdc bdc
bbd bbcc
ef fec
ddc dc
bd bebbc
fecc cc
edc ff
fc bcbc
bbebb bbbe
ebb bccc
dbc bcc
ccc bcc
bd ecbd
a fbc
ebf bbf
ebb dbbbb
edc dbe
ed bced
ebf ebc
bb be</w>
bbc ba
fc beec
fbe ff
dee bbbb
bf debb
ebf bcc
ecc eebc
ed bbbbc
ebf ff
ed eeec
eec fec
bd ffc
bbbc bbf
bf becc
ee e</w>
eba cc
ebc beec
dbe ff
dc bbed
bd bbfc
bbbc ccc
fbc ef
bd debd
ebc debb
dbc dee
bbc beee
bec bbbd
ebbc dd
bbbe ebd
ebb beebe
f bbba
df bfc
bf bbed
ebc fee
ed bbebe
bbbc a
ed bbdd
debf cc
dbc dbe
beee bbee
bcf ebe
bbd bbebb
dcc ef
ed eef
bc bbbdc
ebbc fc
dd fcc
bf fbf
bbec bbbb
dec bcc
ed bdbd
dd bebc
ecc bbbe
eebe bbee
dd efc
bfc ef
dbe bdc
ee bbbdc
bef df
dee ef
ec dbbbe
fec df
ee bbedc
bc e</w>
ebec bbc
ebc bebd
bd bbebc
ed eccc
ccc bbc
ecc bebc
bcc dbd
a bebe
dbb efc
bcc bebe
ebc ba
ec dbbf
dc ea
ff bec
dbc ebb
fc fcc
bd bedd
dbe bbbc
ebbc bec
bbbe bebc
bef bbf
bcbe ebe
be eac
ccc ecc
bcbe bec
bf eebc
bbbe bbbd
bbbe eec
bd bebbbb
bcbc bbc
dc def
dbc bbd
a fee
f defc
ff ecc
bf bebd
edc ded
bcc fbc
bcebc cc
bd bcebb
f bbebbc
bf eeee
fbe ebb
bbec bec
eec bebe
ebc bbcc
ebc becc
bbc fee
bc d</w>
bbbb fbc
bd fbbc
ed bebf
ecbe fc
bd ecec
ebf df
dee ecc
bbbb bfc
dd fee
dbe dbc
bbebb ebe
ebb bbdd
ebd bfc
dbb ebec
ec eba
bd bcbf
bdc bbd
fc bbee
bbbd bbd
bcf ebc
fec dc
fc ebbc
ebb bbef
bef bcc
df dec
bd cccc
bdc ff
bd eeebb
bbc dcc
ed fbf
ecc efc
eec becc
bbf ccc
ed cccc
dee ebc
bcf a
bebbbb cc
ec c</w>
bf fdc
ecc dcc
bef ebc
ebb ac
bc dbbee
df fcc
dbd ef
ba ebe
bbee dbe
ecc fbc
ed dbbbb
dec ef
bd bba
bef bec
bd eebf
eec bbec
bbf ebd
f f</w>
ebb debe
ed debd
ebb bedc
dec dbe
eec beec
dbc ebd
bbebd cc
bfc dc
bd dbcc
bbee bec
ff bbbb
ed eedc
ebb dbb
ed ebdc
ecf dd
fc bebe
bfc dd
beee a
eec ebbc
bbee bebe
ba dc
bcee dc
fbe df
efc dc
fdf cc
dbf dd
bc bbebf
bf ebec
bbc bbbbc
ee bac
bfc ebe
dbc ecc
dec ebe
fc fec
ef fbd
bd bbbec
bf ebcc
eec debb
ebf ccc
efc dd
fbe ccc
eec bef
be bb</w>
eec fbc
bbd fee
bfc df
bbdd dd
ef bbebb
fbe ebc
ebb ecbe
ebb beed
dec dec
ebd fbc
bd bcdc
bbc fec
bc bac
ebe bebd
bd eeed
bcc bbee
bebe bbbc
bbbd bbbe
bf bccc
eebe fc
ea dc
ebe bbbf
ee bbccc
bcc bef
ebb debc
bbcc ccc
ebe beebb
eebe dd
bbc beec
bbf ebf
bec bcbc
bbd beee
ed febb
eeef cc
fed dd
bec fec
bfc a
ec eeebe
bcc dcc
dbe bebe
dbb bdbd
eec ba
eebe dc
bbcc bbbb
bf def
dbf fc
bbbe df
ec efcc
fbe bbee
bf ecbc
dbd fc
beee bebe
dbd ebe
a dcc
bbf bebe
ecc ebbc
bd febe
bbecc cc
bf bcbe
ef beec
eebe ebc
eef bbbb
dbd df
bebc ebc
ee dbfc
ed dbbd
ec e</w>
bef dbe
bbee fc
ebf bbbe
fee a
dbd a
bd ecee
ebb bcebb
bbbb dbbbb
bcf ccc
bef ccc
bd decc
dc eebd
ed bedd
dec eec
bbbd ebe
eeee ef
ecc bbbc
bcdd cc
ecc bfc
bcc bcbc
dc fdc
ded df
bd beebe
bdc dbc
beee ef
ecc ebf
ec deecc
bcc bebc
dee dbc
bbed dd
debb bbbb
bbf eec
ebd ebbc
bbbe ff
ebb def
bbee ebc
ecdd cc
bbbd a
ebb bebbc
bbbf bbc
dbbbe cc
dee dcc
bbec ebe
eef fc
eebe ebf
dbd dbe
bd edbd
bf bcee
bcc ded
a bca
bfc bec
ecc bebe
efc ef
bd d</w>
bcbc bbbb
bcc fec
bbbe ebf
bbbc eec
ebd ebf
bbbe ccc
ebc fbe
ebb ebdc
ecf bbc
cccccccc cccccccc
ebb eeebe
ebc fcc
bbd bebd
ba ba
dc bcee
fee bbc
ec debf
ecbe ccc
fbc df
ebbc ef
bf bbbbc
ebe becc
fc dbf
dee dee
eebe bbf
bcbbbb cc
bbebe bbbb
f dbbcc
ecc fcc
ebd dcc
bbbc dbe
ba ef
dec a
dd fbd
bd bbbbbbbb
bec becc
eeebe cc
ebb eebf
dc beed
ecc dbd
dbb ea
ebe ded
fbbd cc
bbbc bbbd
bdc edc
ec defc
ec ebccc
bbbc ed
eec bcbc
bbd bcbc
ebc eecc
bdc dbd
a bfc
bbbf bf
bbc bebd
bcf bec
ec ebecc
bbf bbee
eebe bcc
bcbe ef
be dbbcc
ed dbcc
ccc ef
ff dcc
ec debbc
ee bbbbbbbb
bbc eebc
dbe edc
eeee a
fbc bec
ebb bdbd
bebc ef
dee bbf
ebd debb
bbd beec
ebb bbebc
dd ba
ed bebbc
bbd eebc
ea ebe
ebd bbee
dbc bbf
fc eebc
ee dba
ebc ddc
bebc ebe
ecf ef
ecbe a
ecbe ebe
dbe bbee
ebd bbbd
bbbe bbec
ff ebf
bbd bbed
dc eeec
dd ebbc
bcc bbcc
bd beef
bbc efc
ebb fdc
bedbe cc
ed bbef
beec bec
ed bbebc
ee dbbee
ded bec
fc efc
a bea
ebc ebcc
bdc dec
bc dbfc
dbc ff
dd dbf
bbbb beee
dc debe
bcbe dbe
dcc ecc
eec fee
dc ecbc
ed dedc
ebb eeec
bbc bbed
bbbc bebe
bf fed
bbcc ebe
dc eeee
ed fef
bc bbedc
eef ccc
fc ba
be bbea
bbbe bdc
bcf df
ebc beee
bf bcec
ac a
fec bec
ebc ebec
fc bbbd
ebf ebf
ebd eebc
beebb bbbb
dc dfc
dee bdc
bbf ecc
dcc ebe
dbd bec
dd bbec
bbf bfc
dd beee
dc bcbd
fcc ccc
bbc debb
bcbe bbbe
ecf ccc
fc bbcc
ea ea
ebb bbbec
ec bbccc
ecbe bcc
bbbc df
eec bbee
bbc ebec
ebb dfc
ff bdc
bbbb bbed
ff bbd
eef df
bbbc ebd
bf bcbd
ed bcebb
bbc bbbf
bbf dbc
eec bbbd
ebc ecbc
fdbe cc
bf bebf
ed ecbd
ecc becc
ebc dbf
bbf fbc
a dec
bec fee
ec dbbbc
fcc ef
ebe bbebe
bec debb
bcc bbec
eeee bbee
bd edcc
dc bccc
fbe dbe
ff dbc
ec dbfc
fbe ebf
bebc fc
eec eecc
ebd fec
dd debb
bd fa
bbbe dbc
eec ebf
bec ba
dee bbd
eeee bbbb
ed eebe
ee debf
bcbe bcc
dbd bbd
ec bbedc
dcc bbc
ecbe dbe
ded bf
ded ccc
bfc bbbb
dc eccc
edc dbc
bcbe ebc
eeee bf
bbf dee
eec eebc
bec bbcc
fc def
bcc efc
ef bbbf
ed fdd
bbbd bbee
edc bdc
dc bbebb
bbbb bebbbb
bec efc
ebe beec
ed bcdc
edc ebb
eef beee
fbbbb cc
ee ebccc
ebc fed
dc bcec
eeee bebe
ee bbebbc
eec bebd
bcbe a
bbf bef
bd febc
ef ac
eebe ecc
febd cc
eedbe cc
edc fec
bbd fec
ded dbe
fbe bbbc
ef bbed
bec eebc
bbbe beee
bc bbebbc
bbbe bef
edc bbbb
df bbbc
bbd fbd
ebe fcc
ecf a
ebd bef
ec d</w>
bcf bcc
fbc dd
fc becc
dbd dee
bd bbbcc
ebb bced
be debec
eec ddc
bd bbebd
bbbe ecc
ef fbf
f dac
ecbe bbbb
dcc bec
dec ecc
fbe bdc
bbd efc
bcc ebbc
ff ebd
fc ddc
ed bbfc
ded dee
df bebe
ed ecec
dbe bebc
bbf bdc
dc ac
bf dbbc
def dd
ebe bbed
bcc bbbd
df ddc
dbe dbd
fee ccc
ebb eccc
dcc ebc
be debcc
bcf bbbb
bbec dd
bbc becc
bbec ebc
f dea
bbbc bcbc
eec efc
ba fc
ed ffc
bcf bbf
ebe eebc
fcc fc
ebb eedc
ea ef
bfc ebc
dec dbc
bd dbdc
dd eebc
bf febb
a bbbd
bec bebd
dd eecc
f bb</w>
bc debbc
ebb fef
ed b</w>
ebb dbec
bcf dbe
bbd ebec
bf eef
ebf bebe
ec bbbdc
dbb ebcc
dec bbbb
f bbefc
ecbe edc
eea cc
bd eedd
beec bbc
ebb bbfc
ebbc bbbe
ac ba
dbc bbbe
ebe fbe
ebb febe
ebe debb
eec bbcc
eebe ccc
ebb bba
bfc bcc
ebbc a
fec bf
ebc bbed
bbd bbbbc
bd ecdc
ebd efc
ebc fbd
fbc bbbb
ecbe bf
d ebac
ec bac
bebc bebc
ebbc dc
bbc fbd
ebf ecc
ee debbc
eef bcc
bd dbbbe
ebc eebd
be bbebec
fbc ccc
bec ebec
fc fbd
eebe ff
dbf dc
ebe efc
bbebf cc
ebb ecbd
be bbefc
f debec
bbc fcc
ebc bbebb
dbb b</w>
dcc ed
bbcc ef
bd ecbf
dcc bf
bef bbbe
eeee ccc
ee eac
ee bbba
ff dee
bd eced
ebb bcdc
dd bcbc
fc ebec
ecf ecc
bbbc dee
ebe ddc
fc debb
bbbd ef
eebe bec
efc a
bdc bbf
eef bbf
edc eecc
ebf bef
ebd bbec
bbebb bf
f debcc
bebe beee
bebc a
fec bbc
eec fed
dc deec
f bbea
ed beebc
bbbc bbee
bc defc
ea bf
bcf ecc
be dea
ef ecbc
df bbee
bebbd cc
ebb beef
dd beec
ebe fbd
ed ecbe
eebc bbc
dd bbcc
bc bbbfc
bbbd dbd
ef ebcc
a beee
eec dbf
dc eedc
edc bbd
fee bbee
ebbc bcc
dc bbdc
bcbe df
bebe ccc
dc bbbf
beecc cc
dc dbbc
ecc bbee
ebe ebcc
dbe dec
dc bedc
bbbe dee
dcc dcc
ecc fed
bef bbee
fbc a
bbed bbc
ebb fbbc
efc fc
ebb bebbbe
bdbd bdbd
ebb dbbd
fbe bbd
ee defc
ebb bcbf
dbbbc cc
ebd bebd
ef bebd
ebd ba
ecc ebcc
ebbc eec
dc debc
dddd dddd
ebe bccc
ebe beebe
bddd cc
ebf fee
efc bec
dbd ebc
ef debb
dd bebd
edc eebc
efc bbc
bebc eec
ebe fec
bf bbdc
bbbb bebd
bbbe bbcc
bbd bbbf
ebd ddc
ef def
ecbe dbc
be deecc
ebe dbf
bcbc ccc
ebe bbbbc
dee ed
ff fbc
dbe ebf
bbec df
bcbe bbf
dd becc
bbbd bec
ecbe bec
bd bfcc
bd dbbf
bcee bbc
bd ebfc
ef becc
bc eac
bc bbba
a ac
bbbc bebc
eec fbd
ebd fee
dbb ecbc
eef bebe
dcc bcc
fbc ebc
ebbc bbd
bbbc dbc
fbe ed
ec dbbee
bd bbeec
fed df
edc bebc
ded a
ecf bcc
bfc dbe
bd dedc
eeee bbbe
fbe ecc
dbf bf
bdc bbbe
bbf bbbd
ebd beec
bbcc bf
eec ebcc
bedf cc
bbbb bbebe
bebe bbd
bec beee
ecdf cc
ebd becc
ebc ea
ed befc
eec bedc
ccc bf
a bbec
eef bbee
bfc ff
dd ebec
e a</w>
ed bcbf
bef ebf
ef bccc
dcc df
bebc bbbe
ebc debe
dee bbbe
bef bebe
ebb bbbcc
bbcc bec
ec dbecc
fee ff
ded fc
dd fdc
dd ebcc
ed beebe
bbec fc
bbebb bbebb
dbc dbd
dee bbee
bcee bf
debb bbc
eddd cc
ebe eeebb
fbc dc
ea bbc
f deecc
beee eeee
df fec
fbbf cc
ee deecc
ebf dbe
fcc bec
bbbd dbe
bf beebb
ed fbbc
bbee bcc
edc dbd
ebe ebec
bcf eec
bf bbef
bbf bebc
dc bcbe
bbbc bbec
ebd eecc
bd eebbc
bec bbebb
bbcc fc
ff dbd
bec ebcc
df fbd
ebe bebf
ebb da
bfc dee
bcc fee
bbbc bbbbc
ded ef
bbd bbdd
bbbc bdc
ebb bedd
df bef
ebbc dbe
bbd becc
bf bbebe
ddc fc
bbbd dc
dea cc
ebe bcec
bcbc fc
eef bef
ecf bec
ebe ecbc
ff bbbe
dbc bdc
ecc bbec
ef bcec
bcc fcc
bbbb bcbbbb
dbe dcc
bd e</w>
bcc bccc
be bbebcc
ecf ebc
bcbc bf
ecc eebd
bcbe ccc
ebcc bbc
a bebc
ff fee
a fcc
bbf dbd
beec df
ebbc df
bebe bdc
ff bef
eef bec
ecc bef
ecc eccc
ef fdc
ef eebc
ecf edc
fc bebd
bcf ebd
bbbc bbebb
dd bbed
ef ebec
bcc eebc
bbcc ebc
ebbc bbf
dc fbf
bca cc
bbbb beebb
dbd eec
bf fef
ebbc ebd
bdc ebf
ecc beec
ecc cccc
ecbe ebd
bbd bdbd
fbd dd
ef bbef
bcf edc
bf eecc
ded dbc
dcc a
fc bbed
fbc ebe
dee ebd
dbd ccc
ebc bedc
ed eeebb
ff bbee
eebe bdc
dbf bbc
bec bbed
ee bbbfc
bbbe bcbc
edc efc
eec debc
ecc bcbc
dec ebd
bebc dd
a fec
ecbc bbc
fc ebcc
dbd dbc
bebc df
bbbd bbf
bbd bbdc
ecbe dcc
eec beee
dbd bdc
bbbe ebbc
bcc beee
fbe dbc
bbbd df
ec debcc
bec fcc
dbbee cc
dd ea
bbf fee
ebc bbbf
dc ebdc
ebf ed
bbee beee
bebbbe cc
ebc debc
bcc eecc
edc dcc
ba df
ecc ecbc
ecbe ed
dee eec
bd ecebb
dec ded
bd c</w>
dbd ed
bf dbbbb
bf dfc
eef bbbe
eebc bec
ebb bcbbbb
bcbe ed
dbf ef
dec ed
ecee ccc
ec bbebf
eec dfc
ecc eedc
eef ebf
dc fdd
bcbe bbbc
ee bbea
bfc bbf
a bbcc
ebc bcec
ebe eebe
bbec ef
bbd fcc
dec bdc
edc bbf
dbb ac
dd bbdd
ebec bbbb
fbc bcc
dbe bef
dc bbdd
dbc bbbc
edc ebf
fee fc
dd fed
fbc ff
ebd bcbc
eebbbb cc
bbec dee
fee beee
bc bb</w>
bec dbf
fec ef
ebe eeebe
a fbd
bebe dbe
ebe bcbd
bb ee</w>
bc dba
bbd fbe
dd def
dd bdbd
eef ebc
bebc bcc
ecc bebd
bf debe
ebe bcee
bbcc bcc
dc dbec
bf eebd
bbbc ebf
fc beee
ebb ecec
dc decc
ecc ebec
bbbb bbdd
dbe bbbd
bcbe eec
fcc eec
bec fed
bbbc ff
dddd cc
bbc ddc
bbbb debb
bbee ccc
bebbf cc
bbc bccc
bebc ccc
bbbe dbd
bec fbd
bf da
bcf ebf
ed beef
bbbe ba
ef fef
dbe bbec
bbbe bbbbc
bf fdd
ded bcc
ed bbbec
bbee bbebb
bebe bef
fc dbec
dec bbd
dbf a
ee dbbcc
ef bcbd
bd ebbcc
ebe dbbc
ebb bcbbc
bebe ebf
bdc fbc
ed febe
ebb eeef
ebb deec
ecc ddc
fee bbf
bbbd bbbc
ded ebc
dc ecbe
ea bbbb
ed eeed
a bcbc
bbee bbd
dec dcc
bbee bbbc
ff edc
bcc ebec
bbc fbe
ef dbbc
ebb bdbc
ed beecc
bfc eec
dc ecec
bbed bbbb
dd fbe
ef bcee
beec bf
df ba
ef bbebe
dd dbbc
dbc bebe
ef bebf
bbbd ebc
bcbe ecc
df efc
ebe bbef
bd dccc
ed edcc
bbbe bbbf
df bebc
dcdc dcdc
bbec a
bbbd fc
bef bef
beee fc
dbc dec
dc ffc
fbc bbf
bbebb bbbc
ebe fbf
bcbe dee
bbbb edc
ebb cccc
bec eecc
ebcc fc
bbbe bfc
ebc bcbd
ff eec
dbd bcc
bcbe bbd
eebe edc
fbc eec
dcc dee
bdbe fc
ebc def
eeee bbc
bebe ecc
dc eeed
a bda
ea fc
ec bbbbbbbb
bbec dbe
bf beed
beee bbf
ecbe bdc
bdbe bec
ebe bbdc
ebbc bbbc
bbcc eec
fbd df
fec bcc
dd debe
ed dbdc
bf eccc
fee bbbb
ee ecccc
ef beebb
ebec bec
beebd cc
dc bced
ef bcf
ecc debb
bcbc bcc
dcc ebd
ec ecccc
fee df
ebb ffc
ebf bdc
bebd bbc
bbec bcc
bbf ba
ebcc ebc
fbe eec
ed bba
ebb fdd
eef dbe
bcbc dd
fbe ebd
ded eec
bcbbd cc
eebc fc
dc bbbbc
bf bcbf
ebf eec
bcdf cc
dcc edc
fee bebe
bbcc dd
bebd bbbb
ebf ebd
ebcc ebe
ecc fbd
ed ecdc
da a
bef bbd
ebb fbbbb
becc bec
bd debf
bbec bbd
ccc eec
ed edbd
ecf eec
ebf bbd
dee dbd
bbebe bbc
bd bbecc
bb ebac
ed dccc
ff bebe
becc eec
ebf bbee
bd eba
ded dec
bf dbb
bba bbbb
fee bcc
bdc fec
a ebbc
f bbebec
bd dbbbc
beee dd
edc fbc
ccc bec
ff fcc
bcee fc
ebd dbf
dee bbbc
a ddc
bbbbc bbbc
bbc bbdc
ebc bccc
dc bcf
ebc dfc
edc fcc
bbebb bbf
dd eeee
ed eedd
bbbe fbc
bebe bebc
bbbb dec
bdc bbbc
ebd fcc
bdc ded
dd dbbbb
edc bfc
bc dbbcc
dc febb
edc ebbc
dbe fbc
ecf df
dc da
dbe bfc
bbc bcbd
ebe febb
bc debec
ebb febc
ebd fbd
ecbe ef
dbe bcbc
ebe bcbe
bebe df
ecbe bbbe
d ebb</w>
dc bdbd
a efc
a bbbf
eef ecc
bec fbe
bbbb ebec
bbee df
dc eebe
ebb debd
fec fc
bcc ba
a ded
dc dbb
fee bbbe
ddc ef
bef eec
ee dea
a bbebb
dee ff
dc ecbd
eebc bbbb
bebd dd
bef ebd
beec dd
fbbbe cc
ebf bbbc
be f</w>
ebcc ef
dec bbf
ea df
ebc bbbbc
ba bbbe
dbd ebd
fbd ef
bbec eec
dc bebf
ddc bbc
bebe bbebb
ba bba
bd eeebe
ebb bbebd
dbc edc
bcc becc
bc deecc
ecbe df
ebb eebbbb
ecee bbc
be dbbbbc
ecc fee
beee ccc
bbf bbbf
ff bfc
bbf ebbc
fbe bfc
fbd bf
bcee dbe
f eb</w>
bdf df
efc dee
cccccc ccc
bcee bec
bbbbc bbbbc
ee debcc
ebc eedc
a dbf
bcbe bbee
bbd bcbd
ebcc eec
ba bec
dc bedd
fc fed
ed d</w>
eebbd cc
bdc dcc
edc becc
ff bbbc
ebc bbdc
ebc eccc
bcc beec
bbc eebd
ed ecf
ebcc dd
dbbc bbbb
ac ea
eebe ebd
bebc ebd
debb dd
ec dea
bebc bbd
fcc df
bc ecccc
dc beebb
edc beec
ebc ebdc
bcbc ef
ecbc fc
dee ddc
eecc ccc
ecbc ccc
bdc efc
ebf dbc
bf debc
bcf bbbe
bdc bfc
bbf edc
bdc bebe
dee dec
fc bbbf
bec ddc
ebc beed
bef ecc
eebe bbbc
bbc def
bcbe ebd
df dbf
dee bbec
bb ed</w>
dc eef
a da
bec bedc
bcbe dbc
ed fa
bcf bbd
d bf</w>
ebc eeec
ef fed
ebbc ebb
bbbb beec
ecc bbcc
bcf dbc
bbebb bbd
ebe eecc
dee ebb
bef dbc
bbebb bec
bd bbbdc
df ded
ec eac
a eeee
ebd debe
ba bcc
ed bebbbb
eec fcc
becc bbc
ba bbf
bf ecbe
dc bbef
edc debb
ec dba
ebc dbbc
df ebbc
bef bdc
ed febc
bbd ea
bebe ebd
bbc bbbbbbbb
bebe ff
bbbe bbbbbbbb
fc bccc
bbbb bbdc
bebd bec
bbbb fee
ed eebf
bbc ebcc
ba dbe
efc bcc
bf bedc
dec ff
bbf bbec
ed bbebd
bbc dbbc
bbc fed
bef bbbc
ebb eeed
ef bbdc
ecc fdc
eec ea
fc beed
dc bcdc
df bbcc
bbbb dbf
bcbc bec
eebe bbd
ebf beee
dee bebc
eca cc
ebb ecf
fdbc cc
ed bebec
bcc ddc
ecbc dd
ef febb
ebd beee
bd ecdd
ed bea
bbc ea
bf bced
eebc dd
ed dbbf
bbbc dbd
bbc debe
eebc ebc
bbbd dbc
eeee fee
bbec bbbe
ebb bdbe
fc bcec
df fdc
ebd ebec
bbc eeec
ebb decc
ed bbecc
ec debec
ded ebe
dbe bbcc
eec def
ebcc bec
ebb edbd
bebe dbc
fc eecc
bbed bec
eec ebec
eeee bbf
bcf bdc
ebbc dbc
bbbc bbcc
bdbd dd
beebb ebe
bbebb ef
febf cc
bbed bf
ecc bedc
dcc dbe
bbbbc bbbe
df fee
ebf edc
df bcbc
ebd bbcc
bbbd bcc
ecbe bbd
ebb edcc
bb ec</w>
dc ecdc
bbebb bebe
bbbb bcbd
fec a
ebc bcee
ecc eeec
ba bbd
bbc bcee
bebc dbe
bbc bcec
bfc bbd
fc bcbd
eebe eec
fc deec
ecc ea
f be</w>
dcc ff
dec dbd
bebc bbbc
ec deccc
bcc fbd
ebd ebcc
bf ecbd
bc dbecc
becc ccc
dc eedd
ec bbbfc
ebb dbcc
bebc bbf
fc ecbc
ec bbebbc
bbbf bbf
ebbc dee
bef dee
bf bbfc
bec beed
fed ccc
fcc dd
bbbe edc
ed bfcc
eedf cc
ef beebe
ebf bfc
beee bcc
bcf dee
dd ac
ebd ecbc
ddc eec
dc bbebe
a fbe
efc ff
dec beec
bbc ecbc
ebc fdc
bd ebbebb
dcc dbc
ebb b</w>
bdc bbee
ef beed
bbbf bbbe
ed bebcc
ebb ecebb
dbb bddd
dbb ebdc
ebb fa
bcbc ebe
ef dfc
dbd bbbe
f bbebcc
bef beee
ecf ebe
ebec a
bf fbbc
bbbd bebe
ebd fed
ebb bdcc
ebd ea
bbc beed
eebc ccc
ebbc ecc
ebec ebc
bd efcc
bf bcebb
dc fef
bbbc ecc
ebf dee
ef da
edc bebe
bec def
bccc cccc
fc dfc
ebb eebbc
dbc fbc
bd eeef
dbb ecbe
ebf fbc
fee fee
bdf dbe
bbc eecc
dbd bbf
bcbe bdc
ed bcdd
bec ecbc
bbbbbbbb cc
bbed df
bcf bfc
bbbd eec
ff ddc
ed dbbbe
ec dedcc
dc ecee
ebbc bebe
bcc dbf
bebc dee
bbec bbf
ccc ebe
ed bcbbc
bf eebe
fc fbe
ebc febb
edc bbee
dbd ecc
edc bbbe
bbebe bbbe
eeebe ebe
bebc bebe
ecbbd cc
beec bbbb
bcc ebcc
bcbd dd
eec dbbc
dbc bbee
dcc bbbb
ebec dd
bf bbebc
ba ff
fbc dbe
eec ecbc
ef bbbbc
fc bbebb
fc bedc
bbbd dee
bf eebf
dba cc
ebec bcc
bbf bbebb
fcc bbc
bf ffc
ef beef
efc dbe
bbee ebf
bcee ccc
ed debf
bcee bbbb
dbf df
ef eccc
ebbc bdc
eef bdc
bcec dd
dbc ded
bbf dec
bdbc bbbb
ebc bebf
bdf bec
ddc ebe
dbd bbbd
dbbbb bbc
bf ebdc
ed bbbcc
eec bbed
be debdc
eec eebd
bcbe ff
bbbc bfc
bbd eecc
bbd eebd
ebbc bbee
ebd debc
dbd ff
dc dccc
ded bbbb
ee bb</w>
bebc ecc
bc debcc
be be</w>
bbc eeee
df bbec
fc ea
fbe ba
ebb ecdc
bbf bbcc
bf bebbc
dc bcbf
bbf bcbc
bcc fed
ddc ecc
dddd dd
be eb</w>
ebd eebd
bebbbc cc
ed bcfc
beff cc
bbbc ebbc
bcec bec
fec dee
becc ef
ebb eedd
ded ded
bcec dee
bbec bebe
bdc bbbd
ed eced
efc ebc
df ac
fbd bec
bf dbec
fbd bbc
bebbee cc
fc debc
fc ac
dbb ecbd
be dac
ed bcebc
ebf bebc
ddc ddc
bdbe bbbe
dd eebd
becc ebc
ebe ac
bdbe a
dc dbbbb
bf febe
ec dbbcc
bbebb a
dbe beec
eebc a
edc fed
bdf bbbb
bcf bbbc
fec dec
dd dfc
dd eccc
ecbbbb cc
eef bbd
bcc bebd
bbc beebb
fbe dee
ecf bdc
ebd bbed
efc eec
ecc bbbd
ebe beef
ecc bccc
dc debd
ba bca
fbc dee
dc edcc
fc fbf
bbc fbf
dc dbcc
bef ebb
bbc bebf
bd dbbee
dc dedc
bec bbbf
bfc dbc
edc fee
bcbc bbbc
eef ba
debb ebe
bbbbbbbb bbbc
bdbe dbe
ecf bbbb
eebc ef
bbbe dec
efc dec
bf cccc
dd bbebb
bc dea
bbdd bbbb
eeebb bbbb
bf bba
bbc bbebe
bbd ebcc
dd bbdc
edc bbbc
ecbe eec
edc eebd
bdc bebc
ebb bebec
ebec fc
bbc bbef
bbd fed
dc b</w>
eebe dbc
bcee ebe
bbee ff
ccc ebc
bbee dbc
ebb bdebb
ecc debc
bbed ebe
bbed dbe
bcee ebc
ea dbe
bbbf a
bcee df
edc ebcc
ebb beebc
bec debc
eef dee
bc bbefc
ecc beee
bf bbdd
bf eeec
bf bdbd
ecc dbf
efc bbbb
edc ebec
fec ff
ef eecc
dbb bdbc
eec decc
fee dbe
bbbd ebd
bbbf fc
bbd eeec
bc bbebec
bcee a
dd bcbd
f deccc
eef dbc
fec dbe
dd eeec
be bbac
dc eebf
dcc bdc
ecc edcc
eebe dbe
bbee ebd
fdc df
ebb dbbbe
bebe eeee
ff dec
ccc df
eec eedc
ebb bebbd
ed ebfc
ee bbefc
ebe eebf
beec a
ddc bcc
ddc df
ebb bcdd
bf beebe
ebe fef
bfc bbbc
bbbe debb
bbf dbf
dd b</w>
ebbc bbbd
ebcc bbbb
fee bec
fee eeee
ddc bec
fbd a
eebe ba
ebe eebd
bbec ebd
beec dec
ecbc bec
bbcc a
ecf ebd
f dbbbbc
bbbe beebb
ed bcef
ed bebbd
beec ef
ebb ebfc
fbd fc
dbd ded
bbed a
ed eebbc
fbc bbd
bbbf ef
eec fdc
ebbc ff
ecbc ebc
bbee bdc
ebe febe
bcec bbc
bba a
ebe beed
bcc debb
dbbc bbc
bbec bbbc
ecbe bbf
beee bec
fcc a
eebc df
eebbf cc
dcc dec
ba bbbc
bf bbbec
bebe eec
dbb bdbbbb
bdf ccc
ebbc ebbc
ebe fdc
ed e</w>
ed c</w>
bbcc bbcc
ff dbf
ebec df
bbebb ebc
eebc eec
bef bfc
ebe bedc
edc bebd
bbebb bbee
ebb bcebe
dcc cccc
ebb bea
fbef cc
bcbc ebc
ed bbeec
bd ebecc
dbc bbbd
dc eced
becc fc
bbd b</w>
ecbe dbd
debb bec
eebe ea
dbf bbbb
fbc bfc
ebe debe
ebb bded
ebb eba
ed fbec
ccc bbbb
dbc bebc
bedbc cc
bf bdcc
bcbe bbec
bcc bbed
df bbbd
ded bdc
dbe ba
dee bebe
f debdc
dbc ebf
dbe beee
dbc dcc
ecc ba
eec deec
bbf beee
bbbe bbed
dbc bef
dbd dec
eecc fc
bbd beebb
bbbf bec
ebb befc
eec bcbd
bfc ebd
bbf fcc
bbec bbec
bbbc bef
bbdc bbbb
dc dbbd
ecc decc
edc ddc
f bd</w>
ea ba
bbbbbbbbbbbbbbbb bbbbbbbb
ebb ecbf
ebc cccc
ec ebdcc
dd debc
ded dbd
def fc
bcec df
def ccc
bdc bef
eebe df
ebc fbf
ebe eccc
dd beed
becc a
bdf bcc
dbc bcbc
dc bdcc
ecc ebdc
beec dee
dec bebc
bbd beed
ee debec
eebc bcc
eec beed
bbc dbbbb
fbc ebd
fbebe cc
bbebe bebe
bbbe bebbbb
bebd df
ebe bebbbb
dd ecbc
ebe debc
ebc eeee
eef ebd
ebbee bbee
bbd eeee
ecee dbe
bcee eec
ea ccc
bd bac
bf beef
bcbcbcbc bcbcbcbc
ec bbba
eeec bbc
bcbe edc
fc dbbc
ecbe ddc
ebc ecbd
dd da
dd fdd
dbf bec
fbe edc
fbe bbcc
ef cccc
bbbe bebd
dd bccc
bbd fbf
dee edc
dd dbb
bbec dec
eef eec
ef debe
eecc eec
dbd bebe
bcbc a
bdbe bcc
bcee bcc
fcc ff
d ef</w>
ed fecc
bbf fbd
bb ebb</w>
ebc bbebe
dd fbf
dbe ded
f bc</w>
bcbe dec
bf ecf
eebe bbebb
ef dbec
bdc fee
bfc ecc
ba ccc
bbbe bbebe
bf bebbbb
ebb ebbcc
ef bced
ebbc bebc
ed fbcc
bbed dee
def a
ebbc dec
fcc ebc
ebb bdf
ebd bbebb
bbbf ebe
bebc ff
bebc dc
bfc dec
fec eec
ac da
efc ebe
fc bbdc
bcf dbd
ebb ecee
eccc ecc
ebb bdbf
bbbd bdc
bcee dee
be bd</w>
dbbd bbbb
bbc bbdd
def dc
fbbee cc
bc ffcc
ecbe dee
bf eeebb
fbc ecc
bebe ba
bdbe ebc
ebb bbeec
bfc bdc
bbee eec
ed bcebe
ef ebdc
bbcc ebd
be bc</w>
fed bec
bcbc dee
bbee dee
ef fdd
eeec bec
bbd bbbbbbbb
bbd bbebe
bbbb fbe
bbbb ded
ebf ba
eebc ecc
ebbc edc
ddc a
bebc dec
fbc fbc
ed ecbf
bcf bebe
ebc beebb
ebc bced
bbbb fbd
bbc bcbe
bfc bbbe
ff ba
ccc a
ddc dbe
beec bcc
ff fbd
bbc bedc
ecf dbe
ef eef
bcbc df
bef ba
ebe bced
fcc bf
ef febe
dbd bbbc
ee bbebec
fdcc cc
fee ebf
bebd a
eeee ebf
ecbe bbbc
bbebb bbbbbbbb
debb a
ef debc
ef eeebe
dbf dbe
bbd ecbc
bcf bbee
fcc bcc
dc dbdc
eecc bec
bbec dbc
bef bebc
bbbb bbbec
bfc fbc
ebd dbbc
eebc ebe
ded ecc
bebe edc
ddc dee
ef bcbe
ebd def
bbebe ebe
bdbc bbc
f bbac
ebcc bcc
ee bbebcc
bbf fec
eec bccc
ea ff
bddd dd
ecec bbc
debb ebc
bbcc bbbc
ba bea
bd dbfc
dbf ccc
bcf dec
bec beebb
ebb bdee
ebcc a
fbe dec
ec debdc
bf ecbf
ed beebd
bcebd cc
ecee bcc
bbbf ff
dbb eccc
ef eebf
fbbbc cc
bbbe fee
ef eebd
eeee bef
bbec dc
beec dbe
ddc ebc
bbee ecc
bcbbf cc
eec debe
bdc ebec
eebc bbf
bec dbec
eeec a
ddc dcc
bbdc bbc
bbee bef
eec da
bbd bebf
ebbc ebf
ebe bcebb
bebe bbcc
bbbc fbc
dd bcee
bccc bcc
fc fdc
bec bbbbc
ed ebbcc
ba dee
dbc bfc
ebb eced
ebb bebbf
ccc dcc
ebd dfc
ebc ac
bbd febb
bdbbbb cc
bbee bbec
ccc dee
ebe fed
beee ff
ded dcc
ee ebdcc
becc ecc
dbe bbebb
ea dee
beee ecc
edc bef
eebc bf
ebe def
ecee ecc
eccc dd
debb fc
dbd dcc
bbbf dd
fee bdc
bbbb bbbcc
dbe ebbc
bbbb bdbd
ebe eef
fbc bbbe
ebb dbbf
dec bbbe
bcbe ebf
bdf bbf
debb bbbe
bcc eebd
edc ecbc
debb df
eec bbdc
fec ebc
f ee</w>
bebd ebc
ebe dfc
beee ebf
ebe bba
bec bcec
ded beec
bbd bcec
bf fa
bbbb bebf
bf bcdc
dbe fcc
bec ea
bda cc
ccc ff
be bbeccc
bdc ebbc
beee fee
ebb bcebc
edc debc
bbc febb
bbbb bbebc
dc ecbf
efc dbc
ee f</w>
bec eebd
dc bded
eccc fc
bbd bedc
ebbbbbb cc
ed fdf
ecec df
dee bef
fbc dec
bbf dcc
ba ebc
dbe dbf
bec deec
ed edbf
bbbb dbbc
dc eeebb
bbbb bcbe
ebd bedc
edc eedc
fbe dcc
debe bbc
ebb bebbee
eef bbbc
eecc ecc
dc bbfc
dd bcec
bcc eeec
bbbb dcc
a eba
bbee eeee
eef ea
bdbe bbd
bbee bebc
bebe bcbc
beee bbbc
bd bbccc
bbbf bbbc
a fbf
dbe ddc
beec ebc
bbcc bbbe
dbf ff
fec dbc
ed eba
dbe debb
bdc bbec
eecc ebc
eec eeec
bbcc df
fcc ecc
ebcc ecc
ebb bcef
ed ecebb
dd dbbd
eec bbebb
ed eeebe
bbed ebc
dbe bebd
bbbb eebc
a bdbf
ef ecbd
ebb fbec
ff bcbc
dc bcdd
ecbc bcc
bfc ebf
bbc debc
f ed</w>
bbbb bccc
dd bbbf
ecf bbf
fbe bbebb
ebcc bf
bec bccc
dbc fee
ebcc ebd
bec bcbd
eecc a
beee ba
ed eddc
ebb dedc
fbe bbec
bbee ba
bcc ffc
ac df
bec bbdc
eec dbec
beebf cc
dc beef
bbbc dec
ac dd
ebec bf
dee ebf
ebb bcfc
bdbe df
bebe bbbd
beee ebc
bfc bfc
dbe becc
ac bbc
edc fbd
beec fc
dee bcbc
ecf dbc
ecee a
bbcc bbd
bb bf</w>
bd defc
eec ebdc
bbbb becc
bbbbc bcc
bbebb bbbd
beee bef
bdc ddc
fbc dbc
dc bbebc
edc eccc
ebe bebbc
ef eeef
bcf dcc
eec eccc
bbd fdc
bdc fbd
ef bedc
bbec bebc
ea bcc
beebb bbc
eecc bbc
ebb bfcc
ed bedbe
bec eedc
efc ded
dd decc
bdc eebc
bd bbedc
bebf bbc
efc ecc
ebb bddd
beebb a
be deccc
bbbb fbf
bbbe beec
eeee ff
bd bbebf
eedbc cc
bec dfc
ddc dbd
bbcc ecc
bec dbbc
bbed ef
dec bef
ebbc fbc
ed defc
ed feec
bd bb</w>
dd d</w>
bcbbbc cc
bbd bccc
ebc deec
ebcc edc
bcbbbe cc
bd debbc
def df
fec ded
dbbbb bbbbbbbb
bec eeec
bdc beec
dbbbb bbbd
bdc eecc
fc eeec
ebc bbdd
f ec</w>
a ebec
ef bcbf
ebe bcf
eebc bedf
dd cccc
bcc bbebb
a fed
bbcc dbe
ebc bedd
ebf dec
bfc bebc
bbbe dcc
ecc ecdc
edc eeec
ecbe dec
dd bedc
beed df
bbf bbef
bef dbd
bbba cc
eebc ebd
ebc dbec
bebd bf
ebbc dbd
ddc dbc
bbc fdc
dbb ecec
bbbbc bbd
bebe bbec
bdbe bbf
dbe fee
dbb cccc
fec bbbb
bec debe
edc bcbc
ebe bbebc
edc bbec
fc debe
bcc def
beec eec
dc bcebb
dbb bdcc
fbe bbbd
bc bbea
bd dba
dc edbd
bdf dbc
ebb bdbbbb
dc beebe
ed efcc
ed dbbee
ebe ebdc
debb ef
bf deec
ebb bbecc
ed fbbbb
dbd bdbd
bebd ef
beebb bbbe
edc dbf
eebd dd
fbc bbbc
eebbbe cc
bbbb bbef
ded ebd
ebb bebcc
bf dbbd
fbe ea
bef dec
bdc dbf
bebd fc
bf ecec
bbf efc
ebe bdbd
ded bbd
ebe bbdd
bdbe bbbc
bbbe becc
ebbc bbec
dd dbec
bbbd ccc
bbbb bebbc
dbe bbed
a debb
ecbc ecc
bbbbc bec
df ea
eec bcec
ecee dcc
dbc bbec
bebe fee
ebd bbdc
dd deec
fed bbc
bdf ecc
eec dedc
a bbed
ded bbec
ef eeebb
dee ba
bbd bcee
dc fbbc
def bbc
eeebe eeee
cccccccc cc
eef dcc
bbbc beee
bccc fc
bcc bbbf
edc ea
bcbe bfc
bcbe dbd
dd eedc
ff bbec
dc febc
fbe dbd
bbbb fec
eec bedd
bbd bbef
bdbe ebd
ebf ebbc
dd ebdc
ee deccc
dfc fc
fdbd cc
ed ecdd
ecee fc
ddc dec
fbe bbbf
ebb dbdc
bbbb bcbbc
bbbc ba
ebec ebe
bfc bef
dbe fbd
bcf bef
bbf beec
ed deecc
bdc fcc
ed ecbbc
ebec ef
ebf fcc
dee ebbc
dc febe
ed dbbbc
dbb bded
ee bbac
ebd bbbf
bdc bcbc
dbc fec
ebcc df
bec ebdc
dbf bcc
ebb fbcc
ebe eeef
bdbe ecc
ded bebc
bcf bebc
bbbb ea
ded ff
bbf fbf
ecbe bbee
bbbb efc
eebd bbc
bbbd ff
ebe dbbbb
bebe ebbc
ebf eeee
bebbbb bbc
bf bcef
bcee ecc
eebc dbe
fee bef
bcee ef
fdc ef
d a</w>
ec ffcc
ed debbc
f db</w>
ebf dcc
be bbebdc
fed a
ebb bdec
ebb bddc
dee fbc
dc ecf
ebf bcbc
fbe ebbc
bdc bebd
fc da
edc dfc
bbbd bbebb
bbf debb
df becc
bdbe ccc
ebf dbd
bdf ebd
dee bfc
ebec ebd
dcc dbd
bbee ebbc
bebe beebb
ecc bbed
bdbc dd
ebc bcdc
bebbbb bbbe
ebc decc
ebb bcbec
bcc bbbbc
dbbc dd
be db</w>
bbbb febb
edc bedc
ebe da
ebe cccc
ebec dbe
beec bebc
dc ecdd
bbdc dd
ebe dbec
ee debdc
ebf bbbd
bbbc bbbbbbbb
dc bcef
bbcc bbf
ebe bbbec
bf dbcc
ed beeec
fbd ff
fc eccc
dc c</w>
bebe bfc
ef bba
bbee bbbd
ecc bcec
ee dac
ebe ecbd
ebc bbef
fc eebd
ebe eeec
bc f</w>
ef fa
eec fbe
fbd ccc
eebc bbd
bcee bbf
dc bdee
beee dbc
ebb eea
eebe bbebe
fbf bbc
dbb edbd
bcbe bbebb
bef bbec
ed bcbbbb
ebd fdc
ba bdc
dcc bbd
ef fbbc
bc dbbbbc
ec f</w>
eec bbbf
edc bbbd
dbe fec
bf eedc
bebc dbc
bbee fee
bc dbbbd
fbebc cc
a beec
bcbd bbc
bdc debb
ecee df
bd ebccc
bcf ebbc
bcbc bbbe
ecbc bbbb
ebec bbbe
edc decc
bbed fc
ebec dbc
ecee ebc
ebb fecc
ebb bbbdc
ed dbfc
bccc bbc
ebb ecbbc
ebbee bbbe
ed edbc
bbec ff
ebd eedc
ecbc bf
beee bbebb
ebb fbbd
bcbe dcc
ebd eeec
fbc bebe
beed dd
bcbc bebc
eebe dcc
bef dcc
eeebb a
ebec dee
ecbc df
bbec ecc
dfc df
fbc fec
bcbc dbe
bdf dee
beee dbe
bdf ebf
bcc fdc
dec bbbc
ded bbf
bdf bbd
ef bbdd
bbbb bcebb
bdf eec
debb bf
ec befcc
ed eefc
fc bbbbc
dc bebbc
bcbc eec
ec bbefc
ea bec
bbef bbc
dbd ddc
eebc dbc
dbbbb bbbe
bbcc ff
bbebb bcc
ef eeec
ebe bbfc
bbbb eeee
bcbc bbf
dd bddd
ba dbc
becc bcc
fbd ebc
bbbf df
ea bbbe
bc dac
efc bbf
dbf ebc
dbb bdebb
beee bbd
bebe dee
fbc bdc
debb dbe
debb ccc
debb bbd
bcbe bbcc
ffc df
dc bddd
dc bddc
bfc dbd
fc beebb
ebb febd
ecc beed
becc edc
fed bf
dec bbec
eecc ef
ebd febb
bbbc bbbf
ecee dbc
fec bdc
ebd ebdc
ecc dfc
dbb d</w>
bbbb bba
eebc edc
bdbbd cc
dd bbbbc
eebef cc
ebb bbebf
bcec dbe
ebe bcbf
dec edc
bdbe eec
ccc dbe
ecbe ff
ebe bcdc
dd dbcc
ebd eccc
ecc fdd
efc bdc
bef bbebb
bbbbbbbbbbbbbbbb bbbbbbbbbbbbbbbb
bbbb fcc
ed eeef
bbc ac
ea bbf
bbbd bebc
dee beec
beee bdc
bf bfcc
dec bebe
ff fbf
ba bebe
ecec bcc
eecc edc
ebf bbcc
ebd beed
eebc bbbe
ebb bedbe
ecbc ef
dec bfc
fbd eec
ebb bfbf
bc bbebcc
fc eedc
bef ebbc
ebd bcbd
bf fbbbb
beee df
bf edcc
dc bdbc
ebec bbd
ed bedf
bbf bbed
bebd eec
bcf efc
bc bc</w>
bf eeebe
ebc debd
eebe ebbc
bbbd dbbbb
bbbf bcc
becc ebe
ff bbcc
bcbbbb bbc
dbf ebe
ebc ecdc
fbc bebc
dbb bdee
eedcc cc
ebb fbbf
bebd dbe
bf bcbbc
debb bbf
fee dbc
bbbbbbbb bbbbc
ff fec
fcc fec
dcc ded
ee dbbbd
bbebb fc
bced dd
bf bbbcc
ec bbfcc
ac fc
ef bbfc
ed ecee
bcec fc
deec df
eebe bbbd
bbbbbbbb bbbe
ebb dbbbc
ebb fbbbe
ed febd
dee bbbd
bdc fed
ef ffc
fdd dd
beebb bebe
dc dddd
ebec eec
dbf ecc
dbb bdbf
fa a
eef bfc
ed fbbd
ff efc
ecbe ebf
bf fbbd
debb bcc
dbf bbf
bcee dbc
bcf bbec
ef bbebc
ff beee
bbbbbbbb bbc
ff bebc
dee bbcc
bcbc bbd
ebe bdcc
eeec df
febb a
dcc bbf
beed bbc
ebbc bfc
ecbc eec
ed beccc
bbbb ebcc
eebd a
ecbc a
bdc becc
bebe fbc
fec bbf
bedcc cc
bcbe bbbd
fc ebdc
bef edc
ccc edc
ed debcc
ebd bcec
bebc edc
dbb ecbf
ebb bbccc
ef bcebb
bbd ac
dfc dd
bbf bbbbc
ecc ecbd
da dd
bf edbd
bbee beebb
fdc dd
bcc ea
bcc bedc
dee dbf
bf befc
ecbc ebe
febb bbbb
beed bec
bf febc
ed eea
eef dbd
eebe bbcc
dbbbb bbd
beec dbc
ddc bbbb
fc bebf
beee dc
bcee bbbe
bdc ba
bbdc bec
eef bebc
bcc eeee
eecc dd
eeebb ebe
bbdd dbd
df fbf
bba bbc
fee ba
bbbf bbd
bf bdbf
fee ebc
dcc fec
ed bebbbe
ddc ff
ef bdbd
a bebd
ebec bbbc
bbbe eeee
bbbf ebc
debb eec
ecf bfc
bbed dbc
fc eeee
ebd fbe
fc fef
bbdc ebe
fdd df
bf bdbc
bccc bccc
bf ecdc
ebb bebdc
bbef bbbb
bcdbc cc
bcf dbf
dbd edc
dbd bebc
bbee bfc
bbef a
ecc eedd
bd bbba
fed dc
febb bbc
dbc ebbc
bdf bdc
bef eeee
ed eddd
bef bcbc
ecc ac
bebbc bbbb
ebc da
bccc dd
efc bebc
ebb edbc
ee dbbbbc
ebb eddc
bcbd bbbb
beec ded
df ebcc
ecf bbd
bbbc bbed
ebd bbdd
ebf bbec
debe bbbb
bbbbc ebe
ecc def
ebc bdbd
ebd bdbd
bdbe dee
eeec dd
ecec bec
fcc edc
a becc
bd eac
bbf ea
fee bbd
a fdc
ebc bcbe
bebd bbbe
ebb bebbbc
a def
ddc bdc
bbbf dbe
fbf ef
ed beedc
bbcc bdc
ebb bdbbc
bbee bbebe
fc bcf
ebf fec
efc ebd
ed ebecc
bbf fbe
df beee
a eebc
dc fa
df fbe
ef bdcc
eebd bec
bdbe bdc
bc eeeecc
bbc dfc
bbc bdbd
eebe bbbf
beebe ebe
bbee fbc
bfc ded
dc ebfc
dc befc
efc bbd
eebd ebc
f bbebdc
bbbec bbbb
eebd fc
bfc bbec
bebf bbbb
ecec dd
bbed eec
ebec bbf
bbebc bbbb
bdf bbbe
bdee bec
eccc ebc
ebec ecc
dbd fbc
def bcc
bef ea
fbd bbbb
dbb bddc
dbbbb bbbc
ddc bf
fbf fc
ef deec
bc debdc
bd deecc
fed bcc
ecdbc cc
ecbc dee
ecf ebf
debe dd
bbbf bebe
a bbbbc
eebd df
fee ecc
bbbec bbc
bbed bbd
ebec dec
dbc beee
ef bcdc
eecc bcc
bef bbbd
edc def
ebcc dbe
dc fecc
eec beebb
bdc beee
ecec ebc
fc bcee
ba bbee
bdbe bbee
bebc bbee
ba bbbd
ac bec
bcebb bbbb
ee ffcc
ddc ded
bc befcc
bbebb dd
ddc ebd
bbcc dee
bbdd bbc
bbbc beec
eebe bbec
eebbee cc
fc bced
bbf bebd
dec becc
fbc ebf
eeec bcc
fbd dbe
ec dac
bbcc dbc
debc bec
bebc ebbc
ebc ffc
bcbe ebbc
bdee a
ecc bedd
dee beee
bebc ded
bbbbc bbbd
ff ea
bbbbc bbf
ba ebf
fdc bec
fcc ebe
debb bbbc
def dbe
ebec bdc
bbbe dbf
debc df
bdbc fc
bebe bbebe
eccc bcc
ecbd dd
bebd ebe
dec fbc
ecbc dbe
ebc bcf
bbbe ea
dbbc bec
ed bbedc
ff ebbc
ccc dbc
bef dbf
ff ac
bf bedd
ecc edbd
ebd bebf
eeee bcc
d ebe</w>
bbc bbebc
eebc dc
ecf dcc
bbebb bebc
bebd bbd
bf eeef
dbd ebf
ecf bbbc
ebd deec
ba ea
ebbee beee
a fa
bbbb b</w>
becc df
ecf bbbe
bedc bec
eec bbbbc
dec fec
ccc bdc
fed ef
ff ded
bbc bebbc
bbdc ef
ac ef
dc bba
ebd bccc
dd febb
bcc eedc
fbe debb
ebb ecdd
ebb beebd
bbc bcbf
dc eddc
dbd bbee
beec bbd
ecc debe
eebc bdc
dd ffc
bcc bcec
dcc fbc
fc bbfc
bbbc fee
dbe def
ecbc bbf
edc ebdc
fc bcbf
bebd dee
eecc bbbb
bf eeed
bbc dbec
bcee efc
ed eeebc
bcc bcbd
bbebb bbbbc
bebc bdc
eccc eec
dec ebbc
ddc bbd
a bccc
fc febb
edc ba
bf debd
dec ebf
bfc beec
bdf dbd
da bca
bc ebfcc
bbebe bbee
bbc bced
ed bebdc
bdbc ebe
bbed bbbe
dc bbbec
ecc bcbd
ed bbbdc
bbec ded
bf fdf
a bcbd
df fed
dbc fcc
bbf ded
bbc bbfc
bec bebf
dbf dee
fec dcc
ed eebcc
bbbbbbbb bbbd
ecbe bfc
fbd ebe
dbb ecebb
ecc eddc
ecc febb
bcc bbdc
ebc eebe
ef eebe
ebcc bdc
eef ebbc
eebc ff
eeee ba
bbbc bebd
beec ebe
ebd da
ebdc ebe
f ebac
dbb eced
ee be</w>
bebe ea
bdbe dbc
becc dd
bf ebfc
ebc eebf
ecc bbdc
bbef dd
fbe dbf
bebc bfc
bcc beed
dbe bccc
ebf ea
fbf a
f dd</w>
dbd bef
bbec bdc
ec dcccc
ebc bebbc
be bbb</w>
edc fdc
dc bfcc
bbbb fbbbb
bf bded
ebbc bcbc
bd dbbcc
ebc eedd
dee fcc
eef dec
bcec dec
efc bbbc
ebc bcebb
eec bebf
ebb feec
bcbebe cc
eebc dec
bdee fc
dc d</w>
eebc bbbc
bebe bbbf
bbebb dbe
ebc ecec
eeee beebe
ebd bbbbc
ed dbecc
bcbe ba
ed bac
ebf bbbf
ebd decc
bcc bcee
eec ac
ec bb</w>
bbed ccc
eccc bbc
bdee bbbb
bcbc ff
fbf ccc
bdbd bbbb
fdc fc
eeee eeebe
dbf ba
dc bdbf
bcc fbe
ebc eeed
bdbc ef
bbec bbee
fbc bef
df debb
dd edcc
ebf efc
ebf fbd
ecc ecec
ecf dec
bbbcc bbc
ebd dbbbb
def bec
fec bbd
ebdc bbc
df bebd
bbbe fbd
bdbc bec
ec bbebec
bf dbbf
bbed bcc
dbc beec
bfc dcc
ebd dbec
dc efcc
fbf ff
bebc bcbc
eef edc
ebdc dd
ebbee bebe
eebbbc cc
fee dcc
ebc fdd
ee eb</w>
fc decc
ccc dec
dbbd bbc
bbbc edc
dee ded
eec debd
bcee bdc
bbec beec
ebc dedc
d ebd</w>
ec ebfcc
dc beebc
ebcc ff
bcc ecbc
ebc bbfc
ef bebbc
bdf edc
bfc bcbc
eeee dd
ebbc bef
bbbc ded
ef dbb
fba cc
bbbe ebec
fc bbef
fbc ded
bebf a
fcc dec
df bccc
ebb efcc
bec bedd
bbbcc bbbb
eebc dee
bbbe ded
efc dcc
ecee bbbb
fec ecc
bbee dbd
bd debec
eebe bfc
ebe fdd
bbcc edc
eccc edc
ebb edbf
dbf bbd
bbbd bbec
ebb fdf
dd bedd
ebc bbebc
dfc bbc
df bcec
ecbc ebd
bebd bebe
ed fdbe
becc ebd
dc bdec
ecf dee
ccc bccc
dbc ba
becc bbbb
d ebc</w>
bbd bebbbb
ecc dedc
a bcec
bec fbf
beee beebb
a febb
ebb dccc
efc fec
bbbbc dd
ecee dee
bf bcbbbb
fc ffc
bdc bbcc
dbe ea
bdbe ff
eec febb
bbc eedc
df def
fbd bcc
dbb ebfc
ebc edcc
bbed bbf
bbee bbcc
bebd bebc
eccc bec
bcbc dbc
ed bedbc
dc fbec
ed fedc
bbc bbbec
ac dee
beec ff
efc bfc
ba ecc
eeec bbbb
bb a</w>
ed eebbbb
ecbe bbcc
ebd eeee
ed bbccc
bbbe bebf
bf bcfc
bcbc ecc
dbbc ef
ebbebb bbbb
bbee dec
bdf dcc
bf bebec
bd bbebbc
bcc fbf
bdf dec
ee bc</w>
ebf bbebb
fec fec
fbc edc
beec bbbc
dbbbb dd
bdc eebd
bcbd df
beebb ef
fdc eec
dbe eebc
bbee bbbf
a ebcc
bbbe bccc
ed ecebc
dc ddcc
dc bbbcc
bf bbeec
fec ebe
dbc ddc
ebdc ebc
bdee ccc
bef efc
ecbe ebbc
ebec ff
bdec bec
bced dee
ecee bdc
debb ebd
bbc bcebb
bf decc
bfc ebbc
ef dbcc
bcf ba
dbc efc
bebd bbf
eec eeee
dc bcbbc
bef bbcc
bbef ebe
bf fbcc
ebb bbebbc
fbe efc
bbd eedc
eebf a
dbbc ebe
bcbe dbf
bcec bcc
ed ebccc
bebe dec
bbc eeed
bedbd cc
ebdc fc
bbd eeebb
dbd ba
df ecbc
f bf</w>
dbe bcbd
edc beee
dcc fcc
bbbe fec
ee bd</w>
ed dea
bbc eeebb
bbea cc
eec bbdd
ecc deec
bbbd ebf
ed ecfc
dbb dddd
bcec ded
dbc debb
eeebe beee
bebe bbbbc
fed dee
dc feec
ebd fbf
beebe bbbb
bbed dec
ed dfcc
dbb bdbe
bbbd ba
dd bced
bbc bcbbc
bf fbec
ff eeee
eebe dbd
ebcc dee
bd dfcc
bbebe bbf
dbc fbd
ecccc ccc
f de</w>
dbb bdbbc
dbc bbcc
bbebe bbbc
dd bebf
bbee bcbc
ebbc bbebb
bebc bbec
bc bd</w>
bcee bbec
dbb c</w>
fbc bcbc
bcee bbd
eebe dee
bc deccc
dbb ecf
ccc ebd
dc e</w>
ebc dbbbb
df eccc
dbc bebd
bbbd ded
fc bbdd
bcf bbcc
ecc eeee
f dedcc
ebe bea
bbbb ebbbbbb
bebe dbd
bdc bbed
ebcc bbd
fbd dee
a dbbc
ccc bbf
dc eddd
bf b</w>
dbe efc
bf beebc
dbb ecee
bfc fee
ee bbebdc
bec febb
bec decc
bebe beec
dbb ebbebb
ecbc dec
bcee bbbc
bbbb bdbbbb
fcc bbf
bbbe fbe
df ebec
ff bbbd
ded ddc
bbdc fc
bbc deec
bbbbc bbbbbbbb
bebc ebf
be ebac
ed eebec
bdee dbe
bbbe eebc
fef a
ebb bedf
debc eec
dbc bbed
bc be</w>
bcc debe
dbc eebc
bbd ebdc
bc dbbdd
bbbe dfc
dbb ecdc
eba a
df bbbf
bcf bbbd
eef bbec
bbee edc
ebb dbbee
ff fbe
bdf bfc
ecc eeed
df bcbd
bf bbebd
fed dec
bcee dec
bcec ebc
bebe bebd
df fdd
dcc ebf
bcbe ded
dcc ddc
ebbc ded
bbf bebf
bcec eec
dbc dbf
bbc bebbbb
ed fccc
bdbe edc
ba eec
bd dbbbd
be ed</w>
fbf bbbb
fee bbbc
ea bba
bbdc eec
bbd bbebc
bec fdc
dd dccc
bdc ebcc
ebb ebecc
df bbed
bc dcccc
ea bbee
fed ff
bbc ebdc
bc bbac
def ef
fed dbe
bbdc a
bbc bbbcc
eef bbebb
bbef ef
ecec fc
dd beebb
be ee</w>
ecbe dbf
ecc ffc
bf bcebc
ebb debf
ecbe bbec
dd debd
bebc bbbd
beed a
eecc ebd
be ec</w>
bcee bbee
bf bcebe
bec bbebe
dee becc
ac bcc
bd bbbfc
fcc fcc
bbdc ebc
ebb eddd
dbb ebbbbbb
bcf ded
acc a
bd dbecc
beec ebd
bbbf ccc
efc dbd
fdbf cc
beee bbebe
bf ecebb
bbbc debb
ebb fdbe
bdbc bbd
ed eeecc
dbbd bbd
fea cc
ebb ecbbbb
bbec dbd
eebd bbbb
ecc dbbc
bbbe dbbbb
ebe fbbc
fec bfc
ebcc dec
bbf becc
ddc edc
ebd beebb
eec ecbd
ec bbebcc
bebe becc
ebf becc
fdc ff
bd dea
bdc eeec
ebc fef
ebc bcbf
bbbc dcc
fc bedd
debe ccc
bf ecee
bebc fbc
efc fbc
ec bbbecc
bbbbc ef
eecc df
bedc eec
ba dbd
bebd bcc
bbc bcf
bcbd ef
beec bbf
bdbe bbbd
beec bbbe
ebcc bbbe
bc eb</w>
bebd ebd
bef bbbf
edc bbcc
ed ebbebb
bbd bced
ebc bbbec
beee beebe
febb ebe
bec bbdd
bc dbbebb
ebcc bbf
bbbb eeebb
ebf dbf
debc ef
fc fbbc
dee bbebb
bbed efc
dd ecbd
ebb ecebc
ebbee bbf
bdc def
bcbc ebd
bcec ebe
dbb e</w>
dd bdcc
bec da
eef bbcc
ebc edbd
bbbbc a
ebb e</w>
fcc fbc
ee dbbdd
ebc fbbc
ebb bebbebb
dee bbed
bf eba
ecbc bbd
bcec ef
bf eebbc
bbec bef
bebc fec
fcc ebd
bf eced
ed debec
dc eeef
bfc bbee
bccc ecc
bfc bebe
bec bebbc
febb ef
fef ef
eebd ecc
bbec ebbc
ed dba
ff def
bbbc fec
edc debe
ebc febc
f bbeccc
dec debb
bbd bbfc
fed fc
eeebb eeee
dd eeed
ebcc dbc
ed bebbf
ebe fa
bdbc eec
df eecc
ee dbbbf
eccc ef
bbbb bbfc
a bebf
bbbd bdbd
ba ebd
ebb bbba
dec bcbc
bdbc ccc
dbf ebd
bccc ef
bbef bbf
dcc bbbe
be bbbbbbbbbbbb
bbc fbbc
bbd bebbc
ed ecbec
fef ff
edc beed
ebb bac
ebe dbcc
dbe dbbc
ebe bebbbe
fcc dee
bdf bbbc
dbe bbbf
bec ac
fdc a
ebb eefc
df beec
ebb ecbec
bf bea
bebe bebf
bcbe bbed
dbb eba
edc deec
fbc bbee
ded bef
bec bced
bbd bedd
dbe bcec
eef bbbf
ebec dc
bcc dbbc
fee dee
fbeee cc
fc dedc
bcf ddc
bbd bba
ebe eedc
ecbe bbbd
bbec bbbd
fbc dbd
f debfc
fc bbebe
ebc dbcc
bdbe dbd
bbc eebe
bf fbbf
bdbc a
eebc bebc
ebbc bbcc
dec ddc
eef dbf
bfc bbbd
ebf fbf
bcbbbb bbbc
bccc eec
eef bbbd
bbbe dbbc
fbc efc
bec eccc
fec bebc
fc ecbd
ee dbbebb
dcc bebe
becc ff
ea fee
dc ecebb
bcc eccc
ebd debd
bbbe bbdc
bbbf bbbf
bbebb ccc
bc fbecc
bf eedd
bec bbebc
ecf bebc
bebd ccc
eebd eec
ebd ac
dbb ebbcc
ecc bcee
dd fef
bcbe debb
bbc fef
ebe bcbbc
ed ebbbc
ebb beff
bcc dfc
bbebe ef
bbebb eec
bbef ff
fbd bbf
bbbe bebbc
eebc ebbc
dbfc a
ecf dbd
dc dbbf
dec bbee
ebc beebe
bbebe a
ec bbea
bbec fbc
bbbe efc
bbbe febb
bbdc dbe
bdc beed
ebdc a
eebebe cc
ecec ecc
bf bdee
bbbb ddc
bfc fec
ed eeccc
bbdc df
ebb ecebe
dbb bdec
dc fdf
bcbc bebe
ebb bca
bd debcc
ebf ded
bec bbef
ecbc dbc
fcc dbe
ebbc beee
bbcc bebe
ebe dbbd
bced df
da fc
bfc bbef
ef bded
ec bebecc
ebf bebd
ebe ecbe
fed dbc
edcc ccc
ebf bebf
def ff
ea dbc
bcc bebf
dbd debb
ed fbbf
fbbcc cc
debc bbc
bbbbc dbe
dc ecef
fc bcdc
bbd fbbc
bc dbbed
bbbb debe
dc eeebe
bec bcee
bbed ff
edbc ccc
ebdc eec
dbf dbc
eeebf cc
bcbd fc
bbec bfc
bbbf bbee
bbbb dbbd
dbf eec
bc db</w>
bebe dcc
dee bcec
ecc bbebb
ebd ecbd
fcc bdc
efc bef
bbdd a
ef dbbbb
eebe bbef
becc dec
bebc bef
bdbc bcc
eecc ebe
ef dbbd
df bbebb
ecc fbe
bbf ebec
bbf eebc
bbbbc fc
ea ebc
ecc fbf
fbc ebbc
bbd bcbe
bbc bedd
bbc ecbd
bc dedcc
ebcc bbbc
bebbbb bbbc
deec bec
ded bbbe
bedc df
bbbbbbbb bbbbbbbbbbbb
ecbc edc
bebd bbbc
fec dbd
ebb beeec
ecf efc
ebc ecbe
bdf bebe
bf edbf
dfc dee
bbdd bbd
bbbb bcec
dbf bdc
ff bccc
ecee bec
ef bbbec
bebd dbc
dbbc fc
ec feecc
bbebe bec
ded edc
ed fbdc
ebb d</w>
a dba
bfc efc
bbdc dee
bbbe bbebc
ee dbbed
dd dcdc
eef bbef
ff fdc
bfc fcc
bfc ba
bbc b</w>
ebd dbbd
ed bbebf
debb dee
dd ecec
ddc bbf
bbd bcebb
fef ccc
ecdbd cc
bbed dbd
ebb beecc
bbbd dec
bbc da
dc fbcc
bbcc cccc
eebd edc
dc bcebe
bebf fc
bbd eebe
debe a
ebe bedd
bc dbbbf
ebe bbbcc
eebc bebe
dd bcdc
bf bdebb
bbec ebf
bebc beec
ebc dbbd
bbbb beed
ecc bbbf
dcc eecc
eebc fbc
fbe bbebe
dd ecdc
fec ebd
bdbc df
bcbd dee
bbbb bcbf
ed ecef
debe bec
bbbbc bcbc
dbe ebec
ea bdc
ebe deec
bcc beebb
fbf df
bbc ffc
bbbe bbef
bbbd bef
dc eded
ebe eba
fed bdc
bbec bbebb
beec beec
eedc fc
dfc a
dee fee
dbbbb dbbbb
def bf
bebe beebe
bbee dcc
bbbc ebec
eebd ccc
eec dbcc
bbdc bbd
bbcc bcbc
dbbc df
bfc edc
bcc ac
ba bef
fbe ded
beed ccc
eeed dd
bebd ecc
dbbc a
ba beee
bcee dcc
dbec bbc
debb dbc
debb ff
bbebb beebb
beef a
dbf bbbe
bbebb ebf
bcbbc bbbb
ea ebf
ebd edcc
efc fee
bdee df
ebc febe
dbb edcc
ebbbc bbbe
bebbc bbc
eebd ef
bcbd a
fec bebe
ebd bedd
fbc fcc
ecbc ff
eedbd cc
dbec bec
eec eedd
eebf ef
fc bbebc
edc ecbd
bbebb ff
becc becc
ecf ebbc
dc eebbc
fbd dbc
bedc ef
dbe ac
be dedcc
bccc bec
bbfc bbc
dc bcfc
ed bedee
bbf fdc
efc beec
debb bbbd
dbd beee
bcbd bec
ee dedcc
ecbc bbbe
ea bebe
dbd bfc
dc bbeec
bbbc eebc
dbbc bbd
dd eedd
bbbbc bebe
dec fee
bdbc dbe
dec def
dd edbd
fbe bbef
bebc eebc
fdd ef
eedc a
bf ebbcc
ebbc dcc
bced bbc
ecec dbe
bef bebf
bba bba
ec dbbbd
bcbe ddc
eef ddc
ebb febf
bbf bccc
ea bea
bedc a
bbd bbbec
dee efc
dbc eeee
bdee bcc
bbbd fbc
ebdc edc
bedbf cc
debb ecc
debb bebe
bbc bcbbbb
dbec df
beec bdc
bbbbbbc bbbb
becc bdc
dc dbbbe
ac bbbb
ebf ebcc
bbebb ebd
dc edbf
bebc bebd
bbbd beee
bdbe dec
be dd</w>
ded bebe
dbbc dee
bbebb ebbc
bec eeee
bcbebc cc
bebc dbd
ebdc ebd
bbd eeed
bcc debc
dbc fed
ac ebe
bcee ff
eeebe ef
eedc dd
bebbcc cc
fbe ddc
bbbd bbbbc
bcbf fc
eebd dbe
ebdc ef
dc eefc
ecbd ebc
beebe a
bdbc ebc
dbb bdbbd
ba fee
dbb bfcc
bcee becbbec
dcc bbbc
beebe bebe
bbebc bbc
dc febd
eec bced
ebe ecdc
bbee bbed
bbdd dbe
fbd ebd
ed ecbcc
bbbe fcc
dfc ef
bcbc bdc
edbc df
edbc ecc
ebb c</w>
fbc fee
ebdc bec
bbebe bcc
bbbbc ebc
bbbd bbed
ed deccc
ea bbd
dbbc ebd
bbbe bcebb
fbd bdc
bbbe bcbd
bebd ff
ed ebbbf
dbd fee
bcf bbbf
bbf febb
fc fdd
bbbbc bf
ea bef
bebd dec
ecbc bdc
bbf ddc
bdcc ccc
bbbe bbbec
dbec dd
ebbc efc
ac ff
bd dbbdd
da bba
edbc ebd
ecc bced
dbb bdf
bbebb beee
edc bbed
dcc efc
ebb beebf
ba fbc
ebf fdc
bcfbc cc
debc dd
eec bebbc
debe bcc
dc bebec
ed eedbe
ea beee
dbd bcbc
beebb bbee
bec ffc
eeebe bebe
ecc bebf
ec fbecc
bef beec
bf ebbebb
bcec a
ebb bbbfc
dc bbebd
bf bcdd
bcbbee cc
bf bbecc
ccc fcc
ecbd bbc
bf dbbbe
bbbc bcbd
dc ebbcc
dcc bfc
ebc bcdd
bf bddc
bf bdec
eebebc cc
ebb ebccc
eec ffc
dec fcc
bf fdbe
be bbeba
ea bca
bbec bcbc
dbbc dbe
df bcee
bbcc bbee
ebec bebe
dbbc bcc
bbbb eebd
bbbb ecbc
bf bcbec
fc debd
ebb bdef
fc ecec
eeebb ef
fbd bbd
eebc ded
dd bbebe
fbd dec
ac bbf
beed dbe
fbf bbf
dd bbef
ed fdbc
becc fec
df dfc
fc dbcc
dc bdef
fbc bbec
bdf efc
ed bedcc
eeec dec
bef ddc
bbdc bcc
eeebb bbbe
bbed ebd
bbbd bebd
eeec dbe
bbed bebe
ee fbecc
ebb ecef
ff fef
dbd dbf
ef bcef
fcc dbc
dd bddc
ebbc fee
eecc bdc
ecbe ded
bcf ebec
ebbc bebd
def bbf
ac ebc
bf bebbbe
bbc eccc
be debfc
ee bbeccc
beee ebd
bcee ebd
ff bbbf
beebb bbf
bebc debb
ccc bbbc
ccc bbd
eedc bec
bbcc ebf
f dc</w>
dbb bb</w>
dee bccc
decc eec
eeed a
ecc bcdc
bcc bbef
bbbd bbdd
eef bbebe
fbc dcc
ebb fedc
dee bcbd
bbed bbbc
dc bebbbb
dbd bbec
bbcc dec
fec beec
ebe ebbebb
eeec ef
bbebb df
bf bbbbbbbb
bbee beec
ecee ddc
debe fc
bef ded
dbbc bbbc
ebcc ebf
fec bbbc
eeec dbc
dc bdebb
bbbe ddc
eeebb bbc
bcf ea
fcc bbbb
edc bcbd
bbebb bbbf
fcc eecc
bdec bbc
ee dbbdc
dfc dbe
ef eba
ecbc bbbc
fcc efc
a fef
fcc bfc
bcec bbbb
ecc dbec
ebbc debb
ebb debbc
ed eedf
ebcc fbc
dbbc eec
bbd fdd
becc dbe
bdbe ebf
bdbc bbbc
df da
dc beecc
df eebc
eeec bdc
bcbc dec
ecec dec
bcee bebc
bec ecbd
dcc fee
ecee dbd
bbbd debb
ec dbbbbc
def ebc
dbbc ebc
bbcc dbd
ed ebbbd
bccc a
beec bebe
ebb eded
ebcc bebe
edc edcc
bedc bbc
fc bdbd
debd dd
ecec dee
bbd bddd
deec dd
ebbc fec
fc bebbc
bdbc dee
fcc ded
ed fbbbe
ccc ded
bfc dbf
bdc bcbd
bf bdf
bcc bbdd
dbc bcbd
dcc fed
bccc ebc
ebd bbebe
ebec fbc
eef ded
bcc eeed
beebe bbbe
fc befc
bebbbe bbbb
bebf ef
ccc dbd
bbc bba
edbd dd
ecc bbdd
bbcc fbc
ba ac
bf bebcc
bbf eeee
bcc febb
bec dedc
ebec bebc
ebbc eebc
ba bfc
fee ebd
bbc dbbd
beec bfc
fbf dd
ec be</w>
ea bbbc
bbf beebb
eecc dbc
dec efc
beec ecc
bbf bcbd
dbe fbe
bbbbc bbebb
bdbd dbd
fec bbbe
bdee ecc
bcbe bbbf
bbbd bfc
eec bbebe
fcc fed
eccc ebd
a beebb
eccc ebe
bbcc bebc
bbcc bfc
bcbe efc
eeec fc
bcbbcc cc
bebd dbd
ed eac
debe bbbe
eeec bbbc
eebc bbee
ebf debb
edbc bec
dc ebecc
beee bcbc
edc ffc
fbc fed
ebbc bbbf
bdee ebc
bcbbc bbc
bbed bbed
dbf dbd
beebe eeee
ee ec</w>
ded bbbc
bbd bcbf
bf ecef
dbec ef
ee fbccc
bedd dd
dec bbbd
eec bdbd
bc bbb</w>
bf ecbbc
dc bedbe
ebdc ecc
bbebb bbec
a bbef
edc eeee
dcc bef
ed eebbd
ed bebbbc
ebe dbb
dbf da
ebe decc
beebe bbee
dfc bec
debe df
ebf beec
eebd dbc
bedc ebc
beed dee
ecbd fc
bbd fef
eec fbf
bb ef</w>
fbe ebcc
ecf bef
a bbdc
bbc bcdc
bc feecc
ac dbe
ebdc dbe
ebb dcdc
dbf fbc
dec ba
eef efc
fdd bec
bf ecdd
ecdc ecc
dc bbecc
bbc eebf
ef b</w>
be bbebfc
bc bbbbbbbbbbbb
ebdc df
ed ececc
beec bbec
a bbebe
bedc dd
ebec dbd
ecbc bebc
dbf ebf
bbbf dbc
beebe beee
beba cc
dbbc bbbe
dee eecc
bdc fdc
fbd fbc
dc bedf
dbe fdc
ebb bbedc
ebe ffc
ecbebc cc
ba bebc
bbbb bcee
eeee bbbc
ebb dced
ebec ded
bbee ea
dbf bbbc
bbbf bbbd
ebc bebbbb
bcbbbb bcbbbb
bbef fc
eebc ebf
ecee bbf
bec eedd
ed acc
debc ccc
bdec dee
ee db</w>
ecc fecc
f bbb</w>
dec beed
ebb fbbbc
edc dedc
bbebb bef
bbd bbebd
dc bea
fbe bbed
bbcc bef
bdbc bbbe
a fdd
bebd bdc
ed dbbcc
bdec df
dbe beebb
eeee beebb
bbd ecbd
eebe ddc
ecf bebe
ef edcc
bbcc bbbd
ebe debd
becc eecc
ebd ffc
eeee bec
bbbb fbbc
debc ebc
eebd bcc
bbbf bfc
debc fc
bdf bbee
ef bea
bcebb bbc
bf dccc
fbd ecc
dd dbdc
bbbe ebcc
ac eec
bbbe fbf
bbebe beee
becc dee
fec bef
eced ccc
bebd edc
bcbe bbbbc
bedc fc
bbbc bbdc
bbbc beebb
dec deec
bdbe bbec
eeec eec
bbcc fee
bbbd ebbc
eedc df
bac ba
ecf bbec
ef debd
ef befc
bbbbbbbb bbebb
debb bebc
ecc ecdd
debe ebc
ebd bced
ebe edcc
bd ebdcc
dbec eec
fec fbc
bdc ea
bbfc fc
eeec ebc
ebbc beec
fec bcbc
ef ecdc
ebe ecec
bbef dbe
bccc bbbb
bdc bbdc
dbc bbebb
debb bbee
def dee
dfc bcc
ebbc ebec
dbf edc
bcee edc
bdf bef
bbdd bbbd
ebb ecfc
fdebb cc
dcbc ccc
bcee dbd
ded bfc
bd f</w>
dbc eebd
bebbbb bbebb
bcbd dbe
ebbbc dbe
fcc bebe
ebb fbebe
eecc dec
ec bbbccc
bf bebbd
bbed bebc
bec debd
ff fed
bdbc ebd
bcf beee
debb bdc
dd bcdd
dc eba
bf dbdc
ba bbebb
def ecc
bbfc df
eeee ea
dd eebe
beed bbbb
eecc dbe
ebc bdcc
def ebe
edc bedd
bbbe bcec
beec dbd
bbd ffc
eec bcdc
ecf ddc
def bdc
bbbd ecc
ba bbbf
bc dbbdc
fc eeed
ecbd ecc
efc bcbc
bbbe eeebb
dd eebf
bbed bdc
bbd eebf
dbb ecbbc
ebec dcc
febe a
bcbd ebe
bdbe bbcc
eebd ebd
bf febd
ebec bbee
bbbb ac
fdc dee
ebf febb
ebc eeebb
bbdd ebe
efc edc
eeee ebeebe
bbbc bccc
beed dec
ccc bcbc
fbf bcc
dc bcebc
dc fedc
edbc eec
bbbd bcbc
dbb bfbf
dd fbbc
bcdbd cc
beee bebc
df bbdc
ef bedd
fc ecdc
ecbc bebe
debe dbe
be defcc
becc bebc
fbd bfc
def dbc
dcc eebc
ed fdee
bcee bebe
bebf bec
fbd bebe
bac ea
bbfc bbbb
dcc bebc
bebf bbf
bf fecc
ebf fef
bef beebb
efc bbbe
eeed bbc
edc eedd
bbee fbe
bebbbd cc
ebf beebb
debb dbd
dbec dee
bcc fdd
ebf fbe
eccc df
fdc dec
fed eec
bbed ded
eecc ff
bbee bbbbc
bef bbef
eccc a
eccc dee
dfc ebe
edc febb
dbb ecdd
dbbd a
dd eeebb
dbbc bbf
eedc ecc
ecbd ccc
bbd d</w>
bbed bbec
ecbe bbebb
bcee bfc
ecbd bec
ecf ded
ebf bccc
ea ecc
bdc fbe
efc bebe
ea eec
eebf ebe
ba bda
bcc bced
fbbc bbc
bcc ebdc
fec becc
dbc ebec
bcc bbebe
dec bebd
bcbe ebec
fdc ebc
bc dbbebe
eebc dbd
dcc bbee
fbd dbd
decc ccc
f deba
bf eddc
dee bebd
eeee beef
ee ebac
bec bcebb
ecf bbcc
bbdc ff
bbc ecec
ebcc bfc
bbdc ebd
bedebb cc
fec fed
ecbc fbc
bbbc dbbbb
bbbf bbebb
bccccc ccc
eeebe a
bcbc bbec
bdbc dbc
bbbb bbebd
bbbc becc
bbd febe
eebe dec
bbc fdd
ebe bcbbbb
bbc eef
dcec dee
ec eb</w>
fee ea
ef fdf
eeed ccc
dc fdbe
eedd dd
bcec dbc
debb edc
fc bdcc
ebb fbdc
dbe debe
bcf bbebb
fc bcbe
def dcc
ebc beef
beee ebbc
febb ff
dc bdf
efc ebf
fef dd
bbbf ebd
beee ea
dec dbf
ebec ebbc
beec becc
bbdd df
ecbd df
dee eebc
ecbe ba
a eecc
ed ecbbbb
dc debf
bced dbe
bbf bbebe
ef bcbbc
bbbc fbd
ebbee dbe
dbb edbf
eedc eec
bcbc dbd
ee ed</w>
dbc becc
eeebb bebe
bbbbc bbee
bbef df
bec bbbec
def bbbb
debc dee
bbf dbbc
ecc febc
ebc bbbcc
eced dd
fed ded
bbc beebe
bef bbed
ebf ddc
bf bca
eccc dcc
fbd edc
dbf bfc
fdef cc
dc fbbd
ef decc
debe ebe
a bcbf
bebf ebe
debe bebe
eebc bfc
ec defcc
dc eeebc
ec dbbdd
dc ecebe
fec efc
ebc befc
eebd ebe
bef bebd
ebb dbfc
deec eec
fef df
fee dbd
bebbebb cc
eeee bbebe
bbcc bbec
ecee edc
bdc bbebb
ff bbef
ecbc ded
bc dbbef
fee eec
bbbf bebc
bcf ac
bef debb
fec ba
ecc debd
da df
f bbebfc
ebec bbec
beee eeebe
ecee bbd
ef bbbcc
bbf ebcc
eebe bba
bdc eeee
dbec dbe
bbbf ebf
dc ecdf
fec edc
ed ebbed
dbd bbdd
fbf ebe
bcee ebbc
a b</w>
bec bcbf
bbbc bbebe
bbee bebd
ed bedbd
bbf def
efc becc
be deba
dbf bebe
bbc beef
bbf fed
dee debb
bdbe bfc
dbb eddd
a ecbc
fbc ba
bcec ecc
ed bbbbbbbb
bbbbc df
bec bcbe
bbbb bebbbe
bbee bbef
fbbbd cc
bbbe bcbe
bbbd bbcc
bf e</w>
eeee eeef
bcbc bccc
bbc dbcc
ed beff
ee dbbebe
dd c</w>
ebd cccc
dbe bbdc
eeed df
ebb fdbc
a eea
ec fbccc
bbd eef
bbbbc dbc
dbbc dbc
bbf fef
dbbc dbd
fee bebc
ef ecbf
ebc bcbbc
ebbc ba
bec bbfc
dbb bdebe
deec dec
ebb fbbee
bbd bdcc
bbbd bbbbbbbb
fc eef
bf bdef
ebbc bbed
ebd bbef
bdf bebc
bcc ecec
edc bccc
bbbc efc
bbee dbf
ebd fdd
dc bebcc
bcf ebcc
bbbf eec
bbd bcbbbb
bdbd bbc
ebe fbbbb
bcbc ded
ebd bcee
bbebe bbebb
bbf ac
eecc fbc
ebb dddd
edc ecdc
ff becc
ecbd eec
bbbb beebe
bcec beec
fcc ebf
ebb fccc
bf fccc
dbd beec
eebc bbec
da bbc
fc bcebb
fdc bbc
bec fbbc
bcbc bef
ed efdc
dc bcbec
bbdc bdc
ec bbeecc
fcc cccc
beee bbbd
ebc eef
bea a
fbe bbbbc
debc a
eeee bdc
dd eef
dbe beed
ef ecec
ef ecbe
dbb ebbbd
bbdc dbc
ebc bba
bcbc bbbd
ebe bfcc
ef bbeec
ebe bdbc
bebc becc
ebbee bbebb
ff bbebb
febb fc
bbbc dbf
bcc bdbd
ebd ecdc
fee fbc
bec dbbbb
dbe bbebe
eeebb beee
bf bebbf
dc bcdf
eeee bbebb
edbc a
ee ee</w>
ed eca
ded becc
ed ecebe
dd bcbf
bf eebbbb
ebb bedbc
bbd beebe
ebf eebc
bec beebc
ba bbec
dd bded
bbbf fbc
fbd bebc
dc fccc
bdee dbc
ecbc dbd
eebe ebcc
bcc bedd
efc ebbc
bbd ecec
dc bcbbbb
ccc bfc
dbbc ff
bf efcc
bbbb def
fed dcc
ebb eac
ed bedbb
ebbbc bbf
ded bbcdbf
bbec debb
eec dbbd
dd bcbe
a bfa
bbc febe
bdbc dbd
eedc ebc
ecf bbee
febb df
ebe befc
ebe eebbbb
ecbc dcc
ecc bdcc
fed ebc
ccc bbbe
fee ddc
dbc debe
bfc bbcc
da ba
bdf ebbc
ecc eebf
ef eeed
ebec bbbd
dbe bced
bbd bcf
ded fbc
eebc eebc
fdd eec
bcbc bbee
fbf bec
bbbf bef
bbed bbbd
ebec edc
ecbd dee
bcc fef
beec debb
bebe bccc
eccc dec
bbbbc bbec
bedc dec
bcc bcbf
dfc ff
bdee bbf
bebe fcc
eebe ac
dbc def
dc bdbe
bd db</w>
ebb dcbd
dbd bebd
bcee fbc
bbbf bdc
ef febc
ded ba
bdbc bbf
ccc fbc
ebd bebbc
ecbc bbec
dbbbb bbf
ecc bdbd
ddc fbc
bbd bbbcc
bbbe beebe
bec eeed
bbd bcdc
eebc dcc
ecf ebcc
eebd bbf
df debe
ebe ecbf
bcbc fbc
bbcc dcc
bbbf dee
bbbb fed
dbd ebbc
beed eec
fbbbf cc
efc ba
ebe bbebd
bbd bbeec
bf bdbe
dc ecbbc
dd ecbe
ebec bfc
fcc bebc
bcee beec
ef eedc
eeebe bbee
bef bbebe
bbd beef
bcf def
a eca
ef bebbbb
bcbeee cc
ec dbbbf
ebcc bbee
fec ddc
bbc ecbe
fec fee
bebd bbee
eeee eeebb
fbd bbbe
ebec bcbc
bcbd ebc
bf eea
bbbbc bebc
eedbf cc
ff beec
a dfc
dd dedc
df dbbc
fbe bbdc
dbbbb bbebb
dc bfed
bbed bbee
ebe bcebe
fec bbec
dcccc ccc
bf feec
ec bbac
beed dbc
eeec dee
febb bbf
fbe dbbc
dc fbbbb
bfbc ccc
ff cccc
bebd ded
ebd dedc
ea dbd
ecbf fc
fee dbf
bbbb bedc
bebc ba
bced bec
ef bdbf
ebc ebfc
dbe fbf
eec ecdc
debb dec
beebb bbbc
edc debd
deec bbc
be de</w>
bbebc bec
edcc ecc
bbd cccc
becc bbf
bbdd bec
eeec ecc
bdc bedc
ee dd</w>
bd ecccc
edc dbbc
ed bebbee
ed febf
bbdc bbbc
bf eefc
ed bbebbc
dd febe
eec fef
ff bbed
dbb ddbd
bf bac
ef dccc
bcbc bbcc
ebbc bbbbc
ebc eced
eec eeed
bbef bec
ebb bedbb
bebbed cc
bcc eedd
bbcbbc bbcbbc
ecee bbbe
ff ebcc
da dbe
ecf ba
bbbb ebbebb
dee ea
ecf eccc
bbee ddc
dbb ebbbc
fee bfc
ebe ecebb
fc beebc
dc eedf
df bced
e ba</w>
bd bd</w>
bcbf bbc
bbec beee
dbd fbd
a debe
debb ebbc
dbe febb
bba bbbe
ec bc</w>
bdbe bbebb
fee bcbc
fcc bbd
efc efc
bd dbbbbc
fbc beec
dc bebbd
ebe beebc
bbec bebd
dc eedbe
bbebe fc
ecec dbc
bcf bbed
bbc debd
bdc eedc
bb ebe</w>
beebb ebc
ffc dd
ef bcfc
ecbe ebcc
ebd febe
ecbc bfc
ded ebf
dac ea
ec dbbed
dc beeec
ebd bcdc
fbd fec
bebf bbbe
bdf ddc
becc bbbe
bcee bef
ebe edbd
beed fc
bbbc dbbc
ebd ebbcc
beebb bec
bf debf
bf fbbbe
dc dbbbc
dbe ebcc
ebd fbbc
dec bedc
dbbbb a
bbdc bbbe
ebe eea
bebf ff
bf bddd
becc eebc
dc ecbec
bcec bbf
bbec fec
ebe bded
bcc eeebb
bbbec bec
bdbe ba
ed beebf
eecc eecc
eebd bdc
eebd ff
bebc beee
bbfc bec
bcbd eec
fcc eebc
ebbc fbd
ed ebbbbc
bbebb dee
bebf bebe
dbe bbbbc
eeec bbbe
bf ebbbf
edcc fc
beed ebc
ebb efbf
dc beebd
bdf dbf
eeee fc
df ffc
bebc efc
bf ecbec
bbebb bdc
bbcc fec
ea dcc
ecbc bbee
dbe bcee
bfc debb
bcdd dd
bbdd dbc
bdbc ff
bbef bbbe
bbd fbbbb
dbec a
fbc fbd
dee fec
ebe bcef
bcbc beec
bdf bbbd
ef fbcc
fbc debb
ba dcc
fcc dcc
ebbee fee
ecc eebe
eeef a
dbbbe bbbb
bcbc ebf
dec beee
bebc fee
ecf dbf
da bea
bcf debb
eef ac
edc eeed
dbb ebecc
eebd dee
ebc eebbc
dbb bdef
febb bbbe
dc ebccc
bdc dfc
ebe bebbee
dc bceec
efc dbf
bbcc ebbc
ecc eddd
ded debb
ed ecbbd
fbc bbbd
bcbc bfc
bbf bcbf
bd bbefc
bcbe bbebc
bebc bbebb
ef edbd
ebbee ebf
fbe ebec
bdee bbbe
ebe b</w>
ebbbc bbbc
efc def
dbd dbbbb
bc bbebdc
bbbbc eec
ebb bb</w>
a bdbd
ebd febc
bbd bded
ba dec
bba dd
bdee dee
edc dbec
ef bfcc
ebc eddc
edbc dbe
debe bdc
ebc bded
ecc dbcc
bcc deec
bebe bebbbb
ebf bcbd
bdee eec
bedc dee
bf bcdf
bebd bbbd
bbebb bebbbb
ded ebbc
ebcc dbd
ecee bbbc
bfbc bbf
bccc dee
bd ffcc
ebcc fec
bebc bbcc
ff debb
ebf ac
ecbe ac
bbbbc dee
bdbc bdc
ebe febc
beebe ef
ff ebec
fc eedd
bbef bbee
fbd bbbc
ebb bebbbd
ebd fef
dec bbed
a bcee
edbc dbc
ebb ddcc
ff bcbd
bba ba
dcbc dee
ebf bbed
fc ebfc
dec bbcc
bbec fee
be bf</w>
bbc bebec
bcc dbec
ed bbbfc
ded bbee
bbd edbd
bbbd fee
ecec bbbb
bbbd ddc
ebe eeed
edc bbdc
bebe bbed
bfc becc
debe ef
f ef</w>
efc debb
debe bbf
beee bbbf
ebc ecdd
bbdd ef
bbfc a
ed ecdf
bcc bcbe
bbec becc
ed ebbbbbb
eebe bbbbc
bcec bcbc
ebd dbcc
eeec bbf
bbec bbcc
debc bbbb
fc bded
dd fa
ebc fa
ecec bdc
bdec eec
fed bbbb
bfc bebd
df bebf
dd e</w>
bf bbebf
ebdc dee
bbec dcc
debc dec
ecee bbee
bec fef
febb eec
ccc ddc
bbd febc
ebd edbd
bec bdbd
beebe bbc
bbd bdbbbb
beee dcc
ebc bebec
ebd eedd
dbbc bebe
bdf ba
bbebb dbc
bbbd edc
efbf beee
be dc</w>
bbd bcbbc
ecbd a
ded def
ecec eec
ebd bdcc
ebcc dcc
dd bcebb
bbec edc
dbb eddc
bf ecdf
ebe bbeec
ebf ebec
ff fdd
beee eec
bcbc cccc
dbd bbed
ebe bcebc
dbb eded
dd eced
becc dbc
bdee bdc
ded dbf
bbbd dcc
bbd eccc
ecc bbebe
bdbe ebbc
febb ccc
ecee ef
ed eedbc
bcc eebf
dc ecfc
bbbe bbdd
bbbe bcee
ed ecccc
bfc ebec
da bbbb
bbec ba
bef bccc
beee dee
ecc eced
bbd ecbe
bf bceec
eefee cc
ebbc eebd
dec eecc
ebb ecbcc
dc eea
dec bcec
eeebe fee
dbc eecc
dbe eecc
ebcc efc
ecbd edc
ebe bebec
a cccc
ecee eec
bf dbbbc
ebf fed
ebe eebeee
fc bfcc
edbc bcc
fc febc
ebc ecbf
bf bbccc
ebd eebf
ebcc bebc
bef eebc
bbbd bbbf
eeebb bbf
edbc dee
bbdc dbd
ebd b</w>
ebbee ccc
ebbc becc
fc dbbd
ecf ac
ebd eebe
df febb
debc dbe
bbee debb
edc bcec
beee bbcc
eeec ff
fbe def
ef eea
bdbe dcc
bcbc dcc
a beed
efc fed
bfc eebc
bfc beed
bdc fbf
ebbbc ccc
beee fbc
ebb ecbbd
bec dbcc
ba bbcc
ebd bcebb
ef ebfc
dec fed
f bbeba
bf dedc
bbef ccc
bbf ecbc
ebbc dbf
a dbbbb
bcc bbbcc
bdf ded
dc ecebc
ebc bcfc
ebbee ff
becc bebe
bcbbbb bbbe
ba edc
fbbed cc
fdc dbe
eeee ecc
dc defc
ebcc eecc
bbdd bdc
bba bbbc
bbf bcec
bccc df
ebc fecc
fc beef
eeebe bbbe
ebc dbdc
bcbd ccc
ecec a
cccccccc cccc
dbf fcc
beee bbec
bdee bbbc
fbc eebc
bfc fbd
dec ebec
bedc ecc
deec a
ebe eebbee
dbc beed
da ccc
ef fbbbb
ebbc fcc
bcc eebe
edcc eec
bebd bebd
debd df
ed fbbbc
bdbc bebe
bef ebec
ebf def
ded bbbd
bdbd dbe
eef def
bef beef
bebc eecc
bbebc bbbe
bebbbb bebbbb
bedd bec
beee beef
bdcc eec
bcc decc
fee dec
ddc fec
bf bdbbc
bbf fdd
ef beebc
bcc bcdc
bccc ebe
fc eebf
bcbe ea
beee dbd
ed bedec
fdc fec
ba bcbc
debe bbbc
dbf beec
eccc bdc
ecec dcc
bcbd ff
bc ee</w>
dee def
bbee beebe
bcee ebf
ecc ecbe
dbbd bbbd
bbdd eec
ebcc ded
debc ebe
bbee becc
ef bdec
ecc bbbbc
efc bbec
ef dbdc
dc bfdc
fbe ecbc
dec eebc
bbbc fcc
dee ac
ffc ff
ebdc ff
bcf dfc
dbb ebbbf
bebe debb
bbf bbdc
eedc bbc
fbe ac
fbbc bbbb
bef becc
eedd a
dc eebec
ebf eebf
dbe eebd
ed dedcc
bcec ff
ec ec</w>
fdd a
dbe ecbc
dc fbbf
bcc dbcc
ebf bbebe
dbc dbbc
ea eeee
bedc ebe
ebb fbef
bfc def
bbbc beed
dbec ebc
ed f</w>
bbbb bced
eedc edc
bdbc bbbd
ded fec
bec ecec
eef bbed
bcec bebc
ecee ebd
df fef
beec fec
eebd fbc
eebe bbed
bbbc cccc
deec dee
ed bb</w>
bccc dcc
bec beebe
bebbbe bbbe
bbbf dbd
bcec bbd
bec bcdc
bbbf ba
dec ebcc
efc eecc
dc bfbf
ebc beebc
bdbe ded
bbbbc bbcc
bdc dbbc
dbb ecef
ebc bfcc
bbec bbed
bcee bcbc
ff dbbc
ec dbbdc
bef def
bb ebd</w>
dec debc
bcc bbfc
bf bedf
ebe bdbf
edbd bbc
dc bdbbc
dc bbbdc
ebd eeed
dbf bbee
bbbc bebf
ebf bbef
dcc fbd
ecf ea
ecc beebb
ebb beccc
bdc bbdd
dd febc
ec ee</w>
ebf bbbbc
dc dbbee
dec fbd
fef bbc
bbbb eebbbb
eebc bbbd
dbbbb dbe
eccc dbe
ef dbbf
bbdc bbf
a bbdd
bbd befc
dbd fcc
beebb beee
eebe ebec
dfc eec
eef debb
bbebb ba
bbec efc
ddc bbbe
bdec fc
fbc dbf
bcbc bcbd
bbd bdbf
febb dd
ef bdebb
eeee dbe
bf bbbdc
bdc debe
bcdc dee
edc ac
dbd fec
dc eeecc
ebbc ebcc
ec dbbebb
eebe efc
dc bcbcc
bdc deec
beec dcc
bbf eebd
ebdc bcc
a ffc
eebc eecc
bbd fa
ebb bebbec
eccc dbc
dc bbccc
eeebb bbee
ef bcdd
fdc bcc
ef bcbec
bc dbbfc
bbebe ccc
fef fc
bbbc bbdd
ef bbebd
ebec bef
a bced
ebe bddc
ecf bbbd
ba dbf
dbb ecebe
dd eddc
bbbe debe
ea ebd
ebe ebfc
ed bbdcc
ebe bcdd
bf ecfc
ecbe debb
bcbc fee
bbc eedd
eebc fec
bec bebbbb
dbc bbbf
bdf bbec
bdc bbbf
bbed bfc
fed dbd
eec bcbf
dbe bedc
ebdc bbbb
ff bbdc
ebec fec
bbef bebe
eebeee cc
edc fdd
ebcc ebcc
ed eebdc
eecc dee
eec fa
bd bbebec
dd bbfc
bbef bcc
bcee ddc
dd beef
bbebb bbebe
ebf ecbc
bebf ccc
eec dbdc
bbbc bebbbb
ecebb bbbb
ebe ebbebe
bcbd bcc
ed ebbdc
ebb dba
dd bbebc
fbe dfc
cccccccc ccc
fbbbb bbc
eced bbc
eec edcc
dee bced
bdbd df
eccc ff
ee dbbfc
beec ba
bdbc ecc
fdc ecc
ed eeeec
ebf bcec
bef ac
ee dbba
debc ff
dbf dcc
dbbd bec
bebc bbed
ddc fcc
debc bbf
fbd ded
dbbbb bbbbc
befc df
bdc bccc
beebb eeee
bebc dcc
bebf df
dbc bbbbc
bcbe def
fee bbbf
dc eac
beed bcc
fc bcef
bebe eebc
becc ded
ed eeebd
fbc bbcc
eebd bbbe
ebe ebbbbbb
dbd bbcc
eeec dcc
fbd dcc
bedebe cc
bbd eedd
a fbbc
ebe eebbbe
bef ebcc
dbc ea
ecbe efc
bc bbeccc
ff febb
dfc ebc
eec febc
dee dbbc
fbc bebd
ecee dec
ebe eebbc
eec bbef
bebbc bec
ecbd bbbb
dbf dec
ebd bbebc
bbf debe
bbd bddc
bbc decc
bcec bbec
ebbbc bcc
bf fbebe
bdf bbcc
bf bcbcc
dc bca
ec bd</w>
bbc bcef
beec bebd
ebc dbb
ec dbfcc
dbec fc
eec bcee
bedc bcc
fbd ebf
eba bbbb
debc ded
ef bcebc
df edcc
fee beef
bcbd bbf
eecc eebc
bd bbfcc
dd bcf
ed eceec
a eeec
bdee bbee
bedc ff
fed bbf
fec dbf
ebe bcfc
edc ecec
bbbc ddc
df bcf
bbbd dbf
bfc bbed
eec bbfc
ebdc dbc
ebec ebf
bc debfc
fc dbdc
ed fdec
ebcc ebbc
bbc bdbf
fbc becc
bbbe eebd
bccc ff
bdec dbe
ed eebbbe
dbd bbebb
bbd bebec
dee cccc
ebcc bbec
bfbc ff
ba da
bcbe debe
ee dbbebc
beec bef
ef bddc
ed ebdcc
ccc bebe
ed bbba
df cccc
bdc debc
fdd ff
ebd bbfc
eecc bbf
bdec dec
fc bbbec
ef fbec
bbbbbbbb bbbbbbc
ed fdcc
bebbbf cc
edc fbe
bcdc dd
fee bbcc
ebe dbbbe
bdc eeed
bf edbc
eec bbebc
bec eeebb
ef bcebe
fbf bbbe
eeec ded
ebec bbcc
bcbe ac
bbc bdcc
df bcbf
eec beebe
df ecbd
bdebb bbbb
df eebd
dbec ff
becc ebbc
dee fbd
ecdc dd
bc dbba
eedd fc
bcbd dbc
bf bcbbd
eeee bbef
ffc fc
a bbebc
bf febf
becc bbbc
bbbec bbbe
efc fcc
bebe eeebb
dbe fed
bbee bebf
debb ebf
ecec ded
ee dbbef
bcbe dbbc
bcee ded
debc ecc
ebb bedee
ebb fbfc
dbf bef
ecdc fc
bdbd bbbd
debc bcc
bf eddd
efc bebd
eeee ebc
dbe bebf
eeec bbd
bd bc</w>
bbc befc
bbed ecc
bfc bbbf
a eebf
bd eb</w>
a eeebb
ea dec
dbb ebbed
bd dbbebb
ebb dcbc
beec bcbc
bebbbb bbf
bbc febc
eebd bbd
beebb ebf
fbbc fc
fee bbebb
debe ecc
bbed bef
eeee bebf
bf fdbc
bbdd fc
bbdd ebc
bf ecebc
ebe bdebb
fbbebb cc
bbc fbec
bbfc bbf
bfc beee
ebe eebebe
dbb ebbbbc
fee bbebe
fbc eecc
dc dbfc
ee dc</w>
bebe bcbd
bcec bef
fcc bef
bcee dbf
becc bbd
dbec dec
ea ac
beec bedc
fec dfc
ebe bebcc
dd eddd
fee bbbd
ed eedee
bd dac
dbb dcbd
bbbc bbbcc
bbbe bba
dbe bdbd
bbbbc ebd
fec debb
bebbbb bbbd
ddc ebf
bcbc edc
bfc ebcc
ebdc bdc
ccc bbee
bbbbc bdc
efc eebc
bcee bbebb
dedc eec
a eebd
bb ebc</w>
bbcc ded
febb bec
dbd dbbc
dbb ecbec
beec fbc
ee dbbbec
dec decc
dd dcdd
ff bebf
ed fdbd
dd bebbc
dbd b</w>
febe bebe
dd bba
eeee bbbf
ebbee bbec
bcc bbebc
bebd ebbc
bcbf bbbb
eebcbc cc
bbbc bcbbbb
ebb eca
bbf dfc
ecc da
bcc eef
beee bbef
bcbe bbebe
efc bbee
eebf fc
eec beef
ebbbc bebe
ebe bebbf
bbcc bccc
bced ccc
ec fedcc
ee bbeba
bcc bdcc
bebc eebd
bbc fbbbb
bdee bbd
ed debdc
beec bbee
eec fdd
bbebd bbbb
ee fcccc
bcee ba
dbc eeec
ebf beebe
bd bbea
bdbe debb
dbd debe
bbbc fbf
dcc bcbc
dbc cccc
fec ebbc
bf dced
dbc bbdc
bcc dbbbb
bcfcc cc
beebb bbebb
beec ebbc
ebbbbbb bbbe
dc deecc
bbc bded
bbf dbbbb
eccc eccc
fee edc
eeee eebf
fbd bef
dbe dbec
ba eba
becc fbc
eec dbbbb
bbd fbec
ebdc dec
dc bac
fc beebe
ef bdbc
ef bbecc
ebe bebbd
fc fbec
ebd ecec
bbd bdbc
dbf bebc
ebb ecdbe
dbd eebc
bbec ebec
bfc bbebb
dcc eebd
bcf dbbc
dc edbc
dd beebe
bd debdc
ebf febe
bebbc bbbe
f df</w>
df bbef
eef ebec
bbbb eeec
ecc fef
beea cc
bebd fbc
bccc edc
eec bcbe
ea fbc
bbbc fbe
fee beebe
dc eebcc
ebb ecdf
bf c</w>
fc bcfc
ac dbf
dd fecc
bdc dbec
eec fecc
fdc ebe
ebb fdee
ff bcec
bf eded
ebd bcbe
a febe
ebbc bbebe
ebc bbebd
bbc beebc
bc dbbebc
ba ded
ecbe bbed
ecc efcc
dbc ecbc
ee defcc
ed fdbb
ef ebbcc
df bbdd
fee bbef
df bdbd
efc dfc
bbc bbeec
ebf beef
bbbb dbbbe
fcc becc
fed ddc
ebb eceec
bebc ebec
fcc bbbe
decc bec
ebc ecebb
ebbbc bbd
fdc ded
bbbb da
beee bebf
ebbee bcc
fcc ebbc
dcc eedc
ebb dded
edbbc dbf
dbc bccc
bbf bbfc
dbb bda
ebc bcebe
ecc bbfc
eeee bbd
eecc fec
edc da
ccc ebf
ecbd dbe
bedc dbe
bdf ea
beebb fc
bc ec</w>
ebb ddbd
dbc ebcc
bdee dec
bbebb bcbc
eebc bef
ebd bebbbb
bf beff
ecbe eccc
bd dbccc
bf ebecc
bf fbdc
a eccc
dcc beee
bf eeebc
ccc bef
df bdcc
bbec beed
bbbb eebe
bbbc fed
bced dec
bbbc def
ebbc ddc
ebe bcbec
fdd fc
bfc fed
bcebb bec
bbbd beec
bbee febb
bcbd dbd
bd be</w>
bbee bebbbb
bbbc eebd
debc ebd
bbebb ecc
ed fbfc
bbdc ecc
bcec bdc
dd bcef
bbc eebbc
dbb bac
dcec dec
edc bcee
dbbbb bec
ecbd bcc
dc fdee
eec bdcc
ebf dbbc
bbed fbc
eef ebcc
bcbbbb bbbbc
fc fa
bc dbbbec
dbd def
ff ecbc
dcc bccc
bcbd bebe
bebf bcc
bbee bba
ebe dccc
df bedc
dbe bcbe
bbdd dee
ebb beedc
bebc ebcc
efc ddc
dbc fdc
bcbd bbbe
ebc bcebc
ebb fdbb
ed efbf
ff da
eedc ebd
ed eedcc
ebc fbec
dbcc bbc
deec ded
a dbec
bbebb fbc
bebc bbbf
beee bfc
fee ebbc
df eeee
bbec beebb
bdc ac
df debc
ebc dccc
beed ef
ff dfc
bdbe bbed
eccc ded
dc dfcc
dbbc bbbd
bebc fcc
ed ecdbe
debb ded
bbd bcdd
ff bebd
bbbb bebec
bdc ebdc
ebc bbeec
bcba cc
bebc fed
bebc bedc
efc bbbd
edc fbf
bef bcec
bbdc dec
ebc bedbe
bdc bdbd
bbec eebc
ebe bbbbbbbb
bbebe bbebe
dbb edbbc
ccc fec
ec beeecc
ddc bebe
bbf fbbc
bcc bbbec
fef fee
bec beef
ebe bbecc
ebd fa
bbc ebfc
ecc bbef
ddc bbbd
ecc dccc
bbee ded
bbdd bbbe
dbb dcdc
ecc bcbf
bcf bbbbc
dbe bcebb
ecc fbbc
dc bedee
bbed beec
dee ecbc
bbcc beee
ebc ebbcc
eebd dec
debe dbc
bcc edcc
febb bebe
bc dd</w>
ac dec
ef eced
bc ebac
df ebdc
ed fbebe
ff ffc
bbc ecbf
fbc bbbf
bfc beebb
dbbbb dbd
dbec bbbb
bec dbbd
bcc bcbbc
dd ecbf
dbb bfbd
ebc febd
eecc dcc
ed ebbebe
fcc dbd
bbbc bbebc
edbc bbbe
ef e</w>
fc eeebb
bbd bdebb
bcec dbd
bdc ffc
bbec bedc
dfc dec
ecbc beec
bccc dbe
fc dccc
efc bedc
ebb bbebec
ecbcbc cc
dd bfcc
bcc ecbd
ebf eef
ff bbebe
ed ebeebb
bbbc ea
eec fbbc
fec bedc
bf eebcc
fcc fee
bcc fbbc
dbb dced
bebbbb bebe
eeeeeeee eeeeeeee
df bbbbc
a beef
bbebb bebd
dc fbdc
df fbbc
bf beecc
bbbc debe
ef eebbc
becc bfc
edc febc
bbee eecc
fcc fdc
ebb dcbf
ed ebbee
dcc bbbd
bbd eced
debb debb
dbbc bdc
dc bfbd
ecc eeebb
fc dbbbb
bcbc ebbc
dbc fbf
df beed
dbe debc
bec bcf
dc bcbbd
ebbbc dee
bbbb eebf
eeebe beebe
fc ecbf
fee bebf
eef bbdc
edc edbd
a bcebb
dbec ebe
bef ecbc
bbcc efc
ebb dcec
eeec ebd
bbbc ebcc
bedd eec
dbf fbd
ec bbeccc
bd eeeecc
bbd eebbc
bbf febe
fed bfc
bec febc
debe bbee
ebc bcef
ebf eecc
dbe bbdd
df beebb
dbb ddcc
fc bcdd
ebbc eecc
ebc bdbf
ecc ecbf
bbf bebbc
bdc febb
eedc ef
bd dd</w>
bf d</w>
dbb ecebc
dc ebbebb
bef bcbd
dfc dbc
ed bebfc
bbbc bbbec
bedd a
bbbc bbef
ebd bbbec
bbdc bbbd
eeee dbc
ecee fcc
bbf beed
fee beebb
bcc b</w>
edc bced
fbc ebec
bec bbbcc
bbbb eecc
be ebb</w>
fec bbee
bcee bbcc
dbb efcc
bbebb bbcc
fbd efc
eec bbbec
dee beed
bbfc dbe
bbbb bddd
ac dbc
ef bebcc
fa dd
dcc becc
ebe fbcc
eebc bebd
fee bbec
bef dbbc
ea da
dee bbbf
a debc
ebd bcbf
bf beeec
bec befc
bf bebbbc
fc bbbcc
bef beebe
dee dbec
ecee fbc
fbf ebf
fec bebd
bbbd b</w>
a ebdc
fc bcbbc
bbbe beed
dd dbbbe
ecbe bbbf
bbc edbd
eebc fcc
bbd bebbd
fbe cccc
ebd beebe
dbb ecbbbb
ff eccc
fec ebf
dbd efc
eeef ef
bf ecebe
bbbe ecbc
ba ebbc
bdc ecbc
ebbbc bbee
dee beebb
bbdc bebe
bec fdd
bbf bcebb
deec dbe
eebbcc cc
bbebe bebc
bcc bcebb
bbbb bedd
debb bbebb
febe ebe
bec bba
eebe dbf
eea a
eedc dbe
ebc dbbbe
becc efc
ecbd dbc
bef bbbbc
dd bbbec
bfc eecc
decc ef
fee fbe
bbee fbd
ebb dcdd
bbbb bbbdc
bcee bbbd
ec debfc
ec db</w>
ddc bbbc
dbd bcbd
dcc ebbc
bdbd bbd
eebe eccc
bbee efc
bdec bcc
bebe ebcc
dec bcbd
bebe bebbc
ebb bedbd
bf dbbee
a bcf
dc beedc
eeba cc
bbbe ac
eef da
ecf ebec
dbd dbbd
bcec ebd
bbbe bcbf
dd fbec
fbe debc
ebe dbbf
bbf da
ebb defc
ebb fdbd
bebe ded
ebc bdbc
bedc ebd
ebc bddc
bebe fbd
bcee bbed
fbf dbe
ea dbf
bfc ddc
ecc bcf
eeef eeee
dcc bbec
ebe eced
bbc bcdd
bbf bba
bbd ebfc
dbec bcc
bbee bbebc
bbbb cccc
dd ecdd
fc bba
edbc edc
bbdc bbdc
ea bbbd
ded efc
fdebe cc
ed fbef
bbbf bbec
bbc bbebd
dbb dded
eef dbbc
deec ef
bf bebbee
ecc febe
bbdd bbdd
ebb dbbcc
dbbd ef
beee eeebb
bd deccc
debd dbe
bf acc
fec fcc
debb fbc
eedc bcc
eeebe ebf
fc edcc
a bedc
bbc ecebb
dee ebcc
ebdc edbbec
dbc fbe
bbc dbbbe
bebe bbef
febb dbe
bbf eebf
eebd dbd
ac fa
bbbe bcbbbb
bbed ebbc
bf dbfc
bdbd bdc
bedd df
bec bcbbc
fc beecc
fc febe
eeebe bbbb
bbebb dbd
ebbbc ebd
dcc def
bcbe bbdc
bf bedbe
bbbe debc
ccc bbcc
beec bbbd
ebb bbdbbbb
eeec dbd
debb bbec
ec fcccc
bebe ddc
bef eebf
bbbbc dbd
beee edc
bcbe ebcc
bbbe def
bfc fbf
ef bebec
fec eecc
ecc bddc
ebec ba
eeee df
bcdbf cc
bbc eced
bebc fbd
dc bebbf
fee fbf
dfc bbf
bf bebdc
debe bbd
beed ded
bbbe bbfc
beec edc
dc efdc
febb ebc
eec bcebb
ecc bcdd
bcec bbbc
bbbb fdc
fdd ccc
bbebe ebc
bbbb bcf
fc eced
bbbf ebbc
ebd bcf
bebd bfc
ebd eeebb
dc bebbbe
ebb bbdcc
beec eecc
ee de</w>
efc bbcc
dbb ebbee
eeef beee
ed eebbf
bbbd bcbd
bdee dcc
dbec dbc
edcc ebc
a dca
bf dcdc
bbee eebc
bcc febe
bbed ebf
bbbe bdbd
ec dbbebe
bbd beebc
ef ecf
ebd bddd
bbf beef
ea bbec
eedc dec
ecdc dcc
bbf bbbec
dbe bebbc
eec befc
edbc fbc
bcbc ba
bbbb bdebb
eebbed cc
bf beebd
bbf bcf
becc ebf
ed bbbbcc
bebe fbe
ef eedd
ebe eedd
ecdc ebc
edcc edc
eec bfcc
efc debc
bec bded
bec bdcc
ebe ebbcc
ddc fee
fbd fbd
eebc ebcc
eeec fec
ec dbbef
ec eeeecc
dbc bedc
eebe bbdc
bbbbc bbbf
ebe fbec
fdc bdc
bccc bcbc
ecee dbf
ecdd dd
bbee fcc
bcc bebbc
bbbe bced
bebc ecbc
dc bbedc
ba fcc
bef dfc
dc debbc
da bda
bbf bbebc
bcc ecbe
ebe bbebf
eebd bebe
bbf bced
ecc bcbe
eeee eebe
bf eac
ecbd dec
ef bfbf
fbe debe
bbbe bebbbe
bcbf a
def fbc
ded bcbc
eeee eec
ded bbed
bf eebbbe
ef fbbf
edc fecc
bebe bbdc
eddd dd
def dec
ebc bebcc
ebec becc
ebd dbdc
dcc bbcc
ddc efc
bcc bcf
bddd dbd
bbc bcebe
eeebe eeebe
bcbbbd cc
bbbb bbeec
ebf bbdc
bcee becc
bf ebbbbbb
ed dbccc
bbbb beef
ec bbebdc
bceebc cc
eeed bec
bcbd bbbc
ebb febbc
ecee bcbc
ebf dfc
ac bdc
ebfc df
ffc bec
bc dbbbcc
eeec dbbc
bdbd a
edc bbebb
bebd debb
fdc dbc
ed fbbee
bcc beef
beee bba
eebf ff
bf ddcc
bbdd ebd
bbee ebcc
dd befc
fdc ebd
eeec bebe
bbd ecebb
fc fbcc
f ebb</w>
bdec a
fbd ebbc
fbf bbbc
bebd bef
bdf debb
bbbb fef
ee dbbbcc
da ebe
bdc bbbbc
debe ebd
ebbee bef
fcc bbbc
bbbf ecc
bf bbedc
bd befcc
bccc dbc
ccc bebc
bd bebecc
eec dccc
bdee dbd
bbbe eecc
ddc fed
ebf eebd
bd dbbed
eeec becc
ef fbbd
ebc feec
def dbd
dbe dbbbb
bbfc dee
bdbd dee
edc dbcc
ddc bfc
bded dd
bebbbb bbee
bebe febb
fbd ba
bebe ebec
ea bcec
ebf eccc
ebf fdd
a beebe
bbebe dd
bdbe dbf
dc ebbed
ebc bcbbbb
fc bbecc
beec fee
bdbc dec
bbed bbebb
fbd fee
fbc ebcc
fbc beee
ebbbc eec
dcc dbf
bbbf dec
bcc eced
edbc bbf
ecbe dbbc
ecee bbcc
a bcbe
bebf dd
ee bbb</w>
dc fdbc
dbe eeee
bcbd bcbd
bdc beebb
bbed edc
bbed debb
beec bbcc
bbbcc bbbc
eebc efc
ea bfc
bebf bbee
bbbe bedc
fc bdbf
bec eebf
ecee ff
bbbe ebbebb
bbbbc ff
eef bba
bcbf df
bbbbc ebbc
ebe dbdc
dbc bcec
f a</w>
ebc b</w>
dbec ebd
dbb ecfc
ecbc bef
bbfc ef
ed beebbc
bcc da
febe ff
bebe eeebe
bccc ebd
dbc bbdd
bbbf bbcc
ebc bddd
eebc becc
eebc debb
ccc fee
dc beccc
bebe dbf
edbd fc
ecdc edc
eebbbd cc
bf debbc
bf bdbbbb
dd efcc
bbc fa
ea edc
ecdd ecc
bebd bbec
beed bebc
bfc bedc
df bcbe
bebd ebf
eec bcf
fcc fbd
eebd bebc
eecc bbd
bebf bbbc
debe edc
ebc efcc
dee fbe
ebcc bef
edbc dec
ebcc ebec
bbbd fbd
dcc beec
bbee fbf
febb dbc
eebe dbbc
bbee eeebb
bd bbbecc
fed bebc
eebd bbbc
bc defcc
bdc decc
bbebb bfc
ebd beef
bdee bebc
ea ddc
bbebe dbe
eec bcdd
ed ffcc
ed eebbbc
bbbb bebbd
dee bbdc
ecbd ef
bbbb ebdc
bf efbf
bec ecdc
ecbe ebec
deec dbc
ebd bebec
ebf eeebe
bbebb fee
bec ebbcc
bbbd dbbc
bebe fec
beee dec
dbf bcbc
dbbd ebe
fef ebe
dd fdf
bebe dbbc
bbbbbbbb bbd
ebc dbbf
dcc fdc
bbebc ccc
dbe dfc
ebbbc df
bedc ded
eebd ebbc
dbb bfed
ffc bbc
ebb acc
eebf bbc
ebec fee
febe ef
bcbd bdc
bcbd bbd
ba fbd
dbe fdd
ecbc ebbc
eecc ded
bebe bcec
eecc fcc
bbf bebbbb
bbee eeebe
bbbc bebbc
dbbbb bcc
bebd beec
dbbd fc
bced eec
bbbc bcbbc
dbbd bbbe
da dee
ebb ececc
dbe bbef
bbec fbd
bf fbbbc
ecf bbbf
eecc ebbc
a bebbc
fbc ddc
fed ecc
bc ed</w>
eebe debb
ac ecc
dc eedee
bbbc bcebb
ed befcc
eedc ff
bcbf dd
dc beff
dbcc eec
ccc efc
bf ebbbd
bf ebbee
dbb bfdc
fdc edc
dbf dbf
ebb beba
bdc bcec
bbbc bcec
bcdc df
bbbb debc
dec dbec
bbbb ecbd
bdee ebd
ef ecebb
bcc ecbf
bcbf ff
a bbba
bbd bcef
ef dedc
bf ebccc
eeec bebc
dbcc dd
bdbc ebf
bcbc bbbbc
ba eeee
bebe bba
bec ebfc
a eef
bcf bbef
bf fdee
bef bbdc
dbb edbc
bcf eccc
fdc efc
ebc bdec
ecbc ebf
dbb bdebc
eeef fee
bebd eebc
bfc fbe
dbb ecdf
fec def
ebe bdec
bdf beee
bbbb ecebb
fbbbb bbbe
bd ebfcc
eec beebc
bdbc bebc
bdc fdd
ba debb
fcc eedc
bbee ebec
dbd becc
bcbc beee
edbd dee
bf eebec
beebb ccc
ed ebbef
febb ebf
bebbbb bbbbc
bbeec bec
ebdc fbc
eec bded
bbec fed
beebb ff
febe beee
ebe eddc
beed ff
bbec bbbbc
bbdc edc
febb bcc
bcf debe
dc bbbbbbbb
fa ccc
bbbb dbec
dc eebbbb
ed dac
bdbd bec
bbd ecbf
bcee beee
bbf ffc
beef ff
debd bec
bf fbef
ebcc bbbd
ebc bebbd
ebb beebbc
ded bcec
beed dbd
bccc bdc
bbc dedc
ddc bbee
eebc bbcc
bbc dbdc
ef bdef
dec ecbc
fda cc
ef bddd
dd dbbf
bcbf bec
dbc dfc
ebc dcdc
bcbe debc
bdf bbbf
ec ebac
fbe da
decc df
fbe bdcc
ba bbbbc
fbc ea
dbc bdbd
bebe bcebb
bfcc ccc
ded bbcc
ecbd ebd
bbbc bdbd
dbe bbebc
bbbc ecbc
eebf ccc
bbebe bbd
ebb fbeee
fbe bbfc
ec dbbfc
ffc a
bc bbebfc
eec bcbbc
bbebe bbbd
bbbb dfc
bcee debb
bf eca
edc bbdd
ecbf ccc
dbd da
beebb beebb
bcbe bbbec
bdc bedd
dbb dcdd
ecc bded
ac ac
dd ebfc
dee ebec
ebcc fcc
ebd bba
dc eeccc
bbef ebc
fed bbd
febc df
dec debe
ef dbbbe
ded beee
bebd ba
dbb edebb
fec bbcc
ebf bedc
eec ecec
fbe bbebc
