#version: 0.2 - Trained by `huggingface/tokenizers`
b b
b e
b c
e e
c c
b d
e c
b f
e d
e bb
d c
bb bb
e f
e be
d d
e bc
bb c
f c
be c
e cc
e bd
bc c
ee c
bb d
d f
bb be
bb f
d be
e bf
bd c
ed c
b a
f f
bb bc
d ee
cc c
d bc
bb ee
be be
bf c
ebb c
d bb
d ec
d bd
be f
d cc
e a
bb bd
be bc
ef c
d ed
bb ec
f bc
be ee
bb cc
f ee
bb ebb
ebe c
bc bc
ebc c
f be
d dc
d bf
f ec
d ebb
bb bf
bb ed
f cc
be ec
ee ee
a c
bbbb c
ee bc
be bd
be cc
f bd
d ef
ecc c
ec bc
ebd c
f ed
bb ebe
ee cc
bb dc
d bbc
ee be
d ebe
ee f
d ebc
ec be
bb ef
bc be
bc f
ee bd
d fc
bb dd
d a
bc cc
d bbbb
d bec
bc bd
bc ee
f bf
be ebb
f dc
bbbb bbbb
bc ec
bb ebc
d eec
be ed
bb a
f ebb
be bf
ee ec
e ba
bb fc
bd bd
be dc
cc cc
d bbd
bb bec
d ecc
ec bd
ee dc
ebf c
d ebd
d bcc
ec f
bc ed
ee ebb
f ef
bb bcc
f dd
ee bf
ec ec
be ebe
bc bf
be dd
ee ed
bc ebb
be bbc
f fc
be bbbb
bb ebd
d edc
f ebe
be ef
ed cc
ed bd
f bbc
ee dd
bc dc
bb eec
ec dc
d bdc
d bbf
d ccc
ee ebe
d bbbe
bb ecc
f a
bd cc
ec bf
ec ee
bd bc
f ebc
ba c
bc bbc
ec ed
bd be
bd f
be a
bf cc
bd ed
ec ebb
be fc
ee ef
bc bbbb
be ebc
bd bf
bc ef
d bbbc
bc dd
ec dd
d ebf
b b</w>
ea c
ee bbc
ebb cc
f bbbb
bb bdc
bb ebf
bd ee
ebb ebb
bb ccc
be bec
ed dc
bd dd
f bec
bc ebe
bd dc
ef cc
f ecc
be bbbe
bd ec
f bcc
bd ebb
d bbee
bc fc
bc ebc
ed dd
d bfc
be bbd
f df
dc dc
ee bbbb
ec bbc
bb edc
be bcc
ed bf
f bbd
ee a
f ebd
ed bc
d ebbc
ebe cc
ebc cc
f eec
bf bf
bc a
dd dd
ee fc
d efc
be df
be dbe
bc bec
be ecc
bb ebbc
d ba
f bbf
bb ba
ed ed
ec ef
be bbf
ebb bbbb
f dbe
ebb ee
bd bbc
ec bec
bb bfc
ebb bc
be ebd
bd ef
ee ebc
bd bbbb
ebb bf
ec ebc
be eec
f bbbe
ec ebe
ec fc
dc ed
f ccc
bc bbd
ec df
dd cc
ee bec
bc bcc
f edc
ebb bd
ee bcc
be bbee
be bbbc
bc df
bf dc
d ea
bc eec
dee cc
dbb cc
ee dbe
bf ed
f bdc
ebb ed
dc bd
ec bbbb
bf bd
ec a
ee df
ebb bbc
f dbc
ecc cc
bf bc
ebb ebe
b e</w>
be ff
b d</w>
f ebf
ee bbd
ee bbbe
d ebcc
d ebec
ec bcc
be bdc
bd a
bd ebe
b c</w>
dc dd
be dbc
ed bbc
ee bbf
dc bc
ee ecc
be ccc
ef bf
dc ec
a cc
be ebf
bc ebd
dbe cc
ec bbd
bc ecc
df cc
f bbbc
dc bf
bd fc
ee bbee
bc bbbe
dd ed
bd ebc
ebb ef
be dee
ec eec
bbbb bbc
f dee
bb efc
be edc
bb ea
f bebe
ee ccc
e b</w>
bbbb cc
bf ebb
ef dc
bc bbf
bb ebec
f bef
ec dbe
ec ecc
bc dbe
bd bbd
bf ef
f bbee
bbc bbc
bd bec
ebd cc
ebb dc
ebe ebe
bf bbc
ec dee
bd df
ee eec
d ac
be dbb
bc ccc
ed ef
bf fc
f dcc
f dbd
ed df
bc bbbc
ff cc
ed ebb
ee bebe
ee ebd
bbd cc
dd dc
bbbb ebb
dd bd
bf ec
f bfc
ee bdc
f dbb
bf ebe
ee dbc
bf dd
ed ec
ee ff
dc ef
d eccc
f dec
ebe ebb
be dbd
bc dee
ed bec
bb ebcc
ed ebc
ee beee
bf a
ee dee
bc ff
ebb ec
d ebdc
be dcc
dbb bd
ef ef
d bbbbc
ed ebe
bbc bbbb
fc dc
bc dbc
be bbbd
ebb ebc
f ba
ed a
bf bbbb
ec ebd
bd eec
ee ebf
ee bbbc
be dec
be bbebb
be bbec
ebb dd
bbf cc
be ba
ed fc
bbc bd
f ebbc
dc ebe
f bebc
ebb a
be bfc
bc bdc
dc fc
ee bef
ef dd
dc ebc
ebb bec
ef bd
f beee
ed dee
bb ac
be ebbc
bc bebe
bbbb bd
e e</w>
a a
dc bbc
ebe bf
ebb fc
bc edc
ed dbe
ee dcc
ec dbc
bbbe cc
bd bcc
ec dec
be bbcc
bbc bf
bd dbe
dc ebb
f bbbd
e c</w>
ded cc
e d</w>
ebf cc
ec bbf
ed ee
f efc
ed bcc
bf ebc
ebb bbbe
ec bbbe
ef ebe
dbb dd
ed bbbb
f bbcc
f bbec
d b</w>
bbd bd
ec bdc
dbc cc
ebe bbc
dc bec
ee edc
f ea
dc eec
eba c
bef cc
f dbf
f ddc
bc bbee
dcc cc
ec ff
ebb bbd
ee fee
bd ebd
bd ecc
ef bbc
bc dec
ed eec
ebe bbbb
bbbc cc
bf bec
dc a
f ded
ee dbd
fc bf
ef ebb
dc ecc
bbc ebb
bbd bbbb
bbbe bbbb
bc ebf
ebe bd
bc dbd
bc bebc
ef fc
dbb ebb
ed bbd
ef a
bc bef
ef ed
fbe cc
dc df
ee ba
dbb bf
bebe cc
dbb ed
ebe dc
f bbbf
bc fbc
fc dd
be dbf
bc bbbd
ec edc
bd bbbe
ebe ef
ec bbbc
be ded
be bbbf
be ea
dc ee
ec ded
bd dee
dd bf
be ddc
bb b</w>
bbbb bf
be bbed
ebc ed
bbd bbc
ebc bf
bc bfc
ebc bbc
bd bbf
ee dec
fc fc
f bbebb
ebe dd
dc bcc
ee bebc
ebb bcc
bec bbc
ebe ed
bbbb bbbe
d d</w>
bbd bf
b f</w>
ec dbd
ebb eec
ee bbec
bbee cc
bb ebdc
be debb
fbc cc
bec bf
bbc ed
bc bbec
ee fbe
f ebcc
bc ded
ebc ebb
bd ff
ee bbebb
ecc ed
ec dcc
bc dcc
dbb dc
bc ebbc
ec bebe
fc bbc
fee cc
f ac
a dd
bebc cc
bd dbc
dbb ebe
be efc
bf df
bf bcc
ee ebbc
ebc dd
bd bdc
dc ebd
ec bef
ed ecc
bb eccc
bc bbcc
ee bbbd
ebe a
ebb bbf
bbbc bbbb
bc ba
ebc bec
dd bbc
ebc dc
fc df
ebc bd
dd ef
f ebec
f debb
bbbbbbbb bbbb
dbd cc
ee fbc
ed ebd
ebb df
fc ef
be bbebe
be bbbbc
fc bd
f bbed
ec bebc
bbd ed
ebb ebd
be ebec
ee ddc
ee bfc
ebc ef
bbbb ebe
bbc bec
ee bcbc
bc fee
fc ed
ec bfc
a bf
bbc dd
bec bec
bbc ef
bbbb bbd
bd dbd
f def
ebb dbe
bbc ebe
cccc cccc
ec bbec
bc beee
dbb ef
ed dbc
ec ebf
df dc
ee bbcc
bd edc
ebc ebc
d e</w>
ee ea
be ac
bbc dc
bf bbf
dd a
ed ccc
bc fec
ec bbee
d ebfc
be ebcc
ebb bbbc
bec dc
bc bbebb
ee dbf
bf ecc
eec dc
ebb ecc
dd ebe
dbb fc
d c</w>
bcc ed
a ed
dd fc
eec bf
a bd
ebb bebe
bc fcc
bc fbe
f eccc
a dc
ec fbc
ec ebbc
ebc bbbb
ec beec
bbd dc
bc efc
df dd
bbd ebb
ebe bec
bbc bcc
bd bbbc
bbc fc
ef bcc
bd ccc
ebe fc
df ed
eec dd
ebe bbbe
bc beec
bf ff
e bb</w>
be dbbc
ec bcbc
ee ded
bf bbbe
ee dbb
bec dd
bc dbb
dc dbe
bd bebe
def cc
bf dbe
ed dec
bbcc cc
dc bbbb
ebc eec
a ef
bc eebc
ebc fc
bf ebd
bec ebb
ebe bcc
ec bbbd
f dbbc
bbbb bbbc
fcc cc
f bbef
ef df
ba cc
a bbc
ebd dd
ee beec
be bbef
f bbdc
ed bbf
bc debb
bf bbd
ed bdc
bc dbf
bc bbed
ee bbed
beee cc
dc bbd
a fc
df fc
bcbc cc
bbc ebc
be bbdc
bbbb dd
bc bebd
eeee cc
bec bd
d eba
f da
bb ebfc
ec ba
f bbbbc
ec fec
ef ebc
ef bbbb
be def
bb eba
ed bbbe
bf eec
ed ff
bc fbd
dd ebb
ecc eec
ebc ebe
bc bbbbc
ef bec
f dfc
dd eec
bbc bbd
a ebe
bc bbbf
dc dee
dd df
dbf cc
dd ebc
ee bbebe
ea cc
be debe
ebb ff
bcc bbc
f bbebe
bd bbbd
bd dec
a bbbb
dbe dc
bc ddc
ec fee
fed cc
ee bbbf
bc ebec
ee fcc
ebc df
ebb bbee
bbd ebe
ec becc
bbbbbbbb bbbbbbbb
bbf bf
ebd ed
bd bbee
dd bec
bccc cc
dc edc
dd ecc
eebc cc
bc becc
dbb bec
eec bec
bcc bf
ec debb
bbd ef
bbbe ebb
ec ddc
f debe
fc bec
bd ebf
cccc cc
eec df
dee dc
ef dbe
a ebb
bbbe bbc
dbb ebc
fc ebe
bcc bcc
ec bbcc
ee becc
be bbebc
ee bebd
f ebdc
ebd bf
ebe bebe
df bf
be dbbbb
ed edc
ef ff
ebe ebc
dd bbbb
dc ff
ec efc
eec bbc
ed dbd
bd bef
ee debb
bec bbbb
ee fec
ec beee
bbd bbd
dbb a
be debc
ef ecc
f debc
ef bbf
fc bcc
ec bebd
ee fbd
ec dbf
bbc bbbe
bec ed
ecbc cc
bc eebe
ebc bcc
bc ebcc
ec fcc
bc ea
bbbd cc
dbe dd
e f</w>
dbb bcc
bbf bbbb
dc dbc
dc bdc
fc ebb
dbb ebd
ec fbe
bd fbc
bec ebe
ecc ecc
bd bebc
ec bbed
ed ded
ee efc
bec ebc
ebb ebf
fc a
bc fed
bd ded
bec ef
bbc eec
dd bcc
ebb ccc
fc ebc
ebe bbf
fbd cc
be bbdd
bd dcc
dc dec
be dbec
bbbb ed
ec bbebb
bc eeee
bc def
bc ecbc
bbbe bf
ebb dbc
dbe bf
ee bbef
ee ebcc
bd bfc
debb cc
be bba
bc eecc
bc ecbe
ebb bdc
dd ebd
ee ebec
bbc bbf
dd dbe
ec def
bbc a
ecc ef
be bbbec
f bbdd
ee ac
ec eebc
bbbb bcc
bec df
d bac
ec ebcc
bcc ef
bbd ebc
bb d</w>
ebe bbee
ee ecbc
ecc bf
bc debe
bc eebd
ebd dc
bec fc
bc eef
ed dcc
be eccc
bbbb bbf
bbbb bbbd
bbbc bbc
ff dc
bbbe bbbe
ed bebe
fc dbe
bc ac
ef ccc
ff bf
be da
bbd bec
bbbb bec
bd ba
dee dd
be dfc
f dbec
bbd a
bbc df
bcc ebe
bbd fc
ecc ebc
d eac
ee dbbc
ec ebec
dbb eec
ecc bec
ecc dc
ebd ef
bbbe ebe
ebb edc
bf ccc
f bbfc
bf bdc
bf ebf
ee bbbbc
becc cc
ed bef
be ebdc
eecc cc
ee def
ebb bbbd
bbc dbe
bbbb ebc
bbbb ef
ebb bef
bebd cc
dc bbf
ebb dee
ebe df
dc dcc
bbc ebd
ed bbbc
f dbbbb
bd bbec
bcc fc
bc bbdc
bbc bbbc
eec ef
ec fbd
bcc dd
bbebb cc
bb c</w>
bf bebe
ebc a
dbd dd
bf bbbc
be bbfc
ec fed
bcc bd
ebb bebc
bb e</w>
ecc dd
debe cc
bf edc
ec eecc
ebd df
ff dd
bf dbc
ecc fc
ed bbec
bbebb bbbb
bc dbbc
bcc bec
f bbebc
bd ebbc
bcc ebc
df a
bcc dc
bcc eec
ec ecbc
dbe ed
df ef
f bba
ebe bbd
bbbb a
bbbf cc
bbf ef
ebb beee
ee bbdc
ebd bd
df bd
dd bbd
bcc ebb
dd edc
bc bbebe
ebc ecc
bf bbee
eec bd
ebd bec
dd dbc
bf dee
ebe beee
ebe dbe
ec ea
ec debc
ed bebc
ebd ebb
ecc bd
ebd bbc
e be</w>
bbbb dc
ecc bbc
bbbb fc
ee ecbe
ec deec
bbf bbc
ed bbee
bb bac
bb bb</w>
be deec
bbd eec
bc debc
ecc ebb
bbed cc
ebd eec
fc eec
ed ebf
ee dbec
ebd ebc
dc dbd
f bbbec
ec dbb
ff ef
fc dee
ec bbbf
bc bbef
bbf ebb
bc bbdd
f dbcc
bec a
f dbbd
df bbc
bf bef
ecc ccc
ecc edc
bec eec
ebe eec
be dbbd
dbe bbc
dbe bd
dd dbd
dd bdc
ee bba
bbd bbbe
ef bbbe
bcc bbbb
ff fc
fbf cc
ebb ebbc
bd fee
df ebc
ec dbec
ef eec
edc ed
ee eccc
ebb bbebb
ebe ebf
ebe ff
bc dfc
bd beee
ebd bbbb
a ebc
ebe bbbc
bebe bbbb
ebe ecc
bbbd bbbb
bec bcc
ed bfc
ebb dec
ef bdc
dc ded
dc bbbe
bd ddc
eec eec
e bd</w>
debc cc
ebc bbd
bbf fc
ec dfc
d bb</w>
bc dbbbb
ed ddc
dd dee
f deec
bec dbe
ef bbee
be dbcc
ebe bdc
ebe eeee
ebc ebd
ebe ccc
bd bcbc
ef bbd
dbb bdc
e bc</w>
dd ccc
bd fbe
ef bebe
be bbbbbbbb
ebb dbd
ef ebf
a df
ee da
ebb fee
ebe ebd
be bbbcc
ec bbdc
ef dbc
ecc a
f decc
ef ebd
bf bfc
ed fbc
ebb bbec
bf fbc
ec debe
edc eec
ec dbbc
ebc dbe
bbf dc
ebe bef
fc bbbb
ee bbebc
ed beec
bc eccc
ec bbbbc
ebc ccc
bcbc bcbc
bd efc
bd fec
ebc bbbe
ef dee
ed ba
eec a
bd debb
bbc bdc
dc ebf
be bbeec
ee debc
dd ff
ec eebd
bd bbcc
fc ff
ebd a
ebb ba
bebe bbc
bd beec
bbee bbbb
bbbc bbbc
bc ebdc
fbe bf
bbd bcc
ebb eeee
ec ac
ec eeec
bbc dee
ebb fbc
ec eccc
dbe fc
ebb bfc
d f</w>
ebd fc
eec ebc
ed bbbd
bc bbebc
ecc ebe
bec bbd
ee debe
bbf a
dec dc
bc dbec
f debd
bef bf
bcc a
be debd
bbc dbc
ee fed
bec dee
bbbb dbe
be bbebd
f bbbcc
be eba
ec eeee
bd dbf
ed def
ba a
ee dbbbb
ec decc
ed ebbc
ecc df
ff a
bc bbfc
bbbc bf
eebd cc
dbb ccc
be b</w>
bbbbc bbbb
f eba
ecc bcc
ebf bf
ec ecbe
eec fc
ec da
ef bef
ef fee
ec eef
bc da
edc dc
ec fdc
bbf dd
ed debb
bbebe cc
ee bbdd
ed fee
ebd ebe
df ebe
f ebfc
bbc bebe
dbb ecc
df bec
edc ef
dee bf
eec ebb
ff ff
ed dbf
f b</w>
bc deec
bd bbebb
dd dec
bbbb bebe
bbd bbf
f dbbf
bbbb bbebb
bd fcc
dd dcc
ee dfc
ebc bbf
ec eedc
bbd ebd
bd bebd
bbbe bec
bbee bf
eec bcc
bd fbd
eebe ebe
bdc dc
be decc
ee ebdc
bbbe dc
febb cc
fc ecc
bebf cc
df ecc
ebc dee
ebe dbc
df bcc
beed cc
bdc dd
ee deec
ec ebdc
eec ed
dbe bbbb
bbc ecc
bbd bbbc
bd eebc
bbc ff
a bec
bebe bf
bbf ed
bbee ebe
dbc dc
edc dd
bbf ebe
bbbe dd
ed beee
edc bec
eec bbbb
bdc bf
a dbe
bebe bebe
df ebb
bec ebd
f dccc
ebc dbc
a bcc
bdc ef
eeee eeee
ee bbfc
bbee ebb
bbbc ebb
da cc
dc fbc
bc bbbec
fc dbc
eec dec
fc bbf
f bbeec
eec dbe
ebc ff
df df
ebc dec
bd bbed
dc bbbc
bf dbd
fc bbd
ec eebe
be bbecc
fbe ef
bdc ed
dd ddc
ebc edc
bc bbbbbbbb
dc bfc
bc dbbd
df dbe
dc ddc
ed fec
ebe fee
ebb bbcc
ec bbdd
bd dbb
bbef cc
eec dee
bbbe bebe
bbbe ef
ecc ebd
fc ebd
bd ea
dc bebe
bc bbbcc
be dbbbe
dbc dd
bf fee
ebf ef
bf dec
bdc bbc
ed efc
ee bbbec
dbe bec
bbf bbf
bb eac
bbd bbbd
bbbb bbee
bf bebc
bbc bbee
be dbbf
ec bbebe
bd becc
dbe ef
bbc dbf
ebb bcbc
bcbd cc
bbbe ed
edc ebc
bf dcc
bdc ebe
ee eba
be ebfc
a ff
ec fbf
ebb fbe
dbe ebe
f dbdc
bbbe bbbc
bd ebec
dc fec
eec ebd
ded dd
ebc bbbc
bbbb bbbbc
ee dbcc
dbb ebf
fef cc
bc bba
f e</w>
bbbb ebd
dbe ebb
bcc ecc
ef bbbc
edc df
bc debd
eec ebe
ee dbbd
bf ba
f bbebd
ef beee
dc bef
bcc ebd
dbc bbc
dbe a
ff bbc
ebb bbbf
bbd bdc
fc dec
ec dedc
ec bbebc
ec debd
bd bcbe
bec bbbe
ec ecbd
ed becc
fc bdc
ec febb
bd def
bec dbc
bcc df
bbc bbbd
bec ecc
ef edc
bebe ebe
ebc bdc
ed bbebb
bf fbe
ed bbcc
decc cc
bbbe bbf
dec dd
bbbe a
ebd ebd
bebe ebb
bd bbbf
f bbecc
dee bbc
ebf dc
ed bcbc
bc dbcc
bc b</w>
bf fcc
ec bbef
eec dbc
bbbe ebc
bf ebbc
bf beee
ec bdbd
a ba
bbebc cc
bbd ff
bced cc
bbbd dd
ebf bbc
bef dc
fbe bbc
dbe dbe
a ecc
bf bbec
bd dbbbb
ded dc
bbbe bbee
bec dec
bd bcf
ef dcc
a bbf
a bbd
be dccc
ebb dcc
dbd dc
bd debe
bec ff
bd dbbc
edc fc
bd eebe
f dbbbe
ebf fc
ebc bebe
bbbe bbd
df ccc
beebb cc
ed debe
dc bbee
bec bbbc
dc efc
edc ebe
bbc bebc
edc bf
ebb ded
bd ebcc
bdc ebc
bef dd
bdc fc
bd ac
bef ef
ed bbed
ed fbe
ebf a
bc decc
ebb eebe
bd bbbbc
ebb eebc
bec bbf
bf bbbd
bbc dec
ebf ebe
eec bbd
dc bebc
ebc bebc
ec bbfc
bdc bec
dd ded
ebb bebd
ff ebe
cccc ccc
dbc fc
ebd dbe
ec ecf
dbb edc
dbbbb bbbb
ebb debb
bcc bbd
bd bbdd
ebbc bbc
dbc ef
fbe ebe
dd bbf
dbc bf
eec ecc
bbee bbc
bbbc ebe
a ccc
bd eef
bbbe fc
bd bcbd
ebb bbbbc
eec ff
ed bebd
bd bcee
be bbebf
ee debd
ebb fec
bbc dbd
eeed cc
dee fc
dc fee
ecbd cc
bbd bebe
be dbdc
bbd ecc
bef ebe
bd fed
bcc dbe
ed eebc
df ebd
ed fcc
bdc eec
bd eeee
dbc bbbb
ecbe dc
a ebd
ebe bebc
a bbbe
f c</w>
dd fbc
bec bbec
ebf bbbb
bd bbdc
ecc dec
df edc
ef fbc
bef bbc
bfc bf
ec dbbbb
df bbbb
ecc bbbb
df ff
bd eecc
ebe dee
bbf ebc
ee decc
ee bbbcc
ebb ea
be dbbbc
bcc ff
ef dbd
ebbc bbbb
dc fcc
bbbe dbe
ebb beebb
ef ba
beee ebe
dbc ed
bbee bbee
bf bbcc
bbf bec
a eec
bd ecbc
f dedc
bcc dee
fbe bbbb
ec dbcc
ef dec
bd beed
df eec
bdc bbbb
ebe edc
bf bcbc
dcc ccc
bbc ebf
dc ebbc
bcbf cc
ebd ecc
ec eedd
ef bfc
d eb</w>
ebb efc
bcc bbf
ee bbeec
bbd bbee
ebd dee
df dbc
ff ccc
bbbc dd
bbc bfc
ebb beec
dbe ebc
bcf fc
edc ecc
ee dccc
bd eebd
ebb bbed
bbc bbec
bec bdc
ba bbbb
debd cc
ec eeed
dbbd cc
bbbe bcc
fbe dc
ee b</w>
bbdd cc
eec ded
eef bf
eebe ef
ebc ded
bd ecbe
bd fdc
dee ccc
df bdc
dbb ebbc
bbbc bec
bbc bef
f bac
dbb bfc
dc bbbd
ed ebec
dbc ebe
dbe bcc
ef ebbc
ec bbbec
f d</w>
ed ea
ed ebcc
dd bbbe
ebd bbd
ebd bcc
bbc fbc
dbb ba
be e</w>
fc bbbc
ed bcec
ebb bcbe
a dee
df bbd
eeee ebe
ebb ebec
bbf ff
bd bcec
dbd bf
ee bbebd
dd ebf
bbc edc
bebe bbbe
bcf dc
d bd</w>
bbc bcbc
bd fbf
bdbd cc
ecc ff
fdd cc
eebf cc
bf dbf
a dbc
f debf
dcc dc
ee bbecc
f bbebf
eef ebe
df bbf
bcc bdc
bbd ccc
f dbbbc
bec bebc
ed fbd
bd debc
bcf dd
fbe fc
dcc dd
a bbbc
beee bbbb
bcc bbbc
ebc ebf
ebc ebbc
eef ef
bebe ef
ecbe dd
dbd bbbb
ebb bbebe
ec dbbd
a bba
bd beebb
f eac
ebb becc
bcc edc
bcbe dd
ebd dbc
bef fc
eebe bf
bc bbebd
bc ebfc
ebc bbee
dee ebe
a bdc
fee bf
bcebb cc
bbbc bbbe
fbe dd
ccc dc
eebe bbbb
f bbccc
eec bdc
dbe df
dbe ecc
dec bbc
bbbf bbbb
ed deec
d be</w>
d bc</w>
ebc bfc
bbf bbbe
ebb dbf
dc bbec
bf fbd
bbee dd
bd bccc
ddc dd
a ebf
be bbbdc
bbc ebbc
ed debc
ebd ff
bf efc
bbee bbbe
fc fbc
bc dedc
bcc dbc
dec bec
fc dbd
bcc bbbe
ed eecc
bd eeec
bef a
ed beed
bf fec
fa cc
ebd edc
bbbb ccc
fc ded
bba cc
dc bcbc
bbd edc
febc cc
bd bedc
ed fed
bbd bebc
be bbccc
ebd dec
ebd ccc
ebf dd
fc dcc
bbbd bbc
be dedc
ef bebc
f bbbdc
bbbb eec
bbf df
ecc bdc
bd dfc
ec eeebb
be c</w>
bd febb
febe cc
bcf bf
fc bef
be bbedc
bcbe dc
ebe ba
bd da
ef eeee
ebe bfc
b a</w>
ccc dd
bbbb dbc
be d</w>
ebb fbd
bbbb bbec
bcbe bbc
ecbf cc
be debf
bc bbeec
bc dbbbe
a ea
bbd ebf
ecc dbe
ebc dbd
ecc dee
ed dbbc
ebb fcc
edc bbc
dc beec
ebb ebcc
ef ea
fc bfc
dbbbb cc
fc bbbe
bec ded
bec bebe
ebc fbc
ebe bbebb
ef fcc
bbbb bebc
be bac
ed dbec
ebe bbbd
bbee dc
bbec bbc
bbf bcc
ed dfc
dbd bbc
beebe cc
ed bcf
fc ebf
ed eeee
bc dbbf
edc a
bd bebf
ff df
ec edcc
bbbc bbd
bf ded
eeebb cc
be bbebbc
ebd bbf
bc bbecc
ebc bef
dbe ccc
bbbb bdc
fc bebc
edc dec
eef a
dbc eec
bf bbebb
dbc bec
bd dbbd
ebd bbbe
ec bba
bbc bbcc
eebe ebb
be dbbee
dc ba
bbbc ef
dd bebe
bbee ef
ee dbbbe
dbe bbd
dd bbbd
ee dbdc
df dee
df dcc
bc dbdc
bbbc ebc
dc beee
ff bcc
bf bbbf
ed da
ee dbbf
ec dccc
ebd bdc
bec ebbc
ecc bbd
df fbc
dbc ebc
ec bbecc
edc dee
f dbfc
ed dbb
df dbd
ee bbebf
ebe bbec
bbbb ebf
bbbc dc
ed ecbc
ebe ebbc
dbe dee
bccc ccc
dbe bbbe
bd b</w>
bb bd</w>
ed bedc
dec bf
eec bbf
ed bbbf
ea a
eebe bbc
beef cc
edbd cc
ebe bbcc
ebb febb
fbe a
beee bf
ec dbdc
ebd dbd
bcbe bbbb
bebc bbc
bbbc bcc
ebd bebe
dcc fc
ec bbbcc
bec dbd
bef bbbb
dc eebc
ebc fec
ebe bcbc
ebe dbd
ebe fbc
bd dbec
bcf ef
bfc bbc
bc c</w>
ebe dec
ed bcbe
ed bcee
eec bbbe
bdc ebb
dc fbd
bfc fc
bbbc fc
bd bbebe
ba dd
dee a
eec dbd
ecebb cc
fee dd
fbe ebb
e bf</w>
eebe a
ebe dcc
bbbe bbebb
bd deec
f dbbee
ed ac
ebc bbbd
dbe bbf
ebc bbec
dee bec
bbee a
bbd fbc
ef bbec
eec bebc
dc eecc
bcf bbc
ec ebfc
ebc dcc
edc bcc
bdc a
efc df
fee ebe
ecc ded
ecc dbc
ec bbeec
efc bf
ebf ebb
bec fbc
bcbe bf
bbd bbec
fbe bcc
bbbb dbd
ed bcbd
be dbfc
bd bbef
ebbc bf
dee bcc
fc edc
fee dc
bec bfc
ff bbf
ebb ddc
ea dd
bbbb bbcc
bebe dc
bedd cc
eef dd
fec dd
fbc bf
dbe eec
ed beebb
bc dccc
ef bcbc
ee ebfc
ebc bcbc
ec eebf
ebb ecbc
ec b</w>
dbc dbc
ed bbdc
ef ddc
bbc bbebb
bb f</w>
bbbb df
bebe dd
dc dbf
dbe ebd
ebb bcbd
fbe bec
ba bf
eec dcc
bdc df
bbbd bf
edc ebd
bebe bec
ccc fc
f bbbbbbbb
bbee bbf
eec bbbc
bbbb ebbc
ecc fec
ebc eebc
ec bbebd
ecc bbf
bcc dec
be bbba
bbbb bcbc
beee beee
ba bbc
bebe fc
bef ebb
dee dbe
eef dc
ef fbe
bebc bf
bbcc bbc
bdc ebd
dee bbbb
bebc bec
bc bbccc
ddc dc
fc bbec
ff ed
edc ebb
bbd bfc
dd bbbc
bbc ded
ec edbd
dbc ebb
dcc eec
bebe a
bebc bbbb
bc eba
bcebe cc
bdc bcc
bbf dbe
ccc bf
bcef cc
bbf bbd
dc ebec
bec ebf
bd ebdc
fc fee
ed bccc
ebb bcf
ecbe bbc
bec bef
f bbedc
edc edc
ef bbbd
dd bfc
dec dee
bbf bbbc
ebb bebf
dbc a
bbbb ff
ed fdc
ebb bbbbbbbb
bc debf
fec dc
eebe bbbe
df bbbe
bcc ebf
df ebf
bbebb bbc
bf ea
ebd ded
ebd bebc
bbd bef
bb bc</w>
d ed</w>
beee bbee
bbbb bef
ee dedc
ebbc ebc
bdc dbe
dec fc
dc fed
be debbc
ef dbf
bcee dd
dec ebc
ecc eecc
a dbd
bebe bcc
ebb eecc
eef bbc
bea cc
be defc
dc debb
ef bbcc
ecf fc
eedd cc
fbe bbf
a edc
bec edc
bf ddc
bd bced
fbe bbbe
ebbc dd
f debbc
ee d</w>
dbc df
a bbee
dc becc
ccc bcc
dec df
ebc efc
fee ef
ebb eebd
bb eb</w>
bbbb dee
d ec</w>
bec bbee
ded bbc
be bbbfc
bfc ef
beee bbbe
fbe ff
ebb eeebb
bbd ebbc
f bbbfc
bd fdd
bf beec
ebf ff
ecc eebc
be dba
edc ff
bec dcc
fecc cc
beee bbc
bbbd bbbd
fbc bbc
d ee</w>
bbbb bbbf
ebb fed
ebb eef
ef efc
bebe ebc
dbe bdc
ee c</w>
bd eedc
bf bcf
bbbbc bbc
ecbe ecc
bfc dd
beebc cc
a bef
f dba
bf ac
ebb bcee
ef ded
ebd bbbc
ebb bbdc
dbc ccc
fec df
ebc fee
bcbe fc
ebc debb
bbbb ecc
ebe ea
bbd bbcc
fbc fc
bd fef
dee df
ed decc
ed eebd
ebf bbf
dbc bcc
ecf dd
ed bced
bc dbbbc
ebc beec
dbe ff
ee dbbbc
dc bebd
bf debb
bebe bbf
dee ef
ebf bec
ec dbbf
ebf bcc
dc bbcc
ebb bebbbb
bebe bbee
dbd dbd
bdc bdc
bd eccc
bec beec
ebc bebd
bd bebbc
dc bbed
ebb fbf
fbc ef
ed eeec
eeee beee
fc beec
ebb dbbc
eec edc
ccc bbc
dc ebcc
bbbe bbbd
ebbc ebe
ebb bcec
bbbe ebd
bbbb ba
ee e</w>
bf becc
bdc ecc
bd ecbd
bbc ba
fc bcbc
bb be</w>
dbe bbbc
efc dd
dec bcc
ebc ba
bc bbbdc
bdc dee
debf cc
bd ffc
bbd bbebb
bd debd
ccc ecc
bef bbf
dcc ef
bcf ebe
ed eccc
ebb bccc
eebe bbee
bbec bbbb
ed bdbd
bd ecf
bbec bf
bec bbbd
dbe dbc
ed bbdd
ebbc fc
bbd ba
bfc dc
bbc beee
ebb dbbbb
ee bbedc
ed bbbbc
bbbc a
bf eeee
bfc df
ec dbbbe
ed bbebe
ebec bbc
dbd ef
dd bbee
eba cc
bd bbfc
ebc becc
bcc bebe
ebb dbb
dc fbe
bd bedd
fc fcc
bec bcbc
bbbe bebc
dbbf cc
bef df
dbc ecc
eec fec
dd fec
a fbc
bf bbed
ff ebc
bcbe ebe
dee ecc
f defc
dc ea
ccc ef
bbbc bbf
bef bcc
ecbe ebc
f bbba
bf fbf
ed eef
bc e</w>
a bebe
bdc bbd
ed bebf
ecbe fc
a fee
ebb beebe
ff ecc
ebbc bec
bd bbebc
ebf df
bebbbb cc
bc d</w>
dbf dd
bbbe eec
bbc fee
ebf ebc
bbdd dd
bc dbbee
dbc bbd
bbbb fbc
bf eebc
f bbebbc
be eac
ff dbe
bbebb ebe
bfc ebe
dbc dee
bcebc cc
bbebb bbbe
bcc fbc
edc dbe
efc dc
ba ebe
dbc dbe
eec bebe
bcbe bec
bef ebc
bbebd cc
edc ded
bd fbbc
ff bec
dec ef
dcc ed
f f</w>
fed dd
bf bebd
eec beec
ee bbbdc
bfc a
ecc bebc
ff bbbb
bcc dbd
bcf ebc
bd ecec
ec c</w>
bbbc ccc
ec eba
eec becc
bbee dbe
bbbd bbd
ebd fbc
bcee dc
bcbc bbc
ef fec
bd eeebb
ebb bbef
bef bec
ebb ac
eebe dd
cccccccc cccccccc
ebc fbe
eec bbec
ed fbf
dbb ebec
dec dbe
bbd fee
dbb efc
ebc bbcc
bc bac
bd bcebb
bd cccc
ed debd
dbd fc
bd bcbf
a dcc
bdc ff
bbed dd
dec ebe
dbd ebe
bbee bec
bcc bfc
bbecc cc
fc ebbc
dc def
eec bfc
bbee bebe
ecc efc
bbf ebd
bbec bec
bbbf bbc
bef dbe
eec ebbc
ebf bbbe
ee bac
ebb bedc
bd bebbbb
bf fdc
df bfc
bd bbbec
eec fbc
bf ebec
ed dbbbb
ecc fbc
bbbd bbbe
fdf cc
beee bebe
df fcc
ba dc
ebb debe
dbc ebd
fbe ebc
eeee ef
dee ebc
dd efc
bf ebcc
ecc bbbe
be bb</w>
bebe bbbc
bbf ccc
eebe fc
eec debb
bbbb dbbbb
bd dbcc
bd eebf
dbf fc
ed febb
bbc dcc
ed cccc
bbee fc
ef fbd
dd fcc
bf bccc
eeebe cc
ebb bbdd
fee a
bcf a
df dec
bc bbebf
ed eedc
bd bba
ea dc
ee bbccc
bbc beec
bd bcdc
eef bbbb
bbd beee
bcdd cc
bbc bbbbc
dec dec
dd bef
ecc dcc
ecc ebbc
ed ebdc
bbcc bbbb
eec bef
bbf ebf
dd bebc
bd beebe
bd ecee
dbb bdbd
ebb ecbe
ebe becc
ec efcc
ef bbebb
bec fec
ec deecc
eeef cc
bbbf bf
fbe df
ecdd cc
dd fee
bcc bef
dbbbe cc
bdc dbc
ded df
bcc bbee
ebe beebb
beee a
ebe bebd
dbd df
bbcc ccc
bcbc bbbb
bbbe df
bbc fec
ec e</w>
dc fdc
bf def
eebe ebc
ebf ccc
fc bebe
dec eec
ebd debb
bd decc
bd eeed
fc fec
ebd ebbc
bf ecbc
eebe dc
ebc fcc
bcc dcc
bd edbd
ec debf
ebb bcebb
bfc bec
bebc ef
ee dbfc
dbe bebe
ebb beed
bbbe ff
ec eeebe
bf bcbe
ebe ded
bd febe
bbf eec
ecc bebe
eebe ebf
ebe bbbf
ebbc ef
ed bedd
dbd a
bcbbbb cc
bbd bebd
beee ef
bbebe bbbb
bbf bebe
efc fc
ecf bbc
dc eebd
bcc fec
bebc ebc
bd d</w>
dbb ea
bbbc bbbd
ec ebccc
ecc ebf
fee bbc
fbe ccc
bec debb
ecc bfc
bcc ded
ba ba
dbd dbe
fbe bbee
dee dbc
dee dcc
ebc eecc
bbbc ed
ebb debc
eec bcbc
bbf bbee
ebb ebdc
eef fc
ebb bebbc
ebd bbee
eec ba
ec defc
bfc bbbb
a bca
ebd ebf
ebb def
fbc dd
bbbc dbe
ed dbbd
ea ebe
a bea
ecbe ccc
bebc ebe
ee dba
fc bbee
ecc dbd
bcc bcbc
bbd bcbc
efc ef
bcc bbcc
bbd beec
f dbbcc
ec ebecc
ebc ecbc
debb bbbb
bec becc
ebd bbbd
bdc dbd
bbec ebe
eebe bbf
bcbe bbbe
ebc ebcc
fbc df
dbc ff
eebc bbc
bef ccc
a bfc
a dec
dd ba
ecc bbbc
dbe bbee
bdc edc
ebb eeebe
bcbe ef
bbf dee
ecc fcc
ebb bdbd
dc bcee
bf bbbbc
bcc bebc
bbbd ebe
bf bcee
fc dbf
bd beef
bbec dd
dec bbbb
bd bbbbbbbb
bbbc bebe
dcc bbc
dee dee
bcf ccc
ecf ef
ebb eebf
bec bbcc
ec debbc
dcc ebe
fbbd cc
ed bebbc
dc beed
bbd eebc
bbbe ccc
fc bbcc
ebc ebec
ecbe ebe
bbbc eec
bc dbfc
ed dbcc
bbf dbc
ebb eeec
dc eeee
ba ef
ed bbef
efc bbc
fbd dd
be dbbcc
ebb fdc
bec fee
bedbe cc
fc eebc
a bbbd
ded bf
bbed bbc
ebd bfc
bbbe bbec
ee dbbee
eef ccc
bbbe ebf
ec bbedc
dc eeec
dbe dbd
ff ebf
bc bbedc
fbe ebf
bcf bec
dbe edc
fec bbc
bdc dec
ebc ddc
ed ecbd
dcc ecc
ded bec
eebe bcc
ef beec
bbf bfc
eec fee
eec bbee
ebe bbebe
ebc dbf
be bbea
ee bbbbbbbb
ed dedc
fbc bec
ebb bbbec
bbbe bdc
bcf df
bbbb beee
ebc beee
dee bbd
ebd dcc
dc ecbc
dc debe
efc bec
cc ccc
eef df
dbc bbf
f dac
dd dbf
ecc becc
eec bebd
eec eecc
ea ea
fc ba
dee bdc
ebb bbebc
dbe bebc
eeee bbee
ebe beec
fc bbbd
eec ebf
ec dbbbc
ec bbccc
bbbc ebd
dbc bbbe
debb bbc
bcbe ebc
dee bbf
ebe fcc
ff bdc
ff bbd
dd fbd
beebb bbbb
ef ac
dc dfc
a beee
ed bcebb
bcf bcc
dd beee
eec bbbd
ed fef
bec ba
ed bbebc
bcbe dbe
bd fa
edc bbbb
ecbe a
bbc eebc
ff dcc
fdbe cc
fc efc
bbd bbed
dc eccc
eeee bf
bbee ebc
ecbe bcc
dc bcbd
ff dbc
fbc bbbb
dd ebbc
fec bf
bcc bbbd
bebc bebc
bbc ebec
dc bbebb
ef bbbf
bbbc df
ebd eebc
bbcc ebe
beec bec
eef beee
fc def
a ac
eebe ecc
bbbc bcbc
bd edcc
bbf ecc
bcf bbbb
ebf ebf
eeee bbbb
bfc ebc
eec eebc
dee ed
fbbbb cc
ee debf
dcc bec
bcf dbe
febd cc
bbd fbd
ecbe bf
ebd fec
dc bccc
bcc efc
edc bdc
edc fec
dbd bec
bbc bebd
edc dbc
fbe bbbc
eeee bebe
ebbc bbbe
bcc bbec
ef fbf
bd bbebd
edc bbd
bd febc
fed df
f dea
ebb dfc
dc bcec
ecbe bbbb
ee ebccc
dbd bbd
bbbe beee
ec d</w>
fc becc
ecbe dbe
ded dbe
eea cc
bf bcec
fc ebec
ded ccc
ebc eebd
dec a
eedbe cc
ecf ccc
bbbd bbee
ebe bbed
dec dbc
dbd ed
ac ba
bbc bbbf
bef bebe
ebf bebe
bbf fbc
ef bbed
df ddc
bc bbebbc
eeee a
fc ddc
ec dbfc
ef ecbc
bcbe bcc
bbc efc
ec bbbdc
ecf a
bf fed
eebe ff
bbf bdc
bcbe a
ed fdd
dee bbbe
fcc ccc
def dd
bf bebf
bec efc
ebc fed
bec bebd
df bebe
beec bbc
bbd bbbbc
bcc ebbc
bd bbbcc
ef bebd
bef bbbe
fbe dbe
dec ecc
ed bcdc
dbd dee
dc ac
bbbb bfc
fc fbd
bbc bbed
eec ddc
bbd fec
fee bbee
fbc ebe
be debec
bf bcbd
bbbb bbed
ecbe edc
bc debbc
bcbc dd
eef bebe
ebb eccc
ff ebd
bec eebc
bbd ebec
ea ef
bbc debb
ebb bced
eec efc
be debcc
ed bbfc
fbe bdc
be bbebec
dbb ebcc
ed b</w>
ed eebe
bebc fc
fee ccc
ebb eedc
bfc bcc
bef bbee
bbbd a
dcc bf
f bb</w>
ebc bbed
bbbe dbc
eef bbf
bd eedd
f bbefc
bd dbbbe
fbc ccc
ebb bcdc
bbcc bf
df bbbc
be bbefc
bd dbdc
bbbb bebbbb
ebc fbd
bec ebec
bbebb bf
dd bbec
dd eecc
fcc fc
dbf bf
bbd efc
ee bbebbc
bbbb bebd
ebd bef
bdc bbbe
ebd bbec
bbbd ef
ea bf
f debcc
fc debb
f debec
a bbec
ebc bbebb
fcc ef
bcee bbc
f bbea
ee bbba
ebb fef
ebb febe
fec bec
ecf ecc
ded dee
bcf bbf
bbbe ecc
ebe debb
eef bcc
bdc bbf
bef ebf
dbf dc
eeee ccc
ebb bba
dd debb
bbcc ef
a bebc
bd ecdc
ebb dbec
ebbc dc
ebd bebd
be dea
ebc ea
ebbc bbd
ebf ecc
fbe bbd
ec bac
bcbe df
ed ffc
bd eced
ee debbc
a fcc
ebb bcbf
ebd fee
ed beebc
edc eecc
ff dee
eef bbee
ee eac
ebbc bcc
dcc ebc
ee defc
ebd efc
d ebac
dbd eec
bbbe dee
bbbc bebc
ebb bbfc
ed ecec
ebb ecbd
ebe eebc
ba fc
ebb beef
ebe ddc
bbec df
bbcc dd
fbe ecc
bcf ecc
bbbc bbee
bbc becc
bf febb
dc bbdc
fec ef
bd ecbf
bebbd cc
ebe efc
dcc bcc
bbcc bec
eebe ccc
bbf bbbd
dbe ebf
beecc cc
dc eedc
bc eac
ebd beec
bbbc dee
bbec ebc
bcf eec
bbc fbd
dbb b</w>
bebc dd
dc deec
bd ebfc
bd bfcc
bf dbbc
ecbe dbc
bdbd bdbd
bbf bef
ef becc
ecbe bec
beee dd
eebe bec
bebe ccc
bd dbbf
dc dbbc
ac a
eec fed
ebbc a
ebe ebcc
bbbc dbc
ebf bef
ff bbbe
bcbc fc
ebb bebbbe
bbec ef
dc bbbf
ebe fbe
ebe beebe
eec ebcc
bbbd dbd
bcbc ccc
ebe fbd
ebf fee
edc eebc
bcee bf
dbbbc cc
dc debc
dbe dec
edc bebc
ff fbc
bddd cc
ebc bedc
bebe beee
ebbc eec
dc bedc
ebc debe
ecc fed
bbebf cc
ecdf cc
dbe dcc
ecc bbee
ebd ddc
df bbee
ecc ebcc
e a</w>
ef ebcc
bbcc fc
bcbc bf
efc a
ebd ba
ff fee
ea bbc
ebe bccc
bebd dd
ff dbd
ecf bcc
eec bedc
ded fc
eeee bbbe
ed beebe
bc defc
ebb fbbc
ebe ebec
dbb ecbc
ff bef
bedf cc
eec dbf
bbf bebc
dd eebc
bbbc bbec
bbebb bbebb
bbbb bbebe
dddd dddd
bd dedc
be deecc
ebb dbbd
bbd bbbf
bbc fcc
ed bcbf
edc dbd
bec bbed
bd bbeec
ef def
dd beec
dc bcbe
bbbe bef
bbbe ebbc
dcc df
ebd becc
ec dbbee
bf bbef
fbc ebc
bc bbbfc
ebe fec
bec ebcc
fbe ed
ef debb
ebf dbe
ee deecc
ec dbecc
bec fcc
eec fbd
bbbc bdc
fbbf cc
bfc dbe
ebe bbbbc
bd eebbc
bf bbdc
bbec fc
eec bbcc
bebe bbd
dbd dbc
ecbe ebd
be bbebcc
bbbc bbebb
dbd ebc
ef bccc
bec bbebb
ebe eeebb
bec beee
bfc dee
bf beebb
ebe dbf
bebe bdc
eef bef
bcc fcc
ebbc df
ed befc
bbee beee
bcc fee
ebcc bbc
dbe bbbd
bfc ff
bcf ebd
ef ebec
beec df
eddd cc
eebe bdc
f deecc
fbc a
dcc dcc
ecc eebd
dbc bdc
ebe bebf
ba df
fbc dc
edc efc
ef bcec
bcbe bbf
dea cc
dd ebec
bbbe bbcc
bcc eebc
bbbc bbbbc
dbd bdc
dd bbcc
ebb bedd
bec dbf
ded a
ecf ebc
ebbc dbe
bd ecebb
dd bebd
ecc eccc
bc bbba
eef bbbe
ebf ed
dec bbd
dcc a
dd becc
eec beee
ecc bef
ecc bbec
ebe bcec
fbd bf
bebc bbbe
bbbd dc
beec bf
ecbe dcc
bcbe ccc
bcc eecc
bec fed
eec debc
ebbc bbf
dec ded
ecc ecbc
ebec bbbb
ebc bbbf
edc bbf
ef fdc
dbd ccc
ff bbee
fee beee
dec ed
bcbe ed
ebc debc
ebe ecbc
df fec
bebc dc
ebb bbbcc
edc dcc
ec bbebf
bcc beee
bdc ebf
bbbd dbe
dee ebd
bbd becc
bebc a
ebb da
ecbe ed
bbbb beebb
bbd bbdd
bcc bccc
df bef
fee fc
bebe ecc
bbbc ff
dec ebd
bebc eec
ec debcc
ee bbbfc
ecf bec
bf bbebe
ebb bcbbc
dee bbee
bd e</w>
edc fbc
bf eecc
ebc bcec
bfc bbf
fee ff
bd c</w>
fc bebd
ecc eedc
dd ebcc
fc bbed
ebbc ebd
dbf bbc
ef bbef
fbd df
fc dbec
a bbcc
bebc ccc
fc ebcc
eec dfc
ebe bcbe
dbb ac
bbbd bec
ebd eecc
dbc dec
ed eeebb
eef ebc
eef bec
bebbbe cc
edc ebf
bdbd dd
dc bbdd
bbd fcc
dbe bef
bebc df
ebe eeebe
a fec
ebb ecec
eef ebf
bbbc ebf
bf dbbbb
debb dd
ecbe bbbe
fbc bcc
ee bbea
ecc bcbc
bbd fbe
ecbc bbc
ed bbbec
ded dbc
bbee bcc
bbee bbbc
ef fef
ecc cccc
ebb bcbbbb
dbbc bbbb
ed fbbc
bbcc ebc
bca cc
a bcbc
bb ee</w>
ecf edc
ebe bcee
ea bbbb
bc bb</w>
dc ebdc
ef eebc
dc fbf
bbd bbdc
ebd bcbc
eec fcc
a fbd
dbe bbec
bcbd dd
ef bcf
bf fef
bbc ddc
bebe ebf
bbbd bbf
bb ebac
beec dd
ba bbbe
ded ebc
bf debe
dbd bcc
ed beef
bbcc bcc
bbebb bbbc
ecbe bdc
ecee ccc
ebe eebe
dbbee cc
bebbf cc
ef bbebe
fee bbf
beee eeee
ecc bebd
df fbd
becc bec
bc dba
dc fdd
bf dfc
bbd bdbd
bbbe bcbc
fbc ff
dcc edc
ded ef
bcbe bbbc
dddd cc
fbe dbc
bbec dee
bcbe ecc
ddc fc
fcc bec
ebb deec
bba bbbb
bdbe bec
bdc bebe
bef bef
ecf df
bebc bcc
dbf a
dc dbec
bd ebbcc
dd bcbc
dd ea
ecc debb
eebbbb cc
ebec bec
bebd bbc
bbbd df
efc dee
dbf ef
ebe fbf
bbee df
ebb bdbc
fc beee
eebc bec
dc decc
dec dcc
bebe df
fec bcc
dd fdc
ecc beec
bcf ebf
bdc fbc
dbc dbd
bf dbb
ebe bcbd
ded eec
ebc bcbd
bbed bbbb
bd dccc
dbc bbbc
bbee ccc
bbc bccc
dcdc dcdc
ee dbbcc
bbf dbd
ebe bbef
bebe dbe
fee bbbb
edc fcc
dee dbd
bf eef
ed ecbe
ebc bccc
bf eebd
ded bcc
bebe bebc
ebe dbbc
dee eec
ebbc ebb
ec ecccc
bfc eec
bbbd bbbc
bbbbc bbbe
bbee bbd
eebc fc
bcbe eec
ee ecccc
ea fc
ed edcc
ec bbbbbbbb
def dc
ecc ebec
bbbd fc
ed febe
ef dbbc
edc becc
ef beebb
ebf ebd
bc debec
ebc dfc
a bda
ed beecc
bf da
fbe ebd
fee bebe
bbbb ebec
ed eeed
eeee bbc
bf fdd
fbe eec
ef bcee
bbec bbd
ebb debd
dec bdc
bcf bbbe
ef bcbd
ccc eec
fbe bfc
bbee bbebb
bbbd ebc
a ebbc
dbe bcbc
fcc eec
dc eebe
ebcc dd
ebcc fc
eebc bbbb
ebb eeef
bef ebd
bbec bcc
bbbbc bbbc
dbe fbc
a efc
dc ecec
dec bbf
dcc ebd
a ddc
bd debf
fee df
fcc bbc
bbbe ba
bdc ded
dd bbed
ff eec
bcbe bbee
beee bbf
ebf bbd
beee fc
bd eba
bef bbd
ebb fbbbb
fec fc
edc ebbc
bebd bbbb
ed eedd
ebb cccc
bcee fc
ebf eec
a bbbf
bc deecc
ebcc ebe
fbc eec
ed edbd
dee bbbc
bcbc bcc
fbc bbf
beee ccc
bcdf cc
bec bedc
ff edc
fbd ef
bdbe fc
ebb febc
fee bbbe
bd dbbbc
dc da
ebc def
beebd cc
ebc eedc
bbbb bcbbbb
ff bebe
a ded
ed dbdc
dd fed
bec eecc
ecc ddc
bbcc eec
dee ddc
bbc ea
bbbc ebbc
eebe ebd
ecf eec
ebf bbee
ba bba
bf eccc
ba bbf
bcbe ebd
bcc ebec
bcf edc
ebb ffc
bbbb debb
eef dbe
ecbe ef
dbc bebe
becc bbc
eebe edc
bec fbd
bebc ebd
df efc
ebe febb
dbc edc
ebcc ef
bbebe bbc
bcee dbe
dcc dee
dc bebf
f bbebec
ba bcc
bcbbd cc
a bbebb
dc dbb
bbbe bfc
ecbc dd
bbbb bbdd
fee bcc
bbec dbe
dc eeed
d ebb</w>
bbbe dbd
ebe bbdc
bf beed
ebc eccc
bbf ebbc
ebb fdd
ef bebf
eef ecc
bcbe bbd
ed dccc
bf bcbf
ebc bbdc
bef eec
bbbb dec
a da
bbbe bbbbc
ed fa
bdc bbbc
ecee bbc
dc ffc
ff fcc
bbbe bbbf
dd def
fbd bbc
fbbbe cc
a dbf
edc beec
ecbe df
bef dbc
becc eec
ebb bbebd
edc bebe
bcbc ef
eeec bbc
bd bbecc
bec ddc
dd bbdd
ed ecdc
bbf bbbf
beee bcc
be f</w>
ea df
bbf bbebb
bdc fec
ee dea
f eb</w>
dbbbb bbc
bdc bfc
ff bfc
ed d</w>
ba bec
ecbc ccc
be dbbbbc
bbbc bbcc
fcc df
ed bba
dc bced
bcbe dee
ee debcc
bebe bbebb
ddc ef
bbec a
bbbd dbc
dbd ebd
bef ecc
edc bfc
dd bdbd
bdc efc
ebcc eec
bcf bbd
dc bdbd
ccc bec
dbe bfc
ebf dee
bcec bbc
bc dbbcc
ddc bbc
bbbbc bbbbc
ac ea
bcee bec
bcf dbc
ed bfcc
df fee
ed bbecc
ebc eeec
ecbc fc
bebc bbd
bcee bbbb
dc bedd
dbbc bbc
ebf bbbc
ded dec
ed ecf
ecc fee
bef bdc
ecc fbd
eeee bbf
ef febb
ec dea
edc debb
ebd dbf
ebf bdc
beec bbbb
bec fbe
ba dbe
ebb eeed
ebcc ebc
eebbd cc
bc ecccc
ecc fdc
df bbcc
dcc ff
dc beebb
df ebbc
ebec ebc
dee ff
bbbc dbd
df bebc
eeee fee
df fdc
dc ecbe
ebb decc
ebd ea
ebd fbd
dee bbec
bcc becc
bf bedc
bbdc bbc
fdbc cc
bb ed</w>
eec def
dc ecbd
fc fed
dc bbbbc
ef fed
bbf edc
bd eeebe
ebe eecc
eebc dd
bf debc
bbbe fbc
fcc dd
bf ecbe
bcf bdc
dcc bbbb
ebd fed
fc bccc
ed febc
ebc ebdc
bbf ba
ebec bcc
ebb ecf
ebd beee
bbebb bebe
bbee ebf
bbec eec
bbebb bbd
bbebe bbbe
febf cc
eebe bbd
fc ecbc
ecc bbcc
efc bcc
ed bebec
ebb edbd
bfc bbd
ebb eebbbb
ebc bbbbc
bebd bec
d bf</w>
ebd fcc
bdf df
dd dbbbb
ebd bbcc
edc bbbe
ba bbd
fc beed
fec a
becc ebc
bcbe dbc
bbbbbbbb bbc
bcec dd
ef bbdc
ebcc bec
ed eebf
eecc ccc
dbd bbbe
ddc bcc
ebc beed
bebe bef
f be</w>
df dbf
cccccc ccc
ebc bcee
ed bebbbb
ed bea
bd ebbebb
dc febb
bbf fee
eca cc
bd efcc
bbec bbbe
ebf beee
bebe dbc
bf ecbd
ddc eec
bd bbbdc
ebbc bbbc
dec ff
dec beec
bbbf fc
a eeee
bd ecdd
ebd debe
bbbd bcc
ded ebe
bbed bec
a fbe
df bcbc
edc bbee
bccc cccc
eedf cc
beebb ebe
ebbc dee
f bbebcc
ec eac
bdc dcc
ec debec
bef bbbc
ebf dbc
bbd ea
bcf dee
ec dba
bef beee
eec ea
bcf bfc
ef da
bbf bbcc
bebc bebe
ebb ecebb
dd eeee
bef dee
ded bbbb
ecc bedc
eebc ebc
bc dbecc
fbd bec
ff bbbc
eeebb bbbb
bbebb ef
bbbbbbbb cc
ccc ebe
bf eebe
bbc eebd
bb ec</w>
dbe ebbc
bbebb bbf
bbc fed
bbbf bbbe
df ded
dbb bddd
dc bbef
bcec dee
bbbb fee
dbe beec
ebb b</w>
bbebb bec
bdc bbee
dddd dd
ebb dbcc
eecc fc
ecc bbbd
eec ebec
dbb ecbe
bebc bbbc
ebcc bf
ed bbebd
ebb bdcc
ecc ea
dcc dbc
becc ef
be eb</w>
bcc beec
ebc dbbc
ed dbbf
bcbc ebe
ebb bdbe
bebbbc cc
ebf fbc
bbf bbec
dc ecdc
ecc eeec
ec bbebbc
bec beed
dbf df
dc eef
dd debe
efc ff
ebbc bdc
ebec fc
bbbd bebe
dd fbe
bbd bcbd
dbe bbcc
ed bcdd
ebb eebbc
bbc def
ebd ecbc
ec bbbfc
bbf dec
dbd ff
bcf bbbc
bf bced
ef beebe
ebc fdc
fc bbbf
bbed df
ebb ecdc
bbc bbdc
fc deec
ec deccc
fec dee
eeebe ebe
bbf bcbc
ba ff
bcbe ff
ebc febb
fc bcbd
bcee ebe
bebc dee
ebb edcc
dbb ebdc
eebc ccc
beff cc
bc dea
bd eeef
ed bebcc
eebe bbbc
ebd eebd
ddc ebe
ac dd
ecbbd cc
ebbc dbc
bebc dbe
ebec a
eebc bcc
dc bcf
ecec bbc
ebf bfc
ded ded
bbbbbbbb bbbe
bbbf ebe
fbc dee
bbee bdc
dec dbd
ec dbbcc
ed bcbbc
dc eedd
ef beed
fbe dee
ebb eedd
dc bcdc
bebe ff
bbed ebe
ebf edc
bf bcebb
bbbf bbf
eccc dd
bdbc bbc
dc fef
dcc dbe
eebe eec
bcec bec
bdbe bbbe
bf bbfc
df bbbd
be debdc
bbbb dbf
bf bebbc
bbec ebd
bcbc bec
eecc eec
dc bbebe
dcc bdc
ecbc bec
bdf bec
bdf dbe
bcc fed
fee fee
bbbf ef
ecbe bbd
bebbee cc
bbbb bcbd
ecf ebe
be dac
ccc df
bf bbebc
ed bbbcc
ebc bebf
bbc ebcc
eebe dbc
ecbe eec
bbbbbbbb bbbc
ecc debc
efc eec
eebd dd
da a
ebbc bebe
f deccc
edc bbbc
bbc eeec
ecc bccc
bbc debe
ebd ebcc
bcc ddc
ec dedcc
ebbc bbee
efc dbe
eef bdc
bddd dd
bbbb bbdc
fbd fc
be be</w>
edc bebd
dbd bbbd
bbc bcbd
df ba
fbe ba
bcc ba
ccc ebc
ebec dd
ef dfc
ebd debc
efc dec
df ac
ecbbbb cc
ebf bebc
edc fed
bf febe
def fc
bf fbbc
bcc dbf
bbbd dee
debb ebe
dc dccc
ccc bbbb
edc fee
bcbc bbbc
becc fc
eef bbd
beec dec
ed dbbbe
fec ff
dbd bbf
bbec bebe
bd dbbee
bf eebf
ed bcebc
ebbc ebbc
bf ebdc
eec ecbc
bcbcbcbc bcbcbcbc
bcc bebd
bbebb a
ebb fa
bbebe ebe
bcee a
dc b</w>
ee bb</w>
dee dec
bbc fbe
ddc bec
bcbe bdc
bf bbdd
ebb bebec
dc ecee
efc ebc
bdbc bbbb
bcee ebc
dbe ded
bebe ebd
eebc ecc
bcee df
ed debf
dba cc
bfc dbc
dbe beee
eebc eec
ef beef
bbc dbbc
eeec dd
bf bba
ed bcfc
bbee ebd
bf dbec
bbf fcc
bbc eeee
bbee eec
dbd ecc
dc debd
bbc ecbc
bbc beed
ccc dcc
dc dbbbb
eebc ef
bebc ecc
bf bdbd
bf ffc
bf beebe
ebc ecbd
fec dec
ecf bbbb
ebb bdebb
bbee dbc
ebcc bbbb
ebb eba
dc edcc
bdf bbbb
fc ac
bbdd bbbb
fc eecc
fbc bbd
bdc bbbd
ba bca
ef bbbbc
ebc eeee
eec eebd
ff ddc
bbec bbf
ed eced
ebb ebfc
ebd ebec
becc ccc
bdbc dd
ebb bcdd
eec eedc
a bbed
bcee ccc
ec bbba
ed fbec
bcc fbd
bc debcc
fc bcec
bbd fed
ed ebfc
dc dbcc
ef eccc
ebbc bbbd
bbd eebd
ecc dbf
bbee ff
dc bcbf
ed bebbd
bbbe dec
bfc bbbc
bebc bbf
ebb beebc
ed bcef
dd dbbc
bec def
dbc ded
fc bbebb
edc ebcc
eef dee
ecf bdc
fc ea
edc eebd
eebc ebe
ebbc ecc
ebb bebbd
beec a
beec ef
eec bbed
fc bedc
fbc dbe
dd dfc
bbec bbbc
eef dbc
dd bbebb
dbb ecbd
ddc ddc
eccc ecc
ebd def
debb bec
beee bec
eebc a
bbd ebcc
bbc bbef
bebe eeee
bbdc bbbb
be bbac
dbe ba
bc bbefc
bf bbbec
fc fbf
ccc dee
efc bbbb
eef ba
fbe bbcc
ebb bea
ecbe bbf
dd ac
fc dfc
bd ebecc
dbc bcbc
bbbd ebd
ecbe dbd
bcee eec
bbbc bef
bbbf a
ed e</w>
ebb bcebe
dbe bbed
bdc bebc
dec bebc
debb bbbe
ecbe ddc
bf eeec
ebe fef
bbd eecc
eebe df
bfc ecc
ecbc ebc
dbf bbbb
ebe fdc
bdc fee
dbc dcc
bcbe bbec
ebb befc
bbc bcec
fc debc
bcc bbed
bdbe a
ebe beef
dbe ddc
bbbf bec
fbc ebd
ff dec
ebb bdf
fbe edc
beec dee
dbc bbbd
bfc ebd
bcc debb
eec dbbc
fee eeee
bf cccc
bbebe bebe
ed eebbc
bba a
eec fdc
bbbe bbed
eebe ba
ebe beed
ee bbefc
ec ebdcc
bbbbbbbb bbbbbbbbbbbb
dc dedc
f bc</w>
f dbbbbc
dd bcbd
bbd beed
bcec df
ecbe dee
ecf ebd
ecc beee
edc ddc
dbc fbc
ecc ba
bfc dec
bbd eeec
ded bdc
eebc df
bf beef
ebb dbbbe
bbbc fbc
dbc bebc
bcbc ebc
ebe bedc
ff dbf
dbc bef
dc eebf
bbc bbebe
bec debc
dbc ebf
fbf ef
eef eec
bdbe dbe
ebe eebd
bcc ebcc
ccc a
bbbd bdc
eebe bbebb
dcc dec
fcc ebc
dc dbbd
bbc beebb
fec dbe
bbd b</w>
bbf beee
bc bbebec
fbd a
bbd eeee
bbbe edc
dbc bbee
bbdc dd
fee dbe
bd bac
dbb bdbbbb
bbf dbf
eebe dbe
ebe ac
dee bebe
dee bebc
bbbd eec
fc dbbc
bbd bebf
bbbe beebb
bbec dec
f bd</w>
ebbc ff
fdc df
f debdc
ebb ebbcc
ebec df
ddc df
bec ecbc
ebd bbed
bbbe debb
bdc bef
bebd ebc
bbbc ecc
bbbf dd
ebe febe
eec bccc
ebb ecbf
ea dbe
ebe debe
bec dbec
bedbc cc
ebe eebf
ea ba
dd eccc
dbd dec
bdbe ebc
eebbf cc
bbbb beec
fbebe cc
fed ccc
ebe bebbbb
dbd ded
ebb bded
eec decc
ecc edcc
bbcc a
fcc a
ed c</w>
d ef</w>
ebb ecee
ebb bdbf
dc eced
bec bbbbc
debb ef
eec deec
beec bcc
fc fbe
ebc bbebe
bbf fbd
ecc decc
dfc dd
febb bbbb
ebbee bbee
edc ebec
edc eccc
dbb bdbc
bebd ef
debe bbc
bcee dee
fbbbc cc
bbec bbec
bbbc bfc
fbef cc
bf bebbbb
bebc ff
bbed a
dbbc dd
bf bdcc
ebe debc
fee bec
bbee ecc
bebc dec
ed bbeec
fc fdc
dbe bbebb
ebf eeee
eec bcbd
ed fbcc
ea ccc
bcf dbd
bb ebb</w>
eec da
bdbe bcc
bbc fbf
bbcc bbcc
def ccc
ba ebc
fed bec
fbc bfc
beed dd
ea ff
fbc bbbe
ebe bced
dbe debb
bcbc a
be bd</w>
ee debec
ebe eef
ba bbbc
fcc ff
ecc ebdc
dbc bfc
becc a
ddc dcc
ebb bbeec
ebc cccc
bbec dc
fbe dec
bdc ebbc
ef eef
bbd beebb
fec bbbb
fdd dd
bbc eecc
dbc fee
ddc dee
bcc eeec
dbd bbbc
beee ff
bccc dd
ef bced
dbbd bbbb
fbbee cc
bbebb bbee
ee bbebec
bdc ebec
ddc a
ee f</w>
bbbe bebbbb
bebe eec
bef bfc
ebc beebb
bbd fbf
bbee dee
bef bebc
beee fee
bebd df
ef eecc
ecc ecdc
bcbc df
bbbbbbbbbbbbbbbb bbbbbbbbbbbbbbbb
bec beebb
dbe dbf
bdf ccc
ebd bbebb
bbbe bbebe
fbc dec
f ee</w>
ac df
ed bcebe
ef cccc
bcee bcc
ebc bedd
debb a
bf eeebb
bbee bbec
ac da
def a
bec deec
eec beed
bf ecf
dd ecbc
edc eeec
ba ccc
dbb eccc
dbd bebe
bec bbbf
bdc bbec
bdbbbb cc
bdf bcc
bd dbfc
ebd dfc
efc ebe
ac bbc
eebe ea
bcbe ebf
bcf dec
bbbb fbd
ef fdd
bebf bbc
bbbc dec
fec eec
fbc ecc
ecee bcc
a eba
bcbe dec
debb fc
f bbac
ed fecc
ebd dbbc
ebbc dec
ecee dbe
fcc bf
bcee ef
bcf bebe
ebbc ebf
bbebb ebc
bcbc dee
eebc bbf
bbbb edc
ba bea
beee ecc
bc ffcc
bbbbbbbb bbbbc
be bc</w>
ed ebbcc
bbbb fbe
bbd fdc
ebbc edc
beec fc
ebe eccc
dd b</w>
eec eeec
bef dec
bbed dbe
dc bdcc
bec dbbc
bf ecbf
ded dbd
bebe bbcc
ebec ef
ba dee
fee bdc
eec debe
df bbec
ddc ecc
bec bcec
dcc cccc
ded ecc
bbed ef
ee bbebcc
ded beec
bfc bdc
ebc bced
ebcc bcc
ebb bdee
edc ea
dbf ff
bcf bbee
ebb dedc
ebb bebbf
eeebe eeee
ecee ecc
bbbb bbbec
ebc fbf
dbe bebd
ebdc dd
ebb dbbf
bec bcbd
bbcc bbbc
da dd
ef dbec
edc debc
bbd bbebe
bbc dbbbb
bfc fbc
ebbc bebc
beee ebc
eebc ebd
bbc bbdd
be bbeccc
ebb bebbee
ef debe
ccc ff
ebe def
ebe bba
bbd febb
bbbe bebd
eecc bec
ed ecbf
ef eebd
bbf fec
bbed dee
bbbb ded
bd bbebf
fc bbdc
ebf bbcc
bdc fbd
ebc deec
ebb eced
dd eebd
dc ecbf
dbe becc
bbee bef
eecc bbc
bccc bcc
a fbf
dbf bec
fcc bcc
ebb bdec
ebe bcebb
bebe ba
fbc dbc
a debb
ebb bcebc
dd eeec
ff bcbc
a ebec
ef febe
edc bef
ebb bfcc
bbd ecbc
bfc bbbe
eef ea
bbbb bdbd
bbf efc
dc bbfc
ef bcbf
ebf dec
dc bded
ebc bbdd
ebd bedc
bcbe edc
ef eebf
dd debc
bbef bbc
ec debdc
dbb ecec
ef debc
eec bbdc
bbee eeee
ebe fed
fbd ff
eef ebd
ecbe bbbc
bbbb bcbe
bbc bebf
bec ea
bbd bcec
bda cc
bbbe fee
bbbbbbbb bbbd
bbd bedc
fdc dd
dc eeebb
bebe edc
eef bbbc
fcc ecc
a fed
ebc ac
bbc bedc
bec bccc
dc dbdc
ebf ba
bfc bfc
bcbbf cc
ebc dbec
dee bef
bebe bbbd
efc ded
fec dbc
ebd fbe
bcc bbebb
beec eec
ebb fbec
ebb bcfc
dee bcbc
bbc bcee
dbf dbe
dbbbb bbbd
ed beebd
bbbb bebf
beebf cc
ef ebdc
fee ebf
bbf dcc
ee ebdcc
bec eebd
fbc fbc
ddc bf
ebe dfc
bec dfc
dbf bcc
debb ebc
bbbf ff
bdf bbf
eedbc cc
eeee ff
bd defc
fc debe
ed fdf
fec ebc
debb df
fdcc cc
dee ba
bbed bf
bced dd
dbe fcc
f ed</w>
bbbe becc
ebb bcef
dc bcdd
bebe bbec
bebe bcbc
ebbc fbc
ebbbbbb cc
dbb bdcc
eebc edc
bbc bcbe
bbf bbef
bdc ddc
bbee ba
beec ebc
bcebd cc
dbc bbec
dcc dbd
df ebcc
bebd a
eecc dd
bd bbccc
ed edbf
bcc ffc
ebec bf
eecc ecc
bbbb bccc
dc bbebc
ebe bbebc
ebbc dbd
bdbe bbd
bbbb dbbc
ef eeebe
f db</w>
eeee ebf
bec eedc
ebe bebbc
bef ba
eecc a
eebc bf
bebbbb bbc
bbbb bbbcc
eec eccc
edc ecbc
dbb cccc
ded bbec
beee ebf
bbebb dd
ed ecebb
dc beef
bbcc bbbe
bcc def
eec dbec
beee bbbc
bbcc ebd
bbbf df
bbbb becc
edc bbec
bcbbbe cc
ff ba
bcf dcc
bcf bebc
a bdbf
edc eedc
bfc ebf
eec ebdc
ded bebc
bbbbc bbd
f ec</w>
ed eba
beee ba
ebb bdbbbb
dc bcebb
eec dedc
ebec ebe
ecbe dec
beebb bbbe
bbbbc bec
ed defc
bbbb bbebc
ebf ebbc
bbbd ff
ddc ebc
ddc dbe
eecc ebc
bcbbbb bbc
fbe dcc
ecf dbe
a beec
bbbb eebc
ded dcc
fbe bbebb
bccc fc
bdc dbf
fee bef
bebbbb bbbe
ecc bcec
bcc eebd
bcbc bbbe
bf fa
ebb bbecc
bbee bebc
ded bbd
fbc bebe
be deccc
ebb bebcc
ecc bbed
edc dbf
ff fbd
efc dbc
fbe bbec
dd fbf
beee bef
ddc dbd
ebb dbdc
ebe eeef
bbc fdc
bec bbdc
ecec df
bbcc df
fbe ebbc
bbbbc bf
bd bbedc
ea dee
ebcc ecc
eebc bedf
bfc bebc
dfc fc
ec ffcc
ef bcbe
ef fbbc
ecbe bbee
bcbc bbf
dc edbd
bfc bef
dec bbbe
ed ecee
ed bedbe
bbec bebc
bbcc bbd
def df
dd bbdc
bd debbc
ed dbbee
ea bcc
ef eeef
eccc fc
ed efcc
bdc eebc
bdc bebd
beee bbd
ddc dbc
fbe bbbd
fec ded
bdbe df
cccccccc cc
bbf debb
dbf ccc
beebb bbc
bdc fcc
fed bbc
bdbe bbbc
ed eefc
ef bedc
dbe fee
ddc dec
bbbf bbd
bbbbc bcc
dc bcef
dd beed
dee ebf
becc ecc
bbbb fbf
eec bbebb
dee edc
bebe ebbc
dbd dcc
ed ecbbc
bebe fee
ebcc edc
bcbbbc cc
dc beebe
ebe ebdc
fbc bbbc
bcf bef
ecf bbf
bdf dbc
bbbe beec
bbec dbc
ebb bddd
eeee bef
ecbc bcc
bdbe ccc
bbbb dcc
ded ff
eebc dbc
ec befcc
bf dbbd
fc eeec
eec bedd
bcf efc
ebc decc
dbb edbd
ebcc a
ebf fcc
ebec ebd
bf deec
beec dbe
bc bbea
bcbd bbc
fdbd cc
ebb bcbec
bbbe dcc
bebc dbc
bbebb bbbd
bdbe bbf
bd bb</w>
ed eddc
bbbb bbef
bbbf bbbc
becc edc
ef ecbd
bec debe
beebb a
ebe bbdd
dbb d</w>
bcec dbe
bf bcdc
ea bbf
eebd bbc
ed feec
bbd bbef
bbbf ebc
ebb fbbf
ebcc ebd
ddc ebd
ecec dd
ed eeebe
ed ecdd
ebb fbbd
bbbbc ebe
bcbe dbd
dc febc
edc bcbc
bbbc ba
bbec ecc
ebb bddc
ff bbcc
bbdc ebe
bec ebdc
bebe dee
ecf dbc
fee dbc
ed dbbbc
ac fc
def bbc
ebc bbef
eebc dbe
bcc fdc
eeec a
bb bf</w>
ebb fbcc
edc fbd
dbb bded
bebd fc
bccc bbc
dd fdd
ebd febb
dec bef
dc ecdd
ebec dbe
bdf bbd
bdf dee
be bbebdc
bd dba
bdc ba
bdc beec
bbcc ecc
bdc eecc
bbcc dbe
eebe bbbd
ebbc bbec
bebd bf
dbd bdbd
deec df
ebb fecc
dc febe
edc bedc
ed debbc
bbbb fec
edc bbbd
bebe beebb
bc dbbbd
beee dbc
ecbc ecc
bbd bcee
bebe bfc
a def
ed dbfc
bef dbd
bef bbebb
ecbc df
beed df
bdf ecc
dc fbbc
dbb bdee
bcbc dbe
ef bbebc
ebd bbdc
ebf bbbd
debb bbf
eebe bbebe
ecbd dd
ccc dbe
bef dcc
ff bbec
ea bbbe
ecbc bbbb
eebbbe cc
ebc bcdc
ebf dbd
bcec fc
bdf eec
dc ecf
ef eeebb
bebd eec
bdbe ecc
bf bcef
bbee fee
ebb eea
ef bbdd
bbd bbbbbbbb
bcbc eec
bbbbc dd
ecee dcc
fbebc cc
bfc dbd
efc ecc
bec eeec
ebd bbbf
ebf dcc
bcee ecc
ec f</w>
bebe fbc
bcbc bebc
eebc bbd
edc decc
fbe bbbf
dbbbb dd
ee deccc
ebe bcf
ebec bbd
bcee bbf
fc da
ebd eedc
bbebb bbbbbbbb
ebe bbfc
ebe bbbec
dec bbbc
bbed ebc
bf ecec
ef eeec
bdc debb
dbc fec
fbd ccc
ebd fdc
eebef cc
ee dac
dee bbbd
dbbbb bbbbbbbb
bcbd bbbb
bebbc bbbb
dee beec
bbebb fc
ed beeec
bdc beee
bd ebccc
df ea
fec bbf
bcebb bbbb
ebec eec
ecee a
ee bbac
bbebb bcc
fbe dbd
ed deecc
ebe dbec
bbc febb
ddc ff
bbed fc
ecbe ff
eef dcc
d a</w>
ed fbbbb
bbcc bbf
ddc bbbb
beec bebc
ecbc bf
ed eeef
bcf bbec
ecec bcc
ee debdc
ebb bbbdc
df becc
dec bbec
ea bec
ecee fc
ebbee bbbe
dee bfc
fbd eec
debe dd
bc bc</w>
ebe da
dbb bdebb
bcbe bfc
bcf ebbc
edc dfc
debb bbd
dbbbb bbbe
bdc fed
bbbd bebc
bbba cc
ebe bdbd
dee fbc
dbf ebc
bc bbebcc
bdc becc
dcc bbf
ebb bedbe
bbbc bbbf
ecee ebc
dbc beee
eeee dd
fbf bbc
ebb bebdc
ef bba
be db</w>
ebb bbebf
dec bfc
fbe ea
bdf ebd
bef bbec
debb bf
dcc bbd
bcec bf
dcc ded
eebe ebbc
bcee bbbe
ef fa
ebc bdbd
fed a
febb bbc
ed edbc
ebe cccc
bcc bbbbc
dee ebbc
bbee ebbc
bbed dbc
ecc ac
bbf beec
dee bbcc
ba dbc
bef dbf
fed bf
bdbe eec
ee dbbbd
ec bbefc
dc bdee
ecc beed
dbe fbd
bbee bbbd
ef ffc
ebd eeec
eeebb ebe
ebf bcbc
ebec dbc
bdc bcbc
bc dbbbbc
ebc ecdc
fc eebd
bcc ecbc
ded bbf
def bf
bc f</w>
dc bebbc
bbbb efc
dd bccc
ecc ecbd
dfc df
dbb bdbf
ded ebd
bcbe bbebb
ebf bbec
eecc edc
dbbbb bbbc
fc eccc
eec bbbf
ed bedf
bbbb bcbbc
ecf bbd
eebbee cc
ebb bfbf
bef bcbc
fee ba
ccc ebd
a bebd
debb dbe
beed bbc
fbc fec
becc dd
ccc edc
fbc bebc
bcbe bbcc
ebb edbc
df beee
bebe bbebe
bcec dec
bdf ebf
ebb dbbbc
eebc bbbe
bbbec bbbb
eedcc cc
ebec bbbe
ed bbedc
ebb febd
ebb fbbbe
fc beebb
ecc eedd
eef bfc
bc dac
a fdc
fbd ebc
eebe dcc
ebb bebbbc
ebb ecbbc
dc c</w>
ebe ecbd
dbe def
efc bbf
eeec df
ff fbf
dec edc
fbd bbbb
bcf dbf
dd da
debb bcc
eeec bec
a fa
ef bcebb
bbd ac
bbef bf
bbed eec
bbbc beee
ef bdbd
bbf fbf
ebe bdcc
dd bcee
ed fbbd
ebd eccc
edc ba
bbbf bcc
ffc df
ed eea
bbec ff
ebcc df
bdbc ebe
a bcbd
bbbb eeee
ebec dee
bba bbc
bf bbbcc
ecc dfc
dbb ecbf
ebec dec
bbbec bbc
ecee df
bf bcbbc
bbbb ea
bcc eeee
bbbc fee
fdd df
a becc
beee bdc
fc eedc
ebd bcbd
ebd beed
debb ccc
bcdbc cc
ef bbfc
fcc edc
dbbbb bbd
ed beccc
ebd bcec
bbf bbed
ff bebc
bedcc cc
a eebc
bef eeee
beee dbe
fed bcc
ebe bcdc
bbdc bec
ec bbfcc
dc bddd
bbbd ccc
ecc bedd
fbc ebf
ebb bbccc
bbbb febb
dec bebe
ddc bbd
bf dbcc
bbbc bbed
bdbe dee
ebc debd
dcc fec
beee bbebb
bbdd bbc
def bcc
bf eeebe
ef bdcc
dd decc
bbebc bbbb
ed bcbbbb
bbef bbbb
bcee dbc
ef bcdc
eec beebb
eec bcec
ebbc bfc
ecbc ebe
bc befcc
dc fa
dfc bbc
bbdd dbd
dd bbbf
dbbc bec
dd bddd
ecc fdd
efc bbd
bcbe bbbd
ccc bdc
bebc edc
bbcc ff
febb a
ed debcc
ebc ecec
ebec bbbc
dbf bbf
eeebb a
bf eedc
dc bddc
ebf fec
bebd dbe
eecc bbbb
debc df
efc bdc
bdf bbbe
dd bedc
bef ebbc
bcbc bbd
beee dc
beebb bebe
ebe dbbbb
becc bcc
fbf fc
fdc ef
bbbcc bbc
ecee dbc
bbf ea
eebc ff
eebe bfc
bf bfcc
ba bebe
dbd ddc
fcc ebe
bdbbd cc
bbee bfc
dbb bddc
ecf bfc
ec dac
bbf bbbbc
fdc fc
ebc bcbe
bdf bdc
bdee bbbb
bbbe bbbbbbbb
fec bdc
ecbc dbe
ba bdc
bbcc dee
fbf ff
dd d</w>
ebcc dbe
dbf ecc
bebd ebe
bebd ebd
debe bbbb
bf fbbbb
ebb eddc
eebd bec
bbd bccc
bbf ded
becc ebe
eebd df
f bbebdc
bbbd bbebb
eebd fc
beec ded
bdbe ebd
ed eddd
dd dbbd
bebc bbee
bf befc
ed beedc
ebb bdbbc
bcc bedc
eccc ebc
dc dddd
efc bbbc
ac bec
bd eac
bbc debc
ebbc bcbc
eebe bbbf
dbc ddc
dbd bef
eecc ef
bbee beebb
dbd edc
fcc fec
ecbc ef
d ebe</w>
ee be</w>
bcc bcec
df fbe
dbf ba
bbbe eeee
ebc bbebc
bebc bfc
ecbc eec
bec bebf
dbf ebe
bf fbbd
fc eeee
ebec bdc
ecbc dee
fed dc
bf febc
debb eec
ecc bbdc
ecbc ebd
dd dbec
bebd bbd
bbbc bbbbbbbb
bbee dec
bbee bbebe
fbd ebe
bbbe ea
bc debdc
ebc da
dd bcec
dbc ebbc
ee dbbbbc
beee df
ac ef
bcbe dcc
eebd a
bc eeeecc
dbf dee
bbbf dbe
bebd bbbe
ecbc bbf
beed bec
ebb ecdd
ebc bcf
ecc debe
ff ea
ff efc
dbf ebd
beec bbd
bdbd bbbb
ecf dcc
dbb ecee
beebe ebe
bdbc fc
bef edc
bf edbd
ed bebbbe
def dbe
dbc bbed
bbbd dbbbb
bcbe ba
fc bcf
dbb bdbe
ebdc ebc
ebbebb bbbb
ecc dedc
eec fbe
ccc dec
ea bba
fbc bdc
bbbe fec
bebc ded
bbcc bdc
bbcc dbc
dee fcc
dbb eced
bef bbbd
bbbf bebe
eeee ba
ebdc ebe
a bbbbc
eccc bbc
ebbee beee
ed febd
dd eedc
fc fef
bebc ebbc
ebec ecc
bdbc ef
fc bcee
bbf fbe
ff beee
fee bbd
df fbf
dbb ecf
ebe bcbf
bcc bcbd
ebf bbebb
dbb ecebb
bd deecc
bbbb bebbc
ebdc bbc
ebc bcebb
ba ecc
beec dbc
bf bdbf
ebd bebf
ebec ff
bedc bec
a dbbc
dd cccc
dd dbcc
ebcc ff
fc bbbbc
bccc bccc
dbbd bbc
bf edcc
ebcc bdc
bcec bcc
bf ecdc
ff fec
eebe bbec
bbbd bbec
dc fecc
ebc ffc
ebf bbbf
bbee bbcc
dbd bebc
bbed bbbe
fbd dee
bbdc ef
bcee efc
dc bbbec
bd bbba
bbbb bba
ebe eeec
fc bebf
ccc dbc
ebbc bef
ecdbc cc
dc ebfc
dc befc
dbd fbc
fdc eec
f ebac
ebc bebbc
eef dec
ded ddc
bbfc bbc
dbc efc
fed ef
bdee bec
ed eebcc
eebc dec
ee ffcc
bcc bbbf
dbb ebfc
beec ebe
bcc fbe
bbee fbc
becc ebd
a febb
ed ebecc
ebf efc
bdc bbed
fee ecc
eebe bbcc
a bccc
bbbb bcebb
eecc df
debc bec
dee bbed
fc ebdc
bbef dd
ecec bec
ebc eeed
bbbbc bbf
eef bebc
f dd</w>
fbc bef
ecf bbbc
ebc fdd
debb bbbc
eebc bdc
fdc bec
ebbee bebe
bcc eedc
bbbe dbf
fec bbd
fbf ccc
bdf dec
d ebd</w>
fc bcbf
ebf fbd
eef dbd
ecf dec
ebd bdbd
bfc ded
ecee bbbb
bbbbc bbbd
a ebcc
dc bba
dee beee
beebb ef
dbc ba
fec dcc
bbebc bbc
dc bdbc
dd deec
ebc edcc
bbee dbd
def bec
bbdc eec
bcbe ebbc
dc bdec
ebd bbdd
bbf bebd
bebe bbbf
eecc bcc
bebf bbbb
ebd ebdc
dc d</w>
fc bbfc
fef a
ec bb</w>
ed eeebc
beec bbbe
bbc dfc
ed bebdc
bbec ded
eccc eec
bd debec
ecc eddc
bebe ea
ec ebfcc
ebf ea
efc ebd
fcc dec
eccc bcc
bbef a
bbebb bbbbc
ecf bbbe
eebbbc cc
bbd eedc
ff ded
bfc fee
efc bebc
ddc bdc
bebd bebc
bcec ef
bedd dd
bbc bdbd
fec fec
edbd dd
bcc ea
bef ea
bbebb dbe
fbf bf
bced df
ecee dee
bdf edc
bcbd ef
ed bbbdc
becc df
fa a
bdbc eec
ebd bbbbc
bcc bbdc
ecbe ebf
bcee dec
bbbc ded
ed dbecc
dbe eebc
beec ff
ba ea
eccc edc
ecf ebf
bd dbbcc
bbee bbbf
dbec dd
bdee fc
dc eddc
bbc bebbc
bbee edc
fee ebc
bced dee
ec bbebec
bbc ac
ecc def
dbb c</w>
ddc ded
bbed bbed
deec dd
bdbe bdc
be bbb</w>
dbbc ef
ba bbbd
fec ebe
bcc beed
bfc bbec
fee dcc
bbbb ebcc
bbc bbebc
bbbc bebd
bfc bcbc
bbebb bebc
fcc ebd
bbdc df
bf bedd
bbed bbd
eef edc
fbf a
bbbb b</w>
eeee beebe
fed dee
febb ef
ecec ebc
bec bedd
fec ecc
ebe bea
bec fdc
eef ebbc
ecbe bbec
bdc eebd
eebc bebc
bccc ecc
bc bd</w>
ed ecfc
bcf bbbd
bcec eec
dc bbbcc
ff ebbc
dec becc
efc dcc
beee bbebe
ebb dccc
bbc eedc
fbc edc
bbdc fc
bcbd df
fba cc
be ebac
dd ebdc
bccc ef
bdf dbd
bbc dbec
ecc edbd
eec ac
bebe beec
ebec bbf
debb ebd
bbed bbf
bdee a
ecccc ccc
be bbbbbbbbbbbb
ed eebbbb
ba ebf
dbe fec
ff ac
bbbc edc
bfc dcc
bfc beec
dc fbec
bec bbebe
dbe efc
fbc ded
fed dbc
bcbe dbf
bcee bbd
bf eeef
bf bcfc
ed dfcc
bbbe fbd
bebe bebd
ecbc a
fc febb
bbbe ebec
bebe dec
debd dd
bedbd cc
bbbd dec
bebc bbec
bdbe bbee
bf eeed
eeee bcc
ecbe ebbc
bc dbbdd
ecc febb
bbf bebf
dc bdbf
bec fbf
bebe dbd
bbec dbd
bbef ebe
bcf ba
beebe bbbb
bdbe edc
bdc eeec
dee dbf
fbe efc
fbe dbf
bbbbc ef
ed eebec
ebb beebd
ff eeee
bbebe bbee
eedc dd
bdc ebcc
ecf dee
dbb dddd
fbe debb
beec bbbc
ecbe bfc
bdee dbe
bbc bbfc
ebd deec
beee beebb
bd bbebbc
ebc eebf
bbc bbbec
bbd bebbbb
bef efc
bbbcc bbbb
ed bac
ebb ecbbbb
ecc bcbd
bf bded
ebb fdf
edc ebdc
bbebb df
eecc ebd
fbf df
ec dcccc
fef ef
dc beebc
dc ddcc
dd ffc
fbf bbbb
ed fedc
bcbc ecc
bcec ebc
ebb efcc
bcc debe
dbb ebbbbbb
dbb bdbbc
dcc fcc
dbbc ebe
bcf ded
eec eeee
dec ebf
eebc bbbc
becc bbbb
bbef ef
bdbe ff
def ef
ed bedbc
bbbe bebf
dbc beec
bebe bbbbc
ddc edc
ebb dbbee
ba eec
bcec ebe
bf bebec
fc decc
bfc bbbd
fbd dbe
eebe dee
eebe dbd
bcee bdc
bbea cc
bec febb
bcee bbec
bf bdbc
ebb bbebbc
dcc bbbe
eebd ebc
eeec bbbb
d ebc</w>
ed bbccc
dc e</w>
dc bfcc
df fed
ccc bbf
dcc fbc
debc bbc
bf ebfc
ebb edbf
bbd bcbe
bf decc
edc bbcc
bec decc
dbe ea
bcbebe cc
a bbebe
a bebf
be ed</w>
ed dea
bbee bcbc
dec fec
bebc fbc
bebc bcbc
ebc eedd
dbe bccc
bdc bbcc
fcc bbf
bbef fc
febb ebe
dc bcbbc
dc eddd
eec bebf
df debb
ba ebd
bebe bebf
bebc bbbd
eebd bbbb
bdbe dbc
ef bebbc
edc fdc
ac dee
bc deccc
ebc dedc
bbed ccc
eebc dee
ecbc dec
fed fc
df bebd
dbe dbbc
ff fbe
eebc ebbc
bf b</w>
bbd bba
bebc ebf
dc efcc
eec bbbbc
bebe becc
eeec bcc
ecbd bbc
ed ebccc
ebc bbfc
bbbe bccc
bef bbcc
dbc bbcc
ecbe bbcc
ecec fc
ebd da
ebd dbec
a bcec
dec ddc
bebc bdc
fbc bcbc
fee bbbc
bc dcccc
dbbd bbd
eedc fc
bdf dcc
edc def
dec bcbc
ee eb</w>
ecc eeed
bcc eccc
dbc fcc
f de</w>
ed bebbf
ebc dbbbb
bbbc debb
bbebb bbec
eef bbcc
da bca
dd febb
bbc bcbf
ebd dbbbb
df bccc
ccc bbd
dc feec
ef dbcc
bbbc fec
dee ded
bbebb eec
ebbbc bbbe
bc ebfcc
ed ebbebb
ff fdc
dbb eba
dbf bbd
bcf ddc
ecc dbbc
ecc deec
bbbc beec
ccc fcc
dec fbc
bcbbc bbbb
ed ecbec
dc eeef
bbdd bbd
bcbd fc
bcee bbee
bf fbcc
ebb feec
bcc bebf
ba bbee
ea bbee
bbec bdc
ebe fa
ebc fbbc
bec ac
bec bebbc
ebbc ded
bebc fec
bbec bfc
ebdc fc
fbf dd
bdbe bbbd
eec debd
dbc debb
dbd ebf
dcc ddc
bebc bef
bbbbc fc
ebe fdd
ebd beebb
bcc dbbc
dbd debb
fea cc
ebb ebecc
ff bbbd
ebcc dec
bced bbc
ebb bedf
bbed efc
bcf bbcc
bf fdf
ed fdbe
bedc eec
edcc ccc
bf dbbf
dbc dbf
bebd dee
ecbd fc
ebc fef
ecc ecec
bcbe debb
bb a</w>
ebc bbbec
debc ef
eeebe beee
a dba
eeed dd
fdbf cc
bbc bcebb
bbec beec
fcc fbc
dbc fbd
bbebe bbf
bdbc bbd
bdee ccc
edc beee
efc bbbe
efc fec
bcec ded
bbbb dbbd
ebe dbcc
dbe bbbf
ebcc bbf
bbdc dee
bc bbac
bebd bbf
fed ff
bf bcebe
ebe ecbe
ebc eebe
ebc edbd
ecc bbebb
ecc eeee
ecc bcee
dbb ecdc
dbd bbee
ebb ecebc
bec eccc
ebcc bbd
bebd bebe
f bf</w>
bfc fec
becc ff
ee bd</w>
bbbd ebf
bf debd
ef deec
bec bced
dcc ebf
bbbd bdbd
ebcc bbbe
a beebb
ebb debf
bbbb fcc
bfc bbef
bbec fbc
eebd eec
be ee</w>
bd dbecc
ef eebe
dbb e</w>
bbbbbbbb bbebb
ed ecebc
dbe bcbd
fbf bbf
ee bbebdc
dbbc fc
bedc dd
bfc ba
ebcc dee
da fc
bd dbbbd
ebb eefc
bbc eeebb
bbed dec
ee bc</w>
bf eba
ebb e</w>
bdf bbbc
ebb eddd
bcee bbbc
beed a
ebcc dbc
ecbc bbd
bfc edc
bcbc ff
fbd bcc
bcbf fc
ffc dd
a eca
bf fbec
df eccc
bbbe dbbbb
dbd bbec
fed dec
debe ccc
eeebb eeee
ebe bcbbc
bbebe bbbc
bbdc ebc
f dedcc
ebd decc
dcc bebe
dbf eec
bbed bcc
eef bbebb
eeebf cc
bf bcbbbb
bbc deec
ebd eeee
bbbd fbc
bebf fc
bf bbebd
ef dbbd
ebf becc
ded bbbe
bcbd dee
bc eb</w>
bf bbeec
ebb ecbec
dc fdf
dec efc
debc eec
fef ff
bdbc ccc
bc be</w>
ebd bccc
dbb ebbebb
beee beebe
bdbc bec
ed fccc
dd bbbbc
ebc febe
df bcec
ac bbbb
bf beebc
df def
fbd bbf
bbd bbebc
ded bef
debc dd
a bbdc
bc dedcc
bd dea
ebb fdbe
ecc ffc
df ecbc
bbbc ebec
dbd ba
bbbd ba
bbec bef
ebbee bbf
ec bbbecc
ebe fbbc
fbc fcc
fbd bdc
bccc eec
bebbc bbc
bc dbbebb
ee dbbdd
bbebb beebb
dee becc
fec bebc
eccc ef
dbbc bcc
bbbb fbbbb
ecbd ebc
bebbbb bbbc
bd bbbfc
edc debe
bfc bbee
bebd bcc
eedd dd
dc ecebb
df fdd
dbf bbbe
bec eeee
bec bcee
df bbbf
bbec bbee
bcbc dbc
eef bbbf
bf bcebc
ebbc bbebb
ecbc dbc
bbbb ddc
fbeee cc
be ec</w>
dc bcebe
bd dfcc
ed debec
ed eeecc
eec febb
bbd bced
bbd eeebb
beec ebd
ecf dbd
f debfc
dd edcc
df ebec
edc beed
efc fee
bbc bced
bebc eebc
fbc bbee
dbf bdc
ecbc bbbe
bdbc dee
eef bbef
bfc bebe
dec ebbc
ac bcc
ec bbebcc
bbbc dcc
bfc fcc
bbbd ded
eef bbec
ecee bdc
eebebe cc
bbd bbfc
bfc ebbc
efc dbd
ec bbea
dc dbbf
dc fbcc
bbc bcbbc
eecc ebe
eba a
bf ecebb
ebb ecebe
ebb bebbebb
df bbed
ff bbbf
beebe bebe
bbc b</w>
edc deec
dbc eebc
ea fee
dfc dee
ed dba
bbf ebec
ecee bec
bdbe dec
ee dbbed
ecc dbec
bcc bcee
ccc bccc
fed dbe
eeebb bbbe
ebb beeec
fc fbbc
ebf ded
def ff
eebf a
fc bedd
ecc bced
dee fee
dbc bebd
becc dec
bcbe ded
bdec bec
eec bbdd
bbbe eebc
fbe bbebe
beed ccc
ebb ebccc
dc edbf
ebd debd
bbbc eebc
bbc bbbbbbbb
dd dccc
bbdc a
ecbe bbbd
eebd edc
bbbbbbc bbbb
ebb beebf
bbd bedd
bbbe dfc
ebf bebf
bef bbbf
bcbe bbed
dd bced
ecec ecc
eeed bbc
ebc bcbf
fc bced
bbf eebc
efc bfc
beec ecc
ee dbbebb
ff bccc
ebb d</w>
ebd ac
bbd bebbc
bbbe ded
ebbc bbcc
dbb ebbcc
ebe bebbbe
ebd fbf
df dfc
dbe ac
dbd bfc
eef dbf
bbc bebbbb
ecbe dbf
a bbef
dc bbebd
bbbe febb
bdc def
fbe ddc
eeee eeebe
eef bbebe
bedc ef
eec eedd
eebd ecc
df eecc
ecbe ded
eebf ef
ed ebbbc
ed deccc
ebb bac
bec debd
dbc fed
bbdc bcc
ebe dbbd
ebc beebe
bec bbdd
efc bef
ebec fbc
fcc bbbb
fef ccc
bbc eebe
ebf fbf
bbbbbbbbbbbbbbbb bbbbbbbb
ebb bbba
dec bbee
dbd beee
bbcc edc
bbcc cccc
bbebb ccc
bbbbc bbbbbbbb
fbd ebd
ebdc edc
a fdd
ee dbbbf
bbf bccc
dcc bef
ecbc bdc
ebdc ebd
debc fc
bf eebbc
bbc eeed
eef bbbd
bcec bbbb
bc db</w>
eebd ef
dfc ef
fef dd
bcbbbb bbbc
dbb bdbbd
ddc bbf
ebdc eec
be dedcc
bc dbbed
ed ecef
ea dbc
dbbc bbd
df beec
ea ebf
ebdc a
dc eebbc
ebc febc
bc bbbbbbbbbbbb
bf ecee
dc eeebe
fc ffc
df bcbd
dbb bdf
bcbc ebd
fcc dbe
bbbbc a
edbc ebd
eebebc cc
dd bebf
bbc bbbcc
bec bbef
ded edc
bbbbc dbe
eedbd cc
dee efc
bbed ff
ebf dbf
bcbc dec
debe bbbe
bbfc bbbb
fc bbef
bec da
bcc beebb
bbf becc
bbdc dbe
bdbe dbd
ebc dbcc
be bbeba
bc fbecc
bf bea
ef dbbbb
eec ecbd
fbc bbec
bbbbc bcbc
ecf efc
ed fbdc
bfc efc
bebc bebd
fee dee
bbbbc bebe
fbd bbd
bcdd dd
bf fbbf
ed fdbc
ebb ecef
ebc ecbe
acc a
bcc dfc
bcc bbdd
bebe fcc
ebdc ef
bbdc bbd
bcbe ddc
f bbeccc
dc febd
dbb bdec
fbc efc
fed bdc
eebe bbef
bcdc dd
bcc fbf
eedc a
bdee df
bbbe efc
beec bbec
bbbe dbbc
ebbc dcc
ebec dcc
debb dbc
fcc fcc
fbbcc cc
ebb bca
ebb febf
bbebb ebf
edbc ecc
ec dbbbd
ebb bbbfc
fc bbebe
ebbc fee
dbb bfcc
ec feecc
ed ecbcc
bbc fef
fc bbebc
bbebb beee
bbed bebe
bcbd bec
ebbc bebd
becc bdc
ecbc edc
ebdc bec
ec dbbbbc
ed bedcc
fc bcdc
dbe beebb
dec def
eccc ebe
ebb beff
eec bebbc
ea ebc
ded bebe
bbebb ff
bbbf bbee
bbc ecbd
dec bbbd
ebec bebe
bedc df
ebe bedd
bbf beebb
bbcc dbd
bbcc fbc
bbebe ef
dbbc ebd
dbbc dee
fdc a
fdc ff
bf eced
ed bedee
ccc dbd
ebcc bbbc
fbe bbef
bebd ecc
bebf a
ebb bdef
bbbb bdbbbb
bbcc bebe
ebcc ebf
ebcc fbc
fcc bdc
fbd dbc
ba fee
fec bebe
bdf bfc
bd debcc
bbc da
ba dbd
eccc bec
bcee bebc
dbe bcec
bbec ebf
bbec bbbd
fec ebd
ac ebe
debe bec
bf bebcc
ed bbebf
dee bcec
eebc fbc
dc bdebb
dbb bb</w>
dcc bbbc
eeebb ef
edbc df
bf bdee
dc eefc
dc beecc
debb bbbd
beec bbf
bf eedd
bbc fbbc
dcc bfc
fec bfc
bcee ebd
ecdbd cc
bc dbbbf
ac ff
bdbc ebc
be debfc
ec bebecc
ef bcef
ebe ebbebb
dd beebb
bbbc bbdc
dcc eecc
bcbe bbbf
ba beee
eebd ccc
bccc bec
bdf bebe
bbd eebe
bbbe bbdc
ebbc efc
ea bef
bf bcbec
eec bbebe
bbbc becc
dbb edcc
bbcc bbee
debb bdc
bbef bbf
ecf bebc
fc bbdd
bebe beebe
bbed ebd
eeebe ef
ebe eba
dee bcbd
ee fbecc
dc ecef
bbc ebdc
beed bbbb
dc eded
df da
bbbc bcbd
dec fee
ea bdc
dbf dbc
ecbd ecc
bf bdebb
ebb beecc
ef bded
dd bedd
dd bdcc
bbd fbbc
dbd fee
bbbd bbdd
decc eec
bbbb ebbbbbb
dbe fbe
ebbc fec
ea bca
bbcc bcbc
f dc</w>
ebb fedc
bbebb ebd
debe bcc
bbbb eeebb
bebd dbc
eeec dbe
eeec dbc
eec bdbd
debe fc
bcee edc
bedc a
ebb c</w>
dc bcfc
dc bdef
bbc bcf
dbd dbf
bbbf bbbf
beec bebe
bebd bbbc
dbbc df
ecec dbe
dc dbbbe
dec fcc
dec deec
ea bbd
ecf bebe
bdbc bcc
eced dd
ed ececc
dc bbecc
ba bef
ea bebe
bf edbf
ebbc debb
fbe ded
bdf efc
ebe bbbcc
ccc ded
ebbc beee
bcee becbbec
bedbf cc
bbf ddc
ebec bebc
dbf fbc
dbbc a
dbec bec
bdee ecc
bebbcc cc
ba ac
bcbc bdc
bcbc bebe
dbec ef
bcec a
bdec dee
bbc bcbbbb
bcc ac
ebf bebd
bdec df
ee dedcc
dc ebecc
bbbe bbebc
ebbc eebc
dcc fed
eef ddc
eeec ef
eeec fc
bbc eebf
bef ded
bef ddc
beec becc
dbbc ebc
ebd edcc
eec dbcc
eccc dee
bbbb eebd
bbc dbcc
ebd bedd
bdc beed
dcc efc
dfc a
bbbb debe
fec bbbe
bbbf ccc
eeee bec
fdebb cc
ee ec</w>
ed fbbbe
ebe eedc
ebd ecbd
bbef ff
ebc dbbd
dbc bcbd
bbebe bcc
bdbc df
edbc bec
eeec eec
ecdc dd
edbc ccc
ed fbbf
ebdc df
dfc dbe
da bba
beebe bbbe
ec fbecc
bbc ffc
dbd bbdd
bbbd beee
dbf edc
bbef dbe
bcee ff
bdbc a
bcbebc cc
ebec ebbc
beec bfc
eebc bbee
def bbf
ecf ebbc
ecec dec
bd dbbdd
bf ebbcc
bdc bbdc
dee bccc
eebe ddc
deec bec
debb ecc
debb bebe
fbd ecc
eebd dbc
ed eedbe
eef efc
dc bebbbb
ef bbbec
edc bcbd
bbbd bef
fec fbc
eebc ebf
eeebe bebe
ba fbc
dbb bfbf
fec beec
bebd ff
eebd dbe
fdc dee
bcc febb
bbd eeed
bbec ebbc
bbcc bebc
bbbbc ebc
bedc ebc
bbbb bcec
ebd dbbd
debb dee
dbec bbc
fc bdbd
bbbe fcc
bbebb bef
eebc bebe
bebd dec
bcee dcc
beed dbe
bdbc dbe
bf bbecc
ed eebbd
ebb dcdc
bbbe fbe
be dd</w>
ed eac
ed eeccc
bbbe bbbec
bbf febb
bbbf bfc
fed eec
beed dee
bbbb bbfc
ebe ecdc
ea bea
bebd bdc
fbd dec
eecc bdc
eedc bec
beebe bbee
ebe deec
eeee beebb
dbbc eec
eeec ebc
dd ecbd
bbbe bcebb
dfc bec
dfc bcc
ec bbbccc
bbbb ecbc
bbebb ebbc
bbbf ebf
eebc ded
bebd edc
dbbc dbe
eeebb bbc
ef bea
bebc dbd
bebd dbd
bbebe beee
bedc fc
bdf bef
bcfbc cc
bf bddc
dc bbeec
ff fef
bbbc efc
ea beee
bbbd bbbbc
eecc dbe
ed bebbbc
ebb eded
bebc beec
def ebc
bbbc bccc
bbbc beebb
def ebe
dbbbb dbbbb
bbbe bebbc
ebec bbec
eccc ebd
eecc dec
bbdd ebe
beebe beee
beef a
dbc debe
bbee beec
fcc dee
bbdd dbe
bdbe ebf
bebbbe bbbb
ebb ecfc
ecc fbf
bbd fdd
bbbd bbed
bebd ccc
eeed a
bcdbd cc
dc bebec
dbd ebbc
ebec bcbc
bcbe efc
bbc bedd
bbd ebdc
bbd bddd
edc ecbd
ba bbebb
dbb ecdd
dbf ebf
beec bdc
fed ded
bbebe a
eedc eec
fc debd
ecc bbbf
bbd fef
dcc fee
fbc dbd
bdbe bbcc
bdee bcc
bcbbee cc
dc bedbe
ef ecdc
bbed bdc
bbbbc bbebb
debe a
eebd bcc
eeed ccc
fbbc bbc
bf fdbe
dd dcdc
fec dbd
fbd edc
debc ebc
fdd bec
bbee dcc
dbf da
becc dee
bbdd a
ee fbccc
fcc efc
ecbc bebc
bbebe bec
ed ebbbf
bbbb bcbf
fc dbcc
ebd bced
bbd bbbec
bef beec
bbbf bbbd
fcc bfc
fcc eecc
eeee ea
ebdc dbe
ee dbbdc
bf ecbbc
ebb bbedc
dc ebbcc
ef befc
bbbe bcbd
bbbc dbbbb
eccc a
bcf ea
bdcc ccc
ecee dbd
bcbbcc cc
bf bbbbbbbb
ed ebbbd
ed dbbcc
ebb dced
dd debd
ebec ded
ac eec
becc dbe
eeec bdc
ecec dee
beba cc
ebc bcdd
bec eedd
dbc bbebb
becc bebc
eebf ebe
ed eedf
ed fdee
bbd bcebb
fbc dcc
fec bbbc
fcc ded
ac dbe
bcee bebe
bbee bbed
bcbc ded
debb dec
eeee fc
eeee bdc
ebb debbc
dbc eebd
bef bebf
bbec bbebb
eebc bfc
dbbc bbbc
ec eb</w>
bf bebbbe
ba bebc
bbee ea
becc eecc
ebdc ecc
bcf bbbf
bcee bfc
ebe ffc
bef bbed
debb ff
dbbd a
ebe dbb
fbe ebcc
dbec df
eeec dec
bdbd bbc
bbbe ddc
ba bda
bbcc dec
debb bebc
bf bdec
bec bbbec
fcc dbc
def ecc
ee bbeccc
dc fdbe
bbbe eeebb
fdd ef
bf bcdd
fc bebbc
ecc bebf
bbbe ebcc
bbf fdc
bbebb bbbf
f bbb</w>
bf ebbebb
ebb fbbbc
ebd bbebe
eec bcdc
bbd febe
ebf ebcc
ebec bbee
debb edc
becc fec
bbdd bbbd
bf dbbbe
dc bcebc
eec bced
ebbc bbed
fee ebd
ecbc bebe
bbebc bec
ecbd df
bbebb dee
dbec a
beee ebd
ac ebc
bedc bbc
eec fbf
bbbd bebd
be bbebfc
ecc fbe
bcc bced
bbf def
bbcc ebf
ecf bbec
ecee ddc
bdbe bbec
ecc ecdd
bcc debc
fcc fed
ecbc ff
bba bba
bdbd dbd
ec be</w>
ebb fbebe
ef bedd
fc dedc
dbf bbbc
fec bcbc
bebf bbf
ecee bbf
bdbc ebd
dc bdf
bbbb beed
df bbdc
ccc bbbc
fbc ebbc
ebec edc
beebb ebc
bac ba
bbd ffc
efc edc
eeee bbbc
bcbe bbbbc
ebbbc dbe
ef bcbbc
bec ecbd
bec dedc
fec fed
beec beec
a dca
bbc bcdc
ecbc bbbc
ecf bef
bcbc bbec
debb dbd
bbef bbbe
bf ecdd
bbbb ac
ef bbbcc
bcc ebdc
edc ffc
bcbc bbee
deec dec
bcebb bbc
a fef
bbbd bfc
bebc fee
bbcc bef
beebb bbf
bb ef</w>
dbe beed
dbc becc
f deba
ebe decc
df eebc
edc dedc
dbc def
efc fbc
bbebe dd
bbdc ff
eebd ebd
ebe bcbbbb
fc ecec
bec bcbe
dbbc bbbe
eef ded
bccc bbbb
edbc eec
fc ecdc
bec ffc
eeee bbd
ecbc ded
eecc ff
beebe a
ef dbb
bec bbebc
ecc bcdc
dcc eebc
beec dbd
dc eba
fc ecbd
ecc febc
dbe bced
efc ebf
df bcee
fdc bbc
ecc bdbd
bbbd ebbc
bcbc dbd
bcbc bbcc
bbed bbbc
eeee beef
bba dd
ebbee bbebb
bf bdef
dc fbbd
bbed bbec
febe a
bf bebbd
beee eeebe
bbbf bdc
becc bbf
eced ccc
bedebb cc
ef decc
ebe bfcc
df bbebb
ebf beec
eebe dec
bcbd a
fdc ebc
bc bbb</w>
bc feecc
fec bef
fec fee
debe ebc
bba ba
bebf ebe
eeebb bebe
bdbc bbbe
bdbc bbbc
bdee ebc
ec bebccc
bbbb bbebd
ef b</w>
ef eeed
bbee fbe
ded bfc
dbf dbd
fbd bebc
def dee
ecbe ba
bedc dec
edc edcc
bcbc bef
bbed bebc
debc ccc
dcec dee
fdef cc
ebd bbef
bcbc bccc
ebcc bebe
dd eeed
bbd beebe
ebf bccc
dbbc bbf
beed dec
bbfc bec
ef eba
ebf fbe
dcc bbee
bbbd bbcc
ebec dbd
fec efc
ecf eccc
bdc ea
edc bedd
eeee ebeebe
bbbbc dbc
bcc fef
dcc bebc
fbc fee
debe dbe
bebbbb bbebb
bdbc dbc
bf dccc
bf bdf
bf eddc
ef debd
dd ecec
bdc bcbd
bbbf dbc
bbed dbd
eebc dbd
bdec bbc
eedc df
bcbbbb bcbbbb
bbbb bcee
ebe ecbf
fc fdd
bbee bebd
bbdd bec
deec bbc
ecbd ccc
dc bea
bcc bbef
ff def
bfc bbcc
ebbc ba
bef beebb
eedc ebc
eddd dd
bbf ac
ebf debb
bef bbef
eecc dbc
fc befc
edc ecdc
dbb ecbbc
dbb edbf
bebbbd cc
ded bbbc
ed beff
ed acc
eec ecdc
ff bbebb
ded fbc
dbec dee
bc dbbdc
ee ebac
dc fedc
ecc fecc
eec ffc
bbd bcbf
bbbe bbef
bbf bcbd
bbee dbf
dec beed
ea bbbc
beee bebc
ebcc bfc
fcc cccc
eeee eeebb
ee dbbebe
ec dbbdd
bbbb fbbc
ebd ffc
ff fed
ebcc bbee
ee db</w>
ebb fccc
bbbd bbbf
dbbc dbc
bccc ebc
be defcc
ebb bedbc
ef edcc
efc beec
bcbc fbc
ecbd dee
bc dbbebe
beee eec
bbebb bdc
fcc bebe
ed bedbb
fee bebc
eccc df
fed ebc
debe ebe
eeec dee
bd ebdcc
bbbc bbebe
ebbc bbbf
fee ea
ebb fdbc
dec debb
bbebb dbc
bcbc cccc
fbd fbc
a b</w>
bbd ecec
dbe fdc
dbb bdebe
bf febd
bbec bebd
bccc dee
bbf fef
efc bebe
ebc bebbbb
bcc eeed
ebf febb
edc eedd
bbec becc
bbcc bfc
bcbbc bbc
bccccc ccc
ef ecbf
ebe debd
dd fef
ded debb
bbbbc bbee
eebe ebcc
eebe bba
bcf bbebb
bbfc fc
decc ccc
a eea
bebc debb
fbc ba
bcbc bbbd
bcf ebec
dc bcbec
ecc dbcc
bcc fdd
bbbc fbd
dec bebd
bef debb
debc dee
dc bedf
bbf eeee
bbcc fee
bcbd ebe
bebf bec
dc ecebe
bec bcebb
ebd bcee
bbd bbeec
bbee debb
bbbd debb
fec ba
bcbd eec
bf fecc
ebc bdcc
dbe debe
bbee beebe
def dcc
ecbe bbebb
dbec eec
bebf ef
a bdbd
ebf beebb
bdc fdc
dec ba
beee ea
ebe bcef
ecc eebf
fbc fbd
bbebe fc
bd ecccc
bf dbdc
ebb fbdc
ebe befc
ebe eea
fec becc
bcbe ebec
eebd bbf
dbbbb bbf
edbc dee
ebbbc bbf
dbd beec
bbed bbbd
bbbbc bbec
eecc eecc
febb fc
fa dd
dbd bebd
debe df
eef ac
dc bfed
ebc eeebb
dbe ebec
ff ebcc
bbbbc eec
da df
bfbc ccc
dc ecbbc
ebe edcc
ff bbef
bebe dcc
dec dbf
fbc debb
da bbc
ebe beebc
ebf fef
bdc fbe
ebbc beec
bcec dbc
beed dbc
bebf bbbe
ecbd eec
ecf ddc
beebe bbc
eeee bbebb
beed fc
bced dbe
bded dd
ed bedbd
dc ecdf
ebe fbbbb
bec bcbf
eeee eeef
bdbe bfc
bdf bbee
be deba
ebb eac
bec ecec
dbf bfc
fcc bbd
ecee ef
bec dbbbb
ecc eebe
dec fed
ecbc bbee
bcf beee
fbf bcc
dd eebf
bec fbbc
ebd cccc
bebc beee
fee fbc
fec edc
eedc ef
ecf bbcc
ebb dcbd
dc debf
dc eeebc
eebc eebc
becc becc
ecbc dcc
debc a
bf eebbbb
ed ecebe
ebc befc
bbd fbbbb
dbe ebcc
ba bfc
dee bbebb
fbd bfc
def bbbb
eedc ecc
ecf bbee
bebbbb bbbd
bdcc eec
eced bbc
ebd ebbcc
bbbf bef
bcf ac
beebb bbee
bbfc df
eeebe a
dc ecebc
efc dbf
def dbc
bbdd ef
fef bbc
bcc bdbd
ebf fdc
bbdc bdc
bcf ebcc
eeec bbbc
bd db</w>
ec bbeecc
ec defcc
dc bebcc
bbbe bcbe
bbf ebcc
efc debb
bbec bcbc
beee bbbd
eeee bbebe
ecbc dbd
ebc beef
bbf dbbc
edc bbed
edc bccc
bebc becc
bcbc fee
bbbf fbc
bcee beec
bf ecef
bbd eef
dbec dbe
dd bcdc
bbd bbbcc
bbd bcbbbb
bdc dfc
bdc bedc
ff beec
ccc bfc
bbbf eec
bcf bbed
fdd eec
ebbee dbe
ebbbc bbbc
f bbebfc
ef eea
dd dbb
dd eeebb
bcc bbebe
bbbe fbf
bbf fed
bbbd fee
ecf ded
edcc ecc
bdf ba
bbbf dee
dbbc dbd
bf bca
bf fccc
dd dbdc
fbd dbd
bbfc a
ecbf fc
ebb dbfc
dc bcdf
bec beebc
ecc bbdd
bcc bcbf
efc ebbc
bbebb bebbbb
bcec beec
ee ed</w>
ed bebbee
ef bbeec
ff bcbd
bcee ebbc
dcccc ccc
ef febc
dd bbef
ea eec
fbc bbbd
e ba</w>
dc bcbbbb
ebe eebbbb
eccc dcc
a bcbf
bc dbbef
bf debf
bbc dbbd
ebf eebc
efc ba
efc becc
beee dee
beee ebbc
bbed ded
ebdc dee
dfc ebe
da dbe
ebb bedbb
fc bcbe
bbd d</w>
ea ecc
dbf bebe
eecc fbc
bbdc ebd
ecbe ac
beed ebc
be de</w>
dd ecdc
df bebf
beee bcbc
def bdc
eebe bbbbc
bcee dbd
febb ff
ebec bbbd
bcbd dbe
bdf ded
dcbc ccc
ed efdc
bbdc bbbe
ecbe ebcc
ecbd bec
febe ebe
ebc dbb
bfc dbf
bbec bbcc
fec ddc
bbed bbee
eebc dcc
eebd dee
bba bbbe
ecec a
dc fccc
ebc bbbcc
dbc eeee
bebd bbee
bcec bbd
edbd bbc
ebb fbbee
ecc debd
bcc eedd
bcf def
bcbd ccc
bcee fbc
bdbe ebbc
dd eedd
ebc bcbbc
bec eeed
bbbc dbf
ded ba
bbbf ebd
ee ee</w>
ebb dddd
bbec fee
bbbf bebc
ecf ebcc
ed ebbed
ecc bdcc
fbe bbed
febb bbf
ec dbbbf
ccc bbbe
fbc fed
eccc eccc
bfbc bbf
eedbf cc
ed bbbbbbbb
fc eedd
bbd eebf
edc dbec
bdbe bbebb
edbc bcc
bf bebbf
bfc bebd
efc eecc
bbec fec
fee bcbc
fbe dbbc
bccc a
fbf ebe
bebf ff
bdc bbebb
bbbd ecc
efc bcbc
bbdc bbbc
bd f</w>
bbc eef
bbd beef
dbb ecef
bbec beee
bbec debb
bbbf bbebb
fbd bebe
bbebe bbebb
bbbec bec
ecf dbf
bdee dbc
ed eca
ebb ddcc
ef bdbf
ebe ecebb
bbc beebe
bdc dbbc
dbd fcc
bebf bebe
bdee bbbe
ec dbbed
ec fbccc
bbc eccc
eec fef
bfc eebc
dec bbcc
eeee dbe
debd df
eeebb beee
bdf bebc
ed ecbbbb
eec dbbd
bbd bdcc
edc dbbc
bfc ebec
ac bbf
becc bbbe
debe ef
bcec bbf
bedc bcc
bdee bbbc
bf eea
bbc fdd
ecc beebb
ebf ddc
ba dcc
dee debb
dee bebd
ebbc bbbbc
fee dbf
ecbc fbc
debc bbbb
fbbbd cc
ec bbac
ebe b</w>
bbd bbebd
dee eebc
dbc ebec
bebc bbcc
bcbe bbebc
eeec bbf
dd c</w>
dbe febb
ebf ebec
dac ea
bbbb beebe
fc bcebb
bbd edbd
dbb eddd
fbe bbbbc
bea a
ebbbc ccc
dc fbbbb
dc ecbec
fc eeed
dbe fbf
bbbd edc
ebcc dbd
bbdd df
fdc dec
deec eec
ebe ecec
dd eebe
ebc bba
bbbe beebe
bebe bccc
bef bbebe
a eecc
bf eefc
fc beebc
bec beebe
bebe eebc
bef bebd
ddc fbc
becc dbc
eef bbed
bcbd bcc
bb ebe</w>
ef eedc
ebe bdbc
bbd cccc
eebd bdc
ff cccc
bebe bbed
fee dbd
fcc bebc
debc dec
bcec ecc
ebc eced
ebd ecdc
fbe bbdc
da ba
bcbeee cc
ebb ecbcc
bbc bba
df ffc
bbee bbbbc
dbb ebbbd
debe bbf
bcee ebf
a bfa
ebbc ebec
fbd ded
fed dcc
bcee bef
a dfc
bf bac
ed ecbbd
ebb bebbbd
bbbb bebbbe
ef ecbe
edc eeee
bfc debb
fee eec
eccc dec
beed eec
bdbe ba
ebe bcebe
ded bbcdbf
debe bdc
bd dbbbbc
ec bc</w>
dc bebbd
ebd bcebb
bbd ecbd
df bced
dbb eddc
fbe ebec
fbd ebf
bbef bbee
da ccc
febb dd
bcbf bbc
edcc fc
ecbf dd
bdf bbbd
bebbebb cc
ed bbebbc
ebd fdd
ff debb
bbcc bbbd
bbebe ccc
eecc bbf
bbdc dbc
bebf dd
bdf bbec
a cccc
ebd fbbc
df dbbc
ecbc bbec
ecee bbee
be bf</w>
bbbb def
fbc beec
ecbc bfc
ebdc ff
ef fdf
bcc bedd
dbe bbbbc
bbbc dbbc
bbef bec
eeebe bbee
dcbc dee
fbbbf cc
bbbb bedc
ebbc becc
fbd bbbe
bbdd bdc
eebc bbec
eebe ac
dbbbb a
bcee ded
eebf fc
bcbf dd
bdbc dbd
ed ebbbbc
bbc ecec
ebd dbcc
debb bbee
bbdc bbf
bcec bebc
fef fc
ecdc fc
ea dcc
becc ded
bbdc dbd
ecee bbbe
bdee bbf
eefee cc
ebe bbebd
ebd bebbc
ba bcbc
ebbc dbf
fec bbec
ebe bcebc
bcc ecec
ebf bbed
ba dec
debe bebe
bcbe ea
febb ccc
eeebe fee
ecee edc
efbf beee
bbebb ecc
eebd ff
bcbbbb bbbe
dc beeec
ebc ecdd
ebd dedc
beee bbbf
fcc bef
ecee bbbc
bebbbe bbbe
ee dd</w>
bf ecbec
dc dbbbc
dc eedbe
ef ecec
ba bbbf
bbbd bcbc
bbcc bbec
deec a
bdec eec
ebbee ff
bbbd ddc
bebd bebd
becc eebc
bdbe dcc
ebbee fee
ded ebf
debc bcc
dfc ebc
ecee bbd
ebbbbbb bbbe
ebb fbef
ebd fef
bcbc beec
ebcc eecc
ddc fec
fec dbf
beef ebe
edbc a
ecc bbbbc
dbe bedc
efc efc
fcc ebf
eeebb bbf
bdee bdc
be dc</w>
ef bebbbb
ebe febc
ff ebec
dee eecc
dbb ddbd
beee dbd
bcbc dcc
beed bcc
ecf ba
ebd febc
bbd febc
dee ea
bfc def
fbc eebc
bbef df
eeebe bbbe
bdbc bbf
dc eebec
ebd eebe
bbd bded
ded def
bbcc ebbc
bcbc ebf
bbbf dbd
dbbc bebe
bbdd dbc
bbebc bbbe
ed bb</w>
ebd eedd
dbe fed
eebd ebe
dbec fc
febb bbbe
dc eedf
dd bcdd
ecc ecbe
ba edc
beec debb
a bcee
f ef</w>
bf efcc
dc bfdc
ef bcfc
bbec edc
fbc dbf
ac dec
bbbbc bebc
beebb bec
febb df
a ecbc
ed eedbc
dd bddc
bbbc fcc
bfc fbd
ebbc fcc
bcbd ebc
ed bbbfc
fee dec
fee ddc
dbec ebc
beebe eeee
eeed df
bfbc ff
bf bceec
ed ecdf
ebb ecbbd
dc bceec
ea eeee
ded bbbd
bcf debb
deec dee
bdf dbf
bebbed cc
ed ecccc
bbbb fed
bbbb ebbebb
edc debd
bfc becc
beee bbcc
dbbc bbbd
dbbbb bbebb
ecf bbbd
bedd bec
bf bbebf
bf bddd
ed ebbdc
dc eea
dc ebccc
dd bbebe
bcc eebf
ebcc ebcc
bccc ff
bebf ccc
beebe ef
bc bbebdc
dc beebd
ebd febe
bbf bbebe
edc bbdc
bebe bebbbb
fbd fec
dbbc ff
bdf ddc
befc df
bdee eec
a fbbc
ed beebf
ebc bded
bec bdbd
dbb eded
bbec bbed
eebd dec
bba bbbc
eebf bbc
dbb ebbbc
ecec dcc
fc ebfc
ebd b</w>
dbe bbebe
bebc ba
debc ebe
bdee bbd
dc ecfc
bbee ddc
fbe def
fcc dcc
bbbbc df
bcec bdc
bcec bcbc
dbe eecc
dbe bcbe
dec beee
efc def
bebd bbbd
fed bbf
eeec ecc
eeec bbbe
fef fee
a eebd
fc bdcc
bbbc cccc
ebbc eebd
eef def
bccc df
ecec dbc
fbbbb bbc
ebb bb</w>
ebe ebfc
dbe ecbc
bbbc bbdd
bbbc beed
eecc dee
fef df
ecec eec
dbbbe bbbb
a bbdd
ed ebbbbbb
fc dbbd
ebd bcdc
ebf ac
bebc bbebb
ecbe efc
bbef bcc
ecdc ecc
a ffc
ebd eeed
dbb bdef
dec ebec
ded bbee
beec dcc
fbf bec
bbfc ef
edc ac
edc eeed
debe bbd
bced bec
dc bdbbc
ebe edbd
bbf bcbf
fcc eebc
decc ef
bdee dee
bd bd</w>
bfc beed
ded bbed
bbec efc
ebcc dcc
dbf bef
bf bdbbc
ef edbd
dd eef
ebc dbdc
bcc bcbe
ebf bcbd
bbee eecc
ddc bbbe
eebe ebec
dbcc bbc
bdf ebbc
ed febf
df bcf
edc bcec
fec ebbc
dc bdbe
ebd bdcc
dbe eebd
dbe bcee
dbb ebbed
bef ebec
eccc bdc
eecc eebc
dbbbb ebe
eebf ff
bcdc dee
bd bbefc
bd ffcc
eec dbdc
ecee eec
ebbbc bcc
a bbebc
fbc bebd
bbdd dee
bf feec
bbc ecbe
bbf ecbc
ff dbbc
bbebb ba
fbe ac
bf dbbbc
dc dbbee
dc fbbf
dd edbd
ebf fed
bebe bcbd
dec eecc
fee bfc
bc dbbfc
bf bcdf
ebc fecc
bbc beef
bec dbcc
bbbe bcec
dbe bdbd
dbc eecc
dbb ebbbf
bef beef
dfc dbc
ebe bddc
dd fa
ebc eef
bbf dbbbb
edc febb
bbbbc dee
ecec bbbb
bcc decc
dec bbed
bcbc bfc
bbbbc bbcc
becc bebe
bedc dee
bc bbeccc
ef dbbf
ebd edbd
bbd bcf
dbd fbd
debb ebbc
a beed
bf e</w>
dc eebcc
ecc ecbf
ecc eced
bbd bcdc
df ecbd
dec eebc
bef bccc
bbbd bbbbbbbb
dbbc bdc
a dbbbb
ebe eeed
fc eebf
bec fef
bbd bdbbbb
ccc bebe
bef eebc
dcc beee
dbf bbee
debb ded
eeec ff
ecec ded
bdbc bdc
edbc dbc
ebbee ebf
bec bbfc
ecc bbfc
bbec ebec
ebcc efc
ebcc ded
ecec bdc
f bbeba
bf bbccc
bf ecfc
ebe bebec
ebe ebbbbbb
bbec dcc
fee bbbf
bcbc bcbd
fbd bbbc
bcee ba
bc ee</w>
ebe ebbebe
ebc ebfc
ebc bebec
bec bebbbb
bbf eebd
fed bbbb
eedc ebd
cccccccc cccc
bec febc
bbd eccc
dbd bbed
bbdd eec
edcc eec
bf ecdf
fc bfcc
ecc eddd
bcc dbec
ba bbcc
dbb ebecc
dbd dbbbb
beec bbee
febe ef
bdbc bbbd
bdebb bbbb
ebe bbeec
ff bbed
bfc beebb
dbf dec
becc bbbc
debe dbc
a eccc
ed bbdcc
ebc eebbc
bebc eebd
bbec beebb
bbef ccc
dbbd ef
ec ee</w>
ecc da
dbc eeec
fee bbebe
ebcc fec
eebe bbed
dbcc dd
ecee dec
bac ea
ed f</w>
bec bcdc
beee dcc
fcc becc
fdc dbe
ecf ea
bbd bdbf
df febb
bbf bbdc
ff da
bbcc dcc
bdbe ded
dc defc
bbcc beee
bcbe ac
bf ebbbf
ef bdec
bbc debd
bec eeebb
df bbef
bbf fdd
ff febb
dbd bcbc
bcee bcbc
dbbd fc
ecbd edc
ec bd</w>
ef dccc
ebe eebeee
bbbc def
dbc beed
dbd bbebb
bbbd dcc
bebc dcc
beebb beee
bdbd dbe
edcc ebc
ebbee ccc
bd bbfcc
eec fdd
ba da
ff ffc
bbcc fec
dbf dcc
eeee bebf
eebd fbc
bcee bbebb
eedd fc
ed dedcc
ebb efbf
ba bbec
fbe ecbc
debb ebf
dbec dec
bcee ddc
fbf bbbe
bcec bef
eeec bbd
a bced
bbc fbec
eec beebe
bdc ebdc
becc fbc
debc ded
bbfc dee
dbbd ebe
bf fbbbe
ed eebdc
bcc deec
dbf fcc
bbebe bebc
bdbd bbbd
ecbd bbbb
ed fbbbc
ef fbcc
bbc bdbf
dbe bbdc
bcf dbbc
bcf dfc
bbbbbbbb bbbbbbc
bcec ff
bdec fc
bdc fbf
eeebb ebf
dc edbc
eec eeed
ea dec
beec fec
fbd fee
def fbc
fdc bcc
fdc fec
bdbc bebe
bebbbf cc
ef ebfc
ebe bded
dd fbbc
ebec bfc
eecc dcc
debc ff
da bbbb
bebf bcc
bcebe bbbb
bb ebd</w>
dc eeecc
ebc fa
bbf bbfc
efc eebc
beec bedc
becc ebf
eebd bbbe
eba bbbb
a debe
dd bcbe
ebc bfcc
bcc bbbcc
dee fec
bebc fed
fee bbbd
fbe dfc
ddc bbbc
bcec bbec
ffc fc
cccccccc ccc
ebb bedee
dc bfbf
bbf dfc
fee edc
eeee dbc
bebd ded
ebdc dec
dbbd bbbd
bdee dec
ee dc</w>
ebbc fbd
dbd eebc
dbf beec
bbbbc ebd
ebdc bbbb
beef bbc
ef bcdd
ff ecbc
becc bbd
bbef bebe
fdc ebe
bdee bbee
ed eeebd
dd febe
edc febc
bfc eecc
beee bbec
beebb fc
eeec ded
bedc ebd
ecebb bbbb
ec dbbdc
ebc eddc
ebf dbbc
bdc bccc
ccc fbc
efc fed
ebcc bebc
bebf df
bedc bbbb
ec dbbebb
ef bdebb
bcc eeebb
bbd bcbbc
bebe debb
efc bbee
efc bbcc
ac dbc
beebb eeee
bd dac
ccc ddc
ebbc ddc
bef ebcc
beee fbc
fec debb
beebb bbbc
eeec ebd
ec dbfcc
ef fbec
fee bbcc
beec ba
debc dbe
dbbbb dbe
eedc edc
bbebd bbbb
bf bbbdc
ebd bebbbb
bbebe bbebe
da bea
bdbe bbed
a dbec
bd bbea
bcc eebe
ff fdd
dbb dced
bebc eecc
bcbd bbf
beef ef
dc fdee
bbc febe
ff becc
ff dfc
dbb ecbec
dbb ecebe
bef beebe
efc fcc
eeee ecc
eef ebec
ebc beebc
bbd ecbe
bef ac
def eec
debe bbbc
bccc dcc
bcbf bbbb
dd bded
bbc eedd
ecc bbebe
ebf bbebe
bcbc ba
fec dfc
debc bbf
bbdd fc
bcee bbed
ebfc df
a bcf
a eebf
ed eeeec
ebb fbfc
dd dedc
bebe bebbc
ea dbf
eeebb bbee
ecbf ecc
bd dbccc
ed bbba
dee def
bef def
ddc ebf
ebdc bcc
febb bec
febb eec
ecbd dbe
ecee ebd
bd debdc
ebc bcfc
bbbf ba
fbd dcc
eef debb
eeec dcc
febe bebe
fbbc bbbb
bbd befc
bdc deec
fef ebe
bd eb</w>
bf bdbe
ed eedee
ed debdc
ebf eebf
bdc eeee
ebbc bbebe
dbb dcbd
bbcc bccc
eecc fec
febb dbc
ec ec</w>
dd bcebb
fc febc
ebd eebf
eec febc
ebf def
ebf bbef
ff bbdc
dec decc
ea fbc
eccc dbe
debe ecc
bedc ebe
bdbc ecc
ee fcccc
bd bc</w>
bf dced
ebd bcbe
eec fa
eebd bbd
dbec dbc
bf fbebe
dc bca
ef dbdc
fc beef
ebd ecbe
bcc bbebc
ebf fdd
dee dbbc
dee cccc
bfc ebcc
dbd dbbd
ea ac
ecc dccc
eec bcee
df debe
bbbc bebf
bbbc bbbcc
ccc bcbc
ded becc
ebec bbcc
bebbc bec
edbc dbe
eebeee cc
ee dbbfc
ed ebdcc
ed fdbd
ed eedcc
ef bfcc
bbc bebec
bdc debc
bdc eedc
bbee efc
ddc fcc
dbbbb bcc
bf c</w>
bf dedc
dd e</w>
dd bcbf
ebc bcebc
eec edcc
dbd bbcc
ebb ecdbe
ebc ecbf
bbc bcef
edc fbf
dbd b</w>
beee bbef
bcbd dbc
fdc ecc
ffc ef
fbbed cc
a febe
ebb beedc
eec bbebc
df fef
fee bbebb
fbd bef
bf beeec
ebb bedbd
ebc bcef
eec bbfc
ebf febe
dee ac
efc bbec
ded dbf
eebe bbdc
bccc ebe
dbec ebe
eeef ef
fbbbb bbbe
a bcebb
ebb beccc
ef bcbbbb
dd ecbe
bdc debe
dec bedc
ded ebbc
bebbbb bebbbb
bf fbdc
ed eceec
ed bedec
bbc befc
ff bebd
bef dfc
bebc bbed
bbebb fbc
eeee bbef
eecc bbd
bbbec dbe
ecf ac
fdd fc
ebb fdbb
bbbe bbdd
dbd debe
bbec beed
bcbc ebbc
beec fbc
bcee dbf
df cccc
bbee becc
ded efc
fcc bbbc
bbbec bbbe
ed fdec
ebb dded
ef bbebd
fc eef
ebd beebe
df bcbe
bbf debe
bdc eeed
ebec ba
ebcc eebc
ecbc beec
febb ebc
dbbd bec
eedd a
fbbebb cc
f df</w>
dc dfcc
bbbb eebbbb
bcc dbcc
eec dbbbb
dbc bbbf
bfc fed
dec bcec
bbbd beec
bbec bbbbc
ebec ebf
ebcc ebbc
deec ded
eeef a
ebbbc bbd
bd be</w>
ef bdbc
ef beebc
ebe bdbf
ebe bebbf
ebe bebbee
dd beebe
df edcc
beebb bbebb
bebbbb bebe
bdf ea
edbc edc
bcfcc cc
dd eced
ebd ecec
bcc eef
bcc fbbc
bdc bbbf
bbee bbef
beee beef
bccc edc
dbec ff
bdf bbcc
ebbbc bebe
ef bcebe
ef bcbec
fc bcef
ecc bcbe
bbf beed
bbf bebbc
ccc ebf
dbd efc
fbd ba
bd eeeecc
fc beebe
ecc fef
eec bcbf
df fbbc
dec debc
dbd fec
dbd dbbc
fee beebe
bbdc edc
eebe efc
bdec dbe
ec fedcc
ebe eebbee
fc dbdc
fc bded
ebd bbebc
ebd fa
bbbe bebbbe
bbbc bcbbbb
fbc bbcc
ebcc bbbd
bccc dbc
ecee fcc
bc ebac
ed fdcc
ebb ecdf
bebc bbbf
fbe debc
ecbe debb
fdd ff
febe bbbb
bf eded
ed fbfc
ebb bebbec
fc bcdd
bcc bdcc
bbbc fed
bbfc bbf
bedc ded
bf bedf
dc eac
bdc bbdd
bbbc bbbec
bfc beee
eeee bbbf
eccc dbc
eedc bbc
bced ccc
bbcbbc bbcbbc
ed fbef
bbd eced
bbd fbec
bdc febb
bef bcec
bbebb bebd
eeee ebc
bcbe def
ffc bbc
ebbee bbec
bedebe cc
ee bbeba
ec dbbef
bf bebbbc
ebb fdee
dc bbbdc
ebd bebec
bcc bcdc
bbbc bebbbb
bebe fbd
dbb bda
fee bbef
bbed ebbc
ed ebbebe
ebb eca
ebb eceec
ebb bbebec
dc dbfc
ebe dbbbe
bec fdd
df bcbf
dee beebb
ccc fec
bbee bebbbb
bebc ebec
ddc bbbd
eedc dbe
bd dd</w>
ebb dba
bbbe ac
bbf febe
bbee eeebe
becc ebbc
ecbc bef
ffc ff
a bedc
dc bcbcc
eec bbef
ebf eecc
edc bbbf
bfc bbebb
dec ebcc
bebc fcc
efc bebd
bbec ba
dbec bcc
bcbd ff
bf eeebc
ed ecdbe
fc bbbec
bbee ded
bbee bba
bbed ecc
fdc ded
ee dbbef
ee defcc
dc bbccc
ebe bcdd
ebd bbfc
df eeee
bbf bbebc
ebf beebe
bef beed
ea da
fee beebb
bdbc ff
dbbbc bbbb
beea cc
bf bcbcc
bf febf
dc fdbc
ebd eeebb
bbbe bba
bbf da
ebdc bdc
fed bfc
dfc ff
dbec bbbb
bcee bbcc
debd dbe
fdebe cc
ef bddc
ebe eebebe
ebd bbbec
bbd bddc
bbbc debe
dbb bfbd
bebc beed
fbc ebec
bbebe ebc
ecbe eccc
eeec dbbc
eebcbc cc
bf edbc
ebb ddbd
ef fbbbb
bbc bded
bbbe bcbf
bbbd dbf
bebc efc
eebc fec
dfc bbbb
dbbbb bbbbc
bd dbbebb
ebb fdbd
dc bac
dd bfcc
bec befc
eec fbbc
df bdbd
df bdcc
dbd def
beee edc
bcbc edc
fcc fee
beec edc
eeebe eeebe
dc fbdc
ebe bcfc
ebf bbbbc
bdc bdbd
bebe eeebb
bbbf ebbc
fcc ebbc
beec bbbd
beec bebd
fbf ebc
ecbd dbc
bdbe debb
eeba cc
a eeebb
bec dbbd
bec bdcc
bbd eebbc
bbbe beed
bbf bcec
ba ebbc
bbee eebc
bbee febb
fee fbe
bebec bbc
dcec dec
a eeec
dc bfbd
fc fa
eec fecc
df ebdc
bbbe bcbbbb
bebc ebcc
becc bfc
debc ecc
bcbe bbdc
bbfc bcc
dc bebbf
dd bcf
fc fbec
bec beef
bbbe ecbc
ebf beef
bbbc ddc
ccc bbee
efc ddc
beee bfc
bbebb bbcc
bccc dbe
bced dec
ee bbb</w>
dc ebbebb
bbc bdcc
bbd fa
bbbc ea
dbc bbdc
beec ebbc
eccc ded
bedc ff
fdd a
febe ff
ebe eebbbe
ebc bbebd
dbb dcdc
bef becc
ebec fec
eeee eebf
deec ef
deec dbe
bedc ecc
ecbd a
ecec ecec
bebbbb bbf
bc dd</w>
dd bba
ebc fbec
bbbe eebd
bbbc bcbbc
ded bcec
fee beef
bcbe bbebe
fbf dbe
decc bec
ecbd ef
bdee dbd
bdec bcc
ec debfc
bf ebecc
ed bebfc
dc bedee
ebe bcbec
bfc bbed
efc debc
fbc ddc
ebec bef
fbe da
eccc ff
bbdc bbdc
dfc eec
fdc dbc
dedc eec
bf eddd
bbbb bcf
df eebd
dcc eebd
bbdc ecc
ec bbeccc
bbbb bced
bbd beebc
edc dbcc
ba dbf
beebb ff
ebbee bec
bbbb bbbdc
bcc dbbbb
df bbbbc
dcc bcbc
bbebb bcbc
bbebb bbebe
bebd ebbc
bbdd ebc
eeec bebe
ec dbbebe
bec bbbcc
ecc bcbf
bbd bebec
dee ecbc
dee dbec
bef bcbd
fbc bbbf
fee bebf
bcbe bbbec
ecbd bdc
bc ec</w>
dd bcef
bbd bdebb
bbbe ebbebb
edc da
ba ded
bbee bebf
bfc ddc
bcee bbbd
bf ecebc
ef bbecc
ebe eebbc
bbbe bdbd
ebec fee
dfc dec
dbbbb bec
fbf bbbc
edcc dd
bdee ebd
bd befcc
ebb dcdd
bbc beebc
ebf ecbc
bebe fbe
dbb efcc
dbb ebbbbc
dcc eedc
bbbd b</w>
beee bebf
eef ebcc
a beef
bf bcbbd
ebe bdec
ebe bebbd
ebc ecebb
bbf bba
dbc ea
dbb ecbbbb
dec debe
dcc fbd
bebc bedc
bebd ebf
fed ecc
eeec fec
dd eddc
dbe bbdd
dee bced
bebe dbbc
bbcc ded
eebe eccc
bcf bbbbc
bdf debb
dc debbc
fc bbbcc
eec bdcc
bfc bbbf
dbb dded
dcc bbbd
bbec eebc
bcbe debe
dfc bbf
bebbbb bbee
ebbee bcc
bf d</w>
bf beebd
dc febf
ef eced
bbc bbeec
ecc efcc
bcee becc
fbbbb bbf
a bbba
ec db</w>
dc beff
bcc bbbec
bbbc fbe
ea dbd
bbdc bbbd
ecbe bbed
ebbbc dee
eeeeeeee eeeeeeee
ec fcccc
ed fbbee
ed beebbc
ebb dcbc
eec bcebb
bdc bbbbc
fbc bbed
bbebc df
edbd fc
dd beef
ebc b</w>
bbc dbfc
edc ecec
ba bbed
dbb bac
ea bbbd
eebc bbbd
debc ebd
bcbe dbbc
bcbd bbbc
febb bebe
bbbcc bbbcc
ed eebbbe
dc bbedc
bbbb eeec
ef eebbc
ef bcebc
ff bebf
ebbc eecc
dbb edbbc
debb bbebb
bbbf bbec
ebdc edbbec
bbdc bebe
a beebe
a bebbc
bf eac
bf bebdc
ebb defc
dc deecc
fc eeebb
ecc bbef
dbc dbbc
fbc eecc
fbd efc
dbcc eec
ebc ebbcc
df beed
dbe bebf
bdc dbec
bbee fbf
bebc bcbd
ebec becc
debb bbec
fed ddc
eeef fee
ed fbebe
fc febe
bec bcbbc
ebd bcbf
bbbe debe
ebf eef
edc bbebb
bbbc bbef
dbf dbf
da bda
bbfc dd
bced eec
bedd eec
ebbbbbb bbc
bc debfc
bec bba
dbc ebcc
bebd fbc
eeef eeee
ed bbbbcc
ed eebbbc
bbbb cccc
ebe dccc
bbf debc
ebf eeebb
dbc bbbbc
fbe debe
fec bedc
edbd dee
bdbc dec
ee de</w>
bec eebf
ecc febe
bbd eedd
bbf bbbec
ff eccc
bef bbbbc
ac dbf
bbdc dcc
bccc bcbc
eeec dbd
bebbbb bbbbc
bf beff
ebc dccc
bbc decc
bbd bebbd
bbbc bebbc
eebd bebe
dbdc dd
eea a
bf beecc
bbbb da
bbbb bddd
bbc ebfc
fc dbbbb
bec bded
bcc ecbd
df debc
dbe eeee
dbc cccc
ea bbec
fcc eedc
fbd bbee
fed dbd
bcee beee
bdbc ebf
bebec bbbb
bcc ecbe
ebbc ebcc
dbb ecebc
ec eeeecc
ebc bcbbbb
ecc fbbc
ccc bebc
dbc ecbc
efc dfc
bcbc bbebb
eeef ebe
bd bbebec
ec beeecc
ebc dbbbe
fc ecbf
dcc beec
dbf bebc
fec bebd
ecee fbc
ed fdbb
ed bebbbd
ebb dbbcc
bbbb eebe
bbbb bdebb
ef ecf
fc bdbf
bec bcf
ebd bcf
bcc bcebb
eec bbbec
dbe debc
ebf eccc
ebf eeebe
dbb ebbee
fed bebc
decc df
eebbcc cc
a debc
a dea
bf dcdc
ef e</w>
dbe fdd
ebf eebd
bbbc ebcc
efc bbbd
dbf ea
ac fa
ebe dbbf
ebc bddc
ebc bdec
bcc febe
ccc bbcc
bebe bcebb
fec fcc
bbed bbebb
eebc eecc
a bcbe
f ebb</w>
ebc bdbf
bcc beef
bbbe bcee
dbc fdc
bebe ebcc
bebe ddc
dbb bdfc
fbf bfc
bdee bebc
bb ebc</w>
bf dbfc
bf ecebe
ebb dcec
bbbb febe
ebe fbcc
bbc fbbbb
bbd bcdd
df bbdd
ebf bcec
da dee
ecec bbf
bcbf bbf
edc edbd
dbc bbdd
bbee bbebc
dec bcbd
bef eebf
fbc ebcc
bbcc fcc
debb eebc
bbed beec
bccc ebd
beed bebc
ecf ebec
bced fc
ec de</w>
dc beedc
dd fecc
bbc ecbf
ecc eeebb
dbe dbec
bdc ecbc
edc fbe
bbee fbd
dec dbec
beee bba
ed ebbee
dc bcbbd
ebc febd
bdc ac
bdc fdd
ff bcec
ea ebd
fbc becc
bbcc bbbbc
da ebe
fbf dbc
bcdbf cc
ebb bbdcc
ebb febbc
fc beecc
dee beed
dbb ddcc
dcc ebbc
ecbc ebbc
eecc fcc
eeec bfc
bceebc cc
bc ed</w>
ebc bedbe
bbf eebf
bdc bebf
bdc ffc
bbbc eebd
bebd bfc
eef bba
bbbcc bcc
bdbc bbee
bf fdbc
dd bbebc
ebc bebcc
bbbe def
dbe bebbc
bedc edc
bcdc df
bdf beee
bf ddcc
ebe bdebb
dcc becc
dcc fdc
fbe cccc
bbed bfc
eef dbbc
dbbd bbbe
fa fc
a bbfc
ebb beba
ebf bbdc
bdc bced
ccc bef
ccc fee
dbbbb dbd
ebbbc df
ed ebeebb
ebc bcebe
ebc feec
bbbe bbfc
dbe bcebb
ba eba
ff bcf
ebec beec
dbbbb bebe
bcee fcc
bf ebbbbbb
dd febc
fc bcfc
bbd bdbc
bbbe debc
bdc bedd
ded fec
bbec bedc
fbc beee
eebd bebc
febb bcc
bdbd dee
bcbf a
edcc edc
f a</w>
be ebb</w>
dc efdc
ef bebcc
ddc bfc
bbbf beee
bbebe bef
eebd dbd
da ef
ecdc eec
ecee dbf
eced df
ebe bbbbbbbb
dd ecbf
bec bfcc
bebe eeebe
ea bcec
bcbc beee
ddc bebe
fec bbee
bbef dee
dbbd bcc
bdbe dbf
ecebb bbc
eeef beee
edbc dec
ec ebac
bf eebcc
bf efbf
ed efbf
ebe bebcc
bbf beef
ebf bedc
bbbc bbebc
ebcc bbec
fbd ebbc
fed edc
bdbd df
bdec dbc
bbbb dbbbe
ebd eddc
bbf fbbc
ba bbbbc
bbbc bedc
dcc def
bcbd dbd
ecdd ecc
bcbcbcbcbcbcbcbc bcbcbcbcbcbcbcbc
bd dbbed
dc bebbbe
bcc bcbbc
eec bcdd
ddc efc
bbbf dec
ac ac
becc fcc
ecbc ecbc
edbd ecc
bbbb eebf
ebe bbebf
ebc bbeec
ebd eebbc
eec bcbe
bbee fcc
beec bef
eebc fcc
bebd bbec
ecdc edc
ecee ff
eeea cc
bf dbbee
bbbb bedd
bbbb bebec
ef eedd
ef bfbf
bec ebbcc
ebd bddd
bdc bbebe
dbb ecdf
dbb dcdd
bbbd beebb
debe edc
decc ecc
ecf bbbf
fef bcc
bcdc fc
ddcc ccc
a dbbd
dc bbbbbbbb
ef bebec
dd dcdd
bbd ecbf
bbf bcf
ddc fee
def dec
ebdc dbc
bcec dcc
ecee bbcc
eebbbb bbbe
bf bebbee
ebe bbecc
fc bcbbc
bbbd bcbd
ded dbec
fbc fdc
bcbc fec
bedd df
bcbbbd cc
bf eebbbe
ba debb
bbee ebcc
fec debc
ecbe def
bdbd bbd
bdec dec
dc ebbed
ef ebbcc
bcc bbfc
eec eebf
bbf bebbbb
bdc beebb
ccc efc
bef dbbc
dcc bbcc
fec ebf
bbdc dec
ecbe bbbf
bdbd a
ebbee bbebe
bd bebecc
ed dbccc
ebb dcbf
dd fbec
ebc dbbf
ecc bcf
ebd dbdc
ebd bcdd
bebe ebec
bef ecbc
ded bbcc
beee eeebb
bbebb fee
bcbc bbbbc
fcc dbd
beec eecc
deec dbc
ecdc dcc
dc beccc
bbc bcdd
bcc febc
eec beef
bbd c</w>
dbe dbbbb
bbbc febb
dee fbd
beec eebc
beebb ebf
ebbbc bbbd
ebe dbdc
ebe eced
bbc eebbc
bdc bcec
edc bced
ea bfc
fcc fdc
bebd debb
def bfc
da bcc
ebbbc ebd
ebb ececc
ebb bebfc
ebe ebbcc
bbc bbebd
dbe bbebc
dbb ecfc
dbd dddd
bbdd ccc
eedc bcc
eedd ecc
ebd bddc
bbf bcebb
bbee ebec
dcc debb
fbf ebf
dedc df
ecbcbc cc
ed ffcc
bbbb debc
ef bdf
bbc bcebe
ecc eef
bbd e</w>
bcbd bbbe
ecbd bcc
eedc dec
ed eebbf
ed ebbef
ebb fdec
bbbb eecc
ebe eedd
bbd ecdc
ba eeee
ba fbd
bbee dbbc
fbc bedc
beec bbcc
ecbe ebec
fbf bebe
beebb ccc
eeec becc
eddc ecc
dcec ded
a eebe
ee bbebfc
ef bdee
ef dced
dd bebbc
ebc efcc
bec dbdc
fee bbec
ebec debb
debb bfc
fed bebe
bcbd bebe
beebb beebb
ecc bbebc
ebd bbebd
ba fcc
dbb edebb
bbbd bbdc
bbbbc dbd
ecbc ebf
bcec dbd
ecdd dd
ebc bdbc
bec fbec
bbd ebfc
dcc bccc
bebc bbebe
bbbf bcbc
ecee bbec
edbc fbc
bcba cc
bf fdee
bbc febc
eec beebc
bbf bcee
bbf ffc
bbebc fc
bbfc ff
dcec dbe
eec befc
bbf bbdd
edc fdd
bbbc bcebb
fbc ea
ebcc ddc
ebcc fcc
eccc fcc
eecc ebbc
bbef fee
bcbd dec
beed dbd
febb ebf
dccc dd
eeebe bef
bd bbb</w>
bbc edbd
dcc bbec
bbbd ebec
bbed debb
beec fee
ecbc fcc
bba bbd
eeec bebc
eeec fbc
ecee bcbc
eebbbd cc
bf bbbfc
bbbb beef
bcc b</w>
ba bebd
ff eebc
bfc fbe
efc bedc
eeee eec
ac bbbe
ecbd dec
bcbf df
a ebdc
a bdcc
dc bbebf
edc eebf
ff dbec
dbc dfc
ac bdc
bcf debe
bded dee
ebe efcc
edc eced
dbc fbf
ded eecc
fbe bdcc
bebd eebc
fbd eebc
eef bbbbc
bbef ebc
beebb dd
edbc bbbe
dc eebbbb
bbbb bbeec
ecc bcdd
ebd bba
bbbc bcbe
ebcc ebec
bcee debb
bcec bebe
bfcc ccc
ebc dcdc
fc bbeec
ebd beef
bbec fbd
eebd ebbc
febb eeee
a bbbec
ebb acc
bbbb ecebb
bbc ecebb
fc bbecc
eec bcef
df dbec
dbb bfdc
bbcc efc
bbebb dbd
fbe bbebc
bbed ebf
beec efc
ac ecc
eebe dbf
debe bbee
ebccc ccc
bd ebfcc
dbe defc
ff bbebe
bbbc bcec
dbb bdebc
bbbd fbd
bbcc eebc
ebdc bbd
eebe debb
bcbd bcbd
beebb bcc
bba dbe
febb fee
eeec ebe
ecec bbd
bebbc bbbe
bcdc bec
dccc dcc
ebbbc eec
fda cc
fc edcc
bdc decc
dbc bccc
bebe eebf
bef bbdc
def ebf
bebf bbee
bbfc ebe
fbbc bec
bebbbc bbbb
bfbc dee
a eef
bf bbedc
bf bedbe
bf eebbee
ebc bcbec
ebd befc
dbd bbdc
ecbc fec
ebdc bbbe
edbc bbd
bceebecbbec bbdbbc
bd bbbebbbb
bec b</w>
bebe fec
bebc fbd
eebd bbbc
beebb df
bdbd bbbe
fdd bbc
bcbf ff
bcbbbb bbbbc
bdec bbbb
cccccccccccccccc cccccccccccccccc
ebc eddd
ebd dbbbe
bebe ded
bfc bbbbc
bef da
bbbd fec
bebc bbbbc
beec ebf
beec bcbc
eebe ebbebb
bbdd bbbe
beed ef
ebbbc ff
bf eca
bcc bcf
bbbd eebc
bbbd dbbd
bbec dbf
ecbe dbbc
bedc dbe
dbcc fc
febe bbc
edbd df
ebb dbbbd
dd bbbec
bcc edcc
edc fecc
dbc debc
fbc fbf
debb debb
bcebb bec
bdf ebcc
bf fbef
ebe fbec
ebc bddd
dbb bdbec
eeee df
bbebe bbd
eebe bbebc
beed ded
debd bec
eeed bec
ebbee bef
dced dee
ed dac
dbc b</w>
beee fcc
becc fed
ecbe ea
bdbd bdc
ecbd ebd
efcc ccc
bf ebbebe
bbbb fdc
ef fecc
ebc bebbd
dbe bcbf
edc fef
dbc bedc
bebe dbf
dbb ebbebe
bebc febb
efc fbd
fee fbf
bbebb bfc
def dbf
bbebe ebf
bbdd ebd
da ecc
beef ff
eebbc bbc
dc bb</w>
ebbc bcbd
dec fbd
ebec efc
ddc bcbc
eccc dbd
da ff
deec ff
bdbd fc
ecec dbd
febe bbf
eeebe ff
bdec a
bc bbebfc
ebb fbbbd
ebb bbbbbbbbbbbb
bbee eeebb
bebc ea
bbec ebcc
becc efc
beed bbbe
eeec edc
bbbcc bec
ffc a
fbbc fc
ebe eddc
ebc bea
ebc bdebb
bbc fa
eec bebbbb
dbc bcec
bebc ecbc
fcc bbbe
bbebe bdc
deec fc
eeebe beebe
bd bbebcc
bf ebbed
bf acc
ebb fbebc
bbc bfcc
ebd bfcc
ba fec
dbc fbe
bebe bba
bfc bedc
bbbbc bbbf
ebdc bbf
eecc bbbe
eef eccc
eef bbdc
debc bbbe
bccc dec
bcee fec
edbd ccc
bdee ff
bddc dd
bd deccc
bbbb fef
ecc bded
df bedc
dbb ebccc
fbc def
eeee dcc
eebc bebd
bccc bbbc
fdc bdc
bbbbbbbb bbd
bbebc ccc
bebbbb bec
febe beee
eedd edc
dced bbc
ebb debec
ef ecdd
eec bcf
bbf bcef
dee ebcc
bfc ea
dbb bfed
ded beee
deec bcc
ecf dfc
febe bbbe
bcbbbb bbbd
bdee dcc
bdee bbcc
bbbb bebbd
dbe bdcc
ba ddc
dbc eedc
bebe bbdc
fbc dfc
eebc efc
ecbc bbcc
bdbd bec
ed dbbbd
dc eedee
dbe bcdc
dee fbe
bbee bcebb
bebe bcec
ded bebd
dbf fee
bbbbc bdc
fbd fbd
ecec ebd
bac a
ec dbbfc
bf debbc
bf ebbbd
ebb dddc
ebb fbeee
dc eca
dd ebfc
fc fbcc
eec dccc
bbbe bbbcc
bebe bbef
bebe febb
bebe ecebc
bfc fbf
ded fee
ded dfc
ebdc dbd
debe ebd
bcf bbef
dbec ebd
debd ccc
eebbed cc
ee debfc
ebb dfcc
bbd ecebb
bbec bbdc
beec fed
bbebc ef
eeec bcbc
bedd a
bbeec bec
bdbc bef
ec ed</w>
bf eebec
bbbb ecbd
dec bced
dbd fed
dbd da
dbd bcbd
debb bcbc
fcc fbd
bcbf bec
ebbebb bbbe
bbc dedc
bbd edcc
bbd bea
ebf dfc
ddc bef
bbbf bbcc
eebe dbbc
beed ff
bba bec
bebf bdc
decc fc
eedc ff
ecec bbbe
edbbc dbf
dc bfbc
dc eeeec
fbc bcec
fbe eccc
bbed fbc
ac bbbc
bbbbc bef
fed fec
bebf bef
bcebb bbbe
ecbf ccc
bded df
befc fc
bc dc</w>
bd bbbecc
ebc bebbbe
ecc bddc
dbd becc
dcc eccc
ebec ea
debe dee
dbcc ef
ecf debb
ecf dbbc
bcbf bcc
bcbf dbe
fbbc df
ecee bebc
bdbc bebc
dcbc dbe
ebc fbcc
bbc eced
bbf bcbe
dbc febb
da bec
bbfc dbe
bdbe bbbf
ecdebb cc
ed befcc
ebc bbecc
bbbc fbf
fec ebcc
eebc ba
bebd beec
ebdc ebf
bbebe ff
bcbe debc
eedc bdc
dbcc bcc
fdd ccc
dc eeccc
dd eddd
bbc ebbcc
ecc ebfc
dbb bfbc
efc ea
dbf fbd
debb bebd
fbf bef
bcec ebd
decc eecc
edbc bdc
bedebc cc
ec bbebdc
ef fccc
bbd bcef
dbe cccc
bbbc eeee
bbec bbbf
beee dec
bbed bef
bbbbc ebbc
def edc
bbdd ddc
beed bdc
eeed bcc
ebbbc bbee
bf bbebbc
ebb ecdee
df bcdc
bbf bced
fbc bcbd
bbcc bbebb
dbf fec
def ddc
debe bebc
bba bcc
bbbec dee
ecbd ff
eeebe ebf
dc acc
eec bcbbc
eec bded
bbf bdbd
bbcc bebd
bcbc fcc
eebf bbbb
bedd edc
edbd dbe
eeebe bbbb
fa ccc
bdcc dd
bdbc ded
ecbecc cc
ebb fba
dc ecbcc
dbc bbef
dbd ea
da bbbe
bcee bebd
fdc efc
bcec bbbe
eedc dee
bcbf ef
ebc debf
fc dbbf
ecc befc
eec eba
eec bbbcc
eec bfcc
dbc beebb
dbb bfbbbb
dec beebb
ddc bbee
dbf bbec
fec bbbd
becc dcc
eecc ded
bccc bdc
bea dd
bc defcc
dc eebbd
ef dedc
df beebb
dbc bdbd
bebe bcbe
fbc eebd
beec beee
dbbc dbbc
eef dfc
bbdd bbbc
ebfc bbc
bdee bfc
edbc ff
edbc dbd
bf dba
ebb ecccc
ef fbbd
fc fecc
bec ecdc
bec beecc
dbe dfc
bbee bcbd
bbec fcc
ebcc bef
bbbf ecc
bbebc dee
bedc fec
dbbd ccc
eeebb fee
eebf ebf
bcbf ccc
bebbbb ebe
febe bcc
be bbbac
ed bebbcc
fc b</w>
df bbebe
df bcef
bbbe fbbbb
dbe ecbd
ebbc bebf
ebdc dcc
ebdc fbc
eecc bbbc
bbbcc bbbc
ffc dee
bdec ebc
ecc bebbc
edc bcdc
ebcc beee
eeee fef
eeee febe
eebc ecbc
def bbbc
eccc fbc
eecc bebc
bcf bbdc
bcec bbbc
eeed dee
ef ecbbc
ecc bbbec
ecc bcebb
bbbe fed
bfc dfc
fee fef
fbd ddc
bbebe bbbd
dbbc ecc
bcbd bbd
fdc edc
eedc ebe
ed fcdc
dd bbfc
bbf eeebb
bfc debc
bfc deec
ea edc
fee ebbc
ebec ebec
dbf bbcc
eeee eebe
eebc debb
bbef bdc
bbef bbbc
debd dee
ffc dbe
eced dee
bdf bbebb
bebe efc
ded beed
ebcc fbd
bbbec ebe
fbbc bbf
bdbe ddc
bddd dbd
bbba bbbb
f dbac
bc de</w>
bf fbbee
ebb beebbc
ebb bebbebe
dd dbbf
bebe beed
ebcc bcbc
bbbf bbbbc
eebc beec
def ebd
ecbc bbbd
eef da
febb bbee
dbbd bbf
febe bbee
bf ebccc
bf fbbbc
dc ecccc
bbbb dbec
bec eebe
ebf beed
ff bbbbc
ea ddc
efc beed
da bdc
bbebc bbbc
ed ecdee
ed fefc
ef c</w>
dd bdbf
fc fdf
eec ecec
dbe bebbbb
bef dbec
bbec fed
beee fbe
becc bebd
def bbbe
debc bebc
bbfc ebc
ecbd ebe
eeebe bbf
bcbbebb cc
fdebc cc
ed fbebc
dc fbbbe
bbc bdbc
fc ecbe
bec bebcc
bcc ecbf
bbd bebbbe
dec dfc
fbc bccc
bbcc ba
dbf bcbc
becc ebcc
ecbc ddc
bfbc bbbe
bbbb bcbbd
fc bba
ebd fecc
bbd bbbdc
dbc eebe
dcc ba
fbf bbee
bcec bfc
eeec eecc
eded ccc
ebb bbea
dc ebbee
dc bdbbbb
bbc ecdc
df fa
dbb dcbc
bebc dbf
beee bbbbc
beec dbf
def dbd
eccc bbf
bcbd bbbd
deec eecc
ecdd ccc
edbc bbbc
eebecc cc
ef fbbf
fc dccc
bbd bfcc
df bcebb
ebf bced
bebe fdc
bebc bedd
fcc bebd
fed bbbe
bcf eccc
bccc dbd
bcbd bdc
decc edc
ecee ebbc
ebbbbbb bbbc
ec bbcccc
bbc dbdc
bbc dbbbe
fc bea
bbee ecbc
efc beee
fbe dbec
eebc fbd
becc bbec
dfc bdc
bebf ebc
edbd ebc
ebbbc dbc
eedebb cc
bd bbbccc
ed beddc
dc ebbbf
dd fdf
dec bbebb
bbbd dbbc
fbc bbebb
eebc ebcc
def bef
bbdc bebc
febb bbbc
dbcc bec
ffc bec
bdee fbc
fbbef cc
ec eebccc
bf bdbbbb
ebf bcebb
efc ecbc
bbcc beec
debb fec
ac fee
eebc beee
eebd ded
beebe bbf
eedd df
eddc dd
ebe dbbbc
dd dbbbe
bcc eced
dbe eccc
edc bbdd
bfc dbec
ebbc ea
bbed dcc
bebd bef
ecbe dbec
dfc bef
bbebc ebc
bba ebe
bba bbf
dbcc df
beef fee
edbc dcc
dcec eec
a bcbbc
bbbb bcebe
bbbe bced
dbe deec
ebf cccc
fbc debe
bbcc becc
eebc bef
bcec bbee
decc ebc
debd fc
eebf fee
bc fedcc
ebb ebdcc
ebb fdcc
ef bddd
dd befc
ecc dbdc
dbe da
ebbc fed
eeee dee
bbebc bbf
eeec ea
eebf bbbe
bebbbb bcc
edcc ebd
ecdc df
bd dbbdc
ebb dbecc
ebe bfbf
fc feec
dbc dbec
dec bedd
bbed becc
fdc ebd
bbbec ebc
bbbcc bbbe
eebf ccc
ecee bebe
ebbbbc bbbb
bf ebbee
bbbb bdbbc
bbc eeebc
dbc dbbbb
ebbc beebb
ebbc beed
dec ecbc
ebec fbd
def bbd
ecbe debe
bcf debc
edbc bbf
d ebf</w>
be dbac
bf bbba
ef bbebf
ef ecef
ebe ecbbc
dbf ded
bcf bbfc
dfc ecc
beebb fee
debd eec
eeebb ff
ecdc ebc
ebbcc ccc
bfbc bbbc
bf eceec
ebb bebbbf
ef dbbbe
bbbe eecc
dbe bbef
edc bebf
dbd eeee
ea bbebb
ea bbbf
fbc ecbc
bbdd bbf
bbebc bcc
ecf ebdc
eebf bbf
beef dd
beef ccc
a ecec
ebe dedc
eec febe
dbc bced
bbee fec
dec eedc
bbbd debe
bbec def
fed bbd
ecbe bbbbc
bcf ebdc
bbdd bcc
bccc fcc
fdc fbc
bdee bebe
ecc fedc
bdc bbef
edc bcee
bef eebd
ebec ebcc
debb bbcc
bbed ba
eebc bbcc
fbf dee
ecdc dee
dcbd df
ef eddc
eec bea
dbc bebf
dbb bfebb
efc deec
ded bcbc
fbe bbbec
ddc bebc
becc eebd
da eca
bcec deec
febb dbe
dbbd ebd
fef bbf
beef beee
bdcc fc
bfbc bfc
a bcdc
bf eebbf
bbbb dfc
ef bdef
dd fbcc
edc bdbd
bebe bbbec
dbd beed
dcc fdd
bbed fee
becc beec
bcbe ebcc
bedc bebc
eedc fbc
febe fc
fbec bbc
a ecbe
a ecbf
ed beded
bbbb ebdc
ef dcdc
ebc fbbbb
bbd eebbbb
ff bcdc
bbbc bdbd
debb bef
eeee bcbc
ac ded
dbbd bdc
bfbc dbe
bcbebd cc
be bbd</w>
bf ebbbbc
ebe bac
bcc bebbc
bbd eba
ebf debe
ebbc dbbc
dbf bbbd
fed ba
dbbbb bbee
bcebb bbbc
bdee ba
ebe beebf
bec fa
bbd ebbcc
bbbe bedc
dbb ecbbd
efc ebcc
beec debc
ecbe bbdc
bbebc eec
ecbd fbc
eeed dbc
bdf ebec
ecef ccc
ef bcbbd
ebe bddd
ebc eeebe
bec bbeec
bebe ecbc
bfc bbdc
ebbc bccc
dec bccc
dbd debc
bebc bebf
beee ddc
bbed bebd
ac dcc
bba df
f bbd</w>
ee ecbccc
bd fbecc
bf ebbbc
ed bbfcc
ebb bebbcc
bbc bbbdc
bec ebfc
ff febe
eebe ebeebe
fbf bdc
fbf fbc
beef bbf
bcdc dbe
bdbe bbbbc
bdec ecc
ebe bca
bcc ecdc
ebf debc
bebe bbebc
bef eecc
ea bebc
bebc bbdc
bbcc fbd
dbf ebbc
fcc bbee
eccc bbbb
eccc ddc
bdbd dbc
eedc dbc
bdee bcbc
be bbe</w>
bf eedf
ed eeff
ebb dbbbbc
ef beecc
dd ecdd
ebc eefc
bbd fbbd
edc bbebe
edc beebb
bbbd efc
fec eebc
fcc beec
eebf beee
ffc bcc
bdbbbb bbbd
dc bedbc
ebe fecc
bbc ebbebb
fc eced
bec bbecc
ebd eef
ebd bbbcc
dbb dcbf
dec dbbc
bef debc
ebec beee
debb fee
eebe ded
eebe eba
bebf bbbc
dbbd bbbc
ecbd bbf
bdbc bbec
bdf bbbf
ecbebd cc
a eda
f bbbac
dc bebdc
ef bca
ebc ebbebb
ebc fedc
bec bebec
ebd bded
bcc c</w>
eec eeebb
eec feec
bbbe bbeec
bdc dbbbb
debb ba
bcbe bbef
bdf bbed
a dbcc
bf ecbcc
ef ecebb
ebe fbbbe
bfc dbbc
ded cccc
bbbbc ff
eebc dbf
becc bbee
fdc dcc
eeec bbbd
eebf bbee
eebbc bbbb
bd dbbbf
bf defc
bf ecbbd
bf fdbd
ed fba
ebe ecf
ebc edbf
ebd bdbf
dee bbbf
ebbc fbe
dbb edbc
ddc dfc
fec eecc
def ba
bbebe df
da dbc
bedd bbc
fa df
f bbe</w>
ef bebbbe
ef bcdf
dd efcc
ebd bebbd
edc ecdd
bebe fbf
ebbc debe
ebec fcc
bcbc bebd
ddc eecc
bcbe dbec
fdc bfc
bbbbbbbb dbbbb
ebfc fc
bced bcc
ec bacc
ed eebbee
ebe bbbdc
bbc bcfc
ebd eced
eec bebcc
bbd bcebe
bebc bcec
ded fcc
bbebe dbe
febb bef
eeec bbec
bbbec bbbc
dbcc bbbb
bdbe debe
ef bdbbc
ebc ecf
bbc bebcc
bcc edbd
ea ebbc
fdc fed
dbbd ff
fbbc a
ebb bebbed
dc dba
fc bddc
bcc beebe
df ecbf
bbbe bcbbc
ebf da
ded bedc
beec bbed
deec ecc
dedc bec
febe ccc
bdbc fbc
eced dbc
ebbbc dbd
be bbbb</w>
bf beebf
ebb debcc
ef bac
bbc dbbf
bebe ac
bef debe
dcc ecbc
bbebb bbed
fbe bbfc
beec ddc
eecc ebf
bbdd bbdd
ecbd dbd
ecec fbc
bdbe ea
bdf ac
bf fedc
bbf fa
dec bbdc
bebc debe
eebc ebec
bebd ba
fbd dbf
ebdc ebbc
bcee ecbc
ecdc bec
ed bbefc
dc ebbbd
dc fdcc
ef ebbebb
dee ebec
bbee bebbc
bfc bccc
efc bccc
ded debe
eebc becc
fbd bbbd
bcf dbec
bbebc a
bced ebc
beebe bef
bebbbb bbd
ecee ebf
bdee bbec
bcdebb cc
bbc bbecc
bbbe fdc
dbe b</w>
bbbc ecbc
dee bbebe
bbee dbec
ebbc debc
dbd eebd
bbcc ebcc
ddc beee
fec bbcc
deec ebc
eeebb ccc
eeed bbbb
beef bbbb
eac ba
ebbcc fee
bdee edc
bdee bbbd
bbbbebb bbbe
ed dbbdd
ef d</w>
fc ecebb
bdc dbcc
dcc bebd
bbebb dbbbb
decc a
ecec bcbc
febc ccc
dddd ddc
bbc c</w>
bec ecbf
ebd beebc
bcc bba
eec b</w>
bbbc bced
dbf efc
fbd fed
eebf eeee
febe fee
bdee bef
bebbd bbbb
dcbc ff
eebebd cc
a bded
bcc bcef
bdc eedd
dbc eeed
ea fbe
ddc fed
ac bebc
becc bef
bbdd ded
bebf ebf
ecf bbed
ecec bebc
beebe ccc
bdf def
eeef bbee
bc bbbbbbbbbbbbbbbb
dd fbbbb
ebc bedf
fc eebbc
bcc dbbd
eec edbd
bbee bcec
dbb bddf
fbc debc
bbebb debb
bbebb eeee
fbd beec
bbdc ebf
bcf bbbec
bcbd ebd
bcee dbec
beebb dbe
fef beee
ed ebeebe
ebe edbf
ecc fa
eec bba
bbbc eecc
dee eccc
ebbc ecbc
dbb ecdbe
bbbf fee
dbbbb bdc
beebb bbd
eebf bebe
bdbe efc
edbc fcc
edee dbd
dc fdbd
bbc bea
dcc eeee
bcbd fbc
bcee ea
dbcc ebe
ecee bfc
bec eced
bbbe eebe
dbe ecbe
ebbc def
ebbc fbf
bebd fee
fed fee
bbef ebf
dbbbb ccc
beed becc
bbfc bbbe
bbbec eec
eeef ff
ec ecbccc
bf ecbbbb
ed dcccc
ef feec
ebe bebdc
ecc dcdc
bbf eecc
dee bbdc
dec bbbf
dcc ebec
bbec eedc
bbcc eecc
dbbc bbee
dbbc ded
dbbc dbf
dfc ded
beed ebd
decc dd
ecec bbbc
dcbd dee
bcbecc cc
a bbbcc
bc ecbccc
bf bedbc
ebe ebbee
ebbc bedc
debb fbc
ac fbc
bbbbc ebf
becc dbd
becc cccc
fbd bcbc
debe ff
bbef ba
bcee ebcc
eeec ba
eeed dbe
bebbc ebc
bdbe bbdc
bded dbe
eefbd cc
ec dbbbec
dc ebbbc
ef bbbdc
ebe bceec
ebd bdbc
ebd febd
df edbd
bbf fbbbb
bdc eccc
fec da
eeee bbbd
bcbd ecc
bcee fee
dbbd eec
eebf ecc
bfcc fc
bfcc eec
bdee ddc
bd bbac
bf ebbef
ed bebbec
ed fded
bebc beebb
fcc fdd
fed fbc
debc dbc
febb ebd
eba dd
bced dbc
eeebb dd
bcdc bbc
bded ccc
eebbbb bbc
edbc bebe
bd dbdcc
fc eeebc
edc eddc
dbb edbbbb
dbd eecc
dcc ebcc
beec dfc
ac ebf
febe eeee
bdcc bbc
bcfc df
a ecbd
ef fdbe
bec ecebb
ecc febd
bbd fbcc
bbd eebec
dbe bbfc
ebf fbbc
ff dbcc
ded eebc
bbebb dec
eccc bfc
debe eec
fbf fee
beebb eec
bbbbbbbb bebbbb
eeec bbcc
bedd dec
fecc ccc
ec deac
ebe fbbd
dee eeee
dcc dbf
efc dbbc
bcbc eebc
fec beed
ac dbd
ebfc bcc
ecf bbdc
bf eebbd
bf beccc
bbbb ecbe
dd bdbc
bbbc bcbf
dee da
bcbc bbed
dfc dbd
bcec fbc
bedc bdc
eebbebb cc
bebbebe cc
a eedc
ebc ecbbc
fc ebbcc
eec beecc
bbd ebbebb
bbd bdec
bbbc bbfc
fec bccc
ac bfc
eebc fee
fbd debb
def fcc
fed dbf
eecc fdc
dbbbb dbc
bebbef cc
bc eacc
bbc bddd
fc fccc
bec eef
df ecbe
bbf beebe
efc bcbd
beee bebd
ac ebd
fed bef
beebb bbcc
bcec fec
bbebc bebc
bdbd ccc
ecdc dbe
bfbc ebd
bfbc fbc
ebb bbefc
ebe beff
ebc fdf
bdc b</w>
ff bcbf
dee fdc
dbb ebbef
efc bbebd
fed becc
bbdc bbee
bbdc ebbc
bba bbbd
eeec bef
dbbd bebe
fdd dbe
edbd a
fbbc bbbe
ecdc bcc
bdee ebf
bc deba
ec fbdcc
ebb fbbcc
ba fbe
dbb bd</w>
dbb edebe
bbec fbe
fec beee
debc bbbc
beebb bef
bcec debb
bedc dbc
decc dec
bebbbe bbee
edec bdc
fc dcdc
eec efcc
dbb ebbdc
ebec ddc
becc bcbc
beebb ebd
bbbec a
ed beba
ebe ecdd
bbf bbbcc
ded ebcc
dbf ddc
bbed fec
eba bba
debd bbc
bcebb ccc
bebbc bbbc
bcef bebe
bf fdbb
ed fbbbd
dc eeebd
ef ddcc
bcc da
dee bbbbc
dbd bbbbc
bbbf fec
ac bbd
fbd ea
dbbc bef
debc edc
dfc dcc
bcec fee
beed bbd
bebf bebc
ecec ebe
edcc bec
fc eefc
ecc beebe
ecc ebbcc
df eeec
bbf dbec
dee bedc
bbebb beec
fcc bcbc
bbdc bfc
bcbe bbfc
bccc ded
febb fbc
bdbd bebe
ecdc dec
a deec
be bbc</w>
bbbb dbbf
ebe fdf
ebc beecc
ebc eebec
bec eebbc
eec bddc
bbbe eebbbb
dbe eeebb
ebf bcbf
ebbc fdc
dbb dddc
bcbe dfc
ecdc bbc
bdbc bfc
bcbbc bcc
bcebe bbc
dc dbbcc
bbbb bcbbbc
dbe eeec
dcc bbed
bbbd bbebe
bbcc ebec
ebcc fdc
fcc ffc
bebd fec
bebd becc
eecc dbd
bbef dbc
febb beee
dedc dd
ebbbbbb bbebb
ebbee df
ebb dea
ebe fdbe
ebe bdbbc
fc bbebd
ba fbf
dee bcdc
bbbd becc
bbec bcbd
ebcc beec
eebe ebdc
bcec ebf
beed bbf
bfbc dbc
ee deba
ed fbeee
dc bedec
ebe debbc
ecc eebbc
ebd ebfc
eec ecdd
dee fbf
ea ded
fcc bedc
eebc bbebb
def fee
bbebe bcbc
fdc bebe
bbebc bebe
eba bbc
bbbec dd
fef bbbb
bcebb fc
bebbc bbf
edbd dbc
defc df
bcbbbf cc
bf eebebe
ed eb</w>
ebb bbdbd
ebe ebbef
bec fbbbb
ecc bcef
bbbe fbbc
bbf ecbd
fcc ddc
eeee eebeee
ecbc cccc
debc bdc
dbec ded
bcee bbbbc
fdd edc
bebbc fc
ed fbbec
ef bebbf
ebe ebbbf
ecc edbf
eec eebe
bbf bedc
ccc eccc
ea bda
fed ebd
bbebe bbbf
bcbe dbbbb
dfc bbd
bcbd bcbc
bebf bfc
eeebb bbbc
fdd dec
bebbc bcc
a eeebe
ef edbf
bbbe beef
bbee beef
ebbc febb
dbb eca
dbb bfbbc
efc eebd
efc eedc
fbc fbe
ebec bbbf
fcc bbec
bebf fee
bbbec df
edbd bbbb
bcdc eec
be bbbbbbbbbbbbbbbb
ebb bedec
ef febd
dd eeef
dd bdebb
fc bebcc
bbbe ebdc
ebbc dfc
dbd bbbf
ddc fbd
bbed beee
dbbc dec
da ea
beebe ebf
eedd bec
bcdc debe
ebbee bdc
ebbee dbc
bfed df
a edcc
ed bebecc
ebe fbbf
bbc bfbf
bcc ebfc
bcc bcdd
ff bdcc
bfc ecbc
dbb bfdd
dec ebdc
bbcc eebd
fec decc
bbed edc
ac bebe
eebc eebd
dbec ecc
bcee ebec
dbbd ebc
bbbdc bbbb
cccccccc ccccc
a eeef
bf fbfc
bbbb bcef
ef bceec
fc bdec
dbd fdc
bbec eecc
fbc ffc
fee bccc
bbbf edc
bbebe bbcc
eebe ebbebe
bbeec df
ecee ba
bdbc edc
bdf dfc
bfec ff
bcfbd cc
a fbbbb
bbc bbbbbbc
df bdbf
dbe fbbc
dee bcebb
dbb eceec
ded deec
bebd bcbc
bbdd dbbbb
da edc
bcec def
eeec bbee
ecbd ded
befc bbc
a fdf
ed dbdcc
ebb bedcc
ebb fbbebb
bbd bdbbc
dbe ebdc
ded ebec
fec fbd
eebc ddc
eecc bfc
bccc cccccc
bbeec bbbb
ebd ecbf
eec eebbc
bbf eccc
ebf ebdc
bdc fef
ff debe
ff beebb
bebe beef
dbb edebc
dcc ecdc
fbc febb
fbc cccc
beee becc
fee beec
ac bef
eced fc
bdec beec
a eeed
a fba
ed bbdbd
dd bcbbc
ebc eebbbb
bcc bebbbb
bbd bedbe
bbbe eebf
ff beef
ebbc bbdc
dbd d</w>
bbec ea
bbec ecbc
fec ea
debb ebcc
eeee fbe
fbd becc
eecc cccc
bccc bbbe
edcc dee
bebebebe bebebebe
ed fea
ef bdebe
ebe e</w>
dbe fef
dbd ecbc
bebd dcc
eef debe
bcf bba
bcbd bebc
bdec bdc
bf fdcc
dc eeedc
ef efcc
ebe bcbbd
bbc bcbcc
ecc ecebb
ebd dbbf
eec bdbf
bbd feec
bbd eeebc
bbd bcbbd
df bedd
ba beebb
eebc bbed
def bcbc
ecbe ebdc
bcec edc
decc ff
ecf beee
bced ded
bdbc fee
ebbbd bbbe
bbbb bdcc
dd bbbcc
dd fbbd
eec dbbbe
ccc beee
dec eebd
bef ebdc
bbec ddc
eeee bbcc
bcec beee
dbcc ff
ecf bbebb
bded bec
bc bbeba
ec dd</w>
ed bbbbbd
ef debf
ef beff
bcc fbec
eec bedbe
bfc eebd
dbf fdc
eebc bbbf
bbebe beebb
bbdc fbc
dbbc bebc
eef debc
bbdd ff
bebbbe bbc
ebbbc bebc
cccccccc cccccc
ed febbc
dc deccc
fc eebe
fc bfdc
bcc debd
bbbc b</w>
dcc eeec
ea eba
bbec deec
ebcc fee
beec bbebb
becc bbbd
def bebc
fed dfc
da ebc
ecbf edc
ebbbc ecc
bbc bcebc
df eebf
bdc eebf
dee debc
dee bdbd
dbc ac
dec fbe
ea bcbc
eeebb bef
ecbf a
bdbc beee
bdbc fec
edbc bbee
bbebbc bbbb
a bebbbb
bd dcccc
dc debcc
ef bcbcc
ecc bddd
df dbbbb
dbc ecbd
ebbc bbef
fcc ebcc
eecc efc
debe ebbc
beed bebe
bebf dbe
ecf def
ecec edc
eedd ccc
dc fbbbc
bbc bcbec
ecc bdbf
bcc dedc
bbd fdf
bbbe bbebd
dcc ea
bcbc debb
fcc dbf
fa ff
ebbbc bef
bd dbbebe
bf dded
bbc fbcc
ecc bfcc
bcc ecebb
bbbc fdc
dee bebbc
ccc beec
fee fbd
ebec bbebb
fcc eebd
bbbbc bfc
eccc bbbe
fed ebe
bccc bebe
bcee fbd
bdf da
bcef dd
bd dedcc
ebb ffcc
ef bda
ef fbef
bec bbebd
bec bebbd
eec fedc
bbf ebdc
ccc ba
bfc bcbd
efc dbec
bbbbc dbbbb
eccc bbd
debe bcbc
ecbe bbebc
bccc bbd
eeec ebbc
ecbd bbbe
bced a
fdd fec
dced df
bbbb bcdc
ef dbfc
ef eebbee
fc eba
fc fbbbb
bcc dccc
bcc bebec
eec ebfc
dbc dbbd
dbb efbf
ebec bebd
eeee bba
fed beec
bbef bebc
bcbd fee
bcee def
beebb fbc
eeebb bec
ecec ff
edbd edc
bdbc dcc
bdec ded
bfbc bebc
bebbebc cc
bd bbeecc
ebd dddd
ba b</w>
fec bcbd
bbbbc bcbbbb
bbebe bbec
eef eba
debc ebbc
bbdd bebe
deec bebc
bebbc dd
febc df
bbebf bbbb
bdec dbd
ec eacc
bf eeff
ebb bbebcc
ebc fbbd
dbe beebe
dbc debd
bbee beed
bfc fdc
bbcc ddc
bbcc bbed
bbebb edc
fbe ebdc
dbf debb
debe dbd
eef dbec
bbef ecc
bbef beee
dfc ebd
bebf ecc
bdbd bcc
ecbd bebe
bbeec bbc
ed be</w>
ef bbccc
bcc befc
eec eddc
bbbe ebbbbbb
dbe bcf
febb ecc
decc eebc
ecf debc
ecee beee
febc dd
bdbe ebec
ecdd edc
ecebe bdbbbe
ed eeebf
dc efbf
dc eebdc
ef bebbee
ebc bbbdc
bbc eefc
fc bfed
bec dbbbe
ebd bcbbc
bcc bdbf
bbd bbecc
dbe bbbec
dbc eebf
dbb ebbebc
ea fbd
fee ded
ddc eebc
debb bbbf
becc eedc
bbdd dec
fbf ecc
ffc dec
bcdc dec
dcdc dd
dcbc bbf
a bcef
ed dbbbbc
ed fddc
dc dbecc
dc fdec
ebc eeef
bcc bded
bbd febd
bbbe dbec
ebf bdcc
ba beec
bbee bccc
dbb bfef
bbbd bebbbb
bbebb eebc
ebcc bbcc
fbe dbcc
eef ebdc
fbbc ff
bac da
ddbd dbd
a dbbf
bbbb bded
ef bebbd
bbc bbccc
fc debf
bec bebbbe
bcc bbccc
bcc eddc
ccc bbec
dbc deec
bbee bbdc
fbe bba
fec def
eecc eccc
dfc bbbc
bdbd bbbc
cccc dd
eedd eec
ecee bbbd
ebbbc bbebb
bbc bddc
bbc bebbbe
bbc bdebb
df bebbc
ebf bbfc
efc eccc
ded ecbc
fbe dbbbb
debb dcc
fbd bebd
bbebe bbbbc
bbdc ded
debe dec
bbef bfc
fdc eecc
bcec becc
bedc eebc
ecbd dcc
fbbebe cc
dc fdbb
ef eebeee
bbd beeec
df dbcc
df ecdc
bbee ac
bebe bebbbe
bebc eedc
fbc bbbbc
fee fcc
ebec eebc
beec def
fbd bbec
da eec
bcbd bef
ebb bebbbbc
dc ebbbbc
bbbb debd
ef febf
df ecec
dbe debd
dee bbebc
efc decc
debe dcc
bccc bbf
bcee bbbf
beebb bebc
bbbbbbbb bcbbbb
bebf beee
bbbec bbf
eeebb bbebb
fdd dee
eeed bdc
beef bbee
edbd ebd
eeef bbf
bcfc dee
bf dbecc
ed bedbf
dc ebbdc
ebe bcbcc
bbc edcc
bbc bedf
bec bcef
ebf ecbd
ff bbfc
dbc dbcc
bef bcbf
ded debc
bcbc becc
ddc b</w>
fec eedc
ecbc beee
debe bbbd
fdc bbf
bbbbbbbb bbbf
bbbec fc
fef bbee
bebbc eec
dedc ecc
bdee ebbc
bceecc cc
ebb fbbec
bbbb beebc
ebe bbccc
fc bcebe
ecc eefc
df deec
dbe dbbd
ccc eecc
dbd dbec
bef bced
bbbbc ba
debe ebf
ecee becc
bbbb bbccc
bbc eeebe
ecc dbbd
dbe bba
edc eebe
edc ebfc
dec eccc
bef bcf
fbc eedc
bbebb ebec
bbebb bcebb
ddc bbed
eeee ebd
eebc ea
bbef bbd
fdc ebf
bcec bbcc
edec dbc
f bbc</w>
bf ebeebe
dc ffcc
ef dcbd
ebe c</w>
fc efcc
edc efcc
bbbc ac
bfc eedc
efc ebec
eeee eef
debc bebe
dfc fee
bccc bbcc
deec dcc
fef bbbe
bcbf bbbe
bdf dbbc
dcdc dcc
dcbbd fdd
dc fbfc
bbbb ebbcc
ef fbbbe
eec ebbcc
dbe ecdc
dbc bedd
dbd ebcc
ddc ba
ddc debb
ecbc fee
ecbc debb
bbef ebbc
bbebc ff
bba dbc
eba ba
bcdc ff
bbbbebb bbbbbbbb
ffff ffff
a d</w>
a bbeec
ec deba
bf eebeee
ed eebebe
ebb bbfcc
ebe fbebe
fc e</w>
bec dccc
df febe
bebe dbbbb
dec beebc
ea def
efc fdc
beee eebe
bebd dbf
bebd eebd
eecc bbec
ecee ebcc
ecdd ebc
bfbc ecc
ee dbac
ec bbb</w>
ebe bcebd
bbc bebbd
bbc bedbe
bec bdbf
ebf bcf
ebf bebbc
bbee dbbbb
ebbc bbdd
ea debb
ebec fed
bbbf fbf
bcbe deec
bcbd ded
fef dee
bdbc bbcc
bea bbbb
edbc bfc
edbc ded
ec dbbbcc
bf eedbe
ebb bbbecc
bbbb bdbf
ebe eefc
dd bbebd
dd edbf
bbc ecbbc
bec bcebe
bec beebd
dbe febe
bdc ecbd
bbec debc
beee eeef
fbd beee
debe ba
beed fbc
bba dee
bbbec bbee
bbecc ccc
ecebb ccc
abd ac
f ebd</w>
bf bbbbcc
ed bbea
ebb bbbccc
dc beebf
ebe beebd
fc bdebb
bec feec
dbb ebbec
ebcc becc
bebd debc
ebdc bbbd
bbef dbd
deec ebd
bedd ccc
dedc dec
ebbee bbbc
ebb deecc
ebe ebecc
ebe bfef
ebe fbbee
dd eebbc
bbc feec
fc bebec
bec bcebc
dbe bded
dbb ecdee
debb dbf
eebc dbbc
eccc ebf
dbbbb bebc
bebf eec
beef bbbe
bdec bbd
ebbee ba
bdbbc dbf
ebc fbbf
ebc eebcc
fc ecf
bec ecbe
bec fedc
bcc bfcc
bdc dbdc
edc bbfc
dee dbbd
bcbc bcec
debb bbbbc
becc fdc
fed ebf
bcf bbebe
bcf da
bba ccc
fef ba
fdd fbc
beebe ff
bdec ff
be deac
bf beedc
dd bcebe
bbbc debc
dbc ebdc
bef eeebe
dcc beed
bbec febb
beee bbed
bbcc dbf
ebcc eebd
fec deec
eecc becc
bbef ebd
dbec bebe
beebb ebbc
fef dbe
eeed eec
eedd fbc
bbecc eec
ecee ded
bdbe dbbc
dddd ccc
dced ccc
bfbc bdc
d ba</w>
ed dbbed
ef ecbec
dd bebec
bec edcc
ecc dbbbb
bbd eefc
df eedc
edc eef
ff fa
dee bebf
bfc ac
bef cccc
bbec dbbc
beee beec
eebe bbdd
ecec bbec
ffc dbc
beef bebe
eced ecc
bdbe bbdd
ebe bedf
dd bcfc
fc edbd
bfc bcec
dbb eac
dbd ebec
bbdc fee
bbef bbebb
bcbd ebf
bcbd dcc
eeebb bcc
bedd bbbb
ecee ac
ebbee ebc
ed bbebec
ed bbbbebb
dc bebbbc
ebe eac
ebe bcbbbe
bbc fbbd
fc dbfc
bec ecbbc
df fdf
dbd bddd
bef bedc
bbbbc beee
fed bbbc
da da
dbec bbd
fbf edc
bedd dbe
bebbbb a
fbbc bcc
edbc bbbd
ef eebbbb
ebe ecbec
bbc eebbbb
fc c</w>
bec bcdd
ebd dccc
dbb ebbdd
bbebb bbebc
beec beed
bebd eecc
fbd bbcc
ebdc bebe
ebdc fec
fed debb
ecbe debc
eebd bbbd
fdc fee
ecec fcc
bcebb eec
eebbee bbee
bbbbbd bbbd
ecbbbd cc
ebc eba
bbc bdef
fc bcebc
df bded
dbe eedc
ddc dbf
eebc bedc
bbdc bef
bbef fbc
dbbbb bbbf
dbec bebc
bba ff
bdbd ebd
bedd dbd
ecebb bbbe
bdec ef
ebbee bbd
dc debec
bbbb dbcc
ef bfbd
ebe bdee
bec bedbe
eec eced
bdc bcee
ff bced
ebbc bcec
bbec bbebc
dbf bbed
beec ebcc
def bbec
eccc bccc
bbef eec
eebd fec
dfc edc
fbf bbd
beebb bbbd
ecbd bbd
eeebb bbd
fef ebf
bebbc bbee
bbebd df
dbbf bbbb
bdec bbbe
bdec bbf
bfbc bebe
a fbcc
ec dbbeec
dc bbba
ebe febd
dbc bcee
bfc eeec
dec da
bef eeebb
ded decc
bba bea
fdd bdc
bcbbc bbbc
eeef bebe
bebbee bbee
bf ecdbe
ed bbbbbbc
dc fcdc
ef ebbbf
ef beba
dd fdbe
ecc bedf
bdc fbbc
dee deec
ccc eebc
ebbc eedc
dbb dcec
dbd bccc
ea bbcc
ded da
fbc bebf
beee febb
bcbc bbbf
beec dbbc
eccc beee
ecbc bbed
eecc ebcc
bedd fc
beef fc
ecee dbbc
dcbc dec
bd bbbcbbbb
ebb dbbdd
dc dcccc
bbc dccc
bec febe
bec bea
bdc dbbd
dee bcbf
ebbc eeee
dbb aa
bbcc bbbf
fbe bbdd
beec bbdc
bbebe ecc
eecc bbee
beed edc
eba bbbe
bdbc debb
a fbec
ebe dced
ebe bdbec
bec fbcc
dbe bedd
bdc eeebb
ff fbbc
ccc bbbd
dbb edec
dec dedc
efc bbed
fee eeebe
fcc ea
def bbee
dbbbb ebd
beed debb
bdcc bcc
ecee bbebb
bcbbbb bbebb
ecdd bccffc
ebbbc dec
ec dc</w>
ebb bedebb
dc eebbf
ef dcbf
ebc fbdc
bec bdebb
bbf ecbe
dee bbef
bcbc ebec
beec ebec
bbbbc debb
ecbc bebd
debc eecc
dbbbb bbdd
bba fc
febb bbd
bbbec bbebb
bebbc bebe
bcdc ecc
ecbf df
bebbbe bebe
bfbd df
f ebc</w>
dc bedcc
ef beebf
dd bebbbb
bbc beeec
ebd bedbe
edc bcbf
dcc bedc
ebcc bbed
beec decc
ac eac
ecbc eebc
bbebe fee
bbef bef
bcbd bbee
bbbbbbbb bbbbbbbe
eeed ff
edbd eec
bdee dbf
ebbee dee
a decc
ef beebd
ebc fdbe
ebd fbec
eec bebec
eec bebbd
bdc da
dbb ebeebb
bebc ddc
ded ea
ebec eecc
bbbf fbe
fcc beee
bbbbc fbc
bbdc eebc
debc fec
bccc ddc
fbf ba
fef dbc
bedd ecc
eeed ecc
edcc fbc
bcdc dbc
bdbc ba
bdec dcc
ebbbc bbec
a e</w>
bf bbbbbbc
dc bedbb
ebd bbeec
edc dccc
ff bedc
dee bbdd
bbee bbdd
ebbc bcee
dec fdc
fcc bbcc
ac bcbc
def bebe
debc bbd
eebd bbec
bebf fbc
bbbec bcc
edbd dbd
bdf bbdc
beebc bbbb
bdec bebe
dc dea
ebe bdbe
ebc ebecc
ebc ebccc
fc bcbec
bec bcbec
bbd bdbbd
bbbc eeec
dee fbbc
becc bbcc
eccc efc
fbf bebc
eedc ded
bbbcc dd
dbbf fc
bcef ccc
dcbc dbc
ef bdebc
ebe bebbbc
ebc eeebc
bbc dbbbc
bbd fbbf
bbd ebbbbbb
edc fbbc
bbbc fbbc
dee bcf
ded bbebb
becc ebec
fbd eecc
def ded
ecbc efc
ecbc ebec
ecbc dbf
bbebe ebd
bbebe eeee
dbbc bfc
eebd ebf
deec dbd
eeec fee
bbfc ebf
bedc becc
ecec bebe
bcdc dcc
bfcc ff
fdf ccc
bd ee</w>
ed fbecc
ef bcecc
ebc bbbbbbbb
ebc bdef
eec bbecc
bbbe da
bebd efc
ecbc ba
ebdc bfc
dbbc ebf
beebb ecc
bebf ebd
bedc eecc
fef bdc
bebbc dbe
eced dec
bdf debc
bd feecc
ed db</w>
dc eedbc
ef eefc
ef bedf
ebc ecebc
bbc febd
fc bebbbb
edc bbbbc
dbb ecbcc
ea beef
debe bbcc
bcbe bbeec
fdd bcc
dbbf dd
bdbf dd
ebbbc bdc
bfcbbef bedd
a debd
ef fbdc
bbd bebcc
df debd
edc dbdc
ebbc bebbc
bbbf bbed
bbbf fcc
bbdc fec
fbf dcc
bebf bbd
bedd ebd
ebbbc fee
bcbbd bbbb
ecdebc cc
fceebc bfdbbbb
ebb beea
ef bfed
ebc beeec
ebc ecfc
bec fecc
bcc eebbc
eec dbbf
eec febd
dee febb
dec beecc
bef bbebc
ded dbbc
fee fdc
fbe bdbd
fbe ecbd
eeee bbec
bebd debe
bbdc beee
bcf bbebc
dbec bbbe
beed bbbc
ecec bfc
ffc bbf
bfbc fec
ec eecccc
bf bebfc
dc fbbee
dc ebdcc
bbc fdf
bcc bbeec
df dbbd
df fbcc
ebf fa
ba fa
bbbd ea
bbbf ded
bcec ebbc
beed efc
bdbc ddc
bdee beee
eddd ecc
f deac
bf eeecc
bbbb fa
ebe eeff
ebd bcfc
eec ecbf
eec fbec
dbc bbebc
dbc eedd
bcbc ddc
bbebe ba
bedc bebe
eced bec
edee ddc
eebbbf cc
bb ba</w>
be ef</w>
ec debecc
ed bc</w>
ebb fea
bbbb eebbc
ef dded
ebc dbbbc
ebc bbccc
bbf dbbd
dbe ecbf
bdc bcdc
dbb dcebe
dec debd
bbec debe
beee bccc
fee cccc
fee febe
bcbc dbf
fbe bfcc
bbbf bebd
beec bedd
fed efc
ecbe dfc
eebd bfc
dbec fec
fbf dec
bedc fbc
bbbec bebe
ed beebcc
bbbb bea
ef bdfc
ebe dcdc
ebe bedbe
dd beebc
bbc eebec
bec bedf
bbd fecc
bbf ecbf
bdc bdcc
edc febe
dee debe
dbc decc
bebc cccc
ebec bcbd
bbbf fbd
bcbe da
fbf bbbd
bba bbee
bdbd ded
dbcc ebd
eeebb fc
eebf bef
bdbc bbebb
eac ea
edbc ebf
dced bcc
ec dbbebc
ef dbbbc
ef bbedc
ef acc
dd eeebe
ecc bedbe
bbd beebd
dbb dcbbc
dec eeec
eebd fbd
bbbbbbbb bbf
ebfc bbbb
fef bef
fdd ddc
beebe fee
bdec ebd
fbcc fc
eddd ccc
edbc ebbc
a febc
a bddc
ebc bebbf
ebc bceec
bbc fecc
bec bcbbbb
ecc beef
ecc eeef
df bbfc
df fbec
bbbe dbbd
ba bcbd
ba eca
dcc bcec
ea efc
bbebb bebf
bcbc beed
bbed dbf
eccc bebe
ecbc becc
ebdc ebec
eecc bbbd
dbbc fbc
bcee debc
bdee fcc
ebe ecef
ecc eded
bcc ebbcc
df eced
bbbe bdcc
bdc febc
dbc ffc
ea fa
bebc bccc
bbec bbebe
beec fbd
eeee bebc
eeee cccc
dfc fbc
dbec dbd
debd ff
fef bebe
eeed dec
dcbc ded
ecddbccffc ecebebdbbbe
bbbb bbebbc
ef ebbebe
bcc bddd
bbbe ecebb
bbf bcdc
bbbd bddd
bbec eebd
bcbc efc
dbf becc
debb beee
ac beee
bcee dbbc
bebbbe bbebb
ebbbc ebf
ebbbd bbd
ebbbd dbe
ed eebeee
ed eebef
dc bedbd
dd feec
ebc bfdc
bbc eeef
bbc bdbbbb
bec efcc
bec beeec
ecc bcfc
eec eef
bbbe eeebe
bbbc bedd
dbc bbebe
dbb ebbbec
dbb ebbbbd
dcc ffc
fee fec
bcee ac
bebbc a
bf fdec
bbbb eeebe
ef ecbcc
ebe febf
ebe bfebe
ebc dced
bec eefc
ebd bebcc
bcc fbcc
eec dcdc
bbbe ecbd
dee ebdc
dee dbcc
dbc fdd
dbb f</w>
ded fed
bcbc debe
dbbc bcbc
eebd bbcc
beebb bdc
beed ba
beed bfc
bbfc bbd
ecec ddc
bdbe dbbbb
bded bbc
bdee becc
fecc efebbc
ebbee bbbd
a ecef
ed bebbebb
ed beefc
bbbb deec
ef eeff
ebc beebd
ebc bcbcc
ebc eebbd
df bbebc
bbf eeec
dbe dbcc
edc bebbc
ff ecbd
bbbc eebe
dee dfc
bebe bced
ebbc bbebc
dbb bfebe
dbd ebdc
dbd bdcc
beee febe
beec fcc
bccc ebf
bdbe bbebe
bbbb ebfc
bbbb bb</w>
ebe beeec
ebe bcdf
ebd ecebb
dbe ffc
dbc bcdc
bebc bced
fbc bced
bbbf dcc
bebd fcc
bbdc bbcc
beebe bcc
dbbbe dd
befc ff
eddc edbbc
ebbbc fbc
a bedd
bc bbc</w>
dc fbebe
ebe beecc
ebc ecbec
bec edbd
bec febd
ebd bcebe
ba bbebe
eebc eccc
eecc fbd
bccc fec
fdc fcc
deec bdc
bbfc fbc
bedc bbbe
eebf dd
bcebb bebc
bfcc df
f ebe</w>
bbbb d</w>
bbbb bdbc
ef beeec
ebe eebbf
ebc bfbf
ebd ecdd
dbe befc
edc beebe
ccc ebbc
bbee bced
bebe eebd
dbb edef
dbb dcef
beee fbf
ddc bbec
ddc bebd
ebdc efc
bebf dbc
bedc bfc
ffc bdc
dbbbe bbbe
bdbe def
bded dec
bcef fc
be a</w>
be bbeac
ed fbbcc
ebb fbbbf
dc bbbbcc
ebc bbebf
ebc eea
ebc bcbbd
bbc bcbbd
bcc beebc
bcc fecc
eec ecbe
ebf bcdc
edc fa
ba febb
bbbc eeed
bef bcebb
dcc dfc
ea bbed
bbed beed
becc fbd
ecbc fbd
bccc fbc
bbebc bbee
beef ebf
ecbf ff
bdf bbef
feec df
ebbbc bbbbc
bfbc bef
fbbebc cc
ed dbbebe
bbbb bcbbbe
ef ebccc
bbc fbbf
ecc fbcc
ba def
dee bdcc
dbc da
bfc bbdd
bfc fbbc
bebc def
fee dbec
bbebb ebbebb
bbbf dbf
bbbf bebf
bbdc bbec
fbf bcbc
beed beec
febe dd
febc fc
eddc fc
bdec bbec
ee deac
bbc bdbbc
bec bcfc
ecc bcebe
ebd efcc
bbbe b</w>
ff debc
dbd dfc
dcc eeed
bebc debc
bbebb febb
ddc def
bbed def
ecbe bbebe
ecbe dbbbb
dbbd bbee
ecec ebbc
bedd bdc
febe febe
bdee bbebb
dcbc bebe
a bfcc
a befc
be dbb</w>
ee bf</w>
ee debccc
ebe fccc
bbc bca
bcc bcbcc
bbd eeef
bbf cccc
dee bcee
dbb bffc
dec bcdc
beee ebcc
fee ac
ddc ebbc
fec dedc
bbbf debb
becc ecbc
eef dbcc
eeec bebd
bbfc eec
bbfc dbc
bdbd ff
fdd ecc
bea dbe
dcbc bdc
bd fbccc
ebb fefc
ebb bbbcbbbb
dc bbbfc
ebc debbc
bbd eded
ba eebc
dbb edbec
dbb ebbbbbe
ea beec
bbbd fbe
bbbd fcc
ebec bedc
fbd fcc
fed def
eebe bbbec
beed ecc
bebf edc
beef bef
eedd bdc
eedd dbc
bcbbbb bbd
ebbbc ebbc
bfec dec
ebe ecebc
ebf bcee
bbee debc
bbee bbbec
bebc dbbc
bbec bced
ebcc eedc
dbf ac
fec dbec
eebd debb
bcbd debb
fbf eec
deec eebc
bbfc bbbc
eeebb eeebb
fdd dbc
bbbbbbbbbbbbbbbb bbbbbbbbbbbb
dc ecbbbb
bbbb edbd
bbbb bcdd
dd ecebb
ebc bcdf
fc ecbbc
ebd d</w>
ebd eeebe
ebd fbbbb
bcc bddc
bebe bcdc
bfc debe
ea fcc
ebcc debb
fbe decc
bbed ebec
becc bedc
bbdc ebec
ecbe bbef
bcbd beee
bbebc bbd
bedc bbbc
ecbd ddc
bdbf fc
bdee beec
bdec bef
a bac
dc eedcc
dd febd
ebc bcdbe
bbf eedc
dbe bcef
bdc fbec
edc bbef
bebe eecc
bebc eccc
bebc dfc
bbed ddc
bbed eebc
ecbe dbcc
eebd fcc
bedd dee
bebbc df
ecdc dbc
bdbc ebbc
eced dcc
dcbc dbd
a bdef
bf bbcbbc
ebb fcdc
ef ecfc
ebe bdebe
dd dbbbc
ebc ecef
fc ecfc
fc bcdf
bbf eef
bbf bcbbc
ebf ffc
edc bdcc
ff b</w>
bfc ebdc
bfc fef
bebc bbdd
bbec dbec
bbed bbcc
bebd bbebb
bebd fbd
dbbc beee
debc eebc
fdc dbd
deec fec
bbbec ebbc
eeed bbbc
edcc a
ecee bef
eced bcc
bded eec
edbc bef
dcee ddc
bc bbd</w>
bd defcc
ebd fbbd
df e</w>
efc da
fee becc
ebcc fed
bbbbc ecc
def ebbc
fed fed
bcec fcc
ebfc bec
bced beec
eeebb eeebe
dcec dcc
bbbbebb bbebb
ecbbed cc
bc bf</w>
ebe dbbee
ebe eefee
dd eded
fc ebecc
bcc dbdc
bbf debd
edc feec
ff ebdc
dbb bfbec
fbc dbbc
ebcc bbebb
fbe dbbd
bebd bbcc
debe beee
eef bbfc
bbebc dbe
bebf dee
fa bba
bea bbc
fbbbb bbbc
dcbd ccc
dcbbdfdd eecfdc
bd bebccc
dc ebbec
ef fdee
ebe feec
bbd bcebc
ebf bdbd
bdc bcbf
ba efc
ff beebe
dec bebbc
bbbd bbeec
fbc ac
fbe bdbf
dbf fbf
beec eedc
eccc bbee
eccc bcbc
dbbc debb
bcf deec
eebd bbee
dfc bbec
da dcc
eeec debc
decc bbc
eeebb ba
ecec bbcc
bdf debe
ecebb bbbc
ebbebb bbc
dcbc dcc
f bbeac
bf dbbcc
ed dbbbf
bbbb ecbf
bcc efcc
bbd bcfc
bbd bcbec
bbbe fef
bbed bcbc
bbdc bcbc
bcbd bfc
eeed dbd
bebbc ebd
bbebd dd
eedd bbc
dbbbe bbc
bcbbc bcbbc
bedbb dd
dc fbef
bbbb ffc
bbbb dbbbc
bbbb ebbbbc
ef dbbee
ebc bcecc
bbd eeebe
df b</w>
bbbe beebc
dbe decc
ebf bcbe
ebf eeef
ba bebf
bebe eebe
bebe bdbd
ebbc dbec
dbb ecebd
ded beebb
bbbf beebb
beec ea
eebc eba
bebd beee
bba bebe
beebe beebe
bdec ebe
bfbc ebf
bf dddd
bbbb bebbf
ef dba
fc dced
bbd bdbe
df bfcc
ebf eebe
bfc bcbf
ebec bbbbc
bcbc bebf
ac bbee
bebd ebcc
becc fee
eef bbdd
eebd dcc
febc a
bdbf a
eefc df
ddcc dd
bbcccc ccc
ed ebfcc
ef edef
ebc bdbbc
fc bddd
fc beebd
eec bcebe
bbd bb</w>
bbbe bcdc
bbbe eebbc
ebf bebbbb
bdc ecec
dee ecbd
ded fbd
bbec bccc
bbec bcec
ebec def
fbe eba
fec dbbc
bcbe dbcc
fbf beee
fdc ebbc
eedc dcc
ecf dbec
ecee fee
bcbbbb bcc
ed bd</w>
bbbb fbbbe
ef bebdc
ebe eddd
ebf bbebc
dee beecc
dbc eccc
ebbc dbbbb
ea fec
bbec bedd
fee dbbc
ebec dbf
ac bac
eecc ddc
debc bfc
fbbc dbe
bdf dbbbb
ec dbba
dc bebbee
ef fbbee
ebc c</w>
ebc bfed
eec bdbc
bbd ecbbc
bbbe febe
bbf dbcc
edc eeebb
bbbc dbec
dbc bcbf
dbd deec
bef eeec
bbbd eeee
beee dbbc
becc beee
becc debb
ebdc ded
bcf dbbf
eebd eebc
eced dbe
bf fba
ed bbebcc
dc debdc
ef eddd
ebc eded
bbc ecf
bbd fdbe
df bba
bbf eebe
bdc fa
ff beed
dee bded
bef eccc
bbbd bebf
efc febb
bbec bebf
fee bebd
ebec bbed
ecbe edcc
bcbe bbdd
bcee fbe
fdc eebc
eeec debb
debd dec
edec dcc
bcdebe cc
a eebbc
bbbb eccc
bbbb eeed
ebe ecebe
ebd debf
eec ecebb
edc bcdd
ff dccc
bbbc eeebb
dee eebd
dee bbfc
dee beebe
dbc ecdc
dbd febb
beee eebf
bbbf ea
bebd bedc
da dbd
fdc bbbb
beed dcc
eedd dbe
eebbbb bbebb
dcbc ebd
ed beea
ebc bca
ebc ecebe
bbc eba
ecc bcbbc
df bbbec
bbbe bebec
ba fef
bbbc bcee
bbee eebe
ebbc bcebb
fbc eccc
bcbc ecbc
eebc fed
debe bfc
bbdd dcc
bcec ddc
bcbf bbbc
edbf edbf
bfbd a
bf bbbbebb
bf eeebf
ed beac
ebe bbebbc
bcc feec
ebbc bced
dec bebf
fcc def
beec deec
ac bba
fdc becc
eeec ddc
ecbd fcc
edbc bebc
bbbb bddc
ef ecdf
ebe bdbbbb
dd ecee
dd ecef
ecc bba
ebd fbcc
bbf fdf
bdc debd
bdc dedc
edc bcbe
edc bded
bebe bedc
bfc bebf
bbebb bbbec
debb bbed
eeee dbd
bebd bbed
fbd dfc
dbbbb bbcc
eedc fec
bced ff
fef eeee
fdd bbf
fdd efc
eeed fc
bbeec dec
febc ff
dddd dbd
bfed ccc
a c</w>
a bdebb
ef efbf
ebe bbedc
bec ebecc
eec bbeec
bbbe bdebb
bbbc fef
dee bbecc
bfc bbfc
ea fbf
bbebb beebe
fbe bbbcc
bbbbc dec
eccc fec
decc bebc
eebf bcc
bdbf df
bf debec
bf ececc
dc eeff
ef ecebc
dd ebbcc
ebc bac
ebc eedbe
fc eddc
ebd bdebb
eec debbc
ba dbbc
ba bccc
dcc bcdc
bbbf efc
becc ea
ecbc debe
bbdc ddc
beebb bbbf
eeec dbf
decc ebd
ecdc a
dbdc eec
bfec dbc
bcbbebe cc
a bcebe
dc bbdcc
bbbb bbba
ebe ebbbd
bbc eea
bbc bcbbbc
bbbe ecbe
bdc dbbf
ba dbbbb
bbbc beebe
ccc bbed
bebe bcee
bebe bdcc
bbebb bebbbe
bcbc def
bbdd bdbd
da eba
bbebc ebbc
bced bbf
ecec ebcc
edcc dbc
bd ed</w>
bd dbbef
ebb bebbef
dc ebbebe
bbbb bebbbc
ebe d</w>
ebe bcecc
ecc fbec
ebd edbf
bbd bfbf
bebe febe
bbbd def
efc dedc
fbc beed
bbebb ea
bbebb eeebb
ebec bccc
bcbc fbd
ebcc bccc
bbed beebb
fcc debb
fcc eccc
fcc ecbc
fcc dfc
ebdc eecc
bbebe bfc
eebd ddc
bbdd bebc
bbdd fbc
bcbd bbcc
ebbbbbb bbbd
eebeee beee
dc f</w>
bbbb fbec
ef fbebe
ebe debf
bbc ebecc
ebd bebbbe
bbbe bedd
bdc eebe
bdc bbfc
bdc bded
edc fbec
bbbc dbbd
dee b</w>
dbb edfc
ded bbdc
ac edc
fed eecc
da bbf
bcebb df
bcebb bbf
bcebb dbe
eeef ccc
bbcbd dee
bcbbed cc
bfcbbefbedd dcbbdfddeecfdc
bd ec</w>
ec bbebfc
ebe ecbbbb
ebc fccc
ecc bbeec
eec bcfc
ff bcee
bbbc bcf
bef eef
bebc fdc
bbcc beed
ddc ebec
bbbbc bbed
fbd debe
eeec beee
bbfc bfc
debd dbc
dbcc a
bbebd bec
edcc dec
edbd bebe
eedd dbd
bcdc bcc
dbbf df
bdf eccc
bcdd df
fbbbf bbebf
bbbedfc fceebcbfdbbbb
bc ebb</w>
ec dbbebd
ed defcc
ebb fdbf
bbbb bfbf
ef bcebd
bbd edbf
ebf bbdd
edc dbbd
ff eecc
ff eebf
dee fed
bebc ebdc
bebc bebbc
efc ebdc
ded bced
dbf fdd
fcc ebec
bbbbc bebd
bbbbc bbebe
eebc ebdc
fbd def
dbbc bbcc
ecbe bbbec
eedc ebbc
eebf ebd
eced bbf
bf dfcc
ed febcc
bbc e</w>
fc febd
bec eba
ba bdbd
bbbc fbbbb
bbee fbbc
ea bebd
efc fbe
efc bbbf
bcbc bcbbc
ddc beec
fcc bccc
eebe dbcc
bbdd bbec
bbebc bbbd
eeec ebf
ecbd bfc
bbbcc eec
eeed dcc
bbebd bbee
beef bec
bebbd bbc
bbbb ecec
dd debf
ebd dcdc
ff bba
dbb eddf
ea beebb
efc debe
efc bedd
fee eebf
ebcc bedc
fec ffc
debb beec
bbbbc bebbbb
def def
eccc bbec
bcec bbed
febb bbbd
ebfc dd
bbbcc bbcc
befc bec
bcef df
bca a
bf debcc
bf fbbec
bbbb fdd
bbbb bbbebbbb
dd bbeec
ebf bbbec
ba eea
dbc bcebb
bebe debc
bebe bcbf
dbb efdc
dbb bfa
bebc ecbd
efc ac
efc bbdc
bbec bbef
debb bcbd
bebd beed
fbd fdc
bedc ebf
beef bcc
bdbc bbed
eeebc ccc
ecbbebb cc
bf bebbec
ed fdbf
ed bedebb
dc dbccc
ef beedc
ebe bbbbebb
ebc eedf
ecc bcebc
bbd bedf
bbd bbbbbd
dbc bcbe
dbb dcbec
bbbd eebd
efc fef
debb ebec
fed ebbc
dbbc bbec
dfc bebc
bbebc ded
deec bbbc
febb bbebb
ebfc a
dbcc dbe
dedc a
edbc fec
ebbee bbef
bdbbbb bbbe
bfbc bbee
bbbb bebcc
bbbb bfbbbb
ef bfdc
bbc debf
ecc bbbcc
ebd ecbbc
bcc bcccc
df febc
ff fdf
dbc fef
dbb ebebbbb
efc ffc
bcbc bdbd
ddc bbcc
ecbc ebcc
dbbc bbdc
eebd ebcc
bbdd ebf
eeec fed
bedc bbf
eebf edc
ecec bbee
befc dee
ebbcc bbc
bd dc</w>
dc bbebbc
bbbb eef
ebe bfbd
dd eba
bec bddc
eec eeebe
eec fbcc
eec eebcc
bbbc ebdc
bfc eeee
ebbc ebdc
dbd bebf
dbf def
beec beebb
ac bbec
eecc bbcc
bbdd edc
beed bbee
eeec ebcc
eedc bbf
beef eeee
eeebe eeebb
ecdd fc
ebbbbbb bbbbc
bfbc dec
add a
bd bbbbbbbbbbbb
ebb dbccc
bbbb bbebf
ef dcdd
bbd ebbbd
bbd bdebe
dbe bcbbc
dbc eef
ebbc bcbe
ebbc ffc
dbb eda
dbb dcebb
bbbd bbebd
ded bcbd
fbc dbec
fbc bbfc
fee bcbd
ebcc bebd
dbf beee
da ebd
debd dbd
ecf bbfc
eebf ebc
edcc dcc
edbd bec
bdbe ac
bcfc fc
ed dbbebb
dc ebbef
ef ebbef
ebe dcbd
dd bea
eec ecbbc
bbf febc
dbe bbebd
dbe bbeec
ba becc
bfc bedd
ded bdbd
fbc bbdc
ddc becc
ddc bcbd
bebd ebec
fbd ebec
eecc fed
edbd ff
bfcc bec
beebc ccc
dddddddd dddddddd
a bcbbbb
ef debbc
ebe eeebc
bbc ecef
bbbc dfc
bbbc eedc
dbc fbbc
dbd bedc
bef eeef
bbbd bdbbbb
bebc bcebb
bebc eedd
bbcc bcbd
dbbc fec
eebe dbbbb
eebd bebd
beebb eeebb
febb bdc
eeec eebc
bbfc bef
fef fef
bcbf bfc
edbd bdc
dccc fc
bdbe ebcc
bded dbd
eac dbf
eeecc ccc
bbbb bcbcc
bbbb bbdbbbb
ebe bfebb
bcc fa
eec bedf
bbee eccc
dec bbdd
bbbd bbebc
bbec bbdd
fee eeebb
ddc dcdc
fcc febb
def ea
bcec bbebb
eeec eedc
beebe fc
edbd fbc
bdbc ebec
bfcc a
ebbcc fc
ebbebb bbebb
dcbc bef
a bbebd
bd de</w>
bf bbdcc
ef ecee
ef eebebe
ebe eeebf
ebc dbfc
ebc ddcc
bec bdec
ebd eefc
dcc bbbf
efc bbebb
ddc fdc
fec bbbf
fec bebf
dbbbb df
fbf fcc
beebb ba
bcec bebd
bbebc ecc
decc dee
eedc ebcc
dbcc dbc
fef bec
bdcc bec
bcef bbc
ebbee bbbf
fdbb dd
bf f</w>
ebb f</w>
ef ebecc
ebe ebbbbc
ebe fbeee
bbc fdbe
bbd eddc
dbe beef
bdc eef
dbc febe
ebbc bdbd
dbd fbe
bbbd fed
eecc ecbc
eebe edcc
eebd ecbc
da dec
bcec debc
eeec beec
bbfc ecc
bced bef
ecbf bbf
bdbc eebc
befc bcc
bdee bbed
fecc fc
bdbbbb bdbbbb
bbbbbbc bbbbbbbb
cccccccc ccccccc
ee fedcc
bf febbc
ef eebcc
dbe beebc
edc b</w>
dee bcbe
ebbc ecbd
ded b</w>
fbe ecdc
dbf bbbf
fec ebec
bbdc bebd
eef b</w>
beebb bbebe
fdc debb
bcec efc
beed bef
debd a
fdd fbbf
beebe bbebb
bcbf ecc
ecbf bcc
ecee dbec
fdbb ccc
f bbbbbbbbbbbb
bf fbeee
ed dd</w>
ebe eebbd
ebc bebbbc
fc bdebc
bec dbbf
ebd e</w>
df beef
bbee bcee
dcc bcbd
fee efc
fee dfc
fbe b</w>
bccc bfc
bcbf fbc
bedd bcc
eded dbe
bfbc ebbc
dcbc ecc
ebb dbbebb
bbbb ecbbc
ebc bebdc
fc bedf
eec bfdc
bbd ecef
bbd bbcbbbb
bbf bfcc
edc ecbf
ff befc
bbee febe
bebe bcbbc
bef bea
fbd ebcc
def dbbc
fed bebd
eecc bebe
eebd efc
bbdd ecc
da fbc
beebb dbc
fdc bebc
bbbec bebc
decc bcc
bcebb bcc
ecdc fbc
ecdd dee
fecc df
dcbc bbbc
bf ecccc
dd eefc
ebc edbc
bbc ecbec
bbbe eeec
ccc becc
dbc bbfc
dbc bebbc
bef bebbc
bbcc bbdc
bbebb bbef
fcc bbbd
eebc bbbbc
eebd bcbc
bedc efc
bbbec bbbd
ecf debe
bbbcc bbf
bcbf dee
ffc dcc
dddd bebeecebc
ebbbc bbbf
aa a
ebb bedbf
bbbb bbecc
ef defc
ef beccc
bbc d</w>
fc dbbbe
fc bebbd
eec bedbc
dbe eebe
ebf dbbd
ff bdbd
ccc ebec
dbd ac
ded eccc
bbec bebbc
fee eeef
beec bcbd
fed bbcc
bbef bbec
da ebf
bcec ebcc
debd ecc
ffc ded
edcc bcc
eeebe eeef
eced bdc
bdf bbbbc
bdee debb
bfbd bec
bfbc bbec
a bcdd
ed feecc
bbbb ecbbbb
ebc dbbee
ebc bdebe
bbc ecee
ebd bea
eec c</w>
eec debf
df bcebe
bbbc bba
bebe fef
bbebb ebbbbbb
beec debe
ebdc bbee
fed bbbd
fed bcbc
bbebe bebf
ecbe bbdd
bcbe eccc
dfc ebf
bccc efc
fdc bef
bcec ba
dbcc dee
ecf bbbbc
bedd fbc
fbbc fbc
eedd ff
bbeec dee
ecdc ebd
dccc ecc
bdebb bbbe
a bcebc
bf dea
dc eebbbe
ef fdbc
ef eebbf
ef bddf
ebe bdebc
bbc bbebf
fc bdef
ebd bcebc
bbd efcc
dbe febc
bbbc eccc
dbc eeebb
bebe bcbbbb
dbb ebebbc
efc fbf
beee bbdc
beee bcbd
eebc beed
eebc eedc
bbebe dee
fdd ded
bebbc dee
bcdc bdc
bdbc bebd
ebbebb ebbebb
bfbc bbbd
dcec ff
bbbb febc
ebe bcdbe
eec bddd
bbf bdcc
bbf bcbbbb
ebf dbbbb
edc eebbc
dbb ebdcc
dec ea
debb bbdc
eecc eebd
bcf bfcc
dbec ebbc
bcee bbebc
fdc bbbe
febb bfc
dbbd ba
bced dbd
fbbc dee
ecdc bdc
bfbd ccc
dcbc edc
bbbbbd bbbe
ee ebb</w>
bf eeccc
ebb debdc
ebb beded
ebc eac
ebc ebbbd
ebc eeecc
fc ecdd
bcc bcbbbb
bcc bcfc
eec beebd
dbe bdbf
ebf eeec
edc eefc
beee fbd
fbe deec
fbe bded
bbed debe
eeee eba
eebc debe
ebdc bef
fed fcc
eebe da
bdbd bbee
bedc ebbc
debd ded
bbbcc a
bbbcc fc
dbbf ccc
bdcc df
bdec bfc
ebbee dcc
ebbee bcbc
ebbbc bfc
ef ebeebe
dd bbecc
ebc e</w>
bbc edbf
bbc beecc
bec fbbd
bbd bbebf
bbd fbbbe
dbd beebb
fec fdc
bbef dec
bcf bbdd
decc eedc
bcdd ccc
bebbd bbbe
dcbc bbbe
a ebfc
bc bbbac
bf beba
ed ee</w>
ebc defc
bbc fbbbe
bbc bbbbcc
ecc ebccc
df dbdc
bbf edbd
dbe eebbc
edc bcebb
bbbc dbbbe
bbee bbfc
dbd bedd
ea bebf
bbbd da
beee debb
bbebb bcbd
beec bccc
dbbc fee
debc bef
fdc dbf
febb dec
bebbbb bbbf
bdec bebc
edbf fc
eded df
bf eebdc
bbbb bcebc
bbbb bcbec
ef eca
ebe bbba
ebe bdef
bbc bdebe
bec eeebc
ecc feec
ecc eedbe
df eedd
bbbe eccc
bbf b</w>
bdc bcebb
ba bced
bbbc bbbbbbc
bef dbbbb
bebc ac
ded bbdd
fee fa
bbebb ded
fbe ecbe
eecc ebdc
debc efc
bccc bef
fbf fec
deec debb
bedd dbc
bfcc fec
edbc bbec
fdbb fc
bceebecbbecbbdbbc bbdbf
bfcbbefbedddcbbdfddeecfdc ecddbccffcecebebdbbbe
ee debecc
dd fbbf
bec ecfc
ebd feec
bbd ebecc
df dccc
dbe bebec
bdc bcbe
ba fed
bebe debe
dbb acc
dbb eddbe
dbd eeec
ea fef
bbbd febb
bebc bbebc
bebc bebbbb
fbc bcdc
fcc edcc
bbdd bbee
fbbc eec
ecdc ebe
bdbc eeee
bcbbc bbbe
bcdd dee
bbbcbbbc bbbcbbbc
a fbbf
ed bbbecc
ed bebbbf
ef bdbec
dd bebbd
dd dced
ebc bebbee
ebc ebbed
eec bcbec
edc dbbbb
bbbc eebf
dbb ebba
fbc febc
beee bebbbe
ddc beed
bbed fbd
dfc beec
bcbd bdbd
fdc fdc
bedc dbd
cccc bcc
ecbd bbbc
fdd eecc
bcef dbe
bdee ebcc
edbc efc
edee edc
bceeefc feccefebbc
ed feccc
ebc ecee
bbc eddc
bec fdf
ecc e</w>
ecc fccc
bbd bdef
df fecc
bbf bfbf
dbe ecec
bdc febe
bef bbdd
bbebb dbf
bcbc beebb
bbed ebcc
ac fec
debc bebd
dbec bdc
bced bbec
ecbf fcc
ddbd dbe
a edbd
f dbb</w>
bc bbbb</w>
dc ebbbbbb
dc fbebc
ef eebbbe
ebc dcbd
ecc beebc
ebf edcc
bdc beef
dbc ecbe
bbee dbbd
bbee eebbbb
dbb ebeebe
bbcc fed
bbebb bcbbbb
fcc ebdc
eebc fbf
ecbc eeee
bbebe edc
bbebe bebbbb
bbbbbbbb bbbbebb
bbebc dd
fbbc bbbc
fbbbb bbbd
ebbee dbd
ebbbc beee
ebbbd a
a eced
ed bebccc
dd ecf
ebc bcebd
bbc ebbbbbb
ecc c</w>
bbbe dbbbe
bbf bebec
ebf febc
edc beef
bbee ebbebb
efc bbbbc
bbebb fec
fbe ecbf
becc eccc
eef deec
debc dbd
fbf dbd
bedc bbd
bbbcc ebe
bebbc bbd
ecdc ded
bdf dbec
bddd ccc
fbec df
edbc fbd
dcbc fee
bedbb ccc
eebeee eeee
a dccc
bf efdc
bbc beebd
bbc ecebe
bec ebbebb
bec eebcc
bcc edbf
bbf bbbbbbbb
ff edcc
bfc bebbc
bebc bcdc
efc bebf
bbec fbf
beee eccc
ac bbbd
eebc febb
bebd ddc
bbebe dbc
eecc edcc
eebe dbec
debc debb
bcf dbbbb
fdc ea
eba df
decc ebe
bbbcc bbd
bdbc beec
bdf ebdc
bdee ded
ebbbd dee
be df</w>
ef dddd
ebc bfbd
ecc bebcc
bcc eeebe
ff bcbe
bbbc ffc
bebe eccc
dcc bced
bbcc debb
eebc dfc
eebc bebf
bebd bdbd
bbebe ebbc
bbdc bbed
bbdc beec
dbbc ba
bbebc beec
beed bbbd
bdbc fed
bcfc dd
bf bb</w>
bbbb eba
ebe ecdf
bbc ebbbf
bbbe cccc
bbf bdbf
ebf dbec
bdc beebe
bfc ffc
dbb dcebc
bbec beebc
fbc da
beee dbf
eccc bef
ecbc fed
eecc ea
eecc eedc
dfc fcc
bcec dbf
bebf eeee
dbbd bbdd
ecbd bebc
eeebb bbbf
ecdc ff
ecbbc fc
ecef dd
edec dec
edee dec
fdbbd cc
bf fbbbf
bbbb ebbbf
ebe eebef
eec bdebb
ccc fbd
bbee bedc
dcc bdbd
dcc eedd
bbebb fbe
debb efc
bbbbc beec
eebc debc
bcbd ba
fbf fbf
beebb febb
beebb beebe
bbebc ebd
eebf df
bedd ff
eeed edc
eeed ded
febe ebf
fbbc dd
bcdc dbd
ecbf ebd
edec dbd
fdebd cc
ee bbe</w>
ebb bebecc
ebc ecdbe
bec bfed
bcc fdf
bdc eced
dbd debd
dcc decc
dcc dccc
beee bebbbb
fee ebcc
bcbc ebcc
debb fbd
eebc ecbd
eebc bedd
bbebe bebd
dbbc beec
debe fbc
dbec efc
fdc dfc
bbebc bcbc
deec bedc
dedc ebc
dbdc df
ebbebb bebe
edbf ccc
ebbee ebd
edee bbbd
ed ec</w>
ebb bbac
bbbb fbbd
ebe ddcc
ebc ebbbf
bbc bebbbc
ecc ecf
ecc eedf
eec bbebd
bbbc bcdc
bbee fed
bfc eccc
bebc bcbe
beee ecbc
fee def
eebc cccc
bbdc ba
bcbe bbebd
bebbc ebe
edbd bbd
dbbbe bebe
bddd ddc
ec dbac
bf bebbebb
bbbb bbbfc
ebe ecfc
ebe eebec
ecc edbc
bcc eeef
eec bcbbbb
bbd ecdd
bbd beecc
dbe edcc
edc eddd
bbbc da
dee ecdc
ebbc bbbec
ebbc eebf
bef bbfc
dcc debe
bbec bbbec
fee febb
fbe edcc
bebd fed
fed ea
eebe bbbcc
dbec bef
dbbd bdbd
ecbd ebbc
dbcc bdc
bebbbb ccc
bdcc ebd
eded dee
ebbbd bbf
a beebc
bd dbbfc
bbbb bdbbd
ef dcec
bbd eea
df bebec
bbf deec
edc befc
ff bcebb
dbb bfec
dbd fdd
dcc eebf
ded eedc
fbe bdebb
ddc eebd
fec ecbc
bbbf becc
bbef bbbf
dbbbb fc
bcbd dbf
bcee debe
bcec bbbd
bedc bbbd
ebfc ff
debd bbbe
bbbcc bebe
bcbf dbc
bdcc ebc
ecbf bbc
bcbbc dd
bdf bbdd
fbec fc
ecebe ccc
bbbccc ccc
ebb febcc
ef bcdbe
ebe bbbfc
bbd bda
dec bbbbc
dec fbf
ebec ecbc
fec bbed
fcc ba
becc eedd
ebdc bebc
debc fee
febb febb
decc bdc
ecbd ebf
ebfc dee
bcbf bebe
bcbbc bec
bea ba
bdec bbee
a ecdc
dd dcbd
ebc bbedc
ebd fdbe
dbe edbd
dec ecec
bef bcbe
bef bba
bef bbbec
ded eebd
bcbc eeee
bcbc bcbe
debc ebf
bcbd edc
bcec debe
bbbec bbec
debd bebc
beef df
bbecc bec
ebbebb bbee
bbba a
bebbf bbbb
eebbef cc
ebb beebec
eec e</w>
bbd eddd
bbd bebbbc
bbbe bcf
dbe bcbec
ff bbdd
dbb ecbbbe
dbb ebebd
dcc fbf
efc beebb
beee ac
fec bbdc
fec debe
bbed dbbbb
eebe dfc
dbec bbf
dbec beec
dbbd b</w>
bced def
bbbcc df
beebe bdc
edcc bbc
bcdc ebe
bbeec bebc
eeebe ccc
bcbbc fc
ecdd eec
eedbe ccc
a bebec
be ebe</w>
ed bbac
ed febec
bbbb fbbf
ef eeebc
ef fedc
bbbe dbcc
dbe bddc
ff eeef
dee dccc
bef ecbd
bbbd beed
fbc beebb
bbbf bebbbb
eeee bea
fbd febb
eecc ba
eef bbebc
dfc def
bcec ebec
eba bbbc
bedc debb
bdbc bbbbc
ecebb bec
ecdd dbc
bcebc ccc
bfbc edc
a edbf
bf bedbb
ebe eebcc
ebc efdc
fc eea
bec dcdc
eec dbbbc
eec beccc
df fbbbb
bbbe ffc
bdc bcdd
bbee bebbbe
bfc febb
dcc ecbd
ebcc ba
ac beec
eebc bbdc
eebd ba
bbdd bbebb
deec ddc
eba ccc
eebf fbc
bebbbb dbe
bdee dbbc
ebbee ea
bfbd bbf
ecdee ccc
dcee bbec
fdecc cc
a bddd
bf deecc
ebb ebfcc
ebe ecee
ebe bfdc
ebe efbf
dd bb</w>
dd beecc
ebc ecdf
ebc fdbc
ecc fdbe
df ebfc
bbbc febe
bbec dfc
ebcc dbf
bbbbc bbdc
def bbcc
eebe def
debe becc
bbef bcbc
bccc fee
fdc bbee
bba bbebb
dbbd bbed
bdbe debc
beebc bbf
ebbbc edc
ebb fddc
dd bcbbbb
dd bdec
fc bcbcc
ebd eebec
bcc bbecc
ebf bedd
bdc bddd
ebbc bbbcc
bbebb becc
ebec debc
debb beebb
bebd dbbc
bebd beebb
fbd bedc
eccc fbd
bbebe beebe
eebe debc
bebf ebbc
eeec eeee
bbfc bebc
bbfc bbec
fdd bfc
eebf bdc
eeed bbcc
bdbc bbbf
bebec bcc
fecc a
ee bbbac
bbbb befc
ef ecebe
ebe bfbbc
dd ebecc
bbc bac
bbc bdec
ebd bcbbbb
ebd eddd
ebd fdf
bcc bbbbbbbb
bbee cccc
bbee fef
bebe bbbcc
dcc ebdc
ebcc ea
bbed fed
beec dedc
bba dbd
decc ded
ffc fec
bbebd bbbe
edcc dbe
edcc ff
ecdc ddc
dbbbe dbe
eebbc bbf
bddc dee
ebbbd df
ebbec bbbe
bbdbd dbd
bd bbebdc
bd bacc
bf bedee
bf ebdcc
bf dddc
ed debfc
ebb fded
dc fded
ef bcbbf
bbc bbebbc
fc defc
fc fbbf
bbd bbbbbbc
edc fbcc
edc dcdc
ba bdbf
bbbc eef
ebbc fbbc
dbb bc</w>
ded bccc
ebcc eeee
dbf bccc
debb becc
ac def
eecc bcbc
dfc ebbc
bccc becc
bcee eccc
eedc efc
ecec becc
bcbf ebc
beef dee
edbd bcc
eedd dec
bdbe dbbd
bded a
dcbc bebc
bfec bdc
bfec bfc
ed beebec
ebb dac
dd ecebe
ecc b</w>
ecc bdec
ecc fdf
ecc ecfc
eec bcebc
bbd dcdc
ff eeebe
bebe def
dbb eb</w>
bef eebe
bef eba
ded fdc
beee cccc
dbf bbebb
debb ecbc
debb eecc
bbed bbbbc
ecbe dccc
dbbbb bdbd
dbec dcc
eeebb dbc
dedc dee
dedc eecc
bdbe bbebc
bcdebc cc
bd ebac
ec fbfcc
ef eac
ebe fbef
bbd ecee
bdc bbbec
ba debe
ba dba
dec ecbd
ded dedc
bbebe bbed
dbbc bebd
debc debc
bbef bbbd
bcf bbbcc
dfc bfc
dbec bbbc
fbf bbcc
ebfc bbf
ecf da
fdd becc
eebf eec
ecec fec
bdbbbb bbbc
ebbbd bec
bbbbbbbbbbbb bbbbc
a ecebb
bf fbebc
bf eefee
ef fdec
bec dbbbc
df bcfc
edc bcef
edc ddcc
ff bbebc
dbb efdd
dbb edbbd
dec febc
ebec debe
fbe ebbebb
debb ddc
eccc bebc
ebdc bbbc
bbdd dddd
bcee deec
eedc bbbb
ebfc dbe
eedd bcc
bdcc bdcc
bcbbbb bbf
bedf fc
eebbbe bbee
dded ccc
bf bbefc
bf eebef
dd ecbbc
bec c</w>
bec bddd
ecc ecdf
eec dcbd
df c</w>
df fccc
bdc bbebc
dec bcebb
dbd cccc
bef bdbd
dcc dbbc
dcc debc
ea bbebe
bebc bbef
efc febc
bbcc def
fee bbdc
fee eebe
bbebb eebd
bcbc ea
eba bea
decc fec
eedc eecc
edbc beee
beecc ccc
ebbee fbe
ebbbd bebe
ebbebe bbbe
ed bbeecc
ef edbbc
bec e</w>
bec eeebe
ecc eebcc
eec bebdc
ebf deec
dee dbbbb
dbb dcfc
dec bbebc
dec bdbd
dcc b</w>
bcbc eebd
eeee fbc
eeee fbf
eebc fdc
bebd bbbf
fbd bbed
ecbe da
eeec fbd
bebbbb bbec
fa bbf
bdcc dee
ecbf ebc
bdee fec
eebbbb bbbd
ebbee bebc
ebbbc ded
dbbbd bbbd
edee bfc
bf eeebd
bf ddbd
dd bdbbd
bbc bebbf
bbc bcdf
bbc bceec
ebd bcef
bbd bebbf
bdc ecdc
dbc eced
dbd bbcdbf
bebc bcbf
bbcc ea
ebec bbdc
debb ea
debb fcc
bbbf beec
eeee bfc
eeee eebebe
fbd debc
ecbc bbebb
fed bbec
fed da
dbbc bbebb
dfc bbbe
bccc bbbd
beed ddc
debd ebc
eeebb ea
eeed bbf
bcebb ebc
fa dbe
ebbbd bbee
ececc ccc
bedbbbb cc
a bbac
bd dbfcc
ec bbbfcc
ef bbba
bec debf
bbd bbedc
bbd bfbd
df ecebb
df ecef
bbbe eba
ebf ecdc
dee beebc
dcc fbe
fee debb
fee debc
bebd bbbbc
fbd fbf
dbbc bbed
bcbe bbbcc
bcbd bbec
beebb edc
beebb bbec
deec bbbe
deec bfc
debd bbbb
bced ebe
fdd dbd
febe bdc
dbdc a
dbbf dbe
bdebb bbc
edbc ddc
bc bbe</w>
bd dbb</w>
ebb bd</w>
bbc dbbee
fc bceec
bec bfdc
df bbeec
df ecdd
df bddd
ebf befc
dbc febc
dbb efbd
dcc ac
dcc eebe
ded ebdc
fbc ebdc
fee da
ebcc fbe
bbbf febb
def efc
dbbc edc
bbef ea
bcbe ebdc
bbdd ba
bbbcc bbbd
fa bbbb
fa bcc
eeef bef
bfbc dbd
bfbc ded
bf ecdee
bf eeeec
ed dbbdc
ed fdbbc
dc fdbf
ef ebba
ef fbeee
dd eea
ebd eebbbb
bbbe bea
ff eef
bcbc eecc
ebcc eccc
bbed ea
ecbc def
bbdc bbebb
dbbc ebbc
bbdd beee
dbbbb ba
beebb bbbbc
beed eecc
bebf bbbd
bbfc dbd
eedc bfc
dbcc dbd
bced bbbb
bced bebc
eeebb bbcc
beef dbe
bbbbcc bbbb
bedbb fc
bbbbebb bbbc
deba cc
bc dbac
ebb eb</w>
dc fefc
ef bdeec
ef eeebf
ebe ebbed
ecc ecef
ebd bedf
ebd eded
ebd ddcc
bcc bcebe
bbd bceec
df ecf
bbbe bebbd
bbf eeebe
edc fedc
ff bcef
ff fbcc
bbee da
bebe beebc
dec befc
fbc bbef
becc ba
eebe ebbef
bccc bebc
bedc bbec
fa ba
ecbf dbe
ecee eccc
bdbe da
ecebb fc
ecdd dcc
eeebc bbf
ebbbd bbbd
bf fdbf
ebb dbbed
ebe efef
ebd dbbee
bcc ebecc
bcc bcbec
df eebe
df bcbbc
bbbe bcebe
edc bfcc
ff eebd
ccc fdc
bbee eebd
bebe bbdd
ebcc edcc
debb febb
beec bbbbc
becc edcc
ecbc eecc
bcf ebfc
dbbbb bbec
bcec fed
beed fec
bebf bcbc
bedc fed
bdcc ecc
ebbbc ba
ebbbd fc
ebbbd dbd
dcbd a
bedee ccc
ed bebbed
dc ebbbec
ef eefee
bbc bdee
ebd ebecc
dbe eebbbb
ebf eedc
ebf bfcc
bbee eebf
bebe bbbbbbbb
bebe bea
ebbc eeec
ebbc bcbf
ebbc bedd
dec febb
dbd fbf
bebc bbfc
bbebb efc
ddc eccc
ac fcc
eebc def
bcbe b</w>
dbec ebec
bbbec ff
ecf bbef
ffc eec
ecee ea
ecee debb
bded dbc
befc dd
fbbbb a
bdec bbbc
bdbbbd cc
bf bbea
ed dbfcc
ebe bcbbf
bec bbbdc
df edbf
dbe bcdd
ff febc
bebe cccc
ddc dddd
fec eebd
bcee bbdc
fdc bbbc
deec edc
bebf bbebb
bdbd ebc
bdbd bbf
fef fbc
eeed bbbe
bebbc ebbc
eedd ebc
ecbf dcc
eced a
eced eec
eddc edc
ecbbc dee
eded dbc
dcbd fc
dcec ecc
fbbdd cc
ebb dbbbf
dc bebfc
dd beeec
bcc bedbe
bdc ecbe
ccc fed
bebe ecbe
dbb be</w>
ded beebc
fee bcbf
fec eccc
debb eebd
eeee edc
bbebe eec
da bbbd
da ac
deec bbbb
eeec fcc
bedc bedc
fef dcc
beebe ecc
bcebb bbbd
edbd bbbe
befc a
bcef a
bdbbc bbbb
dced dec
dcbd dbd
bfbc beec
bf eedbc
bf beebbc
bf fbbcc
ed fac
dc bbbbbbc
ef bedbe
dd fedc
ebc bdebc
fc fedc
ebd beebd
bbd bbccc
ebf bba
bdc edbd
bef bcdc
dcc febb
dcc bedd
dbf dbbc
ecbc bbbf
ebdc fcc
ebdc becc
dfc bbee
beed ebbc
bbfc bdc
bbfc bcbc
ecbd debb
eebf ea
bebbc bebc
fbbc bfc
bdbc fcc
fbec ff
bfbc ba
dcdd ccc
edee bbcc
bf bebbbd
dc bbcbbc
ebe ebccc
ebc ebbbbbb
ebc ecbcc
ebd dbbbc
bcc ecdd
bcc bdef
bbd bfdc
bebe fed
dbb bfebc
bbbd fbf
fee ecbc
ebcc bbbf
fbe debd
fec febb
bbbbc dcc
eccc beec
bbdc eecc
eef bbbec
eef dccc
bcf dbcc
eebd fee
dbec debb
bcbd bbed
beed bedc
fdd ebf
bcebb dec
eded a
bdbbbb bbc
dcbd ff
edee bcbc
ebb bc</w>
dc ebbebc
dc febbc
ebc dcbf
fc eeebe
fc bfbf
bec debbc
bcc bbebd
bcc bfbf
bcc fccc
eec eddd
bbee bcbf
ded debd
beee fef
ebec dbbc
ebec bcec
bcbc bcbbbb
ddc decc
dbf fbe
dbf bebd
ac efc
ecbc fdc
bbdc efc
dbbc dcc
bcbe bba
bbdd b</w>
bbdd bfc
dbec bfc
bbebc dbc
bebf fcc
ecf dbcc
ecec bef
beebe beebb
bcebb a
bcebb ff
bdcc a
eac da
ebbcc dd
bddc eec
ebbbc bebd
bfbc bbbf
ed beeccc
ebb febec
fc bca
bbd bcbcc
bbf befc
bbf eebbc
bdc c</w>
dee bbbec
dbb ecff
bebc eeee
ebec fbe
ebec beebb
beec eebd
dbbc bbbbc
eebe bbebf
bcf dbbd
eebd becc
fdc fbd
beed bbec
beed bbcc
beed ebcc
fdd ebc
bcdc bcdc
befc dbe
eeef ebf
bdec ebf
ebecc ccc
bbbbbd bbbbbbbb
bc deac
bf fbbbd
ed fdebb
dc fddc
bbbb dbbee
dd bedf
bbc ecdd
ecc bebbbb
ecc bbecc
ebd eba
bdc bddc
edc ecebb
dee bbeec
dbb ebbfc
dbd bced
bef dbcc
bbebb bebbc
dbbc eebc
debe bbec
deec becc
beed bcbc
febb bebc
bebf bbcc
ecec bbbd
ffc fbc
ecdc dbd
dbbf ff
fa bca
ecee bbed
bdbc efc
bdbc fbd
bdbc eebd
eced bbbb
ebbbc dcc
dcbd dbe
bfbc fee
bfec bebc
eebbebe cc
dc ebbfc
ebc dcdd
fc beeec
bcc febd
bcc beeec
bbf bedd
bbf fbbf
dbe dccc
ba eeebb
dee fdd
bebe fbbc
dcc ecbe
ebcc ebdc
ac ddc
debc bbbd
dbbbb bcbc
ecbd bbee
eedc fcc
eedc eebc
bbbcc ff
beebe eeebe
dbbbe bbbc
bdcc bdc
ecee bbbf
bdee efc
fbec bec
efcc eec
bfed bbc
dcbc ddc
bf eebbbc
dc eeebf
fc bcbbbb
bec eddc
ecc eeebe
bcc fbbf
eec eefc
df bcdd
bbf bded
edc ecbe
bbbc bebec
bbebb bbdd
bebd ea
ecbc dfc
ebdc edbbebb
fed decc
eebd fdc
bbdd bbed
fdc bebd
bbebc ebe
bbfc ebd
bbbcc dee
bbbcc bbbbc
bebbbb dd
edbd dec
edbd ded
bdbc becc
bdee fbd
bcebe ccc
ecbbc bbc
ed de</w>
bbbb fbcc
dd ecbec
ebc bdfc
bcc bea
bcc fdbe
bbd ecf
df dbbf
dbe eddc
ebf dbcc
ccc def
bbee bcbe
dbb ececc
fee eebc
fec bedd
bbed bbdc
eeee ddc
ecbc bedc
debc ecbc
bccc debe
fbf ebbc
fbf bbbf
ecec beec
febc bec
bdec ddc
eded fc
dcee bfc
bceebd cc
a dbdc
a eefc
bf bbebec
ecc eac
bcc ecee
eec bac
bbbe fa
bbf dbbf
bbf fbbd
bebe eeec
dec bded
ebec eedc
fed bedc
bbebe dbd
eecc beec
bbdd debb
da bbee
deec ba
bbbcc ef
ecec ef
bcbf ebd
bebbc ff
fbbc bbee
ecbf dbc
bcbbc bcbc
debf ccc
fdf fc
ebb dbbebe
ebe efebe
dd bdbbc
dd beebd
fc bedbe
ecc bebec
ecc ecebc
eec bdbbc
ba bbdc
fbc fef
eeee ac
eeee febb
becc debc
eebe debe
eebe dbbd
bcf decc
febb edc
bdbd dec
cccc dcc
bced bfc
eeebb beebb
fbbc bbd
bbeec a
bddd dddd
ebbed dee
eebbee beee
edec ebd
edee fbc
bd beeecc
bf dac
dc fbbec
ebe edbc
ebe dcec
ebc bdee
eec eeef
bbd bca
df decc
ba bbef
bbee fdc
ebbc bbfc
dcc deec
bebc eeec
bbed debc
becc bedd
def fec
dbbbb bebbbb
fbf ddc
bbebc ebf
eedc ddc
bced bbbe
bebbc bbcc
fbbc edc
fbbc bebe
dccc dccc
bded ff
bfbc efc
aa aa
a eebbbb
bd dbba
ebe dbfc
ebe eca
ebe fbbbc
ebe bcbbbc
ebc d</w>
ecc ecbbc
edc febd
dee bcfc
ebbc eccc
efc debd
beee eba
eeee bccc
ebdc eebc
eecc bef
dfc bbcc
bbdd bef
dbbbb bbed
bcbd beec
bbbbbbbb bbcc
bbebc fbc
bdbd eec
eebf bec
beebe bec
bcdc ded
dbdc dbe
fa bbc
ecee fbd
ecee bbdc
bcbbc dee
bddc df
ebbbd bbbc
bfbd dbe
bfbc fbd
dbbbd dbd
bbcbbbb bbbbc
edee fcc
a feec
bd dbbebd
ebb bedbbc
dc bbefc
dc ebbdd
bbbb bedbe
bbbb eebbbe
ef ecbbbb
ef bcff
ecc bbebd
ebd eebcc
bcc eded
bbd ebbbf
bbbe befc
bbf ebfc
ff eba
ff bdbf
bebe fdd
ebbc deec
dec bcdd
ea febb
ebcc dfc
eeee eea
bebd deec
da bbd
dbec edc
beebb dbd
dbbd ebf
bbbec bdc
ecbd bef
bbbcc bbee
bbbcc bcbc
bdbc bbdc
bf fefc
bf fded
ed ecced
ed bebbdc
dc dedcc
dc eedbd
bbbb eced
ef fbbbc
ef ececc
ebe bbbbbbc
dd bcebc
fc eeef
bcc eefc
bbd bbcbbc
bbbe bbebf
bbf bebbbe
ccc dbf
dbc ecbf
dbc bcdd
bbcc eeee
ebcc eeec
beec ecbc
ac becc
eebe bbfc
debc fed
bcbd ddc
bcee bbfc
fdc ba
fdc eedc
bcec dbec
febb ebbc
bebf ba
bbfc bbee
debd edc
eeebb dbe
dedc edc
beef ba
eeebe beebb
bdbe bbef
bfcc bbc
ebbbc bbed
dcbc fbc
bfec bbf
beda cc
bc dbb</w>
bd debfc
bf fbbdc
ebe dded
ebd bfdc
eec d</w>
bbd eebcc
bbbe deec
bbbe bdbbbb
ff bebbc
dee bbebd
bebe dfc
dec dccc
bef b</w>
dcc bbdc
bbbd dddd
fee bbbbc
fee eef
fbe ebfc
ac debb
eecc eddc
da bbbc
bcee dfc
bbebc dbd
bedc bebd
decc eccc
bcbf eec
dbdc bbc
dbdc dbd
eeebe bbebe
febc dbc
bbbdc dd
fbcc ff
ebbee bbed
bbeba cc
be ebd</w>
be ebc</w>
bf bedec
ebb fdebb
ef bebbbc
dd eebec
ebc dcec
fc beedc
eec fbbd
eec defc
df eddc
ebf ecbe
bdc ecbf
bebe ecbd
bfc bbebe
bfc bcdc
dbb ecdbc
dbb efbbc
dec ac
dcc bebf
bbec bcebb
fee bbed
fee bcec
ebec bedd
fbd eedc
dbbbb dee
fdc ffc
bdbd beee
cccc dee
bbbcc dbe
bcbf bbee
dedc fc
febe df
fbbc dbc
bddd dbc
efcc df
edbc debb
ebbbc bbcc
bfbc fed
eedee ccc
eaea eaea
bcc eddd
bbd bdee
bbbc ecbe
ea ebec
ea bbef
bbbd bbef
ebcc fbf
fec bcec
bbbf def
bbed fbe
becc edbd
dbbc efc
dbbc debe
debc eedc
eebd eebd
bbdd bbcc
da fcc
dbbbb ebc
fbf bbec
fdc def
beed ebe
bedc fee
debd ebd
beebe bbbc
eeed bebc
bcebb dee
ffc ecc
febc bbf
eebbc bbbe
ebbcc ebc
ecdf ccc
dcbc ebf
a bbecc
bf bedbd
ed bbdbbbb
ebb fbecc
ebb beddc
dc eb</w>
dc fba
fc bffc
bec bedbc
bcc bedf
bbf bdebb
dbe eced
bdc bba
bdc edcc
bdc bcef
ff ecdc
bbee bbebd
bfc da
dec eedd
ea becc
ded ac
ded dbbd
ddc eeec
dbf fed
dbec bbec
bbebc debb
deec dfc
beed debc
bebf bbbf
bebf bebf
bbbec dbc
bced bebe
febe bef
dbbf a
ecbf bbbb
bcbbc ff
bdf ebfc
bcdd dbd
ebbcc ecc
fdbb a
dbbbd dbbbd
ebb beefc
fc ecebc
ebd eeef
eec bebbbe
eec ddcc
bdc bcf
bdc feec
dbc edbd
bfc dedc
bfc beebc
efc eeee
ebcc ecbc
fec debd
ac ebbc
eebc fbe
eebc ac
eebc dbec
bbdc debb
eebe edbd
eebe bbeec
bccc bbee
deec debc
bba bca
bebbc ecc
bdbc debe
bdbc dbbbb
febc bbc
bea ccc
ebbebb bbf
bbbbbd dbd
dc bebbbd
dc bebbec
bec ecf
ebd dced
eec ebecc
bbd ecebc
dbe ecebb
dbe fdbe
bdc fecc
edc bedf
dee bedd
dec dbcc
dcc bbebb
fbc bcbf
ebec eccc
fbe bbeec
ddc eedc
bbed dbbc
beec bebf
debc bbcc
bbebc bebd
bedc ebcc
bbbec ecc
dccc df
bdbc def
bdf bbebe
fdf ff
edbc bbcc
bfcbbefbedddcbbdfddeecfdcecddbccffcecebebdbbbe ddddbebeecebc
ee bbd</w>
ed dbbef
ebb fbbed
dc bbcbd
bbbb bbbcbbbb
ef bbbfc
ef dbecc
ebe fdbc
dd bebcc
ebc bedbc
bbc bdbe
fc bbbdc
bbbe bbecc
bbf fbec
ebf bbbcc
bdc bdbf
edc bddd
bebe dbec
bebe eebbbb
ea dbbc
efc ecbd
ded d</w>
bcbc fed
ddc eeee
bbbf dbbbb
fcc eeec
bbbbc beebb
bebd def
ebdc fbd
bccc beee
bbebc bbec
febb bbcc
bdbd ba
cccc fc
ebfc ecc
ebfc bbbc
fdd dcc
bebbc bbebb
dbdc ff
bdcc ff
bdcc dbc
ecee ecbc
bcbbc df
bdee ac
febd a
feec a
dcbc def
bbcbbbb bbbc
bcbbebc cc
dcdcdcdc dcdcdcdc
a ecf
a fea
d ea</w>
ed bedbbc
bbbb bebbee
ef eebbd
ebd bdbbc
eec bdec
eec ebccc
df beebe
ebf bcef
ff eeebb
dbb ecbbf
bef bcee
bebc debd
ded bcdc
debb bbebe
bbbf ebec
bbbf bbbbbbbb
eebe ebbbf
bcf bbeec
dfc fbd
dbbbb ebbc
bcbd def
bcec eecc
bba bbbbc
febb ba
dedc dbe
eddd fc
dbfc df
edbc fee
dc eebbee
ef bedbc
ebe bbcbd
dd bdbbbb
bec bbccc
bec bbedc
ecc ebecc
ecc bcbec
bcc ecef
eec eeecc
bbbe bebbbc
ccc ebcc
dbc beebe
bbee eeef
ebbc edcc
dbb eddee
dec bcf
dcc febe
ea eea
ded eeec
bbebb fbf
bcbc dbbc
eef bbbcc
debc bbee
dbec ebf
febb dbd
dbbd bef
decc becc
eedc becc
bcebb ebbc
dbbbe bbbd
bdcc bbbb
fecc ebc
eddd dee
ebbee bbcc
ebbbc fec
ebb befcc
ebc bdbbbb
bbc bbedc
fc dbbbc
ebd beeec
ebd fedc
bcc e</w>
bcc eeebc
eec dfcc
bbd ecbec
bbd eebbd
bbd dcdd
df eeed
bbbe fdd
bbbe bdbf
bbbe bcebc
ff bded
dbc ecec
bfc bced
bbec fdc
fbc bcee
dbf eebc
bbbf eebc
bebd debd
eccc bbcc
eccc fee
ebdc ddc
ebdc debb
bbebe fbc
debc eebd
bccc ebcc
febb dee
fef bbbc
beebe eeebb
dbbf bbf
dbbbe bbee
befc ded
bcbbbb bcbc
fecc dd
bbba bba
bfbd dee
bfbc bbcc
dcbc bbee
bbbbbbc bbbbbbc
a eedd
a eddc
ed ed</w>
bbbb bca
ebe bfed
ebe edbbc
dd ebbebb
bbc dcdc
fc fbbd
bec ebccc
ebd eebbd
df eef
df eebbc
bbf fbcc
ebbc eedd
dbb dceec
dbb efebb
bcbc fbf
dbf ecbc
fed bbee
fed dbbc
debc beec
dbbbb bdbbbb
beebb eeebe
bebf bebd
bdbd bebc
edcc fcc
bcdc ebc
eeef ba
ebbcc dbe
bebec bec
bfbd ff
bf ffcc
bbbb ebbebe
ebe fbdc
ebe bebbebb
ebc dfcc
bec ecbcc
ecc eebec
ecc eeccc
df bebbbb
ccc bcec
ebbc eeed
bef deec
bbbd ac
efc eedd
beee bcec
bbebb fcc
ebcc debe
eebc ecdc
eebe b</w>
eebe ebbbbbb
bbdd fbd
bdbd ddc
eedc dbd
ebfc dbc
ecf bbebe
ecec fbd
beebe ba
bbebd bbf
fa ecc
ecbf fbc
eebbc dd
bebec dbc
dcec dbd
edec edc
dcee dec
bebbdd cc
a bcfc
a fbbd
bd dbbbcc
bf bbfcc
ed beeecc
ef ebbbd
ebe bedbc
bbc bfed
fc bbccc
fc bcecc
fc bdfc
bec bfbf
ebd bcbbd
bcc bebcc
eec eeccc
bbd ecebe
df eba
df befc
df fbbd
bdc bebbc
bdc efcc
bebe ebbebb
dcc bcdd
bbbd dfc
bbebb dbbc
ebdc fee
ebdc eebd
bbef bbcc
da bebe
bbbbbbbb ebbbbbb
ecf decc
eeed ddc
dbbbe bbf
bdbc bbdd
ecebb dd
ecebb bbf
fbec bcc
bebbbe beee
bdec def
dcec beec
edee dbf
fdbbbb cc
bd deba
bbbb bfcc
dd dfcc
ebc bedee
bbc bcdbe
df bdebb
bbbe eef
bbbe dbbf
bbbe bebbf
ccc eeee
bbee bea
bebe bbfc
bfc befc
bef bbbcc
fbc eeee
bbebb fbd
bcbc eeec
dbf bcbd
bbbf bbebe
fcc debc
eeee bcbd
eebc bebbc
bebd dbbbb
ecbc eeec
bcbe bfcc
bcec fbd
bedc ebec
eedc ebec
eeebb bbebe
bedd ded
fbbc dec
bbeec dbe
bfbc fcc
bfec ded
ebbec bbbc
ebb bebccc
ebe ebbbc
ebe ecbcc
ebe bda
dd bbbdc
bbc eddd
fc deecc
ecc dbbf
ecc bfdc
ebd ecbec
bcc fbbbb
ebf ecbf
bbee eba
bebe eef
ebbc bcbbc
dbb edeec
ebcc beed
bbbbc b</w>
bbdc fbd
dbbbb bef
fdc bbd
deec beec
bba bdc
bebf dec
dbbd efc
bbbec beec
bbebd bebe
dbdc dbc
ecbf bec
ecee def
bdbf dbe
dbbbc ccc
edbf ecc
edee ba
bcbccc ccc
ed fbbbf
ebb be</w>
bbbb beebd
ebc ecbbbb
ebc bcbbf
bbc efcc
bbc eedbe
fc bbedc
fc dcbf
bec dbfc
eec eeebc
bbd eedbe
bbd eeeec
bbbe bbbbebb
dbe bbbcc
ebbc bebbbb
dbd dbcc
dcc dbec
fbe bfbf
ddc dccc
dbf debe
ebdc bebd
eecc bccc
bbebc dec
bba ebf
ecbd efc
eedc fbd
ecf bbbec
edbd bbcdbf
ebbcc bbbb
eebbbb bbf
edbc bbed
bedbb bcc
ebeebb eeee
ecdecc cc
a ecdd
ec bbeba
dc ebfcc
ef bcbbbe
ebc edbbc
ebc eeebd
ebd bdec
ebd bfbf
eec bfbd
df bddc
bdc bbbcc
dee fef
dee bcbec
bef bebbbb
bbbd debc
bbbd eeebb
bbcc eeec
bcbc bbdc
ddc ea
bbed bbbf
bbbbc fee
eebc bbebe
ebdc bbed
eef debd
eebd ea
dfc fec
bccc fed
bcbd ebec
bbebc bfc
bedc beec
decc dbe
eedc bebc
bced ecc
dedc ded
febe dcc
eeebe ea
ecee fec
bcbbc bbcc
eddc dbc
bebba cc
ef bcccc
dd bfbf
dd bdebe
bec beccc
eec bbccc
eec fbdc
bbd ebbed
bbbe eeed
bdc dccc
ff bcfc
bbbc bebbbe
dbc fdf
bbee def
bbee bbeec
ebbc beebe
ebbc bded
ded dbcc
beee bcdc
bbebb fbbbb
bcbc bcbf
ebcc fdd
fbe ecebb
fbe bddc
ddc bbdd
dbf ebec
debb debc
ac bbcc
becc ebdc
bccc beec
fdc eebd
bcec eebc
beed bebd
bbbec bbd
bbbec bcbc
decc efc
bbbcc bebc
ecec eccc
bebbc dec
bbebd a
bdbe dfc
bfcc fbc
bdee bebd
dcdc dee
fbbd bbbb
bf fddc
dc eebbbc
dd bdef
fc fbdc
bec fbbf
bcc ecebe
eec bcbcc
df d</w>
ebf bcbec
dec ecdc
fbe dbbf
fbe dccc
ddc ebcc
fcc bbed
eef dbbbb
eef bbebf
eebd eecc
eebd debe
dbec bbee
fbf fbd
fdc ddc
bdbd dcc
cccc ecc
dbbd bebc
decc eebd
ecec def
eeed ebc
febe bec
edbd bbf
ecbf bdc
ecee bbbbc
eced ebc
bcdd dbe
ebbbf bbc
ecebc ccc
dcec dbc
f bbbb</w>
ef edbc
ef eded
ebe bcff
bbc bcecc
fc bdbbc
ebd ecbbd
bbd bac
dee eedc
dbb efef
dcc ecdd
fbc deec
bbebb beed
ebec bbdd
bcbc bcbcc
bbbf bcbf
becc bccc
debe bef
bcbe dbbd
bccc bbec
bbbcc beecc
ecec ebf
bebbc bbbd
eeebe beef
bdbc b</w>
febc bbbb
befc dec
bcdd dbc
bdee bbbbc
bddc bcc
feec dd
dedbbc dbfc
a dbbbe
bf bbbecc
ed fdef
bbbb c</w>
ebe defc
ebe fedc
ebe bdfc
bbc ebbbbc
fc debbc
ebd bbbdc
df bbbcc
bbbe ebfc
dbe dbbbe
ebf ebfc
dbc bba
ea ebcc
bebc ffc
beee fec
bbebb ebcc
bbebb ecbc
ebec dfc
debb eeee
bbed bdbd
beec bbbf
eccc becc
ebdc bbec
eecc ecdc
bbef efc
fdc beec
deec fed
bbfc dec
debd bbf
bced efc
bcbbbb ccc
beebc bbc
eebbc dee
bcebe bbbc
efcc ff
edbf a
dcbd bec
eebbee eeee
bbbbbbbbbbbb bbbc
bedebd cc
fdbbf cc
bd dbbbec
dc ebba
dc beded
ef bdbe
ebc ecdee
bec ecebc
ebd ebbebb
ebd bcebd
bcc dbbf
bcc bca
eec bbbdc
eec fccc
bbd bcbbbc
edc bcf
edc bba
bebe eeef
ebbc ecbe
dbb efebe
bef bdcc
dcc dcdc
ded dbbbb
ded bebf
bbec bebbbb
fbc fbbc
bcbc bbebc
fec fa
fcc bbbf
debc ea
bbef eeee
bcbe bbecc
dbcc bbf
eeebb dbd
fdd fee
eeed becc
bcebb dd
bebbbb beee
bbebd bbc
bdcc dbe
bdbc dbf
febd df
dded df
ddbd ccc
fbba cc
ef fba
fc ebccc
ecc ddcc
ebd ecfc
ebd bdebe
bbd ecbbbb
bbd bbbbcc
bbbe debd
bbbe ebbcc
dbe ecdd
ebf bcbbc
bdc eebbc
ba ebec
bbbc dbcc
dbc bded
bfc decc
dbd bddc
dcc c</w>
bbbd bbbec
bbebb bbdc
bcbc ac
bcbc dfc
fcc eddc
fbd bcbd
eecc ecbd
eef dbdc
debc bbec
ecbe bbfc
bcbe bbbbbbbb
dbec dbec
bcec ecbc
dbbd beee
fef dec
fef ea
fdd fed
ecec ecbc
bdcc dec
bdbf ccc
bdee fee
febd ccc
fdbe ccc
eebebe beee
bfec bbbc
bbbb dddd
ef bdbbbb
ef eebec
ebe bdf
dd fccc
fc bac
bec bbebf
bec eebbbb
ebd beecc
dbe eebf
edc bedbe
ff eedc
dee bba
bebe bcf
bebe da
dcc edcc
ded bbbf
fbc bbebe
fbc bedd
fee bba
fbe bdef
ddc dbbc
ddc bdbd
debb dbbc
bbed bedc
eeee bbbbc
eccc fdc
bbdc becc
eef bfcc
eef efef
eebd beec
dbbd bbec
bebbc bbec
dedc ff
dedc eebc
febe dbc
febc eec
bea bbbe
bdee dbec
bcebe df
ebbee ebbc
ecebc ddbd
bfbd bebc
eebbbe bbbb
bcbbbe bbbb
bfec ba
ebeebb a
ebbec bbf
bd bbeccc
bd debbcc
ebb bbebdc
ebb bebbebc
ebe eded
ebc eeccc
bbc ebccc
fc bdf
ecc beecc
ebd c</w>
ebd bbecc
bcc bcebc
eec fdf
bbd bfed
bbf eeed
ba bbba
dee eebbbb
bbee ebdc
bbee bdbd
bbee ebbbbbb
bef debd
efc eeec
ded bedd
bcbc bcdc
beec dbec
bebd bbdc
def bcec
eccc eecc
fed cccc
debe ea
dbbbb b</w>
febb dcc
bebf dbd
bedc eebd
bedc dfc
bcebb bebe
ffc bebc
bdee bbdc
edbc ecbc
acc ccc
bedbbd cc
ebb bebbbbbbbb
dc bd</w>
dd bedbe
ebc beccc
bbc bcccc
bec bebbf
ebd bbbbbbbb
ebd ecf
df ecbbc
df fdbe
bbbe ecbf
bbbe bebcc
dbe bcebc
edc eeebe
ebbc beef
ebbc bcdc
dbd fef
ded beecc
fbc eeec
fec bced
bbed dbec
becc fdd
fbd dbbc
eebe bfcc
ecbe deec
dbbbb eec
fdc bcbc
eeebb eeef
bbbcc bdc
eebf eeebe
ffc bbbb
eedd dee
bcdc a
dccc ff
ecee dbcc
ecebb dbe
bdbf bbbb
bdee bbbf
ebbec dec
bcbbef cc
a bfbf
bd eebccc
ed fbccc
ebb fbbebe
ef dcbc
ef fdcc
ebc debec
bbc bbba
eec eac
bbf ebbebb
ebf fbbbb
bdc bbeec
bdc ebbcc
ba bcbf
bbee fbbbb
ebbc bba
dbb ebedc
bebc deec
efc fbbc
fbc fdd
ebec eebd
bebd bbdd
fed debc
eecc fdd
eebe ebbee
bcbd fec
bcee bbebe
bbebc bbcc
beed deec
bbbec bef
ecbd fbd
ecbd debe
ebfc bbbe
beebe bbebe
ffc fcc
febe ecc
dccc bcc
bdcc dbd
eeef bbbe
bdbf ff
dbbbc dd
ebbebb bbbc
ebbbc debb
ee bbc</w>
bf bebbcc
ef eddf
dd ebccc
ebc febf
bbc eebcc
ebd bdbbbb
bbd ecfc
bbd fedc
bbd ebbbbc
dbe dbbf
dbe fdf
edc ebbcc
ff deec
bbee dbcc
bbee bded
bef bedd
dcc cccccc
beee da
bbebb dcc
fbe bbecc
ebdc ebcc
febb bcbc
bced dcc
bbbcc dbc
eebf bbcc
bcbbc dbe
bdbe bbbec
bcef bcc
fbbbb bebe
ebb bbb</w>
dc ebeebb
dc bbdbd
bbbb bac
ef bbebbc
ebe fdee
dd fdbc
ebc bbebbc
ebc bdbec
fc ecbec
bec fbdc
ecc bcecc
bbf beebc
ba fdc
bbbc befc
dee bcebc
fee bdcc
ebec bbebe
bcbc bbdd
fbe bbebd
fbe bbebf
ddc bbbf
ddc bccc
debb fed
eebc beebb
eecc bebd
eecc bedf
ecbe bfcc
bcee bbef
dbbd fee
decc dbc
bebbbb bbcc
bbebd bbbc
fa bbbe
bea ff
bea bba
bdbf bbf
fbec a
a bbbbbbbb
bb ebf</w>
ed fbbebb
dc dbbbd
ef bcedc
ebe beccc
ebe bdbbd
ebc beff
fc f</w>
fc eebec
ecc efdc
dbe bebcc
bdc dcdc
ba bbdd
dee decc
dbc bbbec
bfc bfcc
dbb edbcc
dbb fcbf
ea beebe
ea dba
bbbd eeec
bbbd bedd
bbec eeec
bbbf bbdc
beec febb
bbbbc bcbd
ecbc bbdc
ecbc fbf
eef bfef
bbbec bbbec
ecbd beee
ecec efc
dedc fec
edcc bbf
bdcc edc
eac df
ebbec bebc
ed bedef
ef dea
ef debcc
ebe beba
dd eeebc
fc fdbe
bec dced
bec bbbbcc
eec dbbee
bbd bbba
bbd bebdc
bbd bdfc
dbe eeed
bdc bfcc
edc bddc
dee bdebb
bfc bcee
ebbc ac
dec dbdc
dcc bbbbc
dcc eddc
ea eebf
bebc fbf
fbc febe
bbcc bbdd
bbcc eedc
ebec bcbf
fbe edbd
ddc fdd
ddc bcdd
fbd bbbf
def bbbd
ecbc eccc
fed debe
fed dbec
eecc dbf
eebd dbf
fbf eeee
bbfc beec
bdbd bbdd
ffc ebc
ffc bef
dedc eccc
ecdc fcc
ecee bebd
beebc bcc
bebbd ccc
eebbbb bbbc
ecdf fc
ebbebe bbee
bbbbbd bbbc
fcccc ccc
ee ef</w>
ebb bbebbbbbb
ef ebbbbc
ef eceec
ebe bbcbbc
ebe bbcbbbb
fc bebbf
ecc eba
ecc ecbec
ebd bcbec
bbd dcbd
edc bbebc
ba ebcc
dee bebbbb
dee bcdd
bbee dfc
dbd beebe
bef eeed
ea bcbd
bebc febc
bbec ebdc
beee eebc
ebec ebdc
fbe ebeebe
dbf bbdc
bbbf dbbc
def ac
fed eebc
eecc ebec
dbbc eebd
bcee ecbd
bebf becc
bebf beebb
eeec bbbbc
bdbd bcbc
cccc bccc
debd efc
bced debb
eeebb df
ffc bfc
bdcc fec
ecee beec
beebc df
fbbd ccc
edbc eebc
eebbbe bbbe
edec fbc
a eac
a bcac
dc bbebec
ebe dcef
dd dbbee
dd bfdc
ebc dddd
ebc fbbbe
bec eded
ecc bceec
ebd dcdd
bcc d</w>
bbd bdbec
dbe fa
edc fdf
ff fbbbb
bbbc beef
dec bbebe
dbd bcec
bebc decc
fbc bcf
ebcc def
bbed b</w>
fbd eebd
eccc bcec
ecbc beed
eecc beee
deec bebd
beed ebf
bba bebc
debd bdc
bcebb bbec
edcc bdc
bcbbc bbf
bdbe b</w>
bdf bbfc
bdec bcbc
bcecc ccc
a fecc
ebc bbcbbc
ecc fbdc
eec dced
eec bedcc
ba bbebc
bbbc fdd
ebbc eeebb
dbb ebebf
dec bcbe
bbec eccc
ebcc bcec
ddc debe
fec bebbc
bbbf bbef
def beec
dfc bcbc
dbec eebc
fbf bccc
febb bbec
bebf fbd
bdbd dbbbb
bedc dcc
ecf bbebc
fdd bebe
eedd ebd
ecdd bcc
bedbe ccc
ebbbc ebec
dcbd dbc
bfbc bebd
eebebe bebe
bd dbbebc
ec ebb</w>
ec bbbac
ed dc</w>
ebb fbccc
bbbb fbbbc
ef bdbbd
ef ebebf
ebe bddf
dd eedf
fc ecef
bbbe bcef
ebf eeed
edc edbf
bbee debe
dec eeee
bef befc
bbec ffc
ddc bbdc
bbbbc bccc
ecbe dbbd
ecbe bbeec
bcbe debd
bcbd ebbc
bcec eedc
beed fee
febb fcc
ecbd fee
ecf deec
eeebb fbc
eeebb beebe
eedd dcc
bdbc ea
bdbc fbe
eced edc
eced bbbc
bea df
dbbbc dbbbc
ebbcc bbf
bdee ecbc
bdec fbc
fbbd bbc
dded dee
ddbd dbc
ebb bedbbbb
ef bbbbbbbb
dd bca
dd fbdc
fc edbf
bec bca
bec ebbbbbb
ecc debf
ecc fbbd
ebd eea
bcc bdebb
bcc eedf
bbd edebb
bbbe bded
dbe dbdc
ba bfa
ff bcdd
bebe b</w>
dec fef
bef bcbbc
beee efc
fec ac
fec dbcc
fec bcbf
debb bbdd
bbbf bebbc
bbed eecc
bbbbc ebec
bebd bcbd
def bccc
debc fbc
fbf efc
ecbd fec
eedc bbbc
bcebb bbebb
fbbc bdc
eced dbd
eddd dbd
ebccc ecc
ebbebe bbbb
bbdbbbb bbbd
ee bbeac
dc dac
ef fbfc
dd eebcc
dd bceec
dd eedbe
ebc bcbbbe
fc d</w>
fc bbebf
bec ecdd
bec eedbe
bec beedc
ecc eeebc
eec debcc
bbbe fbec
bbbe bcbec
bbf dbbbe
bfc eeed
ebbc da
bef bdbf
bbbd ebcc
beee fa
bbebb bba
bbed fcc
becc bbdc
eccc ebbc
fed bebf
bbebe beec
dbec fbc
bbfc ded
debd eecc
bced bdc
bcbf dbf
bedd ebe
eedd fcc
ecdd df
ecdd fbc
ebbcc eec
bfbf ccc
ebbbc fbd
eceebd cc
babca bdbf
ed bbbccc
dc fbbcc
bbbb bdebe
dd bdee
dd bbccc
ebc bfdd
fc eeecc
bec defc
bec fccc
bcc dcdc
bcc fedc
bbbe bfcc
dbe e</w>
dbe bebbbe
ba beed
bebe ebdc
bebe dbcc
bebe bebcc
dbb dca
dbd bba
dcc dbcc
bbbd eecc
fee eecc
bbed bcbd
fed beee
bbebe dec
eef dbbd
eef decc
debc ebcc
ecbe debd
bbef fbd
deec fbc
bebf bbec
eeec eccc
eba ff
eeebb eebf
bcbf ebf
bcbf bebc
dccc eec
ecbf bbbe
ecee bbebe
bea bbf
eeef bbbb
fecc ff
eddd edc
eded bbc
ddbd dee
bddbe bbee
a bebcc
bf fbbebb
dc db</w>
dc beddc
bbbb eeebc
ef bbcbbc
ebc bdbe
bbc eeeec
bec bcbbd
ecc dced
ecc bcbcc
ebbc fdd
dcc bbdd
dcc ecec
bbbd bccc
bbbd bcebb
ded bebbc
fee bedc
ebec febb
ddc bedd
fec eeec
bbed ecbc
def fbd
debc bcbc
bcf debd
dbec becc
febb ea
ebfc dec
ecf bbdd
bced bbee
bebbbb ebf
beef dbc
ebbbc beec
bdbbbb bbbbc
dc bbea
ebe eedbe
dd ecebc
ebc fdee
bbc bfef
fc eebcc
bec eea
bec bdef
bec ebbbf
ecc ecee
bcc ecebc
bbd bbebbc
bbd bcdf
bbd dcbf
df bdef
bbf bbeec
bbf bcebe
dbe bfcc
bdc fdf
bfc eedd
dec b</w>
ded bbebc
bbec decc
beee eebeee
bcbc bedc
fbe ebbebe
ddc bedc
dbf bdbd
fec bcdc
beec bbebe
dbbbb bebd
fbf bbebb
deec ebbc
beed fcc
eba ea
bbfc bebe
dbbd bbdc
eedc ebf
dbcc dbcc
eeebb bebc
eebf dbc
ffc fee
ebbed bbbb
bfbc debb
dcbc fec
edef ccc
eebbebc cc
bd bcbccc
ed dbbfc
dc eebef
bbbb e</w>
dd bcbbd
fc bebdc
bec bcbcc
bec bcdf
bcc ebbebb
eec bebbf
bbd bcebd
dbe bcebe
bbbc bdcc
dee dcdc
bbee bdebb
dbd dbdc
bbbd d</w>
bbbd bedc
ded bcebb
fbc eeed
beee dbbbb
bbcc ac
dbf fef
beec da
eeee dbf
ac fbd
bbebe becc
eecc bedc
eef dbbf
bcee da
fbf dbf
fdc beee
eeec bbdc
bedc bbcc
bced becc
bebec bbbc
bdec debb
ebbbbbb bebbbb
bfbc dcc
bcbbbc bbbb
ebe bcccc
ebe bffc
dd fdee
ebc ebbbbc
bbc bcbbf
dbe bdebb
bdc ecebb
bdc befc
ccc debb
bef dbbd
ea eebc
bbbd dbcc
bebc eebf
bbcc bbbcc
bbebb eebbbb
bbbf fdc
eeee fcc
eeee eebbee
eccc bbbc
eccc def
eccc fed
dbbc bcbd
bcee bbbec
fbf fdc
deec deec
bced ef
ecec ba
bcbf dbd
eeed ebd
edcc bbbe
fbbc ebbc
febc bcc
bded ded
bcef bbf
bdee ea
bdec edc
bcfc ff
fedc df
dcbc bfc
dcee dbf
dd bbbbbbbb
ebc eeeec
fc bdbc
ebd debbc
dbe ecf
dbe bddd
ebf bea
ebf fbcc
ba bcebb
dee d</w>
dbc bdbf
ebbc debd
dbb edee
dcc ecbf
bebc beebe
beee ebec
bbbbc eebc
eccc ebcc
dbec eecc
beebb ea
fdc decc
bba bbec
eeec efc
fdd eebc
bcebb eebc
edcc df
fbbc bbec
dbbbe bbebb
bac bbf
ecdd dbd
fbbbb bbebb
efcc ecc
bdec bbbd
fbbbe bbbe
bfbc dbf
dcbc debb
efcbbebd eecbf
bc a</w>
bf fea
ebb fbbbbc
dc bc</w>
dc beebbc
bbbb bdbe
ef eedf
ebe bbbbcc
ebc bfbbc
bbc bbbfc
bbc ecfc
fc beccc
fc bcebd
ebd bac
eec fbbbb
dbe eef
bdc fbcc
ff bfcc
bbbc beebc
dee bcbbc
dbc bcf
bbee ecbd
bfc eeebb
dbb ebedd
dbd eedc
bbbd bcee
beee ded
bcbc bbbcc
ebcc bbebe
ddc d</w>
beec ebdc
bbbbc dbbc
bbbbc bbbbbbc
eebe bbebd
debe ddc
beed bbed
bba bbcc
febb bbbf
bdbd debb
dbbd bebd
bbbec dec
bced ebf
eebf fcc
ffc dbd
dbbf dbc
dccc ded
febc ecc
bdf debd
eac a
bebec bbf
ebbbc fcc
bdbbbb dbbbb
ebe dba
ebe ecbbd
ebe edebb
dd dba
bec d</w>
bec dbbee
ebd bceec
bbf eba
dbc e</w>
dbc bbbcc
beee bea
fee bea
ebec beed
bcbc bcee
ebcc bcbd
ebcc ffc
fbe dbdc
bbed eebd
becc bbed
fbd bdbd
ebdc bbcc
dbbc def
eebe bfbf
eebe efbf
debe debb
bbef edc
bcbd bebd
bcee decc
bbebc bbebb
bcbf dcc
bedd fec
bcebb bcebb
bebbc bdc
eedd ddc
dbbf bbc
eeef eeef
dbbbc bbc
eebbc bbbc
ebbee ecc
ebbbd bcc
bedbb a
efed ccc
a bddf
ebb fac
ebe dcebc
fc dcec
ebd bdef
df beebc
ebf debd
ff fbec
dee bebcc
ea beed
ea bdbf
fcc bebf
fcc decc
bbbbc bbbcc
bbbbc bcbbc
becc dbf
beebb bebf
bbebc eebc
bba bbbf
dbbd bbebb
bbbec fbc
bbebd bbbd
edcc ded
febc fbc
bdf bbebc
bdf dbcc
bfcc edc
bdee ebec
fecc fbc
bebbee bbbe
bfbc eebc
dcec bef
bfec bef
bfec dcc
edec ded
a acc
ef eebef
ebe dcbf
ebe ebbdc
ebe bcdee
fc dbbee
bec bac
ebd eeebc
eec dbfc
eec eebbbb
eec deecc
df eeebb
edc eded
ff bddc
ebbc bcf
ea cccc
ddc ac
ddc ffc
eeee ebbebe
eecc eedd
debe ded
debc becc
ecbe decc
bcbe ebbebb
dfc debb
bccc eccc
bcee fed
bedc bef
bbbec ebd
bbbec ebf
eeed bcbc
febe fbc
ecbf ecbf
eeef bbc
eebbc bcc
ecbec dd
ebbed ccc
bbcbbc bbbb
eedbbd cc
ed bbeccc
dc aa
ef bbea
ebc bffc
fc bebbbe
fc bcbbd
fc eeeec
bec bceec
ecc bbccc
eec dcdd
bbd bfebb
bbf bea
dbe bcfc
ebf edbd
ff bedd
bbbc bded
dee bcef
dbc beef
dbc bcbbc
bbee fa
bbee beebc
bebe bebec
dec bbfc
bbec dedc
fee ebec
fee eccc
bcbc fbe
ddc c</w>
fbd beed
dbbc ddc
eebd dbbc
bcbd bbbbc
beebb eebe
beebb eebf
bcec dedc
eeec bbbf
dbcc bbbe
fef bfc
ecec dbf
bcbf edc
dbbbe ccc
febc edc
bcbbbb bec
bcbbbb bebc
bfbf bbf
ecbec df
eebbee bbbe
edec bfc
eebbebb fed
eeda cc
a ecbbc
a eeebc
bd bebdcc
ed bebbbbc
bbbb dbdc
dd eac
bbc fbbbc
bbc bedee
fc eded
bec eeecc
ecc bea
eec eedbe
bbd bedbc
df bcebc
ff e</w>
dee bea
dbc bddc
bbee ecebb
dbb ebeed
bbbd bba
bbcc fbf
fee fed
fbe ebbbf
debb debe
eeee bebbbe
bebd dfc
fbd ffc
ecbc bebf
eecc beed
bcbe decc
dbec fed
dbec eedc
bbebc bdc
febb dbf
bbfc ebbc
bebbc bfc
bbebd dee
fbbc ebd
fbbc ebf
ecee fbe
ecee dccc
bdf bbbec
befc bbf
bebec bbbe
bca bba
dddd dcc
ebbee dbf
efbd ccc
a dbbbc
a beac
bf ebfcc
ebb bebbdc
ebb bebba
dc dbdcc
ebe beedc
ebe bcedc
bbc ecebc
ecc fdbc
eec ebbebb
eec bcbbd
bbbe edbd
ba eebf
ff bbbec
ff decc
bbbc bcbbbc
dee debd
dbb dcecc
efc bcec
bbcc debe
eeee beec
bebd bebf
fbd bbebb
ebdc ebdc
bbebe ea
eebd eccc
da fee
fdc ebcc
bbbbbbbb bcbc
bbbbbbbb bbcbbbb
febb fec
bbfc bbbd
bedc fcc
fdd bebc
bebbbb bebc
bbeec bcc
fa bdc
fdf df
ebbec dbc
bbbbbd dbbbb
dbccc ccc
dbccc dbccc
a beeec
ebb db</w>
ebb beebcc
dc fbeee
ef ebbdc
ebe eceec
ebe bbea
dd bcdf
ebc eebbbe
ebc bcdee
ebc ebbebc
fc bfbd
bec bebdc
ebd eac
ebd ddbd
eec eea
edc ecef
ff bea
bbbc bcbec
dbc bdcc
ebbc bdcc
dec bdcc
ded fbe
bbec beebe
beee ebeebe
bbcc ecbc
fbd bebf
def bcbd
bbef bbef
bccc ebbc
bba ea
febb efc
febb fbd
bdbd ebf
dbbd fbc
dbcc dec
febc dbe
bcbbc bebe
bfcc bbf
bcbbbb bbec
eddd df
eebbbb bebe
edbc dbf
ebbbf bbbb
dcbc efc
dcbc bbec
fdee ccc
ebbec bbec
bbbb eedc
ef ebeebb
dd bddf
bbc debbc
bec bdbbc
ecc eeecc
bcc dbbbe
bbd bedee
df bcbec
bbbe ecec
bbbe bcfc
dbe ebbebb
bdc bcbbc
ebbc bbeec
dbd eccc
ea eca
fbc ecbd
beee bdcc
bbcc bcec
ebec ac
ddc fbf
eebc edcc
becc ecdc
fed fdc
eecc debb
ecbe edbf
bcf ebbcc
dfc bebe
dfc bbbd
fdc debc
deec efc
decc ecbc
eedc eccc
eeebb bbbd
bcbf dec
beef bbbc
beef beebe
edbd bbbd
fbbc ebc
eeebe eebf
fa dbc
bdbc ecbc
efcc edc
ebbbbbe bbbb
dc be</w>
dd ecdf
bec eebec
bec bcebd
bbd bcdbc
bbf bca
bdc ebfc
ba ecbc
ff dbbbb
bbbc ecbf
dec fdd
bebc dbbbb
bebc bcee
beee bcebb
bcbc dbbbb
fbe ecec
fcc fef
eebc eeee
dfc ddc
bbdd fee
bccc fdc
bcec eeec
deec bebe
bedc bbee
fdd ebd
bebbbb dbd
bebbbb bbebe
bcdc ddc
dbdc dec
dccc dee
ecee bbdd
bdf dbbd
bded bcc
ebbcc df
bddd dbe
edbc ebcc
ebbbc bbebe
eebbee bebe
bfec fec
ebbec bebe
a bdbbc
bd cccccc
ed bbb</w>
ef ecccc
ef dfcc
dd bebbbe
ebc eebdc
bbc fbdc
fc fdbc
ecc bedee
ecc ecdee
bbbe febc
dbe bea
bdc beebc
edc bebcc
edc eebcc
ff bbbcc
bbbc bbebd
dee bbbcc
bfc bcebb
dbb fcdc
dbb ecbdc
dec ffc
efc befc
fbc bcebb
dbf bbbbc
ac beed
bbdc fcc
debe fee
bbef fbf
bcbe dbbf
da ddc
eeec decc
eba bcc
ecec fed
bedd bbbe
fbbc dbd
bdbc dbbc
eced bbd
bded bdc
eeef beef
bcdd dec
bdee bbebe
eded bcc
ebbee bbbbc
bdef ccc
bcbcbcbc bcbc
ec bf</w>
dc fac
dd defc
dd bda
bbc bfbd
bbc bcbbbe
bbf fdbe
ebf fbbf
ba beebe
bbbc bbeec
bbbc bdbf
dbc c</w>
dbc befc
bfc bcf
dcc fef
fbe eddc
fec ebdc
fec beebb
bbed febb
becc beed
becc febb
fed bbbf
bbdc bcbd
eebd bef
eebd beee
bcbd debe
dbbd bbcc
bbbcc ebc
bedd ebc
eeed bbbd
bebbbb ebbc
bebbbb bcbc
edcc dbd
edbd dcc
bcdc efc
bdf b</w>
bebec a
bddd bbbb
bdebb bbbd
fbbd ff
eded dec
bedecc cc
ebb deccc
ebe bcbebe
fc ddcc
fc dcdd
ecc bdfc
ebd ecebc
bcc debf
bbd febf
df ecdf
bbbe ebbebe
bbf bcebc
dbe fbbbb
ebf bdbf
ebf efcc
edc e</w>
ba dbec
bfc bdbd
bfc dbbf
dbd edbd
ded dccc
ebec deec
ebec bced
ebcc beebb
debb fbf
debb bedc
fcc beed
ecbc beebb
eebe ebeef
debc eccc
bbef bbebe
dfc dbf
dfc bbbf
bebf eebc
bced bbbc
eeebb beef
bedd eecc
febe bbbc
bcdc ebd
bded bebe
eeef beebe
bcbbbb bbcc
fbec bbbb
bebbbe bbf
bdebb bbbc
bebbd bbbd
dcbc beee
dcec bdc
bfec fbc
efef efef
a bbccc
bd fbdcc
bf eeba
bf fdbbc
ed beebdc
bbbb edbf
bbbb bfebb
ef dbbcc
bbc fedc
fc dcbd
fc eedf
bec ecebe
ecc dcdd
ecc cccccc
bcc dbbbc
eec bfed
bbd bcbbf
dbe ebfc
bfc ecbd
dec bbef
dbd e</w>
dbd ffc
dcc bcee
bbec bcbf
bcbc bcebb
fec bcbe
bbbbc bbdd
becc ddc
ecbc debc
bbdc eebd
debe dbf
bccc eebc
bcbd efc
bcbd fbd
bcee ebdc
eedc bbec
ebfc bdc
dbcc ebc
eebf bbbc
bedd becc
eeed ba
ecdc bbbe
eeebe bebf
bdec fee
dcdc df
eea beee
ebbed dbe
dcbc eebc
edec dbf
eebeee bebe
a ebbcc
bf bebbbf
dc bbbbbd
ef eeccc
ebc fbbbc
bec deecc
ebd fccc
df bcdf
dbe fbec
ebf eba
ebf decc
ff dbbd
bfc febc
dbb dcee
dbb add
bef bcef
bef bcebc
bebc dbec
bbcc dbbc
bbcc bedc
ebec dbec
ebec bebf
fcc fecc
bbbbc ded
def cccc
ebdc beec
eecc fee
bdbd ebe
debd bebe
dbcc ded
ecf dbbbb
bced edc
fdd bbbb
bcebb dbc
bbebd eec
bbccc bbbb
bddc bbc
bdec bbed
bca dd
edec bbbe
a bbebf
f deb</w>
ebb bbeccc
dd bcbec
ebc bcbbbc
fc ebbebb
fc eebbbb
fc acc
fc dbecc
bec bbbbbbbb
ecc dbfc
ecc ecebe
ebd bebbee
bcc eebec
bbd fdbc
bbd fdee
bbf edcc
bbf bcfc
bdc fbbd
ff ecbf
bbbc bdbbbb
ccc beed
ebbc bebec
ea bccc
bebc eeed
beee bedc
bcbc bbebe
bcbc dbec
bcbc fdc
fec bbebb
bbbf ac
fcc dbbc
fcc deec
fcc eedd
fcc fa
eeee bbdc
becc ffc
fbd da
ebdc beee
eecc bbed
eef e</w>
bcbe ebfc
eeec dfc
eeed bfc
bebbc fbc
bebbbb beebb
eeebe eebe
bdf bba
bdf dbbf
bcbbbb bebe
bbbdc bbc
dbbee bbbb
bcbcc bcbcc
dac da
ee a</w>
ef bcdee
dd edbbc
ebc bedbb
fc eedbe
ecc dbbbe
ecc ecccc
ebd fbbbe
ebd dcbd
bbbe bcdd
bbf ecebb
dbe bbecc
ebf bebec
ff bcbbc
bbbc debd
dee febe
ccc bebd
dbc bebec
bbee bcbbc
ebbc dbbd
bebc fbe
efc bbdd
efc bcdc
fec febe
debb b</w>
becc eeec
bbdc dbf
bbdc dbbc
ecbe edbd
bbef fa
fbf beec
beebb dee
deec bbbd
beed dbbc
eedc bcbc
fdd dbf
eebf ba
beebe bbbd
bedd eebc
bcebb fbc
fa bea
eebbc dbe
eebbc bebe
fbbf a
bebbf bbbe
bfbc bbed
dcec deec
eeddc edbbc
dc dbbdd
bbbb bcfc
ef ebbed
ef fdbd
ef edebc
ebe bdeec
dd eebbbb
ebc bbbfc
ebc eceec
ebc bbbbbbc
ebc efbd
bbc bdfc
fc ecebe
bec bfbd
ecc bdef
ebd ebccc
ebd eeecc
bcc ddcc
bbf eebbbb
bbf bcbec
dbe eedd
ebf fdf
edc eedbe
ff eebe
dbc ecdd
bbee bbecc
bfc ecec
dec dcdc
dbd bcdc
bebc bdbd
ac bebd
ac debe
bebd febb
debe bbbf
debc ba
fbf ea
fdc bedc
bcec dbbc
bba beee
bbfc fee
decc fbc
ecbd bbbd
bced fec
eeebb bdc
bebbbb dee
dbdc bbbb
ecbf dee
bdbe ebdc
bdbe bbebd
befc bbbb
eddc df
eddd fbc
edbc bbbf
edec bcbc
eedebd cc
bbbbbbbbbbbbbbbbbbbbbbbbbbbbbbbb bbbbbbbbbbbbbbbbbbbbbbbbbbbbbbbb
ec febbcc
ef dddc
ef ddbd
bbc eded
bbc bfdc
fc debcc
bec edbf
ebd dbfc
bcc ecbbc
eec efdc
bbd bbdbbbb
bbbe eedc
ebf bddc
ba eebd
ff c</w>
bbbc ebfc
dee c</w>
bbee bbebf
bfc fbec
dbd dbbbe
bbbd dbec
bebc bbbec
bebc fbbc
bbec fbbc
fbc bbbec
fbe e</w>
beec debd
bbbbc efc
bbbbc bbebc
fbd febc
eccc ebec
eebe dccc
bbef dbf
bbef bbed
fbf becc
beebb bebd
eeec bbebb
eeec da
eeec dbec
eebf dbe
ecec bbed
bcbf bdc
edbd bebc
bbeec bbbe
ecdc bfc
ecee ebec
bdee def
bfbc becc
bdbbd bbbb
bf bbebcc
ed fbbdc
ef bbefc
bbc bfebb
ecc bdebb
ecc bcdf
bbf eeef
ebf bebcc
bdc dbbbe
ff ebfc
ff dbdc
bbbc deec
dee eba
dbc edcc
bfc debd
ebbc beebc
dbd bebbbb
ea dbec
bbbd bbfc
bbbd bcbbbb
bbec bcee
bbec debd
bbcc beebb
ebcc ac
fcc ecdc
eebc eedd
ebdc bcbc
fed bcbd
debc dcc
bbef fbe
fbf bebf
beed def
beed dfc
eeec edcc
eeec eebcbedf
decc ecdc
dbcc bebe
febe ba
bcdc bbbb
eeebe ba
bac bbc
eced ddc
ecdd ddc
eddc bcc
eddc dbe
ecbbc bbbb
bedbb bec
bfec bebe
a febd
a bceec
bd bbd</w>
ec eeedcc
ed fbbed
ed fdfc
ed bedebe
ed debbcc
ebb bebbbec
ef deecc
dd bfed
ecc eebbbb
ebd fbdc
eec bcdf
bbd bdebc
bbbe eebbbe
bdc eeebe
bbbc ebbbbbb
dbc dbbf
bfc beebe
dbb ecccc
dec bcee
bebc bbbcc
fbc bcef
bbcc eccc
bbcc bbebe
bbcc fdc
dbf ffc
fec fbe
fec fecc
bbbf bcbd
beec eccc
beec bcec
bbbbc ddc
bbbbc dbf
ebdc dfc
debe bebd
debc dfc
beebb eebc
bdbd bbec
bedc ea
decc bebe
eedc bbd
dbcc bbbc
bedd bebc
bebbc bbbbc
ffc ebbc
fa fee
ecbf dbd
eebbc df
fbbbb bbbf
ebbebb beee
bddc bbbb
edbc ba
edbc fed
ebbee bba
ecbec dee
ebbbc dbf
dced dbe
dced ded
ebeebe eeee
bedbbf cc
ec bbc</w>
ebb dbbdc
ef ebbbbbb
ef edbec
dd bfbd
ebc eca
ebc dded
bec eeef
ecc ececc
ebd ebbed
edc c</w>
edc beebc
edc debf
bbbc c</w>
bebe ebbbbbb
dbb ecbbbc
dbd c</w>
dbd bded
bef bdebb
efc bbfc
debb dbbbb
becc def
eebe ebeebb
eebe efef
eef ebfc
ecbe dbbf
bcf eba
bcf efcc
bbdd dbbc
fbf fef
bbfc bbcc
decc ebbc
dbcc dcc
bced fbc
eebf dcc
bcbf bef
beef bdc
bdec fec
ebbbd dbc
bebbee bbbb
dcec def
f dbe</w>
dc eebebe
dc bbcbbbb
ebe bebbbd
ebc beebf
fc bedbc
bec ebbed
bec dbecc
ebd fbbf
bbd eebbbe
df eddd
ebf bbebd
ebf bebbbe
bbee deec
bebe eedc
bfc dbbbb
bfc fbcc
ea fed
bebc da
bbec ac
debb fbe
bbed dfc
fcc bedd
fbd bbdc
def beee
ebdc fed
bbebe bccc
debc dbf
dfc dfc
dbbbb ff
bdbd b</w>
bedc ba
eeebb bbec
ecec debb
bebbc dbd
bbeec ded
bcdd a
fbbbb ccc
eddc dee
bdec ebbc
bdec bbcc
bdec becc
dcdc ddc
ebccc eec
ebbbc ebcc
ebbbc ddc
eedbbbb cc
a fccc
ed deba
dc bbbbebb
ebe dbbcc
bbc fdbc
ebd bdbe
ebd eedbe
ebd bdfc
eec dcbf
eec bfdd
bbf bbebd
bbf ebbcc
ebf fbbd
bdc eefc
ba bcec
ff fccc
bbbc bcbcc
bbee bbbbbbbb
bbee bdcc
bbee bebcc
bebe eebbbe
bfc fa
ebbc bcfc
bef ecbf
ea b</w>
ea bbbbc
ea eeef
bbbd bbbcc
fee bcbbc
bcbc deec
fbe ebbcc
fec befc
debb bccc
bbed dbbd
eebc bdbd
bbebe eeebb
eecc bedd
bbef fec
bbef fcc
bbebc bbbf
beed beee
eeec def
eeec febb
bedc fbd
decc cccc
dbcc ebf
fef bbcc
bebbc dbc
ffc bcbc
beef beef
eedd fec
dccc dec
fbbbb ff
bbccc bcc
bddd df
bddd bbbd
ebbbc debe
edee ac
ebb fbbef
ef debec
dd efdc
ebc ebbebe
bbc fccc
fc bcff
bec fdbe
ecc beccc
ebd defc
bbd fbdc
bbbe fbcc
dbe eba
dbe bbbdc
bdc eddc
edc ebecc
bbbc bbecc
bbbc ebbebb
bbee b</w>
bbee ebbebe
bfc bcef
ebbc ecec
dec bcbf
bebc ecdc
fee bbbec
bbebb debe
ebec da
ebcc eeed
ac eeee
bebd ecbc
fbd fbe
ecbc eedc
bbdc bbdd
bcf bbebd
bebf fec
bedc eedc
fdd ba
ffc bebe
fa bda
bdcc dcc
ecee dfc
ecee dbbbb
bcbbc dbc
bdbe bba
bddc bddc
fecc eec
bceec df
dcdd ddc
edee bebc
a bebbd
ebb ecced
dc dbbbbc
dc beefc
ebe bcdbc
ebc eebbf
bec bdebc
ecc bac
bcc ecdf
eec bfbf
eec beedc
eec bbbbcc
bbd bcecc
bbd fbbbc
ff bfbf
bbbc ecbd
bbbc bbbbcc
bebe eba
bfc eef
bfc bbbec
ebbc ecebb
ebbc befc
ea bced
fbc eebf
ebec bcebb
bbbf bccc
bbbbc bbbec
ecbe ebbebb
bcf bbecc
bbdd dbf
da bbcc
deec bbf
decc dbd
bebbbb fc
dbdc bdc
bcbbc bbbd
bdbe dbec
ebbed df
bfbc beee
dcbc bbed
edee bbec
abf ac
a bcbec
dc ebeebe
ef ecbbd
ebe ececc
bbc bdf
ecc bebbd
bcc eedbe
bbf bbecc
ebf bcfc
edc eeef
bbbc fbec
bbbc bbcbbbb
dee bdbf
ebbc bcbbbb
dec eeed
bef eedc
dcc dedc
bbbd fdc
fee eba
ebec fdc
ebec ecbd
fbe ecbbc
dbf ebcc
fec fbf
bbbf fbbbb
fcc dedc
eccc eebc
ecbc eebd
fed fbd
bbdc bbbbc
bcf bfbf
da fbd
beebb bcbc
bdbd bcbd
ffc ddc
fbbc bef
eeebe eebeee
fa dcc
bea dbc
bdbf bbbe
bbccc bbc
bebec df
eded bec
ebbee ddc
ecfc dee
dcbd eec
bfec beec
a ebba
dc bebbed
ef ecdbe
ef edebb
ef aa
ebe dbecc
ebe dcebe
ebc ecbbd
ebc bddf
ebc bedbd
ebd dded
bcc bdbc
bcc ebccc
eec ecebc
bbd bbbfc
bbbe ebbbf
bbf bebcc
dbe bebbd
dbe beecc
bdc eded
bebe bebbee
bfc bbebc
ea bcbf
efc bced
fbc bbebc
ebec bbbec
bcbc bced
ebcc eedd
fbe dbbbe
fcc eeee
bebd bbef
bebd fdc
def bbbf
def fdc
dbbc bbbf
debe ebcc
da ded
deec bbec
debd bbbc
eebf bbd
bedd bbbd
bcebb bdc
ffc efc
ffc dbf
dbdc bcc
bcef dee
eebbc bbbd
bdebb ccc
dcbd ebdebbcc
dcec bbec
bfec dbd
bbbb ebbbd
ebe dcbbc
ebc beedc
ebc bcedc
bbc ddcc
bbc ecbbbb
fc dfcc
bcc ecfc
bbbe bcbbbe
ff bcbec
dbc d</w>
dbc dedc
bebe bebbd
ebbc edbd
ebbc ecbf
dbb ecdec
efc bebbc
fbc fa
bbcc dfc
bbebb bccc
ebec bbebc
bcbc fef
bcbc befc
debb bebf
bbed bcec
fcc febc
beec bbdd
eeee beebf
bbbbc edc
eebc fdd
def ecbc
bbdc beed
bbef bebf
beebb fbd
bbbbbbbb bbec
bdbd bef
ecbd bbec
dbbbe bec
fbbbb fbbbb
bbebf bbf
dcec ddc
edec bbf
edec bebc
bebbebb bbbb
a ecdf
bc ef</w>
bd dbbbdc
bf fbecc
bf fdef
ef bbbbcc
ebe dcdd
ebe beea
dd fbbbe
ebc dddc
bbc eedf
ecc bdbc
bbd bddbe
df dbbbe
edc d</w>
edc fbbd
ba dfc
ccc bcbd
bfc fdd
dec fbbc
dbd eebe
dbd eef
dbd bcbe
ea eef
bebc fdd
efc fa
fbc bcfc
beee eecc
beee eef
fec fef
fec febc
bbed bbdd
beec bebbc
bbbbc bebf
eebc edbd
ecbc ac
ebdc ba
debc ebec
bcf b</w>
bbebc bef
beed fed
eeec ecbc
bebbc bcbc
beebc bec
bdee dfc
bddd bdc
efcc fc
bdec bebd
dbbee dbe
eea fee
feec bbc
ddbd bdc
edee ebbc
a febf
a fdee
dc bedbf
ef bcdbc
ef eda
ef ebbfc
ebe bfbbbb
ecc dddc
bcc bbbdc
bcc beecc
bbd dced
df dcdc
bbbe eced
bbbe dbbbc
bbbe bebbee
ebf bded
bbee bedd
dbb effc
dec bbbec
dec bebcc
bebc edbd
efc dbcc
fbc bebbc
bbebb fed
bbebb bcec
ddc bced
bbbf debe
bbbf bcbe
bbed bbebe
fcc fbf
def fbe
fed deec
bbdc dbbbb
dbec fee
bcec decc
beed dbf
beed eebc
eeec bbed
bdbd fee
eeebb ebbc
bcebb debb
ffc edc
febe ebc
eedd ded
ecdc ebf
dbbf dee
eced ff
bdbe dbcc
bdbe bbeec
bea bbee
ecdd bdc
eddc ff
edbc eecc
ecef dbe
ebbbc eeee
dcec bbf
edee ded
edee fee
bbdbd bbbd
a ebbebb
a bebbbe
bf bedcc
ebc ececc
ebc bedec
fc bcccc
ecc fbbf
bbbc fa
bbbc febc
bbbc ecebb
bbbc bcdd
bbbc eebbc
ccc bcee
dbc dccc
bebe ecbf
bfc ebfc
dec edcc
dbd bbebe
dbd befc
dbd bcdd
ea fdc
bebc eebe
efc fecc
fbc bcbe
fbc bdbd
fbc dedc
beee ebdc
bbebb eeebe
ebec fbf
bcbc b</w>
ebcc bced
dbf bced
fcc fbe
eebd ebdc
dfc becc
dbbbb bcbd
bcbd eebc
beebb bebbbb
beed debe
bebf efc
bedd bbf
ffc def
bcdc fec
ebbcc dee
fbbbb bcc
eddc bdc
eddc dcc
eebbbb bbee
febd bec
edbc bebd
edbc def
ecbec dbe
ecdf ecc
bfbc eebd
bbcbd fee
a bebbf
a fdbe
bd ebb</w>
ed debecc
ebb bbeecc
ef ebdcc
ebe efebb
dd bac
fc dded
eec dcec
eec dddc
df fbbf
bbbe bbbbbbc
bbf bdef
bdc bebbbb
bbbc bcef
dbb ebcbbc
dbb abd
dbb abbbb
ea eeebe
bbbd bcec
bbbd bdebb
fbd dbec
def becc
bbdc bedc
debc bedc
bbdd bebd
bccc ba
beed eedc
bbfc ba
dbbd bfc
bbbec bfc
bedd ebbc
eeed dbbc
bdcc bbbe
bea dee
eebbc bec
ecbbc bcc
edbc debe
fbbbe bbbb
bcbbd bbc
dcbc dbf
bcdbb ccc
a ecbec
a eceec
dc bebbcc
ebe dcebb
ebe eefbe
dd beccc
dd bedee
bec bcecc
ebd dddc
bcc fbbd
bbd bdf
bbd eedf
dbe fbcc
ebf bfbf
edc eeccc
ff fbbd
bebe befc
bebe bcbec
dbd ecbd
dcc eced
beee bced
beee eebebe
bbcc febb
ebcc ecbe
fbe c</w>
dbf eecc
bbbf da
fbd eeee
eccc eebd
fed ecbc
bbebe bcebb
debc debe
bccc ccccccc
dbec bcbc
fdc bbec
deec decc
febb ded
eeec ac
eeec eebd
ecf efcc
fef fec
fdd bef
bcbf fcc
dedc eedc
edcc ebe
bcdc bbf
bbeec eec
dbdc ded
bded bbf
bcebe fc
fbcc df
eddd dbe
edbc ebec
ebbee bfc
ebbbf bbbe
ebbbf ff
dcbd bdc
eebbbe bebe
dcbc eebd
bccbcc bccbcc
be dbe</w>
ed fedcc
dc fbbbd
ef f</w>
dd deecc
ebc bbbbcc
bbc ebbed
bbc eeecc
bbc bbbbebb
bec bdfc
ecc ecdbe
bbd bebbee
bbd bddf
ebf fdbe
ba dca
bbee ecbe
bebe ebbebe
bef bfcc
efc bdcc
fbc bbdd
beee bbfc
ebec dbbbb
ebcc bbdc
fbe bdbbc
bbbf eeee
bbed da
fcc debe
beec eeee
eebc bbdd
fbd bccc
fed eedc
eef c</w>
ecbe eba
bcbe edbd
dfc ecbc
bcbd dbbc
bcee bbecc
fbf ebd
fbf debb
deec ebcc
bebf ea
bebf fdc
dbbd ebbc
eeed ebbc
bbeec debb
dbdc dee
bded bbbb
bbbdc bbbd
bebcc bbbb
fbbd fc
bfbc bbebb
dcec ebd
dcee beec
eedbb ccc
bbfef ebfc
a ecee
ebb dbbef
dc fdef
ef fea
ebe ddbd
ebe bfa
ebc bcccc
ebc efdd
bbc dced
bbd ebbebe
ebf bcebe
bdc febd
edc dced
ba bdcc
ff bcebc
bbbc bebbbc
ccc ecbc
dbc eeef
bbee bbbcc
bebe bdbf
bebc bcf
efc bdbd
bbec bbfc
bbebb bbbbbbc
ebec bebbc
dbf eccc
fbd bbef
eccc ba
bbebe fbe
eebe edbf
eef bfbf
eebd bbebb
dbbbb bcbbbb
bcbd bbbf
bcbd fcc
beebb bfc
bbbbbbbb bbbcc
deec eedc
deec bedd
fef fcc
ecdc bebe
fa bbbc
febc dee
bdbe debd
fbbbb fc
ecfc df
eebbd bbbb
edec ff
be deb</w>
dc fbecc
dd bdfc
ebc bdf
ebc fbfc
ebc dcfc
bbc eebbf
fc ecbcc
bec ddcc
bcc bebbf
edc bcebe
dbb becbbc
dbd bbfc
efc bfcc
bbcc bebf
fee fdd
bcbc debc
bcbc bbfc
ddc debc
dbf dfc
fec fdd
bbbf bcebb
eeee dbbc
ac eebc
becc debe
fbd b</w>
ebdc fdc
fed bcec
bcf dccc
dbec ebcc
bbebc bbbbc
bba dcc
febb beebe
eba bbbd
decc dcc
ebfc ebf
ecf e</w>
ecf dbbd
beebe dbc
ffc ba
dedc bebc
bbeec dd
dbbbe bdc
febc fec
bdbe bbfc
bded bef
ebbcc bec
bbebf bebe
bddc dec
bdec ba
bcfc dbe
eddd dcc
fbbd bbf
bedbb ebd
edec fcc
a fda
ec ef</w>
ed bbebdc
dc bbfcc
ebe acc
ebc edbec
bbc dddd
bbc bedbc
fc efdc
eec bbedc
bbd bcbbbe
df efcc
bbf bebbd
dbe ecbbc
edc bdbf
bbbc bcebe
dee eebbc
bfc feec
ebbc bbbbbbbb
ebbc fef
dbb dcbcc
ea bbdc
bbbd eeed
fbc eedd
bbcc b</w>
ddc ecdc
debb bcec
bbbf bbbec
bbbbc fec
eebc fbbc
bebd ecbd
bebd bedd
bbef beebb
dfc eebc
dbbbb debb
bedc beee
eedc bbbd
bebbbb bcbbbb
edcc fbd
ecbf ebf
febc dec
bcef bec
ebbcc bbbe
bdee eccc
bdec dbf
ebecc edc
ebbee dbbc
bfbc ebec
fbbcc fee
ebbbbd bbbb
ecced ccc
bbbedfcfceebcbfdbbbb efcbbebdeecbf
ed fdebc
ef bbdcc
ebc ebbbec
ecc eddf
bbf bcdd
dbe bceec
bbbc bbcbbc
ebbc b</w>
ebbc eebe
ebbc bbebd
dbd eebf
bbbd bebbc
ded ecbd
fee bcee
bbebb eecc
bbebb fbbc
ddc bbebb
dfc ebcc
bcec dfc
beed da
beed beed
febb debb
febb beebb
dbcc bbbd
fef ecc
bbbcc ebf
bcbf ba
ffc beec
dccc ddc
ecbf ddc
ecee bbef
eced ebd
eced fbc
beebc bbbe
bddd dee
bddc dbe
bddc dbc
bdec beee
bfbf bfbf
bedf ccc
bfbd dbc
ebbebe bebe
eebebe eeee
bcbbdd cc
bd bbebfc
ec bbe</w>
bf eefbe
ef ebbee
dd fdbd
fc ecdf
fc beff
bec bebbbc
bcc bdec
eec bca
eec ecfc
eec bebbee
eec eebbd
bbd bfdd
bbf edbf
bbf eebbee
edc bcbbc
bfc bcbe
bfc beef
ebbc bcebe
bef ebfc
bebc befc
bebc bcbbbb
ded fbf
bbec dbbbb
ebec bcbbc
fec bdbd
fec ecbd
debb bebbbb
beec beebe
eeee bebd
becc bcec
debe fec
debc fbe
eebd fbf
eba dbe
bbbec dbd
eeebb ebc
eebf fef
ecec deec
bcbf ebe
ecdc fec
dccc dbe
bbecc ecc
bac df
ecebb a
fbbbb bbee
fecc ecc
eefc ff
fedc dd
fdbb ebe
bbbebbbb bbbe
eebba cc
bbdedc fbebcc
bf bbdbf
dc fea
dd ecfc
bbc fbebe
bec bdbc
bec ecef
bec ebbbbc
ecc eea
ebd bebbf
ebd bfbd
ebd eedf
eec ecbec
eec bedbd
bbd ebccc
dee beef
bfc bbbcc
dbb ecded
dbd bbef
dbd eeed
bcbc eccc
ddc da
dbf beebb
dbf febb
debb eedc
bbbbc beed
fbd ac
ecbc ea
fed bbdc
dbbc ebec
bccc eecc
bcbd b</w>
bbbec bbcc
decc ebf
eedc fee
fdd fdc
eebf bebc
ecec fee
ecec eecc
beebe bebf
ffc becc
eedd efc
dbbf bbbe
fecc dbc
bebbd bbf
dcdc dbd
ebbbd bdc
bfed dee
edebb ccc
bebbecc cc
eebbebbfed edcfcc
a dddd
ee ebd</w>
bd debecc
bbbb bdef
fc fbbbc
bcc fdbc
eec bdfc
bbd bedbb
df bbecc
ebf beebc
edc bbbcc
ba dea
dee befc
ebbc eebbc
dbd febe
dbd eedd
bbbd fbbc
fbc decc
fbc debd
bbebb bbbcc
fbe edbf
fec bbfc
bbbf bcbbbb
bbed deec
fcc eebf
bbbbc bebbc
becc bbebb
fed bbed
dbbc eeee
dbbc beed
debe bccc
eef ebbef
ecbe bba
ecbd dbf
bcebb becc
dedc bcc
edbd fbd
fa dee
ebbcc dbc
bdec fcc
eefc dd
bcbec df
ebbbd ff
ddbd ded
eddee ccc
bbbb bfbbc
ebe bddbe
ebe eeba
ebc ebbec
bbc bb</w>
bbc bcebd
fc bdee
fc bfebb
bec ecbec
ecc dddd
ebd fdbc
ebd efdc
bbbe bfbf
bbbe fbbf
bdc bebec
bebe bcebc
fee bdbd
fee bcdc
bbebb bdbd
ebcc debc
ebcc bbef
bbbf fef
eeee eefee
ecbc bdbd
bbebe bebbc
dbbc bbdd
eebd bedc
da bef
da bfa
dbec ddc
ecbd beec
eeebb dbf
eeebe bbebb
dbbbe a
eced ded
eeef fef
eebbc bdc
bcebe bcc
bcfc bbf
eddd ddc
ebbbc efc
ebbbd ccc
dcbd bcc
dcbc bbbd
bbbbbbbe bbbbbbbb
bcda cc
f bbf</w>
bf debdc
ebb fbbdc
ef bcbdc
ebe bedee
ebc bcdbc
fc bedcc
ecc beeec
ebd bcbcc
eec ecbcc
bbbe fbbbe
ba bbfc
ba beef
bbbc ecec
bbee ebeebe
bef eea
beee bebbee
fec bdcc
eebc decc
eebc ffc
eebc febc
becc ac
fbd ecbc
eef ebbcc
eef ebbebb
eebd ebec
dbec bbed
bba eba
bedc eccc
dbbd bcbc
ebfc eec
eeebb bbef
bcbf bbec
edbd ddc
bcdc ef
bded beec
debf fc
fbec bbf
fdf dd
bca ccc
dba a
ebbbc eebc
bdbbbb dd
bfed dbe
eca a
bf febec
ed bbbebbbb
ebb beac
bbbb beeec
ebe bfdd
ebe bcbdc
bec bdebe
ecc ebbebb
ebd ecef
df eeebe
df bea
bbbe bddc
bbbe fbbd
dbe dcdc
ebf bcebc
ebf bebbd
bdc ecebe
edc bbeec
ff eeec
dee bddc
dbc bcef
bebe fbbbb
ebbc dbcc
ebbc bdbf
dbb ecbebc
dbd bebbc
bef edcc
bef bbeec
dcc da
ea eeebb
bbbd deec
bbbd beebe
efc fdd
bbcc bcebb
ebcc bcee
ebcc bdbd
ebcc edbd
fbe ecf
becc ecbd
def debb
eebe debd
eebd bbbf
dfc efc
bba bcbc
bebbbb ebbbbbb
dedc dbc
bbecc bbbb
bdcc bbf
bcbbc bbbbc
ecebb bcc
bbbdc bbbc
fecc dbe
eefc a
eded bdc
fedc a
dcbd ddc
dcec bebc
dcec fee
ebbec bbee
bbbbbbbbbbbb bbbd
feba cc
ecdebd cc
ebdcedbbec beebf
ee ebe</w>
bf eeedc
bf fdebb
dc bbebcc
ebc eedbc
bec bdee
ebd bdee
bcc eba
bbd eeebd
bbd bebbbd
bbf bbccc
ebf bcdd
edc defc
dbc eeeec
bebe bbeec
dbb ecdbd
bef bded
bbec da
bbec beecc
fbc ecec
fbe ecef
bbbf ddc
fcc bcbd
ac dfc
bebd ebdc
def bced
fed beed
bbebe bbef
bbdc fed
debe ebec
debe dbbc
eef ebeebe
eef bfebe
bbbbbbbb bbee
bba bfc
febb fbf
bbfc debb
dbbd d</w>
decc bbf
fdd fbd
bcebb bbbbc
ffc bbbc
eedd eccc
bcdc edc
dbdc dcc
bfcc bfc
ebbcc ebd
fecc dec
bdec bbebb
ebbbc becc
dcbd dec
bedbb bdc
bfec becc
ec bbebecc
dc bedebb
ebe bebbec
ebe dcfc
dd bfdd
ebc dea
bec ecbbbb
ecc bfed
ebd bcecc
bcc ecbec
bcc bcdf
bcc bfdc
eec bceec
eec dded
bbd bbdcc
bbbe eea
bbbe bdbbc
edc dfcc
ba bebbbb
bebe eebbc
dbb ebcebb
bebc beebc
ded ecec
bbec befc
beee dbcc
beee bebbf
fee bebbc
ebec fbbc
ebcc bbbbc
bbbf fed
bbbf febe
fcc bcbf
eeee bebbee
ac bccc
bebd bebbbb
def ebcc
ecbc ebdc
ecbc ecbd
debe bbebb
eebd ecbd
bcbd bbebb
beebb dec
bebf bbebe
bbfc bbed
bedc fdc
decc ebcc
bced ddc
eeebb bfc
bcbf fbd
eeed fbc
bbebd dbd
edcc fec
eedd fdc
eeebe bbc
ecee bbebc
bdbe eccc
eddc dec
fbec dbe
bebbbe bbbc
fbcc bec
bcbec dee
fdbe a
eebec df
dbbcc ccc
bfbd bebe
eedf ccc
dcbf ff
ecda cc
a fbbbe
ebe eeecc
dd bbedc
dd eeccc
ebc deecc
ebc fdbd
bbc bcdee
fc bdebe
fc fbfc
ebd ecebe
ebd bebdc
bcc bbebf
bcc bceec
bbd edbbc
bdc ecef
edc eeebc
bebc edcc
efc ecdc
fbc ecdc
beee fbbc
fcc bbdc
ebdc dbf
bbef ded
dbbbb bbebe
dbec bebd
bcbd eeee
bcee bbdd
bbfc bbebb
bedc debc
eedc fdc
debd eebc
bbebd ccc
bcdc beec
dbdc fec
dbbbe bbd
bac fa
bcdd bdc
fbbbb dd
bebec dee
edbc ea
eded bbcdbf
ebbee dec
bdbbbb bbebb
bfec debb
eebeee bbee
bbbbbd bbebb
dcee ded
ee df</w>
bd dbbeec
ec bbefcc
bf befcc
bbbb bedf
ebe ecdbe
ebe eddf
ebc ecccc
bbc defc
bbc bdebc
fc eeccc
ecc bca
ecc bdebe
ecc acc
ecc eceec
bcc eea
df bedf
bdc bdebb
edc dbfc
ff dbbf
ff bdef
bbbc bbccc
bbee eebbc
bebe bebbf
dcc febc
efc bcbbc
bbec bbbcc
fbc befc
beee bbdd
ebec bcbe
bcbc bebbc
ddc febb
fbd febe
fed ebcc
bbebe debb
eecc edbd
eecc ecdd
ecbe bbbcc
bbef bebd
dbec bbbd
bcbd fed
bcec eccc
deec fee
deec bcbc
deec da
eeec ebec
bdbd bfc
dbbd bbbbc
eedc ea
dbcc fec
ecf bbbcc
ecec bebd
bedd bebe
eeed debb
beebc dbe
bcef dbc
edbf fcc
bd fcccc
bf eb</w>
ed ebac
ed deac
ebe eebbebb
ebc edebb
bbc bdbec
fc ebbbf
fc fdee
bec fbbbe
ecc d</w>
ebd edbc
ebd ebbbf
ebd bfed
ebd edbbc
bcc ecf
bbbe ebbbbc
ebf dbbf
ebf dccc
ebf eea
ff eea
bbbc edbd
bbbc eedd
ccc ffc
dbc bddd
dbc bcebe
dbd decc
bef eebbc
ea dea
bebc bba
ded bded
bbcc fbe
bbcc bcbf
fee bcbe
bcbc bbbec
bcbc fdd
ebcc bebf
dbf bcf
eccc bbed
eecc dfc
debe efc
debc bbdc
bbef febb
beed fbd
bdbd bebd
eedc bbee
ecf dccc
eebf bfc
beebe bebc
ffc bbbe
bbebd bbebb
beef bbbf
bbeec bbf
dbdc ddc
dbbbe df
ecee ebdc
bfcc dee
bebec dbe
fbcc bbc
fbcc dbe
feec dec
bfdc df
bfbc bbbbc
dcec fec
fdbb bec
bcdbbbb cc
dabca bdbf
a efcc
ee decccc
ef eedbe
dd bcbcc
dd eeecc
ebc bbba
ebc dbbcc
ebc dcef
ebc edebc
fc dddd
eec bbebf
eec bdebe
bbd edebc
ebf bebbf
bbbc eebbbb
dbb ecbebe
dbb ecbef
dcc beebb
dbf bcec
bbbf ecbc
eeee ebbc
ac fbe
fbd fdd
def bbed
bbebe bba
debe ecbc
eebd bbdc
eebd debc
bcbd becc
bbfc fcc
eedc bbbe
debd bcc
debd debb
beebe dd
fbbc bebc
ecee da
bdf dbdc
eeef df
ebbebb a
bddc bdc
bddc dbd
bebcc bbc
edbf dbe
bedbe bbc
ecef bcc
ebbbd dec
dcbd ded
efbf ccc
ebbec ff
f dbc</w>
bd eacc
bf dbbbd
bbbb fdf
bbbb ebbed
ef bcbbbc
ebe ecccc
bbc ecbcc
fc dbbcc
bec bfebb
bec bdbec
ecc bfbd
ecc dfcc
eec fdbc
bbd bbdbd
ba eeed
ff d</w>
dbc bebbbb
dbc fbec
bbee bcf
dbb becbf
dbd ecbe
dbd bdbbbb
bbbd bcbbc
bebc febe
bebc bcebc
ded bcee
bbcc eebe
fee bced
fec bcee
beec eedd
ac fed
eebc eebf
eccc fdd
eecc bcec
eebe ebfc
eebe efebe
eef ebbbf
ecbe b</w>
eebd fed
bbdd bbdc
dbbbb bbbbbbc
bcbd bbdd
bcbd fbf
beebb ebec
bbebc edc
bbfc dcc
cccc eec
eedc ecbc
ecf bba
beebe dbe
bebbc bebbc
bbecc bbc
bded bebc
ecebb df
ebbcc fbc
dcdc dec
ebbbbec eebdc
ececbd cc
a beecc
a efa
f dbd</w>
bd bbcccc
bf eedee
bf fbbed
bbbb eebec
bbbb edebb
ebe bdbcc
ebe bcdec
dd bdbe
dd fdcc
ebc eddf
fc bbbfc
fc dcef
bec bdbbbb
bcc bcbbd
eec fbbf
bbbe bac
bbbe bcbbd
dbe beebd
edc beecc
bbbc dbdc
bbee befc
bfc eebbc
dcc bcbf
ea deec
ea febe
ded ecdc
beee eebbee
bbcc bcbbc
bbebb fef
ebec dbcc
ebcc dbec
fbe debf
fcc bdcc
eeee bebbbb
ac bbebb
ac ebec
eccc dbf
eef ebbebe
dfc ebec
bbdd fec
bbdd becc
da bbec
bccc eeee
bccc fbd
bbbbbbbb bcc
bbbbbbbb fbbbb
bedc debe
dbbd edc
ecbd bcbc
eeebb ebd
ecec dfc
bcbf bbd
bedd ef
fbbc efc
bdbf dee
ecdd dec
eebbc dec
fbec dec
ecebe bbc
beff ff
dcbc bebd
ebbec beec
ebb fdef
ebb fdbbc
bbbb febd
ebe dfcc
ebe fdcc
ebe eebbebe
dd acc
dd eceec
ebc bcbebe
bbc febf
fc febf
fc ececc
bbd bbbbebb
dbe c</w>
dbe ecbec
ebf ecebb
ba cccc
bbbc eced
dbc bbebd
dcc eddd
ea bdbd
ded bbbbc
ded bcf
ded befc
fbe bac
bbbf ebcc
bbed bebf
bbed bebbc
beec bcbe
eccc ecbc
eebe bfef
bbdd bddd
da bebc
fdc ebec
deec bbcc
bbfc fec
dbbd ea
ecbd def
ebfc fbc
dbcc fee
bedd efc
bcebb ebd
bcebb edc
bebbc ebf
dedc efc
edcc eecc
fbbc ecc
fbbc fec
bbecc a
bdbf bcc
efcc fbc
fbcc bbf
bfbc eecc
dcbc beec
ecdbe ccc
fcfc fcfc
ebbbcdc debe
a bcecc
ee bbbb</w>
bf dbbbbc
ebb bbbbbbbbbbbbbbbb
bbbb bebbebb
ebd ebbebe
df ecbec
bbbe bbbdc
bbbe ecbbc
bdc debf
edc efdc
bbbc dbbbc
bbbc bddd
bbbc bdebb
dbc ebfc
bbee bcdc
bebe bfcc
bebe ecebb
bfc eebf
bfc bcbbc
dbb ecedc
dbb fcbbc
dbb fced
beee beed
ebcc febb
fbe dced
bbbbc bdbd
bbbbc bcebb
bbdc bbbf
debe bbed
bbdd ebec
dbec ecbc
beebb beec
eba bebe
bbbec ba
decc bebd
ecbd ba
ecbd fdc
dbcc bef
ecf dbbf
eeed bbec
eeed fec
dbbf bdc
fa fbc
bdf deec
ebbcc ff
bedbe bbbb
bdbbc bbc
dced bec
fdbc df
bbbbcc ccc
bcccc bccc
dddc ddc
ddbd bbbd
a bbbdc
a dcdc
bf be</w>
ef bebfc
ebe bb</w>
ebe beebbc
ebc fdec
bbc bfbbc
fc fbbbe
fc bfebc
ebd ecbcc
eec eebec
bbd eeecc
dbe eeebe
edc eac
edc bdebe
bbbc bbbdc
dcc eef
bbbd ebdc
bebc dbdc
bebc eebbc
bbec bcbe
beee fdc
bcbc ebdc
debb eccc
beec fbe
eebc bbfc
bebd eedc
bbebe bebbbe
debc fbd
bbdd efc
dbbbb beebb
beebb debb
beebb beef
bbbbbbbb bbbbbd
bba bda
febb bbbbc
eeec fdc
eeec debd
bedc bcbc
cccc ff
ecbd ebec
fef dbd
fef ddc
bbebd ff
fbbc bbbd
eedd fbd
bbeec dbc
bdf decc
bdec fbd
bfbf bbbb
fbbf ff
ebbbf bbf
eca ccc
dcbc ba
dcbc debe
edec bbee
dbbbd dbbbb
eebbdd cc
bbdbbcc bdbf
bc ebe</w>
ec bbd</w>
bf eebfc
dc febec
ef ebbbc
ebe dddc
dd bfef
ebc bbebec
ebc bbbbebb
ebc febbc
ebc dcebc
fc bcbbf
ecc defc
ecc bebbf
bcc bebbd
eec beeec
bbd beff
bbd bfbbbb
df bca
df dcef
ebf bbecc
ebf fccc
bdc eeef
bdc dddd
edc fccc
dee dbdc
ebbc dbbbe
ebbc bdebb
bef bbecc
bef beebc
ea bcee
bbbd ecbc
bebc eeebb
bbec bdbd
bbec bcbbc
beee bebbc
eeee becc
fed ac
dbbc becc
debc beee
eebd bbed
eebd edcc
bbdd dbbd
da dba
bcec bbdc
eeec dedc
eeec fa
bbbec bbbbc
decc bedc
ecec debe
eeed dbf
eeed beec
bcebb bcbc
bebbc bbbf
bebbbb ba
dedc dcc
edbd debb
bcdc ebf
eced bbcc
bcdd ddc
eddc dbd
bdec efc
edbc beec
edbc eeee
edbc ecbe
ecdf dd
ebbbd bbebb
dcbc fcc
edec bbcc
a eded
a dced
bf febcc
ed eeeecc
dc febcc
dc feecc
ef fcdc
ebe eedf
ebc bdbbd
ebc bcff
ebc eebbbc
bbc bda
bec dcec
bec ebbdc
ecc bdee
bcc bfed
bbd bffc
df ddcc
ebf bcbbbb
bdc eba
edc dbbf
bbbc bebbd
bbbc eeebc
dee dbbbe
dee eeccc
dbc eeebc
bbee bebec
bebe bbebd
dcc bbef
dcc edbd
dcc bdcc
ea dbbbb
bbbd fbbbb
bbbd bddc
bbec eeebb
beee fbbbb
fec bbbbc
fcc ac
eeee fa
bbdc bdbd
ecbe dbbbe
ecbe bbecc
bccc dbf
dbec fbd
fbf bebd
bbbbbbbb bbbebbbb
dbcc ecc
beebe bbbf
febe dbe
edcc ddc
eedd eecc
ecbf bfc
bcef fbc
bcebe bbbe
edbf dd
fdbb bdc
edec bef
ebbec ebbc
dcee bcbc
dcee def
a bdbc
a bedf
a ebbbf
bf bedbf
dc bbbecc
ef edfc
ef eeba
ebc bfef
bbc edef
fc dea
ebd bbebf
eec bdebc
bbd eceec
bbbe beebd
bbf dbdc
edc bebbd
edc eedf
bbbc dbbf
dee dced
dbc beebc
bbee fdd
ebbc fbec
dbb dcdf
dbb fcfc
dbd bcee
dbd fbbc
dbd dccc
bef decc
ea ecbc
efc feec
ebec bdbd
ddc dbbbb
fec bcf
bbed bbebc
fcc bcec
eeee ebeef
eebe ebba
debc fcc
dbbbb fbc
bcec fdc
deec ecbc
bba bef
ebfc fcc
beebe fbc
bedd ddc
bebbc bebd
ffc debb
dedc fbc
edcc eccc
eedd bbbb
ecdc ecdc
bdcc ded
bdbc bbebe
bcbbc bebc
eced bbee
bdf bbeec
bdbf bbc
bcdd bec
ecdd ebd
fbbf ccc
bdef dd
bceec dec
bfbc ddc
dcdd dcdd
dcbc bbcc
bfec bbec
edec bbbd
bbbcbbbb bbbcbbbb
bceeefcfeccefebbc ecebcddbd
a dcbf
ee bbbbbbbbbbbb
bf dbccc
ef beea
ebe bbcbf
bbc ecdf
bbc beff
fc dba
bec ebbbd
ebd bdbbd
bcc beccc
eec eedf
eec bcebd
eec bcecc
bbf decc
bdc bedf
edc bebec
ba e</w>
ff bbecc
bbee eebbbe
dcc bddd
ea bcf
bbebb bcbe
bbebb eebf
bbebb beef
fbe efcc
debb beed
bbed bcebb
eeee bbed
eeee eeebf
eebc bbef
bbebe dcc
bbebe bbebc
bbdc def
eebe eddc
eef bbebd
bbdd ebbc
fbf ded
eeec debe
bbfc ebec
dbcc ddc
eebf fbf
bcbf bcbc
edcc bebe
bcbbc bbebb
bcbbbb dbe
bcef ff
eddc bbc
fbbf bbf
ebbbc dbbc
bcbcc bcc
ebeebb bbee
edee becc
a eedf
bf bebecc
ebb bebbdd
bbbb eeef
ef efdc
ef fdbb
ef ecebd
dd dbfc
dd bcebd
ebc dba
bbc beccc
bec efdc
ecc fbbbb
ecc bcccc
ebd bbedc
eec beebf
bbbe bbebbc
ebf eedd
ebf bbeec
ebf eebbc
bdc d</w>
edc bcebc
bbbc eefc
dee fbbbb
dbb efed
dec beef
ea dca
beee bcbe
beee bbbec
beee ebbebb
bbcc dbbbb
bbcc bbebc
fee bbdd
fbe bfef
beec bced
ac bbed
eebc debd
fbd bbbbc
eecc ffc
eebe bfebe
bccc ecbc
beebb ebcc
beebb eebd
bbbbbbbb dbe
bbbbbbbb bdbbbb
deec bbd
bebf dbf
eeec bbdd
eba bda
eedc eedc
bbbcc bef
beebe edc
bebbc ebec
edbd fee
bcdc bef
bea fc
bdee bbebc
bebbd bec
eea ccc
ebecc eec
ecef fc
ebbee beec
bfbd fbc
dcec becc
ed dbba
ebb feccc
bbbb bbdbd
ebe fdbd
ebe dcbec
ebe bbbebbbb
bbc beebf
bec eddd
bec dcbd
bec debcc
bec bcccc
bcc bebbbc
ebf febd
ba dbbd
ccc c</w>
bebe bcebe
dec bfcc
dec eebbc
dec bcebc
dcc e</w>
bbbd debd
bebc bcdd
ebcc eddc
debb def
debb ebdc
debb bced
bbbf bba
bbbf fbbc
fcc fbbc
bebd b</w>
dbbc fbd
eebe bbecc
bbef beebe
da fec
dbec ba
fbf febb
beed fdd
febb eebc
bebf dcc
ecf ebfc
bbbcc bfc
ecec fdc
bcebb bfc
eeebe bcc
bdcc bcbc
bdbc bbef
bebbd ff
edbc becc
bdef df
bfbd fc
dcbc fed
dcec dbf
dac ba
bedbb ecc
bfec bbbd
edec bbbc
ebebd ccc
a beba
be bbeb</w>
bd bf</w>
ed bedbec
ebc ebbdc
ebc eedcc
bec bbebbc
bdc e</w>
bdc ebecc
bbbc bdbbc
dbc feec
bfc bdbf
ebbc decc
dec bdbf
bbec eedd
beee bcbbc
ddc eeed
bbbf beebe
bbed ffc
beec bfcc
def bbebb
ebdc ea
dbbc ebcc
bcbe ebbcc
dbec bedd
bcee debd
bcee dccc
beed bbebb
febb bbebe
bced bbebb
fef fbf
fef beef
bbbcc ebd
fdd fcc
edbd fcc
edbd debe
bdcc fcc
febc bbec
bcbbc dbd
befc fec
beebc a
beebc eec
efcc a
fbcc dee
bdebb dd
bebbd bebe
debbc bbbb
dddd dbc
bedbe bbbe
ebbee becc
ebbbc bbbec
ecbbbb bbbe
dcbc becc
dcbf ccc
ebbec bbebb
dcee bebc
ed dbbebc
bbbb bcbbf
ebc ebbef
bbc ecdbe
fc bdbec
bec bebbee
bec fdbc
eec debec
eec deccc
bbd fbebe
df dedc
df bbccc
bbf dbbbc
ebf fbec
ebf eebbbb
bdc bcebe
edc bcfc
ff eeed
ff dcdc
bebe fa
dec beebd
bef ecdc
bef dbbf
bebc bebbbe
efc edcc
ded bdbbc
fbc fbec
beee bbbcc
bbcc bcbbbb
ebec eeee
ddc ecbc
ddc edbbc
eeee bebbf
eeee eebef
ecbc febb
bbdc dfc
dbbc b</w>
dbbc eecc
dbbc dbbbb
eef dedc
ecbe bbebd
bbef becc
eebd ebbcc
dfc ba
dfc bbed
dfc fed
beebb bbef
deec fbd
febb bebf
febb eeebb
ecbd bbcc
bced ba
fef ebd
fef edc
eebf bbbd
bebbc debb
ecee efc
bdbe eba
bea fee
ecdd a
fbbbb bbcc
bdee fbe
fbcc fbc
edbc eccc
ebccc dd
ebbbbbb bbee
bfdc ff
bdebe ccc
dfcc ccc
efbd dee
f dec</w>
bbbb debf
ef bedee
ef fded
ebe eebdc
ebe edbec
ebe eda
ebc debcc
ebc bebbec
bbc edbbc
ecc eebbd
eec eedbc
bbd beedc
bbbe ecdc
bbf bddd
ebf b</w>
ebf fecc
ff bdebb
ebbc ecdc
dbb ebced
dec bcbbc
ea eecc
beee eea
fee beed
ebec bbbcc
fbe bdbc
beec fdc
beec eeebe
bbbbc becc
bbbbc bbef
eebc dbcc
debc bbed
bcbe edcc
eebd edbd
dbec ea
bcbd bbdc
bcee dbbbb
bcee dbcc
bcee bbebd
deec dedc
eeec deec
bbfc bbbf
bedc ecbc
ecec beee
bcbf fee
bedd bbbc
ffc ebf
bebbbb dbbbb
fbbc bcbc
befc dbc
eefc dbc
ebbbbbb bbf
ebbbd bebc
bfbd bfc
dcbc ebbc
bbdcc ccc
bedebf cc
ed bedebc
ebb dedcc
dc bbded
bbbb fdbe
ef fdbf
dd ebbbf
ebc efbf
ebc fbebe
bec bbcbbc
eec bdef
eec ebdcc
bbd fdec
df bebcc
bbf febd
bbf fbbbe
edc bbbec
ff ecef
dec c</w>
dec e</w>
dec beebe
dec dced
ded dbdc
beee fed
fee ebeebe
ebcc bcebb
ddc bcec
fec bbdd
debb ac
debb fdc
bebd fbe
fbd cccc
def eebc
ebdc bcbd
bbdc bccc
eebe dbbf
debc bcbd
bcbd dbbbb
bbbbbbbb bbdd
bbebc fec
bba bbba
bebf ebcc
eeec dbcc
bbfc bebd
bdbd dbf
bbbcc fbc
fdd bbcc
bebbc ded
febe beebe
eced bbbe
bdf eba
bded fc
ecebb dee
eebbbb dbe
ebbee fbc
dcbd dcc
dcbc eeee
edec bebe
bf eefbc
ed dbbbec
ebb bedebe
dc bbddc
ef ebbdd
ef bcdec
ebe bcebf
ebe bebbebe
dd bebbf
dd ebbed
ebd eeccc
bbd ebbbc
bbd edef
df acc
ebf ebbcc
ebf bdebb
ff bebbbb
dee edcc
dbc bcfc
dbc bebbd
bfc dbcc
bfc bcfc
dbb fcdd
dec dbbd
efc eeed
fbc beef
beee ecdc
bbcc ffc
bcbc eedc
ebcc beef
fbe dbbbc
dbf bcdc
beec beebc
eebc febe
bebd da
def eccc
bbebe bcbd
dbbc ea
eebd eedc
beebb fcc
fdc beed
eeec eeec
bdbd fbc
bdbd bddd
bbbec ebec
ecbd ecbd
bced deec
eebf bebf
bcebb bbee
ffc fed
fa bbee
bcbbc a
eced bebc
bfcc efc
ecdd dbe
fbec fbc
efcc fec
bdec deec
fdf a
eea ff
bfbf bbc
bbbfc bbbb
ebbebe beee
eebbbe bbf
bfec bbbe
bbfa bba
bbbb edcc
ef eeecc
ebe fdbb
ebe bcbbee
ebc dcebe
fc eebbd
bec bedbb
bcc bdebe
df febd
bbbe ecbec
bbf ecf
bdc bcbec
edc eeecc
ccc eedc
bebe edbd
dbb fcdf
dbb ecbbec
dec ebfc
dbd bebec
bef bcfc
bbbd dbbbe
bbec beef
bbec bebec
fee bcf
ebec ffc
bcbc febb
bcbc eeebb
ebcc bdcc
fbe bdebe
bbed bded
fcc febe
fcc bcdc
beec bbebc
eeee ebec
becc dfc
ecbc bbbbc
ebdc ecbc
bccc bebd
fbf febe
beebb eeef
bcec debd
beed dbec
bebf ded
bdbd bbebb
dbbd eeee
bbbec ded
eedc edcc
debd bbbd
fef dbf
ecec ebdc
bcebb bbcc
bbebd bebc
dbbf bbbc
ecdd bec
debf a
fbbbb bbec
bdee bbdd
fbbd bbbd
bfbf ff
bca ba
ebbee bbebc
bdbbbb bbd
beeec bcc
bebbee beee
ecbbbb bbc
ebbbbc bbc
ebbbbc bbbe
dcee fbc
dedbbec bbdedcfbebcc
dc beba
ef bfbc
ef bbcbd
ebe fea
ebe bcbebc
dd fdec
fc eddd
fc bcdbe
ecc bcbbbb
ecc ecbcc
ebd dfcc
bcc bbbbcc
eec ecf
eec edbbc
eec dbecc
bbd fccc
bbf ecdc
dbe ecdf
edc eba
edc bea
edc ecfc
bbbc bcbbd
ccc debe
dbc bbbbbbbb
dbc dbdc
bebe bdebb
bebe eebbee
bfc ecdc
dbb ebfcc
dbb ebcbf
dbb fcbd
dcc bded
bbec eeee
fee eebeee
ebcc ecec
ebcc fbbc
ddc deec
debb bebbc
fcc bcee
beec ecbd
eebc fef
bebd bebbc
def da
ecbc bbdd
debc beed
bbef dcc
fdc fdd
bcec fbf
bba ac
febb eeebe
ecf debd
bced ebd
bced bcbc
bced dbf
bbbcc bccc
bedd bbd
eedd bfc
bdbf ba
eebbc ff
fbbbb ebf
eddc bec
bddc a
ecbbc ff
bca bbc
ebbbf bbbc
bceec ded
ebbed bbc
ecbbbb bbbc
bbbbebb bbbbc
ddbd ddc
ebbec bef
bcdbbd cc
be dbd</w>
bf bbac
ed bebbef
dc bebbebb
ef eebbbc
ebe bebfc
dd dbbcc
ebc fbef
ebc fcdc
fc bddf
bec bedcc
ecc dbbee
ecc febf
bcc bcbbbc
eec ebbbf
bbd bfebe
df bcbcc
bbbe bbba
bbf ecec
dbe d</w>
edc dbbbe
edc fdbe
ba fbbc
ba eda
ff debd
ccc ea
dbc ecebb
dbc dcdc
bbee bcbbbb
bbee bebbd
bfc dbbd
bef bebbbe
bbec febc
bbcc ecbe
ebcc bbdd
fbe ebbef
debb bdbd
bbed bedd
bbbbc fbd
ecbc dbec
eecc ac
debc ecbd
dbec bedc
bbfc beed
ecbd bebd
dbcc bebd
bcebb ecc
dbbbe dbd
eeef eeebe
debf bbc
bdee da
eebbbb beee
bfbf a
bedf bbc
eded dcc
ecef bbc
bfed ff
bfebb a
bbcbbc bbc
bfec bcbc
ebbec dcc
bf beea
ed bebbebe
ed febdc
dc ee</w>
dc eeba
dc bebecc
ef ecbbf
ef fbbcc
ebe dceec
ebe bebbbf
dd bdbec
dd bffc
ebc fdcc
ebc bddbe
fc eca
bec edbbc
bec bcdbe
ecc bbbdc
bcc eebbbb
df fdbc
dbe ecef
dbe bdef
bdc bea
dee dbbf
bebe eebeee
bfc febe
ebbc fbbbb
bef eedd
bef dbdc
bef dbbbe
ded bdcc
beee bbeec
ebec bcdc
bcbc eeed
ebcc dbbc
bbed eeed
fcc eeed
eebc eddc
fed bccc
debe eecc
debe bcec
debe ebbbbbb
eebd bcbd
dbbbb bbdc
fdc bcbd
bbebc efc
deec ea
beed ea
febb ddc
eba bbf
bbbec beebb
eeebb bebf
eebf fec
bedd bfc
bcebb ebf
bebbc beee
bbebd dec
ecdd ff
eebbc fc
ecbbc bbf
ebbee eec
beebd a
bdef a
eeebc bbc
bfbc ecbc
bda a
dcdd dcc
eccedc dee
bf bbdbd
bf dbbbf
dc beebec
ef ecbdc
ef bcebf
ebe dddd
ebc bfebb
ebc bcbdc
bec bffc
ebd debcc
bbd ebbdc
bbd bfbbc
df ecee
df ebbcc
df ecfc
bbbe bddd
edc bdebb
ff bbeec
bbbc bcfc
dee bfcc
ccc dfc
ebbc bebbbe
dbb fcef
bef ebbebb
ea bedc
bebc bcebe
ded febb
ded dcdc
bbec b</w>
fbc bdcc
fee eea
debb ecbd
bbbf fdd
bbed fbf
bbed bbfc
becc bcbd
becc fecc
ecbc bdcc
ebdc bbdc
bbebe eeebe
debe beec
bbef fef
dbbbb bfc
bcee bfcc
ebfc bcbc
bced beee
bced debe
bedd ebf
bedd ebcc
dccc bec
febc bdc
bcbbc bdc
befc eec
befc bebc
bcdd bbc
bcdd eec
bddc dcc
bdebb bcc
bdbbbb bbf
ebbbd eec
dcdd dbd
eebbf ff
bbcbbbb bcbbbb
efbd ff
a fbdc
bc ebc</w>
ee ebc</w>
bf fbccc
ebb dbba
ef ffcc
ebe ecbbbe
dd eebbd
dd dcbf
dd ececc
dd dd</w>
ebd eebbbe
df eeef
ebf ebbebb
edc bebbbb
edc beebd
ff bddd
dee ecbe
ccc eeec
dbc bfcc
bebe dbbd
dbd bbebc
bef bcebe
bef bfbf
ded e</w>
bbcc debc
fee b</w>
bcbc bcfc
fbe d</w>
fbe efbf
bbbf eebd
ac deec
def ebec
eccc bbbd
fed dedc
eecc ecec
bbef bbbbc
bcbe eba
bccc bcbd
beed bbdc
bbbec bbbf
ebfc ded
fef eec
bbbcc bbec
eebf eebf
ecec bbebb
beebe ea
beebe beef
bcbf bbbd
dccc bbc
bbbdc dbd
bdee debc
efcc bbc
edbc bbebb
beeec bbc
bcbcc bbbb
bfbd bcc
dcbc fbd
dcec fbc
ebbec ebd
ebbec bdc
be dbc</w>
ed fcccc
ed fbbef
ebb feecc
ebb fdfc
ebe eeccc
ebe fba
ebc bedcc
fc edbbc
bbd ecbcc
edc bfdc
ba fdd
dee e</w>
dee eeebb
bebe ffc
ebbc fa
ebbc febc
ebbc ebbebb
dec dbbbb
dec eced
beee bdbd
bbcc ebdc
bcbc ffc
fcc fedc
ac bcbd
ac fbf
ac bea
becc bebf
ecbc dbbc
ebdc bbebb
fed debd
bbdc eeec
eebe decc
eebe ebebf
bcbe dbbbc
eebd febb
fdc ebdc
bbbbbbbb bebe
deec eebd
eba bef
ecbd eebc
ecbd becc
eedc dbf
bced bbcc
bbbcc ecc
fdd dfc
ecec debc
ecec da
bebbbb dbc
bbebd dbe
edbd dbf
fbbc fcc
bcdc fbc
dbbbe bcc
fa dbd
bdbc dbbd
bea bbbc
bebec bdc
eddc fbc
bdebb dbe
febd bbc
dddd cccc
bbebbc bbc
dced eec
febf ff
eebebe bbee
bd fedcc
bf dbbed
ebb dbbebd
bbbb ecebe
ef eebdc
ebe efdc
ebe bedbb
bec bcbbbe
ecc bdbbc
bcc bedee
bbd bbcbd
bbbe bbccc
bbf bddc
dee ecebb
bfc eeebc
dbb becdd
dcc bbfc
bbbd cccc
efc bbebc
efc dbbd
bbec eebbc
bbebb bedc
ddc bbef
fcc bcf
beec bebbbb
beec beef
ac bedc
eebc eeed
bebd bced
becc febc
fbd decc
eebe eddd
debe eebc
eef d</w>
bcf debf
bcbd ea
bcec bbebc
fef bebf
febe ea
ecee ecbe
bdbc eecc
ecebb dfdbd
eeef bcc
ecdd ded
bddd bddd
fbec dbc
bebbd a
edbc eebd
ebbbbbb bbd
ebbee edc
ebbbc bbef
bebbee bbebb
bfbd ebf
eebbd bbc
bbbbbbc bbbc
bfec fed
ebeebb bebe
a eebcc
a bcdf
bf bbbebbbb
bf bbeecc
ed bbbdcc
dc befcc
ebe debec
ebe ecdee
dd eeeec
df eded
bbf eedd
dbe bbedc
ba bebbc
ff edbd
bbbc fbbbe
bbee ffc
bfc fbbbb
dec fdf
dcc d</w>
bbbd bdcc
bbec dbbd
bbec eeed
fbc fecc
beee dbec
bbcc bbef
fee bdbf
ebec decc
fbe bbccc
fec bfcc
debb bcbf
bbed bccc
bbed eedc
fcc ecbf
ac eecc
bebd bbebe
becc decc
becc eddc
fbd eeec
fbd eebf
bbdc ebcc
ecbe dbdc
ecbe ebbcc
bbdd bcbc
bbdd bbbf
fbf ebcc
fdc bbbd
eba bec
eba beee
bbfc fbd
bbbec dcc
bced beed
ecec bbdc
febe fcc
bcdc bebe
febc ebc
bdbe ebfc
beebc fc
bdbf dbd
bcdd ded
eac dec
ebbcc bbee
bebec bcbc
bca bdbf
eded dbd
eedbe dd
bebdc edc
bda bba
dcec eecc
dc fbccc
ef eeeec
ebe edebc
fc bfa
ebd edbec
bcc eebcc
bbd fdbd
df ebecc
dbe dedc
dbe fbbf
bdc bcebc
bdc bdef
bbbc bebcc
dee dedc
dbc bdbbc
dbc beeec
bfc efcc
ebbc bcef
dbd ecdc
bef bebec
bef bebcc
bbbd bebec
fbc bfcc
beee ebbebe
bbcc bbbbbbbb
bbcc bdbd
bbcc fef
fbe bdebc
dbf bbebe
bbed ebdc
eeee dec
eeee bbebf
ac bbbf
bebd fdd
becc bbbf
fed fecc
dbbc bedc
da dca
dbbbb dbf
dbec fcc
febb ebcc
eedc debb
bced debc
bbbcc dbd
ffc dfc
febe bfc
edcc ebf
feec ff
ebbbbbb bebe
bfbc ea
bfbc dbbc
eeecc bbc
ebbec ded
edee def
ebbbbeceebdc eebceba
a ebecc
bd bccccc
bf bbbccc
bf beddc
ed bacc
ed bebbdd
ebb ee</w>
bbbb eebbd
ef edebe
ebe bbdcc
dd debbc
dd bebdc
fc bfdd
ecc bfbf
ecc bddf
ebd ebbbbbb
ebd ecdf
ebd debec
bbd edebe
bbd ebbebc
bbbe bebbebb
bdc eeebc
ba debc
ba fbbbb
ff ecbe
ccc bbebb
ccc bedc
bbee eea
bfc bebcc
dcc bcbe
bebc beef
bebc bebec
efc bcf
ded bcbf
fbc bcbbc
bcbc bbef
ebcc eced
fbe dedc
debb fbbc
bbbf bbebc
ac bcec
bbbbc eebd
fbd beebb
eef bbeec
bbdd eebc
dbec dbf
dbec beed
bcbd bccc
dbcc edc
ecf c</w>
bced beebb
fef fbe
fef bccc
bcbf fec
eeed bbd
bebbbb bef
dbbf dbd
dccc edc
bbecc bebe
febc ebf
bac bcbbbb
bdbe bbbcc
ecebb bbbd
fbec dee
bcebe bbf
fbbd eec
dba bea
ecef ecc
ddcc dcc
bfed bec
dcec bbee
dded dbe
bbbbebb bbbd
bfec fee
bbbbbd bbee
a bdee
a bdbbbb
bf eebbebb
dc beea
ebe bebbcc
dd dcccc
bec dbbcc
ecc eddee
ebd bedbc
bbbe decc
ebf eefc
ebf fbbbe
ba eeec
ba febe
bbbc eebec
bef ecec
bef dccc
bbcc dbcc
bbcc fdd
ebcc decc
ddc eedd
ddc bcdc
ddc ecdd
debb dfc
debb bedd
bbbf bbfc
bebd fbbc
def eecc
eccc ecdc
ecbc bbfc
ecbc ecbf
bbebe ebbebb
bbdc fbe
debe bcbd
debc dedc
da bbbf
fbf bbbbc
fdc eccc
eeec fbbc
eba dbc
eedc beec
dedc bfc
bcdc bbbe
bbeec fc
bbeec beec
bded ebc
ecebb bbee
befc fee
eebbc fbc
bddd bbc
bddd ded
bcfc bbc
bcebc df
fbbd bcc
eea bea
ebccc dbc
fbbbe bbf
bcbbd bbbc
bfbd eec
bfbd bbbc
dcec dbec
bbbbbbc bbc
bbbbbbc bbbbc
edec bbec
bbbcbbbb bbbc
bebbebd cc
bf dbbebb
ef eedbc
ebe debcc
ebe fbfc
ebc ecebd
bec bedee
bec bfdd
bec bedbd
ecc fdcc
ebd bebbbc
bbd beebf
bbbe bfbbbb
ebf ecbbc
bdc eddd
ba eef
ff eddc
ccc dccc
dec bebec
bbbd eebf
bbbd fa
efc bcbf
fee ecbd
ebec debd
ddc ecbd
debb bbebc
fcc bbebb
ac dac
bbbbc fbf
bebd bccc
ecbc fef
fed b</w>
dbbc bccc
debc ebdc
eebd bbbbc
dfc bebd
dfc bcbd
dbbbb beee
beebb ebbebb
bba debb
bdbd bbed
bbbec eebc
debd fec
dbcc ebbc
dbcc bebc
eeed bebe
beef beebb
edcc bbbb
edbd bbee
bbeec bbbc
bdbc ebcc
bdbc debc
bcbbbb dd
ebbcc bcc
bbebf bbc
bcebe dbe
bcebe bebc
bdec ea
dbbee bbee
edbf bbc
ecef bdc
ecef dcc
bebbf ccc
bfbd fec
bfbc def
beff ccc
dcec ebf
ebeebb bbbe
a bbea
ebc fbbee
ebc edebe
fc bfef
bec eac
bec dfcc
eec eedcc
bbd edbc
bbd bfef
df ecebc
edc eebec
ba bcf
ba bbbbbbbb
bfc bdcc
dec ecdd
dec bebbd
dbd bdbbc
bef ebbcc
dcc befc
bbbd edbd
beee bbebc
ebec eedd
fbe bfbbc
beec ffc
eeee beed
fbd ebdc
def fdd
eebe c</w>
eebd def
eebd dbec
eebd beed
bcbd eeebb
fbf fed
bcec bbbf
eba bbee
bbfc edc
bdbd fbd
dbbd fbd
dbbd bcbd
bbbec bebd
beebe ebbc
beebe bbec
bcbf efc
bedd debb
bebbc bef
bdcc fbc
ecbf fdc
febc ded
bfcc bdc
ecebb bbec
eeef bdc
bcbbbb bbbf
bdbf bfc
eea bbbe
ebccc dee
eefc bbc
beeec bbbb
ecdf dcc
ebbbd ded
ebbed dbc
edee dbbc
eeeecc bbbb
bd bbbb</w>
ed fbbbbc
ed cccccc
ebb dbbbec
dc bbbccc
dc dbbed
dc feccc
ef febbc
ef fbebc
ebe ecebd
dd bdf
dd bcecc
ebc edef
ebc bebfc
ebd bca
ebd bcbbbe
ebd bedee
bcc dddd
eec bedee
bbd bedbd
ff bbebf
dee eeebe
dbb ebcbd
dec deecc
dbd bcbf
bef bbebd
bbcc bced
fee dbcc
bbebb b</w>
fbe bddd
ddc bddd
fec bbef
beec eeec
beec dbcc
eebc ecdd
fbd eccc
eccc ac
bbebe dbf
bbebe dbbc
bbebe bbbbbbbb
eecc fbf
eecc febb
eef bbccc
bcbe dbbbe
eebd bccc
bbebc ebec
bbbec bbed
decc decc
ecbd ebcc
ebfc ef
ebfc edc
ebfc bebc
eeebb eef
fef bebc
fef ded
fef bbec
fdd bbbc
eebf ebbc
beebe ebd
beebe df
eeed bbee
dedc ebbc
febe edc
febe eeebe
bbeec bebe
eced bef
bded bbec
dbbbc bbbc
bbccc fc
eddc ded
edbf df
fbbf bbbb
fbbf fc
dced a
ebbbd debb
bebbee bebe
bfbc ebcc
acc ac
eeff ff
edee ea
dacc abdbf
bceebecbbecbbdbbcbbdbf beebcc
ee dbb</w>
bd a</w>
bf beefc
ed bedfc
ebb bedef
dc dbbbf
ef bbcbf
ebe aa
ebc fefc
bec beff
ebd ecbbbb
bcc dbfc
eec fbbbe
bbd ebbdd
dbe bcdf
ebf e</w>
edc ecbbc
ba bcbbc
ccc bbbf
bebe bcdd
bfc bcdd
dbd beef
dcc bcf
ea fbbc
fbc dbbbb
beee eebbbe
bbcc eeebb
fee c</w>
bcbc debd
ebcc ecdc
fbe bdeec
fcc da
fcc edbd
eeee eebbbe
eeee ebbef
eebc deec
def debc
eccc debb
ecbc fbe
eecc debe
bbdc debe
eebe bbba
eebd fbbc
fbf dfc
beebb fec
beebb bbbbbbbb
beed fdc
bebf fbf
bbfc beee
dbbd ebec
ebfc dcc
ecf b</w>
eeebb febb
eebf bbec
bcebb bebd
bebbbb bbed
dedc bbf
dedc ebec
beef fbc
edcc fdc
eedd ebbc
ecdc efc
febc dbf
bdbe dbbf
bfcc bcc
bded efc
bcef bbbb
dbbbc dbc
fbbbb bbbbc
bbbdc dee
bddc bec
bddc ded
fecc edc
bebbbe ff
bdec eebc
bcfc dbc
bcebc bbc
eddd ded
bebbd bbbc
bfbf ebf
eded ded
fdbe fc
fdbe ecc
ebbbc ecbc
bfec ddc
dbbbd dbe
edee debb
bcdebd cc
bc ebd</w>
bd bbeba
bd bbebbbbbb
ebb dcccc
ef bcbebe
ef fefc
ebc ebbee
ebc acc
bec ecee
bec ffcc
ecc bcdee
bcc dbbee
eec ebbbbbb
eec bcdbe
eec efdd
dbe fbbd
edc ecebc
ba bcee
ff bcdf
dee ecbf
bfc bea
bfc beecc
ebbc fbcc
dbb efa
dbd bbebd
bef ecebb
bbdc eeee
debc cccc
bcec eeee
eba fee
bdbd beed
bedc bcbd
dbcc fbc
bced bbed
bcbf bbcc
dedc becc
edbd bbbc
bbeec bdc
bbeec bef
eeebe bbef
bdcc fee
bdbe dbbbe
bfcc dd
bdbf bdc
dbbbc bbbe
ebbebb bebc
bbccc bbcc
eddc a
eddd a
eebbbb a
eebbbb bcc
edbf bbf
edbc dbbc
ebccc dcc
ebbbc def
ebbbc bbebc
dced dbc
ddcc ddc
eebec bbc
dcbd fbc
eebbd ccc
bedbb ebbc
dcee fcc
fcbd ccc
ecbbebc cc
bcbcbcbcbcbcbcbcbcbcbcbcbcbcbcbc bcbcbcbcbcbcbcbcbcbcbcbcbcbcbcbc
ed bedbbbb
ed fdbec
ed becccc
ebb bbcccc
ef bb</w>
ef edbcc
ebe dcbc
ebe fbbbd
ebc bdeec
bec dcbf
ebd beccc
bcc ebbed
bcc fdee
eec bcbbbe
eec bcccc
df fbdc
dbe bebbbc
dbc bedbe
bbee debd
dbb ebeef
dec fecc
dcc dbbd
ea eebd
bbec bbecc
bbebb ddc
bcbc eebf
bcbc febe
fbe ecdd
fbe bfebe
eeee beff
bbbbc ecbc
becc eeed
def b</w>
def bbebe
eccc ecbe
eecc eebf
dbbc eeed
eebe e</w>
eebe dbbbe
eebd ac
da beee
dbbbb ebf
bedc dbf
cccc ded
beef bbebb
bbeec bebd
dccc bccc
bdbc ac
bdbc debd
bac dee
bfcc dbc
beebc bbbc
bcef bfc
bcef dec
bebec bbee
fbec dd
fbcc fec
feec dbe
fccc fc
bfdc fc
ebeebe bebe
ddbd dcc
ebeebb beee
bedbbbe cc
be bbbc</w>
ebc bbcbbbb
ebc eeedc
ecc edebe
ebd dba
bbd eebbf
bbd ecbbd
bbd bedec
bbbe e</w>
dbe bebbf
dbe eeebc
ebf eced
ba aa
dee fa
dbc bcbbbb
dec ebbcc
dec bdebb
[...]
