#version: 0.2 - Trained by `huggingface/tokenizers`
b b
b e
b c
e e
c c
b d
e c
b f
e d
e bb
d c
bb bb
e f
e be
d d
e bc
bb c
f c
be c
e cc
e bd
bc c
ee c
bb d
d f
bb be
bb f
d be
e bf
bd c
ed c
b a
f f
bb bc
d ee
cc c
d bc
bb ee
be be
bf c
ebb c
d bb
d ec
d bd
be f
d cc
e a
bb bd
be bc
ef c
d ed
bb ec
f bc
be ee
bb cc
f ee
bb ebb
ebe c
bc bc
ebc c
f be
d dc
d bf
f ec
d ebb
bb bf
bb ed
f cc
be ec
ee ee
a c
bbbb c
ee bc
be bd
be cc
f bd
d ef
ecc c
ec bc
ebd c
f ed
ee cc
bb ebe
bb dc
d bbc
ee be
d ebe
ee f
ec be
d ebc
bb ef
bc be
bc f
ee bd
d fc
bb dd
bc cc
d a
d bbbb
d bec
bc bd
f bf
bc ee
be ebb
f dc
bbbb bbbb
bc ec
bb ebc
d eec
be ed
bb a
f ebb
ee ec
be bf
e ba
bb fc
bd bd
be dc
cc cc
d bbd
bb bec
d ecc
ee dc
ec bd
ebf c
d ebd
d bcc
ec f
bc ed
ee ebb
f ef
bb bcc
f dd
ee bf
ec ec
be ebe
bc bf
be dd
ee ed
bc ebb
be bbc
f fc
be bbbb
bb ebd
d edc
ed cc
f ebe
be ef
f bbc
ed bd
bc dc
ee dd
bb eec
ec dc
d bdc
d bbf
d ccc
ee ebe
d bbbe
bb ecc
f a
bd cc
ec bf
ec ee
bd bc
f ebc
ba c
ec ed
bc bbc
bd be
bd f
bf cc
be a
bd ed
ec ebb
be fc
ee ef
bc bbbb
bd bf
be ebc
bc ef
bc dd
d bbbc
ec dd
d ebf
ea c
ee bbc
b b</w>
ebb cc
f bbbb
bb bdc
bb ebf
bd ee
bb ccc
ebb ebb
be bec
bd dd
ed dc
f bec
bc ebe
bd dc
ef cc
f ecc
be bbbe
bd ec
f bcc
d bbee
bc fc
bd ebb
ed dd
bc ebc
d bfc
f df
be bbd
ee bbbb
dc dc
ec bbc
be bcc
bb edc
ed bf
ee a
f bbd
ed bc
ebe cc
f ebd
d ebbc
ebc cc
f eec
dd dd
bf bf
bc a
be df
be dbe
ee fc
d efc
be ecc
bc bec
bb ebbc
d ba
ed ed
bb ba
f bbf
ec ef
f dbe
ebb bbbb
be bbf
ebb ee
bd bbc
bb bfc
ec bec
ebb bc
be ebd
bd ef
bd bbbb
ee ebc
ebb bf
ec ebc
be eec
bc bbd
ec ebe
f ccc
dc ed
ec fc
f bbbe
ec df
dd cc
ee bec
f edc
bc bcc
ebb bd
ee bcc
be bbee
bc df
bc eec
bf dc
d ea
dee cc
be bbbc
dbb cc
bf ed
ee dbe
f bdc
ec bbbb
ebb ed
dc bd
bf bd
ee df
ec a
f dbc
ebb bbc
ecc cc
bf bc
b e</w>
ebb ebe
ee bbd
be ff
ee bbbe
b d</w>
f ebf
d ebcc
ec bcc
d ebec
bd a
be bdc
b c</w>
bd ebe
dc dd
ed bbc
be dbc
dc bc
ee bbf
be ccc
ef bf
ee ecc
dc ec
a cc
be ebf
bc ebd
bc ecc
ec bbd
df cc
dbe cc
f bbbc
dc bf
bd fc
ee bbee
ebb ef
bbbb bbc
bc bbbe
bd ebc
dd ed
ec eec
f bebe
be dee
f dee
be edc
bb efc
bb ea
ee ccc
e b</w>
bbbb cc
ef dc
bf ebb
bb ebec
bc bbf
bd bbd
bc dbe
bbc bbc
f bef
ec ecc
bf ef
ec dbe
ebd cc
bd bec
f bbee
ebb dc
ebe ebe
bf bbc
bd df
ee eec
ec dee
be dbb
bc ccc
d ac
bf fc
f dcc
ed ef
ee ebd
ed ebb
ff cc
bc bbbc
f dbd
ee bebe
ed df
bbd cc
dd dc
bbbb ebb
f bfc
dd bd
bf ec
ee bdc
ebe ebb
f dbb
bf dd
ee dbc
ee ff
ed ec
d eccc
dc ef
bf ebe
f dec
be dbd
bc dee
ed bec
bb ebcc
ed ebc
bf a
ee beee
ee dee
ebb ec
bc ff
d bbbbc
d ebdc
dbb bd
ef ef
be dcc
ed ebe
bbc bbbb
bc dbc
ed a
f ba
be bbbd
fc dc
ee bbbc
be bbebb
ec ebd
bd eec
ebb ebc
ee ebf
be dec
bf bbbb
be bbec
ebb dd
bbf cc
ed fc
be ba
f bebc
bbc bd
f ebbc
dc ebe
ef dd
ebb a
bc bdc
be bfc
ee bef
dc fc
dc ebc
ebb bec
bb ac
ef bd
f beee
ed dee
be ebbc
e e</w>
bbbb bd
ebe bf
bc bebe
a a
dc bbc
bc edc
ebb fc
ed dbe
ec dbc
ee dcc
bbbe cc
ec dec
bd bcc
be bbcc
bbc bf
e c</w>
f bbbd
bd dbe
dc ebb
ebf cc
f efc
ded cc
ed bcc
dbb dd
ed ee
ec bbf
bf ebc
e d</w>
ef ebe
ebb bbbe
ec bbbe
ed bbbb
f bbcc
ec bdc
ebe bbc
d b</w>
f bbec
bbd bd
dc bec
dbc cc
f ea
ee edc
f ddc
f dbf
dc eec
bc bbee
ee fee
bd ebd
bef cc
ec ff
eba c
bbc ebb
dcc cc
ed eec
bbd bbbb
bd ecc
fc bf
bc dec
ebe bbbb
dc a
ef ebb
f ded
ee dbd
bbbc cc
bf bec
ef bbc
dbb ebb
bc dbd
dc ecc
ef fc
ebe bd
bc ebf
bc bebc
ef ed
bbbe bbbb
ef a
bc bef
ed bbd
fbe cc
dc df
dc ee
dbb bf
ebb bbd
bebe cc
dd bf
dbb ed
be dbf
ee ba
bc fbc
f bbbf
ebe ef
bc bbbd
bd bbbe
be ded
be ea
be bbbf
ec bbbc
ec ded
fc dd
be ddc
ebe dc
ec edc
bd dee
ebc ed
be bbed
bb b</w>
ebc bf
bbd bbc
bbbb bf
bc bfc
ee dec
f bbebb
ebc bbc
bd bbf
fc fc
bec bbc
ebe ed
ebb bcc
bb ebdc
ebe dd
ec dbd
b f</w>
bbd bf
d d</w>
ee bebc
bbbb bbbe
dc bcc
fbc cc
ee bbec
ebb eec
bc bbec
be debb
ee fbe
bbee cc
bec bf
bbc ed
ecc ed
ec dcc
bc ded
dbb dc
bd ff
f ebcc
ebc ebb
bc dcc
bc ebbc
f ac
fee cc
ee bbebb
dd a
fc bbc
bf bcc
bd dbc
dd ef
ee ebbc
ec bebe
ebe a
bd bdc
dd bbc
be efc
ec bebc
bf df
ec bef
dc ebd
ee bbbd
bc bbcc
ed ecc
bbbb bbd
dbb ebe
bb eccc
ebb bbf
dd ebc
bd dbd
f ebec
fc df
bbbb bbbc
bc ba
f debb
be bbbbc
f bbed
be bbebe
bbbb ebe
ebc bec
ee fbc
fc ef
ebb df
ed ebd
ee bfc
bebc cc
ebc dc
be ebec
fc bd
ee ddc
bbc bec
ee bcbc
dbd cc
ebc bd
ebb ebd
ed dbc
ec bfc
ebc ef
bc fee
ebb dbe
ebc dd
f def
bbd ed
bec bec
dbb ef
bbc ebe
a bf
bc beee
bbc ef
ec ebf
fc ed
ec bbec
ebb bbbc
ec bbee
dc dbe
dd ebe
cccc cccc
bf bbf
d ebfc
bd edc
d e</w>
bc fec
ee ea
ed ccc
ee bbcc
dd df
ebc ebc
be ebcc
be ac
bf ecc
dd fc
dc bbbb
bd bbbc
bbbbbbbb bbbb
dc bbd
dd eec
ee dbf
dbb a
bcc ed
bc bbebb
dd ebb
bc fbe
dbb fc
d c</w>
bcc bbc
dd bec
ec fbc
ec beec
bbd ebb
bd ccc
df dc
a ed
ec ebbc
f eccc
bc fcc
ebe bec
ec bcbc
bc efc
eec bf
ebe fc
bbc dc
ebb ecc
bd bebe
ebb bebe
ed dec
bbc fc
bc beec
dbb bec
ef df
ebe bbbe
ef bcc
ebc eec
e bb</w>
bf ff
def cc
be dbbc
ebc bbbb
ee ded
bc eebc
bbcc cc
ef bec
bf dbe
bbc dd
bf bbd
bf ebd
a bd
bf bbbe
ebc fc
ed bdc
eec dc
fcc cc
bbc bcc
f dbbc
ec ba
f bbef
ec bbbd
ee beec
a dc
eec bec
bbbc bbbb
ed bbf
ebe bcc
dd ecc
be bbef
bc debb
bc dbf
f bbdc
bc bbed
dc dee
beee cc
ef bbbb
ebc df
a bbc
bcbc cc
be bbdc
ee bbed
a dd
bc bebd
fc bec
f bbbbc
eec df
ed ff
ebc ebe
f da
eeee cc
d eba
ed bbbe
a ef
be def
ba cc
ec fec
bd dec
bb ebfc
dd bbbb
bbd dc
dbb ebc
bb eba
bf eec
bec ebb
bec dc
bc fbd
a fc
bbbbbbbb bbbbbbbb
ea cc
bc bbbbc
ef ebc
f dfc
bd bbbd
bc bbbf
dbf cc
bbc ebc
bbc bbd
ee bbbf
bd bbee
ebb ff
dbb ebd
fed cc
bc ddc
ecc eec
f bbebe
be debe
a ebe
dbe dc
bc ebec
ee bbebe
ec fee
bbbe ebb
dbb bcc
df fc
bccc cc
a bbbb
bc becc
ee fcc
df ed
eebc cc
ec becc
bd ebf
dc edc
ebd dd
bbd ebe
bbf bf
ec debb
ebb bbee
ec ddc
cccc cc
ebd ed
bcc bf
bbd ef
f debe
dee dc
bbbe bbc
ee bebd
ef dbe
ebe ebc
eec dd
ebe bebe
be bbebc
a ebb
eec bbc
bbbb bec
f ebdc
ec bbcc
bbd bbd
df dd
ee becc
bd bef
bcc bcc
ef ff
be dbbbb
ee debb
dc ff
ed dbd
ef ecc
ec efc
ed edc
fc ebe
ec beee
ef bbf
df bf
ec fcc
bc dbb
bd bebc
ee fec
ebd bf
bc ea
ee dbb
f debc
ecbc cc
dd dbe
be debc
bbd bec
fc bcc
ecc bec
ee fbd
ec dbf
e f</w>
ec bebd
bd fbc
dc dbc
ed ded
dc bdc
bbbd cc
bc eebe
dd bcc
fc ebb
bbc bbbe
ee efc
ebe bbf
bc ebcc
ecc ecc
ebc bcc
bbbb bbf
bd ded
fc a
ec fbe
bd bfc
ec bbed
dd ebd
bbc eec
bbbb ed
bd dcc
ebb ebf
bc fed
fc ebc
bbbe bf
fbd cc
dc dec
be bbdd
bc ecbc
bbbb bcc
be dbec
ebb dbc
bc def
ec bbebb
bbbb dd
bec ed
bc eeee
be bba
ee bbef
fc dbe
ec def
bc ecbe
ee ebcc
bbc a
bc eecc
bbc bbf
ee ebec
ebb bdc
ebb ccc
ecc ef
debb cc
be bbbec
bec ebc
ee ac
bec dd
ec eebc
bec ebe
f bbdd
ef ccc
bc eef
bf ccc
bc debe
bc eebd
bb d</w>
bbbe ebe
d bac
bf bdc
bec bbbb
be eccc
dbe dd
ec ebcc
ebd dc
bf ebf
bbc bbbc
ee ecbc
ed dcc
ec ebec
bec ef
bbc df
bbbb bbbd
bd ba
bbd ebc
ff dc
bf bbbc
bc ac
bbc dbe
be dfc
bbd a
ebe bbee
dbb eec
be da
bbbe bbbe
f bbfc
bec df
ecc ebc
ebb dee
d eac
ed bebe
bf bebe
ecc dc
bbd fc
becc cc
bcc ef
bcc ebe
ee dbbc
bec bd
bf edc
eecc cc
bbbb ebc
ebb bbbd
ed bbbc
f dbec
ebb edc
dee dd
bbc ebd
dc bbf
bc bbdc
ee bbbbc
ed bef
ebe df
ee def
bf dbc
dc dcc
ebb bef
bec fc
dd dbd
ebd ef
bbbb ef
be ebdc
be bbfc
bb c</w>
bd bbec
bd ebbc
ebc a
ec fbd
bebd cc
df a
f dbbbb
ecc fc
eec ef
bec bcc
bbebb cc
bbbb a
bc dbbc
dd dbc
ec eecc
ec fed
dd edc
f bbebc
dd bbd
debe cc
ebb bebc
df ef
bcc fc
ebc ebd
bb e</w>
ecc bf
dbe ed
f bba
bbbf cc
dbe bf
bbebb bbbb
bcc bd
bcc dc
ec ecbc
ebe bbd
ee bbdc
ed bbec
df bd
ebc ecc
eec bd
bcc bec
bc bbebe
bbf bbbb
dd bdc
ff bf
ebb beee
bbbc bbc
ec ea
dc dbd
bcc eec
ebd df
ebd bd
bbf ef
ec debc
ebe ecc
ed bebc
ed bbee
ebe dbe
bf dee
bcc ebc
ebd bbc
bcc ebb
ec deec
ebe beee
bf bbee
bec eec
bbd eec
fc eec
ee ecbe
bcc dd
e be</w>
be dbbd
bbf bbc
ebd ebb
bb bac
ff dd
bb bb</w>
fc dee
ee dbec
f bbbec
ebd bec
ed ebf
bbed cc
ff ef
df bbc
bd fee
ecc bbc
bbbb dc
bc debc
be deec
ecc dd
ec bbbf
bc bbdd
ee bba
f dbcc
bec a
ebb bbebb
ebe eec
ebd eec
f dbbd
ec dbb
ecc bd
ebb ebbc
bbbb fc
bf bef
bc bbef
dbe bd
fbf cc
ebe ff
ef eec
bbd bbbe
ecc ccc
ef bbbe
ebd ebc
ecc ebb
bc dfc
edc ed
dd dee
dbe bbc
ebe bbbc
ec dbec
bd ddc
ebe ebf
bcc bbbb
bbf ebb
ff fc
dc bbbe
bd beee
ef bdc
ee eccc
dc ded
bebe bbbb
dd ccc
ed bfc
eec eec
e bd</w>
df ebc
bbbd bbbb
bc dbbbb
a ebc
dbb bdc
ebb dec
f deec
ec dfc
ecc edc
e bc</w>
be bbbbbbbb
debc cc
ebe bdc
ebd bbbb
ebe ccc
bec dbe
ee da
d bb</w>
ebb dbd
bbf fc
bd fbe
be dbcc
ed ddc
ef bbee
ef ebf
ebe eeee
ebd a
ef bbd
ecc a
ef bebe
ebc bbd
ec dbbc
ec debe
ebd fc
bf fbc
bd bcbc
dbd dd
be bbbcc
ebb fee
dc ebf
ec bbdc
ebc dbe
ebc ccc
bf bfc
ed beec
f decc
eec a
ed fbc
bc eccc
ef dbc
ebb bbec
bd fec
bbf dc
be bbeec
ef dee
fc bbbb
ebc bbbe
ebe ebd
ee bbebc
ebe bef
bd debb
ba a
ec bbbbc
edc eec
bd efc
bbf a
eebd cc
ef ebd
fbe bf
ebb eeee
fc ff
bd bbcc
bcbc bcbc
bbc dee
dd ff
bcc a
bd beec
ee debc
f debd
bbc bdc
ed ba
dbe fc
ebb fbc
bbc dbc
ee debe
ecc ebe
bbee bbbb
bc ebdc
bec dee
ecc df
ec ac
dec dc
be debd
ebb ba
be bbebd
ec eccc
ff a
ec eeec
ebb bfc
ed bbbd
ef bef
bd dbf
bc bbebc
bc dbec
f bbbcc
ee fed
bbc bebe
bbd bcc
ec eeee
be eba
eec ebc
bbf ed
ee bbdd
bbbc bf
a df
be b</w>
ec eef
bbbb dbe
dbb ecc
ec decc
ed def
ec da
dd dec
f eba
bbbc bbbc
d f</w>
ec eebd
ee dbbbb
dbb ccc
bbd ebd
ebf bf
bbbbc bbbb
ef fee
bbd bbf
ed ebbc
ec ecbe
bc bbfc
bef bf
edc dc
bc da
ebc dee
bbebe cc
ebe dbc
ff ff
eec fc
f b</w>
bc deec
bbc ecc
dd dcc
ed dbf
bd bebd
bbbb bebe
ed fee
ec eedc
edc ef
ebc bbf
f ebfc
ec fdc
bd bbebb
ee ebdc
df bec
f dbbf
bbbb bbebb
bdc dc
bd eebc
bbbe bec
fc ecc
bd fcc
bd fbd
bbee bf
ee dfc
eec ed
febb cc
df ecc
bbbe dc
beed cc
bbc ff
df ebe
a bec
ebd ebe
eec ebb
ed debb
eebe ebe
be decc
eec bcc
dee bf
bebe bf
ecc bcc
bebe bbc
ed beee
dd ddc
dbc dc
fc bbf
ec ebdc
bebf cc
edc bec
df bcc
bbee ebe
bbd bbbc
bdc bf
bdc dd
fc dbc
dbe bbbb
ee bbfc
edc dd
dc fbc
dbe bec
bbee ebb
f dccc
df ebb
eeee eeee
eec bbbb
bc bbbec
ec eebe
dc bbbc
bd bbed
ee deec
eec dec
ebc dbc
bbf ebe
bdc ed
ebc dec
a bcc
da cc
bbf dd
bc bbbbbbbb
bbbe dd
bbbc ebb
fc bbd
bec ebd
dbe ebb
bf dbd
bec bbd
bbbe bebe
ec bbdd
df df
be bbecc
ebc ff
bdc ef
bf dec
dbe ebe
ebc edc
dc bfc
dbe a
ef beee
ed efc
ecc ebd
f bbeec
be dbbbe
ef bbbc
fc ebd
dc ddc
bf fee
eec dee
dc bebe
bbef cc
ed fec
ebb bbcc
bd dbb
be dbbf
bbc dbf
bd ea
bf bebc
bdc ebe
ec fbf
bcbd cc
bd ebec
bbf bbf
eec dbe
bc dbbd
eec ebe
bd becc
ee bbbec
ff bbc
bbbe ef
dc fec
ebb fbe
bc bbbcc
bdc bbc
ee eba
bb eac
bbbb bbee
dbe ef
fef cc
dbc dd
bbd bbbd
bbbe ed
dc bef
bc bba
ee dbcc
edc df
ebc bbbc
be ebfc
bebe ebe
dbb ebf
bbbb bbbbc
ec bbebe
bbbe bbbc
bcc df
f dbdc
bbc bbee
bf dcc
ec bbebc
f e</w>
eec ebd
ebb bcbc
bbbe a
fc bdc
fc dec
ebf ef
ebe fee
bcc ecc
bcc ebd
ded dd
dbc bbc
bf ba
ec dedc
bbbb ebd
bc debd
edc ebc
ee dbbd
fbe ef
bebe bebe
f bbebd
a dbe
bec ecc
bbd bdc
ebb bbbf
ed becc
bec dbc
a ff
bd bcbe
bd def
ec debd
ec febb
decc cc
ed bbcc
dc efc
eec dbc
ebf bbc
bd bbbf
edc bf
fbe bbc
ed bbebb
dee bbc
bbbe bbf
ebc bdc
df dbe
ec ecbd
bbbd dd
f bbecc
ed bcbc
bec dec
bbd ff
bf beee
dc bbee
ef dcc
ef edc
bf ebbc
bc b</w>
bd dbbbb
bebe ebb
bec bbbe
a ba
dbe dbe
bbebc cc
ebd ebd
bbee bbc
ebb ded
bd bcf
ec bbef
bced cc
bf fbe
ebc bebe
bc dbcc
df ccc
dc bebc
ec bdbd
ebb dcc
bd debe
beebb cc
bec bbf
dd ded
edc ebe
a ecc
dd bbf
a bbd
bd eebe
a bbf
edc fc
bbbe ebc
bec ff
bf fcc
bbbe bbee
bbc bbbd
be dccc
ed fbe
bbbe bbd
bd dbbc
bf bbec
ebf fc
bef dc
f dbbbe
bd ac
bdc fc
bef ef
ebd dbe
bf bbbd
dbc ed
ec ecf
bec bbbc
bd bbbbc
eec bbd
dec dd
bbc dbd
bd bcbd
ebb eebc
bd bbdd
bdc ebc
ebf a
bd ebcc
ec bbfc
bcc bbd
ebf dc
ebe bebc
ed debe
ebb fec
ebb debb
ed bbed
ebb bbbbc
bbbe fc
bc decc
eec ecc
dbd dc
ebc bebc
bbc bebc
ed bebd
eeed cc
ebf ebe
bef dd
eec ff
bbc dec
bd bcee
ebb bebd
ebb eebe
bdc bec
ded dc
dbb edc
be dbdc
fbe ebe
dbc bf
ecbe dc
cccc ccc
bd fed
bbd bebe
ef fbc
ebd ecc
ecbd cc
dbc fc
ebe dee
be bbebf
bdc eec
a ccc
bd eef
bcc dbe
dbbbb bbbb
edc ecc
dbc ef
ee debd
ed fcc
f c</w>
dd fbc
bf bcbc
dc fee
df ff
ebbc bbbb
bbd ecc
ebbc bbc
bd eeee
df ebd
dbc bbbb
ebf bbbb
dc fcc
f dedc
bec bbec
bd bbdc
a ebd
bcc ff
ebb ea
dee fc
a eec
bbbc ebe
a bbbe
ef dbd
ec dbcc
bbc bef
df bbbb
bbf bec
bbf ebc
ef ba
ee bbbcc
bfc bf
ebe edc
bd eecc
ed eebc
dd bbbe
df eec
dee ccc
ebb beebb
ebc ded
ee bbeec
ec dbbbb
ef dec
bbc ebf
bf bbcc
bbd bbee
ff ebe
ef bfc
df edc
bd ecbc
f bac
be dbbbc
bcbf cc
bef ebe
ec eedd
dcc ccc
dbe ebc
ebb efc
ecc dec
bbbe bcc
ff ccc
fbe dc
ee b</w>
bcf fc
ebd dee
ebb bbed
bbc bfc
ee decc
ee dccc
ebb beec
fbe bbbb
df dbc
d eb</w>
bbd ccc
eebe ef
beee ebe
bd fdc
dbe bcc
ebd bcc
fc bbbc
ecc bbbb
bd beed
df bdc
bbee bbee
eec ded
dc ebbc
bef bbc
ba bbbb
be e</w>
bd ecbe
ec bbbec
bec bdc
dbbd cc
bd eebd
ee bbecc
f d</w>
eef bf
bd bcec
dc bbbd
ed ea
bbc bbec
debd cc
bcc dee
ec eeed
f debf
bdc bbbb
bbbe dbe
dd ebf
bef a
bcc bbf
ed ebcc
eebf cc
edc a
bbbc bec
ed bcec
bbdd cc
dbc ebe
ed fbd
bd fbf
dbb ebbc
ebb bcbe
ed ebec
ef ebbc
bc bbebd
bbf ff
eeee ebe
eebe bf
bcf dc
bbc fbc
d bd</w>
dbb bfc
bbc bcbc
fdd cc
ebb ebec
bdbd cc
ee bbebd
ebd bbd
df bbd
bbc edc
bcc bbbc
dbb ba
dd bbbc
dc bbec
f bbebf
be bbbdc
ecc ff
bcc bdc
dd bebe
bbbb ccc
bec bebc
bf fec
f dbbbc
bcebb cc
fc dcc
ec dbbd
ebb bbebe
bc ebfc
ed debc
bf dbf
eef ef
ebb becc
bd debc
eef ebe
ea a
ebc ebbc
bf fbd
bbf bbbe
dd bbbd
f eac
bd beebb
dbe df
bf efc
ebc bbee
bcc edc
bef fc
bbc ebbc
eebe bbbb
fbe fc
bd eeec
a bbbc
dec bec
dbe ecc
ebc ebf
ebc bfc
dcc dc
f bbccc
ed beed
eec bdc
bebe bbbe
dee ebe
ebd ccc
bc dedc
dcc dd
d bc</w>
a bba
bd bccc
bbee bbbe
ebd ff
bcf dd
a dbc
ebb dbf
fa cc
ebc dbd
ebd dbc
bbbb eec
fc ded
bc bbeec
d be</w>
df bbf
bbd edc
dc bcbc
bebe ef
ebe ba
fc fbc
febc cc
ebd dec
beee bbbb
bd dfc
bcc bbbe
bcc dbc
a bdc
ecbe dd
be dedc
a dee
ed deec
fc dbd
bbc bbcc
dc beec
bbbc bbbe
ed eecc
fee bf
edc bbc
ebb fbd
be bbccc
ecc dbe
bbbb bdc
bbd bebc
bbbb bebc
dbbbb cc
bbbd bbc
ef bebc
fc bef
ddc dd
be bbedc
bba cc
edc dec
ecc bdc
ed fed
bc dbbbe
bd febb
fbe dd
dee bec
f bbbdc
fc bfc
bd da
dbe ccc
ebf dd
febe cc
dbd bf
bbf df
bcf bf
bbbb dbc
b a</w>
bcbe dc
ecbf cc
eeebb cc
ebb fcc
ef eeee
fc bbbe
ebb ebcc
ebe bfc
ebc fbc
be bac
be c</w>
dec bbc
eef a
bbbc dd
bc dbbf
bd bedc
bbf bcc
bcbe dd
be d</w>
fc ebf
ed eeee
ed dfc
ebd edc
ebe bbbd
bbbf bbbb
bec bebe
bd bebf
bec ded
ef ea
bf bbebb
ed dbec
bbee dd
be dbbee
ff df
bbee dc
bbec bbc
dee a
bbd ebf
be bbebbc
bbbb dbd
bf ded
ebe bbebb
eebe ebb
ed dbbc
bc dbdc
be debf
beebe cc
bc bbecc
bbf dbe
ec edcc
ebc bef
dee dbe
ccc dc
eebe a
ee dbdc
ed bedc
ec bba
ed bcf
ec bbecc
ee dbbbe
dc ba
bbbb bbec
dbc bec
ef fcc
fc bebc
ec dbdc
bcbe bbc
eec bbbc
eec bebc
fbe a
ec eeebb
ed da
ebe ebbc
ccc dd
ef bbec
ed ecbc
bf bbbf
ebd bbbe
ebe bbec
df fbc
ebc fec
ff bcc
ebd bbf
ebd dbd
df dbd
ebe fbc
bd dbbd
ebd bdc
dc beee
bbee ef
ebe dbd
bd b</w>
ee dbbf
dbc eec
ebe dec
ee bbebf
bef bbbb
ecc dee
ec dccc
fc edc
bcbe bbbb
ebb febb
df dcc
bb bd</w>
edbd cc
bbee a
bf ea
bbbe bbebb
bec dbd
bccc ccc
ed bbbf
bd bbebe
bfc bbc
dc fbd
dee bcc
bbbc bbd
ec bbbcc
eec dbd
ecc bbd
beef cc
dc eebc
bdc a
dbe bbd
eec bbf
bd dbec
f dbfc
fee ebe
eebe bbc
ebb bcf
dbc ebc
bbbc ef
ed ac
ed bcee
ecebb cc
ebe bcbc
bbbc ebc
efc df
dc eecc
ed dbb
bc c</w>
ebe bbcc
bd deec
beee bf
bec ebbc
ebe dcc
ebf ebb
ebd bebe
bbbb bbcc
dd bfc
fbe bcc
df dee
dbe bbbe
bcbe bf
bebc bbc
ebc dcc
bdc ebb
efc bf
fbc bf
dc ebec
e bf</w>
dc dbf
a ebf
f dbbee
dec bf
bbbb df
edc dee
ebc bbec
ecc dbc
dbd bbc
ec ebfc
bbbc bcc
bfc fc
bbf bbd
bc dccc
eec bbbe
bbbb ebf
ef ddc
ebc bbbd
ebb ddc
bbbc fc
fee dd
ebbc bf
bbd fbc
bedd cc
f bbbbbbbb
ba dd
bd bbef
ec bbeec
ed bcbe
bb f</w>
ed bcbd
ef bcbc
ef fbe
ed beebb
ecc fec
bec bfc
ec b</w>
ebb bcbd
ba bbc
ed bbdc
ecc ded
ebb ecbc
edc edc
ebd bebc
bbbc dc
bcf bbc
dbe bbf
dcc fc
ebc bcbc
ec eebf
ff bbf
ebb eef
bebe bec
bcc dec
bcf ef
ee ebfc
bebe a
fc bbec
bdc df
dcc eec
ed bccc
ded bbc
ba bf
dbe eec
dbe dee
ec bbebd
bec fbc
fee dc
bbbb ebbc
ecbe bbc
be bbba
be dbfc
bbbb bcbc
cc ccc
bbbb dee
bbbd bf
bbcc bbc
bbebb bbc
ebb bebf
ebb eecc
bd ebdc
fbe bec
bebe dc
bbbb bbbf
edc ebd
bbd bbec
ef dbf
bbbb ff
dbc a
bbee bbf
ecc bbf
ebf bec
bbbb bef
ebc eebc
dee df
ea dd
edc bcc
dc debb
eef dd
bc bbccc
ccc fc
f bbedc
be debbc
ebb eebd
bec bef
dbe ebd
ee dedc
ebb bbbbbbbb
bdc ebd
bcef cc
bebe dd
dbc dbc
dc fed
bbd bef
bb bc</w>
eec dcc
bdc bcc
ec edbd
fec dd
bbd bfc
beee beee
bf ddc
dec df
ed fdc
ef bbbd
ebb fed
a ea
d ee</w>
eebe bbbe
bebc bec
dbc df
bc debf
bdc dbe
bcebe cc
bbbb ecc
dec fc
ebb bcee
bc eba
bbf bbbc
bbbbc bbc
fee ef
ee d</w>
bebe fc
dc bbcc
ff ed
ecc eecc
bec ebf
eef bbc
bebc bf
dec dee
bd bced
fbc bbc
bbd ebbc
ebb eeebb
ef bbcc
eedd cc
fbe bbbe
a dbd
ebd ded
a edc
bebe bcc
bd fdd
dc becc
beee bbc
ff dbe
ef efc
dec ebc
f debbc
bbbb ba
f bbbfc
ecbe ecc
bf beec
dc fbe
bcc ebf
a bbee
ebb bbdc
bec bbee
fc fee
d ed</w>
ebbc ebc
ebb bebbbb
dc ebcc
bd eedc
dc bebd
bd ecf
df ebf
bb eb</w>
be defc
bd eccc
ebe ea
ef ded
ff ebc
be bbbfc
bbbd bbbd
bebc bbbb
f dba
bec edc
dd bbee
dbc ccc
fbc fc
dd fec
dbd bbbb
ed eebd
beee bbbe
bebe bbf
ebb bcec
bea cc
bdc dee
bf ac
bd fef
bbc ded
eec edc
d ec</w>
bc dbbbc
ee c</w>
df bbbe
bdc ecc
bebe bbee
ebc efc
fbe bbf
beebc cc
dbbf cc
bcbe fc
ed decc
be dba
ebb dbbc
bbebb bbbe
ebb fbf
eec bfc
bec dcc
bf bcf
ebd bbbc
bec beec
dd bef
ecbe ebc
bbd ba
ebbc ebe
ee dbbbc
bcc bfc
ecf fc
bcee dd
bbec bf
fecc cc
eef dc
bebe ebc
eeee beee
bbd bbcc
bd bebbc
a bef
dbd dbd
ef fec
ebb bccc
bd ecbd
bbc bbebb
ebb dbbbb
bdc bdc
edc ff
a fbc
ddc dc
dbe ff
bb be</w>
dbc bcc
ebf bbf
ebf ebc
bbbc ccc
fc beec
fc bcbc
bf debb
ed eeec
ed bced
ebf ff
dee bbbb
fbe ff
fec df
ecc eebc
ed bbbbc
bbc ba
bf becc
bd ffc
ebc beec
ebf bcc
bbbc bbf
eba cc
ee e</w>
ebc debb
dbe dbc
ebbc dd
fbc ef
ccc bcc
dc bbed
bd debd
ebc fee
f bbba
bbbe ebd
beee bbee
dbe bdc
bcf ebe
bd bbfc
bec bbbd
dcc ef
dee ef
ebec bbc
bbd bbebb
ed bbebe
bfc ef
ed bbdd
dd fcc
ebb beebe
bc bbbdc
eec fec
dbe bbbc
bef df
bf bbed
debf cc
bcc bebe
dd bebc
ed eef
ccc bbc
bbec bbbb
bcc dbd
a bebe
ecc bbbe
eebe bbee
bf fbf
ee bbbdc
bcbc bbc
ed bdbd
dbc dee
ec dbbbe
ebc ba
ebbc fc
ebb dbb
ccc ecc
dd efc
dc ea
ebc bebd
bc e</w>
ee bbedc
ed eccc
a fee
bf eebc
edc dbe
bcbe ebe
ec dbbf
bd bbebc
fc fcc
bcbe bec
ebbc bec
bcc fbc
bbbe bbbd
ff bec
dc def
bbbe bebc
ebb bbdd
bbc beee
bd bedd
be eac
bef bbf
bebbbb cc
ecc bebc
eec bebe
f defc
edc ded
df bfc
bbbc a
ebc becc
ebc bbcc
bbec bec
bf bebd
f bbebbc
ebb bbef
bd bcebb
dec bcc
ed bebf
bcebc cc
bd fbbc
dbc dbe
dbc bbd
dbb efc
bf eeee
bbbe eec
bbbb fbc
ff ecc
bd ecec
bbc fee
ebf df
dd fee
bc d</w>
ecbe fc
ebd bfc
bbebb ebe
ebb ac
dee ecc
ebb bedc
ec eba
dec dec
bd bcbf
bd cccc
bbbb bfc
bbf ccc
ebc fbe
ebb debe
bdc bbd
fc ebbc
bef bcc
bbbd bbd
ed cccc
fc bbee
fec dc
ecc dcc
bdc ff
bd bebbbb
ec c</w>
eec becc
bc dbbee
bcf ebc
ecc efc
bcf a
bf fdc
ed fbf
ed dbbbb
dec ef
bbebd cc
bef bec
bd eeebb
ecc fbc
dee ebc
bd bba
bbc dcc
dbc ebd
bbf ebd
dbb ebec
f f</w>
eec bbec
bbee dbe
ba ebe
eec beec
bd eebf
bfc dc
dbd ef
df fcc
bbee bec
bef ebc
ed eedc
df dec
ebb beed
bfc ebe
ebb ecbe
ed debd
ff bbbb
ecf dd
fc bebe
ccc bf
bd dbcc
bfc dd
bc bbebf
bbee bebe
fdf cc
ef fbd
ba dc
fc fec
dbf dd
efc dc
ed ebdc
dbc ecc
bd bbbec
ebb debc
bcee dc
beee a
eec debb
efc dd
eec ebbc
ef bbebb
ee bac
dec ebe
dec dbe
bf ebcc
eec fbc
bfc df
fbe df
bf ebec
eec bef
be bb</w>
bbc bbbbc
ebe bebd
bbdd dd
bc bac
ebd fbc
bbd fee
ccc ef
bbc fec
bd bcdc
bd eeed
ee bbccc
dbe bebe
eebe fc
bcc bbee
bbf ebf
eebe dd
bbd beee
ebe bbbf
ea dc
bbf bebe
ebe beebb
bcc bef
bbbd bbbe
eeef cc
bf bccc
fed dd
bfc a
bbc beec
ec eeebe
ed febb
bcc dcc
eec ba
beee bebe
ec efcc
dbc ebb
bec bcbc
bec fec
bbcc bbbb
fbe ebc
fbe ebb
dbb bdbd
dbd ebe
eebe dc
bbbe df
ebf ccc
fee a
dbf fc
dbd fc
bbecc cc
ee dbfc
fbe ccc
bbee fc
ecc ebbc
bd febe
bbcc ccc
dbd a
bbbd ebe
dbd df
bbbe ebf
bef dbe
beee ef
ec e</w>
eeee ef
bf def
bebe bbbc
bf ecbc
ebb bcebb
ed dbbd
bcbc bbbb
eef bbbb
bd decc
dcc ecc
dc fdc
ed bedd
debb bbbb
eebe ebc
bf bcbe
dc eebd
bbbe ff
bd ecee
bebc ebc
bcc ded
bd beebe
ecc bbbc
ebbc ef
bcdd cc
bbed dd
bfc bec
fbe bbee
ecc ebf
ec deecc
bdc dbc
dee dbc
bcc bcbc
bbbf bbc
dec eec
a dcc
bcc bebc
bbec ebe
ecdd cc
bbf eec
eebe ebf
ebb bebbc
efc ef
ebc fcc
ebd ebf
ecf bbc
eef fc
ebd ebbc
bcc fec
a bca
dbd dbe
ebb def
ba ef
cccccccc cccccccc
bbebe bbbb
ded df
dbbbe cc
ebb ebdc
dee dee
bbee ebc
ebb eeebe
bd edbd
fee bbc
bbbf bf
ec debf
bbd bebd
bef ccc
bbbd a
ecc bfc
bd d</w>
ba ba
dcc bbc
fbc df
bbbc eec
dc bcee
ecc bebe
bcf ccc
ea ebe
ef beec
f dbbcc
ebc eecc
bbbb dbbbb
dd fbd
dc beed
bcbbbb cc
fc dbf
bd bbbbbbbb
bbbe ccc
eebe bbf
bf bcee
a bfc
eebc bbc
bdc edc
ecc fcc
bbbc dbe
dcc ebe
eeebe cc
ebb eebf
dcc ed
a bea
bcf bec
fbc bec
eec bcbc
bcbe ef
be dbbcc
bbd bcbc
ecbe ebe
fbbd cc
ec defc
beec bec
bbbc bbbd
ec ebecc
bebc ebe
ec ebccc
ee bbbbbbbb
bbbc ed
dee bbf
ecbe ccc
bebc ef
ebd debb
bdc dbd
bcc bbcc
dbb ea
ebb bbebc
dbe edc
ded bec
dbc bbf
ecf ef
dee ed
ebb bdbd
dec a
dcc bec
dd ba
ecc dbd
ebc ddc
bf bbbbc
ec debbc
ff ebf
ee dba
bbbe bbec
eebe bcc
dbe bbee
eeee a
bbcc ebe
bbc bebd
dc eeec
ebd bbee
bbf bbee
ecbe a
ff bbd
efc fc
ebb fdc
dd ebbc
ebd bbbd
ebc ebcc
bdc dec
ee dbbee
dc debe
dc ecbc
ed bebbc
bebc fc
ed dbcc
bedbe cc
bc dbfc
bd beef
bbd eebc
bbd beec
efc bbc
ebf bbbe
dc eeee
ebe becc
bbbc bebe
bbd bbed
fec bec
ded bf
dbc ff
fc eebc
dee dcc
beebb bbbb
ebb eeec
ebc ebec
dd dbf
eec fee
bcbe dbe
bcf df
bcbe bbbe
ebd dcc
dc dfc
efc bec
ba fc
be bbea
ed bbebc
ed bbef
ac a
dc bcbd
ebf ebf
dbd bec
eeee bf
fec bbc
ebc beee
ea ea
fec bf
bc bbedc
dee bdc
ebb bbbec
bbed bbc
dd beee
bbbb beee
ebb dfc
ed dedc
dd bbec
bbf ecc
ebc ecbc
bbbc ebd
bbf bfc
ec bbccc
ebe ded
dbc bbbe
ed fef
bcc bbec
eef df
bbbc df
ff bdc
eec bbee
eef ccc
fdbe cc
a dec
ec dbbbc
ebc dbf
ecc becc
bec becc
bbf fbc
bbbd bbee
eeee bbbb
fcc ef
fcc ccc
bf fed
fbe ebf
ff dcc
ec dbfc
bd edcc
dc bccc
ecbe bcc
fbe dbe
bd fa
eec eecc
eeee bbee
eebe ecc
ebd eebc
ecf ccc
ff dbc
eec bbbd
dc eccc
bbf dbc
bbbe bdc
beec bbc
fc bbbd
dd debb
ec bbedc
ee debf
ebe bbebe
bfc bbbb
edc dbc
eec ebf
ecbe dbe
bf bcec
ed bcebb
ed ecbd
dee bbd
bec debb
bcbe bcc
fcc fc
bbc eebc
edc bdc
ded ccc
bf bcbd
dbd bbd
edc bbbb
efc a
ebc fed
dc bcec
bec fee
dc bbebb
ee bbebbc
fbbbb cc
ea ef
bcbe a
eeee bebe
bef bbbe
ebb bced
febd cc
fbe bbbc
ee ebccc
eedbe cc
bbf dee
eec bebd
bcbe ebc
ebd fec
ecbe bbbb
fc bbcc
eef beee
ec d</w>
ebe beec
bec ba
fc ba
bf bebf
ded dbe
bec bbcc
bbc bbed
df bbbc
ed fdd
ef bbbf
bbc bbbf
edc ebb
bcc ebbc
fbc dd
def dd
bd febc
bd bbebd
bbf bef
ecf a
bbd fbd
bc bbebbc
eec eebc
ff ebd
bd bbbcc
bbbb bbed
ed eebe
bbc debb
bcf bcc
eec ddc
bbc ebec
bbbe dbc
ed bcdc
dbe dbd
bbbb bebbbb
fc efc
dc ac
dbe bebc
f dac
be debec
fbe bdc
ef ac
dec ecc
bbf bdc
df bebe
bcc bbbd
bbbe beee
f dea
ebe fcc
df ddc
bcf bbbb
ebb eccc
ef fbf
dbd dee
be debcc
bbec dd
ef bbed
fee ccc
bbc efc
bbbe ecc
bbbc bcbc
fc def
ebd bef
ded dee
dcc ebc
bbec ebc
ebb eedc
fc becc
ebb dbec
bfc ebc
edc fec
ecbe bf
bcf bbf
ebb fef
fc ddc
bec eebc
eef bcc
a bbbd
dd eebc
bbd fec
dcc bf
ebb bbfc
ec bbbdc
bc debbc
ed bbfc
bcf dbe
dd eecc
ebe bbed
bbd ebec
ebf bebe
bd dbdc
bbbe bef
eea cc
dbb ebcc
bec bebd
ebb febe
ed ecec
ebb bba
ebe eebc
bd eedd
dec dbc
ac ba
f bb</w>
f bbefc
ecbe edc
ed ffc
bbebb bf
ebbc a
ebe debb
ea bf
ebbc bbbe
dec bbbb
fbc bbbb
d ebac
ebe fbe
bfc bcc
ebc fbd
bbcc ef
bbd bbbbc
bd ecdc
ebc eebd
bec efc
ebb ecbd
ec bac
be bbebec
eef bbf
dc eedc
eebe ccc
bcc efc
ee debbc
ebf ecc
ebc bbed
eebe ff
ee bbba
ebb bcdc
bbebf cc
bbd efc
dc deec
ed b</w>
be bbefc
f debec
fc fbd
bebc bebc
ee eac
dd bcbc
bd dbbbe
eebe bec
dc bedc
bd ecbf
eec bbcc
dc bbbf
ebe ddc
dc bbdc
bf dbbc
dc dbbc
bbc becc
fbc ccc
bd eced
dbb b</w>
eef bebe
ecf ecc
ef ecbc
ebc bbebb
edc eecc
ebf bef
eec efc
bcbe df
ff dee
ed beebc
bebbd cc
dc debc
eec dbf
eeee ccc
fc debb
ebd bbec
ebb beef
bec ebec
be dea
bf febb
a beee
f debcc
bc defc
fc ebec
eec fed
ef ebcc
bdc bbf
bcf ecc
bbbc bbee
dd beec
ebe fbd
bc bbbfc
bbbd dbd
bbbc dee
fee bbee
ef bebd
dd bbcc
edc bbd
bebc a
f bbea
dbe dec
dcc dcc
bbc fbd
ecbe bec
ecc fed
beecc cc
ebe ebcc
dddd dddd
bef bbee
ecc ebcc
bebe beee
bbd bbbf
dbbbc cc
ecc bbee
df bbee
ebb bcbf
ecbe dbc
ebb fbbc
ebbc bcc
ebd efc
ebb dbbd
fbc a
bbbd ef
ebb bebbbe
bcee bbc
ebd bebd
bddd cc
ebd ba
bdbd bdbd
bbbb bebd
bebc bbbe
ebe dbf
dbe ebf
ebe beebe
ebd ddc
ee defc
ebe bccc
be deecc
bebe ccc
bbec df
eec fbd
fee ff
dbd ebc
bbbd bec
edc eebc
ef def
bc bbba
ef debb
fbe bbd
ebe efc
dee bbbe
dd bebd
ebe fec
bc eac
dd becc
bbbc dbc
ebe bbbbc
bbcc bf
ebbc eec
dbf bf
bd bfcc
ded a
bebc eec
eeee bbbe
bdc bbbe
ef becc
bd ebfc
dbb ecbc
bef ebf
dc bcbe
bd dbbf
fbe ecc
bbc fcc
fbc ebc
bbcc bec
dcc bcc
fbe ed
ebbc bbd
bd bbeec
eef bbee
bcbc ccc
fed df
bd dedc
bbbc bebc
ec dbbee
ebd fee
ff fbc
bcee bf
ebbc dc
bedf cc
ecf bcc
ebd becc
edc bebc
ebc ea
eec bedc
bbf bbbd
bfc dbe
a ac
ecdf cc
bbec fc
ebd beec
bef bebe
e a</w>
debb bbc
ed bcbf
bbbb bbebe
ed ecbe
eec ebcc
bec beee
dcc df
bbebb bbebb
dd ebec
ed befc
dbd dbc
ebc debe
ef bccc
bcbe bbf
ebf fee
dee bbee
a bbec
bebe bbd
fbbf cc
ded fc
bfc ff
ebb bbbcc
bbcc fc
bf bbdc
ec dbecc
ea bbc
dd fdc
eddd cc
ed beebe
f deecc
bcc fcc
bbbe dee
dd ebcc
dbf dc
bcbc bf
ed fbbc
beee eeee
ebe eeebb
eef bec
ee deecc
df fec
bdc ebf
bbbd dbe
bbf bebc
bbbc bbec
ecf bec
eef bef
bd eebbc
bcc bccc
ebd eecc
ebb da
fbc dc
ded ef
bcc fee
bbbe bbcc
ebcc bbc
ebe ebec
edc dbd
dea cc
bf beebb
bbd bbdd
bf bbef
ddc fc
ebf dbe
bfc dee
bbbe ebbc
ebe bebf
bcf eec
ff dbd
bec bbebb
beec df
bbbd dc
ecc bbec
ebe ecbc
ebb bedd
bcbc fc
bbd becc
fcc bec
bd e</w>
ff fee
df bef
bbbc bbbbc
bbbc bdc
dcc a
fbd dd
bf bbebe
ebe bcec
bcbe ccc
bbee bcc
ebbc dbe
ecc eebd
bcf ebd
dbd eec
eebc bec
ecf ebc
ded dbc
ff bbbe
be bbebcc
ff bef
ecc eccc
ebbc df
ef bcec
fc bebd
dbd ccc
ecc bef
bebc df
dc fbf
ef fdc
dbd bdc
bbcc ebc
bbbb bcbbbb
ecf edc
bbbc bbebb
dbf bbc
bcf edc
bca cc
dbe dcc
eef bbbe
ecbc bbc
dd bbed
dbd ed
ef ebec
ecbe ebd
a fcc
bbd bdbd
fbc ebe
bebe bdc
ecc cccc
bec ebcc
dee ebd
ef eebc
dbc bdc
bbbd bbf
a bebc
ecc beec
bf fef
bbbb beebb
bf eecc
eef ebf
ebbc bbf
ebbc ebd
ef bbef
fc bbed
bbbd df
ecc bcbc
dec ebd
ebc bedc
dbbee cc
bbd bbdc
ff bbee
ba df
bcc eebc
dd ea
eec debc
eebe bdc
bcc beee
ee bbbfc
eec beee
ebc bbbf
fc ebcc
fbe dbc
bbbe bcbc
edc dcc
ecbe dcc
ec debcc
bfc bbf
a fec
ed eeebb
bcc eecc
edc efc
bd ecebb
bec fcc
ecc ecbc
bebbbe cc
dc ebdc
ebb bcbbbb
dbf ef
fbd bf
edc bbf
ebc debc
bbee beee
bec bbed
dc fdd
ebc bcec
bbec ef
eec dfc
ecbe ed
a bbcc
bcbe bbbc
dec ded
bebc dd
ecc eedc
bcbe ed
dc bbdd
edc ebf
fee beee
ee bbea
dec bdc
beec bf
dbe bef
dec ed
bbd fcc
ebec bbbb
ec bbebf
ecee ccc
bd c</w>
fee fc
dbb ac
bcbc dd
dee eec
dbc bbbc
ebe eebe
fee bbf
eef ebc
ebf ed
fec ef
df fbd
dbc dbd
fbc bcc
eebbbb cc
bc bb</w>
bf dfc
dbe bbbd
bbec dee
bb ee</w>
fbc ff
bec dbf
dd fed
bf dbbbb
bc dba
ebe eeebe
a fbd
ecc bebd
dd bbdd
dd def
bbd fbe
dc decc
bbbc ff
dc dbec
ebb ecec
ebd bcbc
fc beee
ebe bcbd
bebe dbe
ba bbbe
bbbc ebf
ed beef
bebc bcc
bbee ccc
ef fef
bbcc bcc
dddd cc
ebe bcee
bbc bccc
ecc ebec
dd bdbd
ea bbbb
fcc eec
bbed bbbb
bec fed
ed bbbec
fc dbec
dbf a
bbf dbd
bbee bbebb
bebbf cc
bcf ebf
bbc ddc
ebb bcbbc
bebe bef
dc ecbe
ebb eeef
bcbe eec
bbbd bbbc
ee dbbcc
bd ebbcc
dbe bbec
bebc ccc
ebb deec
dec bbd
ded bcc
fbd ef
ecc ddc
bf debe
bebe ebf
ed eeed
bf eebd
bdc fbc
ebe dbbc
fbd df
dc ecec
fee bbbb
fee df
bbbe dbd
bbee bbd
ebb bdbc
bf da
ed febe
bbee bbbc
ef bcbd
bbec a
ed beecc
ebc bcbd
dcdc dcdc
eeee bbc
dcc dee
ff edc
ebc def
dc ffc
dbc dec
beee bbf
bd dccc
bcbe ecc
ebec bec
bbbe bbbbc
bbbb debb
bbebb bbbc
bdbe bec
bbbd fc
bbc fbe
fbc bbf
bbbb bbdd
bebe ecc
ef bcee
dbd bcc
bfc eec
ef bbebe
dd dbbc
dd fbe
ebe bbef
ff eec
ebcc fc
bf fdd
ebb cccc
beee fc
a bcbc
ec bbbbbbbb
ef bebf
ed edcc
a bda
ebe fbf
eebe edc
becc bec
dc eeed
bf eef
bcbe bbd
bebe df
ecbe bdc
bdbe fc
bef bef
bcbe dee
ef dbbc
ded ebc
fec bcc
fbc eec
bbbe ba
ea fc
bbbe bbbf
bbec dbe
dcc ebd
bbbd ebc
ebcc ebe
bbec bcc
bcbc bcc
bcbbd cc
ecc debb
bbee df
ebbc bbbc
bbbe bfc
bbbb edc
bebd bbc
fee bebe
dc bced
bbcc dd
ebf bbd
ee ecccc
bf beed
dcc edc
eebc fc
dbc bebe
ec ecccc
ed dbdc
ef beebb
ebb fdd
bdc ded
bf eccc
bbcc eec
beebd cc
ebf ebd
ebb ffc
bebd bbbb
bba bbbb
bbebe bbc
bbec bbd
da a
ef bcf
fee bcc
fbe ebd
ebb fbbbb
bbbbc bbbc
df ba
df efc
bef bbd
ebf eec
ed dccc
bf bcbf
ebcc ebc
beee dd
dee dbd
eef dbe
ccc eec
ebe bbdc
bebc dc
dec bbf
ccc bec
ebf bdc
bcdf cc
fbe eec
ed ecdc
bd debf
ecf eec
becc eec
bd bbecc
dd debe
ebc dfc
a ded
dec dcc
bbebb bbf
a ebbc
ddc bbc
ebd dbf
f bbebec
fee bbbe
ed bba
edc fbc
bcee fc
bd eba
ba bec
df bebc
dee bbbc
bb ebac
bcc ebec
ed eedd
ebc bccc
eef ecc
ebb febc
bdc fec
ecbe ef
edc bfc
bf dbb
bdc bbbc
dc bcf
ed edbd
dd eeee
dbe bfc
bd dbbbc
ff bebe
dc bbbbc
bef ebd
ebf bbee
bec eecc
dd dbbbb
ddc ef
bec fbd
ff fcc
edc ebbc
ded eec
eebc bbbb
dbd ebd
dbe fbc
ee dea
ecbe bbbe
dc bdbd
ebcc ef
dc da
ecf df
edc fcc
dc eebe
fbe bfc
bc dbbcc
d ebb</w>
ba bcc
ecee bbc
ded dec
dc febb
ebe febb
ebe bcbe
ebb debd
ba bba
bebe bebc
a ddc
becc bbc
bc debec
ba bbf
dc dbb
ea df
ebd fcc
dbe bcbc
efc dee
be f</w>
be dbbbbc
bcee bec
ecc fbd
fec fc
bebd dd
a bbebb
a bbbf
bc deecc
bbbb dec
bbbb ebec
beee ccc
ebc bbbbc
beec dd
a efc
fbbbe cc
dc ecbd
ebb eebbbb
bbbe fbc
bdf df
bbc bbdc
dee ff
bebe bbebb
ebb bbebd
bef eec
bd eeebe
dc bebf
cccccc ccc
ee debcc
ecbe df
f eb</w>
bbec eec
bbf ebbc
ebc eedc
ebf bbbc
a dbf
ebc bbdc
dbc edc
ecc fee
ebd fbd
bbc bcbd
bbf bbbf
bbbbc bbbbc
ebc eccc
bcbe bbee
ff bfc
bdc dcc
ec dea
fcc df
fc bbbf
dbbc bbbb
bcbc ef
ebcc eec
bcf bbbe
ed ecf
bcc becc
bbd bcbd
ff bbbc
bec fbe
dc bedd
bcc beec
bcee dbe
fc fed
bebc ebd
ebcc dd
ebf dbc
debb dd
bbf fee
eebbd cc
bc ecccc
ed d</w>
edc beec
edc becc
dee ddc
fcc bbc
eebe ebd
ac ea
ebe eecc
bdc efc
bdc bebe
bebc bbd
ecbc ccc
bdc bfc
ebc ebdc
dbbc bbc
dc beebb
eebe bbbc
bf debc
dee bbec
bcbe ebd
bef ecc
ecbc fc
bbebb bec
d bf</w>
ef fed
bbebb bbd
bcf bbd
fbd bbc
ed fa
dee dec
eeec bbc
bb ed</w>
bebd bec
eecc ccc
a eeee
df dbf
ba dbe
bef dbc
dc eef
ebd debe
ebbc ebb
bbbbc bbbe
bcbe dbc
ebc beed
bbf edc
bcec bbc
dbbbb bbc
ed bebbbb
ecc bbcc
ebcc bec
ec eac
bebe ebd
bbf ba
bd bbbdc
dee ebb
a da
bcbc bec
bf ecbe
bbbb beec
ebc eeec
df ded
bcf dbc
edc debb
bbd ea
bbbb fee
ddc eec
ed bbebd
bebe ff
bbec bbbe
fc bccc
ed febc
bef bdc
df ebbc
ec dba
ecc fdc
fc beed
bbebb ef
bef bbbc
ebb ecf
ebb eeed
efc bcc
ebf beee
bf bedc
ed eebf
bbed bec
ebd beee
fdbc cc
eebe bbd
bbbd dbc
eebc ebc
dec ff
eec fcc
eebc dd
bbbb bbdc
eca cc
dc bbef
ed bebec
eec ea
eeee bbf
df bbcc
ef bbdc
ec debec
ded ebe
bbebb bebe
bbbe bbbbbbbb
ebb edbd
dc bcdc
ecc bedc
bebc bbbc
bbbb dbf
ed bea
ebd ebec
ebbc dbc
bd ecdd
ecbc dd
ed dbbf
ebb decc
bdbd dd
bebc dbe
ebc dbbc
ebb bdbe
bbed bf
bbbd bcc
bec bedc
bebe dbc
eeee fee
bbc eebd
bebc bbf
ba bbd
fc eecc
dcc dbe
ef febb
eec ebec
bec ddc
bbbc dbd
ed bbecc
bbbc bbcc
ebd bbcc
beee bcc
bb ec</w>
bf bced
bcf bdc
dcc ff
beebb ebe
ebf bfc
eec def
fc bcbd
ebc bcee
febf cc
df bcbc
ecbe bbd
bbbf bbf
ebf edc
becc ccc
df fee
df fdc
fc bcec
ebb edcc
dc ecdc
fed ccc
dec dbd
ebb dbcc
dbe bbcc
bef dee
ec bbbfc
ecc ea
eebe eec
dd ac
ebd ebcc
bc dbecc
efc ff
bcc ddc
fec a
f be</w>
bf ecbd
ec deccc
ebd ecbc
ebbc dee
bbbf bbbe
fc deec
bcf dee
bbbb bcbd
bfc bbd
fc ecbc
ebec a
ecc eeec
dc eedd
eedf cc
bbec bbf
f bbebcc
ed bfcc
bec beed
bbbbbbbb cc
bf bbfc
ebb bdcc
bcc ba
dbb bddd
ec bbebbc
ebb fa
ebc fdc
bbc def
dbd bbbe
bbbd bebe
fcc dd
bcbc ebe
ed bebcc
bdc bbee
ebb b</w>
bbc debe
bcc fbd
dbc fbc
dec beec
edc bbbe
ebf dee
ebd fed
ef beebe
ecf ebe
dc bbebe
fbe ba
bbbbbbbb bbc
ebbc ecc
dbd bbf
bebc dee
ebb ecebb
bf bcebb
ebb eebbc
bd efcc
edc bebe
bd ebbebb
eebc ccc
ef da
ff ddc
dcc dbc
bbbc ecc
bd eeef
ef beed
bf fbbc
fc dfc
bcee bbbb
ebec bcc
bbc ea
dbb ebdc
ef dfc
bbc fed
ebd ea
bef beee
ebf fbc
ebbc bebe
edc bbee
ec dedcc
ed bcdd
bccc cccc
ebec ebc
bcec bec
bbc ebcc
dc fef
ed bcbbc
dc ecee
bbbd eec
bcf bfc
bbebe bbbe
bcbe bdc
bbed df
bdf bec
fee fee
eeebe ebe
ecbbd cc
bdf dbe
bcc dbf
ed dbbbe
ccc ebe
dbd ecc
dbb ecbe
bcec dd
beec bbbb
bbf bbec
dcc bbbb
bbbd dee
bbbbbbbb bbbc
fbc dbe
bebc bebe
ebc febb
ebec dd
bbc eeec
eec ecbc
bf eebe
dbc bbee
bbc dbbc
dba cc
eef bdc
fc bedc
bcbd dd
a fbe
ef bbbbc
dbf df
bebc ecc
bcee ccc
fbd bec
fc fbe
bf bbebc
efc dbe
ef beef
fc bbebb
bcc ebcc
be be</w>
bcec dee
ebd debc
dbd bbbd
ef eccc
ebc bebf
bf ebdc
ddc ebe
ba ff
bbee ebf
ed debf
bf ffc
ded bbbb
bec def
ee bb</w>
ed bbbcc
bbc ecbc
bbd eecc
bbf bbebb
ebbc bdc
eec dbbc
bebbee cc
eec eebd
dc dccc
be eb</w>
bdbc bbbb
bcf bbbc
ebb ecdc
be debdc
bbf dec
bdbe bbbe
ebbc bbee
ebb eedd
bcee ebe
bf eebf
bbed ebe
bbd eebd
beff cc
fec dee
bcbc bbbc
bcbe ff
bbf bbcc
bc debcc
bcee df
dbc ded
ddc ecc
ec dbbcc
dbd ff
efc ebc
bbec bebe
eebc a
fc ea
becc ebc
bebbbc cc
ed bcfc
dc bcbf
bcc fed
dddd dd
ebd eebd
bf bebbc
fc ac
becc ef
bdf bbbb
ecf bdc
be dac
dbb ecbd
eec bbed
edc bbbc
bec ecbc
debb ebe
bcee ebc
bbc eecc
bf febe
dd eebd
bdbe a
bbebb a
ded ded
fbe dee
ed eced
fc debc
bbc beed
bbf bcbc
edc fee
df bbec
eef ba
ebb bebec
dc dbbbb
dd dfc
dbe beec
ed bcebc
bbbd ebd
fec dec
bf dbec
df ac
ecbbbb cc
dc dedc
fbc dee
fc fbf
edc fed
bcc bebd
dc debd
bbbc bfc
bd dbbee
dbe ba
efc dec
dc edcc
eeebb bbbb
eebc ef
bbebe ebe
dd eccc
bbd ebcc
ebb beebc
bdc bbbd
edc ebcc
edc eebd
ecc bccc
bf bba
ecf bbbb
efc eec
ecc bbbd
ebb bdebb
bbbe dec
bbdd bbbb
bbee dbc
bf cccc
bfc dbc
bdbe dbe
ebf bebc
dc dbcc
bbbc ebbc
bbc eeee
bbbf ef
ddc bec
ebec fc
bbd fed
ecbe eec
debb bec
ebe ac
dd bbdc
bcee a
ecc beee
bbee ebd
bdc bebc
ba bca
fee bec
dd bbebb
bbed dbe
efc bbbb
ecc debc
ebb dbbbe
ddc df
bbbf fc
beec ef
ebb bebbd
bc dea
bbc bcec
eebe dbc
bbbf ebe
ff dec
ecbc bec
dc b</w>
ecc dbf
dee bebc
beec a
bbbf a
bf bdbd
dd bcbd
edc ebec
bc bbefc
eef bbd
ebcc bbbb
bbc beebb
fee dbe
dbb bdbc
beee bec
f deccc
ccc ebc
fdc df
ddc ddc
eef dee
bbbf bec
bc bbebec
ef eecc
bbbc bef
ccc df
bbc bebf
be bbac
bbec bbec
ecf ebd
bbee ff
bbed a
bf bbdd
dcc bdc
eebe ba
fbd fc
bbbe edc
beec dec
eef dbc
bebe eeee
fbc bbd
ebbc bbbd
bbc fbf
bbf dbf
eec eedc
ebb bcdd
ebb ebfc
eec decc
bcbcbcbc bcbcbcbc
ee bbefc
ecc edcc
ebe beef
eebe dbe
bbcc a
bf beebe
ea dbe
fbc bfc
fec ff
fee eeee
fec dbe
ed ebfc
ecbc ebc
dd b</w>
bf eeec
ed eebbc
ddc bcc
dd eeec
f dbbbbc
ebbc ff
fbd a
ed bebbd
ebb bcebe
ed bcef
dbb bdbbbb
ebb bea
efc ebe
fcc a
dbf bbbb
bbec ebd
fbef cc
bbbe beebb
ebb eba
eec fdc
dcc dec
eebc df
bbc bbef
bdc bef
dbd ded
bbebb bbee
bfc ebd
bf bbbec
ebb befc
bbbe debb
bbebb ebc
ed e</w>
edc bebd
ebb bded
bba a
ecbe bbf
bbd eeec
dbc bef
dc eebf
eebbf cc
bebe eec
bbc bbebe
ebe eebd
ed c</w>
ebbc ebbc
df bbbd
bbcc bbcc
ebc cccc
ccc bbbb
dc eced
ba bbbc
dcc cccc
bd ebecc
bcbe bbec
bcee eec
bbd b</w>
bbed dee
dbc bbbd
ed bbeec
bcc debb
ff dbf
becc fc
ebec df
ebb ecbf
bec debc
ed fbec
ebe fef
bbee bdc
dbd dec
bfc bbbc
eebc eec
bedbc cc
ebe eebf
ded bdc
ebb bdf
ebc fbf
ebe beed
bbf fcc
eecc fc
ea ba
f debdc
dbc bcbc
dbc ebf
fbc ebd
bbec bbbc
ebe fdc
ecc decc
dbc bebc
bbdc bbbb
ebe bedc
bcec df
eef ebd
dbc dcc
bbbe bbed
ecbe dbd
dee bebe
bbc bcee
bbd beebb
becc a
bf bdcc
eef eec
def fc
dc dbbd
dbe beee
def ccc
bbd beed
ecc ba
ee debec
dd beed
ebe febe
dd dbb
f bd</w>
eebe df
bbf beee
eebe ea
bebd df
eebc bcc
dd debc
ded dbd
eec deec
ebe debe
bbebe bebe
dee edc
ec ebdcc
ebc ecbd
ecc ebdc
bdf ccc
dd bccc
ebc eeee
ec bbba
fbebe cc
bcc bbed
dbf bec
ecee dbe
ed fecc
bcbe edc
beec dee
fbe edc
dc bdcc
dd da
bbec dec
fbe bbcc
eec bcbd
eec beed
bb ebb</w>
dbd bebe
ea ccc
bd bac
dd ecbc
ebd bbed
bf beef
dd fdd
ef debe
bbbe bebbbb
ebbee bbee
bcbc ebc
bbd eeee
ecbe ddc
fcc ff
fc dbbc
bdbe bcc
bcee bcc
bcbc a
bef bfc
d ef</w>
ebb ebbcc
bbd fbf
bbbe bebd
dbe ded
ef bced
eccc ecc
dd fbf
ebe debc
ef cccc
bcbe dec
bdf bcc
bbf fbd
ebe bebbbb
f bc</w>
ebb bdbf
bbdc bbc
bebc dec
edc ddc
ed fbcc
bdbc bbc
bbbd bdc
ecec bbc
bf bebbbb
ebc bbebe
ebbc dec
bfc ecc
eecc eec
bfc dec
ef dbec
ba ccc
eebe bbebb
fcc ebc
bfc bdc
ebb bbeec
dbbd bbbb
ebd bbebb
def a
bbbbbbbbbbbbbbbb bbbbbbbb
fed bec
ebe eccc
bebc ff
bcee dee
bf ecf
ac da
bc ffcc
ebb ecee
eeec bec
bbbb fbe
bbcc ebd
ebc bced
bfc bbbe
def dc
be bd</w>
bdc fee
ecbe dee
ebbc bebc
bf eeebb
bcf dbd
edc bef
bebe ba
fbc fbc
eeee bef
ebc beebb
ebf ba
fbbee cc
eec bccc
eecc bec
bbee bef
ef ebdc
ddc a
bbee dee
ef fdd
bcbc dee
bbbb ded
be bc</w>
eebc ecc
bcf bebe
bbbf ff
ea ff
ddc dbe
fcc bf
ed bcebe
eebc ebe
ef eef
fbc ecc
ef febe
debe bbc
bbbe bbebe
dbd bbbc
fee ebf
bdbe ebc
ecbe bbbc
eeee ebf
ed ecbf
beec bcc
fc bbdc
fcc bcc
debb a
ef debc
ecf dbe
ee bbebcc
bcbc df
dc dbdc
ddc dee
bbbb fbd
bbd bbebe
ba bea
bbd ecbc
ef eeebe
ccc a
ded ecc
dbf dbe
debb ebc
ee bbebec
bbf fec
ebbc edc
fdcc cc
fbe dec
bebd a
ef bcbe
bbee eec
bfc fbc
bbbbc bec
bebf bbc
ebb bdee
bbee bbec
bcf dec
ec debdc
bebe edc
fec eec
bbbf dd
bbbb bbbec
ebb eced
bdc ebec
ebcc bcc
bcebd cc
beee ff
bbee ecc
ebd dbbc
beebb bbc
ef eebd
bddd dd
f bbac
bd dbfc
bbbc fbc
ba dee
ccc dcc
beec dbe
bebe bbcc
ccc ff
ed beebd
bbec dbc
ddc ebc
eccc dd
ebd def
ebb bebbf
bbd bbbbbbbb
bbebb bbbbbbbb
bcbbf cc
bbbe fee
ebcc a
eebc bf
eebc bbf
eeec a
dee bef
debb fc
bcc eebd
ebc ac
ebe bced
bec bbbf
bec dbec
ebd dfc
bbec dc
eccc fc
fbbbc cc
ed ebbcc
ebb dbbf
ff fbd
ddc dcc
dbe ebbc
bbcc bbbc
bcbe ebf
ebb bcebc
eec da
debb df
f ee</w>
ee ebdcc
bccc bcc
bdc ebbc
becc ecc
eec debe
ebb bebbee
bbc dbbbb
dbc bfc
bbd febb
ccc dee
ded dcc
beee ebf
dec bebc
ebe bcebb
bdbbbb cc
fc fdc
ef eebf
bf ecbf
ecee bcc
bcf bbee
bf fa
dbe bbebb
dbd dcc
bbd bebf
dd bcee
ff ba
ebe fed
ebe eef
eec bbdc
dec bbbe
dbe dbf
ecee ecc
ac bbc
dc bded
bbf dcc
bda cc
ea dee
eecc bbc
dc ecbf
ebe def
ebe dfc
debb bbbe
ded beec
beee fee
dbb eccc
be bbeccc
beee ecc
bebd ebc
bef bebc
dc eeebb
edc ecbc
fbc bbbe
bef ba
eecc ecc
bec beebb
fec bbbb
fee bdc
fec ebc
ecec df
dbe fcc
efc dbc
bbd bcec
bdf bbf
ed edbf
ebbc ebf
dc bbfc
edc eedc
beee bbbc
bec bbbbc
bbc bbdd
fbc dec
ee f</w>
ebe bba
ebbbbbb cc
ebb bcef
ed fdf
a eba
bbbb bbbcc
bf bcdc
ecbc bcc
edc debc
ba ebc
dd bcec
ebd bedc
fbe dcc
bec bcec
bbbb bdbd
dbf ccc
ebb bcfc
bbbf bbbc
bec ea
ff bcbc
bbd bedc
bbbb bbebc
beec ebc
eef ea
bbc bedc
dbe bebd
bbee bebc
ebcc ecc
ebb fbec
bbee eeee
bbbb bebf
eef bbbc
ed eba
bbcc bbbe
fcc ecc
fbe bbebb
bd bbccc
ebb bfcc
ed ecebb
dd dbbd
bec eebd
ef ecbd
a bdbf
ecf bbf
bec deec
dbe ddc
a fbf
bbbb dbbc
eecc ebc
eec bbebb
dbf ff
bbd fdc
beee bef
dbc fee
ed eeebe
bbbb bcbe
fed bbc
ed eddc
ebcc ebd
bebe bcbc
bbec bebc
bcc eeec
eec eeec
ebcc bf
bdc ddc
f ed</w>
bcc ffc
dbe debb
bbed ebc
ebb dedc
dc beef
ac dd
bbc bbbbbbbb
bdbe bbd
fec dbc
dec bef
beebf cc
bbbb dcc
beee ba
beec fc
edc eccc
dc bcdd
bfc bfc
dbe becc
efc ecc
bebe bbbd
edc fbd
bbee ba
ecf dbc
bbebb bbbd
ac df
dc bbebc
eebc ebd
bbcc bbd
ecee a
bbcc df
bec bcbd
eec dbec
ebb bddd
dee ebf
eec ebdc
fbc dbc
dd bbbf
bdc bbec
fbe bbec
dee bcbc
bb bf</w>
ebec bf
ea bcc
ebe bcf
bec bccc
bfc ebf
bbbbc bcc
bdc fbd
efc ded
bec bbdc
dd decc
bbed ef
def df
ebc bbdd
ebc deec
ebe bebbc
eecc a
ebbc fbc
beebb a
bd bbedc
bbbb bccc
debb ef
bdbe df
eedbc cc
bcbbbc cc
ed bedbe
bbc bcbe
bd bb</w>
eec eccc
bebd bf
bebd ef
bd defc
bbbe beec
dbd bdbd
edc eeec
bbbb eebc
bec eedc
dd d</w>
bbbc dec
bbd bccc
eeee ff
ed defc
eebc bedf
bbbb becc
bd bbebf
bdc eebc
bcbbbe cc
f ec</w>
beee ebc
ecc ecdc
bcf dcc
dbbbb bbbd
bbbb fbf
ebec ef
bec dbbc
ebec ebe
bdc beec
edc dbf
def bbc
bec dfc
ed feec
bbbe dcc
beed df
bd debbc
ecbe dec
bbbbc bbd
fed a
ebb bbecc
ddc dbd
dc beebe
edc bbec
dc edbd
ddc dbc
dd cccc
ef eeef
ebf dec
dc bcebb
bfc bebc
bec eeec
ebb bdbbbb
bdc eecc
ebc dbec
bc bbea
fee bef
bbba cc
bdbe bbf
dbb cccc
bbcc dbe
be deccc
ebb bebcc
bebd fc
bbc febb
dbb bdcc
bcc bbebb
bbcc ecc
edc bcbc
bccc fc
eebd dd
ed fbbbb
ded ebd
bbf bbef
becc ebe
dbb ecec
bfc bef
bcee ef
bd dba
ded bbec
ecbc ecc
ebbc dbd
ed dbbee
beec eec
dbe bbed
fbe bbbd
bdf dbc
ebb dbdc
ebcc edc
bcf bef
bebe bbec
dbbbb bbbbbbbb
ed efcc
fbc bbbc
bdc dbf
dd bedc
bebbbb bbc
bdbe bbbc
bf deec
ebc bedd
bec debe
bcc def
ded bbd
ebd bbdc
ef bedc
eebd bbc
beebb bbbe
ebbc bbec
bcc bbbf
dd deec
fc eeec
ddc dec
bf ecec
bcbe dbd
fbe ea
ebe bbebc
dbe fee
dbc bbec
bf dbbd
ebe ebdc
dc fbbc
df ea
dd eedc
ebb bddc
dc febc
ee bbac
fdc ef
ecbc bbbb
eec bcec
ecee fc
bbbd ccc
bbef bbc
eec dedc
ee deccc
bbf efc
ebb fbcc
eebbbe cc
ded ff
dfc fc
febb bbbb
dd ebdc
cccccccc cc
ebf fcc
bbf beec
a bbed
dbc fec
dd dbec
eec bedd
bbbe becc
ecee dcc
eeebe eeee
bdbe ebd
ed deecc
eef dcc
bdf ecc
a debb
fbe bbbf
ebcc df
dc febe
fdbd cc
bef dbd
ed ecdd
bebe dee
fbe dbd
edc ea
dbf bcc
eebc dbe
dbf ebe
bbc debc
a ebec
bcbe bfc
ba bdc
bef dec
dbb bded
bebe fee
ef bcbf
bcee ecc
bbbc beee
ebf ebbc
bbf fbf
bcf bebc
be bbebdc
ebb bdec
bbef bbbb
fc debe
ebd bbbf
ff bbec
ebb bcbec
bdbe ecc
ec ffcc
bbee bbbd
ed ecbbc
a fed
edc dfc
dc ecf
bebbc bbbb
bbbc ba
ebe bdbd
ebf eeee
bdc bcbc
dcc bbd
ebe eeef
fec ded
ed dbbbc
ebf bcbc
d a</w>
fbd ff
bdbe ccc
dcc dbd
bcbd bbc
dd bddd
ebf bbbd
bdf dee
bebc dbc
ef eeebb
dc bcef
ecbe bbee
ebc bcdc
bdc fcc
ebe bbdd
ed debbc
f db</w>
bbf debb
bebe ebbc
ebb eea
fbe ebbc
bec ebdc
ebec ebd
ebf dbd
ed beeec
ee debdc
dc c</w>
bbed fc
ebec dbe
bdf ebd
ebe dbbbb
eebc bbd
bdc bebd
be db</w>
bcc bbbbc
bf bcef
dee ba
fbf bbc
bbee ebbc
edc bedc
bbcc bbf
bebe beebb
df becc
fc da
dc ecdd
bebbbb bbbe
bf dbcc
ded bebc
ebc decc
bcee bbf
bcbe bbebb
edc bbbd
dbb edbd
ebf dcc
bbbb fec
ebb bbbdc
fbd ccc
bc f</w>
beee dbc
bccc bbc
ec f</w>
bdf bbd
bebe bfc
ee dac
ecc bbed
bcbc bbbe
ebe da
bbee fee
ebb fbbd
bbec ff
fc eccc
dc bdee
ef bba
ebb fecc
fbc bdc
fbebc cc
dee ebbc
beee dbe
a beec
eebe bbebe
fc eebd
bdbc dd
eec fbe
debb bbd
debb dbe
ecc bcec
ebb ecbbc
ef fbbc
dee bfc
bbbf df
bd ebccc
ecee ebc
bc dbbbd
bf eedc
ed bcbbbb
bbbd ff
ef fa
bcbc dbe
ea bbbe
ed edbc
bbebb bcc
ed dbfc
bcebb bbbb
ebe cccc
bbdc dd
edc decc
dbbbb bbbe
bc dbbbbc
ecee df
dec bbbc
bbc fdc
ebbee bbbe
bcf ebbc
dbbc dd
ebd fdc
beec bebc
ebe bbbec
ebec dbc
ded bbf
ddc bbbb
ecc beed
dfc df
ecbc df
bcbe dcc
ccc dbe
bbbd bbebb
ea bec
bbcc ff
ebec bbbe
ecbc bf
ebd eedc
ebec dee
fbc fec
ebe dbec
efc bdc
ebe eeec
debb bf
bcc fdc
fbd ebc
bef bbec
ec bbefc
fbc bebe
beee bbd
bfc dbd
dbf ebc
beee bbebb
bef dcc
eecc ef
ebe ecbd
eebc dbc
ebd eeec
ec befcc
ed eefc
bcbc eec
fed bf
bdf eec
becc bcc
ebb febd
eeebb a
bcbbbb bbc
bdf ebf
dc bddc
bcbd bbbb
efc bbf
ba dbc
bebf bbbb
dbb bdebb
eebe dcc
dc bddd
dec bbec
bcbc bbf
dec edc
fec bdc
bbd bcee
bbd bbef
ef bbdd
bbbc bbbf
bcec dbe
beee bdc
fec bbf
ffc df
fc bbbbc
ebd beed
debb ccc
bbbbbbbbbbbbbbbb bbbbbbbbbbbbbbbb
bcbc bebc
ebb bbebf
bcbe bbcc
dee fbc
ea bbf
bbbbbbbb bbbbc
ebd ebdc
fc beebb
bdbbd cc
dc bebbc
ecee dbc
becc edc
dd dbcc
dd bbbbc
ddc bf
eebc bbbe
eec bbbf
ebb bfbf
dbb d</w>
ecc dfc
ebc bbef
bbebc bbbb
eecc edc
eebe bbbd
ebb bedbe
fc eedc
ef eeec
dec bebe
bc dac
ebb fbbbe
def bf
bbec ecc
bebd eec
bbbbbbbb bbbe
ebe bbfc
eebef cc
ba bebe
debe bbbb
debb bbf
fbd eec
ecbe ff
ebb fbbf
bebd dbe
ebc ecdc
bdbe eec
eedcc cc
ebd eccc
febb a
fbd bbbb
dbd ddc
ecbc ef
beee df
dec bfc
bbbec bbbb
ecec bcc
ebb dbbbc
ecc fdd
ac fc
beed bbc
bef ebbc
bbcc bdc
bc bc</w>
bef bbebb
eebc edc
fbc bebc
bc bbebcc
ebc debd
dee beec
dc bdbc
bbbf bcc
bcf efc
ee dbbbd
bf eeebe
ed eeef
ed bedf
debb bcc
eebe ebbc
fcc fec
dbb bdee
ff fbf
bced dd
ebe bcbf
ebd bcbd
dee dbf
ebe bcdc
bbbd dbbbb
ff bbcc
ecbe ebf
ebec bbd
bcee dbc
fee dbc
bba bbc
ebb bbccc
eef bfc
bcec fc
bf fbbbb
ff bebc
ed ecee
bbbb bcbbc
dcc bbf
deec df
bebe fbc
bbbd bebc
ed fbbd
bf bfcc
ebec eec
eeec df
ff beee
ef bbfc
beed dd
bbebb fc
ccc edc
ef ffc
dbb bdbf
dbb ecbf
bcf bbec
fdd dd
dc dddd
ec bbfcc
fa a
beebb bebe
dcc ded
ecbc eec
dbe fbd
dbf bbf
ed beccc
febb bbc
dbe fec
beed bec
ecbc ebe
ebf bbcc
ff efc
bbdc bec
ed febd
dee bbbd
ebb edbc
bdc debb
ff fec
bbbb efc
dee bbcc
bdc fed
bccc bccc
bf bbbcc
ecc ecbd
ebc bcbe
ebbc bfc
dfc dd
bedcc cc
bcbc bbd
ebc da
a fdc
bbf bbed
bf edcc
ebd bcec
bebc edc
bbbf bbd
bbf bbbbc
fbf fc
bef edc
bbbb bbef
dc fa
bcc eeee
bbdd dbd
ebd febb
bbdc ebe
ed eea
bcc bedc
eeebb ebe
bdc becc
eef dbd
fbf ef
bcee bbbe
bf bcbbc
bebd bbbe
bf fbbd
ecbc a
ecc eedd
ed debcc
ecc ac
dbbbb bbd
eebd a
ebb eddc
dbc ebbc
fee ba
bcc ea
bbbc bbbbbbbb
fc ebdc
bbc ac
dc ebfc
eecc dd
fdd df
ddc ff
bebc bbee
fc bebf
ebc bdbd
ebb bebdc
bbbb bebbc
bf febc
bcf dbf
ef bbebc
bbbc bbed
eebe bbbf
dcc fec
bcdbc cc
bcbe bbbd
eebe bbcc
fdc dd
bf befc
da dd
dbd edc
ebe bdcc
beec dbc
ecec bec
efc ebd
ecf bfc
fee bbd
dc befc
ef bcebb
debb eec
ebec bbbc
bdf bdc
bbbb ea
bf edbd
bbee beebb
ebd bbdd
bef bcbc
ebf bbec
ed bebbbe
bbbec bbc
fcc edc
bbef a
bbbb eeee
ecf bbd
beec ded
ed eddd
eef bebc
eebd df
bc eeeecc
ef bdbd
bbbbc ebe
bccc dd
fee ebc
bbf ea
bbbe eeee
ebd fbe
ee dbbbbc
bbee bfc
bdc ba
eeec dd
f bbebdc
def bcc
bdee bec
dbd bebc
eebd fc
bbed dbc
bdbe dee
efc bebc
bd bbba
bf bdbf
ebb bdbbc
bef eeee
beee dc
beebe ebe
ebd bdbd
becc df
ddc bdc
bbd ac
bbdd bbc
fed dc
bdee a
fc eeee
bd eac
ebec bbf
fbf a
eebd bec
ebb bebbbc
dbf ecc
fc fef
bbbb febb
bf bdbc
fbc ebf
bbed eec
bbbf ebc
bfc bbec
ebec ecc
dbb bddc
ef bdcc
dbbbb bbbc
eebd ebc
bbebe bbee
ed beedc
fee ecc
bbf fbe
bdf bbbe
fcc ebe
bf ecdc
bdbe bdc
df ebcc
efc bbd
fc bcf
def dbe
eec beebb
ed ebecc
fed bcc
ecec dd
bfc ded
bbbbc bbf
bd deecc
ba bbee
ebdc bbc
df fbe
ddc ebd
ebec dec
bbebb bebc
bbcc dee
ef deec
a bebd
eccc ebc
df fbf
bbbc beec
a eebc
bbbf dbe
ecbc dee
dbd fbc
ecf ebf
bbed bbd
bdbe bbee
bef bbbd
df beee
debe dd
ebcc dbe
ef bcdc
bc debdc
eecc bcc
bdc beee
ba ebf
dc fecc
ba bbbd
dbc beee
bbbf bebe
bbbcc bbc
bbbb bcebb
bc befcc
bbbbc bbbd
eebe bbec
bbbb bba
a becc
bef ea
bcbe ebbc
bbf bebd
ebc ffc
dfc bbc
dbbc bec
bbbb fcc
ebf fec
fc bcee
ec dac
debc bec
bcc bbdc
fc bced
dbbd bbc
debb bbbc
eebbee cc
bcc eedc
bbbe dbf
ac bec
ee ffcc
fdc bec
ff ebbc
bebc ebbc
dd febb
bcec dec
ecdbc cc
ddc ded
ebb ecdd
ed bbedc
d ebe</w>
debc df
eccc bbc
fbd dbe
a def
bedc bec
dc bba
ecec ebc
ecbc dbe
ac ef
ebbee beee
dc eddc
ecc edbd
edc def
bebc ded
bbee fbc
ebd bebf
ebd bccc
ebec bdc
bbcc dbc
fed ef
bbbe ea
dee beee
ff ea
dec fbc
bbbb ebcc
ccc dbc
bebd ebe
bbebb dd
ecbd dd
ba ecc
bbbc fee
ebc bcf
eeec bcc
bef dbf
bf eeed
eeee bcc
dbd ebf
a bbbbc
bf bedd
ecf dcc
beec bbd
fc bbfc
eebc bdc
bebd bbd
bebe bbebe
ba ea
ebd deec
eebc dec
bebbc bbc
ebb beebd
ebdc ebe
ecc def
ecc bedd
eebc ff
eccc bcc
ccc bdc
eebc dc
ddc bbd
ed eeebc
bebc bdc
dbd bef
ecf bbbe
becc dd
dbd bbee
ef dbb
dcc fbc
bbed bbbe
bdbc fc
fbe debb
bbbb b</w>
a fa
bdbc ebe
ccc dec
eef dec
bcee efc
fcc dec
bbc bdbd
ff ac
eec bbbbc
eef edc
da bca
fdc fc
bbebb dbe
eecc bbbb
beec ebe
bbef dd
ecf bbbc
bbf ded
bdbe dbc
ecbe bfc
bf eeef
bbbbbbbb bbbd
bebe ea
ecc debe
ee be</w>
eebe bfc
ed bebdc
ebf ea
bebe bbbf
bc ebfcc
bbee bbebe
bcbd df
bbdc ef
ebdc ebc
f ebac
fec dcc
bebd dee
ed bbbdc
becc ebd
ebbc bcbc
ebf efc
bebc bfc
ebbc bef
ff ded
eccc eec
bdf dbd
bec bebf
ebb feec
ecf dec
ebcc bdc
fec ecc
dc bfcc
bf debd
f dd</w>
bbebb bbbbc
bbec ded
ed eebcc
eebc bbbc
bcec bcc
bbed bcc
fbd bcc
bdee fc
be bbb</w>
ed dbecc
ecbc ebd
a bccc
fbe dbf
ecbc bbf
bd dbbcc
bf fdf
dd ffc
bbebc bbc
dc bbbec
ecc eddc
bdee bbbb
bcec ebc
eeee ba
dbe bccc
efc bbbc
eec bebf
df fed
def bec
dbb ecebb
fbd ebe
eeee beebe
ec bbebec
ebf bbbf
fbc bef
ecc febb
fc bcbf
ec bb</w>
fc febb
ed bac
bbec bdc
eec ac
bdf edc
eebc dee
ec dcccc
bdbc bec
bbc dfc
dc d</w>
eeee dd
bdbd bbbb
bcbebe cc
dbb eced
ebdc dd
ef eebe
dc efcc
eef ebbc
a bcbd
dbc fcc
ecc bbdc
eeee eeebe
dc bdbf
bcee bdc
ebd dbbbb
fec bbd
bf ebfc
dbf dee
ecc bcbd
bfc beec
ebb edbf
bbbc edc
ebd da
bbed ccc
dc beebc
ebb efcc
bebd bebe
fbf ff
bbec bbee
fc decc
bcbe ba
ebc ecec
bbfc bbc
eec debd
dbe def
bebc bcbc
becc bbbb
bcc bcbd
bdbc ef
ebc eebf
bbbcc bbbb
ebc eedd
bbec beec
ebc eeed
ebd decc
ebc eebe
eccc edc
ee eb</w>
fee dcc
dbc beec
fba cc
bbcc edc
dbf ba
ebc bcebb
dd edcc
ebb fdf
fbc ded
df debb
dee fcc
ebd bbbbc
bcc beed
bfc bcbc
ebc bebbc
bf bded
ecc ecec
ec ebfcc
dec ebbc
efc dcc
bbbe fbd
ebbee bebe
ecee bbbb
ebcc ff
ccc bccc
eebbbc cc
fc bbef
bbbe ebec
a febb
bcc fbe
ebf fbd
fec ebe
df bebd
d ebd</w>
ebc fdd
bdec bec
bbbc bebd
beebb ef
bf dbbf
dbf bbd
eeec bbbb
bced bbc
bcbc ff
eccc bec
edc ba
dee ded
bbbe ded
dec becc
bbbbc dd
bbee dbd
bcbc dbc
fbf ccc
ebc dedc
bbbe bebf
ebbebb bbbb
ed fdbe
bbc bcbf
bbc dbec
bb a</w>
bcc bcee
dec ebf
df bccc
ef bebbc
bbbc ded
bbbd bbec
bd debec
efc bfc
bcc bcec
ecee dee
ebe fdd
bdc bbcc
ebc bbfc
ebb dccc
eec febb
dc fbec
ed bbccc
fbf bbbb
ecf dee
eebf a
bbed bbf
d ebc</w>
ac dee
dec fec
ebdc fc
dbe ea
edc fdc
dd bedd
bbee bbcc
ebf bbebb
bcbc ecc
debb ebd
ebb bbebbc
bfc dcc
bf bcbbbb
bbd bebbbb
bebf a
bdbe ff
bec bedd
dbc ddc
bcbbc bbc
dc bdec
dc bbbcc
bdc eebd
edc beee
dbb ebfc
bebd bebc
bdf dcc
ebc edcc
ebc bbebc
ed fedc
bbef ebe
ecbe bbcc
bcc ecbc
bbee dec
bd bbebbc
bfc ebbc
ecc dedc
ee bc</w>
beec bbbc
ebd dbec
dbbbb dd
ed eebbbb
efc fec
ecbd bbc
ebcc dee
fc ffc
eeebe beee
ebcc bbd
fbc edc
bf bebec
eebe dbd
bcec ded
ed bedbc
dbbc ebe
ed ecebc
ebd eeee
bcf ba
bdf dec
ed dea
bbbe bccc
bcbe dbf
eec eeee
df def
bdee ccc
dbbc ef
dbc ba
bf decc
bced dee
dc ddcc
dc feec
ecbe ebbc
bf bcfc
bef efc
eec bbdd
bec fbf
dbe eebc
ecc deec
debc bbc
bedbd cc
bbee bbbf
bbbe fec
beec ff
fef a
dbb dddd
bdbc bbd
bef bbcc
dcc fcc
bced df
bbbb fbbbb
dbc efc
bcc fbf
bebe bbbbc
bbea cc
bbebe bbbc
edc ebdc
dbc bebd
bcee bbec
dbc debb
dbe bcbd
ebd fbf
ff bbbd
fbe efc
dc bcbbc
ef dbcc
bcee bbd
bc bd</w>
bbc bbebc
eecc df
ecee bdc
dbd ba
bebc bbec
dc eddd
dd bebf
bbee bcbc
f de</w>
fec fec
bbed dec
beebe bbbb
dbc bbcc
f bf</w>
ed dfcc
bebc bbbd
ed ecfc
bdbe bbbd
ff eeee
bbc bebbc
fed dee
beee beebb
ed ebccc
dbc fbd
dbb bdbbc
bbebe bbf
bf bbeec
fdc eec
bf fbcc
ee bd</w>
bd dfcc
ebb dbbee
a bcec
deec bec
bbc bbfc
bcf bbcc
bcf bbbd
bcee bbbc
fee bbbc
dc e</w>
ebec ff
bebd bbf
ecc eeee
bbdc fc
bbed efc
bf fbec
dbb c</w>
ebb bedf
ccc bbf
ee bbebdc
bbc eedc
df ecbc
ebb ebecc
bebe dec
ebbc bbebb
bbd eedc
bdee dbe
ccc ebd
dbb ecf
bebc ebf
f dedcc
fcc bbf
ebcc bbbe
dee becc
fed dbe
bc deccc
bebe dbd
df bcec
ecee bec
ded ddc
bd dbbbd
fed ff
bbbbc bbbbbbbb
df eccc
fed dec
ecec fc
fbc bcbc
ebb debf
ed eebec
dd bced
bbd eeebb
beec bbbe
bfc fee
bbebe bec
ebc dbbbb
ebb fdbe
bdbe edc
be ebac
bc be</w>
eebe dee
bcc debe
beed a
eec ecbd
beec ebd
eba a
dbe efc
bbdc a
bbd ebdc
bbec dbd
eef bbebb
fc bbdd
dbc bbed
bc dbbdd
dbb ebbebb
ecbc dec
ebe bea
bebd ebd
dbc dbf
bbc bbbec
bc dcccc
ecbe dbf
ff fbe
fbd dee
dd dccc
bcee bbee
bcee dec
ebcc bbf
bbbd ba
dbc eebc
dbb ecdc
bf beebc
bbec bef
ebcc dec
def ef
dcc ebf
bcbd ef
bbbe fbe
bcbe ded
bbbd ebf
be ee</w>
bbbf ccc
be ed</w>
ebb eddd
acc a
bec febb
bd bbbfc
dbbd bbd
bbbe dfc
eecc ebd
dd debd
bbbe eebc
bbee edc
dbb ebbbbbb
bc bbac
ebb ecebc
ac bcc
ecccc ccc
bf b</w>
bbbb bdbbbb
bf bbebd
dbb ecee
fdc ff
ecc eeed
beec bbf
bbc bced
ed fccc
bf bcebc
bcec ebe
df fdd
fcc fcc
bcf ded
ed eeecc
bbbbc ef
ebb ecbbbb
dcc ddc
fea cc
ecc dbbc
ecbe bbec
bcec eec
bec decc
df ebec
bebe bebd
ebc fef
dd beebb
bbef ef
debc eec
be ec</w>
bf ecebb
fec bfc
efc dbd
ebf becc
ea bba
bd dbecc
bdc eeec
ebbc ded
ba eec
bf bcebe
ea bbee
eebd bbbb
ecc ffc
edc bbcc
dbec bbc
beee beebe
ebb bebbebb
fdbf cc
bbdc eec
bdf bfc
ebbee bbf
bdc bbed
bebe beec
fc fbbc
bbbc debb
ecbc bbd
bbbd ded
dbf ebd
eef bbec
fcc ebd
ec bbbecc
a dbbc
bbbc dcc
debe ccc
ebc bcbf
efc fbc
bcbc ebd
ed debec
eef bbcc
febb ebe
beee bbebe
df bbbf
febb ef
bdc ebcc
eeebb eeee
fc bedd
df bcbd
ec bbebcc
bedc eec
bebc fbc
bc dbbebb
ebc edbd
debe bec
bbc eeed
bbbb ebbbbbb
ebc febc
bbc bcebb
ed ebbebb
dec debb
ebc fbbc
bcf ddc
ebc bbbec
fcc fbc
bd dea
bbef bbf
dbb bdbe
bcec ef
ebb bac
df bbed
ee dbbdd
bdf bbbc
bc eb</w>
debc ef
bccc ecc
bef bbbf
ed bebbf
bbbbc a
bbbe dbbbb
bebe becc
dc eeef
bcbbbb bbbc
dee bbebb
dd eeed
dbbc bbd
ba dbd
bcbe bbed
bebd bcc
bebc fec
ebb e</w>
bfc bbee
eccc ef
f bbeccc
dd ecbd
dd fef
ebb bbba
dd bdcc
ebb ecbec
be bbbbbbbbbbbb
bbdd bbd
ded bef
ebb eefc
edc beed
eecc ebe
ee dbbbf
dec bcbc
ba ebd
bbbd bdbd
dbb e</w>
fdc a
dc ecebb
bccc ef
bf eba
bfc bebe
dcc bbbe
ed dba
eebd ecc
bbebe a
bf eebbc
bbf becc
fcc dee
ebe bebbbe
bdc def
bbbb eeebb
bbbc fec
ebe fbbc
fed fc
bdbc ccc
ebb beff
ebd beebb
ebcc dbc
ed ecbec
bbf bebf
fbeee cc
dbe dbbc
dec ddc
fbc bbee
bbbe bbdc
fef ef
ebc dbcc
ebbc bbcc
fee dee
bec fdc
dbe bbbf
bf ecee
eef bbbd
bbc eeebb
bdbc eec
fef ff
edc debe
bbebe ef
bbbbc fc
bbef ff
ac bbbb
bdbc a
dbfc a
bcbbc bbbb
bebe bebf
dbb eba
bec da
dbe bcec
ebb ecebe
ebb bca
df eecc
dee bbed
bbd bbebc
bf bea
def ff
df beec
edc deec
bf eced
ea fee
bbec bbbd
ebc beebe
ebf dbf
bbec ebbc
fbc efc
eebc bebc
becc ff
ebe dbcc
dcc bebe
bc fbecc
dbd bfc
bbd bbfc
bec bbdd
ebe fa
ebdc a
ee dbbebb
eebc ebbc
eef dbf
ded bbbe
ebf fbf
bbebb ccc
bcc dbbc
bcbe debb
fec bebc
bccc eec
bebf fc
ebec dc
dbd debb
f debfc
ecbe bbbd
bbec bfc
bcc dfc
eef bbbf
ebd debd
ed ebbbc
bebd ccc
edcc ccc
bbc bebbbb
ecec ecc
ecf bebc
bbd bedd
bbec fbc
fbd bbf
da fc
ebe eedc
efc bef
bcbc bebe
bebd dbc
dbbc fc
bbd bebbc
bec bbebe
bcbd fc
bdbe dbd
bdec bbc
dc dbbf
bf fbbf
bbdc df
bbbf bbbf
bcc eccc
bbebb eec
ddc edc
a ebcc
bbbb bbfc
dbf dbc
bfc bbbd
ecbc dbc
dc fdf
bbdc ebc
bdc beed
ef bded
dbb ebbcc
bf eedd
fec ebd
ed eeccc
bec bebbc
fed dbc
ec bebecc
bc dbbed
bbd bced
bbcc bebe
dc eeebe
ec bbea
ebbc beee
dc ecef
bbc bbbcc
ed fbbf
dec bbee
fbc dbd
bbc ebdc
a bebf
bbd bba
ea dbc
bebd ecc
eebd eec
bbdc dbe
ebcc bbbc
eebebe cc
bbed ff
ddc bbf
fbc ebbc
ebd ac
bfc bbef
a dba
bbbbbbbb bbbbbbbbbbbb
bedc df
edbc ccc
eebe bbef
ded edc
ef dbbd
bfc fcc
dbf bbbe
bdbc bcc
bec eccc
eeebf cc
ecc bcee
ebf bebf
bebc bef
fbbcc cc
bd debcc
ee dbbed
bbebb ebd
dbf bdc
becc dec
dfc dee
ebb d</w>
bf bdee
bebd bbbc
ebb beeec
bbbbc dbe
ecbc edc
bc db</w>
bbc deec
fc dedc
bbbbbbc bbbb
bbc bcbbc
ebe dbbd
fec dbd
bbd bcbe
bbc fbbc
ecc fbf
bbbe dbbc
ebdc eec
ecf dbd
fef ccc
bbf eebc
bbd fbbc
ecc fbe
bcc bebf
bbc bcf
eebd edc
dbec bec
bebe dcc
ea ebc
bbbe febb
bebbbb bbbc
bbcc cccc
ebf ded
dbf eec
bbbf bbee
fcc dbe
ecbd ebc
ff def
bbbe efc
bbbd dec
ec feecc
ebf bebd
bbed dbd
dc fbcc
bdbc df
bfc efc
debe a
bedc ef
bbbd bef
ebe bcbbc
ba bef
dee bcec
bec ac
bbdd a
dee fee
dbb bdec
eedc fc
dbbc df
ea bdc
bdf bebe
bcc beebb
bbf ebec
beec beec
bbbbc bcbc
ebe bbbcc
dd bcdc
dd dcdc
bec bbef
ebe deec
bbbe bebbc
ecf efc
ebe ecbe
bbdc bbd
ecdbd cc
dc bcebe
bc dedcc
ecc bbebb
bec bced
eebc bebe
ebc dbbd
ebb beecc
ebc ecbe
bfc fec
ebd ecbd
eebc fbc
bc dbbbf
ff bccc
ebe bedd
fcc bdc
eef bbef
eebd ef
bbbc ebec
bbbb ddc
bcbf fc
dd ecdc
bec bbebc
ed fbdc
bbec ebf
ed bbebf
ecc bbbf
bf edbf
fbf df
ed ecef
bbdc dee
dc eded
ff fdc
bbebb ebf
bbbe bbef
bbcc bcbc
bbee dcc
dfc a
dbbbb dbbbb
eebf ef
dd ecec
debb dbc
dbe ebec
fbe bbebe
fbe ded
bcec bbbb
bbbd fbc
dbbc a
bdee df
bcee dcc
dc eebbc
eec dbcc
bbebb beebb
ea bebe
ebdc ebd
bebc beec
debb dee
bf bdebb
bbd bcebb
becc becc
fcc bbbb
ba beee
fed bdc
bfc edc
bebd dec
bbbe bbebc
fc ecbd
fec bebe
bcbd bec
ea bef
ebe eba
bbbbc bebe
beebe bebe
eedbd cc
dbb edcc
fc bbebe
fdd ef
eebd ccc
dbec df
beef a
dd eedd
bbebb ff
ecbc ff
ea ebf
ebd dbbd
bcbd a
bfc ba
ee dedcc
ebb febf
bbd eebe
dc bcfc
bcbd dee
efc fee
bbbc eebc
ef bbbec
fc bcdc
be dedcc
debb ff
bdbc dbe
bbf fdc
bcee ff
bbd eeed
ecbc bbbe
ecf ebbc
bbebb ebbc
eeebb bbc
bccc bec
ef dbbbb
fbd ebd
debb bebe
da bba
ebbbc bbbe
beed ccc
bbbb debe
ebf ebcc
bedc bbc
eef ddc
debb bbbd
debb ecc
dec def
dd edbd
bbbb dbbd
becc bdc
dbbc dee
beec bdc
beee ebd
dc bbeec
fcc dbc
eec eedd
dcc eecc
bebc eebc
fbd dbc
ed bedee
ebc febe
dc dbbbe
bedc a
ec dbbbd
ecec dbe
bcc ac
bbbbc bf
ded bebe
bdbe dec
ebdc bec
ea bea
fbd bdc
dd bbebe
bbc fef
edbc df
ebb beebf
bcbe ddc
bebc dbd
ebd edcc
fbe bbef
bbee bbed
dec fee
dc edbf
ea bbd
bcbebc cc
dc febd
bebc bebd
beebe bbbe
bef bebf
fbc fee
fc fdd
bbc eebe
bbec bbebb
fc bbebc
eeebe bebe
bedbf cc
eebd dbe
ac ebe
bbf bccc
ebb bbbfc
edc ecbd
be dd</w>
ed ecbcc
beebe a
fbe ddc
dc eefc
eedc a
dbc eeee
fbc fcc
bbbd bbed
dcc bbbc
dbb bfcc
dfc ef
efc beec
eeebe ef
dbec dd
ebb c</w>
edc bbed
bba bba
bcee becbbec
bcee ebd
bbdd dbe
dbb bdbbd
bcc debc
bdbc ebc
bbf febb
ebdc ef
bbbb beed
ba fee
eeebb bbbe
dbd fee
bf ebbcc
edbc ecc
bebbcc cc
dee efc
ebb ebccc
dbbc ebd
dbbc dbe
ed ebbbf
ebf fdc
bcc bbef
bcec a
bcf bbbf
eedc bec
ebdc edc
bbebb df
bbec bcbc
bbd bbbec
ac bbf
ecbc bdc
ebb bdef
bbbd beee
ed deccc
bbbc bcbd
ebe ecdc
def bbf
dbd beee
bcebb bbc
bcbbee cc
dd bddc
fec bbbe
bbbbc ebc
dcc efc
fbf bf
bcfbc cc
ebd bedd
bdee bcc
dbb bdf
fbd dec
ebbc efc
bdcc ccc
ac ff
dd bbef
fcc bfc
bcbc bdc
ed bedcc
ebc bcdd
ec fbecc
bbc da
fbd bbd
eebebc cc
bcf ea
bbbb bcbf
ba fbc
bbebb beee
ecc bced
dc bebec
dcc bfc
beebb bbee
bec bcee
debe bcc
beec bebe
bebd ff
bbdd bbbd
bbebe bcc
eebc ded
bbbf bbbd
ecec dec
bbcc bbee
edbc ebd
ee fbecc
ac ebc
bbed bebe
dbc fed
eec bced
ed eedbe
bec eeee
ed fdbc
ecbe ded
bd dbbdd
dc bbebd
eec bebbc
bebbbe bbbb
dbd dbf
bf fdbe
bbbe bcbd
bf dbbbe
be bbeba
beec ecc
be debfc
dc ebbcc
ebec bebe
fc dbcc
bec ffc
ea beee
eedc dd
beec bfc
ebbc dcc
eeec dbe
eeed a
dbbc bcc
debc dd
fcc eecc
eeebb ef
fbf bbf
bf bbecc
bf bcbec
bbc b</w>
beed dbe
bbcc dec
ecbc bbbc
eeed dd
eec ffc
dee bcbd
ebec fbc
ebb ecef
debe bbbe
bbc bedd
fee ebd
fc debd
bbbb bcec
bbc ffc
bf bcdd
fcc efc
bbcc dbd
ecc bebf
fc bdbd
ebcc ebf
dfc dbe
ebb fedc
fc ecec
ebb debbc
bf bddc
dc bebbbb
eeec ef
bbed bbbc
dc bdef
bdf efc
def ebc
ea bca
bbed ebd
eeec dec
fec bbbc
bf ebbebb
bbf ddc
bdc bcbd
eef bbebe
becc dbe
bef ddc
bbbd bebd
dbf fbc
dbec ef
bbcc ebf
fcc ded
bcf ebec
bebc debb
ff bbbf
bbdc bcc
dcc fee
ebcc fbc
bbd bddd
ecc bcdc
bbf beebb
bdbc dee
ebbc bebd
decc eec
df dfc
fcc fed
df bbebb
df bcee
eeec dbc
df eebc
bef ded
bccc a
bbbd bbbbc
bef beec
dbb bb</w>
bbbe bbbec
ebbc debb
ec dbbbbc
eef ded
ff fef
dbd bcbc
ee bbeccc
debd dd
bdbe ebf
becc fec
eeec bdc
ccc bbbc
eccc ebd
bccc ebc
fdd bec
bdbc bbbc
edc bcbd
ecee ddc
bebf ef
dc bdebb
ecec dee
dbbc eec
bcbbbb bcbbbb
ee dbbdc
eecc bdc
ac dbe
ecbd fc
ed ebbbd
ebb eded
eccc ebe
edc edcc
dbbc bbbc
bbbe ddc
ccc bbd
dcc fed
bcc febb
ecee dbd
bbf eeee
f dc</w>
fbc fed
ebdc ecc
ebcc bebe
a fef
bbbe bcebb
ebe ebbebb
ebbc fec
edbc bec
bcbc dec
dbf dbd
debe fc
fbf dd
beec bbec
bf bebbbe
ef bcef
ebbc fee
ef eba
fbc bbec
df da
bbed bbed
bbebb bbec
bf bdec
bdee ecc
ed eedf
bbbf dbc
dfc bec
bbebe beee
dc beecc
dbbc ebc
bbf bcbd
bbbb eebd
deec dd
ba bfc
ea bbbc
eebc ebf
bcc eeed
bf bdf
ba ac
ccc ded
ec be</w>
dc ebecc
bcee bebc
bcbbcc cc
ed fbbbe
beebe eeee
bbbb ecbc
edbd dd
bdbd dbd
bbc ecbd
eebc bbee
ccc dbd
dec bbbd
a bbef
bbbf bfc
dbe fbe
ed eac
bbd fdd
ccc fcc
eecc dbc
eeec fc
bbdd ebe
bbcc bebc
bbcc bfc
dee bccc
dec efc
bf bbbbbbbb
beebe beee
bbbe fcc
ecf bef
dbf da
bbbbc bbebb
debe df
beebe bbee
bbcc fbc
bcbe efc
ee ec</w>
bc feecc
eeee bec
dcc bef
ee fbccc
dbf ebf
ed bebbbc
ebb dcdc
bf bebcc
ecc dbec
eec bbebe
ebec bebc
bbbc beebb
dbbc bbbe
a beebb
ed eebbd
bbbd debb
ebb fbbbc
dbd bbec
bedd dd
fc bebbc
bcc bbdd
dc bbecc
ed ececc
edc ffc
dee bebd
fc befc
eebd dbc
fec beec
eef efc
bdee ebc
bbebb bef
beba cc
dc bedbe
dbe beebb
ebbc eebc
bbbd bfc
dbe ac
dc bedf
ebd bbebe
eec bdbd
ef b</w>
dec beed
ecdc ecc
ded bbbc
a bbdc
ebb bbedc
fbe ebcc
fbd fbc
bc bbb</w>
fbbc bbc
ecbd bec
bb ef</w>
dbe fdc
bf ecbbc
bbee beec
eeee beebb
ebdc df
ed dbbcc
dbc bcbd
ebec dbd
ebe dbb
ee db</w>
fbd ecc
ebf debb
dee eecc
bedc dd
be bbebfc
ba bebc
eeee bbbc
fcc bebe
beee bcbc
eeed bbc
ebb dced
eeec bbbc
bdec df
bbbbbbbb bbebb
edc dedc
bccc bbbb
bedc ebc
bdf bbee
bc bbbbbbbbbbbb
ded bfc
bbd fef
fbe bbed
bebd dbd
ecbc bebc
ebe decc
bbc bba
fbc dcc
bbcc bef
bbc bcbbbb
bbd bcbf
ecbebc cc
bec dedc
ecee bbf
bbcc bbbd
ef edcc
bbef fc
bdc fdc
debc ccc
debc fc
eecc dec
a bbebe
dbf edc
bebd edc
debc ebc
fec bef
ef bea
ebbc bbbf
dc bea
eedc df
bcee dbd
ecf bebe
ed acc
def ecc
bbd bbebd
bdbc bbbe
dbf bbbc
bac ba
bf dccc
beed dee
ebdc dbe
bf ecdd
efc bbbe
ebc bebbbb
ecbd ecc
eec fbf
ebec ded
eedd dd
bbc eebf
bcbe bbbf
bcbd ebe
bdec dee
eebe ddc
def ebe
bbc eccc
bdc bbdc
debb bebc
bbbd bbdd
eec bcdc
ebb fbebe
fec fbc
f bbb</w>
bbbd ebbc
bdbc ebd
bcbd dbe
a fdd
bbebb bbbf
debb bbee
bbfc bbbb
ef debd
bf ecef
bbcc fee
bbef dbe
eced ccc
dfc ebe
fec becc
beed bbbb
eebd bcc
bbc dbbd
beec dbd
eebf ebe
ebc bdcc
dec ba
def bdc
dfc bcc
dec fcc
ebb ecfc
dd dbdc
eeee ea
bbbe ebcc
ebec bbee
ebec ebbc
bbbc bbdc
bcee edc
bedc fc
bd f</w>
bebd bdc
eebd ebd
beebb bbf
bd ebdcc
ecf bbec
dbc bbebb
eecc dbe
fdebb cc
bbfc df
bdbe bbec
dec deec
dbec eec
bbfc fc
beec becc
bbed bebc
bfc dbf
bcbe bbbbc
bebf bec
bbbd ecc
bbd ecbd
ff fed
bbc bcdc
ba bbbf
dee eebc
dbb bfbf
bbee ea
ef befc
bbed bdc
fec bcbc
bbbe fbf
efc edc
eeec eec
dc fedc
ac eec
bcee bebe
eccc df
bbd ffc
debe ebc
dc eba
efc ebf
ebd bced
debb bdc
ec bbbccc
ecc bbdd
ebec dcc
bcf beee
dbb ecbbc
bec eedd
bebbbd cc
bc dbbdc
eeec ebc
bbd eebf
ef ecdc
dd eebf
eccc a
def dbc
dec bebd
dcbc ccc
debb edc
ba bbebb
bbbc becc
bcdbd cc
bcec dbc
eeebb bebe
def bbbb
ebd ffc
bf bebbd
def dee
fdc dee
ecc fecc
efc bcbc
bdbe bbcc
dd bcdd
bbbc bccc
be defcc
dcc eebc
fbd bebe
bdf bef
fbd bfc
ebf fbe
eeee ebeebe
ecc ecdd
dc bcebc
ecbc bebe
ecf ddc
eeee beef
bebf bbf
bebbbb bbebb
fc eeed
bebc becc
bcc fdd
bbee fbe
ebf beec
ecbd ccc
febb ff
ed fdee
bccccc ccc
eebd ebe
bbbd bcbc
beee ea
bac ea
bcc bbebe
dbe bbebe
bcee bfc
bdc ea
bcc bced
ebf fef
bbdc ff
bbed ded
dbb ecdd
efc bebe
bbee bbbbc
bef bbef
beee bebc
ebe ffc
bcc ebdc
bdbd bbc
bf dbdc
ecbd df
dd fbbc
bbf dbbc
becc eecc
dbec dee
bec debd
fdc bbc
eebe dec
ef bedd
debb dbd
ecbc fbc
ecbe bbebb
ebc eeebb
edc bedd
bf febd
decc ccc
ebf beebb
fdc dec
bbd d</w>
dcc bebc
ebb fbdc
fc ecdc
edbc eec
eedc ecc
debe dbe
bbbb ac
bdc fbe
f deba
bbd febe
ebf febb
ebec bbec
fbd dbd
beed dec
ba bda
bedebb cc
bcbc bbec
eecc ff
bbbe bcec
beee ebbc
bc dbbebe
da bbc
ec eb</w>
ebe debd
ebe edcc
becc dee
ecf ded
bf fecc
bef beebb
ea ecc
dc fdbe
bbef bec
edc eedd
fdc ebc
dc eeebc
edc eeee
bbed bbec
eced dd
debe bebe
fed eec
bbdc ebd
eccc dee
dcc bbee
bcf bbebb
ee ebac
bcbc dbd
ebbc beec
eebc dbd
bcbe ebec
bbbbc dbc
eeebe a
bbbb bcee
fc bdcc
fbf bec
bbbc fbd
fee ea
bbbf bbebb
bbbe eeebb
febe a
dbf bfc
fbf bcc
bbbb fbbc
bbef df
dbbd a
debc dee
debe ef
def dcc
ecf bbcc
bef bbed
dd eebe
dbc eebd
bbf bbebe
dcec dee
bbdd df
bcbf bbc
dc bdf
da df
edc febb
bf eddc
ebbc ebec
eedc eec
fef df
dbc becc
ebcc bfc
bbbc dbbbb
beebe ef
ebe ecec
bbbb bbebd
bbbbc bbee
ee ed</w>
dbc ebec
ebf bccc
fec fed
dc debf
eebc bfc
ebc bbbcc
dc ecebe
bbcc bbec
dd eeebb
bdc bbebb
ebc befc
ebc beef
ea eec
bced dbe
bced bec
beebe bbc
ded becc
fec edc
bbbc bbebe
bdbe bfc
bcbc bccc
bebf ebe
bf bca
debe ebe
fdef cc
fc bcbe
dec dbf
eeed ccc
ecc debd
a eecc
ecbe ba
fef dd
ebf ddc
eccc dcc
dbbc bbf
bef bebd
efc becc
dbec dbe
fbbbd cc
bbee bebd
ec dbbdd
ebbee dbe
ed ecbbbb
ebb dddd
dbb edbf
ec defcc
dc fbbd
bbbf ebd
eeed df
bdbc dbc
ef fdf
dc ecdf
debc a
bec ecbd
ff bbef
bbee dbf
ebb dbfc
bdc eeee
ef bcbbc
edc bccc
bc dbbef
ebb fdbc
bcec ecc
bbbf ebf
bbbf bebc
bbf ebcc
bbf fed
fcc bbd
bef debb
bbbbc df
fee dbd
ebd cccc
be deba
deec bbc
beee bbbd
efc ebbc
ebb fbbee
fbd edc
fec ba
bec bcebb
ed beff
ed bbbbbbbb
dc bcbec
ef ecbf
ecc febc
ecbc ded
fbf ebe
bcc ecec
dbbc dbd
ef bbbcc
beee eeebe
ebd bcee
ff becc
bbbe bcbe
ecee bbd
ef decc
ebc bba
bbdc dbc
bea a
ed bedbd
bbbf eec
dbb bdebe
bcbc bbbd
dc bebcc
bbf fef
bcf ac
eebc bbec
ebbbc dbe
deec dec
eebe bba
dee debb
dbf bebe
ebb fccc
f bbebfc
fbc ba
ecbd eec
deec eec
fc eef
ebe bcbbbb
fed ded
ebd ecdc
ec fbccc
fec efc
bcc bdbd
ebbc ba
bbebe bbebb
bebbebb cc
ecee edc
bbd bcbbbb
bbf def
ed ebbed
dd eef
fcc ebf
ee dbbebe
bbd eef
bf bdef
bcbc bef
eeee eeef
bcf ebcc
bbd bdcc
fee eec
dbbc dbc
ebd fdd
ebc bcbbc
a bcbf
bbee bbef
bf e</w>
ecbc bbec
bcbc ded
bdee dbc
dc fccc
febe ebe
beebb bec
dbe beed
febb df
bbdd bec
a eea
bbbc efc
bbbb bebbbe
dbb eddd
dc bcdf
eeee bbebe
dd c</w>
dbe bbdc
bbfc bec
ebf eebc
bdbc dbd
beec debb
bbbbc bbec
ed ecebe
edc ecdc
bbed bbbd
fbd bebc
a b</w>
dbbc ff
bcee ebbc
febb fc
dd bcbf
bbf ac
eecc fbc
ecbc dbd
bbc ecec
fec fee
ebd bbef
bbbf dee
ed efdc
bbbf bef
fcc cccc
bdf bebc
eebe ebcc
ecc bdcc
dd bded
ee ee</w>
bbebc bec
bbbec bec
eeebb beee
ed bedbb
bdf ebbc
eeee bdc
bbdc bdc
bbc eef
dbe debe
fc bcebb
dc bcbbbb
ebb eac
becc bebc
ebb bedbc
bbc fdd
ebc eef
eeee bbebb
bbbc dbf
ebe bfcc
ccc bfc
fec ddc
eec dbbd
a dfc
fed dcc
ebbee bbebb
ecbc dcc
bbd bcf
bbd bcdc
bcc bedd
ecf bbee
bbed bbee
ba bbec
fee fbc
ec bbeecc
a bfa
bedc dec
bcec beec
ccc bbbe
bf efcc
bbbd bbcc
ebc ebfc
dd bcbe
bdbc bbf
dc bdbe
dbd ebbc
dbd bbdd
fee bebc
ff bbebb
bf eebbbb
dbbbb bbf
ebb dcbd
bbd ecec
bf fccc
bdee bbf
ded bbcdbf
ecbd dee
bd db</w>
bcbc bbee
da ba
fee ddc
bbbb fed
eebe ac
bbbf fbc
ebe fbbbb
ebc eced
ebbbc bbf
bebe bccc
ebec bfc
ed eca
eccc dec
ef ecec
fbe bbbbc
eebc dcc
dbc debe
ecbe ebcc
ebb bedbb
dbb ebbbd
fcc bebc
ef eedc
bcc fef
bcbc fbc
ff cccc
dbc def
ecc eebf
dbd beec
bbbd bbbbbbbb
bcbc bbcc
fdd eec
ebe befc
dc ecbbc
ef febc
dcccc ccc
bebd ded
bbbb beebe
efc ba
ec dbbbf
dd dedc
bbec debb
ecc bdbd
da dbe
bf bebbf
ebec edc
febb bbbe
bec bcbe
bcc bcbf
bbbb def
ebec bbbd
bcee fbc
a ecbc
eeee eeebb
bbc dbcc
fee dbf
ebd dedc
bcbeee cc
bbc beef
ed bbebbc
eebc eebc
ecf ebcc
bebe beebe
bbbf bdc
dbbbb bbebb
ef bbeec
ded fbc
bba bbbe
beed eec
ebe bdbc
ddc fbc
bcf def
dbe bced
bfc bbcc
bbbbc bebc
bbbc dbbc
bcee beec
fbbbf cc
ef bdbf
df bbdc
eebd bbf
ff beec
debb ebbc
bbd bbbcc
eeebe bbee
bebd bbee
ff bbed
bf feec
edbc a
fbd bbbe
beed dbc
ef ecbe
bef bbebe
ded ba
beebb bbbc
bfbc ccc
bbc beebe
dbbbb a
fbe bbdc
bec bbbec
dee ea
ef eeed
ebcc bbee
ebe eebbbb
fbd fec
ebd bebbc
debb dec
bf bdbe
dfc ff
bbd beef
fbe dbbc
ebe ecbf
fc beebc
ffc dd
dc fbbbb
bbcc dcc
dbd bebd
eeec ecc
eedbf cc
bbd bbeec
ed bebbee
dc eedf
bec bcbf
bcc eedd
bebe fcc
df debe
eeec bbbe
eec eeed
bfc becc
bcbd ebc
bd ecccc
ec bbac
bd dbbbbc
bdc eedc
ebbbc bbbc
febb bbf
ee dd</w>
eeec dee
bdc bedc
bd bd</w>
dbb ddbd
dac ea
ded ebf
bec fbbc
fed ebc
ecf ba
edcc ecc
edc debd
ebe bbebd
dc bfed
efc efc
bebf ff
be de</w>
ebb efbf
bbbb bedc
ebec bcbc
fec bbec
bebc ba
bcee bef
ed febf
dd ecbe
edc dbbc
e ba</w>
dbec a
bbd beebe
df dbbc
ccc fbc
ecee bbbe
fee bcbc
ebe bcebe
becc bbf
dc dbbbc
bbee ddc
dbd fbd
bbdc bbbc
bdf ddc
dc beeec
df bced
becc bbbe
bcec bbf
bbfc a
bbebb bdc
dc bebbd
ec dbbed
bf bac
ebe beebc
ebc eebbc
ef bebbbb
bbbbc eec
ecbc bfc
dc beebd
ebc eddc
ecf eccc
ebbc bbed
bbebb bebbbb
edbc dbe
bcc eeebb
bebf bbbe
ecec dbc
ebd bcdc
becc eebc
bbec beee
bcbd eec
bec beebc
bbebe fc
eebd dee
ebcc dbd
bbdc bbbe
dc eedbe
ecbf fc
bbebb dee
ebd ebbcc
fbc beec
bfc debb
ef dccc
ebbc bbbbc
bf eea
dd febe
bcbc ebf
dbb ebecc
eecc eecc
bbd cccc
ebd fbbc
eec fef
beed fc
dbbbe bbbb
dc ecbec
ebc bded
dbe fbf
bdc dfc
ebbc fbd
eeef a
bebbed cc
ded debb
bbbd edc
ed beebf
bbcc fec
ea dbd
eec ecdc
bcf bbed
bdbc ff
bbec fec
ecbc bbee
bedc dee
bebc beee
bebf bebe
bbdd dbc
bccc ebe
ecc eddd
ebbee fee
bbd fbbbb
bf debf
efc dbf
bbec bebd
dc ebccc
ecbe ac
ebb bebbbd
bec eeed
bcdd dd
df ffc
dbe febb
ec bc</w>
fcc dcc
bbbd fee
bf eefc
ebec bef
fbc debb
bbc febe
debc dec
bf fbbbe
edcc fc
ef bcfc
ccc bcbc
fbc fbd
fcc eebc
eebd bdc
da bea
bdf dbf
beebb ebc
eedc ebc
eeee fc
bcf debb
ba dcc
dbe ebcc
dbe bcee
ba dec
bebc fee
bccc dee
bbef bbbe
bcbe bbebc
bf bddd
bbd bded
eebd ff
ebec ebf
ed ebbbbc
bdbc bdc
ea dcc
debe bbf
dbe bbbbc
ef bfcc
bec dbbbb
dd bcebb
bbebb dbc
ebd febe
edc eeed
bbbd ddc
efc def
a eca
efc debb
bbbb ebbebb
bbc debd
eebe bbbbc
dbbc bebe
ebe edbd
bec bbfc
bb ebe</w>
bd bbefc
ed ecbbd
ded ebbc
debe bdc
becc bebe
dcbc dee
bebc bbcc
dc bceec
bdee dee
ebcc fec
bbcbbc bbcbbc
ebe bded
bfc bebd
beed ebc
ebe ecebb
ecbd a
dbd dbbbb
bf ebbbf
ebb ddcc
bfbc bbf
bcbd bcc
ecf dbf
ebb bb</w>
becc dbc
dbb ebbbc
ecc dbcc
bbef bbee
ebe eea
efbf beee
bcbd ff
bcec bcbc
ecec bbbb
ecee ef
bdbe bbebb
ba bbcc
bc bbebdc
ecc eebe
bbec dcc
fc eedd
ebd bdcc
ed bbbfc
bbdd ef
bbec edc
ba bcbc
ebd febc
bdee bbbe
bebc efc
eef ac
ebb ecbcc
dec bedc
bf ecbec
ebd dbcc
bebe bebbbb
ebc ecdd
bbd edbd
bdf bbbd
dec beee
fc ebfc
fee bfc
dd fa
dbb bdef
a bdbd
ebc fa
ebbee ebf
a bcee
ebe b</w>
be dc</w>
ecee bbbc
ebe febc
fbd bbbc
bbf bcbf
be bf</w>
bd ffcc
bdee eec
ebe bcef
fbc bbbd
bf bcdf
ded bbee
bbec bbcc
f ef</w>
ebdc dee
ba edc
bccc df
ebb ecbbd
eeec ff
ebd eedd
bcc deec
eeebe bbbe
bbc ecbe
bebc bbebb
ebbee ff
beee bbbf
fbe ebec
bba dd
ecee bbee
bec bdbd
da bbbb
ebc bebec
ebe bebbee
dec bbcc
bebd bbbd
dc eea
bcc dbec
beee eec
bbec fee
ebcc dcc
ed ebbbbbb
bbd febc
eeec bbf
edbc dbc
edc dbec
beee dee
fc bded
bcbc bfc
bcc bcbe
dbb eddc
bbd bdbbbb
bbbbc dee
debc bbbb
ebbc eebd
bcbbbb bbbe
ebe eeed
fbd ebf
eeee ecc
ed ecdf
ebd edbd
bba ba
ebd fef
efc fed
ebc ecbf
febb eec
bcec ff
ecec eec
bbd bcbbc
ded def
bcc eebf
ecec a
df bebf
bbdc dbd
beee dcc
dec bbed
ef fbcc
bec fef
ecec bdc
bdbe ba
bbbd dcc
ecbd edc
bf ecdf
ebe bbeec
dd eced
ebf bbed
bcee bcbc
bba bbbc
bbec becc
bcbd ccc
fed bbbb
deec a
beee bbcc
dbd bbed
febb ccc
ebcc efc
eeebe fee
dbb eded
dc ecebc
bcc bbbcc
fec dbf
bbee debb
bcec bbd
bbdd bdc
ebbee ccc
bdee bdc
dd e</w>
fdd a
ebcc bebc
ebdc ff
ebf ac
bdbe ebbc
fbbed cc
dec eecc
bbec ba
bdbe dcc
ded dbf
bdec eec
fdc dbe
ef ebfc
bcc eebe
ed eedbc
eeebb bbf
eccc bdc
ebd eebf
bedc ecc
ed ecccc
bbef ccc
da ccc
ef edbd
bfc beed
bfc ebec
ef eea
bef bccc
ded bbbd
bbc bebec
bbebc bbbe
dc ecfc
edbc dee
fbe def
bbd ecbe
bebe bbed
ecee ebd
beee fbc
bbcc ebbc
ebe bebec
debc dbe
ebbbc ccc
a debe
ecf ac
ebc dbdc
a dbbbb
ff debb
bbf ecbc
ecc eced
bf bbebf
dec bcec
bcee ebf
fc dbbd
bfc eebc
ecee eec
beec bcbc
cccccccc cccc
f bbeba
ebe bcebc
eefee cc
bdbc bebe
dec fed
bdf ba
ebc bcfc
eedc edc
bf bbccc
bbbe bbdd
bec dbcc
dee fec
fcc bef
dbe eecc
ffc ff
bcc bcdc
fbc eebc
ddc fec
ecc bbebe
bbbd bbbf
bbd eccc
fc febc
ebbc becc
debd df
bebbbb bebbbb
ea ebd
a cccc
bf bceec
ebcc eecc
fc bfcc
ed fbbbc
dc defc
bcbc cccc
debc bbf
edc bcec
dbc eecc
ec ec</w>
bbbc fcc
beee beef
bebc eecc
ebc fecc
ff ebec
bedd bec
ef beebc
ebc bfcc
dbc beed
dbf bef
fc beef
ebbc fcc
eedd a
edbc bcc
ebf fed
edc bbdc
ebcc ded
dbbd bbbd
ebd bcebb
efc bbec
dbb ebbbf
dc fbbf
ebe eebeee
df febb
bbbc beed
bbbbc bbcc
ef dbdc
fef bbc
dc dbbee
dbf bbee
deec dee
edbd bbc
ebc beebc
ecec dcc
ed bedec
ff bcbd
bf dbbbc
bbbbc bdc
bdcc eec
bdbd dbe
bbbe bcee
beee dbd
bf dedc
eedc bbc
dbf fcc
bef beef
edcc eec
bebd bebd
ebb fbef
beee bbec
bcc decc
dec ebec
ebf def
ebf bcbd
bfc fbd
fdc fec
dc eebec
a beed
beec fec
ebd eebe
beec dcc
ed dedcc
bedc ebe
bcbc dcc
dbc dbbc
dee ac
bbbe beebe
bdee bbbc
fbe ecbc
bbdc bbf
bbed bef
bdbc bbbd
bf bdbbc
ebb beccc
eef def
ebd b</w>
ebf ebec
bdec fc
bdf ded
dec eebc
bbee beebe
bc ee</w>
dc bfbf
dec ebcc
bbbc cccc
a bbdd
debc ebe
fbbc bbbb
dc bfdc
eccc dbe
dbcc bbc
fc eebf
bbef bebe
bcec bebc
ed f</w>
bdc fbf
ebe eebbee
bdbe ded
ef fbbbb
ebbc dbf
dbbbb dbe
efc eecc
bdc bbdd
ecc beebb
bbed bfc
bbebb ba
beec bef
eccc ff
ecc ecbe
ec dbbdc
dc bbbdc
dd febc
bebf df
eebd fbc
fdc ebe
bbbf ba
ddc bbbe
bcf dfc
bebbc bec
bedc ff
bebbbe bbbe
bef eebc
bbf fdd
dee def
bbbf dbd
ebd eeed
dbb ecef
fbe ac
debe bbbc
bbee becc
debc ff
bcbe ea
beed bcc
dc eeecc
beebb ebf
ec ee</w>
befc df
fee dec
bccc dcc
bec ecec
eeee dbe
ded fec
ccc ddc
bbbb eebbbb
ef dbbf
dc bdbbc
dc bbccc
eec dbdc
eef debb
edc ac
eef bbed
bfc def
febb dd
bebe debb
fef fc
eebe efc
fed dbd
ed bb</w>
ef bcdd
bbd fa
bbf bbdc
bc dbbfc
ebbc ebcc
fbbbb bbc
bbef bcc
bccc ff
beebb beee
ebb dba
eec fa
dbe ecbc
bdf bbec
eec bcbf
eebd bbbe
fdd ff
bec beebe
eedd fc
bbebe ccc
ecebb bbbb
ebb bebbec
ebf bbbbc
bbbc bbdd
eebc eecc
eccc dbc
bbf bcec
ea eeee
ebdc bcc
dbf beec
dec fbd
ef bdec
dbec ebc
bebf ccc
eced bbc
dc bcbcc
bb ebd</w>
bdbd df
eebeee cc
bedc bcc
ebec fec
bec bebbbb
dbb ecebe
ed ebbdc
bf bedf
bdc dbbc
ef bdebb
ee dbbfc
ebe bdbf
a ffc
bbd bdbf
ecc bbbbc
bef becc
debc bcc
ddc fcc
ecf bbbd
bbbc bebbbb
bcdc dee
dd bbfc
ec dbbebb
fbd dcc
ebcc ebcc
fdc bcc
bbf eebd
bbec efc
fbe dfc
bbec bbed
ed eebdc
ed bbdcc
debc ded
eebc bbbd
ef bbebd
eec febc
ebf bbebe
ebdc bbbb
bebc dcc
a bced
dbd fec
ecbe debb
beec ba
dbd fcc
ecf ea
dbf dec
dbbd bec
ef bcbec
bcbd dbc
eec edcc
dd eddc
dbec ff
bebc bbed
eeebb bbee
ec bd</w>
becc ded
eebe bbed
fef fee
bcbc fee
cccccccc ccc
bdc debe
bef def
ecbd bbbb
eecc dee
dd bbebc
ebf eebf
dbd bbcc
ed eeeec
fed bbf
bbbc bebf
bd bbebec
bbd befc
fbc bbcc
bcee ddc
bdc deec
eebe ebec
dbc bbbf
beec bebd
bbbec bbbe
bcbc bcbd
dbec fc
ee dbbbec
dd beef
bcbe def
ebe bddc
ff ebcc
dee dbbc
dbe eebd
bef ebec
bcc dbcc
fdc ecc
dc eac
eec bbebc
ee dbba
bdc bbbf
bebe eebc
ebe ebfc
a eeec
ff dbbc
ebe bcdd
eeee bbef
eba bbbb
ec dbfcc
dbc ea
ff fdd
bbbd dbf
bbebb bbebe
ba dbf
dc bca
bbf dbbbb
fee bbbf
ebc dbb
bec bcdc
becc ebbc
bc bbeccc
dcc fbd
bdbc ecc
bdebb bbbb
bbbe debe
ecee dec
bf bbbdc
ed eeebd
bbc eedd
eec beebe
bd bbfcc
bedebe cc
ba da
bcc bbfc
ecbe efc
bdee bbee
bf ecfc
df fef
dee bced
fbbc fc
fbc dbf
ef bddc
bbbbbbbb bbbbbbc
dd bcf
ed eceec
eec bcee
bdc bccc
ebe ebbbbbb
ebcc bbec
ebe ebbebe
fbc bebd
ef fbec
becc bbbc
edc ecec
edc fbe
bbbbc ebd
eebc fec
bcec bbec
dc dbfc
ed bbba
dbe bedc
ebb bedee
ebcc ebbc
fbd ded
bcec bef
bfc bbed
ef bcebc
ebe eebbc
debc ecc
eeec bbd
dbd bbebb
ed fdec
df bcf
bc debfc
ebdc dbc
ddc ebf
dfc ebc
debe ecc
bc dbbbec
debb ebf
eecc bbf
bdf bbcc
eeee bebf
eeec dcc
ecdc fc
ffc fc
a fbbc
bf bcbcc
becc bbd
eeec ded
edc fdd
eec bcbe
df edcc
bbfc bbf
eebd bbd
ff febb
eec bbef
bbc bcef
fbf bbbe
eecc eebc
ebbbc bbd
dbe bebf
bd dac
ebb fbfc
bbed ecc
bcbd bbf
dd dcdd
bdc eeed
ebd bbebc
ac dbf
ebd bcbe
ed eebbbe
becc fbc
efc bebd
ed fdcc
fee beef
dec decc
efc fcc
bf fbebe
df cccc
ecec ded
ed fdbd
dbe bdbd
eeee bbd
ebe eebbbe
fbd bef
bc dbba
ebe bcfc
eebf fc
ebc bbebd
bbbb bced
bbc decc
dbc bbbbc
beec fbc
ebbbc bcc
eec bbfc
bdee bbd
fee bbcc
a eeebb
ccc bebe
dbbbb bbbbc
dd eddd
df bcbf
dec debc
bbbc ddc
bbee bebf
dbe fed
bcee bbebb
bcee dbf
febe bebe
ebb eca
bec eeebb
bf edbc
dbb ebbed
ebe dbbbe
ebb dcbc
bfc ebcc
bcee ded
bfbc ff
ccc ebf
bbdc ecc
ef bcebe
bebbc bbbe
ed ebdcc
bfc beee
fee bbebb
bbdd ebc
dee cccc
ebec bbcc
a bbebc
bf eddd
bbdd fc
bd dbbebb
bcc bdcc
bcbc edc
ee dbbef
ccc bbee
beec bedc
dd bba
eec beef
eebc bef
eec dbbbb
fbbebb cc
bdec dec
fdd fc
efc bbee
fec debb
dbc cccc
bd eb</w>
ee dc</w>
bdc debc
dbb dcbd
ec fedcc
ebf bbef
eebf bbc
bebbbf cc
dbd b</w>
dbe bcbe
bebe bcbd
beec ebbc
ea dec
bdbd bbd
beee bbef
bf bcbbd
bfc bbbf
ebf ecbc
bbebb ecc
dbf dcc
fec ebbc
bbbc bbbcc
bbbe eebd
ee fcccc
ccc bef
efc eebc
beec bbee
bbebd bbbb
ed eedee
bcbf bbbb
dbe dbec
ebdc bdc
bd bc</w>
dee fbd
bbcc ded
fec dfc
fee edc
eef ebcc
bbdd eec
bf ecebc
ebf bcec
ee bbeba
fc bcef
beebb eeee
bcee ba
bcfcc cc
dd bebbc
bebc eebd
dbb ebbbbc
dd fecc
ebb dded
debe dbc
df ecbd
dcc eedc
ff bebf
bdbe debb
fbc eecc
bcf dbbc
ebbbbbb bbbe
bcbe dbbc
febb bec
ebbee bcc
dedc eec
dc edbc
bdc dbec
bbebb bcbc
bebbbb bbf
a eebd
dcc bcbc
ebdc dec
bebd ebbc
ebe bebcc
fee bbbd
ebb ecdf
ed debdc
bdec dbe
bf febf
fc dbdc
eeee ebc
bbc bdcc
bdbd bbbd
eebcbc cc
df eebd
bebe eeebb
ebd bbfc
bbc bdbf
dc deecc
ac dbc
ef bbecc
bbd bebec
eef ebec
dc eebcc
ebe bdebb
ecc da
ea fbc
a eebf
ebb eceec
bebbbb bbbd
ebb ecdbe
dd beebe
fc bbbec
eccc eccc
bbcc bccc
ebbc bbebe
dfc eec
f df</w>
bcebb bec
ebb fdee
ebf beebe
fee beebe
bbbe bba
dbd dbbc
bbd bddc
ebc ecebb
ff bbdc
fed ddc
dbb ecbec
bedc ebd
bbbc bcbbbb
fee bbebe
bcec bdc
fc fbec
dbc bbdc
bdf ea
bebc ebec
ebbee bbec
bebd fbc
fcc becc
debc ebd
bccc edc
dbec dec
bbd fbec
eeee bbbf
bf ebecc
eeee df
ecbd bcc
dbc ecbc
bbf dfc
bcec dbd
efc dfc
beea cc
ba eba
bbf debe
beebb bbebb
dbc eeec
eeee eebf
bf eded
ebe eebebe
bbd eedd
bbc befc
beee bebf
ebf febe
ef ebbcc
bcbe bbebe
bced ccc
dcc eebd
ddc bebe
fcc bbbe
ecbe eccc
bef ebcc
ecbd dbe
ebbbc bebe
eec fdd
bbec ebec
bcbe ac
ebc bcebe
bb ebc</w>
bf fdbc
bbbc fbf
bbc bded
bef ac
bd bbea
ba ded
ecdc dd
eec fecc
ebe bebbf
dbbbb bec
bbbb eebe
fbc becc
bd debdc
bf dced
bbbb eeec
bcbd dbd
bcdc dd
ef bdbc
df bbef
bbc febc
ed fdbb
bbc fbec
fc bcfc
ee defcc
eedc ebd
ecbe bbed
bfc bbebb
dc bac
bbee bebbbb
bbdd bbbe
ebb ddbd
eecc fec
fcc ebbc
bbbc eebd
bcc bbebc
dbb bda
bced dec
ebb fdbb
dbec ebe
ecbc beec
dc fdee
bcc eef
efc bbbd
fdc ded
ea ac
ddc bbbd
dcec dec
edc da
bfc fed
bbbb da
decc bec
fc beebe
dbbbb dbd
bdbe bbed
df bdbd
ebf beef
bbbf ecc
bd be</w>
bebc bedc
edbbc dbf
fc fa
bbbc def
bcbc beec
bcbe debe
ed fbfc
beed ef
df bbdd
ebe bebbd
bbbc fbe
ebc dccc
bbbb dbbbe
ebb beedc
bebc ebcc
bf c</w>
dcc beee
dbc bccc
eec bdcc
dbc ebcc
bcbd bebe
dbd eebc
bbd bdbc
bc dd</w>
ecc bbfc
dd bcef
ebf dbbc
a febe
ff da
ff bcec
bebc fed
bdee dec
fee bbef
bbed fbc
ebc fbec
ebd ecec
efc ddc
bbc beebc
df bedc
edc bcee
debb ded
febb bebe
bf beff
a eccc
ebc bedbe
bcc dbbbb
debe bbee
dc dfcc
ecc efcc
bcbd bbbe
bbec beed
becc bfc
fec bedc
bc ec</w>
ed ecdbe
ecc fef
df debc
fee ebbc
dfc dec
bcc edcc
dbbc bbbd
ebb bbebec
df bdcc
dbb bac
beebb fc
dbec bbbb
bbf bbfc
bccc dbe
bbcc efc
ea bbbd
ed ebeebb
ed efbf
ebd bebbbb
bcc fbbc
bbd bcdd
fcc dbd
ed eedcc
ef eebbc
ff ecbc
bbcc beee
ebbc ddc
dbbc bdc
bd dbccc
bbec bedc
ebe bcbec
fec bbee
dbb edbbc
bbc bbeec
dcc bbbd
ebe dccc
dc bcbbd
ebc bbeec
fcc fee
deec ded
dbb dcdc
ecc dccc
dbf bebc
ac dec
bbebb bebd
ef eced
ebb dcec
ec beeecc
bbbb bebec
bbed beec
ef e</w>
edc fbf
bbee bba
bcc bbbec
dbe bcebb
dc fbdc
ff bebd
ff dfc
eeeeeeee eeeeeeee
bbec beebb
bbc fbbbb
bbbc fed
eeec ebd
debe bbd
bbbbc dbd
dbb dced
bbebb fbc
eea a
bf fbdc
eeee dbc
bbec eebc
ebc febd
bbebe bbebe
eccc ded
bfc beebb
fee beebb
dee ecbc
bcc bcbbc
bbbc ea
ebbee bef
dd bfcc
bf eeebc
df beebb
bcba cc
dd ecbf
eeebe eeebe
dc bedee
edc febc
ed fbebe
bcec ebd
eef bbdc
fc dccc
dee dbec
bdc ebdc
a dbec
ebf eecc
dc bfbd
ebc ebbcc
bebc bbbf
eebd dec
bec bcf
fee bebf
bebbbb bebe
ebb dcbf
ed ebbebe
bbf fbbc
bbee eecc
edc bced
ccc fec
ecbcbc cc
bbd eebbc
beef bbc
ebcc bef
dbd def
dbe bbdd
bbee febb
dcc becc
ff ffc
dbb bfbd
bdc ffc
ba ebbc
fc eeebb
ff bbebe
bbbc bbebc
ecc bcbf
bbdc dec
ec db</w>
bcc ecbd
bcbc ebbc
beed ded
ebc bcebc
bbf bebbc
dbc fbe
fbf ebf
bbee ded
bebc fcc
dbe debc
dbd debe
ebb defc
bbdc bbbd
dbb ecebc
dbc fdc
ebc bdbf
ecc fbbc
dcc bccc
beee bfc
ddc bbbc
debb debb
bbc eebbc
fbc bbbf
edbd fc
bd eeeecc
bec dbbd
ebbbc dee
fee bbec
df fbbc
decc ef
bdbd bdc
df ebdc
dbb efcc
bbbb bedd
df bbbbc
bf beecc
ebe fbcc
bbdd bbdd
bbbd beec
edbc bbbe
ebc dbbbe
efc bbcc
fcc fdc
dbf fbd
ecc eeebb
ebc bcef
eedc ef
ac fa
bec beef
bcee bbcc
bbc ebfc
ecc bbef
bcc b</w>
ecbc bef
bbebb dbd
df eeee
eebc bebd
efc bedc
ec bbeccc
ecc ecbf
a beef
df beed
fed bfc
ebe bbecc
fc ecbf
fc dbbbb
ebd fa
bcbd bcbd
bd dd</w>
fee fbe
bbbc debe
dfc dbc
ecee fbc
a bcebb
bf eebcc
eef da
eeef ef
bcf bbbbc
bbbc bbbec
ebbc eecc
eedc dbe
be ebb</w>
fec bebd
bc ebac
bbd bdebb
bdc febb
bbbc ebcc
bbd eced
a debc
dbb ddcc
bebf bcc
bbbd b</w>
eebbcc cc
dd dbbbe
bbc ecbf
edc edbd
bbf beed
bbfc dbe
bf d</w>
bbbc bbef
bedd eec
ed bebfc
fc bcdd
dee beebb
ebe bbbbbbbb
eeba cc
fbc ebec
ea da
debb bbebb
dd ecdd
dd fbec
dcc bbec
bbee fbd
bf beeec
ee dbbebc
ef bebcc
fec ebf
bebe bebbc
bbbb eecc
bdec bcc
bcec bbbe
ff eccc
ebb dcdd
bec febc
ecbe bbbf
bbbb bddd
bbebe bebc
bbed ebf
bfc eecc
bec befc
ecee fcc
eec bbbec
eebc fcc
bbf bcebb
ebbbc ebd
becc efc
deec dbe
ebb bedbd
fc bcbbc
beee edc
bec bba
a ebdc
dcc fdc
ebb fdbd
bbbb eebf
a bcf
bcbbbb bbbbc
dc beedc
bef bcbd
dc ebbebb
dee bbbf
bbdc bbdc
eec fbbc
ebb bbdbbbb
dbbd ef
bbebb bbcc
bbf da
eeec dbd
dee beed
dd bbbec
bef dbbc
bec fdd
a bedc
ebc bdbc
bdc ac
bcee bbbd
ebc bddc
bef ecbc
ecbd dbc
bec bbbcc
ebf eef
eeec bebe
bbee efc
bbf febe
bf acc
debd dbe
bd deccc
bbbe beed
bdc ecbc
bcbe bbdc
bbbe ac
dbb ecbbbb
ebb dbbcc
ebd beebe
ed ebbee
bbf bba
bbee bbebc
ebd bcbf
bdc bdbd
bef bcec
ebb bbdcc
bfc ddc
deec ef
eedc bcc
fec fcc
fbd efc
dcc def
beec eecc
bcbe ebcc
bbbe bcbf
dee ebcc
eebd bebe
eebe eccc
fdebe cc
ecf ebec
ebdc edbbec
debb fbc
bbed ebbc
bbbf bbec
bcf bbef
eebd dbd
fbf dbe
bcc bcebb
fc beecc
bf bebbbc
fc edcc
ebd bbbec
bf ecebe
eebe dbf
dbec dbc
ef bebec
bedc dbe
fc bbbcc
ebf bbdc
dc efdc
dcc ebbc
febe bbc
bbbb bbbdc
ea dbf
ebe eced
ebe dbbf
a dca
fc bba
eef dbbc
bbd ebfc
dc bebbf
bbf bbbec
bbd bebbd
febb ebc
ec debfc
ccc bbcc
dbb dded
dbd efc
ed eebbf
ebf dfc
eeef eeee
bbbe debc
ded efc
edc fecc
febb dbe
ecc bcf
bebe fbe
beee eeebb
eeebe beebe
beec bbbd
dec bcbd
bef beebe
bbdd dee
eec bcebb
bebe bbef
bbbf ebbc
ba fcc
bf dbbee
bbf eebf
debb bbec
ed fbef
bedd df
bbee eebc
bec bded
eeebe bbbb
bfc fbf
dbec ebd
bcec bbbc
bcee bbed
eebe bbdc
dbd dbbd
bedd a
bcdbf cc
ec fcccc
def fbc
bbbe bcbbbb
bccc bcbc
bebe ddc
bebe fbd
ded bbed
bbbe bdbd
dbb ebbee
fdd ccc
fdc bdc
ebc bddd
bbfc ef
bef bbbbc
fec eecc
ee de</w>
ebec ba
fdc ebd
bec bcbbc
ed bbbbcc
bcc ecbe
dc bebbbe
bcc febe
beec edc
edbc edc
ebe eedd
da bda
bcbd bbbc
dbe bebbc
fbe debc
bbc bbebd
ebb febbc
ec dbbebe
ebc bebcc
dcc bbcc
febb dbc
fee fbf
ebe ebbcc
bec bdcc
bf bebbee
ec bbebdc
bebe ded
edcc edc
fbe cccc
fbd fbd
bcc bebbc
bbbe def
bebe bbdc
bbc bcdd
bcc da
ebd eeebb
bdbc dec
bbbb bdebb
eebf ff
ecc bddc
bebc ecbc
edbc fbc
ea bbec
dfc bbf
bcc bcf
bf eac
dc debbc
edcc ebc
ec dbbef
bcc beef
fbe debe
eec bfcc
dcc dbf
ecbd dec
dc fdbc
bbbe bbfc
ecc febe
bbee fcc
bbbe ecbc
bceebc cc
bbbe bebbbe
fc eced
bccc dbc
bf dcdc
ecdd dd
ef eedd
eeed bec
bbd beebc
bebd debb
becc ebf
bbebe dd
dbe eeee
bebd bfc
bf bedbe
bbbb cccc
ea ddc
eebbed cc
bbbbc bbbf
eeec dbbc
bbdd ebd
ffc bbc
ecdc dcc
efc debc
ffc bec
bdbe dbf
bf ebbbbbb
bf bbedc
bccc ebd
fa dd
eeef beee
ebfc df
ded bcbc
dbbd ebe
edbc bbf
a beebe
eeebe ebf
ec eeeecc
bced eec
bebe ebcc
bc dbbebc
a bcbe
bbd ecebb
ba fbd
bf dbfc
bdee dbd
ebc feec
dbc bedc
ecc bcdd
ecee dbf
ef ecf
bebbbb bbee
bddd dbd
bebc fbd
bf bebdc
dc bbedc
fbf bbbc
eedc dec
ebf fdd
debe ebd
eeec fec
bbf bbebc
bbc ecebb
f ebb</w>
def dec
ebbbc bbee
bdee dcc
bbebe ebc
ebbbc eec
ebe fbec
bbed edc
ecbe ebec
eeee eebe
bebd bef
bbed bbebb
bbbd fbd
ebcc ebec
ef bfbf
bcee becc
fdc dbc
ddc fee
ecee bcbc
bbbb bcf
bbbf dec
eecc dcc
ea bfc
febb ebf
bd befcc
bbbc bcebb
ccc bebc
bbf bcf
fbe da
def dbd
eddd dd
bcdc df
bbbbc ebbc
bd bebecc
ef fbbf
bcbf dd
bf beebd
ebe bbebf
ecee bbcc
bbbe bced
beec fee
ecdc ebc
fc fbcc
ecdc edc
ed fbbee
bbc eced
ecc bcbe
bcbf a
ed dbccc
bebf bbee
bbbbc ff
dc ebbed
eecc bbd
ebf eccc
eebc efc
bcbd bdc
fc febe
eeec becc
bedc bbbb
eebc ebcc
beec bbcc
eebbbd cc
fcc fbd
dbcc eec
ddc efc
bbed debb
bedc ded
dbc fbf
bf eebbbe
bef dfc
bbeec bec
bdec a
dbf dbf
dbec bcc
ea edc
fcc bbbc
bebd ebf
dbb bfed
ac bdc
bcbf df
bded dd
fed bebc
bbfc dee
eef bba
eeebe bef
bd dbbed
fbc beee
bbdc edc
debe edc
bebe ebec
dec ecbc
fbc ebcc
dbe dbbbb
ccc fee
bbebb fee
dc beccc
bbee ebec
bcbc ba
eebc debb
bdbd dee
eeee eec
eebd bebc
ee bbb</w>
ebc bcbbbb
bbf beef
bbc dbbbe
ddc bfc
ecdd ecc
bbf bced
ebc b</w>
bbbc bcbbc
ecf bbbf
bbc edbd
fed ecc
bbbbbbbb bbd
ecbd ef
beee bba
ebd bebec
bbebb bfc
ac ecc
ecbe dbbc
ed eebbbc
bf ddcc
bbbd bcbd
fef ebe
bbbb fdc
ebb ececc
bcc eced
bbbc ecbc
bebd bbec
bbbe eecc
dbb ecfc
bc defcc
bcbbbd cc
bbbe ebbebb
bebe febb
bdbd a
ebc dbbf
febe ff
ecbf ccc
bbba bbbb
dbc bcec
bec eebf
ebb beba
dee fbe
bbbc bebbc
fc bdbf
fdc edc
dbcc dd
bebbd bbbb
ebd dbdc
bdc beebb
ebec becc
fc bbecc
ecee ff
bebf dd
ebc efcc
ea bcec
ebb beebbc
debd bec
eeebb ebf
bf debbc
fbc ddc
ed ffcc
bcf eccc
beef ff
bdc decc
ebe dbdc
dbbbb bcc
ef fbbd
dbc bbdd
fbd fee
eebc becc
eec befc
bbf bebbbb
bebe fec
bcbf bec
bcbc beee
bcbc bbbbc
bdf debb
fed bbd
ee dbbbcc
dbe fdd
bebe bba
bdee bebc
ebbee bec
ed beebbc
fbd ebbc
dec dbec
bcbf ff
ebe eddc
beec ebf
fbbbb bbbe
f a</w>
bbbf bbcc
bbebc ccc
ebbbc df
dbbd bbbe
bdbc ebf
eebd ebbc
beed bebc
eec dccc
bdc bcec
eecc fcc
bf bdbbbb
deec dbc
bbbb bbeec
bc dbbbcc
beebb ccc
dbb ecdf
bebf bbbc
bdbd bec
ebb acc
ebd bddd
eecc ded
ffc a
dbbd fc
ebfc bbc
febc df
dbd bcbd
bebe dbf
bd bbbecc
fbd ba
ddc bbee
eecc ebbc
bc ed</w>
febb bcc
ed ebbef
eedc ff
dc eedee
ecbc ebbc
bdc bbbbc
ebd bcf
dbe dfc
fa ccc
da ebe
beed ff
bdc fdd
eeebe ff
efc ebcc
ebec fee
bcbe debc
edbc dec
beebb ff
eebd bbbc
bedc edc
dedc df
eebe debb
bef eebf
bcee beee
bebd eebc
bbbcc bbbc
dbe bbef
edbc bbd
ef ecebb
dd efcc
dd fdf
bbebe bbd
a bebbc
dd dbbf
dee bbdc
bebe dbbc
eec bcdd
bdee ebd
ebccc ccc
bbee eeebb
dcc beec
eebe dbbc
bbbb beef
febe beee
ecbf ecc
dbb bfdc
bd ebfcc
decc df
bbee ebcc
eeec bebc
bdc bedd
bcbe bbbec
ed befcc
a eef
ebc bdec
bdf beee
dc eebbbb
dd befc
ebdc fbc
bbebe dbe
ecbd ebd
fec def
fcc eedc
bcbd bbd
eeef fee
dbf bcbc
ba eeee
febe ef
ba bbbbc
dec bced
beed dbd
bef bbdc
bbbb fef
fbe bdcc
ebb fbeee
ddc fed
bcf debe
bbbd dbbc
bebd beec
da bec
dc beff
eec bded
bebe bcec
bbec fed
ec dbbfc
bceebecbbec bbdbbc
fbe bbfc
bbec fbd
bbbc bcec
dcec ded
ba debb
eebf ccc
bf fdee
dee ebec
ed dac
bbbec dbe
bf efbf
dec debe
bf fbbbc
eec beebc
ebf eebd
a bbba
bbee fbf
fbc fdc
fcc bcbc
bbec bbbbc
dbcc fc
beebb beebb
bec ebbcc
dbb bdebc
bbbcc bcc
dbb edebb
eec ecec
bebe eeebe
ebc bebbd
dfc bbbb
bbc bcebe
bbdd ccc
ffc ef
bdf bbbf
bbf debc
da dee
ded fee
bfcc ccc
dbd becc
ee dbbebd
ebe bdec
bbebe bbbd
ecbd bdc
bcbcbcbcbcbcbcbc bcbcbcbcbcbcbcbc
ac bbbe
bdbc bebc
bf ebbbd
bfc bedc
bbcc bbbbc
bebbbb bbbbc
bf fbef
def ebd
bbd bcef
bac a
bbbc bdbd
bf ebccc
bf eebec
eced df
febe ccc
edc bbebb
bbfc bcc
ef dedc
bebe bcebb
dbd da
bc bbebfc
bbfc ff
bbf ffc
ec ebac
dc eeccc
eec bcbbc
ebd ecbe
bcee debb
fda cc
fbc ea
ddc bef
eebbc bbc
ebbbc dbc
fbe bbebc
ddcc ccc
ef dbbbe
def bfc
dbb dcdd
fbf bef
decc edc
bbbb ebdc
dbbbb ebe
beed bdc
febb bbbc
ebcc bbbd
eeee bcbc
eedc dbc
efc fbd
dc bbbbbbbb
ebcc eebc
edbd dee
ebc dcdc
eedebb cc
dbcc bec
eec eebf
ebd beef
fec bbcc
bf bbbfc
dbe eccc
bccc bdc
dbd bbdc
fef bcc
ded beee
bbbe bedc
eedd edc
eec bcf
ebd befc
ac ac
eeec eecc
beec beee
bbbb debc
eef dfc
ebfc fc
beebb bcc
ebec debb
ded bbcc
ecbc ebf
ecc bded
ef bddd
bcee fcc
ecf debb
fbc dfc
bcbc bbebb
fbf bfc
bebd becc
ecbd ebe
dbe bdcc
bd bbb</w>
ed bebbbd
ebc eddd
ebc fbcc
bbc fa
bec ecdc
bbee eeebe
dbe bbebc
dbb edbc
bbbc eecc
bdbe ddc
bbbe eebbbb
fc bea
ebbee bbebe
dbc dfc
bbbd dbbd
bbbd bbdc
eebc bbcc
beebe bbf
df bcbe
ef bdef
bebec bbc
bbbf bcbc
ebbc bcbd
ded bcec
dbc bdbd
dcc eccc
bcee fec
decc ecc
ef bebbbe
ec de</w>
ed ecdee
fbc bbed
bebf bef
fbc def
fdc efc
bebbbb ebe
eeed bcc
dbc debc
bcbf ccc
ba bbed
edc bbdd
fbe eccc
febb eeee
bfbc dbe
dbb ebbebe
bf eca
ecbc fcc
debe dee
eec eba
ebd eddc
bccc dec
bec beecc
ebd bcdd
bbf eecc
bbc dbdc
bebe efc
bebc dbf
bbbe bbbcc
becc fed
eef eccc
ebd bba
bebc beed
dd bdbc
bf ebbed
ba ddc
bbbc febb
ebb bebfc
dd ebfc
ebf eeebe
ebec beec
eeef ebe
ee debfc
bbbe fbbc
bf eebbee
bbbe fbbbb
ec ed</w>
edbd ecc
bbd bebbbe
debb bfc
bdc bebf
bbbb ecbd
dd bdbf
ded deec
eec bcef
ecbe def
a bbbec
dbe cccc
ebdc dbd
bebd ba
becc ebcc
bbfc ebe
ebbc beebb
beee dec
ef ecbbc
bbee bccc
ed dbbbd
edc bdbd
bebc bcbd
ebbbbbb bbc
bbbb dbec
bdf def
bbbb ecebb
ef bcbbbb
dbb ebccc
bbec fcc
bbebc df
bbd ecbf
bebd fec
ea ded
dc febf
ebc bea
dbe bcdc
bfc dbec
eedd ecc
ec bbcccc
bcbc fec
ecec bbf
dc bb</w>
eebc fbd
ebc debf
bbeec bbc
da ecc
fc b</w>
bec b</w>
dc bbebf
fc dbbf
febe eeee
beef ebe
ebd bddc
bfc debc
bbbf fee
ebbbc ff
bec dbdc
bcc ecbf
edc dbcc
fbbc df
bbbb bdbc
bfc deec
bebc bbbbc
bbbbbbbb bbbbbbbc
edbd df
dc fbbbe
bf ebbee
bf ebbebe
dbf bbbd
bbebe bdc
eeed dbc
bbd bfcc
bbdc bebe
eebc ecbc
ebf bedc
ebc fbbbb
dbb bdbec
da ff
ddc eecc
ee bbebfc
ecdc eec
bbdd bbf
ef dced
bfc fbe
dbf ded
ebb debec
bbebe ff
febb fee
ecbd ff
fbf fee
bded dee
ed beddc
dec dfc
eeec bcbc
edc bebf
ea bebc
dc eeeec
bbee fec
ebf eeebb
ea bbebb
bdee ff
ebb dfcc
ebc bbecc
bbbf beee
eef bbbbc
eded ccc
ebb bebbbf
dcbc ff
bfbc bbbe
bddbd cc
fc ecbe
fbc bedc
fdebc cc
eebe ebbebb
bfbc bbbc
ecbc ecbc
bfc bccc
da ef
bdec dbc
ebb fbebc
eebc ba
bcec dcc
bcc c</w>
bdf ac
ebb bebbebe
bbee dbbc
debe ff
beed bbd
bcbf bbf
bf eebbf
ebcc fcc
fecc ccc
bbcc fcc
ecc bcebb
bbbb bebbd
ecec ebd
bfc dbbc
beef beee
bbbcc bec
ebe ecbbc
fbf bebe
fed edc
bba dbe
eebe ded
bdee bebe
dec bbebb
eebc dbf
fbbc bec
fc fdf
dc bdbbbb
bebc bedd
bbc dedc
bbbbc bef
def eec
dbe defc
dec bccc
a bbfc
deec ff
dbbd bbf
df bcdc
bbbd efc
bc dc</w>
ecec edc
bbc dbbf
fed bebe
ef c</w>
bbebc bbbc
bf fbbee
ebb dbbbd
ebb fbbbd
dc bebdc
bdbe bbbf
ba fec
bdee edc
eeec fbc
ebd bbebd
fbf dbc
bba bbd
edbc bdc
bbdd ff
bd dbbdc
dfc ecc
a ecbe
bdcc fc
bbef ebc
eedc bdc
edbc dbd
bcc edbd
fbf bdc
dee eeee
fbd bbee
bbebe bef
ecec dbd
decc eecc
ebe bddd
eeec edc
bcf bbdc
ebd bded
bbed ba
bbd c</w>
fbd bbbd
debd ccc
dbec ded
bced fc
eebf ebf
bbebb debb
bbbb bcdc
beee fcc
dfc bdc
beed bbbe
fbbc a
edbc ff
ebe ebbbf
bbd edcc
ebe dedc
becc eebd
deec bcc
ebe efcc
bbbb febe
eebe ebeebe
ddc bcbc
dbbd ccc
dec beebb
ecbf dd
bf ebbbc
dcbc dbe
dc bedbc
ebec ebcc
eeee dcc
fbf ebc
dbc dbbbb
bbef bef
debd dee
ebbc debe
dbf ea
fbe bba
fef bbf
bfc ea
dbb bdfc
dbbd bdc
eeea cc
fed ba
bdbc ded
ed bbfcc
eedc dee
bec ebfc
bbd bea
eeef ff
ebbc beed
edbd ccc
ef fecc
fc feec
bdee bbec
eec bba
bbd fbbd
eccc dbd
bcc befc
bbc bfcc
fbbc bbf
ecc ebfc
edc bbbf
fec bbbd
ecbc bbcc
debc dbc
ebcc bbcc
febb bbee
eeebb fee
dccc dd
bbc ecdc
bbd bbbdc
bdf ebec
eeec bfc
fc eebbc
ebc ecbbc
ebe bfbf
bbc ebbcc
eebc beee
ffc dbe
bbc bbbbbbc
edc eebf
df dbec
be bbd</w>
ebd eebbc
bbef bbbc
dbbbb bdc
bbee bcebb
fdc fbc
bbebc ef
bbebc eec
efc deec
ecec bbbe
eebbbb bbbe
ec eebccc
bbbf bbbbc
efc beed
dcc debb
fbbef cc
eebecc cc
bef da
eecc bbbe
dbbbb bebe
bbbec dee
fc fecc
bf bbebbc
ebd bfcc
fed fbc
bc dbbebd
dbe da
debc bebc
dc ebbbd
bbbb dfc
ecc bebbc
dbc bebf
ffc dee
bbdd bbbc
eccc fbc
bcc bded
dbf fee
ebcc bcbc
bbebc a
bcc ecdc
dc ebbbf
bbc bbecc
bdc eedd
ebb dddc
bfc bcbd
ebc ebbebb
ecc eef
fc bddc
ebf beed
bec bfcc
dbb bfebb
beee bbbbc
fbf fbc
fcc beec
efcc ccc
cccccccc ccccc
ef ecdd
bd dbbbf
bbf bcee
bebc ea
bebc beebb
ecbc becc
fed fec
ecf dfc
dbc b</w>
fed bef
bbbd ebec
edc eced
dbbbc bbbb
bec bebec
bcc febc
eecc bbbc
bdec bbbb
def bbbc
fbf dee
ebbc bbdc
ebc bebbbe
eebf fee
ecee bbec
df fa
eebe eba
ecec bbd
bebe ecebc
a dbbd
fbe dbec
bdf bbebb
a bdcc
def bbbe
bbbcc bbbe
ac bbbc
eec bebbbb
df bcebb
ded bebd
eebc fee
a bcdc
bf dba
bbc dbfc
ecbe ea
dc eebbd
a dbcc
fbbbb bbf
efc ea
debb bcbc
ecbc fec
ebdc bbf
bced dbc
ebb bbea
edcc dd
eebc beec
dcec dbe
bf ecbcc
ed bebbcc
ebbc dbbc
eebf bbf
bbcc becc
debb ba
bbc bcfc
ecbe bbbbc
bcbe bbef
ef bbebf
debb bef
bbcc ebec
bdee fbc
dbb bfbc
bc ecbccc
bec fbec
dee bbbbc
eebf bbbb
bdbe ea
ebbebb bbbe
def ddc
ecee bebc
be dbac
dbb bfbbbb
bf bbba
bccc bbbc
eeec ebe
bcc bcef
bebe fdc
bbec dbf
bba bbf
eedc ebe
bdbc bbee
ecba cc
bbec bbbf
beebb dbe
bbbcc bbbcc
fc dcdc
debe bebc
dc bfbc
eccc ddc
bcebb bbbe
eeec ebbc
bebbc bbbc
bbd e</w>
dbbd bbbc
bdc bced
dbc bbef
fcc bedc
ebbcc ccc
ef fccc
bef beed
be bbe</w>
bcbbbb bbbd
f dbac
ef bca
bdf ebcc
ebbc fed
ebc eeebe
bbcc ba
ded eecc
fec debc
ecf dbbc
ecef ccc
ebc bedf
eeec ea
ebbbc bbbd
dc ecccc
bd bbbebbbb
bbebc ebe
ebb fdec
eec eeebb
bbec bbdc
ddc fbd
bded df
bec eebbc
bcbf dbe
eccc fcc
ecdc dee
bbcc bbebb
fec ebcc
febe bbbb
bbed dcc
beec efc
dc eca
ff bcf
ebb ecdee
beec fed
ecee bebe
fbc eebd
bcbd ebd
ecebb bbc
bcec bebe
def ebf
a ecbd
beec debc
ecc fedc
dbb bfbbc
bebc febb
beef bbbb
bbec ebcc
ebec ea
ebc bdebb
ecc dbdc
bec bbecc
decc fc
dec eedc
dd fbcc
beebb eec
fdc bbf
bcec bfc
dd bbbcc
dced dee
bbebc bbf
bbd bcebe
eebc eebd
ebb fdcc
dbbbb bbee
ef eddc
bbcc fbd
bbdd ddc
ffc bcc
ebbc fbe
beed becc
ecbe bbdc
a eebe
ebd dbbbe
fbc fbe
fcc eebd
ebdc bbbe
ed febbc
ef bdee
ebbbbbb bbbc
ed dcccc
dc ebbee
ebbc ecbc
dc ecbcc
ecc fa
ebbc bccc
dbd ea
ecdebb cc
bdf bbed
bfc dfc
fee fef
bdbd dbc
a dea
ed fcdc
eeed dbe
dbcc df
eebf eeee
bbebe ebf
ebec fcc
ee ecbccc
edc bcdc
ebbc bebf
debc bebe
eced dee
bdec ded
dced bbc
bcbd dec
beef bbbe
ebd fecc
beee fbe
ed beded
dbf fec
eedd ccc
ebc fedc
dbbc bbee
eeed dee
ebe ecdd
def bbd
bbdd bcc
ebf cccc
bdc bbef
dbc febb
fdd bbc
eeebe bbf
eeec ba
ebcc ddc
deec eecc
debe eec
bdc dbbbb
ecc bfcc
be bbbac
ebbc ea
bbcc eebc
ebbbbbb bbebb
fbd ddc
bebbbb bec
ebdc dcc
ee deba
ecc bbebc
dbd eecc
ecec bcbc
febe bbbe
dbbd ff
ebf bcebb
bdbc bef
ebd eef
becc fcc
bf ecbbbb
bbee bbdc
ecbecc cc
dc eeebd
dccc dcc
ebdc bbd
debb eebc
edc bbebe
ed eebbee
ed ebeebe
edc beebb
da dbc
a deec
bdbd bbbe
bcbbebb cc
ac ded
fdc bfc
bbee bebbc
eebebd cc
dfc ded
be bbc</w>
eeebb ff
dddd ddc
ebec efc
dd bcbbc
fdc eecc
bbbd beebb
bbcc beec
dd eded
fbd debb
bbf bcef
ebcc beee
dbbc dbf
a ecbf
ed dbbdd
dcc ba
bdc eccc
bebec bbbb
bebf ebf
bbbec bbbc
bbbd debe
bbcc eecc
bba bcc
ebe fbbf
ef d</w>
fa df
bcdc fc
bec ecbe
bcec fbc
ecc befc
edcc ebd
bbef fee
eebd ded
ebc eefc
dc acc
ebec fbd
bebd bcbc
f bbe</w>
ef fdbe
dd fbbbb
eedc fbc
dfc dcc
beed bbf
bedc fec
df ecbf
fee ded
bbec def
ebf bced
bc fedcc
eba bbc
ecec ff
bf fedc
beec eebc
bbbc eeee
edbd a
fcc ebcc
bbebb bbed
becc bbee
eebf beee
d ebf</w>
debc bbbe
bf ebbef
edbd dbe
ed eeff
bccc bbf
bccc dbd
bdec ebc
bebc debe
debc edc
ebb debcc
fc bebcc
bdbc fbc
ed fbebc
eec bebcc
df bbebe
df ecbe
edc fef
bbef dee
bfc bbbbc
ef ecef
bf eebbd
eec bbbcc
dbb eca
efc ecbc
bdbe bbbbc
becc dbd
dbbbb ccc
ef dcdc
bebf ebc
bbee ecbc
ea bbbf
fee fcc
bbef bdc
bdee ba
ddbd dbd
bebc bcec
dcc eeee
ecf beee
ebe fdf
ac bbd
bcc dedc
febc ccc
eebbc bbbb
ecc bbbec
bebe ecbc
bbebc fc
bebe beef
bbebb eeee
ebbbc dbd
bbf bcbe
ecdd ccc
ecc dcdc
bebe fbf
eebe ebdc
bcbc bbed
bbee bcbd
bd bbebcc
bcf bbfc
bbebc ebc
bbbc bedc
bfbc dee
fec fbd
bced bcc
dcc ebcc
beebb bbd
bf ebbbbc
da bbbe
edbd bec
bdee bef
bcdc dbe
ecdc dec
fed bbbe
bc de</w>
deec ebc
dbb dcbc
edbd ebc
bced a
bbc bea
dbbbb dbc
dd bebbbb
dbbc ded
bedd edc
dcc bebd
ebf bcbf
efc beee
bbebb dec
eebf bbee
ebec ebec
bf defc
bf eedf
dd bbebd
ec dbbbec
bcbd bbbd
dddd dbd
bbbb bcebe
dbbd eec
dbbd bcc
eced bcc
bdee bfc
bedebc cc
ef feec
ed bbefc
eeec bbbd
ef ebbebb
ff bcbf
bdc bbebe
bbee bcec
bdbc bbec
bf eceec
febe fee
ea bda
bbc bddd
ebe bcbbd
fdc fee
dbe bcbf
ef efcc
ecee ebbc
dced df
eebc ddc
bbebb beec
decc a
eedd df
ebb bebbcc
dbb dcbf
ecbd fbc
bccc ded
bcdc bec
bded bec
bdc fef
dbd bbbf
bebbbb bcc
bfcc fc
ebe bca
beef ccc
bfc bbdc
bbf bdbd
fbd dbf
eecc bebc
ed fefc
ebb bedec
dbbc dec
fdd dec
ebe bbbdc
eeee fef
da bcc
ebf debe
ebbee bbbc
ecec bbbc
bdbe debe
bbc c</w>
ebb ecccc
ef beff
dbd eebd
bfc ecbc
bbbb bdcc
bbbe bcbbc
bcebb bbbc
bc deba
ed bbbbbbc
dd bdebb
bebe bbebc
bebc bbdc
bbbec ebc
dd eebbc
bcbe dbec
eeebb bef
bcdc eec
ebb ebdcc
bbc bdebb
eccc bbf
ebbc def
ecdc df
dbe bcf
fbf bbee
bbbd fec
bebc bbebe
ebb bbbbbbbbbbbb
eecc bfc
ecec ebe
dc dba
fee fec
dbf bbcc
dbe ecbd
ebb fba
eebe bbebc
bebbc fc
f bbbac
bbbb bcbbd
eecc dbd
ebb dbecc
bbbec ebe
dcbd df
eddc ecc
edc ecdd
eecc efc
edcc bec
dbf bbec
bef dbec
ded fcc
dbc bced
fbe bdbd
bd bbbccc
dbe deec
beee dbbc
debb fec
debb bebd
eeee bba
ebec bebd
fbd becc
fa ff
fbc fbf
ecf bbed
bedd bbc
dd fbbd
ecee ebf
ecec ecec
bebbbb bbd
ebc bcbec
fdc fed
febe bbee
ecee ba
beec ddc
dee debc
beef fee
bdbe efc
da bdc
bbbb bdbbc
bbf bedc
ebc edbf
eeec bbec
eebbebb cc
dbb bddf
ebec bbebb
bbbec df
bbbd eebc
ded beed
eebf bebe
fa fc
bec bebcc
dbbd ebd
bcbe dfc
bcdc bbc
ebbc bbef
bebc debc
bddc dd
bcbc fcc
bbbec bcc
beebb bef
ebc eebbbb
bf fdcc
beee beec
ac ebd
dbcc bcc
edbc bbbc
ded dbec
bdbe bbdc
def edc
dcc fdd
bbbb beebc
ecbd dbd
ecbf a
ebcc fbd
bbbe eebe
bbbd bbebe
dbcc ef
ecbf bbc
eac ea
ebbc fbf
bec bbeec
eebf ecc
dbb ecbbd
df bcef
ccc efc
bdbd fc
dbdc dd
dec bedd
fbc debe
decc dd
debd eec
ccc bbec
bbbb bebbbc
dc fdcc
becc bbec
febb bef
ebf fbbc
ecbc ddc
dcec eec
edbd dbc
bec ecebb
beebb fee
febe fc
fed ebe
fec ea
f bbd</w>
bcbe bbfc
ded debe
fdc dbd
bedc bdc
ebf debc
edbc bebe
dcc ebec
bba df
bccc fcc
bedc dbc
bbf dbec
deec fc
bedc bebc
dec bbbf
fbc ecbc
ebb dbbbbc
dee bcdc
ebd eced
dee bbef
ef bceec
ff bbbbc
bbd ebbebb
ecee bfc
bec fa
bcee bebd
bbbb dbbf
def bef
ef edbf
becc dcc
bbbc b</w>
bbd fdf
dec bbdc
bbed bebd
bdf dfc
bcbc debb
dbe eeebb
bbd ecdc
febb beee
bbebe df
ebbc bcec
fbc bbebb
becc cccc
debc eebc
bbed beee
bf beebf
bbd ebbcc
dbc eedc
beef bbf
dd eeef
edc bdcc
fbf ecc
bbbbbbbb bebbbb
bdbc fee
ebbee bdc
bbbe bbeec
bbd bcbbd
debc bdc
ebdc ded
ebec beee
fc bbeec
ff dbec
eecc ebcc
beef bbee
bcbf bcc
beebe ccc
a eda
dec dbbc
bbbe fed
bec eebe
beed bebe
be bbbb</w>
dee fdc
beec dfc
fbd fcc
ebdc ebf
ef beecc
fc bbebd
ff eebc
bebf bdc
beec dbf
bbebe bbcc
ebec ddc
dee eccc
dbc ac
becc bebd
bcee ea
bbebe beebb
bcc bba
ebb bebbed
bfc eebd
bebf dbe
fbd fed
bcdebb cc
bbbb bcbbbc
bdee ebbc
ec dd</w>
bbdc ebf
ecec fbc
fc bdec
fef beee
fec da
beef ef
df bedd
bdee bbcc
edbc dcc
edc eddc
fbe ebdc
bbbec bbf
ecbc beee
fbd eebc
ddc bebc
dee bbebc
debb fee
ba bebd
bbebb eebc
bbd feec
eec febe
bcbc bebd
bcbf ef
ecc febd
bef eecc
bd fbecc
ebe bac
ac fee
bdbbbb bbbd
eec beecc
dbe ecbe
debb bbcc
dfc dbd
beebb ebd
ac fbc
fbbc ff
fc c</w>
efc bcbd
bbdd ded
bebe bcbe
edcc bbc
bbef ebf
ebc fbbd
ecbc bbbd
bdc b</w>
ea eba
ebe debbc
ecf ebdc
a eedc
bcebb ccc
decc dec
fbe dbbbb
bec eced
eeec bbee
dbc eeed
be bbbbbbbbbbbbbbbb
ed bebbec
bbdc bbee
bebe eebf
bbebc bebc
ecdd edc
bbebe bbec
bbbc bbfc
dbbc dbbc
bf fbfc
bbbbc ebf
bbebc bcc
fbc bccc
eccc bbbb
bbebb dbbbb
eeebb ccc
ef bac
ea bbcc
bebe bebbbe
bbc bdbc
ebcc beec
ebb bbdbd
ebe ebbee
eec fedc
bbbe dbec
ebbcc fee
da dbd
dbb ebbdc
ecc beebe
fbe bbbec
edbd bbbb
ecdc bec
bfbc dbc
ef bcdf
ebc beecc
bdee bbbd
fec decc
eeec bbcc
ecf def
bbed becc
ef bebbd
bcf ebdc
ebc eeef
eec dbbbe
dc eeedc
fed ebd
bbf beebe
bbebb edc
ecf bbdc
bfbd df
eec efcc
bba bbbd
dd ecebb
bbf eeebb
beebb df
bcf debc
bbbe ebbbbbb
bd bbac
fbc febb
eec feec
ea ebbc
eecc ebf
bbd eba
bebe eebe
fee bccc
fdd dbe
bebbef cc
bbef beee
bbc bebbbe
fdc dcc
fec eebc
eccc bfc
dd bebec
efc bccc
eefbd cc
ed fded
ebe fbbd
bebf bebc
ebbbbc bbbb
fc fccc
dd fdbe
bcec deec
a bbbcc
fbd bbec
bcee ebcc
bc eacc
bf fdbd
fc fbbbb
ecbc debb
dbd eeee
bced ded
ebe dbbbc
bc bbbbbbbbbbbbbbbb
fee eeebe
dc dbecc
ebb bbefc
ebbebb ebbebb
bcbecc cc
ef bbccc
eec eebbc
bba bec
bebbebe cc
ff bcdc
dbbd bebe
da eca
dee bbebe
fdc bbbb
ebe beebf
dbd ebec
fc ebbcc
bcec ebf
beee ddc
fcc ddc
bcc beebe
bbf bbdd
fbd ea
bbd eebbbb
bef cccc
ecbc cccc
bcbd ecc
dee bcebb
bfbc bfc
bbf fa
bf dded
ba beebb
bef debe
dee febb
bcec debb
ef febf
ecbe debe
bd dcccc
efc dbbc
bbbd becc
debd bbc
bbbe bbebd
bcbc becc
bbed fee
bdf debe
bcfc df
bcf dbec
bbbf dbf
bebe bedc
ed beba
ff fa
bbdc ded
dd bdec
bccc cccccc
dec eccc
dbd beed
efc eedc
dfc ebd
bf beccc
bebe bbbec
dbd debc
ac dcc
ff beebb
bec eef
efc bbebd
beee bebd
bbdc fbc
dbe bebbbb
dbc dbec
dec fdc
dbd fed
bbec debe
bdcc bbc
bdbc bfc
ef bebbf
bcc ebfc
bf eebebe
bf eeff
deec ebd
bdee bcbc
ec ecbccc
bbed bbcc
bbbc bcbe
eecc cccc
dbc fdd
eeee eebeee
bef debc
bcbd bebc
dec eebd
ecc eebbc
bbbf fbd
dbcc ebe
bbd bdbbc
bbed fec
bec ecbf
bbbe fdc
bfbc fbc
ded eebc
bbdc bebc
bec febe
dbc beebb
dbb ecdbe
ded cccc
fbe bbdd
fc eebe
fc bebec
bbf fbbbb
beed bfc
bdee ddc
ebcc becc
ebbee df
dbb dddc
ff beef
ecf bbebb
bbd bbecc
dbb bfdd
fcc fdd
bcf bbbec
fc ecebb
bdbd ccc
dbe bbfc
ec fbdcc
ea bcbc
bbbd bbeec
ac ebf
bbbbc bfc
bebf ecc
dbcc bbbb
dbb eceec
fc efcc
dbe b</w>
eedc dcc
a bded
a eeef
dd ecee
bdc bcee
fbc cccc
edc dccc
def ba
bdbc dcc
bcc debd
fbec bbc
bbec ddc
fed dbf
dd beebc
bbbc eeec
bbbc bcbf
ded ebec
ded debc
beee eeef
bebbc ebe
bfed df
bec bbebd
bebe beed
bfbc ebd
fcc bbee
beec bbed
febb ebd
ef bcbbd
bec bea
bcbd bef
ded bedc
fc bcebe
ef febd
debb dcc
bbbbbbbb dbbbb
bbec debc
bf fdbb
bcec fec
bebbbe bbee
eec edbd
ac bef
ed be</w>
ecbd dcc
eebe ebbebe
ebb fbbebb
beee becc
bcbe dbbbb
ebb bbbecc
bbc bebcc
ecbd bbf
bedd ccc
ebb fbbec
ef bebbee
bbc ebbebb
ecc dbbd
eec b</w>
bbbe eebf
dbf ebbc
eec bea
feec df
ed bbbbbd
dbe beebe
dd bcebe
dbbc bebc
bedd dec
ed bbbbebb
dc ebbbc
ff bced
bbcc ebcc
ed fbbbd
dc dcccc
dedc bec
eac ba
ebc eba
efc ebec
ebb fbbcc
ef ddcc
bbbb ecbe
fc eefc
cccccccc cccccc
bbbf edc
efc eebd
bdbc edc
bbbb bdbf
bcbc eebc
ebc fdf
bbef ba
ecc bcef
bbdc bfc
ed fea
dc dbbcc
ebd bdbf
bcfbd cc
ef bdf
eeee febe
bcec edc
fee beec
ebdc bebe
ebbc eeec
ecc bddd
ecc fbcc
fc eeebc
ebf da
ebf eeef
ebd bebbd
df ecdc
eedd bec
bbc bddc
bbbbc dbbbb
bbbe fef
bbcc ddc
bcec bbee
ebb dea
ebe fbbbe
ebe fecc
dbf ddc
bbef dbc
ebb bbfcc
fc bcebc
dd feec
ff fbbc
febe bcc
fcc ea
fed bbbc
bcee dbec
ef eebbbb
bbbb bded
ecbe dbec
eeebb bbbc
fdd dee
ed fba
eeec bef
ed fddc
eeee bbbd
fec bccc
bebbc bbf
bebe ac
a fbbbb
dbe bbbec
a bcbbc
bcbd bbee
ecc edbf
bbebe bcbc
dbe dbbd
bbcc bebd
dbb edebe
bbec eecc
ed fbeee
dc fdbd
bbc bfbf
bfbc bebc
ba fbe
fed dfc
dd dbbbc
a eeed
bef eebd
bbebc bebe
beee bccc
def fcc
bdec ebe
ebd dbbf
fbc bbbbc
def dbf
ecbe ebdc
bcee ecbc
ecc ecebb
bbc bcbec
bcc bcdd
dbc ecbd
beebb bbbd
beebb bbcc
bbfc ebc
eedd eec
ebbc debc
dc fdec
bbc fbcc
ebbc bedc
eef eba
bcbd ebf
ef dcbd
fc e</w>
dee bedc
ef bdbbc
bcee fee
ecee ded
bf bedbc
beec fbd
ebe ebbef
bbc eeebc
ba fbf
bced ebc
ebbc febb
bec bcef
df dbcc
bebd dcc
bbbf fec
a ecec
eec bedbe
bbbb eebbc
bcec fee
bcc bfcc
eebc ebec
beef bebe
bbebe eeee
bdcc dd
beebe bef
febe bbf
bcbbc bbbc
ecbc efc
ebbee bbd
bbc bebbd
dfc bef
bccc bbbe
bbbbbbbb bcbbbb
becc beec
ebf bebbc
def bcbc
bbeec df
bebc ddc
dee deec
eebf bbbe
bbc edcc
dbc deec
dbd bbbbc
bcbd fbc
decc ebc
defc df
bbc bcebc
edc efcc
dcbc dec
bcc dccc
bbc bcbcc
eec ebfc
ec deac
ebbbc bdc
ff dbcc
bbfc bbbc
ebb bedcc
ac bfc
bbfc dd
ec dbba
ebd ecbf
eebd dcc
bbec fbe
bbeec bbbb
ebec dbf
ecee bbbd
ec dc</w>
bf ecbbd
dbe eeec
ecf debc
bdee ebf
ef fbef
ba b</w>
dec da
edbc ded
ecbebd cc
fdd edc
bbebbc bbbb
ac dbd
ebc ebecc
eec bebec
febb fbc
bebc bebf
ebb ffcc
ef ebbbf
bbc bbccc
eec ebbcc
eeee cccc
dc beebf
ebcc fdc
ecec bfc
ef bbbdc
efc dbec
fed becc
bccc bbcc
dbe ebdc
bbbbbbbb bbf
bbd bebcc
beed bbbc
dbc eebe
debd a
bcbd bcbc
ebcc fee
bbbf fcc
bdbd bbbc
ef bfed
dbd bddd
beec bbebb
ebc eeebc
ebe edbf
ebe bceec
ebe bdbbc
bbdd bebe
ebb bebbbbc
fbc bcec
ecbe bbbec
eeef bbee
eced bec
dbc bbebe
ed dbdcc
bcdc debe
ebe beff
dc fdbb
bbc bbbdc
bdbe dbbc
dbe fef
bac da
ebd bbbcc
eeee dee
bbdc fec
ebe e</w>
eec bddc
debb beee
ebd ebfc
bbc feec
dbb ebbef
bebf beee
ecbd bebe
bd dbbebe
ef dbbbc
ded da
ebbbc bebc
bbbe da
fbc ffc
becc bcbc
bea dd
fcc bebd
dc efbf
df bebbc
bedd fc
a bebbbb
bbbd ea
ecc beef
ecec bebc
ded dfc
eba bba
dc deccc
dec dedc
bedd ebc
ff bdcc
ebd beebc
fbd beec
fbd bcbc
ebe ecf
bbdc dcc
dbb edbbbb
bdbe ebec
eebc bbebb
befc fc
bebf fee
fbbc bcc
becc eedc
ac bebc
fdc ebf
bcbebd cc
ccc beec
ebcc eebd
ec eecccc
eef debc
efc decc
ef bda
fbe ecbd
fef bef
a eeebe
bdc dbcc
bebd bbebb
ecbc fee
bcec def
a dda
dbb edebc
ded decc
bec edcc
bbebe ba
bcbbbf cc
ef debf
ebd dccc
bbf ecbd
dee bebbc
bdbd bebe
bbbe febe
dbd dddd
bbebd df
ebe eebbf
bbec eedc
bbcc bbbf
ccc eccc
beebb dd
bbbc eeebb
bbd eeebc
dee da
eebc fed
ebbbc bbebb
bbbbebb bbbe
fbd eecc
eebe bbbec
beef bef
bcdc dec
eac dbf
ebe bbccc
bbee dbec
bec fecc
dbc bedd
ebcc fed
ef beba
dc debcc
bbd eebec
ffc dec
bdf dbbc
ebbee ba
bbd eefc
ebd fbec
ebbc bbdd
ebc ecf
ebd bdbc
ecdc bcc
dc ffcc
ed bbdbd
becc bedc
def bebc
ff febe
ef fbbbe
dbb edef
dee fbf
bdec bdc
debe ebf
dca bdbf
bd dedcc
beec beed
eeee fbe
febc a
bbbb eef
fbd bebd
efc eccc
f bbc</w>
fbc bebf
fc bfdc
eeed bdc
eebc ea
ef bcbcc
bfcc eec
bdec dbd
bbbbebb bbbbbbbb
deec ecc
bded ccc
bbbe ebdc
eedd ebc
bbed dbf
beebe ebf
df bbfc
ff beed
ed bbea
eecc becc
dbbc ebf
ecdc dbc
bec feec
ff bbfc
dc bedbb
eec eef
fc edbd
bcc bdbf
bcc fbec
dbbc bbec
eec ecdd
dbb bfef
def bbec
fdd fec
bbcc eebd
bcee ebec
a d</w>
bdc da
bcf bbebe
bbdd dec
ecbf edc
ebd d</w>
dcc ecbc
bdbe bbebe
bbbb bcdd
bbbb bcbbbe
bec bdbf
ebb bbebcc
bdec ecc
fbc debc
bbbb bbccc
bef bced
bbcc fed
ecbd ded
ebe bebdc
ebf bdcc
eebc bbed
df eedc
bfbc bebe
bf bbbbcc
ebe bcbcc
bcbc ddc
fbbebe cc
dc ebbdc
bebbc ebc
ff eecc
eced dbe
ebe bdbec
bbbf debb
dbd d</w>
fbf fbf
ed eb</w>
df fdf
ecc bcfc
dbbd ebc
ebd bcbbc
bbbb dbbbc
deec bebc
ebe beebd
bdc eebf
ebec bbed
bbbec a
ccc beee
ebdc ebbc
bdbd bbf
dc eebbf
ebe fdbe
ba beec
eced dbc
bbbe beef
ebdc fec
bcbd ded
bbc eeebe
eec eddc
bbc dbbbc
fed fee
fed beec
bdc eeebb
ecdc dbe
dcbd dee
dec ea
bdbc beee
ebd dddd
bcc eddc
ed eebebe
bcc bbccc
bbdd edc
bba bea
bdec bbd
bebe eecc
debe dbd
bebf bbd
ebbbc ecc
bbebb febb
dcbc bbf
ee dbac
bbebb eeebb
fcc bbec
bdbc fec
beee eebe
bbdc bef
bcf da
ebdc bfc
eec bdbf
bbbb bcef
bba fc
eec dbbf
dbc eccc
bbc eefc
debe bfc
bebf bfc
becc bef
dbb bd</w>
bbc fbbd
fbc bcbd
ddc dbf
bbc eebbbb
ebbbc bbec
ebbc fdc
bebc bccc
becc ebec
eebd ebf
bbc bedbe
bcbf bbbe
be deac
ec bbb</w>
bbcc bbed
fed efc
dbbc bef
dcc eeec
ff bedc
eec eebe
dcc ecdc
bcf bbebc
bbdd dbbbb
dbbc bcbc
debe bbbd
beed ecc
debd fc
bbbb eccc
bbf eccc
bebf dbc
ff bcee
ef eefc
df febe
bbd fbcc
bbf cccc
bebe bced
ebc eebec
eec dcdc
debe bcbc
beebe fee
bbef fbc
ed fbbcc
bcc dbbd
bbee ac
beed debb
bbee bbbec
bc bbeba
edbd dbd
dd edbf
dbbc bfc
beebb ebbc
bebbc dbe
bbbc ac
bcc bebbbb
dcc bedc
eeec debb
dbf efc
ef eebbee
bec bcdd
ecec bbec
dbc dbbd
dbbc ecc
ecbbbd cc
bbee beef
bd bebccc
ef bcecc
fc bdebb
ebbbbbb bbbd
ecbc fbd
eebf bef
bded dbe
eeee bbcc
edc ebfc
ef dded
ecee ac
fee cccc
ebd bcfc
beee febb
bbbf bebd
fec deec
ded ebcc
bdec ff
ebe bcbbbe
ccc eecc
dd bea
bdc debd
ed db</w>
bbf bbbcc
ea fbe
eeebb eeebb
bec bedbe
bbd bedbe
bcbe bbeec
dd ebbcc
ea def
beec ebcc
fdc bebe
ebbbd dbe
ebec eebc
ebec bcbd
bbc ecbbc
bcc bcbbbb
eef dbec
fc dbfc
bec bdebb
dcc bbed
bbbc bced
bccc fbc
ecbd bbbe
dbbbb df
bbbb bbba
bebbebc cc
eebd bbbd
debc ebbc
debc eecc
ebf bbfc
debb eecc
dee fbbc
fee becc
bccc ddc
a fdf
bbbb dbcc
ebe febd
bbbb fdd
ef bdebc
dbd ecbc
bebc eedc
bcebb fc
bbdd bdbd
bcee def
edbc bfc
ded bcbd
bbef ecc
bdbbc dbf
a e</w>
eebd bfc
bcec ebbc
dcc beed
eebbbf cc
dee bdcc
ed bbebec
bbbb ebbcc
fcc ffc
bf dbecc
ebe c</w>
bbbe bdcc
ebb deecc
ebec bedc
bcbc efc
bbbbbd bbbd
bbd bdbbd
eeed dec
bdec ebd
dbc bcdc
fcc dfc
dbb ebbdd
bbbb eeebe
bbbbbbbb bbbbbbbe
deec bdc
febb ecc
ebbbc bef
fee fbd
fbbbb bbbc
dee dfc
dbb ecbcc
debe bbcc
ecbf ebc
ed dbbbbc
dc eebdc
dbb eac
bbfc bef
bcc bebec
fcc dbf
debc bbbc
dbec dbd
eeec ddc
febc fc
bec bebbd
bbf dbbd
bbc fdf
fec eedc
cccccccccccccccc cccccccccccccccc
ec eacc
bbf ebdc
debb dbf
bbbec fc
ebbbd bbbe
beee bbed
bf eedbe
eec fbec
bbebb bebf
dd debf
ebc dced
ecc eeef
bdc bcdc
fbe dbcc
becc bbbd
bcc bddc
bbebb ebbebb
bbd beebd
df bbebc
dd eeebe
bbec deec
fbc eedc
bf eeecc
ef bdfc
bcee fbd
fdd dbc
dbe fbbc
ecee bef
dd bbeec
ef bdebe
ebec bbbbc
ecc eefc
becc bbcc
dc bebbbc
ebbc bebbc
ebbc eedc
ecf dbec
ebd fbcc
ccc ba
bbbf fbf
bec ecbbc
a bcef
dcc ea
bcbc dbf
bcebb ebc
bedd dbe
fa bba
bcc bcbcc
bf beedc
bdbf fc
bebd eecc
da ebc
bcbc bcec
a dbbf
bd bbeecc
dd bb</w>
ebf ecbd
eeef bebe
bcf bba
fdc bebc
edec dbc
bdc ecbd
bbef bfc
deec dbd
dee bdbd
ef dbfc
fdd ecc
bbee dbbbb
dc bebbee
beebc bbc
ebe bedbe
dd febd
beed ebd
ded fbd
eba ba
bbd bcfc
debb bbbbc
ecee beee
ec dbbebc
bbec dbec
bdec bbf
dfc fbc
ed bedbf
ebb dbbdd
bbbb ffc
ff ebdc
fbe bfcc
dcbc dbc
bfec dec
edc eeebb
bebd efc
f deac
bbdc fee
ac bebe
edee dbd
bedc eecc
dd eefc
edbc bbee
bcbd fee
bf bbbbbbc
edc fbbc
bbbe b</w>
ecebb ccc
ebbbc dec
fcc bbcc
dc dea
ba efc
dbcc ebc
ebec eecc
bf eebeee
bebbc bebe
bef bcbf
ecee dbbc
bec bcebc
ecc fbec
bbd fecc
be ef</w>
bbec bbebe
eced dec
edbd ebd
df b</w>
ff debe
ff eebf
ecbc bbed
fef dbe
ed bc</w>
bec efcc
ddc debb
fdd ebc
ecdc ebd
edec dec
bbbb bbebbc
ecbe debc
bbfc eec
bdf da
ebb fea
def ded
bcbe deec
bbd beeec
ebbee dbc
bcebb eec
bec fedc
fec dbec
bbdc ebbc
a fba
def bbee
dddd ccc
fec beee
ac beec
ebec bbbf
eccc bbbe
beebb ecc
ea beec
bbecc ccc
dee debe
dced ccc
dcee ddc
bbef bbebb
bcc bbeec
bdc ecec
bcbe da
bbfc bbbe
bcbbbb bbebb
bebf ebd
eebc bedc
beed beec
bbbec bbee
bec fbbbb
bbebe bbbbc
ebb fbbbf
edc eebe
eecc bebe
dd eba
dbf fdc
dc bedec
bebd fee
eeec fee
bedd bbbb
ea debb
efc bbed
dd bcfc
bbec ecbc
bbebc dbe
edbc fcc
ebbee ebc
bbd eeebe
eccc bccc
ef bbedc
eebc ebdc
fbbc bbbe
eccc bebe
bebf fbc
ff ecbd
dee bcbf
bebc dbbc
bbebe dbc
bbd ecbbc
bdee fcc
a ecdc
eccc fec
eeed eec
dbbbe bbbe
bcebe bbbb
bdc dbbd
bfc ac
bebd dbf
ebbbc ebbc
dc ebdcc
bbef dbd
ecdd ebc
ea efc
eeee ebd
fc bfed
ea bbed
ebec fed
edbd eec
dc fbef
bbc bedf
bcec becc
edee ddc
bbbbc ba
bec dbbf
dee eebd
ff beebe
ebe bcebd
ef bedf
bbbd def
dfc fee
bfbc ecc
bdc eebe
ebcc debb
dc fbbbc
bbebe ebd
eef debe
bdc bdcc
ebf ebdc
bef ebdc
dbc eebf
fbe bdbf
beed edc
abd ac
bebbbe bebe
ec deba
dbb efbf
bbec bcbd
bef bbebc
beee fbf
d ba</w>
a bedd
eebd fec
dc fbfc
bbd bfbf
df dbbbb
fef bbee
bfec ff
bc bbc</w>
ebf bcf
ba becc
beee bbdc
bebf edc
bec fbcc
bef bcebb
bebf eec
bec dccc
fbd bbcc
ded dbbc
eeebb bcc
ecee becc
dbd dbec
fed bcbc
dedc dec
bbebe fee
bbbbbbbb bbbf
eef ebdc
dbbd bebc
ebc fbdc
fc dbbbe
ecc eded
dbc ebdc
ef ecbec
bdbd bcc
bf ebeebe
edbd edc
ddc def
dc debec
bbc beeec
dc eedbc
dbcc ff
bd feecc
bef bedc
debb bbed
bdbc ebbc
ed bebecc
bfc debe
dbd ebcc
bdbe def
eddd ccc
ebe bebbbc
bbf bdcc
fdd fbc
bd ee</w>
bebbbb dbe
ebd efcc
bcec fcc
bf fdec
ecbc ba
ebbbc fbc
a edcc
bccc ebf
ed fbbec
dcdc dcc
bdc fbbc
dbd fdc
beebc bbbb
bbd febd
dfc ebf
eedd bbc
a febc
f ebe</w>
fec bcbd
bbef eec
ebfc bcc
bbbc fbbc
dbb dcbbc
dbd fbe
dc fcdc
da edc
beec bedd
ef beebf
ebfc bec
ea beebb
ed bbebcc
bbee beed
beec fcc
bcee bbbf
dd bdbbbb
eeed bbbb
dc fbebe
ecc bbbcc
eeebb bbebb
ac bcbc
bbbe bcf
dc bbbfc
df bded
bbc bdef
ef eebeee
ebe dced
ef acc
ccc becc
da bbf
bdee bbebb
fc bebbbb
df ecec
bfc eeec
dec ebdc
bbd fdbe
ba fa
eecc eccc
bbdc bbec
edec bdc
df eebf
ebbc bbebc
ecc ebbcc
ebc eebcc
bbbbc bbed
bbee debc
bef eeebe
dbc fef
bdbc bbcc
ebc bebbf
ba bcbd
ec debecc
beec decc
ecbe dfc
ef beebd
bec bcebe
dc bbdcc
fc ecf
bbbd bebbbb
ecbf dbe
beee eebf
bfc eedc
ebd bbeec
ebc bbbdc
eec fbcc
bdc dbdc
fbc beed
bcc fecc
bcdc ff
ebcc eedc
debe dec
bbbb ebbbbc
bbf bcbbc
dcc eedd
bec dbbbe
ebc ecebc
bbd edbf
bba dbc
dbf debb
debc fec
dbcc dbc
df dbbd
bec bcbec
beec ebec
a fbec
bbbb bb</w>
fef bebe
ef ecfc
beebb bebc
bcbf bbbc
dcc bcbd
df edbd
ecbe bbebc
dee bcee
bbec eebd
def ebbc
fed debb
dbbbb bebc
fef ebf
da ea
bdbd eec
bfbc fec
dcbbd fdd
fc debf
fbd dfc
debe ebbc
fed ebf
bec beebd
fbf eec
dbcc ebd
ee bf</w>
bbd bcebc
dd ecf
fc ecbbc
fbf bebc
edc bbef
dbb ecdee
bbbe dbbd
bbcc dbf
bba dee
bbecc eec
ebe bedf
eecc fdc
ecec bebe
bf dddd
fc bcdf
ecc bedf
bcbc bbbf
bebbbe bbc
bbbd bebf
ebd ecebb
ded bbebb
bebbc bcc
edbc ebbc
bfbc ebf
eebf bcc
fef bbbb
ed bd</w>
bbbd fbe
bdbe ac
bbbec eec
decc ff
bbdd bbee
bcebb bbf
dcbc dbd
fbc bbdc
eeee eef
eddc edbbc
ebb bbbccc
df deec
bdbc bebd
dee bebf
ecee ebcc
bec ebecc
ebdc efc
eecc fbd
bf febbc
dbb bffc
a bac
ec dbbbcc
eebe edcc
dbb dcebe
debd ded
dcc ffc
bdee dbf
eebbbb bbc
fcc eccc
ecdc bbc
ebc bbbbbbbb
ebc fdbe
debb bbbf
febc bbc
dc bedbd
bbbbc ecc
beec ea
becc fee
ecbe bbebe
dee ecbd
bbbbc fbc
bcbd edc
bbbc debc
eebc bbbf
bceecc cc
eedd dbc
ebb bedebb
ebe fbbee
ebbc dfc
ddc bbec
bbbb bbecc
fcc ebec
bcee dbbc
ecebe bdbbbe
ed dbbed
def bebe
dd ecef
dee bbdd
dbb dcef
def fee
ebfc a
ebc bcbcc
fc defc
ef eeff
bebd bbed
eecc bbee
dbe bedd
ddc bbed
bccc bebe
bec bcbbbb
bded bbc
fdf ccc
decc bcc
edbc bbbd
bbbb fa
bdc bcbf
df fbcc
dd bdbbc
becc fbd
decc eebc
bedc bbf
dcbc ded
decc bbc
ed beebcc
ffc dbc
edc fa
bebd bbcc
ecc bedbe
ebc eded
bf fba
ef fbdc
ffff ffff
dc ebbbbc
ebe fbebe
eebe bbdd
bba ccc
ec dbbebd
ed eeebf
bbbe eebbc
bebbd bbc
ecc bbeec
debe ba
bf ececc
bbebe bbbf
ebd debf
ebbc ebdc
ff debc
dec beebc
dec eeec
bbbbc beee
febb febb
ebbebb bbc
ef dcbf
fdc fcc
bef eccc
bebc def
bcbbc bcc
bef eeebb
befc a
bbbe eeebe
edcc bcc
ebc bfbf
fbf bcbc
eebf edc
ebc eedbe
efc da
dbb ebbbbbe
ecbc eebc
bef bebbc
bcdc dcc
ebe bdbbbb
bbbe ecebb
eedc fec
ebd bcebe
bbbd eebd
bbdc beee
bbd eded
dbcc dbe
dc bbba
bedc bebe
bd dbbef
ea fcc
fee febe
ebe eefc
ebf fa
dbb edec
df eeec
bebd beee
dee bbfc
ecdebc cc
bbbec bbebb
bbbb debd
bfc fbbc
ebbbbbb bbbbc
dced bcc
efc dedc
beebe ff
bdf bbef
beec def
ebdc bbbc
ed eebeee
ebc dbbbc
bdcc ecc
edcc a
fed def
bdbd ff
df debd
ddc eebc
bedc fbc
ebe febf
ebc beebd
bdc dedc
bcef ccc
bbbb bea
bcbbc bbbe
dd bebbd
ddc dfc
dbbc bbcc
bbbb bcbec
ddc beee
bf dbbcc
ef bcebd
eec bebbd
ebe ecef
bcdc ecc
f ebd</w>
dec fbe
bedc eebc
bedd dee
bbf ecbf
dbbbe bbc
bbee bced
ddc ba
bebd fbd
bcbbed cc
ebe ecbec
bcc ecebb
bbd bdec
dbb dcec
ebdc ebec
bbbb bfbbbb
eebd fcc
bcec bbed
bbec ea
dc bedcc
bbbb fbbbe
bccc bebc
debc bfc
ebc ecbec
beebb ba
dc ebbef
bcbc ebec
bbbf bbed
bcef fc
fbbebc cc
bbbb eeed
bf ecdbe
efc debe
bbec bebbc
ebf ffc
fdd bdc
ebc bcecc
dbc eedd
fbe bbbcc
ee deac
febb bdc
bcebe bbc
beed dcc
beef fc
ebb beea
fec dbbc
dbbbb ebd
bec bebbbe
bcc bddd
bbebb bcebb
ea fbf
bbbb ebfc
ebc bcbbd
becc debb
febb bbd
ebb fcdc
eebd bbee
ef eddd
dec bebf
bbec bbebc
becc fdc
fef bdc
edcc fbc
beec deec
bd dbba
df bbbec
edbd fbc
dbb edbec
ebbee bbbd
bcbc fbd
bfc fdc
ed beefc
bbf eef
bbbbc bcbbbb
dbbbb fc
bedd ecc
ebe eddd
eeec debc
dec debd
bcec beee
bdf bbdc
bcbf dee
bcdebe cc
eccc bebc
ebbc bdbd
ebcc bbed
dbcc a
bfbd bec
ebc bbccc
dbb ebbec
ecbc ebec
eded bbc
dbec ecc
beebb dbc
dbd dfc
ecdd bccffc
bbbc bcee
ddc bebd
bbbc fdc
fef dee
befc bec
ebe ecee
bdcc bec
bb ba</w>
eeec eebc
bebe bcee
eebd fbd
fee bebd
fef bec
bbd ebbbbbb
beec bbdc
ef fbebe
dbec bdc
eeebb bec
edc dbdc
ebe feec
beebe bcc
eddc dd
ecbc dbf
dbec bbf
edcc dee
ef ebbebe
bbcc bbdc
ebd febd
bd fbccc
ebc bceec
ecbc bebd
fbf fcc
ecec fcc
bfbc bdc
ded bced
bdbc ba
bf dfcc
ebc bfdc
bbbe bcdc
ddc b</w>
bbec dbbc
ebcc bebd
dcbc bdc
ac bba
eeed dbd
dbc debd
da da
bdbc debb
edcc df
eccc ebf
bbbe ecbe
eeec dbf
bbbe bdebb
dbb ebbebc
fa bbc
ed eebef
bbbb ecbf
bdbd ded
ebdc bbbd
dbb ecebd
beec dbbc
ef ecbcc
fbe deec
dc ecbbbb
ebd bea
fbf bbd
bebbc a
fec dedc
ebe bbebbc
bdee becc
dbbbb bbcc
ebc ebccc
bfc bebf
ac edc
dfc bbd
ebdc bebc
fc ecdd
dbec bebc
bdec bebe
beed efc
be a</w>
bbbb bbdbbbb
ebbc bcebb
bebbc df
ba def
ebc bdef
bbc bcbbd
ebf bcbe
bedd bdc
ef beeec
ebe eefee
fc ebecc
bcc dbdc
dbb ebeebb
dcec ff
ebe eac
ecc bba
dec bbbbc
ecf bbbbc
bcc bcccc
ba bccc
bcbd beee
fee dbbc
ccc fbd
bebbc eec
bdcc df
edc febe
ccc bbbd
ecbd bbd
bebbc bbee
bbec bebf
fbbc dbe
ebe bdef
edc bcbf
ebbc eeee
fec beed
edcc dbc
bbebb ded
ebf bcee
bbfc fbc
bebbee bbee
bbf bdbf
bbec bccc
ecc feec
bcbc beed
ebbc bbbec
eedd fbc
ef bfbd
a bbeec
ebd ecdd
fc beebd
dee bcf
bbfc bbd
ebbc dbbbb
bbebb ebec
bcec ddc
edc beebe
eccc efc
ebc ecfc
ecec ddc
ebbbc beee
bbf ecbe
edc bbbbc
eebc eba
bcef bebe
ecbbed cc
dcc dfc
bcec bbcc
ebe eeebc
bfbc dec
df bdbf
debe beee
ebe beeec
ebe fccc
bbbb deec
dbd deec
bbc eba
bbbb bebbf
fc eba
fbf dec
dbdc eec
bcbc def
bbbb bbebf
ebd bcbbbb
bfc ffc
dbb bfebe
bcdc dbc
dd bcbbbb
ebbc bced
ebbc bcee
dbe eedc
fdd bcc
decc fec
bfec dbc
bf bbcbbc
bdbc ddc
bbf eebe
fc dced
eebc dbbc
df bba
ea fbd
bbebb bbebc
bedd ff
bdec bbbe
bebe febe
ef ecee
ebd fbbbb
beebb bbbf
f ebc</w>
ef efbf
eef bbdd
fc bddd
edbc ebf
ebe beecc
bbbb fbec
dcc debe
bedc bbbe
bbbb bfbf
ef fdbc
eebd debb
eebc fdc
debd ff
eeee bebc
febc bec
bfcbbef bedd
bebd debc
befc bbc
dbbbb bbdd
df eced
bbebc dee
eeef bef
dbf becc
fc bcbec
bf bbbbebb
fc ecfc
bbd bb</w>
dfc bbbc
dbe ffc
ed bebbebb
edc bcdd
bbee fbbc
bbed bcbc
eec febd
ebcc ba
dcbc ecc
bf ebeebb
ebb dbbebb
bbebb beebe
dbec bbbe
ef eca
bced ff
bdec beec
dbe febe
bbbb bbbebbbb
dddddddd dddddddd
ebb fdbf
ebd eeebe
dbb aa
bbbb eba
ebc debbc
dbe dbcc
bfc bcec
bdee beec
ebc beeec
fc bebbd
befc ff
bbd eddc
bcebb bebc
eec bbecc
ea fec
bbc dccc
bbc febd
bbf dbbf
beee bcbd
bcc fbcc
bbbb bddc
a c</w>
bbed def
beee febe
eec bcfc
ebc fbbf
ebc c</w>
bcc bcebe
dbd fbf
dbbc fbc
bc bbd</w>
dbbd bbee
eedd ff
ebe bfef
dd bdef
beed ba
ecc bdbf
bec bcfc
ec dbbeec
ebd bdebb
bbbe bebec
beee fbd
ecbe dbcc
bcbe eccc
bba ff
dbe bded
ebd bebcc
eeee bbec
dbbbb bbbf
eedc ded
bdbe bbdd
bbbcc a
bdec bef
bdbe ebcc
ebe bcecc
bdbc bbed
bec edbd
bbd eeef
bba bbee
edc eef
df decc
eeee fbf
dbb ebbbec
dcdc dd
fc eddc
bd defcc
bdee ded
ee debccc
eecc bbec
bdee debb
bbbbc debb
bbcccc ccc
bbcc debb
eebbee bbee
ed fdbf
bfc bcbf
efc bedd
bbfc dbc
bbd fbbf
bd dc</w>
eec ecbbc
bbbc dbec
dee dbcc
bbbe cccc
beec beebb
bcebb bcc
bfbc bef
bbbec bebe
eeebb dd
ebe d</w>
eec eced
bbc eebec
eec debbc
bd ed</w>
bcec bbebb
dbe befc
ddc ebbc
edc dbbd
bdc febc
dee bded
def bbcc
ac bbee
bfcc a
bf bebfc
ddc bccc
fcc ba
fcc beee
becc eccc
dc fbbee
ef eac
fceebc bfdbbbb
bcc efcc
deec dcc
ecee bbebb
dc bbebbc
fee dbec
fef bbbe
eeed ff
bfbd a
bbbd da
eebc eccc
fecc efebbc
dec fbf
ecbc debe
eebf bec
edec dcc
bbed ebec
bcee bbbbc
efc fbe
dbc bcbf
dbb f</w>
bcebb a
ebb fefc
bebd ebcc
eedc eecc
df dccc
dbe ecbf
eebe debc
beed eecc
ebc bdbbc
bdec bebc
ed ebfcc
dedc dd
efc bbdc
beef ebf
bbebc bbd
ebd bcef
dee b</w>
fee bcbd
fdd dbd
bfc ebdc
dedc ecc
bbc fbbf
efc ac
dbc dbcc
ffc bdc
bdf debc
fdc ddc
bcec ba
beebe bbbc
bbf dbcc
fcc def
bebbbb a
bcee ac
df bfcc
fcc bccc
eec bbeec
bebe dbbbb
eec bcbec
bf eeccc
ebe dcdc
bebc eedd
bcc fa
bbc bdbbc
ebf bcdc
ecbc ebcc
eba bbbe
bbc bdbbbb
bbf bbbbbbbb
fbe b</w>
eebd bbec
ecc dbbbb
bc ebb</w>
ebe bcdf
dbe bba
ecbf ff
debd dbd
ccc fdd
bedd dbd
bbd bcbec
bfc bbfc
bdee bbed
bebc bced
bbbb bebcc
dbf fbf
bbbf ded
ebbbc ebf
bbee dbbd
ecc bcebe
dcc dccc
bcf dbbbb
bdbe dbbbb
decc ebd
debd dec
bf eebdc
ebe ecbbbb
bebd bedc
bfc febb
ebec bccc
bbf eeec
ba febb
dbf ac
bbbbc dec
fef dbc
beec eedc
debb ebcc
bbbf beebb
bf ecccc
edc feec
fbc bced
eef bbfc
bbef bebc
ecee fee
dcbd ccc
be dbb</w>
ef ebccc
dc ebbbbbb
ba bebf
bbc fecc
fec fdc
beebe beebe
bbbb befc
ebe dbbee
ebe ecebe
dbb eddf
bbbd eeee
bbebc ff
dbbd bdbd
bdcc bcc
ef dcec
bebc dfc
bbebc bbee
ebe bdebe
dbf def
febe ebf
bbc bca
bbbd beed
ecbd ddc
ebd bedbe
bbbe beebc
bfc bebbc
eebd eebc
eeec ebf
be bbeac
ebc fccc
bdc dbbf
ebe ebecc
dc eedcc
bbc eeef
fbe eba
bcbd debb
dcbc bebe
ed feecc
eccc bbd
bd ec</w>
edbc bbec
bbbb ecbbbb
dbc ffc
dec bebbc
bbbd fbf
ebbbd a
ebd eddd
bcebb df
bcdc bcc
eeebe eeebb
ebd feec
becc beee
bbdd ebf
bec eba
fed eecc
ecec bbcc
fc febd
ebbc dbec
eccc bbee
ebb bebbef
bbc bebbf
ec bbebfc
dbd bccc
bbebe ecc
beebb edc
beebb bdc
eeec ebcc
bebd debe
bcdd ccc
dbd bedc
ebbee bbbf
bf fbeee
ac def
bcbc debe
edbc bebc
ddc beec
fcc debb
ebbee bbef
bbbc eeed
bbbd bdbbbb
dbc bcee
ecbe bbef
fc fbbd
bbd bedf
bef bba
dbbc beee
da dcc
eced ecc
bf bb</w>
fef eeee
ed beea
ded b</w>
ebc ecee
efc bbbf
dd ebecc
dfc bfc
bcdc a
bbf deec
bbbbc bebd
fed bbcc
eec bfdc
fbd def
bcbd dcc
fbf bbcc
ebe bbedc
ed bbbecc
ed bedebb
ed beac
ed dbbebb
ef fdee
bfcc ff
ebe eeff
bbec bcec
bec bedf
bbbc bbbbbbc
fc fedc
bcc eebbc
eec c</w>
febb bbebb
bf bebbec
bbbc bba
fee eeef
ecc ebccc
eebc bedd
ecbe edcc
ebc bac
bbed ddc
eec bcebe
df beef
dbc eef
eebd ebcc
bdee beee
bebe debc
bef bcf
aa aa
bbec bedd
bedc ebbc
ebd e</w>
dee bcbe
dbb eda
ded bccc
ef dba
dd bedf
bbdc bcbc
bcc bcfc
eecc ecbc
eebd ddc
fc bedf
ded ecbc
bedc becc
bbbb fbbd
ef eded
bbbf ea
ebe ecebc
eec bbebd
bbbe ecbd
bbdc bebd
f bbeac
ef ebeebe
fee ac
ef ebecc
ebe debf
ebd fbbd
ccc ebbc
bcdd df
febc ff
ba eca
bcbbc bec
dbbc ebbc
bfbc ebbc
ebbbd bbf
bef eeef
edcc dcc
ef ecebc
dee ebdc
ed defcc
dbc da
bebc cccc
ebe bdbe
dbd bebf
bbbd bbef
bced beec
fdc eebc
bc bbbb</w>
dd dcbd
eecc ddc
bcec dbec
ed febcc
ecddbccffc ecebebdbbbe
eeec beee
beebc ccc
fbc ac
ff bbdd
eced fc
fbf ba
bccc bbd
bbdc bbcc
bedc bbbc
ebf bdbd
eccc bcbc
beebb eeebb
fdd ddc
edbd bdc
ecbf df
dc ebbebe
bbbb ebbbf
ebc bca
debb ebec
ebbbc bbbbc
eced a
dd bedbe
bbf bcdc
dbe debd
dbdc dbd
bddd ddc
fc eeef
dbb bfa
bbbec bebc
fed da
bbc debf
beebb bbebe
bfc fef
debc bbd
dbf bbed
eebf bdc
bcbd bbec
eeec beec
dc debdc
bbebd bbee
bdec dcc
bcbe bbdd
ebe eebef
bebbc dee
eeec bebd
ebd dcdc
ebf eebe
ded ea
bfcc bec
ebbee dee
ef dbbee
ebe eeebf
bcbd bfc
a decc
ed dbbbf
bbbcc fc
ba dbbbb
ebf dbbbb
dbb edfc
bbbf dcc
edc bded
ba bbebe
dd ecbbc
bbbc dbbd
ded fed
bcebb dbe
eedc bbf
bbbb d</w>
ebcc bccc
eebeee beee
dc eebbbe
dbec bbd
ba dbbc
edbc bef
ef debbc
ebf bbdd
dcbbdfdd eecfdc
fbd beee
fec ebec
debc dbd
edcc ff
bebc ebdc
eec ecbe
eebc bbdc
ecbc def
bdbf a
eeebe ccc
ebf bbebc
bebd ddc
dd bbecc
ebfc ff
bbef bbd
ef ecdf
ac bac
ecdc bdc
bdbc bbebb
ebe bfebe
fbbc bbbc
bbbd bddd
debe dcc
dfc edc
ecf bbfc
bbbb fbbf
bcf deec
ebbc bcbe
dbf beee
dc ebbec
eeed fc
beef eeee
ecebb bbbc
ef dcdd
dd beecc
dd dced
fee febb
da bbd
eeed ebc
dbd cccc
dcbc dcc
bdcc a
dbc bcbe
fed fed
ecbd bfc
ef eebebe
fbc dbbc
bbebe bfc
eebd efc
fdc bef
dbbf bbc
bebbbe bbebb
bbbf bebf
fbf dcc
dbb bfbec
bced bbf
ac bbec
edbf fc
bbba a
ef bfdc
beed bbee
ebc eebbd
bebbc bbd
eebd bcbc
bded dec
eeef bbf
dbdc df
eccc eecc
fbc ebdc
bbebe ebbc
fdc dfc
bebf dee
eeed bbbc
edc ecbf
febb dee
bdbc fbd
bdc fa
edc fedc
bcef dbe
ebe ddcc
bcc beebc
bbbe dbbbe
debb becc
bbdc ddc
ebc ebbbf
bcf bfcc
bbbb bdbbd
ecbe dbbbb
ebbbc bfc
bebe bdbd
eebd bebd
bbbbebb bbebb
eef dbcc
ecec bbee
ebe bfdc
eec ecbf
dbe ecdc
eebd bbcc
bbbc dfc
bbbd fcc
ef eebbbe
eebc debe
bdf eccc
ebd ecbbc
bbbe eeec
ba bdbd
ecbc bbebb
da eba
dc f</w>
beee ebcc
bccc fec
debb fbd
bbbec bbd
bbed debe
efc fef
dd bdbbd
eec bddd
ecbe bbdd
ebe ebbbbc
bccc bfc
debd bebc
eedd bdc
bf debcc
dc dbccc
bcbf ecc
f bbbbbbbbbbbb
ebc ecebe
dbd eeec
eced bdc
dbb acc
dbc bbfc
dec ac
ee fedcc
df bcdd
bcbe bbbcc
bcfc dee
ed fbecc
fc eea
dbb ecbbbe
ded beebb
bdf bbbbc
bbbc beebe
dbec bebe
bf bedee
a fbcc
bcbf bebe
bcbf fbc
bf debec
ebc dbbee
bbee eba
ded eedc
bbebd bbc
bbeec dee
efc ffc
ecec beec
fc bedbe
bbef ebd
edbc fbd
bdbbbb bbbe
bbee bcee
eeee fbc
eecc bcbc
bfcc bbc
ebbcc bbc
bef bbfc
eebc dfc
bcec bbbd
bcbbc bcbc
dbbf ff
dd bcebc
fbf edc
dbb dcebb
ebb dbccc
bbbc bedd
bba bebe
ebbebb bbebb
a befc
ebb beded
bbbc fef
dbbbb bbec
dbbd bbdd
dec bcdc
bebbbb bbbf
bebec bcc
ebb bedbf
bbdc ebec
bbee eebe
dbbf dbe
bec eeebc
efc febb
bcbd ddc
beed fbc
ef bedbe
dbd ebdc
decc eedc
efc ebdc
bcebb bebe
eec ecebb
beebb fbc
deec fec
dd bbbdc
bcef df
dbf fdd
eecc ebec
ebfc bbbb
eedd dbe
ebc eea
ecbd bebc
becc ecbc
ecc ddcc
eec debf
bbbcc dbe
bbbcc bbcc
beef df
a debd
ebf bbbec
ebf dbec
fbe edcc
eeef ccc
bedc bbd
ef bebdc
bbcc eeee
bbdd dcc
ebbbd df
bbbc eebe
bbec febb
a eebbc
bbf bfbf
bebec bec
dcbd ff
bbebb fec
ef beccc
fbe decc
eebc eedc
ebe bdee
efc fbf
edc bebbc
dc bbbbcc
ef eebbf
bf bedbb
bbbb bcebc
bbebb ea
eeebb eeebe
ded eccc
bedc bfc
fee fa
bedbbbb cc
dee beebe
ac fec
dbb ebebbbb
ecec becc
ff eef
debe fbc
bbebd bec
eced ebc
bf fbbec
ef fbbee
efc fdc
eced bbf
ebe bbba
bced bef
dcec dcc
ecc bcbbc
bcbbebe cc
ed dbbebe
ecc fccc
bbee def
bcbe dbcc
bfcc df
ffc dcc
bdbc bbbbc
bcee debc
beed bef
eddc fc
ebbee bebc
bebe fef
bbf bcbbbb
dec bbdd
bbed fbd
bcee bbebc
bedd dbc
dcbc ebd
dbb bfec
bbbd febb
bced dbd
debb ecbc
bdbc ebec
bcebe ccc
bbc edbf
beee eccc
ebe bfebb
bbec dfc
bdbc fcc
edc fbec
bccc bef
dd bbbbbbbb
edc bbfc
bebd ebec
bc bbbac
dbe beebc
ebbee ebd
bdbc beec
debb efc
ed dd</w>
eebc debc
df e</w>
eec eeebe
ff bdbd
ebbc ac
edbc fec
ebe bfbd
dd dbbee
dbd febb
bcec bebd
ebe ebbbd
dbc bbebc
dbbc fee
fc bdebc
ff bba
ebcc bbebb
ebdc eecc
dbe decc
beee ecbc
fed fcc
dbbc dcc
bbc ebecc
bbd efcc
fbd fdc
bdc bbfc
debb ea
bf f</w>
ebbc fbbc
febe febe
bf dea
fc deecc
da ebd
bebf ba
bbbb bcbcc
bbee eebbbb
eddd ecc
bebe eebd
fc fbbf
df febc
fdd ded
ebc e</w>
bbbf becc
ffc bbf
bebc fdc
bded a
efc beebb
ebc bfbd
beee ac
bbdd fbc
bbed beebb
ebbc bbfc
beed bbec
eec bdebb
deec becc
bdbd ebd
bcbbbb bcc
ebf eeec
da dec
beed bbbd
bbd bbbbbbc
ddc bbcc
beee dbf
dbcc bdc
bf bbdcc
dd bebcc
eebe dbbbb
dbd beebb
bc bf</w>
fee eebf
beef bec
dd ecebe
ebc dbfc
bf ecdee
edc bcbe
fa bca
bbdc eebc
bbebd bbbe
fbbc fbc
bdbbbb bbbc
dbe bcef
eccc bef
eec bcebc
bfcbbefbedd dcbbdfddeecfdc
ebe bbbbebb
ef beedc
ecc beebc
ebcc dbf
ba eea
bdbc eebc
fc bcbcc
bbd bdbe
ff b</w>
bf eeebf
ebc bcebd
dbcc dee
ddc dcdc
ebc ecef
bcec efc
df ecdd
bebd fcc
fc bdef
bbbf febb
ea eea
bdf dbbbb
ebcc ebdc
ebc bcdbe
dec beecc
debb bcbd
ef defc
ff bcef
ecbf bcc
eef bbebc
bbbcc bbf
dd bceec
bbdc efc
ecebb bbbe
ebe dcbd
bbbb ecec
bbef ebbc
dd fedc
eced dcc
a bdef
bbbb febc
ebf bba
bddd dddd
eecc bbbd
ddc fdc
beee bebbbb
fbe dbbd
eebd bef
fbbbf bbebf
debb beec
fbf ebd
bbd bebbf
ea bebf
ebbbc fee
bbcc fdc
bbbf beec
bf bbefc
ba bbdc
bfbc edc
bdc febe
bedc dbd
bd de</w>
dbe bbeec
dd bdee
eedc fcc
dd fccc
bbee febe
eef b</w>
bfed ccc
bcec ebcc
eecc fed
bebe bdcc
bbbf efc
edbd bcc
bbef bbec
dbe eebbc
bbbec bbec
beebe fc
dbbc edc
fee efc
fbbc dbc
bbebe eec
ecdc a
bdc bcbe
eecc edcc
beebe bec
ebec ecbc
bcec debc
bfbc bbee
bbebe bebd
ecdc fbc
ebbebb bebe
edbf ccc
bca a
bbcbd dee
bbc bbebf
bbc bcbbbc
ebec debc
bdbe debc
fdd efc
dcec ecc
ee debecc
eeee bfc
fed bebd
ecbd bbbc
ebbee bcbc
ebd bebbbe
fee fdc
fec ffc
ebbbc edc
ef fbeee
dd eeebc
debe bbec
bcf bbdd
dbec efc
ecee bbed
bbf bfcc
bbeec dec
bbbe eba
dbe beef
edee edc
bcc ebbcc
eeed dcc
ebc bdee
fc bfbf
fee def
bbee bedc
eebe dbcc
fee debb
dbec fec
bbd ecef
bbf fdf
eebe bbfc
bcc eefc
bced bbec
ecec bef
ebbee dcc
ccc bbed
fcc ecbc
bbee da
ebf bebbbb
ff bbebc
bbbd bbebd
eccc beec
dc eeff
dbb dcebc
fc beeec
dccc df
bf beba
bbbbc bebbbb
eedc dbd
a bbebd
bbbf fbe
dcbc bef
ebec def
bcee fbe
ecec ebbc
bbc bebbbc
dbbc bebd
eac df
bec bddc
bea dbe
eec eebcc
dbc bcebb
bbebb bebbbe
ebd eba
ecbbebb cc
bbbe bebbd
bbf febc
bcbc bebf
eeee febb
bbbbc beebb
fee da
ddc eebd
ebb dac
ff fdf
bebc bbdd
bbbdc bbbb
a ebfc
ed dbbdc
bcbf bfc
ebe eebcc
ebe bcdbe
ebc bfed
eded dee
bbc bdee
bbebe bebbbb
fef ba
bdec ef
ebb f</w>
bbc d</w>
dbb ebeebe
becc ea
bfbc bbec
ccc fed
ebe ecdf
dbbf bbbb
fdecc cc
ebe fbeee
dbb efdc
ccc dbf
ded bbdc
eebc ecbd
ecdd fc
dd fbbf
bbbc ebdc
bbebb bbbec
a bdebb
bbebb bebbc
dbb ececc
bced bbbb
bbc fdbe
bdc eced
edc eebbc
ee bbe</w>
dedc eecc
edee bfc
bcc feec
bbbd debc
fbec df
eedd dec
bf efdc
ebbc bedd
bcec dbf
dbc ecbe
beebb bbec
ebe bdebc
bec fdf
bebc bebbc
ecee ea
a bcdd
bbbd bbbec
bedc efc
dbec beec
edcc dec
bfbc ded
eebeee eeee
bbbd bbebc
eebc febb
fec bbbf
a eced
bccc bbee
bced ecc
bdbf df
a bfcc
fcc febb
fbbc bbd
f dbb</w>
fbd ebcc
edc befc
ebd edbf
ebdc bbee
bebc bcebb
bbebb ebbbbbb
fed bbec
eeed ecc
ebc bcdf
dbc eeebb
bbebb fbe
eebc bbbbc
ebbbd dbd
dbec dcc
eec bedf
bcbc ecbc
eef deec
bbc ecf
ba dba
bebd bdbd
ebbc ffc
eecc eebd
dc fded
ef fdec
ff eeef
edc beef
ea bbebe
fec ecbc
febe bef
bcdc bcdc
dec bbebc
dbe bebec
eccc bbbc
bdec bfc
debe bef
dccc ecc
bcc fdf
dfc beec
ebbee fbe
ebbc eebf
fee bbed
dedc dee
bebd eebd
decc ded
edbc efc
dbbc debb
bcec ebec
ecdc ddc
dbbbb dee
bbfc bebc
ebb beebec
fdc becc
bebe cccc
bedc ebf
ef bdbe
ef eebcc
fdd eecc
fbc bbef
bbd bbcbbbb
dbf bbbf
edc ecbe
bebe bcbf
ecee ecbc
ef bdbec
dd eea
dbbc bbed
debd bbbb
dbbbe dbe
ebc bebbbc
bebe bbdd
beee fef
bbcc bcbd
bbebb bcbd
eeee dbd
bbfc ebf
dd bfbf
bebe bcbbc
ecdd df
bf deecc
bf fbebc
bec eefc
ecebe ccc
edc bfcc
eeebb ba
a ecef
ebc bbebf
befc dee
ef ebbef
dd ecbec
bbc e</w>
ebb eb</w>
eedc ebbc
fdbb fc
bbbbbd bbbbbbbb
bbbe bcebe
ecbf dbc
bfec ded
bdcc bdc
bbd bebbbc
dcec dbc
bbd bdebe
eccc fbd
fbcc fc
bbd eea
bcbe bba
bcee deec
eedc bbbb
efc bebf
beed fec
eeec fcc
ebc eeecc
ebd fdf
bbbd ebcc
bbbbc ebec
bbdc beec
ebc fbbbe
da fbc
ecdc ded
bbec fbf
da eec
fef dcc
ecc eedbe
dbf bebd
eebc cccc
dd eebec
ff dccc
bbebe beebe
dbb dcbec
bdbbc bbbb
ff bcebb
dcbc bbbc
bbbd fed
ddc becc
ebbbc bbcc
bebc ecbd
bcdebc cc
ebe eebbd
bbecc bec
fbe ecbf
ddc ebec
ea fa
dfc bcbc
bd bbebdc
ebb fddc
bbd ecf
bea bbc
fecc df
ddc bcbd
ebe ebccc
bbd eddd
bbee bbdd
bbbcc eec
decc bdc
deec bbbc
bbdc bbebb
bcdc ded
bdec bbec
bcdc dbd
bbbedfc fceebcbfdbbbb
dcc eebf
bbef dec
bced bdc
fbbd bbc
bbbe bedd
ebe fbdc
dc fefc
fed ebbc
bcc ecdd
dbe bbebd
bba bdc
bbeec a
bbebc bcbc
ebf febc
edc febd
beec eebd
bbbbbbbbbbbb bbbbc
ec dbac
ebc eedf
ef eefee
ebbebb bbee
ebc bedbc
ec fbfcc
ebc ddcc
edc dcdc
eeee eea
dfc bebc
fdbb ccc
bbd bbebf
bf ddbd
dd bfed
dcc eeed
ffc eec
fecc a
bcc eeef
bcc edbf
fec bedd
be ebe</w>
fbd ebec
fbf ebbc
bf eeebd
fec debe
ebbee ea
ba bcbf
bdbd dec
bcbbc bcbbc
dd bcbec
ebc bdebe
bdec bbbc
dcc ac
bbbd bcbbbb
bbc bbbbcc
dbe febc
ba ebec
fdd bbf
ecc ebecc
bbbb edbd
bec febd
bcf ebfc
fcc edcc
df bcbbc
beec debe
bbdd bebc
eeebb dbe
bf fbbbd
bbebb bcbbbb
ebf edcc
ecc fdf
bbebb bbef
eedc ebcc
deba cc
dcc bcec
ebc bebdc
bbebe dee
ebbbc ded
dbc bebbc
dcc debc
fc ebccc
bcc dbbf
fec bebf
dcbc bbbe
dc fddc
fbf dbd
ba eebc
dd bfdc
ebc eac
dcc ebdc
bbed beed
fbd debe
ffc ded
bbcbbbb bbbc
fc bdbc
ba bdbf
ff bebbc
fee eebc
dbf fbe
bbbbc bcbd
eeee bccc
a ecebb
ecc ecf
bbd beecc
bebd fed
bbee eebf
ebbc ecbd
dbbc bbdc
eef bbbcc
dedc ded
a edbd
bbfc bfc
dcc bbdc
bcbe ebdc
be df</w>
bebe bcdc
fdd bfc
ebbee dbd
bcf bbeec
bbbb dbbee
ef edef
ea febb
ed feccc
bec c</w>
edc eddd
bdc beef
bedc debb
bd dbbbec
ef bcbbf
dee beecc
eecc bbcc
eebd becc
dbec bef
ebb bd</w>
ea fef
bdc fbec
ea bbef
dbbbb bbed
bbbbbbbb bbbbebb
bebd bbbf
eefc df
ef fedc
bbec bced
fee eeebb
ee ebb</w>
ed bebbed
beec bcbd
dded ccc
edee dec
ecc c</w>
dbe ecec
bbbb ecbbc
fbc eccc
ddc eccc
fec bcec
bcbe bbebd
fc d</w>
ebd bcebc
bebc eccc
eebe bbbcc
ec bbbfcc
bbf eedc
ba bfa
beebb beebe
bbbbbd bbbe
bbd ebecc
bf ebdcc
fbc bcbf
dd ebccc
dbcc dbd
ed ee</w>
ebbc bcbf
dc ebbdd
bcbc fed
edbc fee
bdbbbb bbc
bf eefee
bbee bbfc
ef edbbc
dd beeec
bbbbc bbbcc
aa a
bdc bded
dcc b</w>
fbf beee
bbf befc
dfc bbec
dbec bbbc
df fbec
bef dbbbb
bf fdbf
ebf befc
ded ebdc
ecc ecef
bcc bbecc
dbbbe bebe
fcc bbbd
bdebb bbc
bdbc efc
ebe eebec
bbbe fdd
fbd febb
bea bbbb
bbf eeebe
ebfc dee
bef ecbd
eebc beed
eba ccc
ebf bedd
bdc edcc
decc dee
dbe eebbbb
ebb febcc
bbbec ebbc
ebecc ccc
bbc efcc
ecc bebec
ebcc ecbc
bbbec bbbd
bec beeec
bbbe bcebc
bbbf bebbbb
dbbd ba
bdc eef
dd fdbc
dbbf df
bbbc fbbbb
eded df
ed febec
bbd ecdd
ff eebd
eeebb fc
eebf df
bebc eeec
ecf bbef
bbebb becc
ebec bbdc
dedc a
bf bbea
bcc eddd
ded bbdd
bbec bbdd
dcdcdcdc dcdcdcdc
dd fbdc
def dbbc
bbd bdef
fcc debc
bbbbc beec
bbd fbbbe
bbd bfbd
fec bbed
bbebe fbc
ebe ecfc
ebc ebbed
bf bbfcc
bcc bbbbbbbb
ebc defc
bbebc beec
dbdc dbe
fdbbd cc
ac bbbd
ebe bcbbf
ecc bbecc
ebcc bedc
ebd dbbbc
dbf bccc
beebb eeebe
fbe ecdc
fbe ecbe
bbee ebbebb
fed debc
eeebb dbc
bdbf bbc
bef bbdd
dcc edcc
ecf debe
bbf debd
bbebb bbdd
dbec bfc
bcbc beebb
bded eec
bcbbbb bec
eebbc bbbe
ebbcc fc
ff ecdc
bbcc def
fbd fbf
bbbbbd dbd
dbb ebba
ebbec bbbe
ebd eebbbb
dee dccc
bddd dbc
dec ecbd
ecbc bbbf
fa dbe
bef eef
ddc beed
bebe ebbebb
bbbc eedc
ebfc bbf
dee bbecc
ac beee
dfc fcc
bdee efc
bdec fbc
def def
dbd bcec
df bcfc
becc edbd
eedd bcc
dcc bbbf
bcbc eebd
fdc fbd
bebbbb bebc
bbbbc bccc
bedd ded
bec bfed
bbbc bebec
dbb eddbe
eecc ebdc
eeee eba
bfcc fec
ebb bebecc
bbfc bdc
bbbcc bebe
ba fef
fdc ebbc
ecc e</w>
efc debd
dbec ebbc
fbbc eec
bc bbe</w>
beef bcc
dcc bcdc
bebd ea
bebf bbcc
bf eebef
ed ec</w>
ecc b</w>
bbbc eebf
eeef ebf
bbd ebbbd
bbbc bcf
bcbc dbbc
bdee fec
dee beebc
bec e</w>
df bddc
dedc ff
dbb ebebd
bebbc ebd
ef bddf
ebcc eeec
edbd bebe
bf fbbdc
bbbb eedc
fdc bbbe
bba dbd
cccccccc ccccccc
dcc fbf
ebb bbac
bbebc ebd
febb edc
bbc fbbbe
bef bcee
ef ecbbbb
fed bbee
bebf bbebb
dcee dec
dbc febe
dcbd dbe
bcbc bbdc
bbed ea
ec bbeba
bcc febd
bbef bbbd
bec bfdc
ecc bcebc
debc ebf
debc bbee
febb ebbc
dc fbebc
dcc bced
dbc ecdc
bfc bced
dbec eecc
bbfc dec
eec bebbbe
bbc bac
edc dbbbb
bbbc bcdc
dbc bcdd
bbbf ebec
df ecef
eec e</w>
dcc dbbc
deec bedc
ebf dbcc
bebe bea
bbed dbbbb
bdcc ebd
ecbd fcc
bbcc ea
bdbf dd
ff bcbe
fee dfc
ddc dddd
eebd dbf
fee bbdc
bcbd ba
bdf ebdc
bbc ebbbbbb
dbe bbbcc
fbc fbbc
fa ba
ed bbeecc
ebc bedee
bd debfc
bbc ecef
dbd fdd
bcbc eeee
bfbd ccc
ded bdbd
bcbc bcbbc
df eef
debc debb
dbbd ebf
bd beeecc
ebe bbbfc
fdbb a
bbf bebec
bbed eebc
bebbc bebc
bdcc dee
bdf bbdd
ef bcff
bcc bedf
debc bebd
deec debb
edcc dbe
bfc bbebe
def ea
decc bebc
ebd eebec
ecebb bec
ddc ebcc
beebe bbebb
beec bccc
dfc bbbe
bdcc ff
bebe eccc
beec dedc
ecec ebcc
bdbbbd cc
ef dddd
dccc dccc
beebb bbbbc
ebc bbedc
dbdc bec
bfc bbdd
ececc ccc
bbc beebd
eecc eedc
bcec eebc
ecee fbd
ed bebbbf
bbee bebbbe
fed bedc
dbb ebdcc
da ac
ebbbd bebe
dcbd dbd
eeecc ccc
dd beebd
fbc bbfc
eeed edc
a beebc
bbbe fa
fdc bbd
eeebb bbd
ebe efbf
def fec
bedd bcc
dced dec
bfcbbefbedddcbbdfddeecfdc ecddbccffcecebebdbbbe
bf dac
ef bcdbe
bbbe eccc
bcee bbdc
deec bbf
ebd c</w>
fbf bbbd
ebe bfbbc
df fecc
bebf ebbc
ebb fded
ecc eebcc
fc bdfc
ebdc fcc
fc beedc
bbebc ebbc
bceebecbbecbbdbbc bbdbf
a bcebe
ecc bebcc
dee bba
beec bbbf
ecec fec
ebf bbbcc
bdf dbec
bded dbc
bceeefc feccefebbc
eec beccc
dbbbd bbbd
bdc beebe
beed bebd
bbbe bbecc
bfc da
dcc fbe
bdbc fed
bdbe bbef
bbf fbbf
ecbc fed
fbf bbbf
eebbbe bbee
fc bbccc
eec eefc
dbbbb ba
bbc beecc
ecf decc
eebd fdc
bebf fcc
eec beebd
bef bcbe
bebbbb bbec
ecdc dbd
ef bbba
bbbec dd
edbd ff
febc dbc
bbc bdec
ebd fdbe
ecbc fdc
febb dbd
ebe bbbbbbc
bfc eeee
bf fefc
ed bbac
edc bcebb
dbbbe bbbc
bbee bcbe
beed ebbc
ebe fbef
bcef a
bef deec
ac eac
ebdc ebcc
ecbd ebf
bbc bbebbc
bedc bebd
dbb bc</w>
dbb ebebbc
bbbb fbcc
eebd ba
bbbb bbbfc
debd dbc
efc eeec
ebec fbe
bfbd bbf
ebc dcdd
bdc bcebb
bebc bbef
ecbc eecc
bcee eccc
ee bbbac
ecc ecbbc
bbbec dbc
ecdc ff
eebe da
ef dcbc
fbc fef
ebd bedf
bbbb bfcc
df dbbf
beee cccc
eec ddcc
ebe dbfc
dd bdebe
bec fbbd
ecc fdbe
bec bdec
becc bccc
bcbc ebcc
bdbc dbf
fc bcbbbb
bbbc da
fec bbdc
bcbc bcbe
ecee eccc
ff eeebe
dec bcebb
ea bebd
bd dbbebd
bbebb eebd
bdee ebcc
bbbe bea
beec da
fbbc dee
edbc ddc
bf eedbc
fc eebcc
beef dbe
bf fbbcc
dc bbcbbc
dcc bdbd
fbe dbbf
ecbe da
bbc ecdd
eeebb bbbf
fee ecbc
bebbbb ccc
dbfc abca
eded dbe
dcec dbd
edc b</w>
bbbbc bbdc
bcdd dee
dbbd b</w>
bbf fbbd
ba bbdd
bbec ebdc
bbbb eced
dc fdbf
bbf ebfc
bcef dd
eedbe ccc
ddbd dbe
bdbc bbbf
ecc eeebe
bebe bbfc
eeebb beebb
ebbc beebe
deec bfc
bddc bddc
beecc ccc
bcbc bcbbbb
bced bebc
bbd bbccc
dcc decc
dccc bcc
a bddd
bc dbac
bbbe ffc
bbbcc df
eeee bea
bedd ebd
fc fbdc
dbbc eebc
ed fdebb
ecc ecdf
dccc dee
dc bbcbd
fed bbbd
eeed ded
ebbbc bbbf
ebbbd bec
ea beebe
deec eebc
ecee bbdc
bbed bbbf
efc febc
febe df
ebec ebdc
ecee debb
fc eeebe
debc fbc
bbbe dbcc
ddc bbdd
bbbb c</w>
eba df
edbc beee
bbf fbec
bbdbd dbd
bbebb fbd
bcbd bdbd
edbc bbcc
ecbf fbc
bcebc ccc
ef eeebc
eeee eebebe
eeec fed
bdc bbebc
febb bfc
edc bcf
efc ecbd
bbbbc bbebe
fee bcec
bbef bbbf
dc ebbfc
deec ebbc
bbbe bdbbbb
eba bea
eebf eebf
dbd ac
bbed dbbc
ebc dcbd
bbd bbbbbd
bbbe befc
bcbc bdbd
bf ffcc
cccc bcc
dddd bebeecebc
dbb efbd
bef bdbd
bedbb bec
beec dbec
bf beebbc
dc bbbbbbc
bbebb bbdc
bbd bdee
bbee ebdc
febb dec
ecf dbcc
eebc fbf
eccc becc
eebe ebbef
bd bbbbbbbbbbbb
fbe bbeec
febb bbbd
ebb ebfcc
edc bddc
debb fcc
bcdc bdc
dccc eec
ebd eefc
ea ebec
ebd beebd
bbee eebd
fa bcc
eebc def
bbbe eef
bbf bbeec
debc ecbc
bd dbfcc
eebc dbec
eebc bebf
fbd dbbc
fdc fdc
ed bbdbbbb
bbcc beed
fee bbbbc
ac ebbc
ebfc dbe
ebe ebbed
fee ebcc
dcc deec
bbed ebcc
eeec eedc
bdbc eebd
fbbdd cc
dd eedf
debc bbec
bcf dbcc
beebc bec
bbed bedc
bcbf dbc
dc bebbec
eebe dbec
eedd dee
eac a
ebbbd dee
eccc bbec
bcf dbbd
f bbbb</w>
edc bcef
fbe debd
bcc bbebd
bcc eeebe
bcc ecef
ecbf bbf
dbb efdd
bcee bbebe
ecee dbec
bfbc bbbd
bdc bcef
ebc fdbc
eec bac
bcbd beec
bcebb ebbc
bdbe bbebc
eebbbb bbbc
fec ebdc
dc dedcc
dbe bcbbc
ba debe
fbe bded
bfbd ff
febb bebc
dc ebbebc
beee debb
eebe edbd
dec ffc
ac ddc
ecc eedf
ebdc edbbebb
fef fbc
eded dbc
ecdee ccc
bdbc debe
bebd beebb
ecbd bef
eeebe eeef
bfec bebc
dbbbd dbd
bf bebbbd
dfc def
bfbc dbd
df eddc
da ebf
ecc ecfc
ba fed
ac bbcc
bebf bbbd
bbbe deec
bbfc bbec
bedbb ccc
edee bbcc
dbe bdebb
dbb edbbd
dbf ecbc
becc ebdc
bebe bcbbbb
beebe beebb
ebb febec
beed ddc
bcbf ebc
a bcbbbb
be ebc</w>
ed fac
dc beddc
bbee fdc
ba bbef
dec b</w>
efc bbebb
dd ebbebb
fc bffc
bcbbd bbbb
dbe bddc
dbbbb bcbc
fbbbb bbbd
ef bcccc
ed ecced
ebec dbbc
beec ecbc
bebe ebdc
bbbec ff
bbd dcdc
eebe bbebf
bbc eea
dbc decc
bbee cccc
bcdd dbd
bebe bbbcc
eebe def
bdbd bebc
ed bebccc
bef b</w>
eebf fbc
ecc bdec
bbd bca
bfbc fee
eeee edc
eebf eec
eebbc bec
a dbbbe
bfc eccc
bef bcdc
eebbbb bbebb
ebbbd bbbd
bebd dbbc
fbf fec
dcbc fee
bd dbbfc
df bddd
becc bedd
a bddc
fc bca
ebd bbecc
bbf bded
bbcc bedc
debb eebd
eeed ddc
bedebd cc
dc ebbbec
bcf dbbf
beee bebbbe
bbbec dec
eeee ebbc
bccc fee
bbbbbbbb bbcc
debb bbdc
bdc ecdc
def fbd
febc dbe
dcc ecbd
dbf bbebb
bbbf bbebe
dc febbc
fc ecef
bebe fbbc
fc edbf
dee fed
df bcebe
dee dbbd
beebe eeebe
eebbbb bbee
bceebd cc
bbf bedd
bbfc ecc
fc ddcc
dbb eb</w>
bebbc dbc
bdcc dbc
bded dbd
bc deac
bbc dbbee
eec bedbc
bdc ebfc
bec ebbebb
ebdc fbd
ecec bbbd
eac da
ebbbf bbbb
fc ecebc
bbee bdbd
fec ac
febc dd
ba bbba
ed fbccc
dee dbbbb
eedd dbd
fbe bdebb
ebb dbbbf
ebb debdc
dee ecdc
bdc bddd
bbec bcebb
eebc ac
fdc bbbc
eebf ebc
bf bebbcc
fc bceec
bdc bcdd
becc fdd
bbf b</w>
ff deec
bbee fef
dec dbcc
ecf da
ebe beccc
eec defc
fdc dbf
ef eeebf
bbf fbcc
ebcc ea
eebe debe
decc efc
edbf ecc
ebe bdfc
ebe bebbebb
ebd ebbebb
bbf eebbc
bbebc bbbd
dcbc bebc
bd dbbbcc
dd bcbbd
bbbcc ebc
def efc
bedc beec
decc dbe
eef dbbbb
ef fbbbc
bcc fbbbb
eec bcbbbb
edec dbd
beee ded
bbee bbeec
bbc eddc
fbc eeec
bedd bebc
bfc beebc
ef bbbfc
febb bbec
fbe bfbf
ff befc
ebdc ddc
bec eddc
bbbe bbbbbbc
eeee ddc
bebe fed
dbb ebbfc
eeebb beebe
ebbbc dcc
a bbac
bebf bcbc
dc eedbd
a dccc
bec dbbbc
edc eefc
fdc eedc
ecbf fcc
ebfc dbc
debd ecc
bdbe bbbec
bbbe bebcc
eeed bebc
dcdd ccc
fbc febc
febb ba
beef dd
ebbbc bbed
dee fdd
bfbc ba
dbec bbec
ac efc
fef ecc
bdc edbd
bcec debe
fbd debc
bddd ccc
dbbd beee
ecbd bbee
bbbe bdbf
dbe bfcc
eecc ea
bbfc ebd
eeebb df
ebc edbc
bccc bbec
ebe eca
ef bbebbc
ecdd dbc
ebb beddc
bbdd ecc
bcc eeebc
dbd bbcdbf
ebe edbbc
debb ddc
eebd ecbc
ef ecebe
bcbc fbf
dbbc fec
deec edc
debb fed
bbbf bbef
dec eedd
bedc dcc
ebc dcbf
dbe eebf
bebd ecbc
bec ecfc
ebec beed
dedc edc
dbbbb bdbd
bebbc bbbd
bfec bbf
edee fbc
ebb beefc
ebe efef
dd defc
fbe ebfc
dd bca
deec bbbb
bfbc efc
dbe bdbf
fbbc bebe
dcbc bbee
ed dbbef
fc bbbdc
bbebc ded
eeec fbd
becc edcc
bdee ea
bf eebbbc
dbb bfebc
eeebb bbcc
ecee bbdd
bebc bcdc
df eedd
bcbd ebbc
fdd ebd
ebbbd bbbc
dbbc bbbbc
eba bbbc
ebb be</w>
bcbc dfc
ecec ecbc
ff fbcc
dec bdbd
bdc ecbe
ebcc eccc
bea bba
bfec bfc
bcec fed
bcef bbc
dd ecfc
dbb dcfc
fdc beec
eeebe beebb
eebbbb bbbd
bedc bbbd
bec bddd
ddc eedc
bbd ecebe
eec ebccc
bdc efcc
bbed fcc
dcbd a
ef eebec
ebe ecbcc
ffc bfc
bbd bbcbbc
bbf beebc
bdc fecc
bef bdcc
ebdc bbec
bebec bbbc
ebe bda
bbebe bebf
bbebb dbf
deec eedc
dc bebfc
dd eebcc
ecc bebbbb
bbcbbbb bbbbc
eec eeef
bbebc dbc
bf bebbebb
bebe debe
bbbccc ccc
bef bbbec
dbbc ba
eebbee beee
bbcc fbf
eeed bbf
ef bdeec
bbed bbbbc
ecbe bbfc
ebf bcbbc
fdebd cc
a bcfc
dd bcdf
dd dfcc
bbd dcdd
bdc bebbc
bccc efc
eebf ebd
bf bedec
ef eebbd
dec befc
bbdc ba
bd bacc
eef debd
beebb dbd
decc eccc
eeebc ccc
dcec beec
bef eba
ecbe bbeec
da bbbc
ecbf ebd
edee bbbd
fbe bbebd
ebec bcec
fbe ebbebb
bbc ecebe
bbdc debb
eef bbbec
ebbc bebbbb
dcc bedd
bbed dbec
becc ba
fbd bbbf
bcee dfc
fc bcecc
ebf eedc
bcee debe
dcee bbec
ebe bfed
ebe edbc
ebc ebbbbbb
bebc bebbbb
dbbc bbebb
bdebb bbbe
dbe bcbec
dbc fbbc
bebe eeef
bef eeec
dbcc ecc
ebc bebbee
df ecebb
fdc ea
bbd ecbec
dec febb
dbf fed
bdec bbee
beebb dee
bbc ebbbf
edbd ded
eedd ebd
bbd ebbed
bcf bbbcc
bdee bebd
df beebe
ebb fbbed
bfc bedd
bf eeeec
fee bcbf
eccc beee
dbbbe bbf
ed debfc
dbe fa
ebf deec
eebe b</w>
bd ebac
bf dddc
efc bbbbc
bbdd dddd
ff bded
def bbbd
ebb dbbed
ebe fdbc
edc fbcc
ecbd ebbc
ebd beecc
eef dbbd
bcc eded
eec dcbd
bebec dbc
bf fded
bec bbbdc
ecdd dee
ef edbc
ecbe dccc
a dbdc
ebc bdbbbb
fdc bcbc
bef bea
bcebb dee
bdbf bbbb
df fbbbb
bbc bdebe
dbb be</w>
dbd bdcc
bcbd bbcc
ecebc ccc
bebbbc bbbb
ecc eeccc
dcc c</w>
bbbd dddd
ded bbbf
debb bbebe
bf bbebec
fbf fbd
bbebc dec
eeebb eeef
ddbd ccc
ebf bfcc
bebd beed
fec bbebb
fbc deec
bebf bebf
dc ebeebb
bbec bbbec
ebd eebcc
ebc efdc
eebd eecc
bcfc dbe
a bebec
bedc bedc
ebcc edcc
dd fdee
fc bbedc
bbbbbbc bbbbbbbb
ecf bbdd
a bcebc
bba bbebb
bef bbbcc
dbbc beec
bcc bcbec
bbbbbbbbbbbbbbbb bbbbbbbbbbbb
ecc eac
bebbc ebbc
bfec bdc
bbbe bded
bebe ecbd
dbe eebe
bcec eecc
ee bbd</w>
bbfc dbd
bbee fbbbb
fbc da
debc efc
bdec ddc
dd eebbbb
ebc beccc
fbc beebb
eec dfcc
fec febb
ecec ebf
ebd fedc
bbd bfdc
bcc bcebc
bbbc febe
dcc dcdc
bbec eeec
fbf dbf
bcdd ddc
ccc eebc
bccc debe
ecec eccc
dbbbe bec
dbb edeec
becc bbed
dbbbb bebbbb
bbeec bebc
ebe eded
dbdc ff
a edbf
eebbc bbf
dcbc edc
bbd eebbd
fef fef
dbd debd
bddd dbe
ed dbfcc
ebc ebbbbc
bebf dec
bea ba
dd bdbe
fdc eebd
bcebb ff
df eeebb
bef eebe
bbcc eedc
ac fcc
bcbf ebd
ebbebb bbbc
eec bdbc
bbee fed
ebec debe
bbcc fbe
ea eebc
debc fee
bcee da
edcc bdc
edbd dec
bbbb bebbee
bec debf
bebe bbbbbbbb
bbc ecee
dccc ff
def beec
bcbe dbbd
bcebb bbbd
ebc ecdbe
bbee eccc
fbd bbed
ebc ecdf
def bccc
eba ff
ebbee ecc
bbbc ffc
dbbf fc
eeebc bbf
bbbb ebbebe
dd ecdf
dbe bcebe
fef bfc
edee fcc
ebc edbbc
ebbc eccc
ebbbc bebd
a fbbf
ebc febf
dcc febb
ebf dbbd
fbc dbec
bbdd debb
eebe dfc
be ebd</w>
bcbc eecc
bcfc fc
ebe dcbf
eeee ac
bec debbc
dbf bcbd
eedc bfc
bedc fee
bdf bbfc
df ecf
bedc fed
eec bdec
dbe edbd
debc eebd
dc bbefc
eec dbbbc
efc bcec
bbebb ebcc
bcc bebcc
bec bedbc
dbd bced
fbf bbec
bbbd ac
dec febc
ebfc bbbc
beebe bdc
df fccc
ebbee bbed
bbbb bdebe
bbd bceec
bbebd a
ebbbc ba
ecc ecebc
beebb ea
febe bdc
bdf bbebe
beee eba
deec beec
eeed bbbe
beef ba
bebc bcbe
ddc fdd
bbbbc bcbbc
beda cc
ed de</w>
eef decc
bbbec bdc
ebbebb bbf
dd bbccc
ded fdc
dbbf ccc
bbbbebb bbbc
bcc ebecc
ebc bdfc
ded eebd
fa bbf
ed ed</w>
ed fbbbf
bcc bdebb
fec eebd
bbdc fbd
bcbf ebf
bcbf bdc
bcecc ccc
bbbd eeebb
beebb febb
bbd ebbbf
bbdc bbed
bdbe dfc
feec a
fc eeeec
bbcc eeec
bfbc bbbf
eedee ccc
ebd ecbbd
ebb fdebb
dd bac
dd edbbc
dbdc dbc
bbd ecee
fbc bedd
bbbbc fee
fec eccc
bdbd bbee
fbcc ff
bebe eeec
bbbcc dbc
bddd bbbb
bbebb efc
eecc bef
dba a
bcc fdbe
dbe edcc
dcc bbdd
ebec eedc
bced ef
bcbe debd
eec bebdc
dc eebbee
dee debd
dbbbb bdbbbb
bdbe da
bebc fbe
bbbf bbbbbbbb
fcc ebdc
fdc debb
bebbbb beee
ecebb fc
dd bfbd
bfbc eebc
bd dbbebc
bbbb eebbbe
bcbbc ff
bbed fbe
eecc ecdc
bdec ebf
bbbe febc
fed fbd
ebcc fbe
dbbf a
bdbc def
ebe fbbbc
bbebc bbec
dee decc
ddc eeee
eebbef cc
ebb fbecc
bebe beebc
bdbf ff
edee ba
bcbc ea
bfbc beec
fa bbbb
bdcc edc
bdbf ccc
bded ff
fbc fdd
dbf debe
dced dbe
ded beebc
bbebe dbd
bebf dbd
ecdd eec
bec ebccc
dbb dca
bced bebe
ed beebec
befc dbe
bebc eeee
debc eedc
ef bebbbc
ecbe decc
ebec dfc
bbdc becc
bced bfc
eeef bbbe
ee bbc</w>
bbee debe
ddc ecbc
fcc decc
ecbf bdc
ebe dded
fee bba
bbdd bbcc
dbbd bef
fbbc bfc
df bbbcc
dec bcee
dbdc a
bbf bbebd
eddc edc
df fbbd
bbf edbd
bbdd bbebb
dbcc bbbc
ebc ecbcc
dee eebbbb
fcc fecc
ed fdbbc
ebe efebe
bcbc bcbf
fbec a
fcc eeec
bdbc eeee
dc dac
dbb ecbbf
ebcc beed
bebbee bbbe
ebd ddcc
bbee bcbf
bf fddc
bbc bfed
dbb fcbf
dec eeee
bbd bfed
ac debb
fbd bedc
ecf bbebe
fc debbc
bbdd beee
eeebe ea
bbef ea
dbd eedc
fee eecc
ecbf dcc
ebbbd dbc
bedee ccc
ebb bc</w>
eebe dbbd
bbec beebc
ffc fec
bbc eddd
befc ded
bedbbd cc
fbbc bdc
ecee beec
bbba bba
becc eedd
debc bef
eeed fbc
ebf fbbbb
bcbc fbe
ebdc bef
eec dbfc
debc ebcc
bbbb bebbebb
fed ea
bbbbc ded
eebc eeee
ecc fbbd
ba eeebb
dee bbbec
dd dbfc
bcc beeec
fdc ebcc
ecec ef
bea df
bcbe bbecc
bebbbe bbf
bbbb bedbe
bbcc beebb
bebd def
dd dba
ebec eebd
bebe da
bdbd ebc
bcdd dbe
bbbc deec
ecbe edbd
bebc ac
debd ebd
fc bebdc
dbb ecdbc
eebc ecdc
bdec edc
bbc ecbec
bbbd bccc
ecbc beed
bebf bbbf
eec fbbbb
bbee dfc
fc dbbbc
bebe bcf
bebc fbf
bcbd fcc
fc bac
bbfc ded
bcbd dbf
bcc bedbe
dbbbb b</w>
bec eebcc
dcc cccccc
bec eeebe
bbf bdebb
dcc bbebb
dbec debb
ecc cccccc
bcebb dec
bbd bda
fc dcbf
bbbcc bcbc
dbdc dee
bbec bbef
fbbc edc
bcc bdef
dbbc eebd
eec dced
bcbd bbed
bbbbbbbb ebbbbbb
bbbe bebbf
eebc bbebe
beee fec
ebb bbb</w>
ddc eeec
ecbbc bbc
bbbe bebbbc
bbf bcebe
bebe def
babca bdbf
bbfc beec
bedc eebd
bbbe bbebf
bbbc ecbd
febe ecc
df fdbe
eebe ebbbf
bedc ebcc
ebbcc eec
bbbc ecbe
bbdd b</w>
ecebb dbe
eebc fbe
bbdd ba
ecbc dfc
bbbec ebd
bded ded
bcbbbb ccc
debf ccc
dcbc bfc
ef ebbbbbb
bebd febb
bbdc eecc
bcbbbb bcbc
dbc ecec
bbdd bef
dbec ebec
dbc beebe
dc eebef
bebbc ff
dbc eced
ea bccc
dbbbb ebc
fdc ffc
bcbbc bbf
a bbecc
bebe fdd
bbbe bcbec
ecbf bec
ebcc bbbf
bbd eebcc
bebc bbebc
bcdc ebc
bbd bcbcc
bdc c</w>
bebbc dd
dc bd</w>
eecc bedf
bbbbc bbbbbbc
becc debc
ebf debd
dbd bedd
bbef bcbc
dedc eebc
bea ccc
fdf ff
bdc bddc
dcc bdcc
bbc bcbbbe
befc dec
bdbc bbdc
deec ba
bbd bbedc
ecee bbbbc
fc eded
ebd eeef
dbd eccc
dbbf bbf
ebbbc beec
ecbc eccc
dbbf dd
df c</w>
bbebe edc
dbb efebb
bbdd bfc
fbec bec
bdc dcdc
bedc bbec
bcbbbb bbf
df bebec
dec fef
bcbf eec
bbcc debe
debc bbbd
ecee bbbf
bfbc fcc
bbc bcdf
fc bfbd
df eba
decc eebd
bbebd dd
ebd ebecc
dbe bcebc
fed cccc
bbbcc bbbd
ebbebe bebe
ed beeccc
bced dcc
ecdf ccc
bbbbbd dbbbb
eecc beec
bbc bceec
fdc def
df eeed
bbdd bbec
bbbb ebbbd
ef ebbbbc
bbebb fbf
eef dccc
dbe bcdd
beee bcdc
eeee eebbee
dbcc edc
dec ecec
fec debd
fbbc bbee
dc beded
ddc dbbc
bbbbbd bbbc
ebcc dfc
eeec efc
bf fea
fdc bebd
dcbc ebf
ebbc eeed
ef fba
dbf ebec
eecc bccc
bdebb ccc
bbc dcdc
fc bebbf
bcc dbbbe
bbd dcbd
fbbbb a
ee ef</w>
ebc ebbbd
bebbc bbec
bbbcc dee
ecee def
ffc fbc
fc bdbbc
bdbf bec
dcee bfc
ebf ebfc
dbc bdcc
ded bedd
dbec fbc
edee bcbc
dbb dceec
ded dedc
dbcc bbbe
ebe bcbbbc
ddc debe
ecbd debb
eebf dd
ecbe dbbd
ebe defc
bbebd bebe
dc eeebf
ebd eded
bbbbc bbbec
eedc bebc
fc dcbd
bbebc bebd
fcc eedd
bbc ecebc
dbe eced
fdc ba
ef dbecc
fc fdbe
bbf bdef
dee bbeec
ea bcbd
fcc bedd
dd ecebc
bbf bcfc
bbed debc
fed ebcc
bbbe bcef
dbbc efc
a eddc
bbc eedbe
bbbe bbbbebb
bdc bbbec
ea ebcc
bcbe b</w>
bdbd ba
dcc ecdd
ebe bdf
bbbc fdd
becc ddc
bcec fbd
ebbbc debb
df ebfc
bbbc eccc
dbbbb ff
ecc ecbec
dbe bddd
dbc febc
ded bcdc
bbd bac
eedc ebf
fc bcbbd
bec ecebc
dbe ecebb
eecc bebd
beed debc
bdee fbd
ebc bdebc
dec bbebe
ea beef
beed bbcc
bdc bcf
fbc bcf
ecf deec
fdbbf cc
dc fba
bbc ebbbbc
bbd bbba
bccc beec
bbc eded
beed bedc
ef bedbc
dec ecdc
bfc eeed
bcebb bcebb
eced edc
df eebe
bbbe bfcc
bbee bea
bbbd bba
ebe bbbbcc
ebe bbcbd
eec ebecc
bef bebbbb
eec eddd
ef ebba
ccc ebcc
ebf ecdc
dbf dbbc
eeee bbbbc
bbebf bbbb
bedbb dd
dbc bbbec
fbc bcdc
bbbcc dd
ebf ecbf
ebd bbbdc
dbbbd dbbbd
ebc d</w>
ebc bcdee
ef dea
bcc bea
dee bcbbc
bced def
bbef fec
bbbd eeec
dfc fec
fbbd bbbb
ded debd
fed decc
dfc ddc
ac becc
dfc bbee
a ecf
bd deba
ed bbbccc
ecc beecc
ebd bdec
eec eea
dcc eebe
bfc bbebc
debe becc
edbd bbcdbf
bebbdd cc
ebbec bbf
beee bea
ebec bedd
dfc ebbc
ef bdbbbb
bebbc bbebb
bbdc eebd
ef ecccc
bec eebbbb
ebd bdbbc
bdbd ddc
ebd bcbbd
bbbe ebfc
bbbe ecbf
bbcc ecbc
dc bc</w>
dee bcdd
bbbe fbec
dee bcebc
beec febb
eef efef
ecec debb
fbf efc
bbbcc ff
dcbc ddc
bbcc dbbc
ebe bcdee
bebf bbec
bebf eeee
eaea eaea
ebec bbebe
ecc bbccc
bbd eedbe
bbbb dbdc
bec bbccc
bbbd bedc
bebc bdbd
bbbf def
bbef efc
beebe bbebe
dbbbe dd
bbc eebcc
ecc edbc
bedbb a
ebb bebbebc
bcc fbbd
beed bcbc
bec bdbbc
fbe bddc
ef bbbbbbbb
fc dbecc
bebe ecbe
fc ecbec
df dbdc
bebd deec
bbef bbcc
ecebb a
df bbeec
debd edc
fbec ff
bec dcdc
bcee bbfc
beebe ba
bdec fec
ebe bedbc
bcc e</w>
bdbe b</w>
ebbec dec
bcc ecebe
bdc dccc
bfc befc
fee bdcc
ecebb bbf
bbbf dbbbb
eef bfcc
fbf bccc
ecee fec
bbd bbebbc
bbbc beebc
dbcc dec
bbee fa
dbec eedc
bf bedbd
ebf edbd
ebdc debb
fdd dcc
dbb ecff
beee eebc
ef fdcc
ecec dbf
fbbc ebd
fdbb dd
bcbc bbebe
ebcc debe
debc becc
eebebe bebe
bbbbc dcc
bedc fcc
dbbd bbec
bfbc dbf
dbe fdf
ebec ac
bcbd bbebb
bcec ecbc
efcc a
ebbee ebbc
bbbcbbbc bbbcbbbc
bec ecdd
bfbc fbd
ebd bfdc
ebf bcef
bba bbec
ffc dbd
ebb dbbebe
eec bcbcc
ecc bcbec
edc bddd
eebe bbeec
bbebc bbebb
fbbc ebc
dbb ebebf
bf fbbbf
bfbc bbcc
ff bcfc
bebc debd
bbbf eebc
febc fbc
edbc debb
dbb edee
edbf a
eec bdbbc
bbbc befc
bebe dbec
dbd bddc
bfbf ccc
edc bedbe
eddd dee
ecbe deec
dcec bef
ebc eebbbe
df befc
eecc beee
bbc bfdc
bfc decc
efc eeee
bcbc eeec
beed dbf
fc dfcc
ebe beba
ebd dced
bbbd d</w>
bcebb bbebb
ffc ecc
bdbe dbec
bbee bbebd
bcbf dec
ebec beebb
beed dfc
eba bcc
bbed bbdd
bbf ebbebb
bbbb bcfc
bebc deec
beec bebf
da bfc
febb bbcc
bfbc fed
ebc dddd
ecec ba
fbbc dd
bbbb fbbbc
bebc bcee
edec edc
eded a
eba bebe
edcc dbd
bcdd dbc
bebba cc
bdc befc
efcc eec
bbbe debd
ebec eccc
ebdc bebd
bcf decc
fbbd a
ec eebdcc
fc bbebf
ebbc deec
fbf ea
ebbee bbcc
dc fbbec
ef ebbbd
bcbe bfcc
bbebc ecc
ebe ebbbc
eedc efc
bdee dbbc
bdc feec
dcc bebf
eebe ebbbbbb
edcc fcc
dcc fef
bba bbbbc
dbcc bbf
eeebb bbbd
ef eceec
ebd dbbee
ebcc def
bebe dfc
bcbbc a
eebbc dbe
febd bec
dbbd bbed
ebfc dec
ecec efc
ffc bef
ecdecc cc
eec eeebc
ebbc bbbcc
eefc a
bdc ecbf
bdee fee
bccc beee
bcdc edc
eeebe beef
febc bcc
bdc bdbf
debb dbbc
bebbc dec
edef ccc
dd eedbe
bbbbcc ccc
ebb fbbbbc
ddc decc
ebdc fee
eded bbcdbf
ebd bcebd
ded eeec
ebb fac
ebe fedc
bbd fbdc
fdc bbee
ebec dbec
eecc ba
ebbc ecbe
bcee fed
ef eedf
bebd bbbbc
eccc bbcc
dbbbb bef
bebec bbbe
ebd bdbbbb
df bebbbb
ecc bdebb
bcbc bbdd
ebcc eeee
eeed bbcc
eecc fdd
eef bbebf
bebd bbdc
eebf ea
ebc bcbbbe
ecc eeebc
ebe bcccc
eec bfed
dbb efef
bbbc bcbbbc
bbed fed
fbd bbdc
fbbd bec
ddc bdbd
bcbd fec
bebe eebbbb
eebbebe cc
ebd bfbf
efcc df
dc fbbcc
edc ddcc
bbbc dbbbe
bf bbbecc
bbc bcccc
bdf deec
eec eeccc
efcc ff
ebd bcbec
bbbc bbebd
debc dcc
da bbee
bedbe ccc
ef bbcbbc
eebd beec
bbc bbedc
bbd ecbbbb
ebbebb a
def ac
bcbf bef
dc eebbbc
fc eeecc
bebbd a
bdec bcbc
ebe bbcbbc
eebc bbdd
edbd bbbe
fbc bbebe
fbc bcebb
bebbbb ebf
febe bec
ed bedbbc
ef ecbbd
bbebc dd
debd bcc
bced bbbe
fc bebbbe
bbbbc dbbc
beed ebcc
fbcc bec
dbe bebcc
dee bea
eeebb bbebe
dbb ecbdc
eecc dbf
fc beccc
eedc ddc
fbbc ebf
ebbbd bbee
ebc debec
ecc ecee
bbbc beef
bba bbcc
bbfc bbee
eebbbe bbbe
fcc fbf
fbd fbe
ecbd efc
ecbd fec
edbc dbf
fdbe ccc
fbbc bef
dc eb</w>
bbbb beeec
ebe dba
eec fbdc
bbd ebbbbc
bbebb eeebe
bebe b</w>
debc bcbc
febc bbf
dee bcbec
fdd ebf
ddbd dbc
bbbb beebd
bfbc dcc
bbbd bebbc
ebbbd ccc
ebb befcc
dbd dbcc
bbed bbdc
beec bbbbc
eccc bcec
ecdd dcc
eeebb ea
df d</w>
bbed b</w>
bbed deec
fed bbbf
bdbe dbbd
dcbc beee
ebbc eedd
debb debe
bebf fbd
bbbd bcebb
ded dbcc
bbef bbef
bcf ebbcc
df bcebc
bdcc ebc
ef bcbbbe
ecc ecebe
dbe bcfc
febe dbc
bcc dcdc
dee bbebd
edee dbf
ecc dbbf
def beee
fec bdbd
bbbc dbcc
debb beebb
ec ebb</w>
ebbc debd
ddc dccc
ebdc eebc
dcbc bbec
edc ebbcc
bbebb dbbc
bbebc bfc
bbbd eecc
ecc efdc
bbd ecebc
dee bedd
eccc ebcc
dbe dbbbe
ded ac
dbec fee
ebe dcec
dd bddf
bcc bfbf
eec d</w>
debc beec
bbd bcbbbe
bbd bbdbbbb
bcbf bbee
fec beebb
debe ea
bbcc bbdd
eddd edc
df edbf
dbbd bfc
bbc bfbd
ecc eebec
ed fdef
ef ebbdc
dd eac
bbd ecfc
dec dccc
fbe dccc
decc ebbc
bcbd def
fa dbc
bdbc bbdd
ed bedef
ebcc fbf
bbebe ea
bdbd bef
fcccc ccc
dbd bcdc
bb ebf</w>
da ddc
bcbd efc
bdbbbb bdbbbb
bbebc ebf
dee eedc
bbcc bbbcc
bbf bea
bbbec beec
bbc ebccc
bbfc bcbc
bced efc
bbef eeee
bbebc bdc
fdee ccc
fc dcdd
fc dcec
dbe dbbf
eebebe beee
df bcbec
cccc dd
eccc fdc
eeec dfc
edc eeebe
ed bebbdc
ebb bedbbbb
fbd eedc
bbbd bedd
bbebb fcc
bebbd bbbe
ebc bcbbf
bd eebccc
bcc eebec
ebf eeed
dbc c</w>
ebe bdbbd
ea dba
ebec deec
bbc eeeec
eeec bbdc
ecec def
ebbbc fec
bbf dbbbe
bc dbb</w>
bbbf bcebb
dbbd fbc
eec bedcc
bebc bbbcc
fdf a
ebbed ccc
dbb ebedc
fbd eebd
eecc eddc
bedc ebec
bbebb fbbbb
bcc ecee
bcc fccc
ff bdbf
bbbf dbbc
bcbbef cc
ecc dbbbe
ba fdc
dbb edbcc
ddc bbdc
dd fbbbe
eec ebbebb
bbec dbbbb
eebe bfbf
ebd eea
bd bbeccc
dbe eef
beee da
dbf eebc
debb bbdd
debb febb
bbbbc eebc
becc beed
bdcc bbbb
ebb bebbbbbbbb
bbf eba
bebe eba
fcc bebf
bbbcc beecc
ebc eebbf
dbb eddee
bcbd bebd
decc dbc
ebc eeccc
ebf eba
ba ebcc
dee bddc
ded fbe
bebbc bcbc
ea dbbc
eebe ebbee
bec eedbe
bef bcef
bebbbb beebb
ebd debbc
eeec eeee
fbc bcee
bebbc bdc
eced dbd
ecc fbdc
bbd fdbc
ebc bdbe
bcc fbbf
dd bebbbe
ff febc
ed fbbebb
edbc ebcc
ebc dfcc
ebf ecbe
bbbd ecbc
edc ecebb
fee debc
febd df
ecc bea
dbc bcbbc
eebd debe
bebf beebb
dc dbbbd
dbe eeed
efc bcdc
beec ebdc
eedc eebc
dec bded
ea dbec
bccc becc
ef deecc
bec bac
dec fdd
eebf bbbc
bebebebe bebebebe
ef bcedc
bcbf bebc
dd eeecc
dcc bcdd
bbebc eebc
dbbd bbdc
eebbee eeee
bfc dedc
ebbc bcbbc
bbbec fbc
bec bcbcc
bec bbbbcc
bef bcbbc
decc becc
bcbf dbd
edbc bbed
dbc ecbf
bbbd dbec
bbebe bbed
fa bdc
ebbcc bbbb
dbc beef
bec eea
ff edcc
ecf efcc
ff dbbbb
dbbd bbebb
ecc bbebd
bbf eeed
bbf ecebb
dbb efebe
ddbd dee
eec bebbf
ccc def
fbd bbebb
eef bfef
bdbf dbe
ff eedc
fecc fc
ebe dcebc
dbbf bbbe
bbd bcebd
bbd eeeec
dbc bbbcc
fef ea
ebc beff
efc fbbc
bbbf bccc
bd bcbccc
dbb fcdc
deec dfc
dcbc fbc
ef ebbed
bbc ecfc
beee ebec
eccc fee
bebc bbfc
eced ded
dac da
debd bdc
eebbc bbbc
eebd fee
bbdd bebd
fbf bbebb
a bbbbbbbb
dc bbebec
becc dbf
fed dbbc
eebf fcc
ecc bceec
decc ecbc
bcbbbb bbcc
ea beed
fbd da
eebe bbebd
dcec bdc
eec fccc
beee eebeee
bdec debb
ebc ecbbbb
bbc bcecc
beee bcec
eedd dcc
eeebb bdc
ebd bdebe
eebbbb bebe
dee bcfc
fbc eeee
dfc dbf
bbbec bef
ecf bbebc
fc dded
bcbc ac
dedc dbe
bdcc dcc
bebec df
bbeba cc
bfcbbefbedddcbbdfddeecfdcecddbccffcecebebdbbbe ddddbebeecebc
ee bbeac
dbbd bebd
bbc debbc
bcc d</w>
bbbc bdbbbb
dec bcbf
ddc ea
bedc bbee
ebec febb
ddc c</w>
bebc ffc
eebc beebb
ecbd fbd
eec eedbe
bdcc dbe
febd a
d ea</w>
becc febb
fecc ebc
debe ebcc
eec bfbd
bbec beebe
beee ebdc
bfec fec
dcbd dbc
fc bcebd
bec bbedc
dee bdebb
ebec fdc
becc ecdc
bbdc dbf
edcc ded
ecebc ddbd
ebb fbccc
ebbc bcdc
ebfc ebf
fc eedf
bbf bebbbe
edc bedf
beec bebbc
ebd eebbd
becc eeec
eebe ebeef
ebe bbcbbbb
ecbc debc
eeebe eebf
ecc bfdc
dbc bcf
bccc bbbd
bebbbb bbebe
bcee bbef
bbd bedee
bebbbb bbcc
debb dbbbb
fcc bbed
eeee bcbd
dbc befc
dbd eeed
ddc deec
fed eebc
bedd fbc
bdee bbbbc
eddc dcc
bd dbb</w>
bbf ebbcc
bbbcc bdc
bdee ac
ff bcdd
eeebb bbec
eced bbbb
ecbbc dee
dd eceec
dbe dccc
ebbc fdd
dbc edbd
cccc dcc
debd bebe
eebd eebd
ebeebb eeee
fc bedbc
bedd fec
ebf bebbbe
bedc bcbc
eeebb eebf
bfbc bbebb
bf eeba
bcc fedc
dec bcdd
bbbe eedc
bbec bbfc
beee efc
dbec edc
bfc bcebb
dcbc bbbd
ebc bbebbc
ff bcbbc
bbbc bebbbe
dbbbe bbee
dc bedbf
ebd fbdc
ebbebe bbbb
dbd dbdc
debc debc
bcbf fcc
eced eec
bba ea
edee fee
ebb fbbebe
bbed eecc
bebd bebf
bdbd bbdd
ebd dcdd
decc ebcc
ebb deccc
dd eeccc
bebd dbbbb
bcbe bbbbbbbb
dedc ef
ebc bbbbbbc
bef dbcc
ecf bbbec
bbebd bebc
ebe bcff
dec bbfc
ecee fbe
bbc fedc
bf bbebcc
fef bbbc
bebbc bbcc
ecc debf
fcc bbbf
ecbc eebd
ecf dbbbb
bdf bbebc
ebc ecdee
eec fdf
bebe bcebc
ecdd a
bebbd ccc
eea ccc
bfc bcf
beef bdc
bded bbf
ebbec bebc
ebd ecbec
eef bfbf
dbf bbbbc
bccc eccc
bdbd dbbbb
bbecc a
bdbf bcc
df efcc
eeec eebcbedf
bedecc cc
bbd bebdc
bcbd debe
fbcc a
edec fbc
ebc ececc
bebbd bec
df bcdf
ba beed
fbbd ccc
dec bcbe
def becc
ebe eedbe
dbe bea
bbcc ac
efef efef
dc beebbc
fbbd ff
fdbbbb cc
bbbc bbeec
bfc bcdc
dbd bcee
bced fbc
fbec bcc
ebbec dbc
bbec fdc
bebd dfc
bbdc beed
ed dbbfc
bbbf fed
fcc ac
ebdc eebd
edbc ecbc
ebbebe bbbe
ebe beedc
edee bebc
bf fbbebb
bec beccc
dbec bbee
dbbbc bbc
bd debbcc
bef befc
bcbc debc
bcec dedc
ebe ecbbd
bbed dfc
fa dcc
ef eeccc
dec bbef
eebe bfcc
ff bfcc
dbd bbebe
eef dbdc
bbbcc bbbbc
ef eebef
ea becc
bbebb bba
bcbc bcdc
beebe ecc
dbe fbbbb
bdec def
bbbbbbc bbbbbbc
debe fee
ebbec bbbc
bbbb eeebc
df beebc
bdc bfcc
edc bbebc
beebb bfc
eec bbccc
dbd ecbd
ffc bebc
bced bbee
eebbc bcc
acc ccc
dc be</w>
ebd bebbf
edc ebecc
bbbf bebbc
fdd fee
ebeebe eeee
bebe fbbbb
efc bebbc
beebb eebf
bd bebdcc
bbed bcbd
fcc beed
bbbb bfebb
bbd edebb
bebd bbdd
bccc eecc
bcbbebc cc
bbbe eeed
dee bebcc
dcc ecbe
ded d</w>
edec bbf
dc bebbbd
dee fef
bbdbd bbbd
ebe fdee
bbc ebbed
bebc bbbec
bec fbdc
bced ddc
bbbe ebbcc
bbee ecbd
debb bedc
dbec eebc
bec bcecc
bbec ac
ecbc bebf
ecdd ddc
dcee dbf
bdbc b</w>
dbe bebbd
bdbc becc
ebc dcec
dbd bbef
ebcc bcec
edbd bbf
ebf bea
fbf eeee
beebc a
ebb bebccc
ecc eba
fcc ecdc
bba beee
ebfc bdc
eebf dbc
eeef beef
edec ebd
ecc bedee
ebfc fbc
bdee bbbf
ebe bcedc
dcc febe
beebb bcbc
dbbbc ccc
fc bdebe
bcc ddcc
bcbe decc
bcebb dbc
bbebd bbf
fbcc df
efbd ccc
beed fee
ec bf</w>
febc eec
bbbb dddd
bbfc bebe
bcc ecbbc
bbd dced
ecbc bedc
fcc bcec
dfc bbcc
bcdc ddc
bdec bbbd
bddbe bbee
ebb fbbef
febb fec
dbbd edc
ecc bcecc
ef bdbbd
ebc bffc
fc fdbc
ff eeebb
bfbd dbe
ed bedebe
dc ebfcc
fbe e</w>
bec bcbbd
ecc bdef
ea cccc
dded dee
ebb bebbdc
ecc dced
bbee bcbbc
beebb bebf
debd bbf
ff fbec
fdc bedc
a fecc
df bdef
bebe ebbbbbb
ebcc bbdc
ebe bcbebe
ebd ecfc
ecbc fbf
da bbbd
febb bcbc
eedc bbbc
ebd bdef
ded dbbbb
ebcc debc
deec fed
ecbd debe
ecbf bbbb
bdc bbbcc
bebd bcbd
febb dcc
eba dd
ef fdbd
bbc bdbe
ebcc ffc
bbbbbbbc bbbb
dbec ebf
edbc fed
ebbc beef
fbe bdef
fec fecc
bbbbc bbebc
ecbe bfcc
bbbbbbbb bbcbbbb
ebdc beec
bced bbbc
ef dddc
bbd bbbbebb
bebe bebbee
ebcc ac
ecebb bcc
bced debb
ecc ecccc
efc eedd
decc ecdc
bdbc dbbc
bec fbbf
bbd fedc
bcebb bbec
eddc dee
bf ebfcc
bebe eef
dbb ecdec
bbbf bcbd
bba bca
ff dbdc
bbebe eeebb
dedc eccc
eeee bbdc
dbbbe a
ec ef</w>
bfc bcee
da fcc
febd ccc
bccbcc bccbcc
bbebb dcc
bbbb eeef
debc bedc
ebbec bbec
ff bddc
ebcc bcbd
fbe ebbebe
bebd fdc
bbef edc
eebd ea
eebf dbe
bebbbb ebbc
dcbd bec
deec fbc
dedc fec
ebeebb a
fbd ecbc
bced edc
fdd becc
ecef dd
bcbc bcbcc
fbe edbd
bcebe bec
fbba cc
fbbc dec
debe ddc
febb bbbf
bbc bcbbf
eebbebc cc
bbd bbbbcc
bbee eeef
deec bbec
ff eba
bfc debd
beec bbebe
bedbb fc
bbbbc bbdd
ebdc dbf
eddd dbd
bbbe bebbee
ccc ebec
eebbbb bbf
dbec becc
df ebbcc
dbbd ebbc
bd bbd</w>
bdee bbdc
bbd bcdf
fbc eedd
beebe eeebb
bdf bbbec
ebd bceec
dc bbfcc
bbee bbbcc
bbcc bebf
fcc febc
bccc ba
bbbbbbbb bdbbbb
fdf fc
df fbbf
bbbc bdcc
bbeec ded
eebbc dbc
fef dec
febe dd
bdbe bbfc
ef ececc
fdc ebec
ebbbc ebec
ebe edebb
bec ecbec
bbbbc edc
ebdc becc
dfc ba
beed ebf
eedc bbbe
eddc eec
fee bea
debc fed
ecdd dbe
dee bbbcc
bebbc bfc
df ecdf
ebbc bbebd
bbbf ac
dbbc debe
bbd ebccc
bebe dbcc
dbb ebedd
ebcc fdd
bdbf bbf
bebec a
ebe dcef
dbbc ddc
febe dbe
fbbc bebc
bdbc dbbbb
bcc ebbebb
ded bebf
eeee dbf
eef e</w>
efcbbebd eecbf
bbfa bba
bec ecf
bbee bdcc
bddc dbd
bbebb ecbc
fed beee
da bef
dbbd bbcc
ebd fbbf
dabca bdbf
ebc bcccc
bec bebbf
bec ecbcc
fbe ecebb
ecee dbcc
bbee bdebb
ebcc eedd
bcdc bbbb
fbe bbebf
fbe ebeebe
dc db</w>
fc ecdf
bec dbfc
ecc eebbbb
edc e</w>
bbebe beec
ecec fbd
eddc a
ef fbfc
bebc febc
ebcc eeed
bbbf bbdc
dedc eedc
ecdd fbc
bfec fbc
eecc debb
bbbec bcbc
bcef dee
fdc bbec
dbbd fee
fbe ebbcc
eebc bbfc
eeec ecbc
edbc bebd
ebb bbebdc
ef bbbbcc
bbf eeef
dec bcf
eeebe bebf
eef ebfc
edcc bbbe
dddd dcc
ebbbc fbd
ebe bddf
ffc bbbb
bdec becc
dcdd ddc
bbebc debb
eeec dbec
febe bbbc
fbec fc
ef dfcc
ff e</w>
eecc fee
bcee ecbd
bbebd dbe
bdee ecbc
bec beedc
ba bcebb
bbed bcec
bbef dbf
fbbc dbd
bcbbbe bbbb
dfc bbbd
fdc debc
bbed bbebe
ebdc beee
beef bbbc
edec ded
dd debbc
bcc bca
bdc bcbbc
dfc bebe
ebbbf bbf
ebc beedc
bcc eba
bbed bebf
ebc bfbbc
ebbbc fcc
bbbbc bebbc
bced dbf
bdf bba
fbbbb bbebb
bebc eebf
bbec bebbbb
cccc dee
bfbc bebd
bccc ebbc
dccc fc
bdbc ea
bddc dee
dcbc efc
eec beedc
bbeec dbe
eebbc fc
ecc bcdf
bcc ebccc
bcc eedbe
dcc ecbf
df eddd
bec bceec
ebd ebccc
febb dbf
febe fbc
bebc dbec
ffc fee
dcbc fec
bdbbd bbbb
bbc bedee
ebec da
eccc fed
bbeec bbbe
bdcc dbd
ebbed dee
bcf debd
eedd ddc
beebc bbf
eecc bedc
edbc eebc
ebb bedbbc
bbee bbbbbbbb
bfec bbbc
bbd bdfc
eeebe bbebe
ecbbc bbbb
ee decccc
ed bebbbbc
dcc ecec
ebec fbf
deec bbbe
dc dbdcc
edec bbbe
dd fdcc
ebf bcfc
debb eeee
edee ebbc
ecbd beee
bbbbcc bbbb
beed ebe
eeed bfc
ebbed dbe
ed dc</w>
ded beecc
bebf becc
ebf fbcc
bcbe ebbebb
bdbd fbc
ecdc ebe
eec bbbdc
ebbee bfc
deec ddc
bbd bcbbbc
bcbccc ccc
dd fdbd
bef bedd
eba bbbd
bbebd ff
bcbbc fc
edec bbbc
bec ebbbf
bec dced
bebc beebe
eba bbf
eedd fec
ecdc fcc
ecdd dbd
eebd dbbc
beebb debb
bdbd dcc
ea bdbf
bdee dbec
dd bdfc
bbd bdbec
ebfc eec
ebc bbcbbc
fbe ecec
dbcc dcc
ecdc bbbe
fa ecc
bdf b</w>
ed beeecc
dbc bba
efc fecc
eeec bbebb
bbfc fee
ffc bbbc
ebbee dbf
bbc bcdbe
debe bbebb
bedc ba
eebd bbebb
febb fcc
decc cccc
fdd bebe
bda a
ebc bedbb
bbcc bcec
ff ecbf
bcebb bbee
bdbe bba
ebd bbbbbbbb
edc eebcc
fbe bbecc
ed fdfc
ef bcdee
ebc eebdc
df bdebb
ac bebd
ecee ebec
dbb ecbbbc
eccc ebbc
fc ecbcc
bbfc ebbc
bdbd bcbc
bdbd bebd
dbdc bbc
dcbc beec
dec bdcc
debe debb
fbbc ecc
ebc bbbfc
ebd eeebc
beee dbbbb
ebf bebec
febe dcc
fbec bbbb
bdbbc bbc
bdc bba
ba bcec
bbed ecbc
eeed bbbd
dbbbe bbbd
eddc dbc
dbe bbecc
fec fef
eced ddc
dcee ded
ed dbba
bced ebe
debe bccc
eedd ded
bbd eeecc
bbbbc becc
bdf debd
ccc bcec
bdec ebbc
dfc becc
bbccc bbc
ebd fdbc
bbbf bcbf
bddc eec
bdec fee
dedc fc
eeee beec
bf bedcc
ff dbbd
beed def
befc bcc
bcdd dec
bbee bded
fbd ffc
eeef ba
bbdc fcc
a fbbd
bbd bedbc
ebe bffc
dbe e</w>
dee bebbbb
bfcc edc
bbbbc dbf
bbbec ebf
bdf dbbd
fbd bcbd
bcf bbecc
fdd eebc
ecee efc
debb debc
bfec dcc
dd efdc
bef debd
bddd df
ebb beebcc
fec bced
ecbd bbbd
bcbf edc
eeda cc
ef ebebf
dbb ecccc
fbf ddc
ebb bebba
ecc fdbc
ebbcc dbe
dcee beec
bc a</w>
bf eefbe
da bfa
dccc dec
ebec bebf
eef dbbf
eeebe ba
ebf bdbf
dee febc
bcdd a
bbfc bbbd
ed bbb</w>
bcbc b</w>
eecc bbed
bbccc bcc
ebb bbebbbbbb
efc fa
fbd bebf
eeec bbed
bedc bef
dcbc bbed
bc ef</w>
ebd bebbee
fec bcdc
bcfc ff
bbbe eebbbe
bbdc bbdd
dbbbb ebbc
bcbbc dbe
ef bbea
bbebc bef
ebc ebbebe
eec deecc
ecbe bba
ed fbbed
bbbe dbbf
ecbd bbec
ebb dbbdc
fec fa
bdcc bdcc
bfc eedd
eeebb fbc
dcdc df
bf bebbbf
dc dbbdd
ef debcc
bec bfbf
bbcc bbebe
dbec fed
bec bdef
bbbe ebbebe
fbbc bbec
ea bbbbc
ebcc bbebe
ebdc ebdc
bebbc ecc
ef eda
bcbe ebfc
dced ded
a bfbf
bcc ecf
fee eebe
decc bbf
dc fbbbd
edc beebc
fdd bbbb
fbbd fc
bbbbbbc bbbc
dd acc
eec eeecc
bbbe bbebbc
bddd bdc
bbee bcf
dbbc ebec
dbbc def
ecbe ebbebb
bdbd debb
edbd dcc
bbc bbbfc
bbcc febb
bedd becc
ebf bcebc
fcc fef
eba dbe
eebf ba
edee bbec
eec debcc
bdc febd
bcdc ebd
ef eddf
dec dbdc
eecc ac
ebbec bebe
bbc fccc
bbeec bcc
df eebbc
a feec
dc bbcbbbb
dec eeed
bbbbc b</w>
bded fc
bec bdbc
bec eeecc
bbef fbe
bbdd bbed
bcebe bbbc
ecdf ecc
df bbecc
fdc beee
ebbbc dbf
bcbbc dee
bbd bfebb
ecbc eeee
bcbbc bbcc
bd cccccc
ecbd bbcc
fbbbb bbbf
bbcbbc bbbb
edc eded
bbdc fed
eebbee bebe
bbee beebc
bbebb eebbbb
eebd beee
bccc ccccccc
deec bebd
ebe bbea
bded bdc
dbbc fbd
beebb bebd
ecee bebd
bedf ccc
bec bbebf
bcbc bcebb
bbd fdee
fdbe a
dc fbeee
eec bcbbd
bbc bbba
eebc edcc
eedc fbd
febe ba
dbc bddd
bebc dbbbb
bedc fbd
bbbcc ebd
eea beee
bd bbcccc
ef bcbdc
dbb efbbc
fbc eebf
bbebe becc
fbbf a
bbbd dbbbe
bbef fbf
bbd febf
dee bcef
ebbc da
debe ded
ecbd fee
eec fbbd
bcbbbb bebe
bbbd debd
bbbcc bbee
bbc ecbbbb
bbebb beed
bbbcc ebe
ecbc bbbbc
bbef fcc
bec edbf
ea eca
bbebc edc
beef dbc
efed ccc
ebbc bcf
ebbc fef
bef eedc
dfc ebec
febb fbd
ebbbbbb bebbbb
dd bda
ecbc bbdc
bec bbbbbbbb
dd bebbf
bbc eeecc
ebf fdf
bded bcc
bdec fcc
ebdc bcbc
bec bdebc
bbf eebbbb
bbbc ecebb
ecee da
eddc fbc
bf fdbbc
ebb bbbbbbbbbbbbbbbb
bbef dcc
ff bedd
fed fdc
eddd dbc
fbbbe bbbb
eeddc edbbc
ecc bdbc
dbd ffc
ebbee bba
ebb bbeecc
dd bcbcc
ff decc
bbebc fbc
ebbee ddc
ebf decc
ebc bcbbbc
beee bdcc
ebc eeeec
ecc ececc
ebd dddc
ba bebbbb
ff bbbec
bbbc ebbebb
bfc eeebb
efc dbcc
dbbc bbbf
fbf ded
eeef eeef
febc dec
bcbbc df
bdee def
bcc ecbec
dbbbe ccc
efcc fc
ebe bdeec
bec defc
bbef bbebe
dd bedee
bec bebdc
bcc debf
ef dbbcc
ebec bbdd
dcbd eec
bbebd eec
bbed dbbd
deec bebe
ebe bcdbc
dc bebbcc
efc bced
ffc bcbc
edbc def
bfbc debb
dc ebeebe
edc fdf
bbef fbd
bcdc bbf
ebc bedbd
ba eebd
bbbd bcec
bebc bcbf
ebe bcbdc
bbc dddd
dbf febb
ebbbc debe
bebd debd
eeec bbbbc
debc eccc
dccc ded
bbbb eedd
ebd fccc
dec bebcc
efc befc
bcbc dbbbb
bcbbc bebe
fbc debd
fee fed
edc bdbf
ea b</w>
beec debd
bbbec bbbec
bdf ebfc
beebc df
bbbe bcbbbe
bbcc bcbf
ecbc fbe
dcbc def
bbbb bac
edc eeef
eebe ebeebb
bbcc eeed
ebc bdbec
bbef beebb
bbee ebbbbbb
beee fa
eeebb dbd
eeebb beef
dcec ddc
bdc d</w>
bbed da
dbccc ccc
a eedd
dbe dbdc
ff c</w>
dbc ecdd
bedc eedc
a eac
ebb db</w>
bbee deec
eeec eccc
bdf dbcc
bcbbbb bbd
ebbbd bbd
bbbbbbbb bbbbbbd
bedd bbf
dcc bcee
bba bbbf
bec d</w>
fbf becc
edbc bbbf
a fea
bcc ecfc
ecbc ac
eebbebb fed
a eebbbb
debc debe
eeec decc
edcc bebe
ebbee beec
bec deecc
dee fa
ebbcc ecc
bceec df
bbc bdfc
bebc decc
efc eeed
bbebb bdbd
ebbc fbec
eeec da
bdc beebc
bfec ba
ebe bfbbbb
ebc eeebd
dbe fbec
ebec bcbf
eebc bdbd
eedc becc
febe edc
fbbbb bebe
fbbbe bbbe
fee eccc
dbf bcec
eebf bfc
ebc fbbbc
bea bbbe
eedbbbb cc
ebe dcdd
dbe eddc
dbc dbdc
dec dbbbb
bef bdbf
bfbc becc
ef bbdcc
bdc fbcc
dee dcdc
efc bbdd
edcc fec
edbd bbd
dccc ddc
bbebe bccc
dbcc bebe
ebf fbec
beec eccc
ebe eedf
dd eebbd
dd eeeec
dc bbbbbd
bbc fbbbc
bebc fbbc
bedd bebe
bded bbbb
fc efdc
ebd ecf
eec ecbcc
dcc dedc
bfec bbbe
eccecc eccecc
ff dbbf
bbbc bbbbcc
ebcc bebf
bbc bfef
fc eebec
ebd bac
eec bfbf
bdc fdf
fed dbec
debe dbbc
ff fccc
fbf fdc
bedc debc
ecc ecdee
fbc eeed
eedc eccc
beed fbd
bfc fdd
bef dbbd
bbcc b</w>
ecbe edbf
bbf bca
dee befc
bcef bcc
edbc becc
dc ebba
bdc ecebb
bbfc fec
dfc fbd
ef bcdbc
ebbc bba
dbb dcee
dcc eddc
bdec beee
dcec def
ded bcebb
bbec dedc
ebc eceec
fc dbbee
fc eddd
ea eebf
bedd eecc
beef beef
a bebcc
ebc beebf
dbf bbdc
edbd bbbc
ccc debb
ebbc bebec
bcee ebdc
efcc edc
bec fccc
bfc bdbd
bbbbc bebf
bbbb e</w>
ebe efebb
dbc bded
bf beea
bebbc ebf
bbebd bbbc
bbbb bca
fc bcccc
ebd eedbe
ecbc ea
eced bbbc
dcec edc
bedbb bcc
bdc eebbc
ff bea
fbc bbdd
eebc fdd
bebbd bbf
a bcbec
dbb ebeed
ee a</w>
bcbc fef
f deb</w>
bef bded
dbbbb bebd
ef ebeebb
efc ecdc
fbe c</w>
eded bcc
fc bfebb
ebe dddd
bbc bb</w>
bbeec bebe
bbbb fdf
bbbcc bbd
befc bbf
dcbc bbcc
bec bca
ebbc dbcc
bfc bbbec
fec bcbf
bfc febc
ddc debc
eecc bcec
bedd bbbc
bcef bbf
bddc dbc
eebeee bebe
bfc dbcc
ea eeebe
beee beed
bcbc fdc
bcbc febb
ac dfc
ecf dccc
ef bcbbbc
eec dbbee
bcbc bedc
bbbf fdc
bedd bbbd
ef aa
eec eebbbb
bebc da
bbec da
dbbf dbc
fbbbb ccc
f dbe</w>
bd bf</w>
dbd fef
beec bcec
beebe bebf
ba bebbc
dbd bcdd
def fdc
dcbd ded
ebec bbbec
bbdd fee
fc bfdd
bdc bebbbb
ebbc dbbd
fbe dbbbe
eef ebeebe
bba ebf
bbbe fbcc
eebc eedd
dbfc df
dd bfdd
dbe eba
ebbcc ebc
ecbc eedc
bcf bfbf
bdbbbb dbbbb
eebeee bbee
dbf dfc
bbbe ebbbf
ba dfc
eebd eccc
ebe ebbdc
bcc eedf
ebb bebbbec
ebbcc bbf
dbe ebfc
beee bcebb
deec deec
bcbbc dbc
dcc dbec
edbf edbf
bbdd fbd
fbc fa
bbbf debe
bef beebc
ea eeebb
eeed bebe
edbc debe
ef edebb
ebe dbbcc
ba bced
ebbc eebe
bbbbc fec
becc bbdc
bcbd fbd
ebc ecbbd
fbc bcbe
bdebb bbbc
bbc bedbc
eec eac
bbec ffc
bdf decc
dee eba
edc debf
bebc fdd
debb bdbd
ecbe dbbf
beed deec
dbbd efc
ecee dccc
ebc dddc
ebc bfdd
bbc eedf
ecbe b</w>
ccc eeee
fbc bdbd
ebec decc
ebbebe bbee
ebbec ebd
bdc eeebe
dee beef
fedc df
ef f</w>
ebc dded
bfc bfcc
ebbc eeebb
dcc bbef
eebd fed
bcc bdbc
eeec ac
bebf bebd
edcc bbf
bcc bbbdc
bbcc eccc
bbbcc dbd
eec ecbec
beed debe
dee dced
fcc dedc
bbdd dbf
bebbc bef
bfed bec
ebc debcc
edc edbf
bbebb bccc
ebe eeba
fee bcdc
da ded
a ecdd
fbe ecbbc
ebdc fed
ebe dcebe
ecc fbbbb
bebe fa
ebbbc bbebe
bbee dbcc
eebc debd
def debb
bcf efcc
bfbf bbf
fee bced
bbeec bbbc
fbbf bebbeccc
eec eebbd
bbd bdebc
ccc fdc
df ecbec
bbbf bbbec
ac fbd
dbec ddc
bcee bbbec
fbbc bbbd
bdbe eccc
fecc ff
ebf fbbf
edc c</w>
bebf fec
eedc bbec
fbc befc
dbbc bcbd
ed bbeccc
bdc eded
becc ac
bebbbe bbbc
dcec deec
ef fea
bcc beecc
bcbc bbbcc
def cccc
eebbc bbbd
eedebd cc
dc beba
fc fbfc
bcee bbecc
ebbcc ebd
bfbd bebc
dbb dcdf
bcf b</w>
eeee beebf
ecbf dbd
bea ff
dd bcebd
ebbc edbd
fcc bcbd
bcec dfc
bebbc dbd
febc bbbb
dd bbedc
bddd a
ecc bcbcc
ebd beeec
ebec ecbd
eebe eddc
bfc ecbd
debe bebd
bea bbf
fec eeec
bcf eba
dcec bbf
def bcbd
bccc fed
bcef bec
ebbebb beee
ef ebbee
edc bebcc
bbbbc bdbd
deec ebcc
bebbc fbc
bea dbc
debd bbbe
dbbbc bbbc
bcbbd bbc
bdbf bdc
ebb dbbef
dd dcbf
ebf b</w>
bbbf ddc
edbd bbbd
bfcc bbf
eec ecebc
ebdc bbcc
bbebc dbd
eeebb bebc
eec dcdd
ebbc edcc
eedbb ccc
ed bbebdc
fbe dbdc
dc bbdbd
bebe bebec
fee beed
ecef bcc
dbb effc
fec fbf
fcc debe
eddc dbe
bdec ba
edbc beec
ec febbcc
fec dbcc
bbdd bddd
edbc ebec
dbf ebcc
ebbcc bec
bcebe bbbe
eca a
bd dbbbdc
dfc debb
febb beebb
fbec bbf
ebf dbbf
fee bdbd
edbc ba
bbc eebbd
becc ffc
ecec eecc
dc bbea
ef ddbd
ebd dbfc
dbbbb fbc
deec debc
febb ea
bbfc bbcc
bdbc eecc
ecdd dec
bfbd dee
eec efdc
becc debe
dd bcdbe
dbe bebbbe
deec efc
bf eeedc
bcc ecebc
eeee fa
bccc ebcc
beee ebeebe
ddc bedd
bedbbf cc
ecdebd cc
ed fbbdc
eedc ebec
bcbbc bbbd
edbc eecc
bfbd fc
dd bcecc
fcc fa
bfdc df
ddc bedc
eebe efef
bbebd dee
fdd fed
bcebb bcbc
bbc fdbc
ecc ecbcc
deec ea
ccc bebd
def ecbc
dcbd dec
dbe bceec
dcbc bebd
dc eebebe
ebc bedcc
debb bcec
fbf fef
ebbcc dee
bfec bebe
a fdbe
dd ebbed
bbc bcebd
dbc bebbbb
dcbd fc
ebf bfbf
fee bcee
bcbbbc bbbb
becc bcbd
bccc fbd
bfbc beee
bfbc ebec
beec bbdd
bd fcccc
ef edbec
ebc edebb
bbbc debd
bbec decc
debc dbf
bedf fc
fec fbe
deec bbbd
bbc ddcc
bf eedee
bbbe bbbdc
eebe ebfc
ebbcc df
ecc eeecc
ebd eac
beebe dbc
bdbe ebdc
edec dbf
ebc bcdbc
dcc bbbbc
ea bcbf
bcbc bced
beed eebc
dccc edc
ebbee bbbbc
ded bebbc
acc ac
ebc bdf
fdd fcc
bbf bbecc
beebb eebc
eeec bbbf
bdbd b</w>
edbc bbebb
ddc d</w>
fdd bebc
bbeec ff
ebd ddbd
efc eeebb
bbec bcbf
bbdc ebcc
da bebe
eeef bbbb
bddc df
ebbee fbc
ecc eddf
bbfc debb
dedc dbc
dd beccc
ecc ecdbe
ded dbbd
bfec dbd
bcbd ebec
fdd fbd
bdcc dec
eddd fbc
eedd fcc
dbdc bdc
edc bba
bcc dbbbc
eeec febb
eebf eeebe
bebbbb bef
dcee bebc
bbc bfebb
eddc bec
fbcc fbc
ebbc bbbbbbbb
dc fac
bbee b</w>
fed debd
ebbc decc
dbec bbbd
dd bdbec
bbc bebdc
ded bbebc
dcdc dee
ea fdc
dc dbbbbc
fc ecebe
fbf bebf
eddd df
bbef bbed
eec bcdf
bbd fbbbc
ebf beebc
ddc bbebb
fbd febc
bcbd eebc
eedc ecbc
fdf df
dcc dbcc
dbec bedc
dcec ebd
bbee bcdc
fed debe
eebbc df
bdec efc
dbb ecbebe
ebe bebbbd
dbe bcbbbb
bfc fbec
dbbc becc
bebbf bbbb
ebe bfa
ebc edbec
ebbc bcbbbb
ebbbbbb bbf
bcbcc bbbb
ecc bac
dee d</w>
bcbe edbd
dd ebbbf
dbb efed
bcbc bcee
bbef ded
bbbf da
ecbd beec
eeed becc
bd ebb</w>
dbc d</w>
bbbe bcfc
ff fbbbb
debc ebec
bbbe dbbbc
beebb bebbbb
beef beebe
ecc dcdd
edc ecef
fc eedbe
ebf bebcc
eef bbebd
a eefc
ba bbebc
bfc ebfc
ebcc bbbbc
fec bebbc
bbfc bbebb
bcbc bbebc
decc bebe
bedd eebc
eeed bbd
fc eebbbb
fec febc
def bcec
bbbe ecec
bbcc ffc
ecdd bdc
bbed febb
bbbec dbd
fdd fdc
bbccc bbbb
bbed eebd
bbbc bcdd
dec beebe
bbbf fef
bbed bdbd
bbef bebf
fc fbbbe
bebc edbd
ffc ebbc
ed bebbebe
eebbc dee
ebbec bbee
bfc bdcc
bbec bcbe
fa bda
bddc bdc
bfbf bbbb
ea bbdc
ea bced
fee ebec
debb eedc
ecbe bbbcc
bcbbc dbd
dc fea
bbc bbbbebb
eec bdef
bbec bcee
bbf fdbe
fbbc fbd
ebc ebbebc
fc f</w>
ded bbbbc
fdd dfc
ebe ececc
ff eeec
fed bccc
bdbc fbe
ebe bcbbee
bbc bebbee
df ecbbc
debb fbf
debb bcebb
bcebe bcc
ebbbc eebc
ebb ecced
bef bdebb
fed bcbd
ebbed bbbb
bec eebec
bbd bcdbe
fee eba
bbf bcbec
bba bcbc
bfed dee
bbd eebbbe
ffc fcc
fbbc ef
fbbbb bbee
bfbd eec
a ecbbc
dec bbbec
bedc eccc
edc eedbe
ecbd bebd
fc beff
dec dcdc
fbc bebbc
ebe bedee
bbbc fbec
ddc bcdc
bec dbbee
dbe ebbebb
bbcc bdbd
bdee bbebe
ddc fbe
debb def
ecbc beebb
bbc bfbbc
ff bcebc
eeee fcc
edee ac
bbd bcdbc
dbd bded
beee bdbd
beee ebbebb
bbdd fec
eecc beed
ecda cc
becc bcec
bcbbc bbebb
fbbbb fbbbb
a acc
debb fbe
deec decc
ebc fdbd
eedc bebe
bd dbbeec
ebd defc
bebf febb
edbc eebd
fc fbbbc
bbbd dfc
fed bcec
bdbe dbcc
edbc eccc
dbc bdbf
dbec dbec
bddd dee
fecc eec
bbdd ebbc
bcbf dcc
bdbc ecbc
bebec dee
bcbe dbbf
ebd ecebc
bcbc bebbc
ecf dbbd
bebec bbf
ac bccc
ebfc ecc
eebbbe bebe
dbb efa
debb beed
bced ebf
dbbbe bbebb
debe fec
bef ecdc
edc bbbec
bfbc eebd
bbc fbdc
bbbe bddc
bbbc fa
dbb dcbcc
ef edebc
ebc bbbbcc
ba eebf
bbcc bbef
bbcc ebdc
eebbc dd
eebebe eeee
bbbd fdc
fef dbd
ecbf dee
eced fbc
bfcc fbc
bbbbc bcebb
ffc def
ebbbbbe bbbb
ecec bebd
eedd fbd
ff eebe
bbbc bdebb
ebcc bbef
beed dbbc
bddd dcc
ddbd bdc
ba dea
eecc ecbd
ebbcc bcc
bebbd bebe
ebf bcebe
df bca
bcbe edcc
df bbebd
ebbc befc
bedbb ebd
bbbc eebbc
bfc dbbf
dfc bbbf
ebf eea
ea eeef
dc fdef
ebc bcff
beee eecc
fef fcc
bbd edbbc
ebf efcc
ff bdef
beebb fbd
ebe dcebb
bec eeef
beee bbbec
bbebe dec
ecf ebfc
bfec bef
fc ebbbf
bbdd efc
eddd a
df bceec
bbbc eef
beee bbbcc
debb b</w>
bbebf bbf
ebbbd ff
ebc fdee
fa bea
ed debbcc
bebbebb bbbb
dd deecc
eeebb bfc
ecc dfcc
ded bded
becc bbebb
fa fee
bbfef ebfc
fc bcff
ac beed
bdec bbed
edec bfc
ebc eedbc
eebc edbd
fed eedc
bdee ebec
ddbd bbbd
bd fbdcc
dbd eebe
ecf bbbcc
dcbd bdc
bbbe fbbbe
fbc ecdc
ac debe
debc ba
dbe ecbec
ac eeee
ecbd dbf
ffc dbf
bddc a
bf dbbbd
ecc bca
ebbc b</w>
eeed ebd
befc bbbb
bcef dbc
ebcc bced
eeec def
dbdc dec
f dbd</w>
fec bbbbc
fc ebbebb
eec bceec
bbd bebbee
bcbec dee
ebe bb</w>
fbc decc
fc eeccc
bddc bec
fc eebbd
bedd ef
edc bcebe
dbbbb bbdc
ecc beccc
ebf fbbd
ebdc fdc
dded df
ec bbebecc
bbbf bbfc
dbec bcbc
eebbc bebe
ebc bfebb
bbbc bbecc
bedd bbbe
dccc dbc
ed ebac
bdc dbbbe
ebbc febc
ecbd def
ecebb df
dbd eebf
bcebb bfc
bef eeed
bcee dbcc
bcebb eebc
dcbc eebc
bef bbecc
bcec bbdc
bedc ea
fcc fbe
da fee
fef fec
bbbbbbbb bbee
ffc ba
ebbcc bbbe
ecef dbe
eec bbedc
bac bbf
bbd bbbfc
dbd bebbc
ebe eeccc
eeebe eebe
eddc df
bddc dbe
eef ebbebb
eebd ebec
bcdc beec
dec dbbd
bedf a
bf dbbbbc
ebe ecdbe
ecbf bbbe
bbbc bcef
eeee ebbebe
bbbbc fbd
bced ebd
beee bbdd
fecc edc
eeee bebbee
bcbf dbf
beef ecc
bdcc fec
beee bebbc
bbfc ba
eedd eecc
bdec dbf
ebbed df
eebebe bbee
ec bbefcc
eec dddc
bbec fbbc
bebec dbe
ac bbed
edcc fbd
bcdd bbc
fecc dbc
fbc febe
eba bec
ebfc bbbe
dbbee dbe
eded dbd
dd bdebc
efc bdbd
eef bbeec
bbbec bfc
fbe ebbbf
dfc bbed
bebf ea
ecbd bcbc
edbd ddc
bbf bcebc
dbcc ded
eeed ba
ccc beed
ebbec ebbc
eebd bbdc
ebf ebbcc
bebc bcbbc
ecbe debd
dedc bcc
bfbc eecc
ebc ebbef
bbf ecdc
bcbbbb bebbbb
eebbc a
ebbed bbc
dcbc debb
beec beebe
def bbed
fa bbbe
fa dee
fc bdf
dcec bbec
edec fcc
ebc fbfc
bebe bbebd
bbebb fed
fdc decc
bec bebbbc
ecc eea
bbd ebbebe
dbec bebd
ebb fbbdc
dcc ddcc
eeebc bbc
ef ecdbe
bbbd fbbc
bbbf ebcc
eedc bbee
beee bbebc
eeebe bbc
bdee dfc
ebb fdbbc
bebc befc
dc bbbbebb
ebec bebbc
eebd bedc
bbdd dbbd
ebfc dd
ebc dcfc
bcc bfed
ff bbbcc
beed fed
beebe dbe
ecee bbebe
da fbd
bba bef
ecee dbbbb
bbdd bbdc
bcbd eeee
ded fbf
ecbe bbebd
bcec eeec
dedc efc
fbcc bbc
bdef ccc
dc aa
ecc eebbd
bbd dcbf
ea febe
bbbd bbbcc
bba ebe
fa dbd
fcc eddc
debe dbf
bbbdc bbc
ecc fdcc
fbc ecbd
beee fbbc
bced fec
feec dec
dd bffc
bfc dbbbb
ebbc ecdc
def ebcc
bcbf ba
ebbcc a
ebbbd bdc
bbebb bbbbbbc
ecbec dee
beee bedc
bdbd ebf
bec ecbbbb
edcc bfc
edbc eeee
bebe bebcc
eebc febc
bebbbb ba
ecec fed
eea ff
df eeef
beee bcbe
ed beebdc
ebc edebc
ea ecbc
fc bbbfc
ea fed
bebc eebe
bbcc bedd
bbebb bbbcc
eebc eebf
dddd dbc
bfbf ff
bfbd dbc
dd deccc
ebc efbd
ebc bcedc
ecc fbbf
bbee ebbebe
bebc ecdc
eced ff
ecc ebbebb
bbebb bcbe
bebd b</w>
bbbc bcebe
ded dccc
becc decc
bcec decc
cccc bccc
bebec bdc
bbebb eebf
bcee bbeec
dcbc dbf
a bddf
ebc bddf
bcc bebbd
dbec ebcc
bbbbbbbb bbec
deec fee
edbd fbd
ebd ecebe
ddc bcdd
beebe edc
bdbbbb bbbbc
bfbc bbed
dc feecc
bbbc bdbf
febb fbf
eeec eeec
bdbe bbebd
bfec beec
bcc bceec
ebbc bdcc
ddc bbbf
bcccc bccc
ed deac
bebc eeed
ddc eeed
debb bebf
fdd ba
fdd dbf
edec bebe
bcbc bbfc
eccc ecbc
dbbc eecc
bedbb bdc
bbd fbebe
bcbc eeed
eeee bebbbe
ebd eeecc
efc bbfc
bebbbb dbc
ebbcc edc
eea fee
a bebbf
eded bec
ebe bddbe
dd dbbcc
eec bfdd
ef fcdc
ebc bfef
bbbd bbfc
ebec bcbe
eebd ebdc
eec bdebe
deec bef
ef bbefc
bcc bebbf
efc bdcc
bebd bbebe
fbbd bbf
bcc bfdc
eebd bbed
ecec bbed
bcef ff
bddc bbbb
dbd e</w>
ecdd bec
eca bdbf
ef fdbb
ebe dfcc
bbebb bcec
eebe dccc
febc edc
dbc beebc
bbebb eecc
ebbbcdc debe
bedd bfc
dd bebdc
ded ecdc
ddc bced
eebba cc
ebe fdcc
ecc bdebe
bbec eeee
ebec bbef
bcbc bbef
bebbbb dbbbb
bbbd bced
bbec eccc
dbcc eecc
fef fbf
dbdc bbbb
ecee bbebc
bcdd ff
bbec debd
ebd fbbbe
bbec eeebb
bbdd dbbc
dbec ba
ebbc bded
dc fbecc
dbe d</w>
fcc bbdc
ebe eeebd
beee eef
eebbc bbee
eec bcecc
dee febe
bba eba
bbbbbbbbbbbb bbbd
bcc bcdf
fee bcbe
ebe fdbd
ebbc bcebe
eebc fbbc
eebd debc
ecec bbdc
ffc efc
bfbc ebcc
bbbc ebbbbbb
bbbc dbbbc
bcbf fbd
fc febf
becc ecbd
bcc eebbbb
bbd bffc
dbd edbd
efbf ccc
bbbebbbb bbbe
ff bcebe
bbcc bbbec
ebbc fbbbb
bef bfcc
beee dbec
ebec ffc
bcbcbcbc bcbc
fed beed
debb bebbc
bbbc febc
bebd eedc
beebe bbbd
fbbf bbf
ba bbbec
dbd febe
eebbee bbbe
ebd bebdc
bebc dedc
ecbc eeec
ebe debcc
ebd bdbbd
ff ebfc
bbecc edc
ed fedcc
bbcc dfc
cccc ecc
fee bedc
bbbb ebebbbb
ebe eceec
ebe bfdd
bcc bcbbd
bbbc bded
bbbc bbbdc
bbbc bebbd
bef dbbf
ebbcc dbc
a bebbd
bec dbecc
ebccc ecc
bbd eedf
bdc fbbd
bbbf fbbc
beed da
ebe eeecc
deec bcbc
ebcc dbbc
ddc fbf
deec fbd
ebbbf bbbe
bfc bcbe
bbcc fdd
ddc ecdc
deec bedd
dcdc dec
bcdbb ccc
bdc fbbbb
dcc eced
dbbbb ebf
bbd bdf
bbebb eebe
ebcc bcee
bcbf bcbc
ec bbc</w>
ef ebbfc
bdec bebd
bbcc bcbbc
dbf eecc
bbf ecec
bec efdc
eec beeec
bbbd bcee
bbcc eeebb
bbebb bbfc
ebc ecccc
bbd bcecc
bbbc bcbcc
ebbc bcef
bbbd bcbe
ebcc edbd
dbbbb bbebe
bcbf fec
bcebb fbc
bbf edcc
eccc bbed
febb efc
eeed dbbc
bebc fef
ebdc bbed
bdc e</w>
ebbc ecbf
dbf fef
bfed bbc
bf bebecc
bec bcdf
bbee bcbbbb
def bebd
beed bbed
bcfc bbc
eedc fed
bded bebe
fee eef
eeee dbbc
ac ebec
bdbf dbd
ba bcbe
ebbc ecebb
dee dbdc
bec fdbe
eded dec
ebbec bdc
a bedf
bba bebc
a ebbebb
fc ecee
debc ea
dbcc ebf
ffc bbbe
ffc bebe
ebe eddf
dbe fdbe
ddc bcec
ebbbf bbc
bfbc bbbbc
a ebba
ff bbeec
febc dee
ebe beea
bdbd bfc
edcc eecc
dbc dedc
beee eebebe
dfc efc
ebe acc
bbbc ecbf
ccc ecbc
debe ecbc
bcbd bbbbc
fbf beec
fbcc bbf
eded bdc
fec eedd
bccc eebc
bcebb ecc
bddd bbbd
a bebbbe
ebc fbebe
bec eebbd
bbebb bcbbc
eeee eefee
debe eecc
bbebbc bbc
be dbc</w>
bf be</w>
bbcc dbbbb
eeebb bebf
ebbec bef
ebe bbcbf
bec ebbbbbb
bbee bbecc
fcc eebf
edec ff
bebc beebc
eccc ebec
eebe bbecc
dcec fee
ef ebdcc
dd febf
eec bedbd
eeef beebe
feec dbc
bca bba
dcec debb
dac ba
ec bbe</w>
dbb becbbc
debc fbe
bbbcc bbec
bec bcebd
bea fc
bcc ecdf
dbe beecc
bbbf fbbbb
bcf bbebd
bbbcc bebc
ecdd bbc
bbbedfcfceebcbfdbbbb efcbbebdeecbf
bbbb bebbbd
df dedc
bebe eebbbe
fcc eeed
dfc bebd
beebb ebcc
dcbc ba
ebd ebbed
bbbb edbf
dee bdbf
ebbc ecec
dbd decc
dccc a
ec bbbac
dc beefc
dbc bebec
bebbbb bcbc
ebe fea
fc ececc
fec bbfc
eebc bebbc
bd debecc
bf eefbc
eef c</w>
dfc beed
fdc bbbd
ebc ebbdc
bcc bac
fbc bbbec
eebd edcc
eedc bbd
ecc bebbd
bbbc bbcbbbb
eedbbd cc
be deb</w>
bebc bcdd
debb ebdc
bced becc
edec bcbc
ec bbd</w>
ebc deecc
df dcdc
beee dbcc
debd eecc
bebbbb bdc
bbebd bbbd
ef efdc
bbebb debe
debb bccc
eebe efbf
bdf dbbf
ddc ffc
ecbd becc
bbebd ccc
bebe befc
fbd b</w>
ecbe dbbbe
dcec fec
ebc bdbbd
fc edbbc
bbbf fa
dfc dfc
bfcc ecc
df ddcc
bcbd dbbc
eeef ea
bf befcc
ebe bbdcc
dbe bbbdc
ff dcdc
bdbc ebcc
dd eca
bec bfbd
ebbc beebc
bebc febe
beee bebbee
bbbbc beed
bba bda
eebf fef
bebbc bebbc
bbbbc bbcbbbb
fbd bdbd
ecf debd
fbbc bcbc
ed deba
dd dd</w>
eec bbebf
bbd bebbbd
dbe eeebe
edc defc
fcc deec
fbf fbe
efcc ecc
bbbb bdbe
ebd bfbd
abf ac
ddc eedd
dbf debc
bf debdc
ebc ebbbec
bbd bfbbc
bbd bddbe
ebf bbeec
dbc fbec
ea dea
beee ebbebe
bdec bbcc
ecbbbb bbbe
bbdbbcc bdbf
ded befc
bcbf bbec
bfec becc
ebbec beec
ebf bddc
fbd bccc
fbd beed
dee eebbc
fbc bbebc
eccc ba
eebd bcbd
ecf e</w>
ebbee bebd
ebb beac
dbbbb bcbbbb
fee fdd
ebec eeee
bbbf febe
ebd ecef
eec bbbbcc
bcee debd
eedc fdc
ea debe
bbbcc bfc
bf febcc
ebc bedec
ebd bdfc
ccc c</w>
fee dbcc
bbd beff
beebb dec
eddd dcc
dcbd ddc
bcdd bdc
dbc e</w>
bcbe dbbbe
ebf eedd
bdbc bbebe
bdef a
bbbe eced
bbf bebbd
beee fbbbb
ebcc decc
bba bfc
dc befcc
bbbc eedd
eecc bedd
bebcc bbc
ebb dbba
dbc eeebc
ea deec
bcdc bebe
ecdd bcc
bec ddcc
bcbd b</w>
bbfc dbf
bca bbc
eeee dec
fbbc ebbc
bdee fbe
dbe fbcc
bebd bcec
ef ecebd
fc bcbbf
bbbd bcbbc
dbb ebfcc
bbdc dbbc
dcec bebc
eec bdfc
fc dcef
ff d</w>
bbfc dcc
fbbc fec
ebbbd bcc
ba fbbbb
bbbc ebfc
dbb ecedc
ecdc bfc
bebbf bbbe
ef debec
bccc fdc
beee fdc
bdbd edc
beef ea
dee edcc
ba dbbd
dbb ecdbd
efc bcbf
bdbd ecc
bf fbbed
dbbbb bfc
beebb eebe
dec c</w>
bbbf bbebc
eecc edbd
dbcc fec
bcebc df
ded bdcc
bcbbbb bbec
eedf ccc
dc dd</w>
ebe eefbe
bbee eebbc
fbc bfcc
bfbf a
fbbcc fee
bbc bdbec
eeec eebd
ef fbebc
fc bfef
dbe eedd
def fbf
bbdd ebec
ebe dcbbc
fdbb bdc
bbbb bcbbf
ebf bded
bef ebfc
fecc ecc
bbdbbbb bbbd
bebe bedd
ded ecbd
dc febcc
dbe ecdd
ba beebe
eddc bcc
dec eced
dbd beebe
bbebb b</w>
dbe ecbbc
bced deec
fbec dee
ef eedbe
bcbc eccc
bbbbbbbb bcc
ebbee dbbc
ebbbc ddc
efc bbef
fee bcebb
debb eccc
bdbe debd
eddc ebd
eec bca
ac eebc
ec eeedcc
bbbb eebec
ebe bebbebe
fc debcc
efc bfcc
bebf fbf
bdbd dbf
bdbd bcbd
ffc ddc
ebf bcdd
fbd bcec
ecbc dbbc
bbec befc
dccc bdc
eebbbb a
bbbb bfbbc
edcc ddc
f bbf</w>
ac fed
beed fcc
bdbf dee
fbec dbc
bbbc bbccc
ebbc febe
ebe edbec
eeee bebbbb
ecbc ecbd
decc bfc
dcdc dbd
bbcbbc bbc
ef edfc
eba ea
ebc eedee
bec ebbbbc
bbbc bebbbc
bbdc bcbd
debc bbcc
bdebb bbbd
dc bbbecc
ebe bcdec
bec bebbee
def bbebb
ecfc df
ba beef
bccc ebec
eebf bbcc
ecec dfc
ded febb
beec eeec
bebd bedd
dbcc bef
bdbf bbbe
ed fdebc
ebc dcef
dcc da
eeed fec
bbd eeebd
efc fdd
fee debe
bbbf eebd
bcebb dd
ecbec df
ecbbebc cc
fc bedcc
edc bbbcc
edc dbbf
beee eea
bbd eebbf
ebd dcbd
bbd bbdbd
ba eeec
bebc ecbe
ecf b</w>
ebb fdef
bebc bcf
dbf cccc
dfcc ccc
ed dbbbec
bbbb bdef
dbdc bcc
bbecc bbc
bfbf bbc
dcbc eeee
ef ecbbf
bbbbbbbb bcbc
eedc bcbc
ebc fdcc
ecc defc
dbe fbbd
ebf bcbbbb
bebc eeebb
bbef bebd
dbbc dbbbb
decc edcc
bcbec df
ebe bdbcc
beee eebbee
eba bca
ecbbc bbf
ebe dcbec
ebc efdd
decc fed
decc bedc
ecc bfed
bbd bcbbf
edc dbbbe
fbd ac
bdbd bbec
fef ddc
bac bbc
bebbd bbbd
bbcbd fee
eebf eeef
eebbebbfed edcfcc
ebfc bef
eced bbbe
debf a
ebbee eec
ebc eca
ebc eddf
dbb fcbbc
fbd cccc
bcec bbebc
bbd bfdd
ebf eebbc
bebe ebbebe
dbf bebf
dedc ecbc
eded dcc
ebeebb bbbe
dd ebbbd
ebc bebbec
fc bfec
bec fdbc
eccc eebc
bedc debe
ba febe
bdbe bbeec
bfbd bbbc
ebe eebdc
ba ecbc
bbebd dbd
dbdc dcc
ebbcc ff
ed debecc
fbc ecec
fbc bcfc
beec eeee
fed deec
feec ff
dbb dcecc
bbef bbbbc
ecbec dbe
beff ff
bebe bcebe
ffc becc
eebd febb
fdc ecbc
bbbec ecc
ebe ecccc
bec bdebe
bebd ebdc
beebb bbed
bdbe deec
beebc bbbe
bbbb bedf
bbf bebcc
febc ecc
dcbc fcc
bf dbbebb
bebe bbeec
dee c</w>
dbbd ecc
beee bcbf
beed beed
fdd ea
bcebb bdc
dcee bcbc
bcbd becc
dedc ebd
bfbc ea
ef ebbbc
bcbbc bbbbc
ed fda
ded bcee
eecc eedd
fef edc
ebe fba
bef ecbf
fbbbb bbbbc
bcbcc bcc
ba dbec
bebf bbebe
fbbbb ff
bbebc fec
f dbc</w>
ecdc fec
ebbec ff
bef bcfc
ffc beec
bec eded
eec dcbf
eebf bbbd
bcebb ebd
eddd ddc
beebb bbbbbbbb
debd bbbc
bedd ebbc
bcdd dcc
dbbbc bbbe
bd eacc
bfcc bfc
fbec dbe
bfebb a
ecced ccc
dd dcccc
bcbe ebbcc
bccc dbf
bedc dfc
ebccc edc
efbd ff
bbbb ecebe
fed ecbc
eced bfc
bbebf bbc
ebc bbba
bebe eebbee
bcf dccc
ffcc ccc
dbbbb debb
bebbbb dbd
bea bbee
ebb ee</w>
eeee bbed
debf df
fbe eddc
debe bcbd
dbec ecbc
dbbd bbbbc
bfcc dec
bea dee
edec bbec
ef ecbdc
bbcc bced
bcec eedc
bbfc bbbf
bdbd fee
ebbee dec
bedbb ecc
bf fbecc
bf bbdbf
dbc bddc
bbbd beebe
eebf bcbc
ebd bfed
ebcc febb
becc bbbf
bedd ddc
bcc bdbbc
bebe bebbf
bef eea
bdec ebec
fcc efcc
da dbf
fef dbf
dcdd dbd
ebc dcebe
edc bdef
fbc fecc
febf a
dbc fdf
eeec dedc
eba bbee
decc dcc
ebb bebbdd
bbbe ebbbbc
bbbc bcbec
bcee bbdd
bdebb df
feec dd
bdbbbb bbebb
ef bcebf
ebc edef
bec ecef
debe bbbf
eef d</w>
fdbb bcc
ebe ecbbbe
bedc ddc
eeed bcbc
dbbd bcbc
ecbd fdc
bef bbeec
beec fdc
eebd ebbcc
fbc dedc
ebecc eec
bfec bbec
bf fdef
ed bacc
bbd bfbbbb
eecc dfc
debe fcc
bca ccc
ebc fcdc
fc dba
bfc bcef
eefc ff
ebdcedbbec beebf
bbbb fdbe
fee ebeebe
fec bdcc
fbd ebdc
bdebb a
eef ebbbf
bedc ecbc
bbbe bdbbc
ebcc ecec
dbbbb bcbd
ecc dddd
edc eeccc
ac deec
bbbbbbbb bbbcc
bbebc bbbf
bfcc bcc
befc dd
ebe dbecc
ebd bedee
ecbf ddc
bdebb dbe
eddd dbe
ecebb bbee
dcdc ddc
fc dea
eccc edcc
bdbd bddd
eebf bebc
edc eedf
bbbc ecec
ebbc bcfc
bbebc bbbbc
bedc bcbd
ecebb bebe
bcbbbb bebc
eddc dec
ebe dcfc
bbbc dbbf
bef bcebc
bcdc bcbc
ecee bbef
bdbc debd
fbc bcef
fbbf ccc
dcee def
bbbb ebbed
bbbc eebbbb
fbe efcc
ecbc bbebe
eea df
bfec bcbc
efc bbbcc
fbf debb
beebb fec
ecebb bbec
ee df</w>
ebec fbbc
eba dee
bebbbb dee
fbbf ff
ebe eeeec
bdc bcebe
dbc bcef
bdbd beee
bca bdbf
ebb bedebe
eec dded
dbc ebfc
bfc bbbcc
bbcc bcee
bebf eebc
bcc bedee
dbd bcbe
debc fbd
bba fee
bebf fdc
ef bedee
bebbc ded
bfbd bebe
a beac
debe fbd
bbf decc
ba cccc
bfc beebe
dec fbbc
eeec ebec
ecbd eebc
bebbbe beee
bec bdfc
ebd eedf
eebe e</w>
eebe dbbbe
febe beebe
ecbbc dbe
fc bdee
edc eac
eecc bcbd
ee dbb</w>
ecc bcccc
bfc bcbbc
bcbbbb bbee
dbc edcc
dbcc bbbd
bec fbbbe
eec ecfc
ebf fccc
ebbc dbbbe
eccc def
bcec eeee
befc bef
bbc bdebc
bbd fccc
fbe edbf
bbed eeed
bcebb bbcc
dd f</w>
dd fdec
bcda cc
edc bcbbc
dccc dbd
dd dcec
bbbe bfbf
ebf bcbec
ebbc bbeec
edbd fcc
edebb ccc
dcee ba
df bfbf
ebf fdbe
bebd bebbbb
debe bbed
ecec deec
a fdee
dcc eef
dbbf dbd
ebbbd fc
bdc bbeec
bbbbbbbb bebe
bf bbac
bbd eceec
bcdc fec
ebb bbeccc
dbe c</w>
ebbc bdbf
debb bced
ecdd ebd
ebcc bedd
bebd fbe
bcec bbbf
a dddd
ecbd ba
bf fac
ebf bebbd
eecc def
eebe edbf
eebe bfef
bba fbc
ddbd ddc
dbc bbebd
dbcc fbc
fdd bbcc
bddc bcc
ebbbc fbe
df bedf
fcc dbbc
fed bbdc
edbd bfc
bbbb ebecc
bcbc eeebb
beec fbe
eebf fbd
ebbbd ebd
dcee bbed
ebf febd
dec bcbbc
bebbee bebe
dbbd fbd
befc bebc
edec bbbd
bbbe bcdd
bbebb bedc
bbfc ebec
ecec eebc
dd bbebf
ebdc dfc
debe eebc
eebdc eebceba
bcbbdd cc
ecbe dbdc
ee ebe</w>
bf eb</w>
ebe dcbc
bbc defc
ebf eddc
dccc bec
efcc fbc
febb debb
decc fbc
eeed dbf
bcbbbb dbe
ef eeecc
dd bdf
dd ecdee
bbbd fbbbb
bbdedc fbebcc
be dbe</w>
dc bebbed
fc bcdbe
df bebcc
becc eddc
dbcc dbcc
fa bbbc
febc fec
bebbee bbbb
ebb feccc
ebe bfbc
bebbc beee
eeebe bbebb
ecee dfc
bdc eefc
efcc bec
bbc bdf
bbbec bbbbc
bebbbb ff
edbc bbdc
eeec edcc
bcbf bbd
ebe bebbec
bbbc bbcbbc
debb ecbd
eebe efebe
beebe bbbf
ee ebd</w>
dc bebbebb
df feec
ebbc eebbc
efc edcc
eeee bebd
fdd bef
febc bbec
df dbbbe
bccc def
beed bbebb
bedbb ebc
bbbbbbbe bbbbbbbb
beebe ea
eec ebbbf
bbbc c</w>
bbbec ded
bcc eea
dbc dbbf
eef dedc
bedc fdc
beef dee
bebe bfcc
beebc dbe
eebbd ccc
efbf ff
fed bebf
bcebb edc
ecef a
bbc eebbbe
debe bcec
fedc a
ecc beeec
ebd dded
bbf bcdd
dbc eeef
dbbc bbdd
ecbe ebbcc
ecec fee
bcdc ef
bdbbbb dbd
eebe decc
eedc ea
ecdd fcc
ebd bbedc
bbec beecc
bbfc fcc
dbdc ded
dced bec
beef beebb
bbc beff
bbba ba
bdc ebbcc
dee bfcc
bcee bba
ecbbc bec
ebbee bbebc
dbc eeeec
bbcc bbebc
ecc efdd
edc fccc
dbb fcdd
bbcc fef
bbebe debb
beef fbc
ebc dba
dbb ecbef
debe beec
eebf ebbc
bdec bbebb
bbbc bddd
bbdcc ccc
bdc bdebb
ebec bbebc
bbed bbebc
eedc dbf
dbb becbf
dec bcebc
becc def
ecbc febb
bdec fbd
eebec df
bcc bdebe
eec bebbbc
bbec bcbbc
bbed debd
eeec fdc
ecec debc
bdee da
ebbbc efc
ebf dccc
dbb fcef
bcbd bbbf
bcee dbbbb
bfed a
fdbc df
eec bdebc
bbbec ba
bced ba
ebc bbbbebb
bbc febf
bdc ebecc
dcc e</w>
dcc bcbf
bcdc fee
ebd bbccc
ebf ecebb
dbb ebcbbc
dd db</w>
ebbc ebfc
fbe d</w>
beec eedd
eebc bbef
debe efc
eeec ebdc
eedc bbbd
ebc dcebc
bbec eedd
eebf fec
bded bef
ebbbc bbdc
ebd efdc
dbb ebced
ebbbbbb ebbbbbb
ef eebdc
ecc dddc
ebe eda
dee dbbf
bcdc bef
ecbc ecbe
ecec ebec
edee becc
fc acc
edc fdbe
eebd ac
ebbbc becc
beed beee
bcebb bbbbc
ddbd ded
bbf febd
debb bedd
fbf bcbd
bdcc fbc
befc dbc
bf dbbbf
ef eeeec
ebd ebbbf
ecbbc bcc
eebbbe bbbb
bcbbbc bcbbbc
a eeebc
bbc dced
dec bbecc
dbd c</w>
bebc dbdc
bebd bebbc
bbee eea
dbf eccc
fec bcf
debe bbdc
ef bbcbf
dd dbbdd
bec bbebbc
bbee bbebf
fbe bfef
dbbee bbbb
bded beec
ebc bda
bbc eebbf
bec ebbed
fed dedc
fbbd fbc
a bbebf
bbd bddf
dbec bbcc
bbc ecbcc
bbf fbbbe
bcbf fee
bd fedcc
ebd edbc
eebc ffc
eecc decc
ecbd ebcc
eddd fc
bebc eebbc
bebe ecbf
bbbcc bef
fbbc efc
bcdbbbb cc
dd edbc
bbc ebbbd
dcc d</w>
bbbf dfc
eef ebbef
dbd bba
bbec fef
beee debc
febc bbbe
bc ebe</w>
ebd bcecc
dec beebd
bbec bdbd
bbbf eeee
bbed ffc
bbef febb
dcec bfc
ed bebbdd
beee bbfc
bbed bebbc
ebe ecdee
ebd dfcc
bebe dbbd
dbbc eeee
ecbe eddc
bcbd dbbbb
ed fdebe
eec eedcc
edc beecc
eea ba
bbf ebbbbbb
dbd eeebb
ebec bcebb
ebe efdc
eec deccc
bbee ecebb
bbebe bebbc
bcec eebd
bebcc bbbb
edec ddc
bd bbeba
ebc bcbdc
bbee bebbf
bbee ebeebe
cccc fc
bbbec beebb
bcdc bbbe
ccc ac
beec ac
bbf edbf
ebf bbebd
dbd befc
ecbc bdcc
ed eeeecc
ed bedbec
ef fded
dbc bcfc
fa ea
edec bebc
dbf bced
debb fdc
becc dfc
edbd debe
ebbee edc
bbd bedbb
df febd
fbe eced
beebc bcc
dec bebec
bbbd bdebb
debd eebc
debc fcc
dbb ebcebb
ecf c</w>
ebbbc ebcc
bf beefc
ebb dbbbec
ebf bebbee
dbb ecbbec
dbbd d</w>
feba cc
bf fdebb
dbbc b</w>
debc ecdc
bebf efc
bcbbc bebc
eba fc
ebc dea
bdcc ded
ebc eebbbc
dcc edbd
bbbd bebec
ebec bbfc
fbe bdbbc
becc febc
beebe bebc
df fdbc
eef ebbcc
dcee fbc
bd bbbb</w>
fef bebc
bebbbb fc
bfbd fbc
bbdc ea
dbbbb beee
bfebb bbbe
bbd ecbbd
df dced
edc fbbd
dbb ecded
dbf eebd
bbdc bbbbc
da dba
bbebc ba
dbcc bfc
ffc dfc
eeebe eebeee
ebbbc bbef
bbbec bbcc
fef eec
eebf fbf
bbbbbd bbebb
ebe edebc
bef ebbcc
efc feec
bbebe bba
eef bfebe
dcbc eebd
edee ded
da fec
dcbf ccc
eba dbc
bbecc bbbb
eba beee
bddd ded
dbbcc ccc
ebbec bbebb
a ebbcc
bebd eccc
bbdc b</w>
dbbd eebc
fa bef
ef bcdec
eeec bbdd
ebc bbdcc
dcc debd
ddc ac
bbeec eec
ff fbbf
eeebe bcc
bdcc bebe
ebe bedbb
fee bcf
bbebe bbef
a bbbdc
bcbc dbec
bbed bedd
eedc debb
fdbb bec
ebd bcdf
bbee dbbbe
dcc bddc
dd ecbcc
dbbbb eec
bdbd bbebb
eeed debb
edbd bebc
ecc dbfc
ac ebcc
bdc bebec
dbd ecdc
eba fee
eedd fdc
bdcc bbbe
ecbf ebf
bcdd bec
bcbec bec
eedc edcc
dbe ebbcc
dcee ebbc
ebc edebe
bbcc bbfc
ebb febdc
bbee bedd
bfc beef
dbf beed
bbbbc fbf
eded bbf
ebd bcbcc
debd debb
bf bedbf
bdc ecdd
bbebe dcc
ebbbd bbebb
efbf a
ee bbbbbbbbbbbb
edc bbeec
ebec bcbbc
bbebe bcebb
bcec eccc
be bbeb</w>
ebf ebbebb
bef bbebd
fbe dedc
dbbc fed
bbbbbbbb bbdd
fecc dec
eebbdd cc
bbbb febd
bbc bcdee
bbd edebe
bebe eefc
bced fee
bebbebd cc
edc bcfc
fbd febe
debc bbed
ecee ebdc
ecbbbb bbbc
ebd beff
bbec febc
ac eecc
febb bbbbc
dbf ecbd
decc decc
fc bfbbc
bef edcc
bebbd bbbc
ebbbc eeee
dbc bcbbbb
bbec b</w>
bfbd bcc
dcbc ebbc
ebfc dcc
fbe bbccc
bbbf ecbc
beebe eebf
bcebb debb
dd bfef
dbd bcbf
fbd dbec
fc dddd
ecc bebbf
ecf dbbf
bceeefcfeccefebbc ecebcddbd
bbc edbbc
bbbe beebd
bdbd bbed
ebecc a
eeec deec
bef bebec
debc dfc
ebe bdebd
eec edbf
dbbc beed
eedc fee
bcebe bbf
bec edbbc
bbdd bcbc
beebb ebec
bdbd ef
ebfc bfc
ed bbbebbbb
ba fdd
ccc ea
bebe edcc
bbee bcef
bbee bebcc
fbd decc
bbebe bcbd
eebd ecbd
bebf beec
ecec beee
bbebf bbbc
ff bcdf
bebd bccc
a febd
dbb fcbd
dbcc bbcc
eeebe fef
bbbb decc
bbbb eea
fc bdbec
bcbbc bbec
bef bfbf
fbd fdd
feec dbe
dc ee</w>
dec beef
bbdd eebc
bedc bbcc
bdbe bbbcc
bec bfdd
bebd da
bebd fbf
eeec debd
bbeec dbc
eec fdbc
ebb bbcccc
fc dddc
bdc eddc
dee ecbf
ddc dbbbb
ebdc ea
bcbd fbf
dbbbc bbbd
dbd fbbc
fbe ebbef
eebf dcc
ebbbbc bbbe
dbd eedd
ecbe bbecc
bdcc fcc
edbf df
a bbccc
bf eebfc
ecc bcbbbb
ff debd
ecf dbdc
fef bcbc
bfcc dbc
ebb feecc
dc febec
debb bebbbb
beebb beec
dbcc eebc
eebec bbc
bec ecebe
ebf bebbf
beed ea
bbd bfef
dee ecec
ecdc bbf
ecdc efc
bf beebec
bcc eebcc
eccc bbbd
bbeec bbf
ba bac
eedc eedc
dbfc ff
ecc edef
bdc bedf
bebc bebec
ebec bced
ebcc beef
bbbec bbed
bf bbeecc
bbd eac
ebb dedcc
ececbd cc
a efa
bbbe decc
bfc fa
dbf ffc
cccc df
eeed bbee
dccc dbe
debf bbc
bedbe bbc
ccc bcee
dbd bbfc
fdc deec
bdf eba
eeef fef
bbbbbd dbe
ed febdc
ed bedebc
dd ecccc
bfc fbbbb
fcc eeee
ef bbcbd
dd fdbb
bcbc deec
bbdc eeee
dcbd ebdebbcc
bf fbccc
dec e</w>
bbbf bcbe
eebd def
eeebb ebd
abd ba
bebbecc cc
bbbe edbd
bbbe fecc
dbbc bccc
bcec ea
ebe edef
bbd edebc
dee ecebb
beee bcee
ebec dedc
bcbf bbbd
bcbf bbcc
edc dced
bbbbc efc
ecbc bbfc
beed dbec
dccc bbc
edee ea
dbd bcebb
bedd debb
dbd bbebc
bef decc
beebc bbbc
bcef fbc
ecbbc fc
bec debcc
bebe ecebb
ebec bdbd
bbed bced
bbbbc ddc
dbbd beec
bdbc ac
bdbe eba
bf bbdbd
ed fcccc
dd beff
dec fecc
bbebb bbbbebb
bbbe eea
bcec debd
bbf bebbf
ba fbbc
ebcc beebb
bbdd eeee
efcc fec
fbf febb
dec edcc
fee bbfc
bbdc bbbf
bcec fbe
bdbc debc
bcdd bbbb
bfbd bfc
ecc bcdee
bbbec bebd
beebe bbec
ecdd ff
bec bdee
dbe dced
ebf ecec
eebd bbbf
dbbbe df
ebecc edc
ecc bdfc
bbf eebbee
dbec dbf
ebfc ebd
eebbc ff
dcbd dcc
dee ecbe
bbdd d</w>
eeec debe
bcdc fbc
ecc bcdbe
eec bcdbe
bbed bcebb
eec bedee
eecc debc
bddc bbc
bbbbbbc bbc
ebcc bdbd
def dfc
bcdc fcc
bfcc ebc
bea bea
bebe bcbec
ded eeee
eef bbecc
bccc ecbc
bedc beed
bcdc bebc
dbbbd dbbbb
ebebd ccc
ecc bdee
ecc beebd
eef bac
bcdc bbbc
bef bebbbe
bcc bebbbe
bbd edef
bbd ebbdd
fec bcbe
eecc bbdc
ffc edc
feec bbc
bfec ebd
bded efc
ebeebb bebe
ecc bfbf
eec dcec
bfc fbcc
fec ecbd
eebc bbebc
eebc decc
dbcc efc
bebbee beee
ef bfbc
bbec bbbcc
ebfc bebc
bbef beec
ebe dceec
ebc fdec
bbbc bcebc
ebe bebbbf
bbef fa
dbcc bebc
bcbf bbbf
bdcc bbf
eddc ff
beef bbebe
dee eced
bcec bbbbc
beef bbebb
dcdc dbc
a fccc
dbb fcfc
bcbd fdc
debd bbbd
ecf bba
eebbc bdc
ebe eebbebe
ebc ecebd
bfc eebf
fee bebbc
eebe deec
eebd bccc
bddc dec
bbbe ecbbc
dbbc fcc
dfc dbec
eedc bebd
eec eebec
bbed fbf
bebf dcc
bcc bbbbcc
bbbc eced
beef bbbf
bfbd fec
ebcc ecbd
bbbec ebec
ddc ebdc
dc bebecc
dbb ecbebc
ecbf bfc
bef bebcc
dbf bdbd
ac bea
eebe ebebf
bddc dcc
ef eedbc
ebc efbf
eec fbbf
fbc edcc
beed decc
eeebb ebbc
fef bbcc
ebbbbbb bebe
ee bbbb</w>
bd bccccc
dee dbbbe
bbebc bbcc
eea eeee
ebc eedcc
fc bddf
bbd fdbd
beee bcbbc
ebdc debe
bebbbb bcbbbb
fbbbb bec
fbbbe bbf
ebe bcebf
ded fdd
bdf bbbcc
fbbebd cc
dbb ebcbf
bbebe fbe
bccc cccccccc
bcec fdc
bbfc edc
df debf
bbee bcebc
beed dced
bfec fee
ccc bcbd
a bdbbc
bbd edfc
beebb eeef
dc bedebb
ebd bca
bfc eeebc
bbbec debb
ebbec dbd
ef ecff
fec fdd
bba da
bdec fed
a beeec
ecc eceec
def bced
ccc ffc
bef dbdc
ebbec dcc
bdc dddd
bef ecbe
fcc bced
febb ded
ebf bdebb
ba bbbbbbbb
deec dbf
ebb dbbebd
bba dec
bcdc bfc
dbbf dee
ea bfa
ebfc bcbc
bbbe bcbbd
bcdd ded
ebb dbdcc
dbc dbbbe
fee ffc
bcec dbbc
edcc efc
dbbf bec
dbbbc dbbbc
ebbbbbb bbee
ebc bddbe
ebbc ebbebb
bebd bbef
ebdc ba
dfc fed
fbbc fcc
bdbc bbef
bbccc bbcc
bf bbbebbbb
fc ecccc
bbed ac
becc eeee
bedc decc
a ecbec
bf bbbccc
dbd bdbbbb
def da
bcebb ded
dec bcfc
bebbc bbbbc
febc bdc
bbd bbcbd
edc eeebc
eedc ebdc
eebf bebf
bbbe fbbd
ccc eebd
ddc febb
ddc ecbd
bcbe eba
beef eeebe
bcdc ebf
a efcc
eeed efc
dedc bdc
ebc bcbebe
bbbe eeef
ba debc
cccc ff
dedc bebc
ebc dbbcc
ddc bddd
edc d</w>
bbee eebbbe
eebc eeec
edee dbbc
ebc bbebec
bcbd eeebb
bd bbc</w>
ebd edbbc
ebd ebbebe
bfc ecdc
dcc eddd
eec ecf
dbd eef
bcf dbdc
ecebb dbc
bbccc fc
bbec bebec
ebcc ecdc
eccc dbf
bedc beee
bac df
dcbd bbf
bc bbeac
ebc febbc
eeec fbbc
bcbbbb bbbf
fbcc bcc
ee ebc</w>
fec befc
bcebb bebd
eedd bbbb
bdee debc
bbbbebb bbbd
dc bbebcc
dbd bdbf
ebec dbbbb
beebb fbe
beebb bbef
bcbbbb dbc
bceec dec
ebe eebbebb
dbe edbf
eccc beed
deec bbcc
dbbd bcbd
fef ded
eddee ccc
bf fbbef
bebe ecdc
bfec bbbd
edbd debb
bbeec beec
ebccc fc
bebbf bbf
dbd ecbe
ba bcf
bebbbb dd
bfed ff
dcec eedc
bbc fdee
bec bcbbbe
bef bcebe
bbebb fbbc
bbdd becc
bcdc efc
ebd bbebf
bbee bcebe
bebe bcef
ebdc def
edbd beee
ebbbd bebc
beebc eec
bebbd eec
bfec fed
ed eebccc
bebe eebebe
ebec bcee
bbebc bbebc
bbfc fbd
bdbc dfc
bfdc ff
bbbc bbbbbbbc
bebe bdbf
ac bbbf
eedf a
fec bbef
dee bcebe
bfc ecec
ebb ebac
bbbbc debe
beef bebf
fee eebeee
bedc bedd
ef fbbcc
bbd fdec
ebf eefc
ebf febf
eccc eedc
fbbbb bcc
bcbcc bbc
bfbd bdc
bbdc def
bbdd beec
fa fbc
ecbf bbbc
ebbbf ff
ebbc bebbbe
febb bbebe
ecebb bebc
bdebb bbf
bcebc bec
ebc bdeec
bfc bebcc
bcbd ea
beebe df
ded bbebe
ecbc deec
a fbbbe
dee eeccc
ebbc dedc
ecbc bdbd
beecc edc
ecbbbb bbc
eca ccc
be bbbd</w>
ebe bbebec
ebe bebbcc
ffc fed
ecebb bbbd
bcdd eec
ebbbd dec
ddc dbec
bedc bbed
fbec fbc
bdec debe
febd dbe
bfec debb
bbbb ecdc
ac fbf
eebc deec
bbdc fdc
dfc deec
ebbc dbbf
bbebf ccc
edbf fcc
dcec dbf
bf eedcc
bbd ecbcc
bfc eef
bbec beef
fbe bac
bedc dbf
ecbf dec
bebe bebbd
dbb ebea
eebe bfebe
bced beee
ebccc dcc
ebeebb bbee
dd bcdee
ebc ebdcc
fc eceec
ebd eebbbe
ebf bbecc
edbc ea
ecef bbc
fdebf cc
a bceec
ebb fdfc
ef edbcc
bbd ecdf
efc bcf
ecbd eecc
beebc edc
ed bedbbbb
bdc bedbe
bebe eebeee
bcc bcecc
bbbe bddd
bdc bbebd
efc bbebe
bccc bcbd
eec bebbee
dbec def
edcc edcc
ba bcee
dbb ecbbee
bbcc bcbe
ac dac
fbf bbef
bdec deec
dee bceec
dbbc ea
eeef eeebe
dded dec
bfec bebd
bbc eeebd
edc bebec
bbbc bebcc
ddc dbcc
bbbbc fcc
bac fa
a dedc
bf dbccc
bbec eeed
debc bbdc
dbec fbd
bebf dbf
bdbbd bbbd
ed fbbbbc
dd ececc
bbbe fbbf
fee bcbbc
ebcc ecbe
dcbc fed
ed dbbebd
bbee befc
fee bbdd
bbbf ffc
ebbebb bbbd
ff eedd
bcbc eebf
beed fdd
dbc bbeec
dcc beebb
bcbc befc
ff bdebb
bbbcc fbc
bebbbb bbed
fecc fbc
dcbc debe
eccedc dee
bd bbebfc
ef bcfbc
ebe fdbb
dbe ecdf
eef ebbebe
bfcc fed
bcbbbb dbd
bfec fcc
bbbf bba
beebc fc
ecdbe ccc
dd dbccc
ea bdbd
bbbbc bbef
debd fec
dbdc eecc
bcfc bec
ebc edfc
ff bca
bebc b</w>
fef beef
eced ebd
dcbc eecc
ebe dddc
ebc edec
bbec bbeec
ecbd ecbd
ff eea
bebe bbecc
a bcbbd
bebe deec
debc beee
bbbdc bbbd
dbc eebbc
ddc edbbc
ebdc fbe
bcebb fec
eded ecc
ed bedfc
debb bcbf
dbbd bddd
bbbb edebb
dbec bbed
bbbbbbbb dbe
bced bbbd
ecec debe
a dbbbc
bbec ecbd
becc bebf
ebeebb beee
ecbc bbdd
fa ebf
edbc ecbe
beed eedc
ed dbbebc
bbd beedc
bdc eeef
bebc edcc
eccc debb
ebc bfebe
eeee eeebf
febb fbe
febb eeebb
ebbebb ccc
ecbbc df
ebbec bfc
bbf bddc
bebd eeec
feec bec
bedbe dbe
bfbd bbbe
bbd bfebe
eebc da
becc eeed
bcbd fed
fbbc bbbf
ed fbbef
bbf eedd
ba eeed
dee bcecc
eebd fbe
febb ebec
be dbd</w>
bbbb bbdbd
ebe ecebd
ebc eebbee
ebd ebbbd
bbcc eedd
fbf def
ebccc eec
ebd bebbbc
eeee eebbbe
bbee bebbee
febe ea
bebcc bec
ef bb</w>
bbebb bced
ebdc ecbc
febb eeebe
edbf edc
bcbec bbc
ef bebfc
ba dbbf
dbbc bdbd
dfc ebcc
ebfc ded
bded dcc
dc fbccc
ff ecbe
bbbc bdbbc
bbbc bcbbd
bfc bdbf
dbb fcdf
debc ecbd
a ecdf
eebe dbbf
bfbc def
ebd eeccc
bbf eced
ebf dbbbe
bbd fdbb
fbf ebcc
ecf dedc
eebf dbd
ebd ecbbbb
bbd bedbd
eccc fdd
dced dbc
ef febbc
df bea
ebbec ded
ebc acc
bdc ecebe
bef eebbc
bcbc eedc
febb bebf
bdc eba
edc bea
ecec fdc
bcebb ebf
dacea bdbf
ebd dba
fbc fbec
bbbbbbbbbbbbbbbbbbbbbbbbbbbbbbbb bbbbbbbbbbbbbbbbbbbbbbbbbbbbbbbb
bbd beebf
bbef beebe
ebc ffcc
bcee bbebd
ebd febf
bfc dbbd
eeee ebbef
bbdd bbbbc
bbbec beee
bced ebbc
ac eeec
fbf cccc
bbbe beeec
dbc fa
bdbe dbbbe
dd dea
ebd bedbc
eec bedbb
bbd bbdcc
fbc dbbbb
ebbcc dbd
ebbec bbbd
bec bffc
dbf bcf
bbbf bcec
febd ff
bbc bda
beec beef
bbbcc ebbc
febc dbd
ebbebb beebb
df dcef
dbbc eeed
bdee eccc
bfbc ecbc
bbc ecdbe
bbf ebbbf
bdc ecef
bbebe eeebe
eebbc dec
bfbf bfbf
dd beedc
ba bedc
fbc bcbbc
eded ded
bbbb eebbd
dd ecdbe
bcc dbbee
debb dfc
edbd bbee
ebbebb bebc
bddc ddc
dced a
dbc bcebe
ebbebe beee
bcc fbdc
fee b</w>
bdee bbebc
dc bbdbbc
bef ecec
dcc bddd
dbec beed
bbcbd ccc
ebe bbefc
bbc bffc
bdc bcbbbb
dbc dccc
eef bbbdc
bcee decc
eba bda
dc bbbccc
dd ebbbbbb
fc bebbbc
bbbc bfbf
fcc ecbd
beec dbcc
ef beea
ebe bbbebbbb
eec dbecc
dcc bbebe
dbbbb beebb
fbec dec
f dee</w>
ebbc bdebb
fbc beef
ebcc bbdd
ac bbebb
ebc dbecc
bec bbbfc
ebd ecbcc
eec eedbc
bdc bdef
bebe eedc
dbe bdbc
bbbcc ebf
bebbc edc
febe eeebe
edbd fee
ebe ddbd
ac bcbd
bccc eeee
bbebc eebd
ffc ebf
ef ecdbc
fec bbdd
eccc ecdc
bcc eeecc
bbbc dbdc
edbc dbbc
ebbbd bbec
bbc eceec
bec eeccc
dbe bebbbc
def bbdc
ecbc bbef
bac bbbb
dbec ebdc
eeed bef
bcdebd cc
ef eefbe
dd debcc
dd ffcc
bcef bbbb
ebeebe beee
bf beded
dd eeebd
efc dbbd
ebec dbcc
debc ddc
debc ebdc
ecee b</w>
ef eeba
ecc d</w>
bbbd ebdc
dc bbdbf
bebe bbebf
ecbe eba
eebd dfc
fdc bbcc
ebc fbbee
fcc bcf
ecec decc
fbbbb fc
ebe bcbebc
edc ecbbc
eeee bbebf
fcbd ccc
bdc eddd
ba eda
bbed ebdc
beec bced
becc beebb
eebe c</w>
eef dbbbe
ecbf fbd
febc ded
eebbbb ccc
f dec</w>
dee fbcc
bebe edbd
dbd dbbbe
eebbbe beee
dc dbbdc
bbbd fdd
fbe debf
febb eebc
bcccc bcccc
ebe bebfc
da bbec
eeebb eec
ebbbbc bbc
ea eccc
beebe beef
ecee debe
bbbe bbcbbbb
dbb fced
beed bbdc
dcee bebd
bbd ebbdc
dbe dcdc
fcc febe
ecbc fdd
bebc bebbbe
debc bcbd
ded dbdc
fbd fef
eebe eddd
ed dbbbcc
bcc fdee
bec bbcbbc
eedd ebf
dd dbecc
dee e</w>
ded bbfc
eeebb bcbc
fbbc fee
fccc fc
dcee bbcc
dbe ecf
ba d</w>
ff fbbd
dbc eeebe
bbbec bbbf
bedd efc
bcc bdec
bebe eebbc
bebe bdebb
ac bedc
edcc bbbb
bf bd</w>
ebe bedbd
bbee fdd
dbbc ebcc
eea ea
dd bedbc
bbee bebec
becc eebf
dddd cccc
bdbdbdbd bdbdbdbd
edc dfcc
ff beebc
dbd bebbbb
bbebb beef
def fbe
bf ecced
dc bbded
bbbe ecbbbb
bdc eeebc
ff bbecc
bfed dbe
ba ffc
bbee ffc
ebec bcdc
dcbd fee
bbf dbbbc
bfc febe
bbdc eeec
eedc eebd
beebd a
bf eedbd
ff eeed
bcef ecc
fec dbdc
dbbc bedc
bcf e</w>
eedd ebbc
bf eebbebb
bbc beccc
bbf dbdc
dee eeec
bf febec
bcc dbfc
dbd bbbec
bbbd deec
fbc bebbbb
fcc bcdc
bbdd bcbd
ebe fbbbd
bbc fbebe
eec bcebd
ef fefc
bbebb bcbf
bbbbbbbb bbbbbd
df eeebe
ba deec
ff bcbec
ded dcdc
def eebc
bebbbe beebb
ef bedcc
bbd edbec
edc bfdc
dec ebfc
fbd beebb
bea ea
bdee debe
bbd beccc
ebf fecc
dbb ecebf
bebc bba
bea fee
ebd bdbe
dec eebbc
bbcc eebf
eeee ebbebb
bced dbec
eebbbb bcc
eefc bec
ecef fc
ebc fdbb
bbbc edbd
bbbc bcfc
dcc febc
fa bec
ecebb dee
fbbbb dbe
bbc ecdf
ebbc bedf
debc beed
fdc eccc
edc bdebb
fdc eeec
ecbf eec
bcebe fc
dcc dbbbb
ded e</w>
beee bbebf
fcbf ccc
ebd beccc
bbdc bdbd
bbfc bbed
bdc bcfc
eecc ecdd
eebd fbbc
bbc beedc
eebc ecbe
dbbd bbbf
ebbebb bec
ef beebbc
dbb abf
fed ac
bcbf efc
ebf eced
bbebb bbebd
fcc fedc
bbbbc fbe
bea bca
dded dbe
ebe bbbbbd
dcc bcbe
bbbd bdcc
bcbc bbbec
eeee beff
ecf bbecc
bebbc debb
ecee bbeec
bdf bbeec
edbbbb febec
ebe beebbc
ea dfc
beebe bbcc
eeed bbec
bef e</w>
bebd dbec
bebd fdd
bbef fef
ecbbc bbbe
bc ebc</w>
bbdc bedc
fdc fdd
ebe debec
ebc bbcbbbb
ba bbfc
dcc bded
bcf debf
fdc febb
dbcc bbee
a debf
bef bcdd
fec bfcc
da dea
bcef bbbe
ecc bdbbc
ff bfbf
bbbc ebbcc
bfc b</w>
dcc bbfc
bdef dbe
ebb dcccc
ebe eebbbc
fcc fbbc
eebd fdd
dbbbe bebc
bdc fdbe
fcc edbd
bbdc fbe
bcdf ccc
bfbd dbd
bebe ffc
bbebb febe
deec dedc
bcbbd ccc
ebe fbfc
dcef ccc
dbbbd dbe
ed bebbef
ed cccccc
ff ecec
eeee becc
dbbc eeec
eebd bdbd
df bebbd
df acc
def bbbf
dfc beee
bced debe
dddc ddc
ed fbbebe
fc fdee
ff edbd
bfc bcfc
bbbd fef
bbbd eeed
ebcc bcbf
deec ecbc
eec debec
ebcc dbec
ecef dbc
bbec bbecc
bbbb bbedc
ebe aa
ebe bdecc
ebf eebbbb
ecf bbeec
edec bbcc
eecc fbf
dcec becc
fcc bcbf
bba b</w>
fbc bdcc
ebcc eebf
beec ffc
fed bbed
bbccc bccc
bec eddd
bcc fdbc
fed b</w>
bcbe edbf
bcc bbcbbc
bbdc dbbbb
eebd fbf
dcec eecc
bfc eebbc
bcbc fbbc
fbcc dbe
bbee ecbe
ea dca
da bbcc
bebf bbbbc
bea bbbc
bddd dec
bedbe a
eec dea
ff bbebd
bbee bebbd
bbbd eebe
bbebc becc
eced bbcc
fbec bdc
ecdf fc
bcdbbd cc
eec fdbe
bef bbebf
dcbf df
bfc feec
bbebe eebc
bbdc beebb
fbbbb ebf
bfbd dec
bf bbdbbbb
ebc ebbbc
eec eedf
efc dbdc
ebe dca
ecc eedee
ebec beebe
dbf bedc
bdbd fbd
bedbe bbbb
bebd decc
def eecc
eedd bbf
dee eebf
fee eea
bf bbdbbc
bebc bcebc
eccc ac
dfc ecbc
ebeebe bebe
fc bda
ebd bcdbe
fed ffc
ebfc dbd
bbbcc bbebb
ebb bbbdcc
dbc dcdc
eef dcdc
ebbbf a
dcee becc
dc beebec
ebe bedcc
fee fbbc
dbf eeef
ecec bbbf
bcbe bbebf
dee bbedc
fbc eced
eec dddd
fbd eeee
dbbbb bbbbbbc
deec ebdc
beebe ebbc
febe bbcc
bdc edbf
[...]
