#version: 0.2 - Trained by `huggingface/tokenizers`
b b
b e
b c
e e
c c
b d
e c
b f
e d
e bb
d c
bb bb
e f
e be
d d
e bc
bb c
f c
be c
e cc
e bd
bc c
ee c
bb d
d f
bb be
bb f
d be
e bf
bd c
ed c
b a
f f
bb bc
d ee
cc c
d bc
bb ee
be be
bf c
ebb c
d bb
d ec
d bd
be f
d cc
e a
bb bd
be bc
ef c
d ed
bb ec
f bc
be ee
bb cc
f ee
bb ebb
ebe c
bc bc
ebc c
f be
d dc
d bf
f ec
d ebb
bb bf
bb ed
f cc
be ec
ee ee
a c
bbbb c
ee bc
be bd
be cc
f bd
d ef
ecc c
ec bc
ebd c
f ed
ee cc
bb ebe
bb dc
d bbc
ee be
d ebe
ee f
d ebc
ec be
bb ef
bc be
bc f
ee bd
d fc
bb dd
bc cc
d a
d bbbb
d bec
bc bd
bc ee
f bf
be ebb
f dc
bbbb bbbb
bc ec
bb ebc
d eec
be ed
bb a
f ebb
ee ec
be bf
e ba
bb fc
bd bd
be dc
cc cc
bb bec
d bbd
d ecc
ee dc
ec bd
ebf c
d ebd
d bcc
ec f
bc ed
ee ebb
f ef
bb bcc
f dd
ee bf
ec ec
be ebe
bc bf
be dd
ee ed
bc ebb
be bbc
f fc
be bbbb
d edc
bb ebd
f ebe
be ef
ed cc
f bbc
ed bd
bc dc
ee dd
bb eec
ec dc
d bdc
d ccc
d bbf
ee ebe
d bbbe
bb ecc
f a
bd cc
ec bf
ec ee
bd bc
f ebc
ba c
bc bbc
ec ed
bd be
bd f
bf cc
be a
bd ed
ec ebb
be fc
ee ef
bc bbbb
bd bf
be ebc
bc ef
bc dd
d bbbc
ec dd
d ebf
ee bbc
ea c
b b</w>
ebb cc
f bbbb
bb bdc
bb ebf
bb ccc
ebb ebb
bd ee
be bec
bd dd
ed dc
f bec
bc ebe
bd dc
ef cc
f ecc
be bbbe
bd ec
f bcc
d bbee
bc fc
bd ebb
ed dd
bc ebc
d bfc
f df
be bbd
ee bbbb
dc dc
ec bbc
bb edc
be bcc
ed bf
ee a
f bbd
ebe cc
ed bc
f ebd
d ebbc
ebc cc
f eec
dd dd
bf bf
bc a
be df
be dbe
ee fc
d efc
be ecc
bc bec
bb ebbc
d ba
ed ed
f bbf
bb ba
ec ef
f dbe
ebb bbbb
be bbf
ebb ee
bd bbc
bb bfc
ec bec
ebb bc
be ebd
bd ef
bd bbbb
ee ebc
ebb bf
ec ebc
be eec
dc ed
f ccc
bc bbd
ec fc
ec ebe
ec df
f bbbe
dd cc
f edc
ee bec
bc bcc
ebb bd
ee bcc
bc df
be bbee
bf dc
bc eec
d ea
dee cc
be bbbc
dbb cc
ee dbe
bf ed
f bdc
ec bbbb
ebb ed
dc bd
ee df
bf bd
ec a
ebb bbc
ecc cc
f dbc
bf bc
b e</w>
ebb ebe
ee bbd
be ff
ee bbbe
f ebf
b d</w>
ec bcc
d ebcc
d ebec
bd a
be bdc
b c</w>
bd ebe
dc dd
be dbc
ed bbc
dc bc
ee bbf
be ccc
ee ecc
ef bf
dc ec
a cc
be ebf
bc ebd
bc ecc
df cc
ec bbd
dbe cc
f bbbc
dc bf
bd fc
ee bbee
ebb ef
bbbb bbc
bd ebc
bc bbbe
ec eec
dd ed
f bebe
bb efc
be dee
f dee
be edc
bb ea
ee ccc
e b</w>
bbbb cc
ef dc
bf ebb
bc bbf
bb ebec
bd bbd
bbc bbc
f bef
ec ecc
bc dbe
bf ef
ec dbe
ebd cc
f bbee
bd bec
ebb dc
ebe ebe
bf bbc
ee eec
bd df
be dbb
ec dee
d ac
bf fc
bc ccc
f dcc
ee ebd
ed ef
ff cc
ed ebb
bc bbbc
f dbd
ee bebe
ed df
bbd cc
dd dc
bbbb ebb
dd bd
f bfc
bf ec
ee bdc
f dbb
ebe ebb
ee dbc
bf dd
ee ff
ed ec
d eccc
dc ef
bf ebe
f dec
be dbd
bc dee
ed bec
bb ebcc
ed ebc
ee beee
bf a
ee dee
ebb ec
d bbbbc
bc ff
d ebdc
ef ef
dbb bd
be dcc
ed ebe
bbc bbbb
bc dbc
ed a
f ba
be bbebb
fc dc
ee bbbc
ec ebd
be bbbd
ebb ebc
bd eec
ee ebf
bf bbbb
be dec
be bbec
ebb dd
bbf cc
ed fc
be ba
f bebc
bbc bd
dc ebe
f ebbc
ef dd
ee bef
ebb a
be bfc
bc bdc
dc fc
ebb bec
dc ebc
bb ac
ef bd
f beee
ed dee
be ebbc
bbbb bd
e e</w>
a a
ebe bf
bc bebe
dc bbc
ebb fc
bc edc
ed dbe
ec dbc
ee dcc
bbbe cc
ec dec
be bbcc
bd bcc
bbc bf
f bbbd
e c</w>
dc ebb
bd dbe
ebf cc
ed bcc
ded cc
bf ebc
f efc
ed ee
ec bbf
dbb dd
e d</w>
ebb bbbe
ec bbbe
ef ebe
ed bbbb
f bbcc
ec bdc
d b</w>
ebe bbc
f bbec
bbd bd
dc bec
dbc cc
f ea
ee edc
f ddc
bc bbee
dc eec
f dbf
bd ebd
ee fee
eba c
bef cc
ebb bbd
ec ff
bd ecc
dcc cc
ed eec
fc bf
bc dec
ebe bbbb
ef bbc
dc a
ee dbd
f ded
bbbc cc
bf bec
ef ebb
bc dbd
ed bbd
ef fc
bbc ebb
dc ecc
ebe bd
bc ebf
bc bebc
bbbe bbbb
ef a
bbd bbbb
dbb ebb
bc bef
ef ed
fbe cc
dc df
ee ba
dbb bf
be dbf
bebe cc
bc fbc
dc ee
dd bf
dbb ed
f bbbf
ebe ef
bc bbbd
be bbbf
be ded
ec bbbc
bd bbbe
be ea
ec ded
ebe dc
fc dd
ec edc
be ddc
bd dee
ebc ed
be bbed
bb b</w>
ebc bf
bc bfc
fc fc
bbd bbc
bbbb bf
ee dec
f bbebb
ebc bbc
bd bbf
bec bbc
ebb bcc
ebe dd
ebe ed
bb ebdc
bbd bf
b f</w>
ec dbd
ee bebc
d d</w>
bbbb bbbe
dc bcc
ebb eec
ee bbec
fbc cc
bc bbec
be debb
bec bf
ee fbe
bbee cc
bc ded
bbc ed
dbb dc
ec dcc
bd ff
ecc ed
bc dcc
ebc ebb
f ebcc
bc ebbc
ee bbebb
f ac
fee cc
bf bcc
dd a
bd dbc
dd ef
fc bbc
ec bebe
bd bdc
ebe a
ee ebbc
be efc
dd bbc
bebc cc
bf df
dc ebd
ec bef
bc bbcc
bbbb bbd
ee bbbd
dbb ebe
ed ecc
dd ebc
bb eccc
ebb bbf
bd dbd
bbbb bbbc
bc ba
fc df
f ebec
be bbebe
f debb
bbbb ebe
f bbed
be bbbbc
ee fbc
ebc ebc
fc ef
ebb df
ee bfc
ed ebd
ec bebc
bec bec
be ebec
fc bd
ee ddc
ebc dc
dbd cc
ee bcbc
ebb ebd
ed dbc
bbc bec
ebc bd
ebc bec
bc fee
ec bfc
ebb dbe
dbb ef
bbd ed
f def
bbc ebe
dd ebe
bf bbf
dd fc
bc beee
ec ebf
ebc ef
bbc ef
ec bbec
ed ccc
ec bbee
dd df
dc dbe
ebb bbbc
a bf
d ebfc
d e</w>
cccc cccc
ee bbcc
bd edc
dd eec
ee ea
bc fec
dc bbbb
be ac
bf ecc
be ebcc
dc bbd
fc ed
bd bbbc
bbbbbbbb bbbb
dd ebb
ee dbf
dd bec
dbb a
bcc ed
d c</w>
bc bbebb
dbb fc
bc fbe
bcc bbc
ec fbc
ec beec
bd ccc
bbd ebb
a ed
ec ebbc
df dc
f eccc
bc fcc
ebe bec
eec bf
ec bcbc
bc efc
bbc dc
bd bebe
bc beec
ebb ecc
ef df
ebe fc
ebe bbbe
ed dec
bbc fc
ebb bebe
dbb bec
ebc dd
ebc eec
e bb</w>
ef bcc
bf ff
be dbbc
bbcc cc
def cc
ee ded
ef bec
ebc bbbb
bc eebc
bbc dd
bf bbd
bf dbe
ebc fc
bf ebd
bf bbbe
fcc cc
a bd
ed bdc
eec dc
f dbbc
bbc bcc
a dc
f bbef
ec ba
ee beec
eec bec
ec bbbd
bbbc bbbb
ed bbf
be bbef
ebe bcc
dd ecc
f bbdc
bc debb
bc dbf
beee cc
dc dee
ef bbbb
ebc df
bc bbed
a bbc
be bbdc
bc bebd
bcbc cc
ee bbed
ed ff
a dd
ebc ebe
f bbbbc
eec df
eeee cc
fc bec
ed bbbe
d eba
be def
f da
a ef
ec fec
ba cc
bd dec
ee dbb
bb ebfc
dd bbbb
bf eec
bbd dc
bbbbbbbb bbbbbbbb
bc dbb
bb eba
bec ebb
bc fbd
bec dc
a fc
bc bbbf
ea cc
f dfc
bc bbbbc
ef ebc
dbf cc
bbc ebc
bd bbbd
bbc bbd
ebb ff
bd bbee
ee bbbf
ecc eec
bc ddc
fed cc
ebd dd
f bbebe
a ebe
dbe dc
be debe
ec fee
bccc cc
df fc
a bbbb
ee bbebe
bbbe ebb
bc ebec
eebc cc
ec becc
ee fcc
ebd ed
bc becc
bcc bf
bd ebf
dc edc
df ed
bbd ebe
bbf bf
ec ddc
ec debb
ebb bbee
cccc cc
bbd ef
bbbe bbc
f debe
dee dc
ee bebd
ebe ebc
ef dbe
dbb ebc
bcc bcc
ebe bebe
be bbebc
eec dd
a ebb
eec bbc
f ebdc
bbbb bec
ee becc
df dd
ec bbcc
bd bef
dc ff
bbd bbd
ef ecc
ed dbd
ef ff
ec efc
ee debb
be dbbbb
ed edc
ebd bf
ec beee
fc ebe
ef bbf
df bf
ec fcc
ee fec
ecbc cc
bd bebc
bc ea
dd dbe
f debc
fc bcc
ec bebd
be debc
bbd bec
e f</w>
ee fbd
ecc bec
dc bdc
ec dbf
ed ded
dc dbc
bd fbc
fc ebb
bbbd cc
dd bcc
ee efc
ebe bbf
bc eebe
bc ebcc
dbb ebd
bbc bbbe
ebc bcc
dbb bcc
ecc ecc
ec fbe
bbbb bbf
bd ded
fc a
bd bfc
bbc eec
bd dcc
ec bbed
ebb ebf
bbbb ed
dd ebd
bc fed
fc ebc
bbbe bf
fbd cc
dc dec
be bbdd
bbbb bcc
bc ecbc
be dbec
ebb dbc
be bba
bbbb dd
fc dbe
ec bbebb
bc eeee
bc def
bec ed
ee bbef
ec def
ee ebcc
ecc ef
bc eecc
ee ebec
bbc bbf
bc ecbe
ebb bdc
bbc a
debb cc
ebb ccc
be bbbec
bec ebc
ec eebc
bec dd
bec ebe
ee ac
f bbdd
ef ccc
d bac
bf ccc
bc debe
bc eebd
dbe dd
bb d</w>
ec ebcc
be eccc
bec bbbb
bc eef
bbbe ebe
bf bdc
ebd dc
bbc df
bbc bbbc
ee ecbc
bf ebf
ec ebec
bbbb bbbd
ed dcc
bd ba
bec ef
bf bbbc
ff dc
bbd ebc
bc ac
f bbfc
ebe bbee
bbc dbe
dbb eec
bbbe bbbe
bbd a
be da
be dfc
dee dd
ed bebe
bf bebe
ee dbbc
becc cc
d eac
dc bbf
bec df
ecc ebc
bcc ebe
eecc cc
bbd fc
ed bbbc
bcc ef
ebb edc
bbbb ebc
bec bd
ebb bbbd
bf edc
f dbec
dc dcc
bbc ebd
ebb dee
bc bbdc
ee bbbbc
bec fc
bf dbc
ed bef
bbbb ef
ebe df
ee def
ebb bef
be ebdc
ebd ef
ecc dc
bd bbec
bd ebbc
ebc a
bb c</w>
be bbfc
dd dbd
ec fbd
ecc fc
bebd cc
df a
f dbbbb
bbebb cc
bbbb a
bcc fc
eec ef
ec fed
dd dbc
f bbebc
bc dbbc
ec eecc
dd edc
bb e</w>
df ef
ebb bebc
debe cc
dd bbd
ebc ebd
bcc bec
bcc bd
ecc bf
bcc dc
bbbf cc
dbe ed
f bba
dbe bf
bcc eec
bbebb bbbb
ebe bbd
ec ecbc
df bd
ee bbdc
ed bbec
ebc ecc
bcc ebb
bc bbebe
bbbc bbc
ff bf
bbf bbbb
ec ea
dd bdc
ebb beee
dc dbd
bcc ebc
ebd df
eec bd
ebd bd
ec debc
bbf ef
ed bbee
ebe ecc
bf dee
ebd bec
ed bebc
bcc dd
ebd bbc
bf bbee
ebe dbe
ebe beee
bbf bbc
bbd eec
ee ecbe
bb bb</w>
e be</w>
fc eec
ec deec
ff dd
be dbbd
bec eec
ebd ebb
ee dbec
bb bac
ecc bbc
fc dee
bbbb dc
bbed cc
df bbc
ff ef
ed ebf
f bbbec
bd fee
ec bbbf
bc debc
be deec
ec dbb
ecc dd
ebb bbebb
f dbcc
ee bba
bc bbdd
bec a
ebd eec
ebb ebbc
bbbb fc
ebe eec
bd ddc
f dbbd
bf bef
bd beee
ebd ebc
bc bbef
ef eec
ebe ff
dbe bbc
fbf cc
ecc ccc
bbd bbbe
bcc bbbb
dd dee
ef bbbe
edc ed
bc dfc
ecc ebb
ec dbec
bbf ebb
ebe bbbc
dbe bd
ecc bd
ebe ebf
ef bdc
ee eccc
dc bbbe
dc ded
ed bfc
ff fc
bebe bbbb
dd ccc
df ebc
e bd</w>
eec eec
dbb bdc
bec bcc
be bbbbbbbb
ecc a
bc dbbbb
bbbd bbbb
e bc</w>
f deec
debc cc
ebb dec
ec dfc
ecc edc
ee da
ebd a
ebd bbbb
ebe ccc
dbd dd
ebe bdc
d bb</w>
bec dbe
ebc bbd
ef bbee
bd fbe
bbf fc
ed ddc
ef bebe
be dbcc
ec dbbc
ebe eeee
ef ebf
ebd fc
ebc ccc
be bbbcc
bd bcbc
ef bbd
ec debe
ebc dbe
ebb dbd
ebb fee
eec a
bf fbc
dc ebf
f decc
bf bfc
ec bbdc
bc eccc
ebc bbbe
bd fec
ef dbc
bbf dc
ed beec
ed fbc
ba a
ebb bbec
be bbeec
ebe ebd
ee bbebc
ebe bef
bbf a
ec bbbbc
dbe fc
ef dee
edc eec
bcc a
bd efc
ff a
bd debb
ee debc
bd beec
ef ebd
ebb eeee
bbc dee
eebd cc
fbe bf
bd bbcc
fc bbbb
f debd
bbc bdc
dd ff
bbc dbc
ecc ebe
ed ba
be debd
ebb ba
ecc df
ebb fbc
fc ff
ee debe
bc ebdc
bbee bbbb
bec dee
ef bef
bcbc bcbc
be bbebd
ec eccc
ec ac
ed bbbd
ebb bfc
ec eeec
dec dc
ebc bbf
bc bbebc
f bbbcc
bc dbec
ec eeee
be eba
ed def
bd dbf
bbc bebe
bbd bcc
ee fed
bbbbc bbbb
ee bbdd
bbbc bbbc
dbb ecc
ec da
ebc dee
a df
ec decc
be b</w>
bbd bbf
ec eef
ed ebbc
ef fee
dbb ccc
f eba
bbbb dbe
ec eebd
ee dbbbb
bbbc bf
dd dec
bc bbfc
bef bf
ebf bf
ed fee
ed dbf
bc da
bbd ebd
d f</w>
eec ebc
ebe dbc
ec ecbe
bbbb bebe
ec eedc
edc dc
ec fdc
dd dcc
bd bebd
bbebe cc
f b</w>
edc ef
fc ecc
bbc ecc
f ebfc
bd bbebb
ee ebdc
bc deec
a ebc
bbbe bec
df bec
bbbb bbebb
ff ff
bd fbd
bd fcc
ed debb
bdc dc
eec fc
bd eebc
f dbbf
beed cc
febb cc
bbbe dc
bbee bf
ee dfc
ed beee
ebd ebe
a bec
df ebe
df ecc
bbc ff
eec bcc
eec ebb
eebe ebe
fc bbf
dee bf
bebe bf
bebe bbc
eec ed
be decc
fc dbc
ecc bcc
edc bec
bdc dd
ec ebdc
dc bbbc
dbe bbbb
edc dd
bebf cc
df bcc
bbd bbbc
bbee ebe
bdc bf
ebc dbc
dbe bec
dc fbc
eec bbbb
bc bbbec
f dccc
df ebb
ee deec
eeee eeee
bbee ebb
ebc dec
ec eebe
ee bbfc
bd bbed
dd ddc
eec dec
bbf ed
bdc ed
bbf ebe
ef bbbc
bc bbbbbbbb
a bcc
bbbe dd
da cc
df df
ebc ff
bbf dd
bbbe bebe
ec bbdd
bec bbd
dbe ebb
bf dbd
dbc dc
fc bbd
be bbecc
ebc edc
bec ebd
bbbc ebb
ef beee
ed efc
ecc ebd
dbe ebe
bf dec
ed fec
bf fee
dbe a
bd dbb
f bbeec
bdc ef
dc bebe
fc ebd
dc bfc
dc ddc
eec dee
bdc ebe
be dbbbe
ebb bbcc
be dbbf
bd ea
bbef cc
bbc dbf
eec ebe
bf bebc
bc dbbd
bcbd cc
dbe ef
bdc bbc
bd ebec
ee bbbec
ee eba
bbf bbf
ec fbf
bc bbbcc
dc fec
ebb fbe
bb eac
bbc bbee
bc bba
ebc bbbc
bd becc
bbbb bbee
bbbe ef
eec dbe
ebf ef
dc bef
fef cc
edc df
bbd bbbd
bcc df
ec bbebe
bbbb bbbbc
dbc dd
ee dbcc
bbbe ed
bbbe bbbc
ff bbc
ebe fee
be ebfc
f dbdc
eec ebd
f e</w>
bf dcc
fc bdc
ebb bcbc
bbbe a
ec bbebc
bebe bebe
bcc ecc
dbb ebf
fc dec
ded dd
bcc ebd
bec dbc
edc ebc
ee dbbd
ec dedc
bbbb ebd
fbe ef
ebb bbbf
f bbebd
bf ba
bec ecc
a dbe
bc debd
dbc bbc
ed becc
ed bbcc
bbd bdc
a ff
bd def
bebe ebe
decc cc
dee bbc
bd bcbe
ec debd
bd bbbf
dc efc
ed bbebb
ec febb
edc bf
eec dbc
fbe bbc
ebc bdc
ec ecbd
ebf bbc
bec dec
df dbe
bbbe bbf
bbbd dd
bbd ff
ed bcbc
f bbecc
ef edc
bbee bbc
bebe ebb
bf beee
bc b</w>
bf ebbc
bec bbbe
ef dcc
bd dbbbb
bbebc cc
dbe dbe
ebb ded
bc dbcc
a ba
ec bbef
bd bcf
ebc bebe
ebd ebd
df ccc
bef dc
bced cc
bf fbe
bd debe
edc ebe
a ecc
ec bdbd
dd ded
beebb cc
ebb dcc
a bbf
bec bbf
dc bbee
bd eebe
a bbd
dc bebc
dd bbf
be dccc
bec ff
ed fbe
bbbe bbee
bf bbec
bbbe ebc
bbc bbbd
bbbe bbd
edc fc
ebf fc
bd dbbc
bd ac
bdc fc
bf fcc
f dbbbe
bef ef
bec bbbc
dbc ed
ebc bebc
dec dd
ec ecf
eec bbd
ebf dc
bd ebcc
ebd dbe
bf bbbd
bcc bbd
bbc dbd
bd bcbd
ed debe
ebf a
ebf ebe
ebb debb
bd bbdd
bbc bebc
ebb fec
bd bbbbc
ebb bbbbc
ed bbed
ebb eebc
bbbe fc
bc decc
ec bbfc
bdc eec
bdc ebc
ed bebd
bd bcee
bef dd
ebb bebd
bdc bec
dbc bf
dc fcc
bbc dec
fbe ebe
dc fee
eec ecc
eeed cc
bd fed
ebb eebe
dbb edc
dbc fc
ecbd cc
ff ebe
bcc dbe
cccc ccc
bbd bebe
a ccc
ef fbc
ef dbd
edc ecc
be bbebf
ecbe dc
bd eef
bbbc ebe
dbbbb bbbb
ebd ecc
a eec
ebbc bbbb
be dbdc
dbc bbbb
bf bcbc
ebbc bbc
dee fc
f c</w>
ee debd
ff ccc
bd bbdc
ed fcc
bbd ecc
dd fbc
ded dc
bec bbec
ebb ea
df eec
df ebd
bef ebe
ef bfc
dbd dc
ec dbcc
bd eeee
f dedc
ebf bbbb
a ebd
df bbbb
ef ba
ebe bebc
dee ccc
ef dec
ebc ded
bcc bbf
ec dbbbb
bd eecc
bef bbc
ee bbbcc
a bbbe
bf bbcc
bcc ff
ebb beebb
ed eebc
f bac
ee bbeec
dd bbbe
bcbf cc
df ff
bbf bec
df dbc
ebe dee
df edc
bbc ebf
bbf ebc
bfc bf
eec ff
be dbbbc
dbe ebc
ec eedd
ebe edc
bbd bbee
fbe dc
bcf fc
ecc dec
ebb efc
ebd dee
d eb</w>
bd ecbc
ebb beec
dcc ccc
ee dccc
dbc ef
bcc dee
ebb bbed
bbd ccc
eebe ef
ee b</w>
beee ebe
ee decc
bd beed
fbe bbbb
bbc bef
bbc bfc
eef bf
eec ded
bd fdc
bec bdc
df bdc
fc bbbc
ba bbbb
ecc bbbb
bcc bbbc
bbee bbee
bcc bdc
ec bbbec
bd eebd
bd ecbe
f d</w>
dc ebbc
dbbd cc
dc bbbd
bbbe dbe
bbc bbec
be e</w>
ee bbecc
ec eeed
ed ea
bd bcec
debd cc
eebf cc
ed fbd
bcc edc
ed bcec
f debf
ef ebbc
bc bbebd
ebb bcbe
dbb ebbc
ed ebcc
dbc ebe
ed ebec
bef a
fdd cc
bbdd cc
bcf dc
dd ebf
bdc bbbb
bd fbf
bbc fbc
eeee ebe
bbbc bec
dbb bfc
bdbd cc
ebd bbd
bbc edc
eebe bf
bbf ff
bbbe bcc
ebb ebec
be bbbdc
ee bbebd
bbc bcbc
dbb ba
d bd</w>
dc bbec
bbbb ccc
dcc dd
ecc ff
df bbd
ebd bcc
f bbebf
fbe fc
edc a
bef fc
bcebb cc
bd beebb
eef ebe
ebb becc
dbe bcc
dcc dc
ed debc
dbd bf
dd bebe
ec dbbd
bbbb eec
bd debc
eef ef
f dbbbc
bc ebfc
bec bebc
dd bbbc
f eac
ebb bbebe
dbe ecc
ea a
dbe df
ebc bbee
bbf bbbe
ebc ebbc
bbc ebbc
bf fec
dec bec
bf efc
ebc bfc
bf dbf
f bbccc
dd bbbd
ebc ebf
bf fbd
ebd ccc
bd eeec
bc dedc
dee a
dee ebe
bbee bbbe
eebe bbbb
bebe bbbe
ed beed
bd bccc
bc bbeec
ebd ff
ebb dbf
fa cc
bba cc
ebd dbc
df bbf
d bc</w>
eec bdc
eef a
d be</w>
bcf dd
fc ded
bcc dbc
beee bbbb
bcbe dc
ebe ba
ebc dbd
ebd dec
fc fbc
ef bebc
bbbc bbbe
edc bbc
bdc a
ed eecc
ecbe dd
bcc bbbe
ed deec
be dedc
bd dfc
dbbbb cc
febc cc
fc dcc
fee bf
ecc dbe
bbbd bbc
dc beec
bebe ef
dc bcbc
be bbccc
bbbb bebc
dee bec
fc bef
bbd bebc
a dbc
ebb fbd
fc dbd
ed fed
dec bbc
bbd edc
fbe dd
be bbedc
bbbb dbc
ebc fbc
ebb fcc
ddc dd
fc bfc
bcf bf
febe cc
ecbf cc
dee dbe
bd febb
bbf df
ec eeebb
ebd edc
a bbbc
ebf dd
bc dbbbe
f bbbdc
b a</w>
ed dfc
ebb ebcc
bbbb bdc
ecc bdc
bbc bbcc
ebe bfc
ef eeee
be bac
ed eeee
bd da
bd bebf
fc ebf
bd bedc
bcbe dd
fc bbbe
bbbc dd
bbbb dbd
eebe a
be dbbee
bc dbbf
bbf bcc
dc ba
ed dbec
be c</w>
be d</w>
bf bbebb
bf bbbf
dbe ccc
ebe bbbd
bbec bbc
bec bebe
edc dec
fbe a
bbd ebf
be bbebbc
bbee dd
ebe bbebb
ff df
bbee dc
bf ded
bec ded
ed dbbc
ee dbdc
bc dbdc
ef ea
bc bbecc
ec bba
be debf
bbf dbe
a bba
beebe cc
eebe ebb
ec edcc
ed bcf
ef fcc
ebc bef
bbbb bbec
ec bbecc
ed bedc
ee dbbbe
ebc fec
ebd bbbe
ef bbec
eeebb cc
dbc bec
bd dbbd
eec bebc
bccc ccc
eec bbbc
ed da
ff bcc
bbee a
dc beee
ebe ebbc
ebd dbd
fc bebc
bcbe bbc
ec dbdc
ebd bbf
df fbc
dee bcc
ed bbbf
ebe fbc
ed ecbc
df dbd
ebe bbec
bbee ef
dc eebc
bcbe bbbb
ccc dd
a bdc
ebd bdc
ec bbbcc
bbbe bbebb
ec dccc
bef bbbb
dbc eec
df dcc
dc fbd
ee dbbf
ee bbebf
bd bbebe
ebe dbd
edbd cc
bf ea
bd b</w>
fc edc
ebb febb
ebe dec
bbbc bbd
ecc dee
bd dbec
ecc bbd
bb bd</w>
beef cc
bec dbd
fee ebe
bbbf bbbb
bfc bbc
f dbfc
a dee
eebe bbc
ecebb cc
ed bcee
ebb bcf
eec dbd
ebe bcbc
bbbc ef
dbc ebc
dc eecc
eec bbf
df dee
dbe bbd
ed dbb
ebd bebe
ed ac
bc c</w>
ebe bbcc
bd deec
beee bf
ebe dcc
ebc dcc
bec ebbc
ebb ddc
ccc dc
dbe bbbe
a ebf
efc df
bebc bbc
bbbc ebc
bcbe bf
bbbb bbcc
efc bf
fbc bf
dd bfc
fbe bcc
dc dbf
bbbb ebf
e bf</w>
f dbbee
bdc ebb
bbf bbd
ecc dbc
bec bfc
ebc bbec
dec bf
bbbc bcc
dbd bbc
eec bbbe
bbbb df
edc edc
dc ebec
bcf ef
ebc bbbd
bb f</w>
ec ebfc
ed bcbd
bc dccc
ebb bcbd
ed bcbe
bbbc fc
f bbbbbbbb
ebb ecbc
ecc fec
bbd fbc
ba bbc
ed beebb
bfc fc
ef ddc
ecc ded
ec bbeec
fee dd
ebbc bf
bedd cc
ebc bcbc
bd bbef
bcf bbc
ed bbdc
ebb eef
bbbc dc
eec dcc
ec eebf
ba dd
edc dee
dbe bbf
ebd bebc
bbbb ff
ec b</w>
bebe a
fbe bec
bdc df
bebe bec
ee ebfc
ef bcbc
bcc dec
fc bbec
be dbfc
ba bf
ebb bebf
ec bbebd
bebe dc
ef fbe
fee dc
ded bbc
dbe dee
dbe eec
bbbb dee
bbbd bf
ebb eecc
bbbb ebbc
ecbe bbc
cc ccc
bbcc bbc
bec fbc
ff bbf
ed bccc
dcc fc
dbc a
be bbba
ef dbf
f bbedc
bbbb bef
bbebb bbc
ea dd
ebc eebc
edc ebd
bd ebdc
bbbb bcbc
dcc eec
eef dd
bc bbccc
bbbb bbbf
ebb eebd
bbf bbbc
ee dedc
bec ebf
edc bcc
bec bef
bbd bbec
dc fed
bdc ebd
be debbc
ebb bbbbbbbb
dc debb
dec df
dee df
dbe ebd
ecc bbf
bebe dd
bcef cc
ccc fc
bdc bcc
bf ddc
ec edbd
ebb fed
bbd bef
eebe bbbe
bbd bfc
bbee bbf
fec dd
dbc dbc
bb bc</w>
dc bbcc
beee beee
ef bbbd
ebb bcee
bdc dbe
dec fc
d ee</w>
ebb eeebb
bebc bec
bcc ebf
bebe fc
ed fdc
ecc eecc
fee ef
dbc df
bc eba
a ea
bc debf
bcebe cc
a dbd
bd fdd
bbbb ecc
bebc bf
ee d</w>
fbe bbbe
bd bced
ebd ded
bbd ebbc
edc ff
fbc bbc
bbbbc bbc
dc becc
bec bbee
eedd cc
eef bbc
dec dee
ebb bbdc
bbbb ba
ef bbcc
beee bbc
ef efc
ebb bebbbb
ebc efc
bd eccc
ecbe ecc
df ebf
ff ed
dc bebd
f debbc
bf beec
f bbbfc
ecf fc
dec ebc
ebb bcec
ebbc ebc
bebc bbbb
bcbe fc
a edc
bcc bebe
a bbee
bb eb</w>
be defc
be bbbfc
ff dbe
d ed</w>
ebf bec
bd eedc
ebb fbf
dc ebcc
ef ded
bcee dd
ebe ea
df bbbe
dc fbe
f dba
dbd bbbb
dbc ccc
bbbd bbbd
ff ebc
beee bbbe
bf ac
d ec</w>
beebc cc
ebb dbbc
bdc dee
fbc fc
bea cc
bdc ecc
bbc bbebb
bec edc
ebd bbbc
eec bfc
ed decc
ee c</w>
bcc bfc
bd fef
bbc ded
fbe bbf
bc dbbbc
dd fec
bebe bbee
dbbf cc
dd bbee
fbc ef
ecbe ebc
ff bec
eec edc
ed eebd
ebb bccc
bd ecf
bebe bbf
bf bcf
be dba
eef dc
dd bef
fecc cc
ebbc ebe
bcc dbd
a bef
bec beec
bdc bdc
bbd ba
ef fec
fc fee
ebc beec
eeee beee
ee dbbbc
bbebb bbbe
ebb dbbbb
bf debb
bec dcc
bb be</w>
ddc dc
ebc debb
bbd bbcc
edc dbe
bf becc
dbc dee
dbd dbd
ebf bbf
ccc bbc
ed eeec
bd ecbd
fc bcbc
ebb beebe
dc bbed
bf bbed
eba cc
bd ffc
ff ecc
bd bebbc
bebe bcc
ed bced
fc beec
eec fec
ed bbbbc
bbc ba
ee e</w>
ebc fee
ccc ecc
dee bbbb
bbbc a
fbe ff
bd debd
bbbc bbf
dbc bcc
df bfc
ebf ff
bbbe ebd
ebbc dd
ed bbdd
ccc bcc
ebf bcc
a fbc
beee bbee
ebc ba
bd bbfc
ed eef
ebec bbc
ebb dbb
bec bbbd
bbec bbbb
ebc bebd
bbec bf
ed bbebe
dbe dbc
f bbba
bbd bbebb
dbe ff
dbe bdc
ebbc fc
eebe bbee
dd fcc
ecc eebc
bc bbbdc
dcc ef
bfc ef
dd efc
debf cc
bcf ebe
bf fbf
dd bebc
ee bbbdc
ed bdbd
a bebe
dbe bbbc
ec dbbbe
bef df
fec df
ebf ebc
dee ef
bd bbebc
ebbc bec
dc def
ed eccc
bcbc bbc
ecc bbbe
ec dbbf
bcbe ebe
ee bbedc
dc ea
fc fcc
bf bebd
ebc becc
bd bedd
ebc bbcc
bef bbf
bf eebc
bc e</w>
ebb bbdd
ebb bbef
edc ded
eec bebe
f bbebbc
ecc bebc
f defc
bcbe bec
dbb efc
a fee
bbc beee
be eac
dec bcc
bebbbb cc
bbbe bebc
bf eeee
ebb ac
bbec bec
dd fee
bcebc cc
bd bcebb
bd ecec
bbbc ccc
dbc bbd
ebb bedc
bbbd bbd
ecbe fc
bcc fbc
bbc fee
ed bebf
bbbb bfc
ebd bfc
bbebb ebe
bbbb fbc
ebc fbe
bd fbbc
bc d</w>
ebf df
bbbe eec
dee ecc
bd bcbf
ebb debe
dbc dbe
bd cccc
fc bbee
fec dc
bbc dcc
ec eba
bd eeebb
bbbe bbbd
ec c</w>
ccc bf
dbd ef
bdc ff
bef bcc
bef bec
ed cccc
bdc bbd
ecc efc
fc ebbc
df dec
eec becc
ecc dcc
ba ebe
bcf ebc
bc dbbee
a bfc
bbee dbe
bd eebf
bebe ebc
ed fbf
df fcc
dbb ebec
ed debd
bd bebbbb
ebb ecbe
bbf ebd
dec dec
dee ebc
ebb beed
bbee bec
ed dbbbb
dc eebd
eec beec
bef ebc
ecc fbc
bd dbcc
bcf a
bc bbebf
ed eedc
bd bba
eec ebbc
bbebd cc
f f</w>
bf fdc
eec bbec
fc fec
dbc ebd
ccc ef
ed ebdc
ecc bfc
dc fdc
ebb debc
dbf dd
ff bbbb
fdf cc
ecf dd
ee bac
bebe bbbc
bbf ebf
dec ef
ebe bbbf
fbe df
dc bcee
dbc ecc
efc dd
bbf ccc
beee a
bd eeed
bd bbbec
bcc bbee
dec dbe
eec fbc
ebe bebd
eec ba
fc bebe
bbdd dd
be bb</w>
ebe beebb
eec bef
eec debb
bbd fee
bbbe ebf
bd bcdc
bbc bbbbc
bf ebcc
fed dd
bc bac
bbee bebe
ebb bcebb
bbc fec
ebd fbc
bf ebec
bcc bef
ef fbd
ed febb
beee bebe
ee bbccc
ec eeebe
bfc dd
dbb bdbd
eeef cc
bbbd bbbe
bec fec
bbcc bbbb
bbcc ccc
eebe fc
dec ebe
dbd ebe
bec bcbc
bbf bebe
bf bccc
bfc df
beee ef
bbc beec
bcc dcc
bd febe
eebe dd
ecc ebf
a dcc
ba dc
fbe ebc
eeee ef
dbe bebe
dbf fc
bbee fc
ec efcc
ebb def
ecc ebbc
ebb eeebe
bf def
efc dc
bbecc cc
fbe ccc
bcc bebc
dbd fc
bf ecbc
a bca
dbd df
bbbe df
bbbb dbbbb
eebe ebf
ebb bebbc
bbd beee
ebd ebf
bfc ebe
ed dbbd
ec e</w>
bdc dbc
ebb ebdc
bcdd cc
bcc ded
dc beed
ef bbebb
bbbe ff
bd ecee
bcc bcbc
bf bcbe
bd decc
ee dbfc
ebc fcc
ec deecc
fee a
dee dee
eef bbbb
bf bcee
bef dbe
ef beec
ed bedd
ebf ccc
ea dc
ecc bbbc
bef ccc
bbbd ebe
ebd ebbc
bfc dc
dec eec
ebb eebf
ecdd cc
bbbf bbc
ded df
fbe bbee
dbd a
ebc eecc
dbbbe cc
bd beebe
dee dbc
eebe dc
bcbc bbbb
ecc bebe
bbed dd
debb bbbb
bbec ebe
ecf bbc
eef fc
ba ef
dbd dbe
ebb bbebc
bcc fec
bbbf bf
eebe ebc
efc ef
fee bbc
ebb bdbd
bbf eec
bec becc
fbc df
cccccccc cccccccc
bd d</w>
bd edbd
f dbbcc
bbf bbee
bebc ebc
ebd dcc
bbd bebd
dee dcc
bbbc eec
bd bbbbbbbb
ea ebe
bbbd a
bbbc dbe
bcbbbb cc
bbebe bbbb
bfc bec
ec defc
bcf ccc
ecc fcc
bcee dc
ec debf
eebc bbc
ed dbcc
ebbc ef
ff ebf
bbee ebc
ebb fdc
bdc edc
bcbe ef
bbbe ccc
ebe becc
ee bbbbbbbb
bcf bec
eeebe cc
bbbc bbbd
dec a
ebb eeec
dd fbd
bbf dbc
fbbd cc
ec ebccc
bfc a
ec debbc
bbd bcbc
bdc dbd
eeee a
fbc bec
ebe ded
ec ebecc
bbbc ed
fc dbf
ecbe ccc
ff dcc
bbbe bbec
dbe edc
ecc dbd
dbb ea
be dbbcc
ba ba
bf bbbbc
bebc ef
eebe bcc
ebc ddc
bbbc ebd
beec bec
eec bcbc
eebe bbf
bebc ebe
ecf ef
ed bebbc
ded bec
bbc bebd
bcc bbcc
ecbe a
efc fc
bbbe dbc
ee dba
ebc ebcc
dc eeec
ba fc
ebf ebf
ebd debb
ecbe ebe
dd ebbc
bdc dec
ebd bbee
bcbe dbe
bbf bfc
ff dbc
bedbe cc
ebd bbbd
dd dbf
dcc bbc
ebb dfc
dc ecbc
dc debe
ed dedc
bbd beec
ebb bbbec
bebc fc
bd beef
ee dbbee
efc bbc
fec bec
dee bbf
dd ba
be bbea
ed bbebc
a bea
ed bbef
bbcc ebe
bbd eebc
eeee bbbb
ebc ebec
beebb bbbb
bc dbfc
ecc becc
bbbe bdc
bbd bbed
bc bbedc
ebc beee
dc dfc
efc bec
eeee bf
ed fef
ded bf
dbe bbee
bcf df
bbc eebc
eec fee
bbbc bebe
bcc bbec
dcc ebe
dcc bec
dd bbec
dee bdc
eec bbbd
bbf ecc
fcc ef
edc dbc
fc eebc
eeee bbee
ebc ecbc
ebe bbebe
ec dbbbc
dbe dbd
dc bccc
dc bcbd
fec bbc
dd beee
ff bbd
dcc ecc
eec ebf
efc a
fbe ebf
eec bbee
eef df
bbbc df
bbf fbc
bcbe bbbe
bfc bbbb
ed bcebb
dd debb
eef ccc
ed ecbd
ebc dbf
ff bdc
ec bbccc
bbc bbed
ecf ccc
bec fee
fec bf
ac a
fcc ccc
bbf dee
fdbe cc
ebc fed
eec eecc
ec dbfc
edc bbbb
bcbe bcc
ebb bced
fc bbbd
ebd eebc
ed eebe
dc eeee
ecbe bcc
bebc bebc
bcbe a
dc eccc
ec bbedc
ea ef
bbbe beee
bd fa
fbe dbe
dee bbd
bd edcc
ecbe bf
dbd bec
fcc fc
ecbe dbe
dbd bbd
bbc debb
bbbb beee
ebe beec
ee debf
bbbd bbee
ebb eedc
ebb eccc
bec debb
bbbb bebbbb
a dec
edc bdc
ebb fef
dc bbebb
bbbb bbed
ff ebd
bf bcec
ed bcdc
bbcc ef
bbbe bef
eec bebd
bf fed
ed fdd
bcbe ebc
dc bcec
bbc ebec
bd febc
bbc bbbf
eeee bebe
bbbe ecc
ee ebccc
eebe ecc
fbbbb cc
fc ba
febd cc
fbe bbbc
eef beee
ef bbbf
ea ea
ded ccc
ebd fec
eedbe cc
bec ba
ee bbebbc
dd eecc
ebb febe
bbf bef
bcc ebbc
fc def
ebb bbfc
dec dbc
eec eebc
f dac
ecf a
bbc efc
fc bbcc
dc ac
ed bbfc
ded dbe
bbf bdc
ec d</w>
ebb dbec
eec ddc
bcf bcc
bf bebf
dbd dee
fbc dd
bbd fbd
dec ecc
ebb bba
ebe fcc
ef ac
df ddc
df bebe
fc efc
bd bbbcc
df bbbc
bec bbcc
ebe fbe
ecbe bbbb
ef bbed
ebd bef
bf bcbd
ded dee
ebc bbed
edc fec
ebe bbed
bc bbebbc
bd bbebd
ebf bbbe
ed ecec
be debcc
bcf dbe
ed ffc
eef bcc
bbd fec
be debec
bcf bbbb
ed b</w>
ebc fbd
fbe bdc
bec eebc
bbbc bcbc
dbc bbf
f bb</w>
bbd ebec
ebb bcdc
beec bbc
bcc bbbd
dbc ff
dd eebc
ebb ecbd
ebc eebd
f dea
ebf bebe
f bbefc
fee ccc
bcf bbf
dbe bebc
dbc bbbe
ebb beef
eea cc
ebbc a
bd dbdc
ebc bbebb
fc becc
dec bbbb
ebe eebc
dbb ebcc
bc debbc
bec bebd
bbec dd
ebe debb
ef fbf
ea bf
dcc bf
ec bac
ecbe edc
ebbc dc
bcc efc
bbebb bf
ec bbbdc
dd bcbc
dbf dc
bec efc
ebb dbbd
bd ecdc
fc ddc
ecf ecc
be bbefc
d ebac
ee debbc
eef bbf
bbec ebc
bbebf cc
ebb bcbf
ac ba
bd eedd
dcc ebc
def dd
bbd bbbbc
eebe bec
dbb b</w>
bd eced
be bbebec
ebbc bbbe
f debec
eec bbcc
fbc bbbb
ed beebc
bfc bcc
ebf ecc
eebe ff
a bbbd
ebb bebbbe
ebf bef
eebe ccc
ebb fbbc
fc fbd
eec efc
ebe ddc
bbc becc
fc debb
bd ecbf
bbbc bbee
eef bebe
bd dbbbe
bdc bbf
fbc ccc
bbd efc
ee bbba
fed df
eeee ccc
dc deec
bfc ebc
ee eac
dc dbbc
dc bbbf
dc bbdc
dbf bf
fc ebec
bec ebec
ecbe dbc
f bbea
bef bbbe
dcc ed
bbed bbc
edc eecc
ef ecbc
be dea
ff dee
bc defc
ebd bbec
bebbd cc
bbee beee
bbbc dee
ef ebcc
bbbd dbd
ebd efc
bcf ecc
bebc eec
dddd dddd
ebd ba
a beee
bbcc bf
dc eedc
edc bbd
f debcc
ef bebd
dd beec
ebe fbd
dc bedc
bcbe df
bc bbbfc
bdbd bdbd
bbd bbbf
dbe ebf
beecc cc
ebe ebcc
ebbc bcc
dc debc
bbbe dee
ebbc eec
bf dbbc
ecbe bec
dbbbc cc
bebc a
ebd bebd
df bbee
dbe dec
bcee bbc
ee defc
bebe beee
ebe bccc
ebf fee
bf febb
ef def
fbc a
dcc dcc
edc eebc
bcbc ccc
ef debb
bcbe bbf
ecc bbee
dbd ebc
bbbb bebd
bbc fbd
bbec df
bebe ccc
dd becc
ebe beebe
ef becc
dd bebd
eec fbd
dee ed
bbcc bec
bbc fcc
fbe bbd
bddd cc
ecc ebcc
ecc fed
ebb bbbcc
ebd ddc
eec dbf
eeee bbbe
ebe efc
ff fbc
ebe fec
ebe bbbbc
bc eac
bebc bbbe
ebd fee
bbbc dbc
bbf bbbd
be deecc
ebc ea
bdc bbbe
eec fed
ef bccc
ebe dbf
ded a
bd ebfc
dcc bcc
bc bbba
ebb da
dd bbcc
bef bbee
fbe ed
eec ebcc
bfc dbe
bd dbbf
dbb ecbc
ec dbbee
ebd beec
bd dedc
dee bbbe
bef ebf
ff fee
bec beee
bd bfcc
a ac
ebd becc
ebc debe
bd bbeec
bbbc bebc
eec bedc
ebbc bbd
bedf cc
ecdf cc
fbe ecc
bf bbdc
bebe bbd
bbbd bec
ecf bcc
bbbb bbebe
ed befc
f deecc
dbd dbc
eef bbee
dd ebec
ec dbecc
ebb bedd
a bbec
ed beebe
debb bbc
eef bec
dd ebcc
fbc dc
ed ecbe
fbc ebc
bef bebe
e a</w>
bbbd ef
bbee bcc
ea bbc
ed bcbf
edc bebc
dcc df
bfc ff
ebbc df
ded fc
bec bbebb
bbbe bbcc
ebf dbe
dd fdc
edc ebb
bf bbef
ed fbbc
fee bbee
fcc bec
bf beebb
bbbd dbe
beec df
ebcc bbc
bbbc bbec
eddd cc
ebd eecc
ded dbc
bbf bebc
bcc bccc
bbebb bbebb
ebe eeebb
dc bcbe
ee deecc
bdc ebf
fc bebd
ecf edc
ded ef
dea cc
ebe ebec
ecf bec
bcf eec
bfc dee
fbbf cc
bcc fee
dbd eec
bf bbebe
ecc bbec
ff bef
eef bef
bcc fcc
ebbc dbe
ebe bebf
bbd becc
fbe ebb
ddc fc
a fcc
df fec
bcbc fc
bf eecc
a bebc
bbbd dc
bd e</w>
bbcc fc
ff bbbe
be bbebcc
ecbc bbc
bbd bbdd
eebc bec
df fbd
ef bcec
ecc eebd
beee eeee
bd eebbc
ebe bcec
dee bbee
bcf ebd
dbe dcc
dbd bdc
dbd ccc
ef ebec
bbbc bdc
bebe bdc
bcbc bf
ecf ebc
bbbc bbbbc
ecc eccc
bbbc bbebb
bbec fc
dbd ed
ecc beec
bcee bf
ecc bef
dc fbf
fbe dbc
dd bbed
bcbe ccc
eebe bdc
dee ebd
bbbb bcbbbb
df bef
ebc bedc
fbc ebe
edc efc
dbf bbc
ef bbef
ef fdc
dc ecbe
bcc eebc
ebbc ebd
ebbc bbf
eef bbbe
bbbb beebb
ecc cccc
dd ea
ef eebc
ff bbee
ee bbbfc
eef ebf
bca cc
bbbd bbf
bf fef
bcf edc
bcc eecc
bcc beee
fcc eec
bbbe bcbc
ebc bbbf
bebc dd
ebc debc
ed eeebb
fc bbed
fc ebcc
bec ebcc
ebc bcec
ecc bcbc
ebe ecbc
fbd dd
bbd bdbd
bbd bbdc
bbbc ebf
edc bbf
dbc bdc
dee eec
dcc a
dbc ebb
dec ded
dec ed
bec bbed
bbbd df
dc fdd
bebbbe cc
ebec bbbb
ff dbd
ecbe ebd
dec ebd
bebc df
a bbcc
dbf ef
dbc dbd
fee ff
bd ecebb
bcbe ed
bbec ef
bfc bbf
ec bbebf
a fec
dc ebdc
bebe dbe
eec debc
dbbee cc
ecc eedc
ecee ccc
ec debcc
ee bbea
edc ebf
dc bbdd
ebb bcbbbb
fee beee
fee bbf
ecc ecbc
beec bf
bc bb</w>
ebe eebe
ba df
bbbe ebbc
eec beee
edc dbd
bd c</w>
ed bbbec
dd bbdd
edc dcc
dbb ac
fee fc
fbc ff
eef ebc
dd bdbd
bec fcc
ebb ecec
ecbe dcc
bf dbbbb
bcc ebec
ecc bebd
fec ef
bbd fbe
eebbbb cc
bebe ebf
ebd bcbc
ebb bcbbc
bbd fcc
ed beef
dbe bef
fbd bf
dec bdc
bcf ebf
dbf a
bcbe bbbc
bbbd bbbc
dbc bbbc
dd fed
bc dba
ebe bcbd
bbbe dbd
bbcc ebc
bbec dee
bebe bef
ebb eeef
ed febe
bbc bccc
ebe eeebe
bb ee</w>
bcbe eec
ed beecc
fbc bcc
dddd cc
bbee ccc
fbd df
bbbb bbdd
bf debe
bf dfc
bbee bbebb
dc dbec
ee dbbcc
fbd ef
beee fc
ebb deec
ed eeed
ed edcc
ebe bcee
ebec bec
bbcc bcc
dd def
dec bbd
bf eebd
dc decc
bebc ccc
dbe bbec
becc bec
bbed bbbb
eec dfc
eeee bbc
fee df
ded bcc
dbe bbbd
ff edc
bdbe bec
ba bbbe
ebe dbbc
ebb bdbc
fbc bbf
ddc ef
fbe ebd
ecc ebec
dc ecec
da a
bbec a
bd dccc
bebbf cc
ed dbdc
dbd bcc
bbbd fc
beee bbf
ebc def
bfc eec
bdbe fc
bcbc dd
ea bbbb
bbebb bbbc
ebcc fc
bf eef
dec dcc
bd ebbcc
bbbe bbbbc
bef bef
dbc bebe
bebc bcc
bebd bbc
fbc eec
dc ffc
fee bbbb
ef fef
bbee bbbc
bbee bbd
ef bcbd
ebc bcbd
ecbe bdc
ebb cccc
dc eeed
ebcc ebe
bcbe ecc
bbcc dd
beebd cc
ccc bec
ef dbbc
ea fc
bf fdd
ed ecdc
ebbc bbbc
bcbe bbd
ef bcee
bebe ecc
ebe bbef
bbbe bbbf
bcbc bcc
ebe fbf
df efc
eebc fc
bbf dbd
bec dbf
ddc bbc
ef bebf
bbbe bfc
dbc dec
bdc ded
ff eec
dcc dee
eebe edc
bbbb debb
bdc fbc
fee bebe
bbbb edc
bbec dbe
df bebc
ebc bccc
ebb fdd
ec ecccc
ed dccc
dc bced
dd fbe
ef bbebe
bcbe dee
dd dbbc
bec fed
bbbe ba
ed bba
ed edbd
bf da
ecc debb
fec bcc
ee ecccc
bbc fbe
ebc dfc
dcdc dcdc
a fbd
bbcc eec
dd debe
a bcbc
fec fc
ebe bbdc
ec bbbbbbbb
bcdf cc
ecc ddc
ebc bbbbc
ebb febc
edc fbc
bbf ba
bef bbd
df ba
bf eccc
ef bcf
ebd dbf
a ded
dee bbbc
dee dbd
bbec bcc
ff bebe
a bda
bf beed
ebb ffc
ebb fbbbb
bb ebac
bf dbb
f bbebec
dc dbb
edc bfc
bdc bbbc
eec fcc
dd eeee
bcbbd cc
ebf bbee
ed ecf
bebd bbbb
ebd fcc
fee bcc
eef dbe
bbebe bbc
ed eedd
bbbd ebc
a ebbc
bd debf
ff fcc
bd dbbbc
bf bcbf
dc bcf
bbec bbd
df ded
ef beebb
edc fcc
dc bbbbc
bdc fec
fc dbec
fc beee
ebd ebcc
ebb debd
bd bbecc
bba bbbb
bec fbe
ebf eec
bbebb bbf
becc eec
bbc ddc
dc eebe
bcbe bbee
bd eba
bec eecc
ebf bbd
dd dbbbb
ebf bbbc
bc debec
ebe febb
ebf bdc
ed d</w>
bebe bebc
bbbbc bbbc
eef ecc
dcc edc
bbbe fbc
ccc eec
ebb eebbbb
dc bdbd
dcc ebd
ded eec
bcee fc
d ebb</w>
dc febb
dbe bfc
eebc bbbb
dbe fbc
dc bebf
ebcc ebc
df dbf
bc dbbcc
ecee bbc
ebb bbebd
bf ecbe
a bbbf
dbe bcbc
edc ebbc
ded ebc
beee dd
ebf ebd
dec bbf
dc ecbd
ecc fbd
a efc
fbe eec
dc da
ee dea
ff bbbc
a bbebb
ff bfc
ecf eec
ecc fee
bef ebd
dc bedd
a ddc
ba bec
df ebbc
f eb</w>
beee ccc
df bbcc
ded dec
fee bbbe
ba bcc
ebe bcbe
beec dd
bdc bfc
ee debcc
dbbc bbbb
becc bbc
bbf bbbf
dbc edc
bbebb bec
efc dee
ebcc ef
dbd ebd
be f</w>
bebd dd
a dbf
bbf ebbc
ebc eedc
bd eeebe
fbbbe cc
bcee dbe
bbbb dec
ecbe ef
bcee bec
ed fa
bbc bcbd
ebc ebdc
fbe bfc
bef eec
bbbb ebec
bc deecc
cccccc ccc
bdc dcc
eebbd cc
ebd fbd
bbc bbdc
ebc bbdc
bbebb bbd
bbebb bebe
bebc bbd
ecbc fc
bbf edc
ba bba
df bcbc
ecbe bbbe
bdc bebe
dc beebb
bbec eec
bbbbc bbbe
dee ff
bcc becc
ebc eccc
be dbbbbc
ef fed
bec fbd
eebe bbbc
ebb ecf
ebc eeec
ebf ed
ebc beed
ecbc ccc
bcc beec
eecc ccc
ecbe ed
bebc ebd
bcf bbd
fc fed
bf debc
debb dd
fcc bbc
bbf fee
bc ecccc
eebe ebd
dee dec
ebf dbc
bcf bbbe
ebb bdbe
dee ddc
bebd bec
bbee df
ea df
bcf dbc
ec dea
bef ecc
ebb decc
efc bcc
ebb eeed
ebcc eec
bbbc ff
dc bbef
bbbbc bbbbc
ebcc dd
ebcc bec
dc eef
bbd bcbd
dbbc bbc
edc beec
eeec bbc
ba dbe
ac ea
bcbe dbc
ba bbf
a eeee
bef dbc
bb ed</w>
ed bebbbb
ec dba
d bf</w>
ecc bbcc
bbec bbbe
a da
fc bbbf
bd bbbdc
ef febb
bbbb beec
bef bdc
bcbc bec
edc becc
fbd bbc
bbbb bbdc
ebd ebec
bbd ea
ec eac
bebe df
bef bbbc
bbbd dbc
edc debb
fc bccc
ebb dbcc
ded ebe
dee bbec
ebb edbd
bebe ff
bdf df
ed eebf
ebd debe
dbbbb bbc
ecbe df
bbebb ef
bd ecdd
bbbb dbf
bcec bbc
dec ff
bcbc ef
ecc fdc
bebc bbbc
bec ddc
ebc bcee
ed bbebd
fcc df
fc beed
ed febc
ebb edcc
ebd beee
ecf df
eca cc
bf bedc
ebc dbbc
dc bcdc
fdbc cc
eeee bbf
bec bedc
bebe dbc
bcc ddc
bdc efc
eebc dd
eec ea
bbee ebf
beebb ebe
bbbb fee
bcbe ebd
fc eecc
ed bebec
ef bbdc
bf bced
eebe bbd
ebb ecebb
ed bea
eeee fee
eec def
febf cc
ecbc dd
ebb bdcc
eec ebec
ed bbecc
bebe bbebb
ebbc dbc
ed dbbf
ecbe bbd
ec debec
bbbc dbd
bbbbbbbb bbc
bcf bdc
eebc ebc
bdbd dd
bbed bec
ecc bedc
ebe eecc
bebc dbe
ebb fa
fc bcec
bbed bf
fec a
bc dbecc
ebbc dee
beee bcc
ebb b</w>
bb ec</w>
bbbf bbf
bebe ebd
bbc eebd
bbbbbbbb cc
bbbd bcc
dcc dbe
dc ecdc
df fdc
ba bbd
bfc bbd
f be</w>
ebbc ecc
eedf cc
dc eedd
dbd bbbe
bbf bbec
bef dee
ebf edc
becc ccc
ef beebe
fc deec
ebf beee
ebd bbcc
ecbc bec
bcf dee
ec bbbfc
dbd ecc
bcee bbbb
ebb eebbc
dbe bbcc
bbbbbbbb bbbc
a fbe
ec bbebbc
ed bfcc
bbc def
bcc fbd
dcc ff
efc ff
fc bcbd
ebf bfc
eebe eec
ec deccc
bbbe edc
bf ecbd
df fee
bcec bec
bebc dee
ef beed
dec beec
ecf ebe
bdc bbee
fcc dd
bbebe bbbe
dbc fbc
bbbb bcbd
ebec ebc
f bbebcc
bebc bbf
bbbc ecc
bebc dc
fc ecbc
bcbc ebe
bbc ea
dec dbd
fed ccc
bf fbbc
bcc ba
bef beee
bd ebbebb
dbb ecbe
bbbc bbcc
ef dfc
ebd ecbc
ddc eec
dcc dbc
bcee ccc
bbc debe
bbbd bebe
bdf dbe
dbb bddd
ecc eeec
bbbf bbbe
ebec a
eebc ccc
bbbd dee
bf bbfc
bf bcebb
bd eeef
bec beed
bebc bebe
ed bcdd
dd ac
ebf dee
ed bebcc
dbb ebdc
edc bebe
ebd ea
bccc cccc
ebc fdc
dbf df
bcf bfc
ebc febb
ed dbbbe
ecc ea
dbd bbf
bbc fed
bd efcc
ef da
bbc ebcc
dc ecee
bcbe bdc
ed bcbbc
ec dedcc
bbed df
dcc bbbb
fbe ba
ebd fed
fee fee
fbd bec
ded bbbb
bcc ebcc
dc fef
eeebe ebe
bbbd eec
edc bbee
fbc dbe
edc bbbe
ebbc bebe
ebb eedd
fc dfc
dbc bbee
dd eccc
ebb bebec
ecbbd cc
ddc ebe
bdf bec
dba cc
bbec bbf
dc bbebe
bcec dee
bf ffc
eec ecbc
bf eebe
dd eebd
ccc ebe
eec dbbc
fc fbe
ebf fbc
fc bbebb
beec bbbb
bbc eeec
fc bedc
becc ef
bbf dec
efc dbe
bbec bebe
bcc fed
bf eebf
ba ff
bcbe ff
be be</w>
fec dee
bc debcc
bbed ebe
ebb beebc
ecc bbbd
ebc bebf
dc dccc
ef eccc
dbd bbbd
fc ea
bf ebdc
bec def
dd bbebb
bdbc bbbb
ebbc bbee
ef bbbbc
ebb ecdc
ed bbbcc
bf bbebc
bcc dbf
eec eebd
fc debc
dbd ff
ddc ddc
bdbc bbc
bcf bbbc
bdc bbbd
dd dfc
be debdc
ef beef
ebb bdebb
ded ded
bdbe bbbe
fec dec
ed debf
ebec bcc
ed eced
ebd eebd
bebc ecc
fbe dee
ed bcfc
dc bcbf
be eb</w>
eef bbd
dd bcbd
bbf bcbc
ebd debc
edc bbbc
fbc dee
bebbbc cc
edc fed
ddc ecc
bbc bcee
dc dbcc
ebbc bdc
eef bdc
bf bebbc
bbf bbebb
df ac
bbed dbe
dd bbdc
ecbbbb cc
ebb dbbbe
be dac
ee bb</w>
df bbec
ebb ebfc
fee bec
bdf bbbb
eebc a
eebe dbc
bcbc bbbc
edc ebec
bebbee cc
dc dbbbb
bbf bbcc
dbb ecbd
bdbe dbe
bbd eebd
bdbe a
bbc dbbc
dc dedc
bbee dbc
bbbf a
bbdd bbbb
bbbbbbbb bbbe
ebbc ebbc
ecf bdc
bbd eecc
bbc eecc
bcc bebd
fc ac
eef dee
bbd ebcc
ed bcebc
dc debd
ebb bcdd
bbebb a
ecc bccc
bfc dbc
debb ebe
bbee ebd
becc ebc
eec bbed
dc edcc
eebc ef
ddc bec
fc fbf
eef dbc
bf dbec
beff cc
fec ff
bbee ff
efc dec
debb bec
bf bba
bbbe dec
ecf bbbb
bbbf ef
bcec dd
bbebe ebe
efc ebc
bbc beed
bfc bbbc
ecc debc
eec decc
bc dea
bbbd ebd
ebec dd
bf febe
bd dbbee
bcee ebe
ebb bea
bcee a
dbe ba
eef ba
bbc ecbc
edc eebd
bcee df
eeebb bbbb
dddd dd
ebb bcebe
dbe beee
dbe beec
bf cccc
bf bbdd
dc b</w>
bbbf ebe
ecc beee
ebf bebc
ec dbbcc
edc fee
bf bdbd
bec ecbc
ebbc ff
eec fdc
ebb bebbd
ed bcef
ddc bcc
ebb ecbf
efc bbbb
efc ebe
ecf ebd
bbbf fc
bdc bebc
dbc ded
edc ebcc
bcee ebc
bc bbefc
dbf bbbb
bbcc a
bdf ccc
ebec fc
bbd fed
bbec bbbc
ebb bded
ba bca
ef eecc
fbd fc
ba bbbc
bbbf bec
ecc edcc
dbc ebf
fee eeee
beebb bbc
be bbac
ecbe eec
beec a
ddc df
fbd a
ebb befc
ecc dbf
ee bbefc
dee bebc
bbed a
ebb eba
beec ef
ff dec
efc eec
bcbd dd
bc bbebec
bbd b</w>
ed ebfc
dcc bdc
ed bebbd
fcc a
bbf dbf
ebb ebbcc
beec dec
bbdc bbc
beee bec
f dbbbbc
f deccc
dc eebf
dbc bef
ea dbe
fdc df
ded dbd
bf beebe
fee dbe
ebcc bbbb
bbec ebd
bebe eeee
bbd eeec
dd dbb
fec dbe
ebe beef
ebbc bbbd
eec eedc
eebbf cc
ed eebbc
ebec df
dbc dcc
ccc ebc
bd ebecc
ebb ecee
eebe dbe
bbc eeee
ebe ac
ecbe bbf
eebe ea
bbc bcec
fbef cc
ed e</w>
ed fbec
bbc bebf
ebe eebd
fbc bfc
bba a
eebe ba
ecbc ebc
eebc df
ccc df
fbc bbd
edc bebd
bf eeec
dd eeec
ecbe dbd
bebe eec
dd b</w>
bbebb ebc
ccc bbbb
bbbc bef
bcc bbed
ec ebdcc
bdc bef
becc fc
ed c</w>
bbebb bbee
bf bdcc
bcbe bbec
bfc ebd
bbbe beebb
bf bbbec
bbcc bbcc
bbf beee
eec deec
bbbe debb
bbdc bbbb
ebb bdf
dbc bbbd
bedbc cc
f bd</w>
dd debc
dbf bec
becc a
beec dee
ddc ebc
bcc debb
bebd df
fbc ebd
f debdc
ebe fdc
dbb bdbbbb
dcc dec
bbc fbf
bcec df
bbc bbebe
dcc cccc
bbc beebb
eef ebd
bbbc bfc
bcbc ebc
bbf fcc
ebe bedc
ebe fef
ecc decc
bbbc ebbc
ebe eebf
bbec bbec
ebb bdbf
bbc bbef
bbed dee
dbb bdbc
def fc
fbe bbcc
dbd ded
def ccc
eebc eec
eecc fc
ff dbf
ed bbeec
ebe beed
bbee bdc
dc eced
bfc ecc
bbd beed
bcbe edc
dbc bebc
dbd dec
eebc bcc
ea ccc
dc bdcc
ebe debe
dd beed
bcbc a
ebc fbf
ded bdc
eec bcbd
ff ddc
ebc eeee
bbd fbf
eebe df
eec beed
ee debec
bec debc
dc dbbd
dec bebc
dee bebe
bbebe bebe
ebb bbeec
ebe febe
dd ecbc
bb ebb</w>
d ef</w>
bbbbbbbbbbbbbbbb bbbbbbbbbbbbbbbb
bf beef
ecc ebdc
ebbee bbee
ebc cccc
ecc ba
ef cccc
ebe eccc
dbc bcbc
bbbe bbed
f bc</w>
fbe edc
bcee bcc
fc dbbc
bd bac
bcbe dec
dd fbf
ebc ecbd
ea ba
ed fecc
eecc eec
df bbbd
bbec dec
bdbe bcc
dd fdd
bbd beebb
fee ebf
bfc bbbe
bbcc ebd
ebc bbebe
ebe bebbbb
dee edc
ec bbba
fbebe cc
bbd eeee
bbbb ded
ac da
def a
bcee eec
dbd bebe
ebd bbed
bbbbbbbb bbbbc
dd da
ecf dbe
ff ba
bbf fbd
ef dbec
eef eec
ef bced
ef debe
eebe bbebb
bbbd bdc
ecec bbc
edc ddc
dd bccc
ed fbcc
bdf bcc
dbe ded
fcc bf
fcc ff
eebc ecc
ebb bdee
bcee dee
ebbc bebc
fcc ebc
fbbee cc
bef bfc
fed bec
ed bcebe
bbbe bebd
ef ebdc
eeec bec
bcf bebe
ccc a
ebbc dec
eec bccc
bdc fee
bbbe bebbbb
ebc bced
bef bebc
be bc</w>
be bd</w>
beec bcc
bef ba
bf eeebb
bbbb fbe
fbc fbc
eeee ebf
bcbcbcbc bcbcbcbc
eccc ecc
ebe debc
bbee dee
ef fdd
bfc dec
ecbe dee
ecee dbe
fc bbdc
ea ff
def dc
ebb dbbf
bc ffcc
bbbb bbbec
debb a
bbee bbec
bebe ba
ddc dbe
bcf dbd
bf bebbbb
ddc a
ebbc edc
ef eef
bec bbbf
ef febe
ebf ba
bdbe ebc
ebb eced
ebd bbebb
fec eec
fbc ecc
bcbc dee
bebd a
debe bbc
ebb bebbee
bebc ff
fdcc cc
fbe dec
ebb bebbf
bebc dec
bbee eec
dbd bbbc
bebe edc
dcc bbd
eebc ebe
eeec a
ed ecbf
ddc dee
bbee bef
bbcc bbbc
dbc bfc
bcbc df
f bbac
dbbd bbbb
bbec dc
ee bbebec
bf ecbf
eecc bec
debb bbbe
debb ebc
ba bea
ef debc
ecbe bbbc
dbe bbebb
ebbc ebf
ed beebd
ebd def
bfc bdc
bbbf ff
dbe dbf
ba dee
bbbb fbd
fbbbc cc
bcbe ebf
ded ecc
ccc dee
ebd dbbc
fbc bbbe
ebc beebb
dbb eccc
bcf dec
ecee bcc
bbd bbebe
ef eeebe
ebe bced
eeee bef
ebb bcebc
bf ecf
bbf fec
ef eebf
ebb bcef
ff fbd
ecbe ddc
ec debdc
ebd dfc
bbee ecc
ebcc bcc
ed ebbcc
fbc dec
bbc dbbbb
bebe bbcc
ebcc a
bddd dd
fee bdc
dbe ebbc
beee ebf
bd dbfc
bbec dbc
fc fdc
ccc dcc
f ee</w>
fcc bcc
dc dbdc
ef eebd
beee ecc
bbd ecbc
ebc ac
ee bbebcc
beee ff
eef ea
bcebd cc
bbc bedc
ccc ff
bbbb bbbcc
bbbe bbebe
bbbf dd
bccc bcc
eebc bf
edc bef
ebe fed
becc ecc
bbbbc bec
dbe bebd
bdf bbf
bbd bebf
edc ecbc
bbbe fee
bdc ebec
ebe bcebb
eec da
ebb bcfc
ddc dcc
dbd dcc
bbd febb
ebb dedc
efc dbc
bcf bbee
bec dbec
ee ebdcc
eec debe
eec bbdc
ef bcbe
ebe def
ded beec
bcbbf cc
bfc fbc
eebc bbf
eecc ecc
bbbb bebf
beee bbbc
bec beebb
dbe fcc
eecc bbc
dd bcee
ded dcc
bec ea
ebb bfcc
bbcc df
ecee ecc
be bbeccc
dc ecbf
bcc eebd
bbbf bbbc
fec ebc
bbbb bdbd
bdbbbb cc
eef bbbc
dee bef
eccc fc
dc bded
ebe bba
ac bbc
bf fa
dec bbbe
eecc ebc
debb fc
bbbb bcbe
ebb fbec
edc eedc
ed fdf
ee f</w>
ebe dfc
beee fee
bec bcec
bbbb bbebc
bfc ebf
ebd bedc
ba ccc
bdbe bbd
ebbbbbb cc
bda cc
bdc ebbc
dc bbfc
bbebb bbbd
dee ebf
fec dbc
fbc dbc
bebbbb bbc
bbee bebc
ed eba
bbcc bbbe
eccc dd
def bbc
ecee a
ebc bbdd
bebf bbc
ed edbf
bd bbccc
bbd bedc
dc bcdd
ebec bf
bbed ef
debb df
dc eeebb
ebb bddd
dd bcec
bebe bcbc
bbd bbbbbbbb
fbe bbec
dbe becc
bbbb eebc
ebc deec
fbe bbebb
dc beef
edc debc
a eba
ed eddc
dc bbebc
ebc bedd
bec deec
bec eebd
edc ea
bec bbbbc
bcc ffc
dbf ccc
fbe dcc
ac df
ac dd
bbbb dbbc
dbe debb
ebcc ecc
ecf dbc
dee bcbc
ecec df
bbbe beec
bdc bbec
ebc dbec
ff bcbc
bcc eeec
eec eeec
dec bef
a fbf
bf bcdc
ed eeebe
fed bbc
ed ecebb
dbe ddc
bbbe bbbbbbbb
a bdbf
bbee ba
ebb bbecc
ecf bbf
bbee eeee
dbf ff
bcc bbebb
ebe eef
beebf cc
ef ecbd
bbbb dcc
bbbb bccc
fcc ecc
bec bcbd
bdbe df
bec bbdc
bbec bebc
eec bbebb
bbcc bbd
f ed</w>
efc ded
eec ebdc
ebe bebbc
bdc beec
bfc bfc
dd dbbd
ebcc edc
dd bbbf
eec eccc
bebd ebc
ebcc bf
bbbc fbc
fc eeec
be deccc
bdc ddc
dbc fee
eecc a
bec bccc
dbd bdbd
bb bf</w>
bbed ebc
bbc bbdd
bbd bcec
beee bef
bd bbedc
eec dbec
ebb bebcc
bcbbbe cc
bd debbc
ebcc ebd
ed bedbe
edc eccc
ebf dec
ebec ebe
bbbc dec
beee ba
beebb a
bd bbebf
bec eedc
bcc def
ebb bdbbbb
dbe fee
bdc eebc
ecc ecdc
dd cccc
bbf dcc
dd d</w>
f ec</w>
df ea
bfc bebc
bd bb</w>
edc fbd
bebd ef
ebb fbcc
bebe bbbd
bcf dcc
fc debe
bbd fdc
debb ef
bbbb becc
ebb dbdc
ed defc
ba ebc
efc ecc
dc beebe
dbb ecec
edc bbec
eeee ff
bbbb bbef
dd bedc
ebd bbdc
bbbb fbf
bbd bccc
bbcc dbe
dd decc
bcee ef
bdc fbd
dbbbb bbbd
bcc bbbf
dbf dbe
dc edbd
bbbb fec
eedbc cc
bcc bbbbc
bd defc
bf deec
fbe ea
bbc bcbe
beee ebc
bbc febb
ddc dbc
bec dbbc
fbe bbbd
ebbc fbc
dbb bdcc
ebb bdec
edc eeec
beec fc
ddc dbd
bcbbbc cc
bdc eecc
bec dfc
bbbe dcc
bebd fc
beec dbe
fed a
bbba cc
bbf bbef
bbcc ecc
fec ded
dbb cccc
ebec ef
ebd bbbf
edc bcbc
bef dbd
bef dec
edc dbf
eebc bedf
bbc debc
ebe bbebc
ebe ebdc
bbf efc
ebb bddc
bbbb bebbc
bdbe bbbc
def df
ed feec
bebe bbec
fed dc
bf ecec
ed efcc
ebb bcbec
ecbe dec
beed df
beec ebc
dee ba
dd dbec
bc bbea
eec dedc
ee deccc
ed fbbbb
dee ebbc
bdf dbc
ecbc bcc
ebb eea
eebc ebd
fdc ef
eebbbe cc
fbc bbbc
ecbc ecc
bbee ebbc
ebf ebbc
bdc dbf
bdbe ebd
beebb bbbe
bd dba
eec bcec
bcf bebc
bec eeec
bbec ecc
bbebb bbbbbbbb
bdbe bbf
dc bcebb
dd deec
ed dbbee
dd ebdc
dbe bbed
ee bbac
ebe dbbbb
ded bbd
ecee dcc
ef eeef
eec bedd
bcbe bfc
eeebe eeee
ded ebd
ef bedc
bbec ff
ed deecc
bec debe
ebcc df
bebd bf
fbe ebbc
eebc dbe
bdf ebf
ebe bdbd
dd eedc
bbbd ccc
fbc bebe
a ebec
bbbbc bbd
bcbe dbd
dee bfc
bbbd ff
d a</w>
bdf ecc
bbbc beee
bdc bcbc
ecee fc
bbf beec
bebc dbc
bdc fcc
bbbe becc
bbbb ea
cccccccc cc
fbe dbd
bdbe ecc
dc febe
bcbbbb bbc
ebb bbbdc
dbe fbd
eebd bbc
ebe bcf
ebb ecbbc
bebe fee
dcc dbd
ef bcbf
bcee ecc
eeebb a
bf dbbd
ed ecbbc
fbe bbbf
dc fbbc
fc eccc
bbbc ba
bcbd bbc
bbef bbc
ec ffcc
fc da
ed dbbbc
ebb fbbd
dc febc
beec eec
fdbd cc
dbb bded
bbbb febb
ddc dec
bbf debb
bbf fbf
bdbe ccc
ebe cccc
f db</w>
bdc bebd
ebe eeef
bebe ebbc
a debb
ebf eeee
eebd dd
bbbb efc
dbc bbec
edc dfc
be db</w>
ed ecdd
dc ecf
ebb fecc
be bbebdc
bdf ebd
ebb bbebf
ee debdc
bbbd bbebb
ecbc bf
ef eeebb
bcf bef
dc bcef
dbbc dd
eef dcc
bfc bef
bccc fc
dbc fec
bbbb bcbbc
ded ff
ebe bbdd
edc bedc
bbd bcee
ebbc dbd
ebf bcbc
bebbbb bbbe
fee bef
ded bebc
dc bdee
ecbc df
fbd ccc
ebf fcc
bbdc dd
ecbe bbee
dbe fec
bbbbc bcc
bdbc dd
a fed
dee fbc
ef fa
ebec ebd
ebe bbbec
ded bbec
bec ebdc
a bbed
dbf bcc
fbf bbc
ea bcc
fbd ff
dc ecdd
ebc bcdc
ebc decc
dbb edbd
ed beeec
ebc bbef
ebf dcc
bbbf df
ebe dbec
bdf eec
ebb fbbf
ebec dbe
eebc bbd
bcf ebbc
ebf dbd
bebe dee
a beec
bbcc bbf
beee dbc
bdc debb
bebe beebb
ed debbc
bccc bbc
bebe bfc
ecc dfc
dc c</w>
ec f</w>
bc f</w>
bcee bbf
bcbe bbebb
ecee df
ebd eedc
edc bbbd
edc decc
fbebc cc
ebe eeec
ef fbbc
ebf bbbd
ecc bcec
ebec dbc
eec fbe
fc bbbbc
ea dee
ebbee bbbe
debb bf
ebb bfbf
bbbb eeee
bbbb bcebb
ed bcbbbb
bbd bbef
bdc ba
bba bbc
bcbe bbcc
ff bbec
fc eebd
ecc bbed
ee dac
beec bebc
dbbbb bbbe
ec bbefc
bbee bbbd
eebe dcc
ef bbdd
dc bddc
ebbc bbec
ebec dee
bcbc bebc
bcc fdc
beee bbebb
ebb bedbe
bcbe dcc
beed dd
ebc debd
df becc
eebe bbebe
ed edbc
bbee fee
beed bbc
bf bcef
bcbc eec
ecee dbc
ebb febd
bcbc bbbe
fc eedc
ebe da
dbbbb bbbbbbbb
fbc fec
bc dbbbd
beee bbd
ded bbf
eebc dbc
ebf bbcc
bc dbbbbc
bfc dbd
ecbc bbbb
bdf bbd
dd dbcc
ebd fdc
beee dbe
ed dbfc
bd ebccc
dbb bdebb
dc bddd
bef bbec
bdf dee
dec bbbc
bdc becc
eecc ef
ec befcc
dbf ebe
ebc ecdc
dc bebbc
ed eefc
ebb fbbbe
bef dcc
ea bec
ff efc
dfc df
def bf
ebd eeec
ef bba
dd bddd
ccc dbe
ddc bf
fc beebb
bbebb bcc
ff fbf
eebef cc
ffc df
bbc fdc
ebb edbc
ba dbc
ebe ecbd
bbbd bebc
bbbbc bf
bdc fed
bcbc dbe
ebd ebdc
ebd eccc
beed bec
ebec bbbe
ebb dbbbc
dec bbec
ecbc ef
ecee ebc
ff fec
becc bcc
bbbf bcc
ebe bcbf
ea bbf
bcf efc
bef bbebb
dfc fc
ebe bbfc
fbd eec
ebd bcec
fcc fec
eebc edc
dbd ddc
bdbe eec
ea bbbe
fbc bdc
dec bebe
ed eeef
debb ccc
debb bbd
eebc bbbe
bc dac
ff beee
bbed fc
dbf ebc
ecec bcc
ebec bbd
bebd eec
ff bbcc
bdbbd cc
dec edc
eeec df
dbf ecc
ebb bbccc
dbb d</w>
eebe ebbc
ebd febb
ed febd
eecc edc
dee beec
ec bbfcc
bcee dbc
bef ebbc
ebe bcdc
ba bebe
bcbc bbf
ebd bcbd
fdd dd
a bebd
ac fc
ba bdc
bcec dbe
fed bf
dc bdbc
debb dbe
fbd ebc
dbbbb bbd
ef ffc
fec bbbb
becc edc
dec bfc
fec bbf
ebe bdcc
bc bc</w>
dbf bbf
debb bbf
fbc bebc
bc bbebcc
bcbc bbd
bbbbbbbb bbbd
ed bedf
ff bebc
bcec fc
dcc bbf
efc bbf
bcf bbec
beee df
ebd beed
fee dbc
dd bbbbc
bf dbcc
ecbe ebf
eedcc cc
bbbc bbbf
a eebc
ef eeec
ef bbfc
dbb bdbf
efc bdc
eebe bbbd
deec df
bf eedc
bbbb fcc
bf fbbbb
ebb bebbbc
dbb bdee
dcc ded
ebec eec
bebd dbe
bced dd
ee dbbbd
bbebb fc
eef bfc
eef dbd
dee bbcc
ecc fdd
beee bdc
ccc edc
bbbb bba
bcc bedc
dbbbb bbbc
ed debcc
bf bcbbc
bf edcc
dee bbbd
becc ebe
dc dddd
ecbe ff
ed ecee
ed fbbd
fc bebf
ebec bbbc
beebb bebe
ed eea
fdc dd
ecc beed
bd bbba
bf eeebe
beee dc
ebc da
dbb ecbf
ef bdbd
fec bdc
bf bfcc
eebe bbcc
bbbf bbd
bbbb ebcc
fa a
ebc bcbe
beec dbc
bcee bbbe
bcc ea
bbdc ebe
bcc eeee
ecbc eec
ebb eddc
eeebb ebe
ecbc ebe
bbbbbbbb bbbbbbbbbbbb
fee ba
bef edc
dee dbf
bbbe eeee
fee ecc
ef bbebc
bf bbbcc
bebe fbc
bedcc cc
bbf bbed
bbc ac
dbc ebbc
ed beccc
febb a
bbdc bec
bbbb b</w>
ef bcebb
bccc bccc
ed bebbbe
bebc bbee
bebc edc
ebb bebdc
bbbf dbe
bdbc fc
bbdd dbd
eebd a
ecbc a
bf febc
bbbf ebc
bbbb fbbbb
ebb bdbbc
ebbc bfc
ecf bfc
bcf dbf
bbdd bbc
febb bbc
bbf bbbbc
df fbf
bbee beebb
ebd fbe
dfc dd
da dd
dcc fec
debb bcc
dbd edc
fc ebdc
eebd bec
fbc ebf
bcbe bbbd
bcdbc cc
bebd bbbe
fee ebc
ddc ff
eebd ebc
bf befc
debb eec
fee bbd
bccc dd
fdd df
bbed bbd
bf edbd
ecf bbd
bdf bdc
bf fbbd
bdbe dee
febb bbbb
debc df
ecc eedd
bbbec bbc
bbef a
efc bbd
eecc dd
efc bebc
ecec bec
ecc ecbd
bbed dbc
eef bebc
bbee bfc
bcbd bbbb
eebe bbbf
bbbbc ebe
ebd bdbd
fcc edc
ed eddd
def bcc
bbed eec
dc befc
ebf bbec
ed ebecc
eeee ba
ee dbbbbc
eebd df
bef bcbc
bbcc bdc
bbef bbbb
fc fef
ef deec
eccc ebc
bd eac
ddc bbbb
def dbe
bbcc ff
ef bcdc
bbf ea
bdee bec
bdbe bdc
beebe ebe
debe dd
f bbebdc
bc debdc
bc eeeecc
dbd bebc
bbcc dee
ed beedc
eec beebb
ecc ac
bbbd dbbbb
dc ebfc
dc fa
bd deecc
eebd fc
bbbec bbbb
eeec dd
df ebcc
beec ded
bf bdbf
ecf ebf
efc ebd
eec bbbf
bbbcc bbc
ddc bdc
bbf fbe
ebb beebd
bfc bbec
ef bdcc
dec becc
bbebc bbbb
bf ecdc
fbf fc
df beee
bfc ded
ebc ffc
ebdc bbc
bcc eedc
ebec bdc
eccc bbc
bcc bcec
debc bec
bdee a
ecc bedd
bdbe bbee
df fbe
bebc ebbc
bef eeee
fbd dbe
ebb ecdd
fbd bbbb
bebf bbbb
bcc bbdc
ebd bbdd
ac bec
eebbee cc
ebf fec
bbbc bbed
ebcc dbe
ecbc dee
eebe bbec
fbf ef
dbc beee
bebc ded
debe bbbb
dbbd bbc
bebd ebe
bf bdbc
ebec bbf
ba bbee
bbbe dbf
bbebe bbee
dbbc bec
ebec ecc
ecec dd
dfc bbc
a fdc
fc bcf
ebec dec
ebc bdbd
dbd fbc
bcc fbe
ee ffcc
bc befcc
bef ea
a becc
bbcc dbc
bebbc bbbb
ddc ded
bcbe ebbc
fc eeee
ddc ebd
bbbf bebe
ec dac
ba bbbd
bdf bbbe
bbbbc bbbd
eebc dc
bcebb bbbb
bbebb dd
ebc bcf
ecf bbbc
ff ac
bcc ecbc
dbb bddc
ba ecc
dbd ebf
ecdbc cc
debb bbbc
bcc bcbd
bbbbc bbf
bccc ecc
ccc dbc
ff ebbc
bbee fbc
bcbc ecc
dec fbc
def bec
bdee fc
bef dbf
bbd ac
ccc bdc
ebb feec
fcc ebe
ebdc ebe
ba ebf
ecbc dbe
fbf a
fbe debb
fdc bec
ecf dcc
bdc beee
bcc bcee
ebd deec
bebd bbd
ebc ecec
fbd ebe
dc fecc
bebc bfc
ff ded
bedc bec
bbbe ea
bbdc ef
ebc eebe
ebd bebf
fec dcc
bcc beed
ecbd dd
bebbc bbc
fc bced
efc bbbc
ff ea
ddc bbd
dec ebbc
bc ebfcc
ecf bbbe
bef bbbd
eebc bdc
bfc beec
bebc bdc
dbf dee
bebd dee
fed ef
bebd bebe
becc df
dc eddc
bf eeef
dc d</w>
ebbee beee
eec bbbbc
edc def
bf eeed
bdf dbd
dec fec
eebc bbbc
d ebe</w>
ed bebdc
bbebc bbc
ebd decc
dc bba
ebc eebf
ee be</w>
fc bcee
ecc def
ed eebcc
eecc bbbb
dec ebf
a def
bbebb bebc
dd febb
beec bbd
ac ef
da bca
ed bbbdc
a bbbbc
bf bedd
ecbc bbf
ed bac
ecbe bfc
dbd bbee
bbec bdc
ba ea
eef ebbc
bebe bbebe
dcc fbc
bbed bbbe
bbc dfc
bbec ded
ed bbedc
ebb fdf
bbc bdbd
fc bbfc
ebc bcebb
ecc eddc
bcc fbf
a fa
df fed
dee beee
ecc bcbd
fc febb
ebb efcc
beec bbbc
bdbe dbc
ebb dccc
ecbc ebd
bdbc ebe
bbee bbebe
ebf efc
edc ebdc
fbc bef
bbf ded
ecc febb
eebc dee
a bcbd
dbb eced
ebc eedd
bbef dd
bdbc ef
ed eeebc
eebc ff
bbed ccc
ebb edbf
ecc edbd
dbf ba
dbe def
dbc fcc
a bccc
f ebac
ec dcccc
eebc dec
eec ac
f dd</w>
ebbc bcbc
ed dbecc
ebd da
ebc bebbc
eeee eeebe
becc dd
bd dbbcc
eef dec
eeee beebe
dc bbbec
ebd bccc
eec bebf
bec bebf
bebe ea
ec bb</w>
beebb ef
dc bfcc
eecc bcc
ebf ea
bf debd
bcbe ba
fc bcbf
bdec bec
dbe bccc
beec ebe
bbbc fee
bbbe fbd
ebd bbbbc
edc ba
dd bedd
fbe dbf
eeec bcc
ecc debe
bbf bebd
bbebb bbbbc
efc bfc
ebc fdd
be bbb</w>
dbb ecebb
bcbebe cc
ebcc bdc
fed bcc
ebd dbbbb
bcbbc bbc
bebe bbbf
fdc fc
ebc eeed
bbee bbcc
bcee bdc
dbd bef
bdbd bbbb
eccc bcc
bf ebfc
bbfc bbc
eccc eec
bcbc dbc
bcee efc
ebbc bef
fec ecc
eebe bfc
bbbc bbbbbbbb
bbebb dbe
eeee dd
ccc dec
bbbd ebf
eebbbc cc
ebd dbec
fc decc
eccc edc
ebc edcc
dbb ebfc
eeee bcc
eef edc
bbbcc bbbb
bf bded
ee eb</w>
bdf edc
df debb
bf fdf
ecf dee
beec ff
dd ffc
ebc dedc
bbbc bebd
ebb bbebbc
ebbee bebe
d ebc</w>
ecee bbbb
dc bdbf
dcc ebf
dc beebc
bbee dbd
bbbe ebec
bbbe ded
ec bbebec
bcbd df
fba cc
bdbc bec
bcec dec
eec debd
bbd ebdc
eccc bec
bdf dec
fbf ccc
bdee bbbb
ecee dee
bebf a
fbc edc
bbbc beec
ebc bbfc
bcbc ff
ecc dedc
ecc bbdc
bbcc edc
bebd bebc
dcc fcc
eeec bbbb
ebc bbebc
efc fec
dbc beec
ecf dec
ec ebfcc
dd edcc
bbc bced
d ebd</w>
ecc ecec
bdbe ff
ac dee
ebf bbbf
dbbc ef
ed fdbe
ed bedbc
dc fbec
dc efcc
ebb bedf
bbbd bbec
ebcc ff
ecccc ccc
fbd bcc
bd debec
fbd dee
bb a</w>
bbbc edc
fed dee
bbc bbebc
bebd bbf
eebe dee
ebcc dee
fbc ded
fdc eec
bec bedd
bf dbbf
bbbc ded
bbbe bebf
fcc dec
bdc bbcc
becc bbbb
dbbbb dd
a febb
bbbbc dd
bbc bebbc
bebc ebf
bcec bcc
df bccc
bfc dcc
ed eebbbb
dbe ea
bbed bcc
bbed bbf
bbbe fec
bbc bcbf
bbc bbbbbbbb
ebb dbbee
fee dcc
becc ebd
ee bc</w>
bd bbebbc
ebe fdd
efc dcc
ef dbcc
bbec beec
ecbe bbcc
ef dbb
bbee dec
ed bbccc
dbf bbd
dc ddcc
bbee bbbf
fc ffc
bdc eebd
bbc dbec
dc bbbcc
bf bcbbbb
bced dee
dbe eebc
dbc ddc
edc beee
fc bbef
fbf ff
eecc df
ebbebb bbbb
bcee bbd
ebd eeee
eec bbdd
ed fedc
dc eddd
fbe efc
ebbc bbebb
bbec dbd
bdee ccc
bbc bbfc
ded ddc
ebe bea
fec fec
ed dea
eec eeee
dbc ba
dc bdec
ebf bbebb
eebf a
ecee bdc
ebc dbbbb
ebb eddd
ebdc dd
ebb ebecc
bdbc bbd
bcec ded
deec bec
bfc bcbc
bbed dec
ef bebbc
bbbbbbbbbbbbbbbb bbbbbbbb
eeebe beee
df bebd
dbe bcbd
bebc bcbc
bebc bbec
dbc debb
ef eebe
bedbd cc
ebdc fc
ebf fbd
ff bbbd
bbbe bccc
ebcc bbd
eec febb
bfc ebbc
ebb fdbe
dbb dddd
df def
dbb ecf
bbbc debb
dbbc ebe
bcee bbec
bf bebec
dbb c</w>
ecec ebc
bebe dec
bbdc fc
ecc eeee
ecec fc
df ecbc
bcbe dbf
bcee dec
ebb debf
fec bbd
bbebe bbf
ecbe ebbc
fec ebe
bbee edc
dc feec
ebdc ebc
ebb bac
dd bced
bcec ebc
bcec eec
dc e</w>
bd dfcc
dc bcbbc
bbc eedc
dbe efc
ccc bccc
bdbe bbbd
bec fbf
ebd fbf
eebe dbd
ff fbe
ff eeee
bcf ba
dee ded
dbc bebd
bbed efc
ed ebccc
bbee bcbc
f de</w>
bbef ebe
f bf</w>
bbbe fbe
fcc bbf
bfc bebe
dbc efc
beebe bbbb
ebb e</w>
bbea cc
ed dfcc
bdf dcc
fdc a
eba a
beee beebb
bcc debe
bcbd ef
bef efc
dbb ebbbbbb
ebb ecbbbb
bf decc
df eccc
fbc bcbc
dbbd bbd
ccc bbf
bbebe bec
bcec ebe
bf bcfc
bc deccc
bbbbc a
dbc bbcc
bef bbcc
ecee bec
ccc ebd
ed ecebc
acc a
be ebac
bbbb bdbbbb
dbc eebc
fef a
bcf bbcc
ed ecfc
bbbd ba
dbb bdbbc
ecbc bbd
ebcc bbbe
beed a
bebe bebd
bf bbeec
dbd ba
dbc bbed
f dedcc
dd bebf
ee bbebdc
ee bd</w>
ebec ff
beec bbf
ecbe dbf
ecc deec
bbbc dcc
fc bbdd
bbc bbbec
ea bbee
bc dbbdd
debb ebd
bbec bbee
bdbe edc
ebbc ded
fed dec
bbbf bbbf
df bbed
dbc fbd
bdee dbe
fc bedd
bebc bbbd
dd debd
ebb bebbebb
bbbb ebbbbbb
ddc edc
bf fbec
ecbd bbc
dd beebb
bc dcccc
bc bbac
bebe dbd
bbd bebbbb
beec ebd
bebc fbc
bd dbbbd
bbd eedc
bfc fee
dbb ebbebb
bf b</w>
beec bbbe
bebe bbbbc
febb ebe
bbebe bbbc
fed dbe
dee fcc
bcf bbbd
fed ff
be ec</w>
dbb ecdc
bbec bef
bcee bbbc
bbc bcebb
df bcec
df ebec
bcbe ded
debc eec
ebc fef
bcf ded
ea bba
dbb ecee
bd dbecc
bf beebc
df fdd
dbc dbf
ecbc dec
bbef ef
bc bd</w>
ed eeecc
debc ef
bec fdc
ed fccc
eebd ecc
bf fbcc
ebb ecebc
ebc bcbf
bbdc eec
bec decc
fbc efc
debc bbc
be ed</w>
bbbbc ef
edc fdc
bced bbc
ebd ac
eef bbebb
bdf bfc
fbf bbbb
eef bbec
dbb e</w>
bbdc a
bdc ebcc
df bbbf
ebf becc
ed eebec
bc be</w>
ba eec
bebc fec
fdbf cc
ed ebbebb
be ee</w>
bbbe dfc
ebb beff
bf eebbc
dd dccc
fcc fcc
ebc bbbec
bcbbc bbbb
ebb ecbec
eecc ebe
bdc bbed
def ef
bf bbebd
bcbc ebd
ac bcc
bebd bcc
bf bcebe
bc eb</w>
edc debe
ebb bbba
dbbc bbd
febb ef
ed debec
bcee bbee
bbbd ded
eeebb eeee
dcc ddc
fee bbbc
dd ecbd
dee bbed
efc dbd
bcbbbb bbbc
ecc ffc
df bcbd
bbf bebf
ee dbbdd
ebc fbbc
bef bbbf
bbbe eebc
edc bbcc
ecc eeed
ebcc dec
bebd ebd
eecc ebd
dbb bdbe
fea cc
bebe becc
dbec bbc
bbebe a
bcf ddc
ac ebe
ecbe bbec
ebb eefc
dc eeef
f bbeccc
eef bbcc
bedc eec
ebc febc
bbdd bbd
bd bbbfc
ebc edbd
dbf ebd
bdbc a
ebc dbcc
bd dea
fef ef
beee beebe
ff bccc
bdec bbc
ebb bca
ebbee bbf
dee becc
bcec ef
ecc dbbc
dec bcbc
fed fc
ee dbbbf
bdc eeec
bfc bbee
eebd bbbb
bbbd bdbd
dc ecebb
dcc bbbe
eeebb bbc
fcc fbc
ebb ecebe
dee bbebb
ebe fbbc
fcc ebd
ded bef
dbb eba
bf ecebb
bcbe bbed
dd eeed
be bbbbbbbbbbbb
ec bbbecc
ed ecbec
bcc eccc
eec ecbd
bfc fec
bbbd dec
ded bbbe
bebf fc
bbebe ef
debe ccc
dcc bebe
fbd bbf
ebc ecbe
bebd ccc
fef ff
debe bec
ec bbebcc
ebc beebe
fee dee
df eecc
bccc ef
dbe dbbc
ebcc bbf
bbbf ccc
eebc bebc
bbbc fec
fdc ff
dbd debb
ebbc beee
ed bebbf
bbbbc bbbbbbbb
bbebb ebf
bc dbbebb
fcc dee
bbdc bbd
dd bdcc
dec debb
ebb beeec
bebe beec
bf ecee
bdbc eec
bcc dfc
bbdd a
dbfc a
ba dbd
dbf bbbe
ebcc dbc
fc dedc
eebc ebbc
fbeee cc
bf bcebc
bbef ff
fbc dbd
bcc dbbc
ecf bebc
bbec bfc
eccc ef
dc ecef
df beec
bbef bbf
ed dba
dc eeebe
bbec ebbc
fbc bbee
bbec ebf
fbc ebbc
def ff
ebe eedc
fec bebc
bbebb ccc
bbbe dbbbb
bccc bec
eef dbf
dbec bec
ed eeccc
becc ff
bbec bbbd
bdf bbbc
ed ebbbc
bbd bbebc
bccc eec
eebd eec
fc fbbc
f debfc
bcbc bebe
ddc bbf
ecc bcee
ebe bebbbe
edc beed
ea fee
ebe dbcc
ebdc eec
eebebe cc
dbbc a
dbe bcec
bdbc ccc
bf eba
ebd beebb
ebdc a
bf eced
ebd debd
bbbb bbfc
bbd eeebb
fed dbc
bbbbc fc
bbdc df
dc fdf
ebf fbf
bedc bbc
eef bbbd
edcc ccc
bdc def
bf fbbf
bced df
dbd bfc
dc dbbf
bf bea
ebb d</w>
ef bded
bcbd bec
bbbe efc
ac bbbb
ebe fa
bcbd fc
fec bfc
bbdc ebc
da fc
eebc bebe
bbbf bbee
beee bbebe
bcebb bbc
ebf dbf
ba ebd
bbcc bebe
bdbc bcc
bbebb eec
ec bbea
bbf becc
ecbe bbbd
edc deec
dec ddc
bedc df
beef a
bbd bebbc
debe a
bbbbc dbe
ecbc dbc
bdc beed
bc fbecc
bebd dbc
edbc ccc
bebd ecc
dbb bdec
bbdc dbe
dbbc fc
ebb febf
bebbbb bbbc
ed fbbf
debb dee
ecec ecc
bc dedcc
bec febb
ff def
eef bbbf
bbc eeed
fcc dbe
eebe bbef
bc dbbed
dbf dbc
dc fbcc
bc db</w>
bbbb ddc
bd debcc
bbd bba
bebd bbbc
bbbb eeebb
ebb beecc
dfc dee
bec bbdd
ef dbbd
bdbe dbd
bbbe bebbc
becc dec
ecbd ebc
bbc eeebb
bfc bbef
dd fef
ebbc bbcc
dbb ebbcc
bf eedd
bbd bedd
bfc bbbd
bbebb beebb
ea ebf
dfc a
efc fbc
bebe bebf
dbf eec
bec bbebe
bbd fbbc
bebc bef
bedc ef
fbf df
bbed ff
bbdc dee
ecbc edc
eeebf cc
bbebb ebbc
bcc bebf
ebc febe
bcbe debb
bbec fbc
bbd bbfc
ba beee
bec bebbc
ecec dbe
ec bebecc
dc eded
bbbb dbbd
dec bbee
dbf bdc
fef ccc
ee dbbebb
eebf ef
bf bdee
efc beec
ded edc
dd dcdc
eebd edc
bbd bced
bbc ebdc
bec bbef
ecf dbd
bebe beebe
bcee dcc
a ebcc
ebe ecbe
bbbc eebc
bdbc dbe
ebc dbbd
ef bbbec
bebc beec
eedc fc
ff fdc
dee fee
bbebb ebd
ea dbc
eebd ccc
efc bef
bbc bcf
ebe dbbd
bfc fcc
eef bbef
bbbe febb
bcc beebb
ebe bcbbc
fbd dbc
bbbbbbc bbbb
ebf bebd
fec ebd
a bcec
ec feecc
fbbcc cc
dd bcdc
bdbc df
bbbc ebec
fbd ebd
bec eccc
ebf bebf
dbbc df
fbe bbebe
ed bbebf
dc eebbc
bbc fbbc
ba bef
eebc fbc
ebf ded
bbcc cccc
bbf ebec
dbec df
bbd bcbe
bbc deec
debb ecc
bbd eebe
fbe ded
dc bcfc
dbe bbbf
dbbc dee
debb dbc
ed fbdc
dd ecdc
bbbd bef
bbc bbbcc
bbbe bbebc
ecbd fc
bbee dcc
dbbbb dbbbb
bfc efc
ebd edcc
fed bdc
bcbd a
ea bdc
beed ccc
bec da
ed ecef
dc bcebe
ecc bbbf
ebe eba
bbc bebbbb
ebbc dcc
bec bbebc
bebe dcc
fbe bbef
ee dbbed
bbebb ff
ebe bedd
fec dbd
dbe ebec
ecdbd cc
eec dbcc
bc dbbbf
ef dbbbb
bec bced
ebb beebf
ebcc bbbc
bec ac
ecbc bbbe
bbbbc bcbc
bcc ac
bbf eebc
ebb c</w>
a bebf
ecc fbf
bcbd dee
bfc ba
ebbbc bbbe
dd ecec
fcc bdc
bbbb beed
ebd dbbd
bec bcee
bbbb bcec
bbcc bcbc
ebb bdef
bfc edc
bdf bebe
eedc a
bdbe dec
bf edbf
def bbf
debe fc
bedbf cc
bbbb bcbf
bbc bcbbc
ebd ecbd
efc fee
bbed dbd
dbbc dbe
ea ebc
ed bedee
bbebb beee
bedc a
dc febd
fec bebe
ecf ebbc
eeed dd
eef ddc
debb ff
bf bdebb
beec beec
ef eba
dee efc
ebb ecef
dbb bfcc
ebe bbbcc
eedbd cc
bcee ff
be dedcc
dee bcec
bbd bcebb
ea bebe
fc bbebe
bdee df
bbbe bbdc
fbc fcc
ebb fedc
ebc bcdd
ecf efc
dbbc bcc
bbdd dbe
bbbe bbef
ba fee
dc edbf
ec dbbbd
ebe deec
bebd ff
dc dbbbe
eebd ef
fbe ddc
bbd bbbec
ebdc ebd
ebdc edc
ee dedcc
ecc bced
bec eeee
ebb bbbfc
fbc dcc
bbcc bbee
debe bcc
dbe ac
bcf ea
debb bebe
bbebb df
beec bdc
ebb ebccc
fbc fee
ebdc ef
bbed bbbc
bbbf dbc
da bba
ebe ecdc
dbd beee
debb bbbd
fc bcdc
be dd</w>
bbd eeed
dd edbd
bebd dec
dd eedd
bbf bccc
fc ecbd
bbbb ecbc
bbf fdc
dfc ef
bbec bcbc
bbc fef
bec ffc
eec eedd
ebd bedd
dc bebec
dc ebbcc
dc bbeec
beebb bbee
bbf febb
fdd ef
dc eefc
a dba
bcc bbef
dbd fee
ccc bbbc
ea bef
edbc df
bbcc ebf
fcc dbc
bf ebbcc
ed ebbbf
bbed bebe
ecec dec
ed eedbe
dbd bcbc
eecc dbc
eeebe bebe
bebbcc cc
ecc bbebb
bbcc dec
becc bdc
ec fbecc
dbb edcc
beebe a
bbbd beee
bbbe bcbd
ecbc ff
bbc da
bbc eebe
bf ebbebb
bbbd fbc
bbbb debe
ecc fbe
eec ffc
bcfbc cc
ebb debbc
bebc eebc
dc bdef
bbc bedd
ea bea
fcc eecc
eeec dec
ded bebe
ebb eded
eedc dd
dbf ebf
dbb bdf
dbb bdbbd
bcbc dec
bcbe ddc
bbbe bbbec
ebb bbedc
bf bddc
bef bebf
bbf ddc
eebd dbe
ebbc efc
bef beec
eec bebbc
ebec bebe
bdee bcc
dbbc ebd
fcc bfc
fbd dec
bcee ebd
ecec dee
ed ecbcc
bbbbc bebe
eeebe ef
dcc bbbc
eeec ef
bcee becbbec
beebe bebe
bcf bbbf
bbbbc ebc
ed deccc
bebc debb
becc becc
bcbf fc
eedc bec
ff fef
bebc dbd
ecbe ded
ac bbf
ecbc bdc
beebb bbf
bdbc dee
bf dbbbe
ecc bebf
bbbb eebd
debc dd
bbec bbebb
bcbebc cc
ea beee
bbed ebd
dc bbebd
fbd bdc
bdcc ccc
ebdc bec
dbbc bbbc
dbc eeee
fcc efc
ebcc ebf
ac ff
eeebb ef
bdbc ebc
bdbe ebf
bbef fc
bd dbbdd
ecc bcdc
fcc ded
eebc ded
bdbc bbbc
bba bba
dc bebbbb
bcec a
bcc debc
eeebb bbbe
ebcc fbc
bf bcdd
bebc bebd
beec bfc
ecc dbec
dcc eecc
eec bced
df bbebb
bcbc bdc
ea bbd
bef ded
bcbbee cc
eef bbebe
ee fbecc
f dc</w>
dc beecc
bbcc dbd
bbc b</w>
ebec fbc
beec bebe
dbc fed
bbbd bebd
ebcc bebe
bbbd bbed
be bbeba
fbd bbd
dbbc bbbe
dfc bec
fee ebd
bccc ebc
fec bbbe
df eebc
bebf ef
bbbbbbbb bbebb
dd bbebe
bbc ffc
def ebc
eeec fc
ea bca
eccc ebe
fec bbbc
bf bbecc
ebbc debb
eecc bdc
dbbc eec
edc edcc
bbcc bfc
bcbd ebe
ff bbbf
beed dbe
ed fdbc
dd bddc
fcc bbbb
ac ebc
dd bbef
fc fdd
bf fdbe
dcc fee
be debfc
ebb dcdc
eeec dbc
eebebc cc
ed bedcc
ba bfc
fcc fed
bccc a
bbbd bbdd
eebc ebf
eef ded
edc ecbd
ebbc bebd
bcc eeed
eeec dbe
fc bbebc
bbee bbed
edc bbed
ccc ded
ee dbbdc
df bcee
dcc efc
edbc ecc
ba fbc
dec efc
fec beec
ebb dced
ebd bbebe
dbb bb</w>
ed ebbbd
bbd bddd
dec fee
dcc bef
ee bbeccc
ebe ebbebb
ebf fdc
dfc dbe
ef bcef
bf bdf
bbee beec
ecee dbd
bbbd bbbbc
bbbd debb
bbbc bbdc
bf bebbbe
ccc dbd
fbf bbf
beebe bbbe
dc bedbe
ec dbbbbc
dc bdebb
bbebb bbbf
debe df
bdbd dbd
ba ac
dbf fbc
ebbc fee
eeee bec
bcf ebec
eeed a
bcec bbbb
becc fec
eebd dbc
fdd bec
bf bcbec
bbebe bcc
debe bbbe
ed eac
ebd bced
bbbc beebb
dc bbecc
dec def
dcc bfc
ed eedf
bf bdec
eeed bbc
dbf dbd
bbbd bfc
edbc bec
bef ddc
dbec dd
fc dbcc
beed dee
ccc bbd
becc dbe
beec ecc
fc debd
bbbd ebbc
bbdd ebe
bf bebcc
bdee ecc
decc eec
bcee bebc
bcc febb
eeec bdc
ebdc df
eeec bbbc
bcbe efc
bcbd dbe
ebb fbbbc
a fef
ee ec</w>
ebf ebcc
beee bcbc
bebbbb bbebb
bcbbcc cc
dbbc ebc
bcbbbb bcbbbb
deec dd
ecdc ecc
edbc ebd
ebb ecfc
dcc fed
bebd bdc
bbee ea
beee ebd
bbbe ddc
ecbc bbbc
ecee ddc
bebd dbd
dbec ef
bbdc bcc
debd dd
bbc ecbd
ed eebbd
ee fbccc
ec bebccc
fbd ecc
eccc ebd
bdf efc
bc bbb</w>
fbf dd
dec ba
fec fbc
eebf ebe
dc ebecc
bebbbe bbbb
ebb fbebe
edbd dd
bbd fdd
bbf eeee
edc ffc
bbfc fc
eec bbebe
da bbc
fec bef
ebec bebc
a beebb
dbf bbbc
bbcc bebc
bf bbbbbbbb
bdee ebc
be bbebfc
dc eba
eebc bbee
ac dbe
bccc bbbb
ea bbbc
ed bebbbc
ebec dbd
bf ecbbc
ccc fcc
ded bfc
ebf debb
ebdc ecc
ecbd ecc
a bbdc
dc bedf
bbbf bfc
bdbc bbbe
ed ececc
bbcc fbc
bc bbbbbbbbbbbb
ed fbbbe
bdec dee
dbe fdc
bbd bcbf
bdc fdc
ec be</w>
dbf edc
dfc ebe
a dbbc
bdbd bbc
bdec df
ebc bebbbb
efc bbbe
dbe fbe
bbed bbed
ed dbbcc
bdc bcbd
ac eec
fbd fbc
bedd dd
fc bebbc
beebe bbee
eeee bbbc
ecbd bec
bbcc bef
fc befc
ded bbbc
dc bea
dbe beebb
bbebb bbec
bbf beebb
beebe beee
bcc bbdd
dbd bbec
bbd fef
ecf bef
bcbe bbbf
def dee
bdc ea
edc bcbd
bac ba
bbc bcbbbb
a bbef
ecbc bebc
a bbebe
ed acc
beed dec
fbe ebcc
ecf bebe
f bbb</w>
eeee beebb
ebc bdcc
bb ef</w>
beec bbec
bbf bcbd
eedc df
bc feecc
bbc eccc
debb bebc
ebc eeebb
ebbc fec
dbf da
fcc bebe
bbbe dbbc
eebe dec
ef b</w>
fc ecec
fbc fed
bbcc bbbd
bbbb bcee
ebd ffc
ebbc eebc
eef efc
becc dee
beba cc
eec fbf
eebe ddc
bbbe bcebb
ecf bbec
eeee ebeebe
def dbc
bedc dd
ef debd
bdc bbdc
fbc bbec
bbbf ebf
bf ecdd
eeee ea
bbd bbebd
fec bcbc
fbbc bbc
debb edc
bbbe ebcc
bbbbc bbebb
bbbf bbebb
bf ecef
ef edcc
dec deec
fbe bbed
dee bcbd
eedc ecc
fc bdbd
bedc ebc
ebe dbb
def ecc
df dfc
eced ccc
dbe debe
a fdd
ba bbebb
ebec bbee
ebd bcee
ecee bbf
dbc bcbd
bbbd ecc
ee db</w>
ebb fbdc
dc bcebc
ebf beec
eedd dd
df da
eeee beef
debb bbee
dee bccc
dee eecc
edc dedc
ebe decc
fdebb cc
ebbc beec
bbcc fee
eec bcdc
bef beebb
ebdc dbe
bbbc bcbd
fef dd
bbbe fcc
ff fed
bcc fdd
dbd bbdd
dc bdf
df bbdc
bebd edc
debc ebc
fec becc
fdc bbc
dcc eebc
ef ecdc
def ebe
ebf febb
ebec ded
bd ebdcc
bebc becc
bcbe bbbbc
ed fdee
ecbc bebe
ecbd ccc
fc eeed
bcc bbebe
eec bdbd
bcc bced
ef befc
bdbe bbec
bdbc ebd
bdc fbe
ba bebc
ecee bbd
bbbd bcbc
dbb ecbbc
ec bbbccc
eeec ebc
fbd bfc
eecc dec
ea ecc
bebf bec
debc ccc
bcec dbc
bccccc ccc
ebbc ebec
bf dccc
bbc eebf
beed bbbb
bcee dbd
bc dbbdc
fdc dec
efc ebf
bcbe ebec
debc fc
bbef dbe
dcbc ccc
ebe ffc
ebbc bbbf
bec debd
ebb fbbee
febe a
dcc bebc
bec dedc
fdc dee
ecbe bbebb
dc fedc
dcc bbee
eebd ebd
edc febb
bbbbc bbee
bbed bebc
bcf beee
edc bedd
bbc dbbd
bbc bcdc
ebb fccc
dbe bbdc
def bbbb
bcc ebdc
fed ded
bf febd
fc bdcc
dee bebd
dbb bfbf
def bdc
edbc eec
dbc ebec
ecf ddc
ebb dbfc
fc ecdc
bfc dbf
ef bedd
ecc bbdd
bef bbef
dbec eec
bf dbdc
bac ea
bcdbd cc
bbd ecbd
bbbe eeebb
edc eedd
ebf fbe
bbed bdc
efc bcbc
dbc eebd
dc debf
bdbe bbcc
bbd ffc
efc bebe
bc dbbebe
dbd dbf
bbbb ac
dd eebf
dbc bbebb
ba bbbf
debb bdc
bbebe beee
bbfc df
ecbc fbc
bdf bbee
bbbe fbf
bec eedd
bebf ebe
dd bcdd
bbbb fbbc
f deba
ebf beebb
ebbbc dbe
bedc fc
ecf bbcc
fbd bebe
eecc dbe
eeec eec
ebb fdbc
ea eec
decc ccc
be defcc
ba bda
dbc becc
beebe eeee
dee eebc
ecc fecc
ee ed</w>
ee ebac
beec dbd
bbd eebf
ff bbef
eccc a
eebd bcc
bcee bebe
bbbe bcec
dbbc bbf
eebd ebe
edc eeee
dec bbbd
ecc ecdd
dec beed
ef bea
dfc bcc
bbbc dbbbb
dbc debe
bf fecc
eeebe a
ef fdf
bbbc bccc
dc eeebc
df debe
ebcc bfc
bbdd bbbd
ebec bbec
bbed ded
bf bebbd
debc a
eeebb bebe
bec ecbd
bcbc bbec
bd f</w>
bcbc bef
bbbf bbbd
ebf bccc
dee debb
ebc beef
bebf bbf
ebb eac
fbf bcc
beebe bbc
ed ecbbbb
dc bebcc
beee bebc
ebe edcc
ebe ecec
bbbf ebd
dc fdbe
ebc dbb
beec becc
eecc ff
eeed ccc
dbbd a
bbbc becc
ebc befc
dd dbdc
eccc df
dd fbbc
fee ea
ebe debd
edc bccc
bcbf bbc
debb dbd
ecf ded
efc ebbc
def dcc
bbed bbec
dcec dee
dec fcc
ebc bcbbc
ec eb</w>
bf eddc
ebec dcc
bcbc bccc
bbfc bbbb
bedebb cc
ebc bbbcc
bbebb bef
ebf eebc
eccc dee
ff becc
bbef bec
fbd dbd
dd eebe
ebbee dbe
bbdd bec
bbc bba
df dbbc
bbee fbe
efc edc
ebe bcbbbb
dbf bfc
bea a
bcee edc
dbec dee
bcf ac
bced bec
bdbc dbc
bbd d</w>
bdf bef
dc ecebe
dbb ecdd
beee ea
bcec ecc
bbebc bec
bbcc bbec
bebbbd cc
bbbbc dbc
ebec ebbc
ecbe ba
ec defcc
bebd ded
deec eec
debc dee
ebb bedbc
fef df
ebc bba
fec fed
be deba
fec ba
bcf bbebb
beee ebbc
bbd febe
dec dbf
fbf bec
eccc dcc
ebbbc bbf
efc becc
fbc fbd
ebb dddd
ebd bbef
fee bcbc
dbd ebbc
beee eeebe
dc fbbd
ecbc ded
debe ef
debe dbe
dd eeebb
eebc eebc
eeee eeef
eebe bba
bcee bfc
bbdc ff
bbbb bebbbe
ed bbbbbbbb
fed eec
dc ecdf
ebd ecdc
ebe fbbbb
bbf dbbc
bbbbc bbec
bbebe bbebb
bcec beec
edbc a
ed ebbed
bc dbbef
bbdd df
bbbc fbd
ebcc bbee
fdef cc
ebf ddc
bebd bbee
bdc eeee
fec efc
bbcbbc bbcbbc
ef ecbf
ecee edc
dbd beec
febb fc
ebf fef
dc bcdf
bbd bdcc
ecf bbee
ec dbbdd
ecc febc
ecbd df
eced dd
dbec dbe
bced dbe
dbbc dbc
ecbd eec
bbbb bbebd
bebbebb cc
bf bca
bbbf bebc
fbbbd cc
ef bcbbc
fbd edc
ed efdc
debb ebbc
f bbebfc
bbfc bec
ded becc
fdc ebc
ecc debd
fbc ba
eebd bbf
fbe bbbbc
ebb bedbb
bcbc bbbd
dec bebd
fee eec
ebd fdd
bef bebd
a bcbf
dbc def
fcc ebf
dbbbb bbf
bbbe bcbe
bbbf eec
bdbc bbf
a eecc
fee bebc
ebb dcbd
fee dbd
eebc dbd
dec bedc
ed eca
bbc fdd
dbf bebe
ee dbbebe
fbc beec
ef decc
febb ff
bdc bbebb
debe bebe
bdbe bfc
ebbc bbed
ccc bfc
fbf ebe
beee bbbd
bef bbed
fcc bbd
dbb edbf
dc bcbec
bcee beec
becc eecc
bcbc dbd
ba bbec
fcc bebc
bbdc ebd
beed eec
fbc debb
da df
beebb bec
fcc cccc
fc eef
bef debb
bcbc bbee
bf bebbf
deec bbc
ed ecebe
dc fccc
bcee ebbc
ebc eef
ef bbbcc
bdf bebc
eeee bdc
ecbd dee
bcc bdbd
becc bebc
ef ecec
bbbf dee
eeee bbebe
bdee bbf
bbef df
ebe bbebd
becc bbf
bbdc dbc
fc bcbe
ebb efbf
bbbc efc
eeee eeebb
fed dcc
bbbbc df
edc ecdc
dbb eddd
ff bbebb
ef ecbe
ec fbccc
febb bbf
ed bedbd
ebd cccc
bf fccc
ebcc efc
ecbc dcc
ccc bbbe
ded fbc
ebec bbbd
ebe bfcc
eedc eec
eebc bfc
eebc bbec
eeed df
ebe eebbbb
ed bedbb
bbbc dbf
dc bcbbbb
ded bbcdbf
bbbec bec
ef bbeec
dd c</w>
eeee bbebb
dbbc dbd
bbbb fed
bbbc bbebe
bf bdef
bbd bcbbbb
ecbc bbee
eedc ebc
ed beff
ebbee bbebb
fee fbc
dbe beed
fbd bbbe
ec bbeecc
bcc ecec
dc ecbbc
edc debd
dbb bdebe
dbec a
bbed bbbd
dd ecbe
bbd eef
bbbf bdc
eebe ac
bbbb def
dd eef
bbc eef
bcbc ded
bcc bedd
ba edc
bef bbebe
bbd bcf
bf e</w>
bbd ecec
dbb ebbbd
eec ecdc
bbef bbbe
fbe dbbc
bf eebbbb
beebe ef
ebc ebfc
ecc bdcc
dc bdbe
bbc ecec
bbef bbee
bdf ebbc
bbc febe
fec edc
bbbbc bebc
eebe ebcc
bebe bccc
fec bbec
dc bfed
a b</w>
eebc dcc
da dbe
bbdc bdc
fec fee
eecc fbc
bdee dbc
bbcc ebbc
fbbbf cc
ebec bfc
ecc eebf
debe ebc
dd bcbf
bbed bbee
bbc dbcc
bbf fef
dbd bebd
ee ee</w>
bf feec
ebe ecbf
eeebe bbee
a ecbc
ebe edbd
fec ddc
da ba
febb bbbe
fdd eec
bbf def
bbf fed
deec dec
bec bbbec
bcc bcbf
bbdd ef
bbdc bbbc
beebb bbbc
bbec debb
dcccc ccc
bcbc bbcc
efc ba
dd bded
dbe bbebe
bdbc ff
dbe bced
ded ebf
dbe fbf
ebd bebbc
bbd cccc
eeec ecc
ebc eced
bf efcc
fc bcebb
a eea
bbf ac
ecf ebcc
bbbf bef
bbbb beebe
bcf def
bd db</w>
ded ebbc
bbbd bbcc
dbbc ff
ebb bb</w>
bfc bbcc
bbee dbf
bebbed cc
fbd bebc
bdbc dbd
bcbc ebf
fee ddc
bcc fef
bcf ebcc
dbb ddbd
bbebb bdc
ebe befc
eccc dec
bbd beef
bcbeee cc
dc beebd
dc eedbe
bbf bbebe
ecbc bbec
dc fbbbb
bbd bbeec
beec debb
eeebb beee
bebf ff
ee dd</w>
bbbd bbbbbbbb
dd dedc
eeec dee
bb ebe</w>
ed bbebbc
ebbc ba
ef eedc
fbe bbdc
bbfc a
bedc dee
eedbf cc
ea dbd
ebd fbbc
ef eeed
dbb ebbbc
fc bded
bec bcbf
dd bcbe
edcc ecc
febb df
bec bcebb
dfc ff
fbe ebec
fbd fec
dbbbb a
ebf bcbd
bbd bbbcc
bec fbbc
bfc debb
beee bbec
ec dbbbf
ebe eea
ed bebbee
debe bdc
fbc bbbd
eec dbbd
bd dbbbbc
dc dbbbc
bebf bbbe
bec bcbe
bbebb dee
be de</w>
bbbb ebbebb
ec bbac
ed febf
bbf ebcc
ebe beebc
dc eedf
ef febc
bcee bef
ebbee fee
ebe bcebe
ba dec
ecc bdbd
e ba</w>
bf eefc
ecbe ebcc
dc ecbec
bd bd</w>
ebb bebbbd
ebec bcbc
ef bebbbb
ebbee ebf
bcec ff
bbd beebe
bdf ddc
ef bcfc
ebd dedc
bbee bebd
ba dcc
bbee bbbbc
efc efc
ecbf fc
a eca
bfc beed
bcee fbc
ecec dbc
ebe ecebb
df ffc
bbbb bedc
becc bbbe
eecc eecc
edc dbbc
bcc eedd
df bced
ebb ecbcc
ccc fbc
bbcc dcc
ecee bbbe
bdbc bdc
bebc beee
ebc bded
ebb ddcc
dc bceec
bbc beef
ebcc ebcc
bebf bebe
bbebb bebbbb
ebd febe
bebc fee
bd ecccc
ecf eccc
dc bebbd
dbe febb
ff debb
ecbd a
ebbc fbd
bbc beebe
ecec bdc
bf bdbe
eebd dee
ebec edc
dc ebccc
eec fef
ebc eebbc
bcc eeebb
bebe fcc
da bea
bcec bcbc
dd febe
bcf bbed
bfbc bbf
bf bac
bebd bbbd
ecbc dbd
bcee ebf
deec a
bccc dee
bedc dec
bf eea
fc beebc
ecc eebe
bbbf fbc
ebbc bbbbc
beed dbc
ecee bbee
ed ebbbbc
ebe bded
bbbc dbbc
bbdd dbc
ebd ebbcc
ddc fbc
ccc bcbc
bcf debb
ebd bcdc
bba bbbe
bdf bbbd
fc eedd
ea dcc
ecbe ac
ff beec
fc febc
bbd fbbbb
dc beeec
bebc bbebb
a dfc
ebcc dbd
ff bbed
dbbbe bbbb
bf debf
ebc ecdd
bfc ebec
fee dbf
a bfa
efc bbec
bbdc bbbe
bcec bbd
ed ecdf
dbb ebecc
dbe bbbbc
ef dccc
ebe bebbee
bcc bcbe
ebd b</w>
bbbd dcc
bebc ba
ebc fa
becc eebc
bd bbefc
ec bc</w>
bbcc fec
bdee bbbe
bfbc ccc
bec dbbbb
a debe
edbc dee
ebc bcfc
eebd bdc
ebc bebec
eec eeed
bbee bbef
bbbd edc
ef bdbf
eef ac
ebb fbef
efc def
bf ecbec
bbd bcdc
ecc dbcc
dbd dbbbb
ded ba
ebcc dcc
fcc dcc
ebe bdbc
bbebe fc
ded debb
eeec bbbe
fee bfc
ebdc dee
ed beebf
dbe bcee
ebc ecbf
bec bbfc
ebf ac
bcbd eec
bdee dee
bf fbbbe
ef fbcc
ec dbbed
ff ebec
bdee bdc
dbbc bebe
bbc ecbe
bba dd
bcbe bbebc
ecf dbf
debc dec
ff cccc
ebe bcef
df bebf
ebf bbed
fee dec
bf ebbbf
bbebb dbc
ebe febc
debc bbbb
bbee ddc
bbee debb
efbf beee
bf bcdf
bcbc bfc
ecbc bfc
ecec bbbb
bebc efc
bbbbc dee
bedc ecc
bcbbbb bbbe
bbec bebd
dac ea
bbbc beed
ed bbbfc
ed eedbc
bcc bbbcc
ecf ba
ffc dd
bbc debd
dbb eddc
be dc</w>
bf bddd
bbec fec
ebcc fec
dbd fbd
bebc bbcc
bcdd dd
ecec eec
beee dee
ebe b</w>
edbc dbe
bdbe bbebb
ccc ddc
ebc eddc
ebd eedd
ecbd edc
bcbc fbc
bcc eebe
bbbd ddc
bcc dbec
dbb bdef
eebd ff
dc defc
bec eeed
bbbbc eec
dec bbed
bbdd bdc
eecc dee
debe bbf
bba ba
bdf dbf
ebd fef
edcc fc
ebe bcebc
efc debb
bbec edc
eeef a
dcbc dee
efc dbf
ded dbf
beee bbbf
eeec ff
ecc eddd
fdd a
dbb eded
beee bbcc
bbdc dbd
bec beebc
ef eea
fc ebfc
bcec bbf
ed ebbbbbb
ebe bbeec
becc bebe
dc ecfc
bdf ba
ed ecbbd
bef eebc
ded bbee
eeec bbf
bdec eec
fc dbbd
bbd febc
bcbc cccc
fc bfcc
dd e</w>
beee dbd
febb eec
eeebe fee
becc dbc
bd ffcc
eccc bdc
bdee eec
debb ebf
ebc fecc
edc eeed
eecc eebc
fbd bbbc
eeebe bbbe
ecee eec
bcc eebf
ed fbbbc
bbebc bbbe
ebc dbdc
be bf</w>
beee dcc
ed ecccc
ff bcbd
eeebb bbf
ebd bdcc
fcc eebc
bbd edbd
bcee bcbc
ebe eeed
edbc dbc
bbbd fee
bedd bec
bbec bbcc
ef edbd
bebe bbed
ebb ecbbd
dc ecebc
ecec a
dee fec
beee eec
dbf beec
dd fa
bebe bebbbb
bfc eebc
bf bbccc
bbbd bbbf
bcf dfc
bdbd dbe
bc bbebdc
ded def
bbd bdbbbb
bef bccc
debb dec
ebd dbcc
bbec dcc
bf bceec
ebe eebeee
bfc bebd
ebbbc bbbc
ff ebcc
ecc eced
ecf ac
bfc becc
fbe def
fed bbbb
ecc bbebe
bcc deec
dbbbb bbebb
f ef</w>
bbd ecbe
ecee ef
ebd eebe
da ccc
dd eced
febb ccc
bdbe ebbc
fbd ebf
dbf dec
bdbe ba
bdbe dcc
fc eebf
bbf ecbc
dbe ebcc
ebc bfcc
da bbbb
ecee bbbc
dd bcebb
ecc ecbe
ebd edbd
ebd febc
eedc bbc
ef ebfc
bdc dfc
beee fbc
ebe bebec
ebc beebc
bcbd ccc
bdcc eec
bcec bbec
bdec fc
dee ea
dc dbbee
bdf ded
efc fed
ebbc becc
ebec bef
bcbd ff
ebe bcdd
bbc bebec
bdc bedc
dbbd bec
a bcee
ebec ebf
bbf bcbf
bbbe bbdd
ba bbcc
ba bcbc
debd df
bcbe ea
bba bbbc
eefee cc
fbbed cc
bdc debe
bcec bebc
ebd eebf
ebbbc ccc
bdbc bebe
dbc beed
dbbd bbbd
eedc edc
dc bfdc
fbc eebc
beec bcbc
a beed
bcc decc
ebd bcebb
bbd bded
deec dee
f bbeba
ebbc eebd
dbc eecc
bf ecdf
fc beef
bf dbbbc
bbec fee
ef fbbbb
ebbee ff
bf bdbbc
bcc dbcc
dbe eebd
ebf fed
eeee ecc
bccc df
dec bbcc
ddc fec
bebbbe bbbe
ebb bebbec
ffc ff
dec debc
ebbc dbf
ebcc bebc
ebcc eecc
edc bbdc
a bdbd
debe bbbc
bbec beee
edc dbec
ebb beccc
bbf fdd
bcc bbfc
bc ee</w>
ebe eebbee
dbd bbed
cccccccc cccc
ebdc ff
bdbe ded
bbef ccc
bf bbebf
ef bfcc
ebec fec
bbec becc
bccc ebe
eec dbdc
ea eeee
eedd a
dbe eecc
bec bdbd
beee beef
ebb dba
bbd bcbbc
ecec dcc
dc eea
beec dcc
dc eeecc
bec fef
bbee becc
fed ebc
dc bbbdc
ea dec
ebbee ccc
eef def
bec bcdc
bcbc dcc
eebe bbbbc
bdc eedc
bb ebd</w>
ecc bbbbc
dc bfbf
ff dbbc
dc bbccc
bcee ddc
fcc bef
bebd bebd
dbe ecbc
dc fbbf
bbbb bced
bbed bfc
bbbbbbbb bbbbbbc
bc dbbfc
beec fec
ec dbbdc
eebe efc
ff fdd
fbe ecbc
bbbe beebe
beebb ebc
ed dedcc
df febb
bdee bbbc
ebe eebbbe
dec eebc
bdc debc
dec eecc
bbf bcec
bbbf dbd
bcbd ebc
eeee fc
fef fc
ef bcbec
bbed bef
edcc eec
fbbbb bbc
ed bb</w>
bf dedc
bbd eccc
bfc def
eebd bbbe
beebb ebf
ef dbbf
fef bbc
bbbf ba
dbec ebc
dbf fcc
dec fed
fbe dfc
edbc bcc
ed f</w>
edc bcec
dee ac
fbe ac
fbd ded
ec dbfcc
ef dbdc
dbcc bbc
dc bdbbc
bbbc cccc
bccc dcc
bebc eecc
fdc dbe
fdc fec
bcbc bcbd
bf fbebe
dbf dcc
fdc bcc
ebd eeed
ebcc ebbc
ebf ebec
beec bef
bbec ba
dee def
fbbc bbbb
dbbbb dbe
dc eebec
bdc fbf
bf bbbdc
ed bedec
dbc dbbc
bbdc bbf
bbee beebe
debc ebe
bebbbb bebbbb
bf bedf
dbb ebbbf
bbef bebe
edbd bbc
a bced
dd bbebc
beec ba
dbf bef
fed dbd
eec fa
bcc bcdc
eef bbed
bbec efc
bfc fbd
dbf bbee
bcc bdcc
bbd befc
ebf def
bbbe bcee
ded bbbd
eedd fc
bebe debb
a cccc
eebc bbbd
beed ebc
dd bbfc
dec bcec
ecee ebd
a dbbbb
ee dbbbec
eec bcbe
edc ac
bbdd fc
bec ecec
dee dbbc
dec ebec
bbbb eebbbb
bdc deec
bbbc fcc
bbebb ba
debc dbe
eebd fbc
ebbc fcc
eeebb bbee
bec beebe
bebbbb bbf
ea ebd
ef beebc
ef bdebb
bec dbcc
bd bbebec
ff febb
ec ee</w>
bef beef
eebe bbed
ebe bdbf
ebe bddc
efc eecc
fdc ecc
bebe eebc
ddc ebf
eeee dbe
bbebb bbebe
bbef bcc
bbbe debe
eccc dbe
ccc ebf
bdc bbdd
df fef
bedebe cc
dfc eec
a ffc
ec ec</w>
becc fbc
eced bbc
dbd fec
bbed ecc
ebcc ded
bcec bef
dc bcbcc
dbec fc
ebe ebbebe
eccc dbc
beebb eeee
dbd fcc
eeec bbd
dec beee
ff bbdc
dd beef
becc ebbc
bcdc dee
edc ecec
ecf bbbd
ebb ecdf
bbf bbdc
dbb ecef
bdbc bbbd
beebb beee
eba bbbb
bcc dbbbb
becc bbd
ebdc bbbb
dc eac
ef bdec
df ecbd
bdee bbee
ecf ea
dd eddc
dbb ecebe
ed bbdcc
ebf bbebe
ed eeebd
ddc fcc
eef debb
ebe ebfc
a bbdd
fbd bef
ebb fbfc
dbe bedc
becc ded
ed eebdc
ebe dbbbe
ebcc bbec
bdc dbbc
bbbc bbdd
bcbc fee
dbc bbbf
beed fc
fdd ff
bebc dcc
fbc bbcc
eccc ff
bebf df
dd febc
ef bbebd
bbbbc bbcc
befc df
ebd bbfc
bebf ccc
dedc eec
ecebb bbbb
bdc bccc
ecc beebb
ecee dec
eebeee cc
fbc dbf
ddc bbbe
eebd bbd
eebe ebec
dbd bbcc
ebb eca
ef fbec
dd bba
bef ebec
bcbd bcc
dbc ea
eeec dcc
fee bbbd
beec bedc
ecbd bbbb
bbf debe
ee dbbfc
beec bebd
ec bd</w>
ed eebbbe
dd bcf
eebc fec
fbd dcc
ebe eebbc
ef bcdd
bbf dfc
becc bbbc
dbe dbec
ded fec
ebb dcbc
ebb bedee
eec bcee
fbbc fc
bbd bdbf
ebf bbef
debc ecc
bdbd bbbd
bef def
ed fdec
eec bbfc
ed ebbdc
bccc ff
ebb fdee
bcc bbebc
bbec bbed
ebbc ebcc
fee beef
eec febc
dc dbfc
ebe ebbbbbb
dd fecc
bebc bbed
ecbe debb
bd eb</w>
bbebb fbc
dc bca
bdc bbbf
ebec bbcc
bcc bbbec
bebbc bec
bbdd ebc
ebb ecdbe
ebf eebf
bdbc ecc
dee bced
dec fbd
dee cccc
bebbbf cc
eec edcc
bcbe def
dbbbb bbbbc
dec ebcc
bcbf bbbb
ef bddc
efc bebd
eeee bbef
fee bbebe
df cccc
ec dbbebb
bc debfc
bf ecfc
ba dbf
bcbd dbc
df bcf
bbebb ecc
bcc ecbd
fdd fc
ebdc dbc
bbbd dbf
fed bbf
debc ded
bf febf
dd eddd
bc bbeccc
eec beebe
ebd bbebc
bbc bcef
dbb ebbed
dbbbb bec
ebe bdebb
ed eceec
bcc eef
df edcc
ddc bbbc
ef bcebc
ccc bebe
ecbe efc
fec debb
bd bbfcc
ed bbba
ee dbba
bbc eedd
ed eeeec
ebf bbbbc
edc fbe
ed ebdcc
ebb ddbd
fec dbf
bdf bbcc
bdf bbec
bb ebc</w>
bdc dbec
febe bebe
ebbbc bebe
eebcbc cc
cccccccc ccc
bbbc bebf
ffc fc
eea a
eec bcbf
bbd bddc
dfc ebc
decc bec
bbd bebec
bfc beee
eebc eecc
bcbd bbf
ebb dded
bbc bdbf
dbb ebbbbc
dd beebe
bccc dbe
df bcbf
bdc eeed
eeee ebc
ecdc fc
ed eedee
eebf fc
bebbbb bbbd
fee bbbf
debc bbf
bf bcbcc
ea ac
bedc ff
efc fcc
fbc bebd
ebbbbbb bbbe
fee bbebb
bf bcbbd
bdec dbe
bcbd dbd
bbc befc
eec bbef
bced ccc
dcc bcbc
ebe bebbf
edc fdd
bebc eebd
fbc becc
bdec dec
bf ecebc
eeee bebf
bc dbba
bfc bbed
debc ff
bcbe debe
ef bcebe
bf eddd
eeec ded
bcee ded
fbf bbbe
ebc ecebb
bcec bbbc
bd dac
a eeebb
ba da
febb bec
ecc da
bcec bdc
bbd eedd
bd bc</w>
ebb fdbb
dd bebbc
bbee bebf
dbbbb dbd
bbebe ccc
ebbee bbec
bdbd df
ed fdcc
bf edbc
ebd ecec
bcbd bbbe
bef becc
bbcc bccc
bcbe ac
bbc febc
beee bbef
fec dfc
ebe bebcc
ebdc bcc
bbf eebd
beec fbc
beec bbee
dec decc
ee dc</w>
df bedc
bc dbbbec
ebe eebebe
beebb bbebb
ee dbbef
dbe fed
dee fbd
bfc ebcc
dcc fbd
ddc fee
bdebb bbbb
bbd fa
bbbec bbbe
ed fdbd
efc eebc
bbf bbfc
ecbe bbed
bf fdbc
ebb eceec
dd dcdd
dbe bebf
beebb fc
bbd bdbc
dbc eeec
dbb dcbd
bbc decc
ebe bcfc
bebe eeebb
eeee eebf
bbc fbec
dbd dbbc
eeee bbbf
debc ebd
bebbc bbbe
ed debdc
beed ef
a fbbc
eec beef
ebc bbebd
df bdcc
fbbebb cc
dc eebcc
dbc bbbbc
a bbebc
bcee dbf
bbcc ded
bbd fbec
ebf bcec
bd bbea
dbe bdbd
ff bebf
bec eeebb
ecc fef
ebf ecbc
fee ebbc
bbbc bcbbbb
eebc bef
eccc eccc
ebf beebe
bbbc bebbbb
ee fcccc
df eebd
bcbc edc
ebc bcebe
bec bebbbb
bbdd eec
ebb bbebec
ebf beef
ebbbc bcc
ebb beedc
df bbef
beee bfc
eecc bbf
bbdd bbbe
ebd bebbbb
bcee bbebb
beec ebbc
dbb ecbec
fc bcef
ef bbecc
ebb dcbf
ecec ded
beea cc
ee bbeba
ef bdbc
ba ded
ebb dcec
ecc efcc
ccc bbee
febb dd
dc deecc
dbd bbebb
dbbc bdc
df bdbd
ebdc dec
beed bcc
fee bbcc
a eeec
bebd ebbc
bdbe debb
bbbbc bdc
bedc bcc
fcc ebbc
a febe
edbbc dbf
dbd b</w>
bebc bbbf
eec bbebc
bef ebcc
a eebd
bbfc bbf
ec fedcc
bbbe eebd
bf dced
bbbc eebd
bbec ebec
ac dbf
eec bdcc
ee defcc
ebe bcbec
eec fdd
df debc
bebd fbc
dbec bbbb
bcbd bebe
dc bac
dbc ecbc
bcbe bbebe
edc fbf
bfc fed
fee bbef
bcfcc cc
bbbe bba
bbbc fbe
dbc bbdc
ff dfc
bbbc ddc
ebf febe
ed fdbb
bbbc bbbcc
bbdd dee
ba eba
dbd eebc
bd debdc
ed ebbee
bfc bbbf
ebb defc
bebc bedc
dc dfcc
bcdc dd
bbc bdcc
edc da
dbc cccc
dbd debe
bcbe dbbc
ecc eeebb
ff bcec
eecc dcc
edc bcee
bbee bebbbb
becc efc
ebe dccc
ecc bcbf
ff ecbc
fc fa
fee beebe
bbc bded
bcba cc
eeee bbd
febb bebe
bf eded
dbc bccc
ebd bcbf
bcbc beec
dc fbdc
ebc bbeec
eccc ded
bbbc def
debb ded
eeee df
eef bbdc
bdf ea
bdee bbd
bc ec</w>
ebbbc bbd
dbb bda
bebc ebec
fbc ebec
ecdc dd
bbbb dbbbe
ccc bef
eef ebec
eec fecc
bbbc fbf
bbed beec
debc bcc
ebc dccc
bebc fed
fec ebbc
dbc ebcc
bbbd beec
bdee dec
a eebf
ff da
dbc fdc
bbee bba
bbc beebc
dfc bbf
bbec beed
beee bebf
bd dbccc
bf fbdc
fc bbbec
fc beebe
debb bbebb
ebc bcebc
ecbe eccc
ef eced
ef ebbcc
dbe bcebb
bcee ba
dc edbc
ebdc bdc
bbbb eeec
fbc eecc
bbbbc ebd
bf c</w>
dc fdee
bfc bbebb
ed eedcc
bcf dbbc
fc bcfc
bbbd b</w>
eebd dec
bf eeebc
efc bbee
bced dec
bbbb da
fee edc
fcc dbd
eef ebcc
f df</w>
fc dbdc
dcc eedc
ff bbebe
ebbc bbebe
dee bbbf
ebc ebbcc
dbf bebc
ebb fdbd
bd dbbebb
dbb bac
ddc bebe
bf beff
ecc bbfc
df bbdd
ccc fec
ebe bebbd
fc fbec
dbec dec
bbec bedc
bec dbbd
bbf fbbc
efc bbbd
dd bcef
ebc fbec
bbec beebb
ec beeecc
ebe bbecc
bccc edc
ecbcbc cc
bcc edcc
bc ebac
dc ebbebb
dcc eebd
deec ded
bdbe bbed
eeebe ebf
dc bcbbd
dbe bcbe
bbbc fed
ebd bcbe
bcbc ebbc
ecee fcc
ec bbeccc
ecc bbef
dc bfbd
bef ac
ed ebeebb
bbc bbeec
bec beef
bbee eecc
dfc dec
bdbd bbd
bedd eec
fdc ded
dee ecbc
bbbb bddd
fbe cccc
bfbc ff
ed fbfc
bbc eebbc
bcc fbbc
dc bedee
eeba cc
bbdc dec
edbc bbbe
ebb dcdd
bbbb eebe
ebf dbbc
dbb edbbc
fec bedc
ed fbebe
ebe bbbbbbbb
bbebe bbebe
bebbbb bebe
ea fbc
ebd fa
bcc bcbbc
bef ecbc
fc dccc
a dbec
bcc b</w>
debb debb
dee dbec
bebd bfc
bbc fbbbb
efc dfc
ff ffc
dcec dec
ebc bedbe
efc bedc
bbcc beee
becc bfc
bbbe ac
bbf dbbbb
dd fbec
bbdc bbdc
bcec dbd
ebc febd
bbc ebfc
bf ebecc
bbed fbc
fdc ebe
fef fee
becc ebf
bf eebcc
bbf febe
bebc ebcc
fcc fee
dcc beee
ebd bbbec
bebe bcbd
ebbee bef
ef eebbc
dcc ebbc
eecc bbd
bbebb bcbc
debe ebe
fbf dbe
bbec eebc
eec dbbbb
eeee dbc
efc ddc
bef dbbc
fed bfc
bedd a
fbc bbbf
eec fbbc
debe bbd
bdc ffc
bbee febb
dcc bccc
ebc bcef
bdc bdbd
eecc fec
eeec ebd
ef ecf
bdc ecbc
dbb ecebc
debe ecc
dd bfcc
bec bcf
ed efbf
ef e</w>
bbbb bebec
dbb dcdc
fcc bbbe
eedc dbe
ed ecdbe
bd dd</w>
bbee ded
ebb bbdcc
dbbc bbbd
bef bcec
ecee fbc
bebe ebcc
ebb dbbcc
ac dec
fbf ebf
eebc bebd
bc dd</w>
ecc ecbf
ecbd bcc
ebb bedbd
dfc dbc
a eccc
bd be</w>
bbd bcdd
bbee fbd
dbb bfbd
edc febc
dbec ebe
bcee bbcc
ebc dbbbe
ed ebbebe
bbbb eebf
ff bebd
dee beed
ac dbc
bbd eced
ff eccc
bbebb dbd
eeebb ebf
da ebe
ecc dccc
fc bcdd
bbed ebf
ed bebfc
dc bebbf
fed ddc
deec dbe
ecbd dbe
fcc fdc
eedc ebd
eebd dbd
bec febc
bbbc ebcc
eeebe bef
ecc bcf
bdc ebdc
bbdc bebe
bedc ebd
a bcebb
bedc ebe
dc efdc
fcc becc
bbc ecbf
ecc fbbc
bbebb bbcc
ecbd dbc
bbdd bbdd
bbbc bbebc
fee bebf
fbd ebbc
bbfc dbe
bbf bcebb
ddc bbbd
bcbd bcbd
bbbb eecc
ef bebec
dbb dced
bbbbc dbd
ebbbc dee
df ebdc
bd eeeecc
ebbbc ebd
bbebb bebd
fec ebf
bf beecc
edc edbd
ac fa
bf d</w>
bdc febb
ebc bdbf
edc bced
ef bebcc
debe dbc
dbf fbd
ebbee bcc
fc dbbbb
bec befc
febe ebe
a bcf
bbbc bbbec
ea da
eec bbbec
df beed
fec bbee
bbdc bbbd
fc bcbbc
dcc bbbd
bef bcbd
beec bbbd
bbebe bebc
bbebd bbbb
eeebe beebe
bbbe beed
dbb ecbbbb
fee beebb
be ebb</w>
df fbbc
eebbcc cc
eebd bebe
bec bbbcc
dd ecbf
debd dbe
dc beedc
bbbbc ebbc
ebdc edbbec
bebf bcc
bbdc ecc
fee bbec
ecbe bbbf
bf beeec
dbec ff
fee fbe
bbebc ccc
dd dbbbe
dbb efcc
bbbbc bbbf
fc eeebb
bf bebbbc
ea bbbd
dbb ddcc
ba ebbc
bbd ebfc
bebe ded
bedc dbe
ef bfbf
dbec dbc
ebd beebe
bbee efc
ebf eecc
ebc bdbc
ebc feec
dbd dbbd
dcc becc
bbcc efc
bbbb fef
febb dbe
fc ecbf
beef bbc
df eeee
bbbe ecbc
ef eedd
bebc ecbc
eeeeeeee eeeeeeee
ebc bddc
bbf beed
bfc beebb
eef dbbc
fc bbbcc
fc eced
dc bebbbe
eeec dbd
bcc bebbc
bf dbfc
ecc febe
ded bcbc
eeed bec
fc bba
bbed ebbc
ffc bbc
eebf bbc
bcc eced
bbbe bcbbbb
bedd df
bcc bcebb
dbc fbe
bf ecebe
bbbe bcbf
dd befc
bbf bcf
dee beebb
bbee bbebc
ebc bddd
ec debfc
bebe bebbc
bdc ac
beee edc
ebc bebcc
bbbb cccc
bbf bba
bbf bebbc
fec bebd
a debc
ebb febbc
beec edc
febb ebf
eebc ebcc
debb fbc
dbbd ebe
bcdbf cc
ec db</w>
dbe bbdd
bbbc ea
bebc fcc
bbd bdebb
fc edcc
dbc fbf
a ebdc
dc debbc
bbbc bbef
fdebe cc
bdee dbd
bec bdcc
ebbc eecc
ddc efc
bbbf bbec
bf dcdc
ecc bcbe
eedc ef
bec fdd
ddc bfc
dcc def
bcee bbbd
bbd eebbc
ebec ba
bebd ebf
bcee bbed
bbc edbd
debe bbee
ebe dbbf
eebc fcc
debb bbec
dd ecdd
bec bba
ea dbf
bdec bcc
bedc ded
dfc bbbb
bec bcbbc
bbbe bdbd
dbd def
beee eeebb
ec fcccc
dcc bbec
ebec becc
bebe fbe
bcbbbb bbbbc
ee de</w>
ed bbbbcc
ebe eced
dd bbbec
ebbbc bbee
bbebb bfc
dbe debc
eeee eec
bebd bef
ebb acc
ebb beebbc
ebd bcf
fc febe
bbbe bbfc
fbd efc
bceebc cc
bd bebecc
bebe bbdc
ecbc ebf
bbebb fee
eeef ef
ec eeeecc
edc fecc
dbb dded
ebc b</w>
bebe bbef
dcc fdc
bcbe bbdc
ddc fed
bbbe def
ed eebbf
ecbc beec
a beef
fbd fee
bd deccc
dbe bebbc
dbd bcbd
fef ebe
eeee eebe
fbf bef
decc ef
ecf ebec
dbbd ef
ed fbef
fbe debc
bf bebbee
bcc da
bf eac
febe bbc
ecdd ecc
eecc ded
ebb fbeee
ebd dbdc
df bbbbc
fc beecc
eebe eccc
ecbc ebbc
bbbb bdebb
df beebb
dee ebcc
ea bbec
bccc bcbc
febb ebc
bbf bbbec
efc bbcc
dbf bcbc
bcbe ebcc
eef da
bbbb bbbdc
eec bfcc
bcc ecbe
edc dbcc
def dec
ebd eeebb
bebe fbd
bddd dbd
ed fbbee
bdc beebb
bbbf ecc
bebe ddc
bf acc
bdec a
bbbb beef
ebd bebec
ccc bebc
bcbf a
eecc ebbc
deec ef
bbfc ef
ecbd dec
edbc fbc
bcc bcf
ed dbccc
bcbd bbd
eec bcebb
ea bfc
ebe ebbcc
bbee fcc
bbbf ebbc
bbf da
beed ded
eeec fec
bbbc bcebb
eebe bbdc
eedc dec
bdee dcc
bdbc dec
eebf ff
eeec dbbc
bbeec bec
bef beebe
def fbc
bded dd
bebe bcec
bbbd fbd
bebd debb
ebc bcbbbb
bf dbbee
bf eebbbe
dc ebbed
dbe dbbbb
bebe ebec
bbbc bdbd
bef bbbbc
ecdc dcc
dc bbedc
ec bbebdc
bf bebdc
bdee bebc
ebb ececc
ba fcc
debe ebd
eddd dd
bbc bbebd
bbbf dec
bebf dd
ecc bddc
ebfc df
ed befcc
fdd ccc
fc bdbf
becc fed
beee bba
fdc bdc
edcc ebc
bf bedbe
bbbf bbcc
ecee bcbc
bbbb bcf
ebe eedd
bbd bebbd
fbf bbbc
dbc bdbd
bcbbbd cc
eebe dbf
dbb ebbee
ded efc
bbc eced
ebec fee
beec bbcc
debb bfc
ef fbbf
beec eecc
def dbd
bdbe dbf
bbf beef
ebcc bef
ee bbb</w>
eec bcf
dbec ebd
bd befcc
fc fbcc
bec ebbcc
bebe dbf
dbec bcc
dc eebbbb
bbf eebf
a bedc
bbc bcdd
beee dec
bf beebd
ebb beba
ebc dbbf
dbc bedc
fcc eedc
a dca
bbbe debc
edc bbdd
ccc bbcc
fed bbd
bcbd bbbc
bbee eebc
fc bbecc
bebc ea
bcbd bdc
eeec becc
febe ff
ecbe dbbc
eeef eeee
bbbbc ff
bebe fec
fee fbf
bcec ebd
febb dbc
ec dbbebe
fbe debe
bced eec
bbbb bedd
bbbe eecc
ec dbbef
df bcbe
bebe eeebe
ebe fbcc
bebf bbee
ed beebbc
fbd fbd
bcbf bec
bbd ecebb
ecbc bef
bbed debb
ecee ff
edc bdbd
dbd efc
edbc bbf
ddc bef
bbed bbebb
bdf debb
fbc beee
bbc dbbbe
eebbed cc
bccc ebd
ebf dfc
ecbd ebd
f ebb</w>
ef ecebb
bebd eebc
eec dccc
bbdd ebd
a bcbe
dcec ded
bebd beec
dcc dbf
fec fcc
bf debbc
debd bec
a eef
bcbf dd
bbbcc bbbc
edbc edc
bbbe bedc
ffc bec
ecee dbf
dbe eeee
beebb ccc
f a</w>
da bda
bf ebbbbbb
ebc fbbbb
bcee becc
ed ffcc
bfc fbf
fdc ebd
fec eecc
da dee
eebbbd cc
ba fbd
bccc dbc
eec befc
febb bcc
ebf eccc
bbfc dee
fa dd
bbbe bebbbe
bfc eecc
fbc ea
ebf bbdc
deec dbc
bcbc bbbbc
fdc dbc
ebe fbec
decc ecc
bebc fbd
ecdc ebc
bdbd dee
bdf beee
edc bbebb
bebc dbf
ddc bbee
debe dee
bcebb bec
a beebe
ccc efc
dbb bfed
bef dfc
bf bbedc
bf ddcc
fee fef
ebcc bbbd
edbd fc
dc fdbc
eeebe eeebe
dc beccc
dbe fdd
bbbe bced
ecdd dd
ebe dbdc
eeef beee
bf efbf
bbebe dd
bebbbb bbee
febe ef
eec bded
ebf eebd
eec beebc
bbbbbbbb bbbbbbbc
ebe bbebf
dbbd fc
eedc bcc
bbf bbebc
bcbf df
bebc bcbd
bf ebbee
ef bddd
dcc bbcc
dbe bbebc
bac a
ebc bebbd
bbbe ebbebb
ba debb
ac bdc
efc debc
dbe bcdc
fbc ddc
bebe febb
ebf eef
bebe bba
ecee bbcc
ebc efcc
ba eeee
bdbd bdc
bd bbbecc
bf bdbbbb
bebd bbec
dbbbb bcc
ed eebbbc
bcf bbbbc
bebf bbbc
edc bbbf
fbc ebcc
bbbb bbeec
dbb ecfc
dbcc bec
dc eedee
dbe dfc
bbebe bbbd
bbbb bebbd
eebc debb
bccc bdc
dbcc dd
bdbc bebc
edbc dec
beec fee
ef fbbd
ecbe ebec
dbec ded
bcc beef
ebbc ddc
ebbbc eec
eebc becc
bbbbbbbb bbd
ebd bddd
eecc fcc
ecc bcdd
bbbc debe
bbbc bcec
bbbd dbbc
ecdc edc
ed dac
ed ebbef
dbb bdebc
bcf eccc
bd dbbed
bbf bced
eedc dbc
eebc bbcc
bf fdee
eebc efc
bbee eeebb
dec bcbd
bc defcc
bcbf ff
bbbe fbbc
bbbc bcbbc
dbb bfdc
febc df
bdf bbbf
beebb ff
fa ccc
ecbf ecc
bbbb ebdc
fbe da
ebf fdd
bbee eeebe
bf ebbbd
bbc ecebb
bbee ebcc
dd efcc
bdbc ded
bdc bcec
dec ecbc
bbebe ebc
fdc efc
eebc ecbc
ecbd ef
fda cc
debe edc
bdbd a
bec eebf
dc beff
bdc bbbbc
bfc ddc
bcbc ba
bdbc ebf
ebd beef
dee ebec
ea bcec
eedd ecc
dbc bbdd
ea ddc
bbebe dbe
dbc bcec
bfcc ccc
bbee fbf
ebe ecbbc
bbf bebbbb
ebe eddc
edcc edc
dd fdf
bbbd bcbd
ded bbed
bcee debb
eeed bcc
bcbe bbbec
fbe bbebc
edbc bbd
ebe bdec
ebbc bcbd
ebd befc
bbbc bebbc
dbb ebbebe
bebe dbbc
fbd ba
ecbf ccc
bbf ffc
ac ecc
beed ff
ebf eeebe
fbc bbed
bbebe bbd
eebe dbbc
ddcc ccc
bbee fec
ebfc bbc
ebcc ebec
bbfc bcc
bbbb fdc
ef dbbbe
dc eeccc
bdc decc
bbbc febb
bdbd bec
ef bdef
eec bcdd
ecf bbbf
fc b</w>
dee fbe
bbee ebec
dbe bbef
bf fbbbc
fbc dfc
ef dced
eebd ebbc
def bfc
eebd bebc
bd ebfcc
bf eca
bf fbef
eef bba
ded fee
ac ac
bbbb ecbd
dbbd bbbe
bbec bbbbc
ebbbc df
beed dbd
bbbc eecc
dec bced
ebccc ccc
decc df
bdc fdd
bbbc ecbc
debc dbc
ef dedc
bbc bcebe
bbec fbd
eeef ebe
dbcc eec
ebd ecbe
ebd eebbc
dee eeee
ffc a
bbec fed
bcbc fec
ebb fbbbd
bebe bcebb
bfc bedc
da bec
bbd beebc
ebc bdec
ed ecdee
bcc febe
dcc eccc
ebec debb
ecdc eec
bbba bbbb
fdc edc
ebb bebbebe
fcc fbd
bcf bbef
eedc ff
ebbee bec
bbf eecc
dbd bbdc
ebd bddc
bdbe ddc
ea edc
febe beee
dccc dd
dbd becc
ebfc fc
ba fec
bbc fa
bef eebf
eeec bebc
bbfc ebe
ed bebbbd
bded dee
ebdc fbc
df bcdc
dbb edebb
bbdd ccc
ebb dfcc
bc ed</w>
bdcc fc
a bebbc
dec bbebb
bc bbebfc
ebc dcdc
ebb bebbbf
ecbd bdc
ec ebac
dc bbbbbbbb
dd dbbf
fec def
fbf bfc
ec ed</w>
bf eebbee
beed bbbe
eeec bfc
bcc ecbf
da ef
dbcc fc
eeed dbc
eec bcbbc
dbf dbf
ec bbcccc
ebc debf
bbbb debc
eebd bbbc
ebcc eebc
dfc ecc
fbf dbc
dcc beec
ac bbbe
ec de</w>
dbb edbc
bcbe debc
ea ded
efc fbd
eedebb cc
fbbbb bbbe
bceebecbbec bbdbbc
beed bebc
bfbc dbe
ebc fbcc
dee bbdc
ddc bcbc
eeef fee
dc fbbbe
bebe beef
ebb fbebc
bbbf beee
bec b</w>
bdc bced
dbb ecdf
fed ecc
bcee fcc
bebbbb bbbbc
ebc eddd
fed bebc
ebd bcdd
bcee beee
ebbbc dbc
eeec eecc
bbbb dbec
dbb dcdd
bbbb ecebb
dec dbec
dbbbb ebe
eec eebf
bdc bedd
bbbc eeee
ddc eecc
ded bbcc
fbc def
beec ebf
dbbd bbf
ba bbbbc
bebec bbc
bcec bbbe
fbe bbfc
eef bbbbc
da ecc
ef bebbbe
bbdc edc
bcbc beee
dc bebdc
dbe eccc
bbee bccc
bbbcc bbbe
bdf ebec
ff eebc
fbc fdc
bfbc bbbe
ec dbbfc
ef c</w>
ba bbed
bcbf ccc
bbbcc bcc
fbe eccc
bdc bebf
eedd edc
ecec ebd
bcbf bbf
eef dfc
dbd da
bf eebec
ded deec
ebb debec
bbc dbdc
efc ebcc
bd bbb</w>
bbc dedc
ebf bedc
bcf debe
eced df
bdee bebe
fc bea
dc febf
ebe dedc
bf bbbfc
ebc bbecc
bec ecdc
dec beebb
becc ebcc
ee debfc
ded bcec
bdee ebd
dbe defc
febe ccc
eebbbb bbbe
ed dbbbd
dbb ebccc
dec dfc
ebf beed
febb bbbc
edc beebb
beec beee
ed beddc
fed bebe
ebbbbbb bbc
dc eeeec
ebf eeebb
bbec fcc
ecbc fcc
bcc febc
ba ddc
ea bbebb
dbf bbbd
ee bbebfc
bcdc df
bbbf fee
bcee fec
bba dbe
bbfc ff
bf ebbebe
dc bb</w>
bf ebbed
dec debe
bebd fec
bbee dbbc
bebf bef
eebf ccc
bbcc fcc
eeec bebe
ebb bebfc
fc dbbf
bcc bded
fbe bdcc
dc bbebf
ebd eddc
ecec bbd
ecbf dd
dc bdbbbb
ef ecbbc
ac bbd
eeebe ff
eebe ded
ebb dddc
bbcc becc
bcc edbd
bebd ba
bbbbc bef
a bbba
eded ccc
bf ebccc
eebe debb
ecec bbbe
ebe efcc
eec bcef
fbc bedc
eebbc bbc
bbebc df
bf fbbee
ebec beec
dbf ded
ec eebccc
bbee bcebb
bddbd cc
dbe da
bbebe bef
bbbcc bec
ebbbc bbbd
fbd bbbd
dd bdbc
eec eba
bbbb dfc
bcbc bbebb
a bbbec
efc beed
bbbb febe
ebc bea
bbc dbbf
ecf dfc
def ebf
ebd bba
fc feec
debb eebc
ebdc dbd
ecbd ebe
edc bebf
dedc df
bbbb bdbc
febb eeee
bbf debc
bebc bbbbc
ef fccc
beef ebe
bc dc</w>
fc fdf
bbebe bdc
bbebe ff
beef ff
bbee ecbc
fcc bbbc
ebbc beebb
bec bded
ebd bded
eef eccc
bbd bcef
dbe cccc
fbf bebe
ccc fee
edbd dee
ecf debb
bbf bcee
efc ecbc
becc eebd
dd ebfc
bbd edcc
dd bdbf
bbbf bcbc
edbd ecc
bfbc dee
edc eebf
ded beee
bfc dbec
bef da
fbbc a
dcbc ff
dec eedc
dbc bbef
bfc fbe
fbf ebc
bbebc eec
eeee bcbc
beebb beebb
ebbc debe
bec fbec
fcc bcbc
bebbbb ebe
bfc deec
bdee ff
bec ebfc
dbc dfc
fbf fee
bbc bfcc
bbd bfcc
bdee bbec
dbf fec
debc bebe
dbbd ccc
ecbe ea
bbbcc bbbcc
ecec bbf
ecc bded
def eec
bdc eccc
edc bcdc
dbf ea
eebe ebbebb
def ddc
ebb dbbbd
bebe ecebc
bdc bbef
fdc fbc
bbebc a
bbcc bbbbc
ecc bcebb
bcc befc
bebc beed
bd dbbdc
bebc febb
eeea cc
beebe bbf
febe eeee
bcf bbdc
ebbc fed
bebd becc
ebbbc ff
df bcebb
dbe bdcc
eeec bcbc
bcc ecdc
ecbc fec
df dbec
bbbd bbdc
efc ea
fecc ccc
bdc eedd
bbec ebcc
fdebc cc
dbd eecc
eeec fbc
eeebe bbbb
bec beecc
ecebb bbc
bf eebbf
eeebe bbf
bbd bea
def bbbe
bebc bedd
bfbc bbbc
dc ecccc
a bbfc
ebe ebbbf
ebd bbebd
bbcc ebec
ebc ebbebb
edc eced
bbbd dbbd
bfc dbbc
dcc eeee
ecbd ff
bdc dbbbb
dbc debc
bbdd bbf
bbd bebbbe
bbcc beec
fbe bba
bcbd dec
debd ccc
dced bbc
bbec bbbf
decc eecc
bef bbdc
debe ff
ed bebbcc
ffc ef
bbbb bcdc
ffc dbe
ebc bdebb
ecc bebbc
fbbbb bbf
bbcc eebc
bebf ebf
a eebe
deec ff
edbc ff
ebbc bccc
debd dee
bbc ebbcc
bbee bcec
bbebc ef
bdbe bbbf
da ff
eebf ebf
fcc eebd
ebbc ecbc
bfc debc
ecec dbd
bbdd ff
fbbef cc
bfc bcbd
a dbbd
dcc ebcc
bdf ac
be bbe</w>
dc bedbc
ebc bebbbe
bfc bccc
bdf def
eebc ba
dbbbb bebe
bcc bcef
edc bbebe
ecbe bbbbc
bdec dbc
eedc dee
ebbee bbebe
ebc ecbbc
bbed ba
eddc ecc
eebecc cc
dec bccc
fbf bdc
febb fee
ebc bedf
fcc ebcc
bbbc bedc
bbec dbf
bbebb debb
ebe bfbf
fbc eebd
bec dbdc
bbd c</w>
fbd bbee
fed fec
df fa
bef beed
fc bddc
ef ecdd
bbec bbdc
ebb ecdee
beec eebc
def ebd
bcbe bbef
febb bbee
bbd fbbd
ea bebc
eebe ebdc
fef bbf
bcbbbb bbbd
bf ebbbc
bcebb bbbe
bdf ebcc
bbd ecbf
fbc fbe
ebb bbea
dcc ebec
fbbc bec
dbe bcbf
beee fcc
dbb bfebb
fec debc
bba bbf
edbc bdc
fc fecc
bced a
be dbac
edbc dbd
dc ebbbd
bbeec bbc
beec debc
fbf dee
dbc b</w>
eedc ebe
bcc c</w>
dd bcbbc
dbb bdbec
ecec edc
bbbd efc
fed ba
bdf bbed
efcc ccc
bcc dedc
bbbd beebb
ded eecc
debb bcbc
bbcc ba
f dbac
bbbd ebec
eeec ebe
bebe eebf
eccc fcc
bbec def
eebe ebeebe
fbbc bbf
eec bebbbb
beef bbbe
fbbc df
ecee bebc
dc ebbee
bdbe bbbbc
ebbcc ccc
bf ecbcc
bebe ecbc
eccc dbd
bcec dcc
ded beed
ac bbbc
bbd bbbdc
dbb bdfc
bdee fbc
ddc bebc
be bbbac
ebdc bbbe
febe bbbe
bcdc eec
ebb fdcc
beee fbe
debb bef
eccc fbc
fdc bbf
ef bcbbbb
bced fc
bd dbbbf
ef fdbe
ecc ebfc
bdbc bef
ebbc beed
ebec fcc
eebc dbf
eecc bbbe
bbebc fc
dcbc dbe
bf ecbbbb
bdf bbebb
dbd ea
ebec ea
eecc bbbc
bedc bbbb
ed dbbdd
bebe efc
bebbbb bec
eebebd cc
beee bbbbc
bdbc bbee
dcec dbe
ebe bddd
eedc bdc
bbed dcc
eeee dcc
ebbc fbe
ecec bcbc
dbbbc bbbb
ecbe def
bcc bba
dbc dbbbb
eebc fbd
bccc bbbc
bbebc bbf
edbd a
bfc ea
bdec bbbb
ecbecc cc
decc edc
fdd bbc
dc eeebd
edbd ccc
ebbebb bbbe
efc deec
fed edc
eeec edc
dbcc df
ebbbbbb bbebb
ebb fdec
eec bba
ebdc bbf
bcec bebe
bdee edc
bbd e</w>
fee fec
decc fc
edbd df
ef bca
beed bdc
eeed dee
ed bbfcc
edcc dd
def bbbc
fcc bedc
ff bcf
bcdc bec
dced dee
ebd bfcc
bebbd bbbb
debc bebc
bbebc bbbc
a bdcc
dc ecbcc
bbbf bbbbc
dfc bdc
bbee bebbc
bf dba
fec fbd
da dbc
eec bbbcc
bd bbbebbbb
ebcc bcbc
beec fed
bf bbebbc
eebe eba
eeec ebbc
ecc eef
ded dbec
fec bbbd
ecba cc
bdbd dbc
bdec ebc
ebb ebdcc
bbd ecdc
bced dbc
fef bcc
bdbd bbbe
ee ecbccc
bbbec dee
dbbd bdc
ecdebb cc
ecbd fbc
ef fecc
ef d</w>
fc dcdc
ded bebd
ed ebeebe
debb ba
ecbc becc
da bbbe
bbbec ebc
dbb bfbbc
fbf fbc
a ecbe
ecec ff
ddbd dbd
ebbc dbbc
ebcc ddc
bbebe beebb
eeef ff
ebe fbbf
dd bbebd
bbc dbfc
fec bbcc
be bbd</w>
dc eca
cccccccc ccccc
febe bbbb
ed fcdc
bccc bbf
bfbc dbc
bc ecbccc
bebc debe
ebbc bbdc
deec eecc
dbd ebec
bccc dec
ef ecef
dd fbbbb
edcc bec
bcbf dbe
eec eeebb
ebd fecc
dbf bbcc
bebf ebc
eebf bbf
bbebc ebc
dc acc
ebe fdf
dbf fee
a dbcc
eccc ddc
beed becc
eced dee
fed fbc
bbef bef
ecdc dee
bbdd bbbc
bbef bbbc
eeec ea
eebf bbbb
ef bbebf
ebe bac
fc eebbc
ed beded
fec ebcc
bded df
fc bebcc
bebbc bbbc
bcbbebb cc
ebbc ea
ecbc ecbc
bbbbc ebf
eeec ba
ecbd dbd
ecdd ccc
bbef ebc
bedd bbc
fed bef
ded debe
fbf ecc
ffc dee
ed eeff
deec ebc
bbee bbdc
bbbd debe
ebec fbd
efc beee
eccc bbf
bec eebbc
bcec bfc
ecee bbec
bbebe ebf
beef beee
fed bbbe
bebc beebb
bbebc ebe
bdee bfc
dc ebbbf
fc ecbe
df ecbe
eec ecec
bec ecbe
fbe dbec
ed dcccc
dc eebbd
dbbd bbbc
ed eebbee
bbd bcebe
dc dba
ebcc bbcc
bccc dbd
dbbbb dbc
eeebb fee
ecee ebf
ef eddc
ddc fbd
dbbc dbf
bf eceec
bbbb beebc
bec bfcc
becc fcc
bf ebbbbc
dbb bfbbbb
dbbbb bdc
eedd ccc
ebcc beee
fdc bfc
bc de</w>
ebdc ebf
bcbd ebd
bbc ecdc
bbc bbecc
dc bfbc
bedc edc
bbbec dbe
dccc dcc
ebdc dcc
beebb bcc
beed bbf
bcdc fc
bdee bef
debc bdc
ebbbbbb bbbc
eeee fef
bf bbba
decc a
ecbc bbcc
fa df
bec bebec
eebc beee
dd eded
ecc dcdc
ff dbec
deec bcc
edbd ebc
bedebc cc
ecc bfcc
bebe fbf
dec bedd
bbc bcfc
ebcc fcc
eecc bebc
eebf fee
bdbe ea
beebb dbe
bbc bbbbbbc
ebd dbbbe
ff bcbf
ed febbc
ebb bebbcc
ebec ebec
ecc befc
bbef dee
bcec fbc
eedd df
bdec ded
dbd bbbf
dbb bfbc
ecf beee
beef bbbb
dd bbbcc
bbdd bcc
ebd eef
ebbee bbbc
bbc bddd
ecc fedc
bebe fdc
edbd dbe
debc edc
ebb dbecc
ebb debcc
dec dbbc
eeee bba
dbbbb bbee
bbbec bbbc
ecc dbdc
dec eccc
bd bbebcc
bbbd eebc
bbebb bbed
def bbd
dbb dcbf
ecc fa
ded fcc
bc fedcc
eec bebcc
bbf bcef
ebbc bebf
beec ddc
dfc dcc
eeed dbe
edc fef
ffc bcc
ebe ecdd
fbd debb
ec dbbbec
bf ebbef
ed fbebc
ecbf a
ecc bbbec
ded ebec
bbef bdc
dced df
bbebe df
bcbd bbbd
bcbc fcc
ebf debe
ebf bced
beec efc
eedc fbc
ef feec
ea bda
becc dcc
bedc fec
bddc dd
eecc bfc
fbd dbf
eecc dbd
bf defc
bbbb bcebe
d ebf</w>
ebb bbbbbbbbbbbb
bebc bcec
bbdd ddc
ebb ecccc
bbbb bcbbd
ee deba
ef edbf
fbe ebdc
ef ebbebb
dd fbcc
bbbe fbbbb
ea bbbf
beebb bef
bbcc bbebb
bcf bbfc
beed bbd
eebf bbee
bebbbb bcc
ebb fba
ac ded
eecc efc
a dea
bc deba
eeebb ff
ef efcc
ef dcdc
bbed edc
dbbc bbee
debd eec
bec bbecc
bbed bebd
debc eebc
ecec ecec
bdbe debe
ac dcc
bdbc fbc
ef beff
bbcc fbd
bbbb bdbbc
dbd eebd
bbef ebf
bbbec df
bbbb bebbbc
bbc bebbbe
fc fbbbb
dbc bebf
eecc ebf
bf fedc
bbbe bbbcc
bf eebbd
ebc fedc
ebec ebcc
fdc dcc
ebc eeebe
ebbc def
bbdc ebf
ebb bedec
dbc bced
bbbd fec
bbef fee
eebf beee
bf eedf
dee bbbbc
bcf debc
bbebc bebc
ef bdee
bbebb eeee
f bbe</w>
bdcc dd
dcbd df
bf fdcc
debb fec
fbd ddc
bbbec bcc
ecec ebe
bbd eebbbb
beebb eec
eebc eebd
dbb eca
ecef ccc
be bbc</w>
bbf bcbe
ecf dbbc
bcbcbcbcbcbcbcbc bcbcbcbcbcbcbcbc
bec ecebb
fee ded
eebc ddc
bbbb ecbe
dbc febb
dddd ddc
bedd edc
dbb dcbc
bbbbbbbb bebbbb
bfc dfc
becc bbee
edbc bbbc
ebc edbf
bdc fef
debe bebc
ecdc df
dbe ecbd
bebe bcbe
febc ccc
bba bbd
beef fee
bbed beee
dbbd ff
eebf eeee
bec bebcc
dddd dbd
bebd bcbc
a bcdc
ebb bbdbd
ebc bcbec
dcc fdd
beec dfc
eba bbc
ecbf bbc
dd fbbd
bbbe eebbbb
bbbf fbd
fed ebe
bcebb bbbc
ecee bfc
becc bbec
ebd eced
eeec bbbd
febe fee
ed bbbbbbc
bbebe bbec
debe eec
dd bdebb
ebbee bdc
bbbe eebe
ded bedc
dcc ba
ac fbc
febe fc
bdbe efc
bfcc fc
bcbd ecc
bdbc bbec
ebc eebbbb
dee bcdc
ebec efc
dbf bbec
ebdc bbd
fdc dbd
deec fc
ed fefc
ebc eefc
eebbebb cc
ebf cccc
eebd ded
dcec eec
ed bbefc
dbe bcf
edcc ebd
dee debc
dbe eeebb
def edc
eecc ebcc
dbbc dec
fdc fed
ebbbc dbd
bbbb bdcc
ecbc ddc
ecee ebbc
ecec bbbc
fee bccc
debb bbcc
bbc bdebb
bef dbec
beebe ebf
ebc beecc
dbcc bcc
bec bbeec
dbb ecbbd
ac ebd
fbe dbbbb
ecbc beee
bbbb bdbf
bbdc fbc
dbe deec
beed bebe
fa fc
ded cccc
bbebb beec
a ecbf
ebbc fbf
bdbd fc
bd fbecc
fcc beec
edcc bbc
dbdc dd
eebc beec
beebb fee
fdc fee
eefbd cc
ecee ba
bbebe bbcc
bbdc bbee
ccc bbec
debc bbbe
decc dd
ef bceec
ecc bbebc
dbbd bcc
ecee bebe
dee febb
fec ea
beebb bbd
dbc eedc
becc cccc
dcc bebd
bced bcc
edbd bec
dc fdcc
ebec bebd
da bcc
bedc bebc
a deec
bdc bcee
edc ecdd
efc bccc
def bef
ecbc bbbd
ebbc bbef
bded bec
bbee beef
fed ebd
bcec ebf
bebf dbe
eebf ecc
f bbbac
ebcc fbd
bbeec df
ebb bebbed
dd eebbc
dbb bddf
fbc bccc
bcdc bbc
beee dbbc
becc dbd
bba df
ebb dbbbbc
bdc b</w>
bef debe
feec df
ec dd</w>
dbc eeed
fbc debe
bbebb eebc
debb bebd
bebec bbbb
ac fee
dbbd eec
bdc bbebe
bbbbc bfc
ebbbbc bbbb
bbf bdbd
bbcc eecc
bbdc bebc
bbebb dbbbb
bdee ebbc
bdbbbb bbbd
ebe bbbdc
fec da
fbf bbee
decc dec
ecdc bec
bd bbbccc
eedd eec
ebb fbbebb
eeebb bef
fa ff
bdee ba
ecf bbed
edbd dbc
bcc debd
bbc bea
eeec bbec
ef bbccc
dd bebbbb
dee eccc
bbc bddc
fdc eecc
ef beecc
fed dbf
bef eecc
bcbc debb
edbc dcc
bbd ebbcc
beec bbed
bf fbfc
fbd eebc
bcc beebe
bfc ecbc
bbbe dbec
ebf da
febe bbee
bcdc dbe
bdf dfc
eebbc bbbb
ebe bca
bbc c</w>
bbc bdbc
bbbe bcbbc
dbbc bebc
bbd ebbebb
bbf dbec
bcbc bbed
eec fedc
fcc ddc
bcbe dbec
f bbd</w>
ebe dbbbc
bcf dbec
ebdc bebe
ebf bcebb
ff beef
bbbec fc
bdee bbbd
bec eebe
ef bebbf
eedc dcc
fec decc
bedd ccc
bebbc fc
a ecbd
ea ebbc
bedd dec
fbc bbebb
bcbc bebd
bcee bebd
dfc ded
beebb ebd
bcbecc cc
ebc fbbd
debb beee
befc fc
bccc cccccc
bc eacc
dee fdc
bd bbac
bbbb bded
dbd eeee
ebec beee
ebec bbebb
fed bbbc
bcbd ebf
bba bec
eebf bebe
ebb bbefc
bbcc bebd
fee fcc
bcbe bbfc
ef bebbd
ba bebd
bf fdbd
dfc ebd
bbbb dbbf
bbf fa
fbd fcc
beebb df
dbbd ebd
fdd dec
fbe bdbd
bfbc bfc
dc ebbbc
bcec debb
ecdc dec
eedd bec
bbf bedc
febb beee
fbd becc
bccc ded
bcec deec
eeebb ccc
bfbd df
a eda
eec febe
dbbc ded
eebf bbbe
ebe fbbd
dbe bbfc
dfc dbd
dc dbecc
bbf bbdd
bebe bbebc
bf beebf
ecec fbc
beebe ccc
eebe bbebc
bcbf bcc
ebcc beec
dbbbb ccc
dbe ecbe
ebb fbbec
bcf ebdc
bf beccc
ef febf
ebe ebbee
bbf fbbbb
bbee bcbd
beed bfc
bbbb bcbbbc
bbebb edc
bbc bebcc
bcdebb cc
bbd bcbbd
dbc ac
fee eeebe
ecdd edc
bbc ebbebb
bbf eeebb
bbebb dec
dbe bbbec
fc bbebd
ff bcdc
dbb ebbdc
bfcc eec
dbbd bebe
bec eced
bbbc b</w>
bbbe fdc
def ba
bbebe bcbc
bfc bbbbc
bebc debc
bbbf fec
ef ddcc
dcc debb
bbd feec
efc bcbd
be bbbb</w>
ebb dea
fc c</w>
bbbe fed
bbef beee
ef bdf
bbec debe
fc bdec
dee bcebb
bbbbebb bbbe
ea bcbc
fbe bbbec
bec febe
bec fa
bba bcc
bf eeff
ebe bcbbd
ebf bcbf
bbed fec
dbc beebb
dbc fdd
ff bbbbc
beec dbf
eebc fee
bbcc ddc
bbbf edc
ef febd
dec eebd
bf dded
ebb bbbecc
ebc eeef
efc bbebd
fbc fbf
eec dbbbe
ff fbbc
bebe bebbbe
ecbc cccc
bebf ecc
ebbebb ebbebb
dbd debc
ecbc debb
ed fded
fbd fed
eccc bfc
ecee bbbd
fef beee
ff bced
becc bcbc
ebf fbbc
bbbc eeec
bccc fcc
dbcc ebe
ebbee df
bebe bedc
fc efcc
bbec eecc
ba fbf
beef ccc
ebb bbfcc
bcec fec
bebbef cc
dbb bfdd
bbc eeebc
bec bbebd
dbd fed
eac ea
ebdc ded
df bcef
dbe bebbbb
febb bef
bdbc fee
be bbbbbbbbbbbbbbbb
ebbcc fee
ed fba
dee da
bbf beebe
bbbbbbbb dbbbb
deec ebd
bcebb ccc
bbfc ebc
ed bbbbbd
bbdc bfc
bbdd ded
bbebe eeee
ecf ebdc
ac bef
bbef ba
ed beba
ed fea
bdee bcbc
ef bebbee
dd bcebe
bbd fdf
ed bebbec
bcbd bebc
ef bcdf
bbed fee
eec eebbc
bebe bbbec
eecc cccc
beef bbee
bfbc bebc
bfbc fbc
dec bbbf
beebb bbbd
a bbbcc
ebe beebf
efc ebec
bbdc ded
bcfc df
ebb fbbcc
ef eebbbb
ebe bceec
ff bbfc
dbc ecbd
bbbe bbeec
bdbd ccc
ebbbc ecc
da eca
bba bbbd
bedd fc
bc bbbbbbbbbbbbbbbb
efc eedc
eebe ebbebe
bedc bdc
debd bbc
dbf ebbc
fdc ebf
bef debc
fbd bbec
fdc bbbb
eeebb bbbc
bea dd
ebcc eebd
fec eebc
ebd bebbd
ac dbd
decc ebc
eeec bbee
eced bcc
ebe fbbbe
edc bdcc
beebb dd
bebbebe cc
bcbe dbbbb
bebf bebc
bdee ddc
fc eeebc
bbd eba
debb fee
bdee ebf
dbc deec
ac ebf
ef bdbbc
beee bebd
bbd bdbbc
fc fccc
ecbe bbdc
bcee ea
bcee dbec
eeee bbbd
def bcbc
beebe bef
dbc dbec
eeef bebe
a fbbbb
bbbc bbfc
def bebc
beef bbf
bdee bbcc
ef bac
ef dcbd
ebd bbbcc
dbb ecdbe
bcf bbbec
fdd dbe
ec dc</w>
ebc eeebc
ebd ebfc
ff bdcc
fbc febb
eec feec
dd ecee
ebc eba
da bdc
ecc beebe
ebe debbc
eec efcc
dbb dddc
def dbf
bebf bdc
dc fdbd
ebbc bcec
dbb edebe
dee bbef
dcc ecbc
beee ddc
eef debc
edc eddc
dbb eceec
fbd bcbc
def fcc
bdbe bbdc
ac bfc
ecdc dbe
bfed df
efc eebd
ded debc
ebec ddc
bebbc bbf
beef bebe
ebbc bedc
bbebb febb
bbbf dbf
becc bebd
bd dcccc
fc bbeec
ecc febd
bef cccc
eeec bbcc
ebb bedcc
bbbc bcbf
debd a
bf eebebe
dbd beed
ec ecbccc
fbc ecbc
ecf bbdc
ed be</w>
fc e</w>
bcbe dfc
ef bcbbd
fbe ecbd
dc eeedc
bec bcef
ff febe
dee bbebe
fec bccc
fbd beec
bbc bcebc
bbbe eebf
ea eba
ecec bfc
eec edbd
bbec debc
fee beec
eebc ebec
bbc bcbec
ecbebd cc
ecec bebc
ebc fdf
dbbc bef
ac bebc
bcec bbee
ea bbcc
eebc fed
ebd bdbf
bcebe bbbb
bbbe bbebd
dee bedc
bebbbe bbee
a eedc
fcc bbee
bbef dbc
dc dcccc
fc ebbcc
bebe beed
eccc bbbb
dbbc ebf
dcbc dec
beebb bbcc
ef bda
bdec ebe
dd bebec
eac ba
bbbbbbbb bbbbbbbe
bbebc bcc
beee beec
fbe bbdd
bebbbb bbd
becc bef
edc efcc
ebbc debc
fbbc bcc
dd fdbe
ebd dccc
ec dbba
dd eeef
df bbebe
bbf ecbd
eef eba
ecbe bbbec
dbbc bbec
bcf bbebe
bdc dbcc
ebec dbf
febe bcc
bf fdbb
ebb bbebcc
dee fbf
dbc bedd
bbbbc dbbbb
fbc ffc
bbd bbecc
bfc bbdc
fbd ea
bcec fee
ef fbef
dec da
ecbe dbec
ebbee ba
bbc feec
df bedd
dee bebbc
fcc fdd
fbc bcbd
becc bbcc
bced ebc
ebbc eeec
eec bebec
dbb ebbef
ded eebc
ded da
fcc ea
bbebc bebe
edbd bbbb
ecc edbf
bdc ecbd
eebd dcc
dc dbbcc
eec beecc
df dbcc
bbbc bcbe
fcc bebd
bcec edc
ebd dbbf
df ecbf
fbd bebd
fc bcebc
eeee fbe
bcee ebcc
ecf debc
f bbc</w>
bf ecbbd
ecc beef
ecc ecebb
dee deec
dbe b</w>
ecc eebbc
fbec bbc
ebb ffcc
ebf debc
dd beebc
febe bbf
bdcc bec
ebe beff
bdf debe
a bcbbc
ed fbbbd
ebe e</w>
fed efc
dd bdec
bbbe fef
ded decc
ed bbbbebb
dc beebf
bebc bbdc
ecc dbbd
bdbc dcc
fc ecebb
bbee dbec
dbb edbbbb
bbbd becc
eeee eebeee
bcee ecbc
a bded
ec fbdcc
df eedc
ebe bcbcc
fc eebe
ebe ebbef
dee dfc
beee becc
ebe bbccc
ff fa
beee eeef
ebcc fee
ebc ebecc
bebc bbebe
ecc bddd
bec eef
eebc bbed
ecf def
bdbc edc
bcfbd cc
ed fbeee
dbe beebe
eec bea
edbc bebe
ebbbc bdc
ec deac
bbd bedbe
bbec ddc
deec bdc
febc a
ef dded
dbf ddc
dc fdec
bef bcbf
bbd eeebc
dbd bbbbc
bbbd bbebe
bd dedcc
df ecdc
dec bbdc
bdbc bfc
eced dbc
bec fecc
dbe fef
ebcc becc
dd ecebb
bbc bcbcc
dec fdc
fed becc
ecbe debe
bccc bbbe
eeebb bcc
bbdd bebe
bbfc bbbc
bbc fbcc
bcbbc bbbc
fbbc ff
ba beebb
eeee febe
bef eebd
bbec fbe
bbc bbccc
edc dccc
edbd dbd
bbebbc bbbb
bec bea
eec ebfc
dbe ebdc
ecee ded
fc eefc
bbc bbbdc
bbc bebbd
bcbc becc
bced ded
a bebbbb
bedc dbc
ecc bcef
fbc cccc
bbbd bbeec
bbcc eebd
ebbbd bbbe
cccccccc cccccc
ba fbe
ebbc bebbc
dcc bbed
dcc ecdc
ecf bbebb
ef dbbbc
ebe edbf
ebd beebc
ff beebb
ebb bebbbbc
bcc bdbf
ebbc fdc
bdc da
dedc bec
bfc eebd
bcbc eebc
dc deccc
ef eefc
bbc bfbf
bcc ebfc
dee bbebc
ebcc fdc
bd bebccc
ebe fecc
bbbb eebbc
ebe eebbf
beec bbebb
bcbbbf cc
eec b</w>
ebd ecbf
df bebbc
fec deec
eeec bef
eba bba
bdbe bbebe
ebbc febb
efc dbec
dbf fdc
ef beba
bcbd bbee
ef ebbbf
bbd eefc
ebf bebbc
bbbbbbbb bcbbbb
a eeef
ebe bdbbc
bbd eebec
ed fddc
beee bbed
ed bbdbd
dc ffcc
eec eddc
bbbb bbccc
bcc eddc
bdbe ebec
bd dbbebe
bcc bfcc
bebd bbebb
ecbc fee
dc efbf
bcbebd cc
ded dfc
beee bccc
bcbd bef
bcbd bcbc
ebbbc bebc
bfbc bebe
fc bcebe
dbb edebc
ef bbbdc
bcc dccc
bcc bcdd
efc dbbc
eeed bdc
eec ebbcc
ccc beec
bfbc ebd
bbc eefc
bbbe beef
bbf eccc
bdec bdc
bbbb dbbbc
df bbfc
fbd eecc
bbbec a
ef eebbee
bec edcc
dbb bfef
fdd dee
bcc fbec
ef bfed
ff dbcc
ebbc bdbd
eebc bbebb
ebdc fec
ef bcbcc
ebe c</w>
bded ccc
debb dcc
eeef bbee
edbc ded
bbdc dcc
bcee ebec
bbbc bced
bbd fbcc
ba beec
fbc bcec
deec bebc
bebf fee
eced dbe
ee dbac
bec ecbf
ba b</w>
bebe ac
ef fbbbe
bebe eecc
dbbc dbbc
eec eebe
eec bddc
ff bedc
bbbec bbf
ef debf
ebe bdbec
ebc eebec
eec dcdc
dca bdbf
ebdc bfc
bcdc dec
a dda
dbc eebe
eeee dee
dfc bef
bedd bbbb
ecc bcfc
fbc bbbbc
dbf efc
ecbd dcc
beec beed
ebd d</w>
bbbe febe
bbdd dbbbb
bbbf fcc
dd feec
dbe dbbd
fed fee
bbed bbcc
bbdd edc
fbc eedc
bcee fee
a d</w>
bbbd ea
ecbd bbf
a e</w>
ebf bdcc
bebe bced
beec ebcc
becc bedc
ebe fdbe
debe dbd
ec eecccc
bbc edcc
ff eecc
bac da
eec ecdd
dbe eeec
eef dbec
bbbbbbbb bbf
ebc bebbf
fdd dbc
ff beed
bebc ddc
ecbc efc
fc edbd
eeee cccc
becc ebec
bcee fbd
fc bebec
bef eeebe
debe ebf
dc eebbf
def bbee
ebbee dbc
a eeed
bbc eeebe
eec bedbe
fbc debc
bbebb eeebb
beec fbd
eeee bbcc
bcf da
bebf dbc
bbbb dbcc
ebe ecf
dbd d</w>
bef bcebb
dcbc dbc
bbfc dd
ed bbea
bebf bbd
bdbe dbbc
a ecec
bcc dbbd
bbbe da
efc decc
ccc eecc
ecdc ebd
fbbebe cc
bebf beee
df fdf
dbd dddd
ecc fbcc
dcc ea
dc ebbdc
bf bedbc
ebbee bbd
debb bbbbc
dcbc bbf
bbbe ebdc
ed db</w>
ebb deecc
bbc bedbe
bec feec
dbd bddd
febb fbc
ebd dddd
bcbd fee
bcdc debe
ecee ac
ed eb</w>
dee bdcc
ecbd ded
a eeebe
bbcc ebcc
bbbb bcdd
eec dbbf
ec bbb</w>
ef bdebe
dbe fbbc
bbbc ac
bbdc fec
bf eedbe
dc bedbb
bbdc bef
ed dbdcc
fcc ffc
ebd fbec
bdbd bebe
ebc eebcc
fcc dfc
beec ebec
dbbc bcbc
ecc eefc
dbf debb
bbed becc
bbbf fbf
ecdc dbc
bec bdebb
ff ebdc
ecbd bebe
bedc eecc
bbbf debb
ecbe ebdc
bcbd fbc
eebe bbbec
bbeec bbbb
bf bbbbcc
ebe febd
dec dedc
debe bcbc
bcec def
bdec dbd
bebbebc cc
dc debcc
bec bedbe
eccc bbbe
ed dbbbbc
febb ebd
bef bced
ea fbe
becc eedc
fc bfdc
deec ecc
fdd edc
fed dfc
bebf bfc
edbc bfc
bbec eedc
beed bbbc
bcf bbebc
fc bdebb
fdd fec
eebd bbbd
bbbb eeebe
bbbb bbba
ebbc bbdd
bbc eebbbb
bdec ff
ecc fbec
ded ebcc
edbd ebd
dc eebdc
df febe
fcc ebec
ef bcecc
debe bbcc
bccc bbcc
ebbbbbb bbbd
bef bbebc
bbed bcbc
dd dbbbc
bdc eebf
bdf dbbc
bf eebeee
bba bea
eeec ddc
bbebb ebbebb
bcc bebbbb
fef ebf
bcc bcbcc
ef dbfc
dc fdbb
bbbb ffc
ebbc dfc
beebe fee
bedd dee
fbd bbcc
bbebe dbc
ebe beebd
dec fbe
eebc ea
bcc bbccc
bbbc eeebb
efc eccc
fee becc
eced bec
bf eeecc
fed beec
bedd ebc
bdbc beee
bba fc
bbc dbbbc
eecc becc
ebbbc bbec
dc eedbc
eec fbec
ebe bebdc
bebe eebe
fed ebf
ebfc bec
dd edbf
fdd ebc
fc dbfc
fcc bbec
dc fbbbc
dbbd ebc
dc bebbbc
bdec ebd
bdec bbd
bbc fdf
eec bebbd
def bbec
fdc bebc
bbed ebec
eec eef
ef beebf
ed eebebe
dbcc ebc
a bcef
dcc eeec
fee cccc
ef bdebc
dec ea
bccc ebf
dbec dbd
ed fbbcc
ebe bcbbbe
bbf cccc
bdc debd
bcee bbbf
fa bba
eec bdbf
beee febb
defc df
ed bbebec
bef ebdc
def ded
ecee dbbc
bbbb eccc
dd eba
dcc beed
ecbd bbd
bbf bbbcc
bcbd ded
bbbd fbe
ac bcbc
fdc bebe
bbf ebdc
ecbf edc
beee eebe
eecc bebe
bf beedc
df dbbbb
bbef bbebb
ecec bbec
ebd bcbbc
ccc eccc
ecbc fbd
ebbbc bbebb
bcbd edc
bbfc bbbe
bedd dbe
bfec ff
beebb ebbc
bdec ecc
dbb edef
fec dbec
ac bebe
bebbc ebc
fbc bebf
dbb ecbcc
eebd ebf
eeec debb
bdf da
ed bc</w>
bbf dbbd
bbdc fee
dbbbe bbbe
dbc dbbd
bbed dbf
febb ecc
bbbb bcef
ebd fbcc
dbb bd</w>
ecbe dfc
dee fbbc
bbcc bbbf
bbdc bbec
eef ebdc
dc dea
deec dbd
beed beec
dbcc ff
debe ebbc
bfec dec
bbd beebd
dbc bbebe
eecc bbee
ffc dec
ecdc bcc
ebe bedbe
bcbc efc
bcbe da
ecbd bbbe
bf dbecc
bbd bebcc
dcc bedc
becc beec
bcbc bcec
bbdd dec
fef bec
bdbc fec
ebc ecf
fcc bbcc
debd fc
debe bfc
bbbbbd bbbd
bbc ecbbc
bef eeebb
bbbbebb bbbbbbbb
df edbd
eebc bedc
bbebc dbe
bf bbbbbbc
bbbb ebbcc
bdc eebe
edc ebfc
bcbf dee
fbbbb bbbc
bbdc ebbc
bc bbeba
dbb edec
dbbc bfc
debc ebbc
ebd bcfc
bdc eeebb
ddc debb
dcbd dee
bec bdbf
ecc eded
beed debb
be deac
becc bbbd
ebcc debb
debe bbbd
bbbb ebbbbc
febc fc
bbc beeec
bccc ddc
ebb fea
ccc beee
def ebbc
dd ebbcc
ed bedbf
dbb ebbdd
bccc fbc
bbfc eec
bdbd bbbc
edc eebe
bebbc bebe
edee dbd
ecbbbd cc
dd eeebe
bbef bfc
dd eefc
ecc bedbe
ff eebf
bcebb fc
ef bdfc
ddc dbf
bebf fbc
ebbbc ebbc
dc fbef
ebc ecebc
bef bedc
bccc bbd
bcec ebbc
eeed dec
bcbe bbeec
bbcc bbed
be ef</w>
bcbc dbf
bbebe ba
da dbd
bebbbb dbe
bdbbc dbf
ebb dbbdd
bec bcdd
dbc ebdc
bbbf bebd
beec ea
eebc ebdc
dd febd
edc fbbc
dbb ebbbbd
beee fbf
da ea
bebbc dbe
ebd efcc
ef beebd
ebc dbbbc
bcbe deec
edbc bbee
a ecdc
bf fdec
dc ebdcc
dd debf
ebc bcbcc
dee bcee
bdbd bcc
dd bdbbbb
ebb fbbbf
ebd ecebb
df b</w>
eeed eec
bbbe b</w>
ded bcbd
dfc bbd
fdd ecc
ebf eeef
dcdc dcc
ec dbbebc
dd bbeec
fec eedc
fcc eccc
beed ecc
dbd ecbc
bebc dbbc
bbebe fee
ecf dbec
ec deba
bbbe ebbbbbb
ddc bbec
dd bb</w>
ebec bbed
beec bedd
bbbb bbebbc
bcc bcbbbb
bebd efc
a fdf
df ecec
bec bebbd
bbee dbbbb
bef eccc
ebc dced
eebd bfc
eeec fee
bded dbe
ebc fbdc
dc debec
bbbbc bbed
bbbbc ba
debc eecc
eebf edc
eedd dbc
ef eddd
dbd ebcc
eeebb bbebb
bbbb eef
bdc bcbf
ebec eebc
fc bfed
ff debe
dfc ebf
ebd bdbc
bdc fbbc
bccc bebc
bbbec ebe
bdc dbbd
ebd bcebe
bbd beeec
bcee def
eac dbf
f deac
bebbbe bebe
bbebd df
ef bbedc
dd bea
eec fbcc
bbef fbc
bcec becc
bd bbeecc
beebb ecc
bbc fbbd
bdc bcdc
ebdc ebbc
dbcc dbc
dc bbdcc
bec ecbbc
bcc ecebb
efc bbed
beebb bebc
ebc bbbbbbbb
ff ecbd
bbec bcbd
fcc dbf
fed debb
bfc eedc
bcec beee
cccccccccccccccc cccccccccccccccc
bbdd bdbd
fef bbee
bbbe bdcc
dced ccc
fec beee
ff beebe
ecc eeef
eba ba
eebbbf cc
bbc bdef
dee debe
bcbbbb bbebb
ebbbd dbe
bbd bcfc
dbb ecdee
bdee bbebb
ebb bedebb
ef eebeee
ecbe bbebc
bbec dbec
bbee debc
fbe bdbf
a fba
ebc ecbec
beec decc
beed ebd
fc ecf
bbbe bcf
dced bcc
bbef eec
ebb fcdc
ea debb
bbbd bebf
fef bef
ec debecc
dc bedbd
dbc eccc
dcc eedd
bebd eecc
ecc bba
ec eacc
dddd ccc
eeed bbbb
beef bef
bbecc ccc
dee bdbd
dec ebdc
beed edc
fdf ccc
ecc bbbcc
ecee beee
bbc bdbbc
bbd bdbbd
dee bcbf
bd ee</w>
dc bebbee
bbc bcbbd
ff debc
bebd dcc
bc bbc</w>
bbbe dbbd
fbe dbcc
ebc beebd
fee fbd
dfc fbc
dbd dbec
bfbd bec
bbd fecc
eebe edcc
bbbec bbee
ebc bbbdc
dec eeec
bbcc fed
edee ddc
df eebf
bebc bebf
bcbc ddc
dbd fdc
eeee eef
dd ecf
bcc bebec
bdc bdcc
bfc debe
dc fcdc
bedc bebe
bbc bedf
ef ecbec
ea fcc
ded dbbc
ebec bcbd
ebb bbbccc
ba becc
bbbc debc
abd ac
bcc bddc
ba fa
dec debd
ea bbed
bd dbbef
fee febe
bebc def
eddc edbbc
ea def
ebec bbbf
ebc bfdc
dbc bcdc
bbebe bbbf
eeebb bec
df dbbd
bbbe eeebe
bbec deec
ed bebecc
dc fbebe
bdee dbf
bbd ecbbc
bbee ac
ebf ecbd
bcec fcc
beef fc
bdbc ebbc
eeee ebd
eecc fdc
bdee fcc
bbc dccc
bbc febd
bfc ac
ecbc bbed
ef eeff
fed def
ebe bcebd
ebc fdbe
dbb dcec
bcf bba
eebd fec
dfc fee
beed dcc
bebf ebd
ecdebc cc
decc eebc
fef dbe
bbbbc fbc
df deec
efc dedc
debb dbf
bcebb eec
ebc eded
dbb eac
edbd edc
bdbc ddc
bdbf fc
edec dbc
bf febbc
bbbb bcbbbe
ef ecfc
df bbebc
ecee ebcc
bdec bbf
dcbbd fdd
ded fbd
bbbb bbecc
ba efc
dbbc ecc
eeebb eeebb
ef bedf
ebe bebbbc
bdbe def
debc fec
edcc a
dcee ddc
bebd fee
bbbb debd
ebe beecc
debb eecc
eedc fec
f ebe</w>
ccc becc
df fbcc
bbbd bebbbb
fbbc bbbe
bec bcebe
bdbc bbcc
dee ecbd
bebd dbf
bbebe ebd
dc ebbef
beee bcbd
edcc fbc
da edc
ebbbc bef
bf ebeebe
bbf bdcc
dbb efbf
dfc bbbc
fef bebe
dc fbfc
ebc eedbe
decc ff
bf dddd
bbbb eeed
ebe dced
bec efcc
beee eebf
ebf ffc
bfc eeec
bdbe ac
dc bedec
bec bcebc
bbec eebd
ebec fed
ebfc a
ebe fbbee
bec beebd
bebc eedc
dee eebd
eef debe
febb bdc
fbe bfcc
bebbc bcc
ed bbebcc
bbd bfbf
dee bbfc
eddd ccc
ea beec
debc bbbc
eced dec
bec fbbbb
dbbbb fc
eccc bebe
ecbc bebd
bbbec eec
bfbd a
bbebb bcebb
ecebb ccc
dee bbdd
bbee beed
eebbbb bbc
bbbb bea
ecee bef
ebdc efc
ebbee ebc
bfbc fec
ebd bbeec
bebc bccc
edbc ebbc
ebb beea
bbd bcebc
eebf bcc
dd ecef
bbbb bb</w>
bec dbbf
bbf bdbf
ebec bbbbc
bcbf bbbe
bec fedc
ecbf ebc
dc bbbfc
bbf bcbbc
bdbd eec
febe ebf
bbbb fbbbe
bcbc bbbf
bbbc dbec
bfc fbbc
ebe feec
dec fbf
ecebe bdbbbe
bec bcbec
edc fa
debb bbbf
bbbb fdd
ebec bedc
ecee becc
bbd eeebe
bbec bbebe
bebbbe bbc
dd bebbd
bec bcbbbb
dee bebf
dbbbb df
bcdc ff
bba ccc
dbdc eec
bebd fbd
bbbcc a
ebbbc fbc
bd dbba
bbbb bbebf
bdc ecec
dbb dcebe
bfbc ebf
ebbc eedc
ebe bedf
bcc fecc
bbd febd
edc beebe
ea efc
eebe bbdd
bbbb fa
dbe dbcc
dec beebc
ded bbebb
bbbbbbbb bbbf
eedd bbc
bfbc ecc
dbc fef
dbbd bebc
bbbbc bcbbbb
fdc fcc
bebbc bbee
ebc bfbf
fec bcbd
ba bcbd
dcbc bdc
fc debf
beec fcc
dbc eebf
ebcc eedc
bdbd bbf
befc a
ed beebcc
fc dbbbe
bebbc a
dbf becc
ecdc bbc
bdf debc
bbef dbd
bebf eec
febc bbc
bceecc cc
ebc ebccc
ba febb
ebcc bbed
debd ff
dd bcfc
bcc bcccc
dbc dbcc
bbbd def
bbbec bbebb
ed fbbec
ebd febd
bcec ddc
da bbf
bcdebe cc
ef acc
fc defc
dbb ebbbbbe
ebbbc ebf
bbef ecc
beef ebf
ba def
bbbbc ecc
dfc bfc
ebfc bcc
beec deec
bbbb bbdbbbb
bdc dedc
bbec ecbc
ef beeec
df eeec
bedc fbc
ef fbebe
ef dcbf
debd ded
ecec fcc
beee bbdc
beebc bbc
bd feecc
ebe ecef
df bba
ebc ecfc
eccc ebf
bcebb bbf
ed dbbed
dc bedcc
ebe eefc
bbd edbf
ebbc bbebc
efc bbdc
fbf eec
bdf bbdc
dc ebbbbc
bbee bced
beec def
fed bcbc
bebf edc
ef ebbebe
df bded
ebec eecc
ed bd</w>
ebbc ebdc
edcc dee
dddddddd dddddddd
da da
bcee dbbc
bcbbc bbbe
ebbc eeee
bf fba
ed eeebf
bddd ddc
bebd debc
dcbc dbd
bbbb bcbec
fc bebbbb
dcc ffc
d ba</w>
fbe deec
ecbe debc
ef fbdc
debb bbed
dbbbb bebc
dbbbb bbdd
ecc ebbcc
dbec bbf
dc bbebbc
dbbd bbee
ebbbc dec
bf dfcc
bf ecdbe
eebc bbbf
eccc fec
eedd fbc
edbc ebf
edcc bcc
ba bccc
bcbc def
dbbbb ebd
eebf bef
bdcc bbc
bbbb ebfc
bfc bcec
bbbbc beee
eccc bccc
a bedd
ed eebeee
ebc bcecc
edc bbef
eba bbbe
bec fbcc
ecc bedf
beebb dbc
ebe eac
ebc bceec
bbbc fbbc
bbfc bef
ecdd bccffc
bcbbc bcc
efc da
bbbb fbec
ebe ecbec
ebe fbebe
ecc bbeec
dbb dcef
bbbd fbf
ebcc fed
bdbc bebd
bfbc bdc
edec dec
eced fc
febb febb
a febc
bbd eded
bdbd ff
bcdc dbc
bbebc dee
dbf fbf
debe dec
ef eca
ecc feec
bba dbc
bfc bebf
ebc debbc
ecbc eebc
fdc eebc
beebe ff
dbb bffc
eecc fbd
fdd fbc
edbd eec
bbd fdbe
bebd ddc
becc debb
eccc bbee
decc bbc
bebbc eec
ebe ecee
ebd debf
bcebe bbc
ed eebef
ebbc bbbec
bbebb bebf
bdec bebe
ee bf</w>
dee dbcc
dbd fbe
ac edc
eecc ddc
ef ecbcc
ebf ebdc
fc ecdd
bebd bedc
beebb ba
ecbe bbebe
edbd fbc
ebe d</w>
bbec bccc
ebe bdef
ebf fa
bbbd eebd
eeee fbf
bcdc dcc
bf dbbcc
ebe bdbbbb
dee bcf
bcbf bbbc
ebc bdef
bcc dbdc
ff bcee
bdee debb
aa aa
ef bcebd
bbbcc fc
ebf bbfc
bedd bdc
dd bdbbc
df bbbec
bf ececc
ebe eddd
efc debe
bcec bbcc
bcdc ecc
edec bdc
ebb fefc
fdd bdc
dbbbe bbc
f ebd</w>
bbbb ecbf
bcc bddd
dedc dec
bbbb eba
bcbc ebec
bdf bbef
ebd bea
fec dbbc
dbe befc
dbd fbf
bbdc ddc
ebe beeec
ac bbee
bcef fc
bbbb bbbebbbb
edc eeebb
dbbbb bbec
fef bdc
bcef bebe
def bebe
dbbf bbc
ebd ecdd
ea fbf
edbc fcc
bec dccc
dbc ffc
bebd ebcc
becc fee
bec bebbbe
dbb dcbbc
bbbbc debb
eebd ddc
ebe febf
dec bebf
def bbcc
ebdc ebec
eeef bbf
edbc bbbd
a bac
eec febd
eddc dd
ee deac
bcc fa
bebbc dee
eebbee bbee
beec beebb
ac bba
bcec bbed
bbbe beebc
ecbc ba
ebdc bbbd
eeed dbd
ebbebb bbc
bedc eebc
bded bbc
ebc bbccc
ecbc ebcc
fec beed
bbebc bbee
eedc ded
ebb fdbf
dbe bedd
edcc dbc
bdec bebc
bedc bbf
edcc df
ebd feec
bbd ebbbbbb
bfec dbc
dbe ffc
fbc bbdc
eeec debc
bbcc dbf
dbec bdc
bfcbbef bedd
bec edbd
bcbd dcc
bcbd bbec
ebbbd a
bbbc fdc
bfc fdc
fc bddd
eec bbecc
bebe febe
fbc beed
bbed ddc
fdd ddc
bcebb bcc
bebbee bbee
ed beefc
dbb ebbec
bcbc fbd
bcebb bebc
eedd ebc
ebf bcf
bdcc df
bdec beec
da ebc
ecf bbbbc
dcbc ded
ef ecee
fc ecbbc
bdee becc
bbbb deec
ccc bbbd
fbe bbbcc
bbebb ded
edc bcbf
a fbec
ccc ba
ea beebb
eebd fcc
bbbb bfbf
bec bcfc
ebd fbbbb
bbebb ebec
bebd bbcc
bd defcc
ebe fccc
bbd bcbec
df bdbf
bbbe ecebb
bbf eebe
fec dedc
fdc ddc
bbebe bbbbc
ecec ddc
bdbc ba
bd fbccc
edc dbdc
bebd bbed
dbbbb bbcc
eec debbc
dbb ebeebb
dbb ebbebc
bbfc fbc
fbf bebc
ecbd ddc
ebbbc beee
bbebb bbebc
eeebb dd
fc bcbec
fbbc dbe
ebe eeebc
bbf ecbe
bf ebeebb
dbb ecebd
bbec bebbc
bebd beee
fbf fcc
dc bbba
ac fec
bdee ded
dc ecbbbb
bcc bbeec
bbf ecbf
fbd dfc
fee dbbc
ecbc dbf
dbec ecc
bdbc debb
bfc fef
eecc eccc
bb ba</w>
ef eac
ebc bcbbd
bcc bcebe
fdd dbd
bdec bbbe
ac beec
ebdc bebc
ecec bebe
bbdd bbee
bba dee
bebbbb a
eeef bef
ee debccc
ebe bfef
efc fbe
bbbb befc
eebd bbee
dbec bebc
debd dbd
ec dbbbcc
bbbb bfbbbb
ef fdbc
ebd bebcc
ba dbbc
bbbb bebbf
ebe dbbee
fc eddc
bcebb a
ebbee bbbd
bec dbbbe
bbdd dcc
edec dcc
dcbd ccc
ebd bdebb
bbbec bebe
bedd ecc
eec eced
dbe eedc
bbec bbebc
ebc ecee
efc bbbf
bbec ea
debc dbd
bfcc a
dbe febe
eef bbfc
bedc bbbe
bebbc df
dbdc dbd
bbdd ebf
bfc ffc
beebb bdc
eeec ebf
ed bebbebb
ebe eefee
ecbc debe
ebbbbbb bbbbc
dd bdef
fc ebecc
bbd eeef
bbcccc ccc
ecbbed cc
ebe dcdc
bbd eddc
dcec ff
dbf def
bebd debe
bcbd beee
bced ff
bcbbc bec
efc ac
eebd debb
bbbe eebbc
eebc eba
fa bbc
bcbbed cc
ecc bdbf
bcc efcc
bbbc eeed
ebbc bcee
bbdc beee
eedd ff
bcef ccc
bdee beee
bdee beec
dc fbbee
ebbc bcebb
ebd eeebe
bbec dbbc
fcc def
ed ebfcc
fc bcdf
bbbc bcee
dbd dfc
bbbd eeee
df eced
becc fbd
bcbd debb
bfcc bec
bef bcf
ba bebf
bbcc debb
bcbc beed
df decc
bbbc fef
eebd fbd
ef efbf
dec bbbbc
dcc dfc
efc fbf
bba ff
a dbbf
bf bbcbbc
beebb edc
bd dc</w>
ebb dbbebb
bbbb bddc
ecc dbbbb
bced beec
bbc eebec
bbbd beed
bccc bebe
dbcc dbe
ea fbd
bedd ff
bcc fbcc
dbb edbec
debe beee
bbfc dbc
ebe bcecc
ddc dfc
bbd fbbf
bbec bebf
bbecc eec
fcc ba
bf bbbbebb
bbc eba
eebc dbbc
fbbebc cc
a bbeec
edc bcdd
bbee fbbc
bfc ebdc
bef bebbc
ffc dbc
dee b</w>
ffff ffff
ec dbbeec
dc ebbbbbb
fc eba
decc fec
bc ebb</w>
bbbc eebe
eebc fdc
ebbee bbbf
fceebc bfdbbbb
f ebc</w>
bd ed</w>
ebd bcef
bbee dbbd
debe ba
ecbe bbef
edcc dcc
fee bebd
eef bbdd
deec dcc
bcdc bcc
bbbe ecbd
bbf eeec
befc bec
fc beebd
ebf bcee
bbebb beebe
dcbc ecc
ecdd ebc
eec bcfc
df debd
dbb eda
bcbe eccc
dbbbb bbbf
bbbd da
bbee bbbec
efc bedd
dbec bbd
bfbc dec
dbb eddf
beec dbbc
debc bfc
bbbb fbbd
ef fdee
fc bebbd
be bbeac
bf debec
dbc bcbf
dbc da
fecc efebbc
ba bbebe
fbc bced
bbbb ebbbf
dd bcbbbb
ecc ebccc
dbcc a
ef dba
beebb bbebe
bbc bdbbbb
ebd e</w>
ebe ecebe
ebe ecbbbb
edc febe
dee bded
bbcc bbdc
ddc bbed
becc beee
bcbe bbdd
fc ecfc
ebc c</w>
bec ebecc
dbb ebbbec
bebc bced
be a</w>
bdc dbbf
ecbc ebec
eebd ebcc
dbe ecbf
bbfc ebf
eced a
beec eedc
decc bcc
bfbc bef
bf bebfc
bbbe ecbe
bbbe bdebb
dbc debd
ea fec
ddc def
eccc bbd
bf eeccc
fc dced
dbe bba
bdc dbdc
debe dcc
febb bbebb
eeec eebc
ecee bbebb
dbe bded
bdec bef
eeec dbf
eeed ff
bf eebdc
ecc bcebe
ded b</w>
becc fdc
bcee ac
bbf dbbf
dbb bfebe
fbf ba
df dccc
beee febe
febb bbd
bdee bbed
bebe debc
fee dbec
fbf dec
ecbd bfc
bbc eeef
ebbc bced
eebd bbec
febc bec
debb ebcc
bbbbc dec
dedc ecc
ebb dbccc
bebe fef
ebec bccc
bcec ba
bbbd fcc
bdbe ebcc
ded bccc
bdec ef
ec bbebfc
ebc ecebe
dbc eedd
bcdd ccc
bca a
dbd bedc
bcbd bfc
ddc beee
beec bbdc
bcec dbec
fdd bcc
bcbf ef
bdec dcc
bbbe bebec
bc bbd</w>
ebc bdbbc
ebc beeec
bbbe bcdc
ebbc dbbbb
ebb bedbf
bebe dbbbb
decc ebd
bdcc bcc
befc bbc
dcdc dd
ecddbccffc ecebebdbbbe
ebf bdbd
fbc ac
fec ebec
ecec becc
beebe bcc
beebe bbbc
bdbe bbdd
bebc dfc
bba bbee
ebbbd bbf
ebb bebbef
edc eef
da dcc
ecc bcbbc
ebd eddd
bbebe eec
ecbf df
ebe bbedc
bdc febc
eccc efc
beebb fbc
bbebc bbd
dbd bccc
ecbc def
eeec ebcc
ebe bcdf
bbf dbcc
bebe bdbd
ed feecc
ebe bdebe
ebe eeff
bebc eedd
eecc bbec
bbbb ecbbbb
bbed def
eeebe eeebb
dbe debd
ba bdbd
bebd eebd
beee ebcc
bbbf dcc
bcec bbbd
beed efc
ebd bedbe
ecbe dbcc
fdc dfc
ecdc a
ebe bbebbc
eec ecbbc
bbbc dfc
ebbcc bbc
bec eba
bbf eef
bfc bcbf
eebe debc
dd ebecc
ebd bcbbbb
dbb f</w>
bbdc bcbc
dbbc fbc
bf ecccc
ebe eeebf
ebc fbbf
eec c</w>
bbec bedd
bdcc a
bfcc bbc
ebbee dee
bc bbbb</w>
ec dbbebd
ebe ebbbbc
bcc beebc
ded ea
fee eeef
ebbee bbef
fee bcbd
fbe eba
fbf bcbc
ed febcc
dbb bfa
bdbf a
ebd fbbd
bfc bebbc
dec bebbc
eedc bbf
eec bcbec
bbbd bdbbbb
beebb bbbf
dedc dd
f bbeac
fed eecc
ebbc fbbc
beed ba
beebe beebe
ef bebdc
fc fedc
dbd eeec
bbfc bbd
beef eeee
ef eebebe
ebc bac
dbd bebf
eebc eccc
dbbc bbcc
debe fbc
bfcc df
bbbbc bebd
dcbbdfdd eecfdc
ed beea
ebe bbbbebb
eebf bdc
ac bac
bcbe dbcc
ebe eebef
ded bced
ddc beec
debc bbd
ed bedebb
bbbb febc
bebe eebd
bbbf ea
bbbec dd
ebf eebe
bfc febb
becc ecbc
eebf bec
bbbe cccc
dbd deec
fec fdc
ecbf dbe
ed fdbf
eec bfdc
bcebb ebc
ed defcc
edc dbbd
edc bded
bef eeef
ebdc bbbc
bbdc bebd
ef ebecc
ef ebccc
ef eded
eedc eecc
bdbc bbed
bbee febe
ffc bdc
edbc bebc
bf fbeee
ebe ebecc
eeee bbec
fbf bbd
bef bba
fcc beee
ef ecebc
ef bfbd
bec eeebc
bbbf ded
bbebe ecc
bbbb d</w>
ef bfdc
eeed fc
bbbb bdbbd
ebc fccc
ebcc ba
fbd beee
bbebd dd
ebc eebbd
bbbe eeec
edc bbfc
ddc ba
a c</w>
edc bbbbc
eced ecc
edc feec
bcbc debe
ebcc bebd
bbbb bcbcc
bbebb ebbbbbb
ddc b</w>
bbef ebbc
ecec bbcc
dcbc dcc
ef dbbee
bbef bbd
eec ecbf
fed bbcc
eebd eebc
beebe fc
bfcc ff
dc eebbbe
ef eebbbe
eec ecbe
eeee bebc
beed fbc
bbbec bbec
dee ebdc
bbef bebc
ebbbc bbbbc
dcbc bebe
eccc bebc
eedd bdc
ef bedbe
fee fa
dbbc ebbc
dbbbe dbe
bded dec
bf bebbec
dbb bfec
bbebb ea
bcbe bbbcc
dbb aa
beef bec
ebf bbebc
eebeee beee
bbbd bddd
bdbf dd
bbbc dbbd
ccc fdd
fed da
bedc bfc
debd dec
befc ff
dc ebbec
dcc bcbd
efc fef
eef dbcc
ebe bfbd
bbbc bba
dbf fdd
ecbd bebc
eddc fc
ebe ebbbd
bedc becc
dc eedcc
ebe ecebc
dbc bcee
ebdc bbee
ebe debf
fbf fbf
bdcc ecc
ef dcdd
bcc bcfc
ddc eebc
debb ebec
dbbc beee
eeef ccc
eded bbc
ebe ddcc
ebc eea
bbd bedf
bbbec bebc
bdf eccc
fecc a
dbf bbed
bdbd ded
edbd bdc
ef ecdf
bedc bbbc
bebe bcee
ac def
bf eeebf
bbd bb</w>
bbf bbbbbbbb
ebf bcdc
bcec bbebb
ff bbdd
eecc ecbc
bdbe dbbbb
ba eca
fee febb
becc eccc
ed beac
dd beecc
bccc bfc
bcbf ecc
bedd dbd
bebbd bbc
ebf bba
fec bbbf
eebc dfc
edbc bbec
bebf dee
fef bbbe
fef eeee
bcef dbe
bcdd df
ebe bfebe
fbe b</w>
fbe edcc
bbebe bfc
bcebb df
ef dcec
bbee def
eebc debe
bf bb</w>
edbc bef
eec debf
ccc fbd
bbbb bebcc
ef debbc
eec ecebb
ecbe edcc
bcf bfcc
ecdc bdc
ebbc dbec
fee debb
eced bdc
bbbc bbbbbbc
dbf beee
fcc debb
bbc ebecc
eecc bbbd
bedd dbc
bf bbefc
bcc eebbc
beebb eeebb
ebec ecbc
eeebe ccc
bdbc bbebb
bef bbfc
bebe bcbf
dc dbccc
dd bedf
ebcc bbebb
ecec bbee
ecbf ff
ebbbd df
ebc bca
ebd dcdc
ebb beded
bbf bcdc
edc bcbe
fee ac
ddc eebd
fbd fdc
debc debb
dbb dcebb
dcc dccc
ebec def
bcf deec
fbf bbcc
bdf bbbbc
bcee bbbbc
dbbd bbdd
ebc bcebd
bbebc ff
fef dee
bcef df
ef ebeebe
bbebd bbee
ebe dcbd
eec eebcc
beef df
fc febd
ebbc bcbe
bbdc bbcc
febb dee
bcbbc bcbbc
eec bbeec
bbbcc dbe
bfbc bbee
bc bf</w>
bbbb fbbf
bbc bebbf
fed fed
bbdc efc
dbc eef
ed dbbebb
dc ebbebe
fc bedf
ebf dbbbb
bbbc beebe
dbc bcebb
fbc dbbc
ddc bccc
bbbf bebf
eeec beec
bec bedf
bbec bcec
bbbf bbed
eec bddd
ded bbdd
ddc ebbc
ebe bbba
ebbbc edc
ebd ecbbc
eccc bcbc
eeec bebd
bded a
dc f</w>
fbf edc
bbcbd dee
fbf dcc
dbbd bdbd
dd bbecc
ebc ecef
ccc ebbc
bbec febb
eeec beee
bbbcc bbf
dd bceec
fc bedbe
ebf bbbec
bbc edbf
dbb ecbbbe
bbc fecc
bfc bbfc
dec bcdc
fcc bccc
eebd bcbc
bbd bdec
bebc cccc
eeee fbc
bf debcc
bebe bcdc
bbc fbbf
ebf bcbe
dbd beebb
dbcc ebd
eebc bedd
eebd bbcc
ef fbbee
bbf deec
dbf ac
eced ebc
bd ec</w>
ebcc bccc
bbebe ebbc
bbbb bcebc
ef beedc
dd ecbbc
bcc fdf
bbbd bbef
bbbd bbebd
ebfc ff
edcc ff
dc debdc
dbe ecdc
dbb ebebbbb
ded fed
ecf bbfc
bcee debc
ffc dcc
bfbc ebbc
bf dea
fc bdebc
bef eef
beed eecc
dcbc bbbc
eec bbebd
ecebb bbbc
eec bcebe
bbee eebe
bba bebe
a fbcc
ded eedc
debb fbd
bbbf beebb
bedc ebbc
bbf bfcc
beebc ccc
fc bdbc
ecbc bbebb
eebd efc
bbbb edbd
dee beebe
dbc ecbe
ddc bbcc
f bbbbbbbbbbbb
eddd ecc
be dbb</w>
ee fedcc
edc bebbc
dbb bfbec
ee debecc
dd dcbd
decc eedc
bfcbbefbedd dcbbdfddeecfdc
ebe bfdc
eeee febb
da bbd
bdee fec
bbed debe
ecee fee
bdbbbb bbc
a debd
dc bbbbcc
bbbb eedc
dd dced
ed dbbbf
dbd cccc
beee ac
bebd ebec
ddc becc
ed bbbecc
ebc bcdbe
bebd ea
ebdc eecc
bcee fbe
ecec beec
ebbee dcc
bcee deec
ecbe bbdd
dbbbb dee
bcec efc
dcbc ebd
bebec bcc
bebbbe bbebb
bbd efcc
bebc bbdd
fed ebbc
dbec bbbe
eebf eebf
bbc debf
df beef
bebc bebbc
fee eebc
edcc dec
fbbc bbbc
dd bdbbd
ebc e</w>
fee def
eeed bbbc
befc dee
ff b</w>
bbbf fbe
da ebd
bcbf bebe
ecebb bbbe
dbc bbfc
dbb acc
debc ebf
ebbbc bfc
bf f</w>
edc beef
dbb edfc
eecc ebec
bcbd ddc
fdc becc
beed bbee
ebe bfebb
bced dbd
eec eeebe
bcebb dbe
fbc bbef
bbbbc bebbbb
debe bbec
bd de</w>
bbc bca
eebc eedc
a eebbc
eef b</w>
bccc bbee
dbec fec
bbeec dee
dcec dcc
bced bbf
bcbbc bcbc
ed fbecc
bdc fa
eeebb ba
bf deecc
fc eeef
bbebb bcbd
bebd fcc
fbf ebd
bcbbebe cc
bf fbbec
ef eebcc
ef beccc
fc eea
fc bfbf
ded bbdc
bbed fbd
bbbb ecec
eded dee
bdbbbb bbbe
ded ecbc
debb efc
dbcc dee
a bbebd
bf bedee
dd dbbee
edc ecbe
bbbd febb
debb becc
dccc dccc
fbbbf bbebf
bedbbbb cc
df e</w>
ebc bebbbc
bbbec bbd
dd bcebc
dbd febb
bef bbdd
beee bebbbb
fed fcc
bbef ebd
bccc fec
edc fedc
a ebfc
dd bedbe
bcc eefc
bbbbc beebb
edbc fbd
ebe bdbe
beee fbd
beee ecbc
dbbc dcc
dbe beebc
bbbc bedd
eeed ecc
febc ff
bcbbbb bbd
dbb dcebc
ebb beebec
bebc ecbd
ee bbe</w>
bf bedbb
bebc ebdc
dbb ececc
bbbf efc
bcf dbbbb
ebc ebbbf
bcc ebbcc
bbd eea
dbd ebdc
bdbc eebc
bcc feec
bdbd dec
bc bbbac
ebb dac
ebc bfbd
eec bedf
dbec ebbc
fdd ded
dccc ecc
bdbc fbd
fdd efc
a bfcc
ebc dbbee
bbbe bebbd
bdbd ebd
bfbc bbec
ba eebc
dfc edc
ebb eb</w>
ef eebbf
dbe bbebd
eebeee eeee
ebcc dbf
bcbf bfc
dcec ecc
ef fdec
ebc dbfc
bbf bfbf
ebf bbdd
bdc febe
ea fa
da eec
ebe fbeee
ecbe dbbbb
bcbf fbc
dd ecebe
ba dbbbb
beee dbf
bbed beed
eba ccc
ebbebb bbee
dd eeebc
df fbec
dbe beef
dbbc debb
fdc ebbc
eebe dbcc
ff bcebb
dbb efdc
dbd bcec
fee efc
fee eebf
bbc fdbe
dbbc edc
bccc bef
bced bef
ebbee ebd
bbed beebb
bbbcc bbcc
bcbc ecbc
bbebd bec
dd bbbbbbbb
dd fccc
fc deecc
bdc bbfc
dec ac
dbec efc
bbecc bec
bdc fbec
ba eea
dbbc bbdc
bedc bbd
ebe bdee
fc beeec
dbc ecdc
dcc debe
fbd def
bedc dbd
a edcc
fbe decc
debb bcbd
dbdc df
bdbc beec
bbbe eba
dcc eeed
fbe ecbf
beed bbec
fa bca
edee bfc
eeee bfc
ef bdbe
bbf bebec
deec fec
bebc bbef
fbd debe
bdbc fcc
ebf bebbbb
bbebb bebbc
ebc bfed
dcc b</w>
bbbd bbebc
bbbec ebbc
a bcdd
ff eef
bddd dddd
a decc
ddc dcdc
bbbf febb
bbc bebbbc
dbc bbebc
ded beebb
ebec debc
eccc bef
bea dbe
edc fbec
bbee bbdd
fbc ebdc
bbdc eebc
dbec bebe
bbeec dec
bf ecdee
df bcdd
bbf bcbbbb
ebc eedf
fc bcbcc
ecc beebc
bbfc bfc
debd bebc
bdbc efc
a befc
bbd bdbe
fee eeebb
fec ecbc
ff bdbd
beec dedc
da eba
fdecc cc
dbe eebbc
edc febd
fec ffc
ebd edbf
eebc cccc
fef dbc
bcebb bebe
ebbee bcbc
eecc edcc
fdc fdc
ecec ebbc
df bfcc
dbb ebeebe
bcec bebd
bf beba
bbc d</w>
dec bbdd
bbc bdec
ed dbbdc
ebc bdebe
edc eddd
dcc ebdc
bedc efc
fc fbbf
dee bcbe
eef bbebc
ff eeef
bbee da
dcc bbdc
df febc
bbbd fed
bcf bbdd
bbbbbbbb bbbbebb
ff dccc
beee eccc
bcee bbebc
fbbc bbd
beed ebbc
dec beecc
fee da
dd bebcc
ff bbebc
eebe dbbbb
ea bebf
fec bedd
beec eebd
bedc ebf
ecc eedbe
dbc eeebb
fbe dbbd
ecdc fbc
ebc bdee
bbebb bebbbe
bbed eebc
ebb fddc
ccc dbf
bbbf becc
bbf eedc
bebe ebbebb
ecc ddcc
bbef bbec
beebb bbec
bfec ded
bbc bdee
bcbc bebf
debd bbbb
fa dbe
dbb eddbe
ea eea
dbc bcbe
beed bef
bbc bbbbcc
edc eebbc
fcc febb
bbdc ebec
bcec dbf
dbbf dbe
beebe bec
eded dbe
ebe bdebc
bbc bbebf
bbc bcbbbc
bbd ecdd
dee bbecc
beed fec
bbebd bbbe
ea febb
fbd fbf
bcec ebcc
dcbd ff
dd bbbdc
bdc edcc
efc ffc
deec becc
ecbd ebf
bf ddbd
bdc eced
eeee eba
ebbee fbe
a bdef
bf efdc
ebc fbbbe
ebc bcdf
fbd ebcc
bdf dbbbb
fbcc fc
bbc ebbbbbb
df ecdd
bbee bcee
fee bbed
bedc debb
dcbc bbbe
ed dd</w>
ba bfa
edc ecbf
bf bbdcc
dcc ac
bbbb bfcc
eecc eedc
ebc bbebf
bebe bdcc
eec bcebc
bbd bbbbbbc
fed bbec
ecbd bbbc
bebbc ebd
ecee ecbc
bcef dd
ee ebb</w>
edcc dbe
ed dbbebe
bcbc eeee
eebc debc
dcee dec
bbf debd
edbf fc
bbebe bebbbb
dbbc bebd
eebd bebd
bdbbbb bbbc
bbf febc
bebe bbdd
eebd dbf
dbbc bbed
edbf ccc
bbbb dbbee
bbcc eeee
bcfc dee
ebbc bbfc
eedc fcc
bdc bcbe
bebc eeec
bcbc beebb
ddc bebd
eedd dec
fdbb ccc
eec bdebb
ff fdf
ebbc ac
ef bcbbf
eebe bbfc
fdc bef
bebec bec
dbd fdd
ded ebdc
debb ecbc
eeebb eeebe
bcdc a
ebe bcdbe
bdc bbebc
bdc beef
bbee eba
dcec dbc
bcc bbbbbbbb
bbd ecef
dcc bcec
bbec fbf
ddc bcbd
eebc febb
bbebe dee
bf fbebc
ebf eeec
fcc bbbd
bbbb bbbfc
edc bfcc
eccc eecc
eebd bef
dd fbdc
fc fbbd
bcc bbecc
bbd bebbf
eedd dbe
dc fddc
ecee bbed
bfbc ded
beec dbec
ebb f</w>
fc bdef
bcbbbb bec
ebbbc fee
bbebe fbc
bbba a
ba bdbf
ef ebbef
dd eebec
eccc bbbc
dbcc ecc
dedc eecc
dcbc bef
dd bfdc
fcc edcc
bbebb bbbec
fbbc dbc
bd dbbbec
bbebb fbe
bebbbb bbbf
dbbf ff
ecbf bcc
ebd fdf
df bcfc
ba fef
dcc debc
ddc fdc
decc bebc
bbcbbbb bbbc
ef fbeee
dfc bebc
decc ded
ebbbd bebe
bbbedfc fceebcbfdbbbb
bbbb fbcc
ea fef
bbbd bbbec
beec bccc
ebe eebcc
bebf bbcc
f dbb</w>
dd bcbec
be ebe</w>
fcc ecbc
dbec eecc
bced ecc
efc beebb
fbc bcbf
ebe eebbd
ebe ebccc
def fee
deec bbbc
ecec bef
eebbc bbbe
ebe ecdf
eebc bbdc
eebe bbbcc
dedc a
bfed ccc
ba ebec
ba dba
dbbd ebf
dbdc dbe
efc fdc
becc ea
ecec fec
dcc eebf
bbbd ebcc
bcec debc
bdec bbec
ebb bd</w>
dc eeff
ebc ddcc
bbc efcc
ebd dbbbc
ebfc dee
debe bef
ebbbc bbcc
be df</w>
bbc ecef
bec c</w>
bcc eddd
dfc beec
ef bdbec
debd dbc
eeebb bbd
ffc bbf
dcc bcdc
eccc fbd
bbbbbd bbbbbbbb
ebe eebec
dbe febc
bbebb fec
bebd fed
bbc e</w>
df eef
bbee bedc
dcc fbe
bbdd fbc
bced bbec
fdd eecc
deba cc
bf eeebd
bdc eef
dcc fbf
ac bbec
eedc dbd
bcebe ccc
ebbc bcbf
ddc ebec
eebc beed
dbbc fee
bbdd ecc
ec dbac
fc ebccc
ebf befc
fdd bfc
ebc bedbc
bcc eeef
bbee bbfc
bcbc bbdc
debb beec
bbebb bbef
eced bbf
bdec bbbc
ebc eac
ebc ebbed
dee beecc
edee edc
ef defc
bebe cccc
bdbc bbbbc
ecee ea
bec bddc
ff eebd
ecbc eecc
ebbc ffc
eeebb dbe
a bdebb
ebb bbac
bcc febd
df bcbbc
beee fef
df fbbbb
bebc fdc
bbed dbbbb
febb bfc
bbd eddd
ebbc eebf
ebe bcbbf
dd fedc
eebc ecbd
bcc ecef
ecdd fc
dec bbebc
bbebb eebd
fbbc fbc
dbc bebbc
ddc beed
beebe beebb
ebe fbdc
bbc bac
bbc fbbbe
ff bba
bebe bcbbc
ebec bbdc
bcbc fed
bbd ecf
dbc febe
bebc bcebb
ddc eccc
ecdc ded
bbbb ecbbc
dd bdee
bbee eebf
eedc ebcc
ebfc bbf
bf fbbbd
eec eefc
ea bbebe
dbf fbe
da dec
bf eefee
bebf ba
bf fefc
dd bfbf
ebc bedee
ebd eebbbb
def dbbc
edbc fec
eebd becc
bbc ecf
bbbe ffc
fbf beee
a eced
efc ebdc
ddbd dbe
ef edef
df fecc
bbbe befc
ff bcbe
fcc debc
bbbbc ebec
bebd bdbd
ef eefee
dd fbbf
dee dccc
dee beebc
ecc c</w>
eeee eea
dbcc bdc
ebecc ccc
ecc fccc
bbbbc bbbcc
eeef ebf
dbb dcbec
bdbc ebec
ef dddd
dd eea
bbd bdef
ded eccc
bdbe debc
ecbbebb cc
ebc eeecc
ebd eba
bcbc dbbc
bf fdbf
ef bcdbe
bec eefc
ed feccc
ebb fded
bcdc bcdc
dfc bbec
bccc fee
fc beedc
bbbd debc
dbf bbbf
bded eec
ebc bbedc
bcc ecdd
bbbe eccc
eeec fcc
dc fded
bbbb bebbee
bbebb becc
febe bef
bcef a
df ecef
bbbe fdd
dbe decc
ff bebbc
dcc dbbc
bbfc bebc
ecc ecf
bcc dbbf
ba bbdc
bdec bfc
bdc bcdd
edc dcdc
bf bbea
ecbc fed
bbcc def
eebbbb bbbc
eecc fed
ecc bbecc
ffc ded
bebbbb bbec
ecbf dbc
ef edbbc
df bcebe
bbbe dbbbe
bbf eeebe
ea bebd
edbc fee
dc bbbbbbc
fc d</w>
bbf fdf
ebf edcc
ecdc dbd
ccc bbed
bebc eccc
beec debe
beec bcbd
eeed dcc
edbc efc
edc befc
dbf bccc
fec bbed
ebbebb bebe
edee dec
a ecebb
ecc fdf
ebd bebbbe
df bddd
bcbe bba
bbbd ac
bebd bbbf
bcec ebec
bedd ded
bcbc bcbbc
ddc ebcc
bf bbfcc
def def
eecc bbcc
bebf bbebb
dbbd ba
bcef bbc
bbf befc
dbe bbeec
dbec bef
dbdc bec
cccccccc ccccccc
bfcbbefbedddcbbdfddeecfdc ecddbccffcecebebdbbbe
bd bbbbbbbbbbbb
dbb ebebbc
eef deec
eebbbe bbee
bbbbbd dbd
bcf ebfc
bcf bbeec
beef bcc
ebbee bebc
dd ebccc
aa a
bcbe bbebd
dbcc bbbb
bbd bdebe
ebbbd dbd
dbbbd bbbd
dc fbebc
ef fedc
fc eeebe
fec debe
df eedd
bbebb bbdd
edbd bcc
eced dcc
bf ebdcc
bbbc bcdc
bebe bbfc
bdf bbdd
bec fdf
bbd beecc
ccc fed
ea bbef
bbcc bcbd
fbd debc
eecc bcbc
deec bfc
bebf ebbc
eeebb bbbf
bcbbbb bcc
fbc fbbc
beec da
decc dee
bbbdc bbbb
dd bfed
bbd bfbd
ba bcbf
bbbbc bcbd
dcbd dbe
fdbb a
ebc bebdc
fc bdfc
bbbc eebf
bd bbebdc
ebe ecfc
ebcc bedc
ecc b</w>
ebcc ebdc
fbe ecbe
ebf dbec
ac ebbc
deec bedc
ffc eec
febb edc
fef bbbb
dbe bbbcc
bef bcee
fbd ebec
eebd fdc
ef bcff
bec bfed
bebc bcdc
eedc ebbc
bbd fbbbe
debb ea
dfc def
dec ecbd
bbec bced
fbc eccc
fec bbdc
fed debc
eebe ebbef
a beebc
bc bbe</w>
bec fbbd
df dbbf
ebbbc ded
dbf bebd
fed bbee
bedbb ccc
ebf febc
beec bbbf
eebc bbbbc
bcdebc cc
bd debfc
dbd bdcc
bbcc beed
bbbcc eec
ecc ebecc
fee fdc
ec fbfcc
bbbe bcebc
beee cccc
bdee efc
bbc beebd
bbf b</w>
ff bcef
ecec ebcc
beebe bbebb
ecdc ddc
bdbe bbef
ebbbd bec
bbc ecdd
ebd beecc
eebd ba
bf eebef
bef dbbbb
bbebe bebd
dd ecbec
bbcc fdc
eef bbbec
decc dbe
bbbe bedd
bddc bddc
fdbb fc
ebe efbf
bdc bded
bbee bebbbe
fee ecbc
dfc bcbc
eedd bcc
ed febec
bdc bcebb
eeee bccc
ebfc bbbb
dbbbe bebe
ebd ebbebb
bfc bbdd
dcc bced
fec bebf
eeecc ccc
bbbe deec
a bddd
ebbc eccc
febe febe
ff eeebe
bebc bbebc
bcee bbdc
fbf bbbd
bba dbd
fbd bbbf
eeebb fc
a dccc
a bddc
dec bcebb
fbbc bebe
ececc ccc
ecc bebec
ebf bedd
febc dbc
ebd bcebc
df bddc
fbe bbeec
febb dbd
bfbd ccc
bbc eddc
bec febd
bbd ebecc
dbe eebbbb
ff ecdc
dbbbb bbed
beed bbbd
bbec bbdd
eccc becc
fed bebd
bf ffcc
bbc bbebbc
bbbe bbecc
bbee eebbbb
ecbe da
dbec bbbc
dedc dee
bdbe bbebc
fbbbb bbbd
bec bdec
bbbe bcebe
fbe ecdc
bbbf bbef
def ea
ebd eebec
ed bebbed
bebc bebbbb
ac bbbd
bd beeecc
bf beebbc
ebb bebecc
bbc beecc
dbe ecec
bcbd ba
ecf bbef
fef ba
deec eebc
ecbd fcc
bbbcc df
bf bebbcc
ebe ebbed
eec beebd
bdc bddd
bef bcbe
dcc edcc
bbbec bbbd
bbbcc bebe
ecc fdbe
ebbc bedd
ebbbd bbbd
eec bebbbe
edc bcf
bbcc ea
ecf debe
ebbebb bbebb
ef ecbbbb
dbec beec
ebbee dbd
dc fefc
efc febb
ecebe ccc
ebe dbfc
dd bdebe
edc dbbbb
dccc bcc
ebbcc fc
bceeefc feccefebbc
ec bbeba
bbbb c</w>
ecbc bbbf
ebdc ebcc
bbebe beebe
dbbf fc
da bbbc
bdcc dee
ecc ecef
ded bdbd
ecbd bbee
fbbc dee
bcdc dbd
a ecef
ecc bebcc
def fec
ebb debdc
bbbe bdbbbb
bdc beebe
ef bbba
dbb edbbd
fbd febb
bbebc bcbc
ed ee</w>
ebe bbbfc
bbbe dbcc
bdbc dbf
da fbc
bfcc fec
ebbbd dee
bcc edbf
ac ddc
bdbc eebd
bdbf df
bbed dbbc
deec debb
bcbbbb bcbc
fdbbd cc
a bcebe
ebd bbecc
fbf ebbc
eeebb dbc
dc bbcbbc
dcc bdbd
becc edbd
eeebe beebb
dd fdbc
ebc dcdd
dbe bcef
eccc beec
bded dbc
bdbbbd cc
ebb fbbed
ebc defc
fc bbccc
bec e</w>
bbee ebdc
ebd c</w>
ff befc
fbd dbbc
bcbd bdbd
dddd bebeecebc
bf fbbdc
dec dbcc
fee bbdc
bbbf bebbbb
bcbf dbc
eeee edc
ecbc fdc
bbee bcbe
fbe debd
ebbee ea
ebe fbef
bbbc fbbbb
bbbc bebec
eded df
ecc eedf
ebd bedf
eec ddcc
bebd dbbc
eecc eebd
dfc fcc
ec bbbfcc
bbf fbbd
bdc bcef
bbee ebbebb
efc bebf
deec ebbc
bebbc bbd
fbec df
ef bddf
ebe bbbbbbc
dd beeec
fbf dbd
dedc ded
fc eebcc
bebe bea
dc ebbbec
bbbe fa
dbb efbd
fbe ebfc
eccc bbec
eac a
dc ebbdd
ba bbdd
bfc bbebe
ebbbc dcc
ebb febcc
bec beeec
ebe bfbbc
fef dcc
eac df
bdebb bbc
ed bebbbf
bbed ebcc
eeed edc
bbd bebbbc
bbec dfc
fee bcec
eeee dbd
fdc bcbc
bba bdc
dbbf df
fecc df
bbbbbbbbbbbbbbbb bbbbbbbbbbbb
ebb ebfcc
bcc eeebe
bbf beebc
dbec dcc
dbe eebf
fbe bded
bbbbc bccc
edbc beee
bbf bbeec
bebd beebb
bcbf ebf
bddd dbc
ed bbac
bebf bbbd
eba bea
dbcc dbd
bdec fbc
ed fdebb
fec bcec
debc fbc
bedc dcc
fbbc eec
bdcc bdc
eeec fbd
bbfc ecc
bbd bbebf
bbed bbbf
bbebc beec
ecdd dee
ef dcbc
dbbbe bbbc
bfbc edc
dd eedf
eebe da
bbfc bdc
bced bebc
eef bbbcc
bbbec ff
dedc edc
dbb ebba
fec febb
bbc ebbbf
bef ecbd
efc debd
bdf ebdc
dcbd a
bfbc fee
ebb dbbed
ebbc ecbd
decc bdc
bbef dec
edbc bbcc
bbbbc bbdc
eedc bbbb
ed fac
bbf fbbf
eebc ac
ebb beefc
ecc e</w>
bdcc ebd
bebc fbf
beee debb
bc dbac
dbe bebec
bebbbb ccc
bbbbc dcc
eebd ecbc
dbec bfc
ed bbeecc
bcdc ded
bdbbc bbbb
ed bebccc
dc febbc
bec bfdc
bbf fbec
bbee bbeec
eeebb beebb
dbbf a
dced dec
bf dac
bced bbbb
ecee debb
bdee ebcc
dded ccc
eba df
bcdd dee
bec ebbebb
eec bac
dbb ebdcc
fec ebdc
dbbbb bcbc
fdc bbd
eeed ded
dbbc ba
febb ebbc
decc efc
eeee ebbc
debc bbee
eeec fed
eedc bfc
bebbc bebc
ebec fbe
bbbbc bbbbbbc
febb bbbd
eefc df
bbf bedd
edc bcebb
bbebd bbc
ebb febec
dc dedcc
bbf ebfc
fee ebcc
bbebb bcbbbb
bbbf bbebe
bbbbbbbb bbcc
bbebc ebbc
ed ec</w>
dee dbbd
becc bedd
edbd dec
eedd ebd
bfbc dbd
debc bebd
dfc bbbe
edbd bebe
bf eedbc
ebc ebbbbbb
eec ebccc
bbbf beec
bcee bbebe
ebe bebbebb
fc bcbbbb
bbbbc beec
fc fbdc
bdc ecdc
bef bbbec
ebec debe
dbbbb bdbd
bbebc ebd
beed bebd
eeebe eeef
bcebc ccc
ecc ecdf
bcc bcbec
ac bbcc
bbdd bebc
bccc efc
beed ddc
ecee fbd
bceebecbbecbbdbbc bbdbf
dd bcbbd
dbc bcdd
bdec bbee
dcec dbd
dc bebbec
bbc eea
fed bbbd
eec beccc
ebdc ddc
eeebc ccc
bceebd cc
ed ecced
dc ebbebc
dbb efdd
bbbbc bbebe
eebc dbec
bebf fcc
bbfc bbec
fef fbc
eebc fbf
fdc fbd
bbd bbbbbd
beebc bbbb
bbebb bbdc
efc febc
debc ecbc
ebec dbbc
ecf da
bedbb bec
ecc eebcc
ebd beebd
fed bedc
be ebc</w>
bbbe bebcc
dbe bddc
febb bebc
dbbd b</w>
fdd dcc
fa ba
bebec dbc
ebc dcbf
fc bcecc
bbbc da
ea beebe
fbbdd cc
ecdee ccc
ebdc bbec
bedebd cc
ecc eeebe
bcc bedf
fbe dbbf
ecbf fcc
ebc edbc
eded dbc
bf bbebec
bbbb eced
df eddc
ff deec
bfc beebc
bbcc bedc
bbed ea
ac beee
def efc
bbebd bebe
dd ebbebb
dbec bbec
ecec ecbc
ef bcccc
bbf fbcc
bcbc dfc
bdbd bebc
bd dbbfc
dd eebcc
bbd bbcbbbb
bcbc eebd
bdbd bbee
bbbbebb bbebb
dedc ff
ecee bbdc
eec defc
bbd bca
ebf dbcc
dee bba
bbef bbbd
bcf dbcc
dccc fc
ecebb bec
dbe bdbf
dbb ebebd
bbbf ebec
dbbbb ba
bbeec a
bdee ea
bcbe ebdc
bcec debe
ee bbbac
bf eeeec
bbbccc ccc
dbe bcbbc
ebbbc ba
ebc dcbd
eec bcbbbb
beebb beebe
bbbe bea
ded fdc
bcf dbbd
bebbbb bebc
ebd fdbe
bcec eebc
dbdc dbc
ef eeebc
becc ebdc
decc eccc
dcbc bbee
bbd dcdc
debb fed
beec ecbc
bddd ccc
f bbbb</w>
fee bcbf
ddc eedc
fbf fec
fbec bec
ebbbc bbbf
edc b</w>
ecf dbcc
ecdd df
a bcfc
bf fbbcc
dc fdbf
bebe eccc
bcbc ebcc
fbf bbbf
eeed bbf
dcdcdcdc dcdcdcdc
dbb bc</w>
dec b</w>
bbbec dbc
debd ebd
dccc df
ebb be</w>
fc bca
ff fbcc
dbfc abca
bfbc bbbd
dcc ecbd
ebb bc</w>
fbc fef
ddc fdd
eec bedbc
bdc bddc
bbebb fbd
eeee eebebe
eeed ebc
eeed bebc
edc bddc
ea ebec
bbed fbe
ebdc bef
bd dbfcc
bf bebbbd
ef fbbbc
bbbc ecbe
efc ecbd
bbebc bbbd
beebe eeebe
edbd ff
dcc bbbf
dcc deec
ef eebec
bbf bded
bbdc ba
bbebc dec
eebf ebc
ecdc ff
eac da
ebe fdbc
debc bbec
ebe eca
ebe edbbc
fc edbf
bebe debe
dbb dcfc
dbbbe bec
ebb dbbbf
bbed fcc
fbbd bbc
bef eba
eeebb bbcc
bdcc ff
bfc bced
fbc eeec
fec ac
ebdc fcc
bdf dbec
dee dbbbb
bbfc dec
febe df
ecee eccc
edee bbcc
ef bbebbc
ef eeebf
bbbe bbbbbbc
dbe eebe
dbdc a
bbbe eef
bcbc bcbe
eebf eec
bfbc efc
bdc ebfc
bdbe bbbec
dcbc bebc
ef bbbfc
bcbd beec
bcdd dbd
bef deec
fdc ea
eeebb df
debd ecc
ebd eefc
ebf dbbd
bdc fecc
bfc eccc
bef b</w>
becc fdd
bbdc bbebb
dcbd dbd
ef edbc
eeee bea
debc fee
decc dbc
bbc ecebe
ebd fedc
fbf fbd
feec a
fc ecebc
bef eebe
def fbd
eebbbb bbbd
dbe edbd
dbe bcbec
dbf bbebb
debd bcc
beebc bec
eebbc bec
bfec bebc
dc ebbfc
fc bceec
bbd ebbbd
bbdc beec
bedd bcc
eec e</w>
ebbc bebbbb
bbec bcebb
fdc bbbc
bdebb bbbe
ecee dbec
ebc bdebc
edc bcef
ba debe
bbee bdbd
fbc da
dc bebfc
bbbb eebbbe
ebe edbc
beebb bbbbc
ebe ecbcc
def bbbd
bedc bebd
bc deac
bd dbbebd
bbdd bbcc
dc beddc
bbd bbccc
bfc eeee
ebbc beebe
debb eebd
dd beebd
fee bbbbc
ebcc eccc
dbbf ccc
dc bbcbd
ba bbef
deec eedc
eeebb beebe
bdcc dbc
ecec bbbd
bbbb ebbbd
ecc bcebc
bbbc bcf
dec ffc
eedbe ccc
dd defc
ebc fdbc
ecc ecfc
bdc bebbc
dbb ebbfc
beee bebbbe
beee ded
eecc ebdc
bea bba
bbdbd dbd
bbbc ebdc
bcee debe
dd dfcc
dbe fa
efc bcec
bdbf bbc
bbbbbd bbbe
debb bbebe
bdbc bbbf
dba a
edee fcc
bec debbc
ba fed
dbc beebe
bebe bcbbbb
bccc bbec
eebbbb bbebb
bbbc eedc
bfc da
dcc c</w>
bcee da
bcebb ff
dd bbccc
ecc bebbbb
dcdd ccc
bcc bbebd
efc eeec
fbc febc
dbbbb ebc
bbfc dbd
eebbc bbf
bec eddc
bebe ebdc
bebe ecbd
beebb eeebe
fdc dbf
bced bdc
ebe beccc
dd ecfc
eeee ddc
eebe debe
edcc bdc
dbbbd dbd
fdebd cc
ecc eac
ecc ecebc
eec bdec
fbe ebbebb
bbebc bbec
eebf ebd
ebbbc bbed
bebe bbbcc
dbb eb</w>
bef bbbcc
ebcc eeec
ebbec bbbe
eeed ddc
dccc dee
a bbac
dcc dcdc
ebcc ecbc
ecebb fc
bbebe bebf
bcbd bbcc
beebb dbd
bbebc ded
bedc bedc
bbd bfdc
eebe def
eebe bbebf
bbdd debb
bbbc deec
dec bdbd
bbeec bebc
ebf bbbcc
eebc def
bbbd bcbbbb
dbbc fec
eec dcbd
ac efc
fbd bbed
bedd ebd
bfec bfc
beee bea
ebec ebdc
ecf decc
a bcbbbb
bbbc febe
eef dbbbb
dc eedbd
dec eedd
dcc decc
fdc bbbe
bec ecfc
fdd bbf
dcec beec
ed de</w>
bcc bcebc
bcdc bdc
bf fded
bcc bebcc
eec bdbc
bbee cccc
beed bedc
bbcc fbe
debb ddc
beebb dee
bbbbbbbb ebbbbbb
bbef bbbf
ebb beddc
ac eac
edbd bbbe
bfbd bbf
ed debfc
dd ecdf
ebf bfcc
ebcc ea
debb bbdc
bcbf ebc
febc dbe
fc bffc
bef bdbd
fbc bbfc
beec bebf
bcee dfc
febb bbec
ffc bfc
bbbb bedbe
ecc eeccc
bbbd bccc
dbf fed
bbdd b</w>
bea bbc
ecdd eec
ef eebbd
debb fcc
becc bccc
bfbd ff
bbd bbcbbc
eebe dbec
bced bfc
def bccc
bbd bdee
bcbc fbf
ecbe dccc
bcf bbbcc
dcbc fee
ecc ecbbc
bbee fef
bebe fed
eedd dee
edbc ddc
dbc fbbc
bbdd bbebb
bcee eccc
febb ba
eeef bbbe
df bebec
eebc bebf
fdc bebd
ebbee bbed
bbd ebbed
dcc bedd
eecc bedf
eeec eedc
ebb bbb</w>
bbbbc ded
a dbbbe
ebfc dbe
bfec bbf
ebc ecdbe
ebf deec
bbbc ffc
dbb bfebc
eec bebdc
dbb fcbf
bbbbc fee
becc edcc
beecc ccc
ebbbc bebd
dd fdee
fbe bdebb
bf bebbebb
eebf df
a bcebc
bcc ebecc
bcbc bdbd
fecc ebc
dcee bbec
bec debf
bcc eded
bef bcdc
ed dbbef
dc bbefc
ebe bfed
ecc bdec
dbd bced
fdc eedc
febb dec
eebf fbc
edbd ded
bdbc def
befc dbe
bfbc ba
dbd ac
bbebb dbf
edc bddd
fbbc bbee
dbbf bbbb
fc ecef
bdbc fed
edc eefc
bbcc eedc
eba ff
ed fbbbf
bcbc eecc
ecdd dbc
bdc efcc
dbd debd
bbebb efc
bbfc ebd
ebbee ecc
bbc ecbec
beef dbe
fbe bfbf
bf eebbbc
ebec eedc
fdc beec
bbebc dbc
bebbbe bbf
ed fbccc
bcc eeebc
ea ebcc
bbcc beebb
da ac
a fbbf
dc dac
ebc bdfc
bbd ecbec
bf dddc
dd bdbe
ebf bcbbc
beee fec
bebf bebf
dd eebbbb
bbc bceec
ff bded
bbbbc bbbec
dbbc eebc
fbf dbf
eba bbbc
a edbf
ebc ecdf
bec eebbbb
df ecf
bcbf ebd
bebbc bbbd
dbb be</w>
bef eeec
fbe bbebd
becc ba
dccc eec
ecbf fbc
dee fed
ebec beed
becc bbed
ecbd ebbc
bd dbbebc
ef bdeec
ebc bdbbbb
bbc bdebe
bcbd ebbc
ebe fbbbc
deec edc
bedc beec
ecbf ebd
debf ccc
bbd ebbbf
bdc bbbec
bbcc fbf
bbdd dddd
a edbd
bbbb bebbebb
eef dbbd
bedd bebc
fc eded
dec febc
eebd eecc
ebe bda
bcc beeec
dbb ecbbf
fee bba
bbebb ebcc
bbbbebb bbbc
dd bcdf
ebc edbbc
bcc bea
bcc bdebb
bbd bbedc
bdc ecbe
bcbc bcbbbb
bebd beed
ebdc edbbebb
dcbc edc
dd bac
bbebe dbd
bded dbd
eec dbbbc
df ecebb
dee ecdc
ded beebc
fbc dbec
ddc dddd
bbdc eecc
bcec eecc
bbbcc dbc
bdf bbfc
bbbb ebbebe
ef bebbbc
bcc fbbbb
bdc edbd
dbb ecdbc
ea beef
dbf ecbc
bdbc debe
bcc bdef
dec befc
dfc fec
bdbf ccc
bbd ecebe
ebc efdc
bbc bcbbbe
fef fef
fecc fc
eec dfcc
dee bbbec
da ebf
bebe eeec
dbb edee
ef dbecc
ebe dcbf
dbe bfcc
bbdc bbed
bedc bbbd
eeed bbbe
bcebb ebbc
dbbbe bbf
ecee beec
bbbb bdebe
ebe bdfc
debc ebcc
dfc bbee
bdbf bec
ddbd ccc
dbe ecebb
bbec bbbec
ecbf dcc
bcbbc bbf
dee fdd
bebe eeef
dbbc bbebb
bbc dbbee
becc eedd
eebe dbbd
bcf dbbf
bbdd bfc
ebe efef
ed dbfcc
debc efc
ecc beecc
eec eddd
ebec bcec
dfc ebbc
bccc debe
eebbbb bbee
ebb dbbebe
ebc febf
fed ebcc
eedc bebc
bebbbb beee
fa bbf
ecbbc bbc
dbe bcebc
bebe bbbbbbbb
bebe fbbc
bbbd dddd
fdc debb
bbebc bbebb
bebbc ebbc
bdec ddc
dec ecec
fbc beebb
bf bedec
ed ed</w>
bec dbbbc
ebd ecbbd
bbbe bebbf
dbe bcdd
bebe beebc
dbbc beec
def becc
bbebe edc
efcc df
ebc beccc
bbd eebbd
bbdc fbd
bfbc beec
dd bca
dec febb
bebd ecbc
eebe edbd
eebbef cc
ebc ecbcc
fef bfc
bebbbb ebf
eecc bef
eedc ebf
bcebb bbbd
ac fcc
bbebd a
bdbf bbbb
bd ebac
def beec
ee bbd</w>
bbbc ecbd
eebe b</w>
bbdd bbec
bcbf eec
ebd ddcc
dbb edeec
bbee eccc
bebc bcbe
ac debb
bedc fee
bec bddd
bcbc ea
eebc ecdc
bbdc debb
bcbd bbed
bebbc bbec
efc bbbbc
debc becc
beebe bdc
bebbc dbc
fc eeeec
efc bbebb
fbc deec
ebdc fbd
bea ba
bcecc ccc
dc ebeebb
ebe dded
bbee eebd
dbf debe
dc bd</w>
bef bdcc
bebc fbe
bbfc beec
fbbc edc
eedd dbd
fc debbc
bec bbbdc
bbbf dbbc
bea bbbb
bcc fdbe
bcebb bcebb
bcbbbb ccc
ef ebbbbbb
dd edbbc
bbbe bded
a dbdc
fc ddcc
debc eebd
fbcc df
ebd ebecc
dbe bddd
bebf bcbc
edec dbd
bf fddc
ebe defc
fc bbedc
dbe edcc
fdc eebd
bebbc ff
ecbf bec
bbbb bcfc
ebc bebbee
dbe bdebb
fee eecc
bba bbebb
dbbd beee
bfbc eebc
fc bbbdc
bbd ecee
dbf bcbd
ecdd dcc
eef debd
dbbbb bebbbb
fdc def
bedc ebcc
eeebb eeef
ecec ebf
eeebc bbf
dbc bbbec
dec bcee
fcc eeec
bbdd ba
deec bbbb
eba bebe
bdcc edc
edbf ecc
dbe eced
bebc eeee
ecdf ccc
bbc ecee
bbee bcbf
bcbc bcbf
deec ba
cccc bcc
bced bebe
bdcc dcc
ecebc ccc
a bebec
bd bacc
ebd eebcc
bbd bda
bebc ac
fee dfc
fed fbd
ecbe bbeec
beebe ecc
bdee bebd
ee ef</w>
ded bbbf
bbed dbec
beef dd
bdbbbb bdbbbb
fc bac
ebd eeef
bbcc eeec
bcebb dee
ebbec bbf
eebe ebbbf
decc ebbc
ecbd bef
beda cc
eec eeef
beed debc
dbcc dec
febe bdc
eedee ccc
bbbe bebbbc
bbebe ea
ecf bbdd
bcdd ddc
bdec ebf
bfc bedd
fbc fdd
fec bbebb
fec eebd
dfc ddc
bdbe da
fed bbbf
bebf bbbf
eeebb bbbd
bbbcc bbbd
ecc cccccc
bbed bbbbc
eeee eebbee
ecbe dbbd
beebb ea
bebd febb
beebb febb
ecbf bbf
ebb fdebb
ebe bdf
decc eebd
ebfc dbc
fbbc bfc
dbdc ff
bfec bdc
fc dcbd
bbbe bbbbebb
bedc eebd
dbdc bbc
ef bbbbbbbb
ebd bbbdc
dbf dbbc
bea df
ebe efebe
ebc ebbbd
ded eeec
deec bbf
bbbe febc
bbef ea
bebf bbec
bedee ccc
bbd bcbcc
eec dced
eecc ea
debc bef
bcbe dbbd
bebf dbd
ebbebb bbbc
fed ea
fbf bbec
bedc fcc
dbbf bbf
bded ff
babca bdbf
ef ecebe
bea ccc
fbbbb a
ebbec bbbc
bec bedbc
eebe dfc
fdc ebcc
be ebd</w>
bbee debe
bdbc bbdc
eddc edc
bbbd bba
bebf dec
fef ecc
bfbc bbbf
ed beeccc
ba bbba
dee eebbbb
bebe bcf
bcbc fbe
fec eccc
dbcc bbbc
eeed fbc
febd a
bbcbbbb bbbbc
bedbbd cc
dd bfbd
bbbd eeec
ded eebd
bedc bbec
dbe eef
ebf ecdc
ef bedbc
beec febb
ef ecccc
df beebe
df bbbcc
febe ecc
bbbe bcef
ebcc bbbf
febd bec
edee fbc
dc eebbbc
ebd bcbbd
df ebfc
bdc bcf
bebe def
bbdd beee
ebbee bbcc
dbf ebec
eebc bbebe
dccc ff
dbec ebf
beed bbcc
ecf bbebe
fc bcbbd
eec dbfc
ded bcdc
ddc ecbc
ebdc bebd
eebe bbeec
ecbd debb
bedbe ccc
bbbb dbdc
dbc ecec
bdec bcbc
ebb fbecc
dc eebbee
bbd bceec
dee bcbbc
dcc bbebb
dbbc bbbbc
dee decc
fbbc ebc
bd dbbbcc
ed beebec
fc dcbf
ecc ecee
dbb dca
bbebc ebf
ef ecbbd
eec bdbbc
dbd bedd
eef decc
bfbc fbd
ebb bebbebc
ef fdcc
bbc bfed
bdc dcdc
ded bedd
bbbf bbbbbbbb
bbed bedc
bbdc becc
dbec ebec
eeebb ea
eec bcbcc
ba ebcc
dbd bbcdbf
ddc bbdd
bbed debc
ff bdbf
dbbbb b</w>
ffc fec
bdbc eeee
bbfc bebe
ebbebb bbf
bebec bbbc
dd eedbe
ff febc
dcc febb
bbebb eeebe
deec beec
bbec eeec
bbebc ecc
bbbbbd bbbc
bbc ecebc
ebd bdbbc
bbbe bbebf
bccc bbbd
bcec fed
ebe eded
bec eebcc
df fdbe
dbc febc
ddc eeec
eecc beec
ef ebba
dbe bcebe
bbcc bbbcc
dbcc edc
fa bcc
ebbcc eec
befc dec
ccc ebcc
dbc eced
dbec debb
bbbe ebfc
bbee dfc
bebe ecbe
fcc bedd
bbc bcdf
ddc eeee
ddc bdbd
ebbee ebbc
efef efef
ed fdbbc
ef dea
bbec ebdc
eecc ecdc
dbec fbc
bebbc dd
ecc edbc
bbd dcbd
ebec bedd
eebbee beee
bbf eebbc
bef bea
eccc ebcc
bebba cc
ef bdbbbb
ddc debe
bcbe debd
bcec fbd
fdd ebf
ffc fbc
dbdc dee
bdee fbd
ebc eebbbe
becc eeec
bbbec dec
dced dbe
a ecf
bbc eded
fc bebbf
ba eeebb
bbbd bedc
eebf dd
dc eebef
bec ebccc
df eeed
fdf ff
bbf bdef
ebec eebd
bcbc debc
bcbf bdc
bebbc ebe
eec fbbbb
bbee fbbbb
bbec bbef
ecbc beed
eebe ebbbbbb
ffc ecc
febe dbc
ebbebb a
bbc ebbbbc
bbebc bebd
ef ebbdc
ebbc eeed
dbb ebebf
fbbc bdc
bcdc ebc
ebbbf bbbb
ebbed dee
debb febb
fbbc ebf
bbbbbbc bbbbbbbb
ebd bcbec
fcc ebdc
dc fba
bbbe ecbf
dcbc bfc
bbebe bbed
befc ded
ebb befcc
bcc bedbe
df eeebb
df fbbd
bbf bcfc
dbbf dd
eddd dee
bedbb dd
fc dbecc
bbee fa
bbcc debe
bcbbc a
bdbe dfc
bdec fec
fdbb dd
dc beded
bbcc dbbc
fcc fecc
dbbd bfc
bddc eec
bdec edc
bbc dcdc
bcbbc ff
ebd bfdc
bebe fdd
ebcc edcc
dbec edc
cccc dd
ef fba
ebd eded
bbf edbd
dbd eedc
bebc debd
ebec dfc
eccc fdc
bbebc bdc
bcc dbbbe
bebe da
ee bbc</w>
ebd bcebd
dcc bdcc
beee bcdc
bdbe b</w>
ebb fbbbbc
ebf edbd
beee eba
ecee bbbbc
bcdd dbe
fc eeecc
dcc eebe
dc eeebf
dec fef
ebfc bbbc
bced bbbc
bbba bba
ec eebdcc
df fccc
dbc bcf
bebc bcee
fcc fbf
bddd dbe
bbd eebcc
bbec beebc
ecec eccc
edee ba
ebe bcbbbc
bbee fdc
fbc bedd
debc eedc
eebd fee
fbcc ff
dbbbd dbbbd
bbf eeed
bbbd eeebb
debb beebb
bbbf dbbbb
eeec efc
efcc eec
dee debd
dbf bbdc
bbbf bcebb
bdbd ebc
bedc fed
bbbcc ebc
ecec ba
bfbc fed
a bbecc
bbf bbebd
ecbe bbfc
eeebe ea
bded ded
dc fbbec
ebe bbbbcc
dbb dceec
ecbc eccc
bebf fbd
bbbcc dd
ed bbbccc
bcc e</w>
bcc fbbd
bbebb fbf
ddc dbbc
fcc decc
dedc eebc
bbee fed
eecc bccc
dcbc ebf
bbd bac
dbe bcfc
bdc c</w>
ebcc fbe
bdbc becc
ebec ac
beebe bbebe
beef ba
ebbbc debb
dee bbeec
bcbe b</w>
bbdd bef
ddbd dbc
bebd bbdc
ebe bcdee
bbf bcebe
bebe b</w>
ebcc fbf
debe ea
febc dd
bced bbbe
bbbb eeebc
bbd bfed
eeee bbbbc
eced edc
fbec ff
bcc bfbf
fee debc
fc bebdc
ebbc deec
bbed deec
bebd bbbbc
da bfc
bcc ecee
ebbbbbb bebbbb
ebbbd ccc
dc bc</w>
ef bcbbbe
dee bcebc
fcc eedd
ebc d</w>
a bbbbbbbb
ecc fbbd
bbd dcdd
bbbc eccc
eebc eeee
dcc cccccc
bcbe bbecc
beed dbf
fdd ebd
edee bbbd
ed bebbdc
ef eceec
fc bdbbc
bebd dbbbb
dbbc efc
ecf deec
febe bec
ebbbc fec
ebbbd dbc
bbbb beeec
bbc eddd
dbd bddc
ed fdef
df c</w>
bbbe bfcc
debb bbdd
ac becc
dbec fee
bebf beebb
ebc dddd
bdc dccc
bbbc bbebd
ded dbcc
beebe ba
edbf edbf
bf bedbd
bbc eedbe
bbbc befc
dec bbebe
fbf ea
ebe beba
eec bfed
bbf bdebb
bbed fed
bbbb fbbbc
ebe fedc
bfc decc
bdbd ba
bdbf ff
ebbbc beec
bf fbbbf
ebf eedc
ccc ebec
bcbc bbdd
bdf bbebe
bdc ecbf
fbc bcf
bcbd fec
fc bbebf
ebf fbbbb
bba bbec
debd edc
fbec a
bbbbbd dbbbb
ebc ebbbbc
debb debe
ecbc dfc
bbef edc
fdc ba
fbcc bec
ebec beebb
ecbe edbd
eeec dfc
bebf eeee
dcbc ddc
fbc bcdc
fbe ebbebe
dcbd dbc
ebc bcbbbe
bbbec ebd
bedbb a
edec edc
ebc bdbe
ecc ecccc
dec bcbf
debc bbbd
dcec bef
ebe bbcbbc
fc dbbbc
def ac
ecbe deec
bbbe bdbf
fcc bbbf
bccc eccc
beed dfc
ebbcc bec
bbbc dbcc
ded dedc
beee efc
bcbd dbf
fbf efc
ecee bbbf
bbd bbba
bf fea
eecc ba
bebc bbfc
bbef eeee
bba bbbbc
bbc ecfc
bbef bbcc
bdcc bbbb
bfbc dcc
ebbec dec
dc fbbcc
dbe bebbd
bdc feec
bbbc fdd
ea eebc
ebcc eeee
ecee fec
febd df
bcbbd bbbb
bebe eba
bcbbbb bbf
bbbd bedd
ddc decc
fbbd bec
eded bbcdbf
fbe dccc
dbbbb ff
bbbcc ff
ec ebb</w>
debc fed
bcbe decc
eedc efc
bebe dbec
eeebb bdc
bdcc dbe
ebbcc ecc
bd deba
df dbdc
bfcc edc
bfbc dbf
ef eedf
fc bfbd
bbed bbdc
ecec efc
bcdc ebd
bdebb ccc
bbbd d</w>
bbbd eecc
bbbd bebbc
ebcc bcec
beed bcbc
ecbd beee
febc fbc
bcdd dbc
ef deecc
eec eeebc
eebbc dbe
bbbcbbbc bbbcbbbc
bbc bbedc
ebf eeed
bbbc dbbbe
edee bcbc
fc ecbec
dee bcbec
fbd bedc
fdc bbee
bbbec bdc
ecec debb
ffc dbd
bebbdd cc
ebc ecdee
dbbc eebd
dd dba
bbed bbdd
debe becc
dccc dec
ecebb dbe
ee bbeac
ecc eeebc
dbb efebe
eebf ea
bc dbb</w>
ef ebbbbc
ebd bdec
dbf eebc
beec ebdc
fed cccc
ef bbcbbc
dd ecebc
ecc bbccc
eec eea
debc dcc
bbbc bcbbbc
eccc beee
bcee bbfc
dbbd bef
ecbd fec
bcebb dec
eced dbd
eddc dcc
fbbd a
ebbbd bbee
bbbbbbbbbbbb bbbbc
bec eeebe
bec bdbbc
fed decc
bba bbcc
febb dcc
ecbf bdc
dc eb</w>
ebc bcbbf
ebec bbebe
bccc becc
bebbee bbbe
bebc deec
bcdc edc
bdbe dbec
bfbf ccc
ebc beff
bbf eba
bebe dfc
bcf decc
befc bcc
fbcc a
dcbc fbc
bbd bedee
dbb efebb
ea bcbd
bfbc bbcc
dd dbfc
df bbeec
ebf ecbe
efc fbbc
ded fbe
ded debd
eebc beebb
bccc beec
fdc ffc
febc eec
bebbbc bbbb
ebd bdbbbb
dbb efef
eddd dbd
fdf a
ebb fbbebe
ebe bcccc
bec eedbe
bbbc beebc
eccc bbcc
eef dccc
bcebb dbc
fbbbb bbebb
bcbc bcbcc
bfec fec
ed bedef
bbec beebe
ddc deec
eedd dcc
ebcc beed
fbec bcc
eebebe bebe
def beee
bebec bbbe
bef dbcc
eeec eeee
fbe bddc
dbbd fbc
dcee bfc
bd eebccc
bedc ebec
bcbf dbd
ecdd dbe
bf ebfcc
bbc bfdc
bdc bfcc
bcbd debe
ecebb a
df efcc
dbb ebedc
bebc bdbd
eebf bbbc
ecee bbdd
bcc dcdc
bbd ecbbbb
ebf ebfc
bbee bea
bbbd dbec
eeebb bbec
edbf a
edef ccc
bbef bbef
bcf ebbcc
da ddc
bcbd fcc
ebd bfbf
ecebb bbf
fbec fc
bcc ecbbc
ff eedc
dbb ecbdc
bcbc bbebe
bbed b</w>
bbbbc eebc
bced def
edcc fcc
eebbc bbbc
bfcbbefbedddcbbdfddeecfdcecddbccffcecebebdbbbe ddddbebeecebc
bbc bcccc
df eba
bdc bdbf
bcec ecbc
bba ea
ecc ecbec
ebd bceec
bbd eedbe
dee bea
bfc eeed
fbd eebd
eced eec
eebbbe bbbe
ebd bebbf
dee bcdd
bebd deec
bebbbb beebb
dbb edbcc
eebe ebbee
febb bbcc
bfbc fcc
dd fbbbe
dd fdcc
bbd eeeec
ebf ecbf
ebec dbec
ebcc dfc
fbf eeee
bcbf bbee
ccc def
fbc bbebe
decc becc
bdbbbb dbbbb
ebbbd bbbc
bbbb beebd
bcbc eeec
ebdc fee
eef bfcc
bbef fec
ecbd efc
ebbebe bebe
eebe bfbf
bbbcc dee
bbf bea
bdbd ddc
ecdc ebe
fdbbf cc
bf bbbecc
ff edcc
bbed eecc
ebc bcdee
bccc eecc
fcccc ccc
dbe eeed
dcc fef
fbd bbdc
debc debc
ebb fbccc
bef bcef
ecbe decc
beebb bfc
ebfc ebf
bccbcc bccbcc
ebd dbbee
beee eebc
da bbee
bcbd def
fdc bedc
ecf dbbbb
bdee dbbc
bbc eebcc
edc ddcc
bebf fec
bbebf bbbb
dcec bdc
dec bded
eefc a
ebbec bbec
ebf debd
bbef efc
ff bcdd
debb dbbc
dfc dbf
bbebc bfc
bbfc ebbc
febc bbf
edbc dbf
ebbed ccc
fc fdbe
eccc bcec
bbebc dd
dc be</w>
ef ebbbd
df bcebc
beee ebec
eeee ac
bbbbc bcbbc
bcbd efc
cccc dcc
fc bebbbe
bcbd bbebb
ebb bedbbc
ebc ecbbbb
edc fbcc
ebcc def
ecec def
edec bbf
dbc ecbf
ecbc eebd
bebbbb bbcc
eded a
bbbbbbc bbbbbbc
edee dbf
ebb bebccc
bec bbbbcc
ebd debbc
bbd ecebc
edc eeebe
fec bced
eeebb eebf
bbbe bcbec
ff bcfc
dee bddc
bebc bbbec
bcbf bef
dbb fcdc
ea dba
ebdc eebc
dbcc bbf
eebbbb bebe
bbbb bdbe
dd eeccc
ba fdc
dec bcdd
bcbc dbbbb
beec bebbc
bbc fedc
df eebe
df befc
dbc bdcc
bcbe bfcc
eedc fbd
ecf efcc
bec ecebc
fed dbbc
bbfc ded
bded bbf
bdec debb
ebd fbdc
df edbf
dbc decc
bbebb bba
eeee bbdc
dfc bbbd
ed bedbbc
ef bcedc
bbbe debd
ff bcbbc
ebcc debe
bbebd bbf
ebbc ecbe
fee bdcc
eecc fdd
dbbd bbec
bebbd a
eec bebbf
efc bebbc
bced ebe
eec ebecc
bbd bbebbc
ea becc
ebec deec
ecec dbf
dcbc beee
dc dbbbd
ecc bcbec
ebf bebbbe
edc bedbe
ddc dccc
cccc dee
bcebb bbebb
ecbbc dee
ebb bedbbbb
ebf bcef
febc bcc
bcbe bbbbbbbb
eeec bbdc
bced dcc
febc dec
bec bbccc
ebd ecbec
ccc eebc
fec bdbd
fbd fbe
ebdc eebd
dd eac
dd bddf
fc beccc
ebd fccc
debb dbbbb
beed ebe
bfbd dee
ff eba
ebec febb
becc debc
bbbcc bcbc
bbc ebccc
bbbc bbeec
eeebe bbebe
bcfc dbe
bbeba cc
edc ebbcc
dbd dbcc
eecc bebd
eeed bfc
bcc ecebe
ebf eba
ebb fac
bbebb bdbd
fa bdc
bdbf bbf
ebb bebbbbbbbb
ecc eebec
eec eeccc
bbd bbdbbbb
dbb ecff
dec fdd
bdbf dbe
ebbbf bbf
ebbec dbc
bbbc beef
bbbd ecbc
efc eeee
bbbcc beecc
bec dcdc
df fbbf
debd bebe
dedc dbe
eebbebe cc
dc bbebec
ef fbfc
ebc dfcc
debe ebcc
bebbc bdc
dc bebbbd
ecc bbebd
bbcc ecbc
bbbbc edc
bebd def
ecee def
bec bcbcc
debb bedc
fbd bbebb
bddd bbbb
dcee dbf
bcbbef cc
bedecc cc
ecc bdebb
eec d</w>
dcc bbdd
bbcc bbdd
ddc c</w>
debd bdc
ded dbbbb
ddc ea
bba bbbf
edbc fed
df bcbec
eeee bcbd
ecc bcecc
bbec bbfc
bbec bebbbb
da fcc
ecee fbe
efcc a
ebe ebbbc
bccc beee
dbbd bebd
ef bdbbd
ebbc fdd
bbef bcbc
fa bbbb
bf fbbebb
bedd fec
bd bcbccc
fc dcdd
ebd dced
bfc befc
eebc fbe
bcbf dec
dbbbe bbee
bbbbcc ccc
dbd eeed
bbcc bebf
bedd fbc
ecdecc cc
dd eeecc
bbbe dbbf
bef bebbbb
fbd eedc
bcee ecbd
eebf dbe
ef ebbed
bbbcc bdc
bcc fccc
bcc ddcc
bbbc bebbbe
bebbc bbebb
fa dbc
fbbd bbbb
bdcc ebc
bfbd bebc
a eddc
dbd eccc
fcc bbed
debc beec
ebe beedc
bbd bcebd
bbcc ac
dedc eccc
ebbcc bbbb
fdf fc
bec bebbf
bbd bcbbbe
df d</w>
dee fef
bdec ebbc
ebbec bebc
bd dbb</w>
ff fbec
fec fecc
ecf bbebc
fbbc ebd
ed dbbfc
eec fbdc
bbdc fed
df bdef
bbec dbbbb
bebd dfc
eebd beec
bbbbbbbb bbcbbbb
bbc debbc
bcc fbbf
dcc bebf
eef bbebf
beebb bcbc
bbbec beec
fdd fee
bec bac
ecc dbbf
ecc efdc
eebbbb bbf
eebebe beee
ebe bedbc
ebe bbcbbbb
df bebbbb
ff ecbf
bbee bbebd
dcc ecbe
bbebe beec
bbef fbd
fbf bccc
beed ebcc
eebf dbc
bbeec bbbe
ebbcc dbe
dcec ebd
fdee ccc
bcc bbbdc
df bcdf
eebc bbfc
eced ded
edbc ecbc
ebbc bcbbc
dbb eddee
bbebb ecbc
ed fbbebb
ebb fbbef
ff dbbbb
becc ddc
fdc beee
deec dfc
bebbd bbbe
dec ecdc
dbec eedc
bcbf fcc
eeee dbf
eef efef
bcfc fc
dbc beef
bbebb fbbbb
ffc bef
efcc fc
ebc bffc
dee bdebb
bebc febc
bbbec bef
bcc ebbebb
bbd fdbc
ebbc eedd
dec dccc
bdec bbbd
dcee beec
dd acc
ebd dcdd
ff bddc
dbc c</w>
bdbd bbdd
fef bbbc
eebf fcc
bdbc bbdd
ebe bbcbd
ebd bdef
ff decc
dbc edbd
fbc bcebb
bbbbbbbb bbbbbbd
bdec def
bedd eecc
bdf dbbd
fdbe ccc
ebc bbbfc
ebc debec
eec eedbe
df beebc
eebe bfcc
eeebb bbebe
fbbc bef
ebdc dbf
dec bdcc
ea dbec
ebcc bcbd
eebe ebeef
bb ebf</w>
ebb deccc
dec eeee
bcbc bcdc
ebb bebba
dd bda
bbc bcecc
ebec eccc
dbd dbdc
dcc bcdd
bbdc dbf
eebd debe
beed fee
ecebc ddbd
bbbf def
bcbf bebc
edbc debb
ebc bbebbc
bbc eeeec
ecc dbbbe
df ecdf
bced bbee
bbd ecfc
eebc edcc
debd bbf
ebe bcff
ebd eea
ebf fbcc
dbc bcbbc
bfc bcebb
bbbd bcebb
bcee fed
bbbcc bbbbc
edbd bbcdbf
bdee bbbbc
ebe dcef
ded ac
bcdc ddc
ef bcbdc
dbe bea
dbbd bbebb
eedc ddc
ec bf</w>
bedc bcbc
bdf bbebc
bbebd eec
dded dee
ebb bebbdc
bbee bdebb
ebbc bcf
ded d</w>
ded beecc
ebdc beee
ebe fdee
bbc bcbbf
bbbc bcdd
bfc bbebc
ea cccc
dcbc bbec
ebe bdbbd
beebc a
bcbbebc cc
bec ecdd
dbbbb bef
dbec becc
beef bdc
ebbbc ebec
fbba cc
ebc ececc
fc bedbc
bec beccc
bbbe ebbebe
dcc ecdd
fee bea
ecbc debc
ebdc beec
bbdc eebd
eddc dee
dbe dccc
edc ebecc
debb debc
fcc febc
dabca bdbf
bbbb bca
dd bebbbe
bec bebdc
bebe bebbee
eeee beec
bdec becc
dcbc beec
ddbd dee
ec ef</w>
ef eda
dbe fdf
bcec dedc
bced efc
dcbc bbbd
ecc bedee
bcc d</w>
bbd ebbbbc
beee eebeee
fec debd
da bbbd
febb bcbc
fbbd ff
edbc ebcc
ebc eebbf
ebc dcec
bbf ecebb
fbe ecebb
eecc dbf
bba bca
bdee ac
ebeebb a
edee bebc
fc eebec
ebd bdebe
fbc bcee
bbbf fed
fcc bebf
fcc ecdc
fdc debc
bbbbbbc bbbc
dc bedbf
bbdd bebd
ebfc bdc
bdbc dbbbb
edec bbbe
bebebebe bebebebe
bd debbcc
dc db</w>
ecc bea
ea beed
fbc eeee
fdc ebec
ecc eba
ecc debf
bcc eedbe
bbee ecbd
eddc dbc
efcc ff
ecc fbdc
ebd bbbbbbbb
ea bccc
bcbc ac
bbecc a
eaea eaea
dd debbc
fc fdbc
dcc ecec
deec fed
fbbc dbd
bdee dbec
d ea</w>
eef bfef
ef bbbbcc
bcc fedc
ffc bbbb
dbbbc bbc
dec bbfc
ddc debc
bbbf eebc
bbdc beed
bbbcc bbd
edcc dbd
edec bbbc
bebe dbcc
beee bcec
bbebb dbbc
bbed bcbd
bbdd fee
bebec df
eea ccc
dc beebbc
beee da
fec beebb
ecbc bebf
bdcc dbd
eebbebc cc
ed bebbbbc
dbe fbec
bedc bbee
ecbd debe
bebbbb bbebe
ef eeccc
ef eebef
bec bbedc
dbe dbbf
fec fa
deec bbec
bdee fee
febd ccc
bedf ccc
eec fccc
ebbc debd
bebd bcbd
deec fbc
edbd bbf
bcc eebec
dbe bebcc
becc dbf
fed eebc
bebbc bfc
bf bbebcc
fc eedf
dbc bded
ea dbbc
eecc eddc
bcf debd
ebb bbebdc
bcc ecf
bd bebdcc
bec ebbbf
bbbbc dbbc
bebd bebf
deec bbbe
fcc beed
eba bbf
eeebe beef
fdbbbb cc
ebe ecbbd
fc dded
ecc ecebe
bbfc bbee
eeebb beef
edbc eebc
eebbee eeee
ebe dcec
bec ecbec
df eebbc
ff dbdc
bbbd dbbbe
ebcc bbdc
eccc ebbc
bbebc debb
bcbf edc
bebbc dec
bdbc b</w>
bcc ecfc
ded bebf
becc febb
bbfa bba
dd eceec
bec beedc
bbed dfc
eeec eebcbedf
bbfc bcbc
ecbd fbd
bbebd bebc
bcef dee
bfbc bbebb
bec ecf
bbd bebdc
ebcc fdd
debc bcbc
bced ddc
edee fee
a fecc
ebc beedc
ff bfcc
ecbe bba
dcdd ddc
eccc fee
eecc beee
eedc bbbe
efcbbebd eecbf
a bfbf
bdbd bef
bcdc bbbb
ecee dbcc
bfc fdd
eeed bbcc
bebbc bcbc
bf eeba
dd bdfc
ecc bceec
eec bbccc
bbbc bdbbbb
dcc febe
eef ebfc
ecbd bbbd
bdee bbdc
dc bbfcc
ef fdbd
bcc eba
dbb efbbc
ac dfc
bccc ebbc
bcee bbef
bced edc
bcbbc bbcc
bcbbbb bbcc
bbbc ecebb
efc fa
bcf bbecc
bbbbbbbc bbbb
bc a</w>
bebe eebbbb
ebb db</w>
ebc eeeec
ebc eebdc
bec dbfc
fcc fef
debe fee
dedc fec
bfbc bebd
bcc ebccc
dee bcfc
ea bdbf
dbbc ddc
bebbbb ebbc
ecdc bbbe
fc dfcc
ebf bea
fbe ebeebe
beebb bebf
bbbec bcbc
eeef beef
ef ececc
eec ebbebb
dbbd bbdc
bdee ecbc
bbebb beed
bcdc bbf
dee bebcc
ebec decc
eeebe eebf
eebbc dbc
bbebb dcc
ffc bebc
eddd edc
bd bbeccc
bf bebbbf
ef dbbcc
ebd eebbd
bbd fbdc
dbe bbecc
bfc eedd
fcc ac
bebd bbdd
bdbd dbbbb
eedc bbbc
bebbd ccc
bcbccc ccc
bbbb bfebb
fbd bcbd
ebdc debb
febb fec
dbbd edc
eedc eebc
efcc edc
edec fbc
bbdbd bbbd
fc bcebd
fc efdc
bec bcbbd
eec fbbd
bbbe eebbbe
bdc bbbcc
bdc befc
dec bcbe
ebec fdc
debc bedc
bcebb bbec
bddc dbd
bda a
ebc bdf
bbf ebbebb
dbe ebfc
bbee bdcc
becc beed
eeec ecbc
bec bfbf
bec bceec
ebcc ac
dbec fed
deec ddc
bbc ecbbbb
bbc bedee
bbbe bebbee
dcc eddc
dbbd fee
eedd ddc
bbbe fbec
eedc bbec
bddbe bbee
df ebbcc
ea bbbbc
fdd eebc
dbbbe a
ebbee bfc
dac da
dc ebfcc
ba bbebc
fbe edbd
dbbbe dd
dbbbc ccc
bbbc ebbebb
bbee dbcc
bbee bcbbc
fbe e</w>
bbed bbebe
fcc debe
eccc fed
ebc bfbbc
bbc bbba
ecc ecdee
fbd ecbc
ebbebe bbbb
ebe bcbebe
bbc ebbed
bbd edebb
ebcc eeed
deec efc
bbbec fbc
eeebb fbc
ef dfcc
bbd bedbc
bbed bebf
bbbbc dbf
bbc bdbe
dbe fbbbb
dec bcf
becc ecdc
ffc bcbc
bebec a
bbc bfbd
df bdebb
eebe bbebd
bbef dbf
bced ebd
ecee ebec
ef debcc
ef bbdcc
ef bcdee
dd fdbd
ebc bedbb
bbc bcdbe
ecc bdef
dbc befc
ebbc bbbcc
beee bcebb
bbbf bebbc
dfc bebe
eba bbbd
ebeebb eeee
bfc debd
eebd bbebb
dbbbe ccc
eced bbbb
ebcc eedd
bbfc fee
bbeec ded
bdbc ea
ef dddc
beec bbbbc
bbdc bbdd
fa bea
fc ecbcc
fbf bbebb
dc bbcbbbb
dbe e</w>
ba bcebb
bebe eef
eebc bbdd
febb dbf
bdf b</w>
ef ebebf
bfc dedc
ebfc fbc
fdd bbbb
ebc eeccc
ebd eeebc
dbbd bbed
debd bbbe
bec ecbcc
eec fdf
edc ecebb
dee febc
bccc ccccccc
beed ebf
bbec ac
fbbc bebc
ecc bfdc
bbbf ac
fcc bcec
dbbc ebec
ebb dbbdc
bec eea
df eddd
dee beef
bebe bcebc
beec bbebe
eeec decc
fa dcc
ed bedebe
ff bedd
eecc bedc
bbd fedc
edc bedf
bebe fbbbb
efc bcdc
bbed bcec
bbbbc bbdd
bbbec bbbec
bcbbc df
eeef eeef
fbe bdef
bbbf bccc
bbbf fdc
debc debe
bef befc
bebc eebf
bbbf bbdc
bdbd bcbc
dbbf bbbe
bbcc ffc
bbbcc ebe
ecdd fbc
bd bbd</w>
ed beeecc
eebd ea
eebd dbbc
bba ebe
ecdd dbd
eec bedcc
ddc bedd
bbbbc bebbc
fbd da
ebbee fbc
edee bbec
ebc bbbbbbc
ebec bcbf
bbef bbebe
bdbc dbbc
bbcc bcec
bbed ecbc
febe edc
bec defc
bbee bcf
eebf ba
bdcc bdcc
ed fdfc
fc dbbee
eec bbbdc
deec bebd
eba bcc
ebfc dec
acc ccc
ebb bbbbbbbbbbbbbbbb
ef bcdbc
dbb ecdec
fec fef
beec debd
febe fbc
ebbbc fcc
ebbebe bbee
bbc dddd
bbd bbbbcc
dcc dbcc
ebec da
bbdc fcc
decc ebe
ecbd fee
bced fbc
efbd ccc
bd cccccc
eec bfbd
bbf dbbbe
bebc bcbf
dbbbb bdbbbb
beef dbc
bcbbc dee
bea ff
bcebe bbbc
edbc bebd
bfec bbbc
bec d</w>
bebc beebe
bbebc eebc
bedd becc
bbebd dee
eeef ba
dcec edc
fc bdebe
fbe ebbcc
deec debc
dcbc def
ebc bcccc
eec beedc
bbd eeecc
bebc ffc
eecc bbed
bced debb
bdf dbcc
bdec fee
bc ef</w>
ebbc fef
eef bfbf
dbec bbee
fdc bbec
a fbbd
bec dced
ebf bcfc
beee fa
bbebe becc
debe dbbc
fbbc dec
bbc bdfc
eec deecc
bdbd fbc
febe ba
eedd fec
ebd eedbe
bfc dbcc
fbd ffc
eef e</w>
bcbd bebd
bebbd bbf
edec ded
ebb bbebbbbbb
ef bbea
fc f</w>
ebd dbfc
bebe ebbbbbb
bebc dbbbb
beebb debb
fdd becc
bbebd dbe
fbbc dd
ecbf bbbb
ebe bcedc
bcc ecbec
bebe fa
bebf becc
ebbee dbf
bdbbd bbbb
ecc eebbbb
efc fecc
ebcc ffc
dfc debb
eeec bbbbc
dbbd bbcc
eec ecebc
dbb ebedd
ddc bedc
edcc ded
edbc bbed
ed dc</w>
ff eeebb
dcc ecbf
bbebe bccc
beebb eebf
bddd df
ebeebe eeee
edc beebc
ba beed
dbc bba
eebd eebd
ebd ecfc
bcc eedf
bfc bcdc
ebcc debc
eeec bbed
ed dbba
ebe bddf
bbcc eeed
fbe bbebf
ecbc fbf
bdbd dcc
ecf bbbec
fbbbb ccc
bf bedcc
ebe bbea
dd bcbcc
bbd bcdf
ba bebbc
ff fccc
bef bcbbc
ddc bbdc
beebb bebd
bced dbf
febe bbbc
fc bfebb
eec ecbcc
bbd dced
ebbc da
bced ebf
bcbbbc bbbb
ef eddf
ebbc beef
bbebb fcc
ebec fbf
ecbe bfcc
decc ecbc
ecbbc bbbb
eeddc edbbc
ebe dba
ebc bbcbbc
bbc bbbfc
bbd bdfc
bbd bfebb
bbbe eedc
bbf bca
debe debb
dcbc fec
ee decccc
bf fdbbc
ecc dced
bbbe eeed
dbd ecbd
dbbbb bebd
dbec eebc
ecc ececc
bbf bebbbe
bbee bbbcc
dbd bbebe
bbbbc bbebc
ecec fbd
ebe dcdd
dbe dbbbe
ebbc eeebb
beee ebdc
dbdc dec
eddc a
bbf ebbcc
dee dcdc
ebbc bbebd
dfc ba
dfc ebec
decc ecdc
eedd ded
ecee da
bfc bcf
dbf febb
fef ea
bdf bba
ecdd a
dee bedd
bbebb eebbbb
bedc eedc
bebbc bef
ebc ebbebe
dbc bbbcc
efc befc
fee bcdc
fec bcbf
bbef fbe
bdbd bebd
bcc bca
eec eeecc
fed beee
eecc ac
edec ebd
dc dbdcc
dbb ecbbbc
bbbd debd
eeec dbec
dddd dcc
ed fbbed
bbf bbecc
efc dbcc
dbf bcec
ecbc eeee
dd bebbf
ecc bcdf
bbd ebccc
bbbe bbebbc
bbbc bdcc
ebbc eebe
bba ebf
eeec bbebb
eeda cc
bd bbcccc
dee befc
dbc bddd
fdd bebc
eebbc fc
bfbd dbe
bbbe ebbcc
bbee bbbbbbbb
dbd bcdc
eeebe bbc
def bbed
fed dbec
bcee ebdc
deec bebe
fef fcc
ebbbc fbd
a bebcc
ebe eedf
ebc bfdd
dee bebbbb
dcbc bbcc
eedbbbb cc
ebc fbbbc
bbbf ddc
eecc debb
eebe ebeebb
fef dec
bfbc becc
eebeee bbee
bf eefbe
ebec bebf
bbbf bcbd
bec bbebf
bfc ecbd
eef ebeebe
bec fbdc
febb fbd
ebe bffc
ebe bcdbc
bbd bdbec
bbee bded
dec eeed
ebec bbdd
bcbe ebfc
eeec da
fbbd ccc
fc eddd
bec bcecc
ebf bebec
bebc dbec
bebc fbbc
fec fbe
decc cccc
bbeec dbe
eeebe ba
eced ddc
ff dbbd
def ecbc
ecbe ebbebb
bfec ba
bfec bef
fc dcec
ebd ecf
eec dbbee
fbc debd
debb eeee
eebbc bcc
bdec beee
a eebbbb
bbbb e</w>
ebe bfbbbb
bbbe bcbbbe
bbbc bbbbcc
bbbbc becc
fed debe
eecc fee
debc eccc
dbbbb ebbc
bba beee
bcbbc dbe
dd efdc
bbbbbbbb bdbbbb
ecdd ddc
dcbc bbed
bbbb eeef
ebe eedbe
fc ecdf
ebd dddc
ebf bdbf
ebdc becc
bebbc bbcc
bdbe dbbd
dbbbc bbbc
fbbbb bebe
bbd bcbbbc
bfc bdbd
dbbc debe
da bef
dbbbe bbbd
bbbe bbbdc
fbe ecbbc
bbbf bcbf
ebdc bcbc
fed fdc
eddc bec
ebe dcebc
debb fbf
beed eebc
dedc eedc
bddc dee
dbd bcee
def cccc
ebb bbeecc
bbc bedbc
da bfa
febe dcc
ecdc fcc
dbbf dbc
ebb dbbef
fc ecebe
bcbe ebbebb
bedc fbd
eded bcc
fdd bebe
eddc eec
ebbbc debe
dc fbeee
bbcc bbebe
bdf ebfc
ebb beebcc
dec dbdc
bbdd dbf
dc bebbcc
ebd eac
ebd fbbf
bbcc b</w>
ebd ebccc
dec bbef
bebf bebd
bdbd ebf
ecef dd
ebbec bebe
dcee ded
dc fbbbd
ebd fdbc
edc e</w>
ff c</w>
bef eedc
ecbc bbdc
eecc ecbd
eef dbdc
bdf decc
ebd bebbee
ba bcec
bef dbbd
bbec fdc
bbccc bcc
bec bdebc
eec bcbbd
bdc ecebb
dcc dedc
bbebb bccc
fed bccc
bbdd fbd
febb bbbf
bbbec ecc
eeebb bebc
ba eebd
eeed bbbd
bdee def
ee a</w>
edc bbebc
bcbc b</w>
bcbd fbd
beebb eebc
bdc eeebe
ded bebbc
fcc fbe
bbebd bbbc
eef dbbf
deec ea
bbfc fec
fa ecc
bdbc fbe
bcdd a
edbc becc
eebbee bebe
bbbe bddc
bbef fbf
bfcc ecc
dcbc efc
eddd dbc
ebbbc dbf
fbbbe bbbb
bedbb fc
ef edebb
bbc bfef
eec bfbf
ccc fdc
ebec bbbec
dfc bbbf
bbdd bbed
bbdd bddd
dcdc dee
bbf bcbec
ebbc bebec
ac fbd
bcbbc dbc
dd eeeec
bebd fdc
bcebb bcbc
bdf deec
df ecbec
bbf eebbbb
bbee beebc
dbd bded
beee fbbc
eca a
bcc ecebc
bfc bcee
fbc eeed
ebcc bbbbc
bdbc ecbc
bfec dcc
ef f</w>
ebf fbec
bef debd
bdbd b</w>
ebbc dbcc
beee beed
bbfc bbbd
dbbd efc
beef bbbc
dccc ded
ecdf ecc
ebc eeebd
fc fbfc
ba bebbbb
ebdc bbcc
ecbf dbd
ed bbb</w>
dd bfdd
edc debf
ccc bebd
fbe ecec
bcbd eebc
fa fee
bbf eeef
ebf decc
ddc bbebb
bbebe eeebb
bdbd ecc
edbc beec
ef aa
ebcc bbef
fec dbcc
eebd fed
edbd bbd
fbbbe bbbe
dcbd bec
bdc bba
dee eba
ea ecbc
bdbe bba
bdee bbbf
eeebc bbc
bbbc bcebe
bfc bbbec
bcbc fdc
fec fbf
eeed bebe
bdef a
ebc eceec
edc eded
dee bbbcc
efc eedd
ebcc bbebe
beec bcec
eeec ac
bfc eeebb
ebbc bbbbbbbb
bbbb bac
ff fbbbb
bebc bbbcc
bcebb bbee
ed bbebdc
ff dbbf
becc bbdc
dbbc fbd
ecbd bbec
bddd bdc
dc beba
ff bbbec
fbc eedd
bcbc bcee
bbef dcc
bddc df
dbd bebbc
bcbc bebbc
bbebc bef
bcbbc bebe
ebbbd bbd
bf eedee
eeee beebf
ebdc ebdc
eebd beee
bbbb ebebbbb
ef bcbbbc
bdc febd
ff e</w>
fee eccc
eebc eedd
debe bccc
ebbed dbe
ebbec ebd
f deb</w>
edc eeef
bfc ebfc
bfc fbec
ebbc edcc
dbb ecccc
dbb effc
bbcc febb
fbbc ecc
edbd bbbc
eebbc dd
bebbd bec
df bca
ccc bcec
bcbc bedc
ecbe dbbf
bbef fcc
bcf bfbf
ffc bbbc
dc ebeebe
ef ddbd
bbc fccc
bbc eeecc
edc bebcc
dec bebcc
bbef beebb
bea dbc
ebbebe bbbe
a ecbbc
ebe eeba
fc ebbbf
eec eebbbb
ebf fbbf
edc c</w>
dee bbebd
ea b</w>
bebc decc
eddc ebc
ddc bbbf
bbc bb</w>
bcbc fef
bebf fbf
a feec
bd bf</w>
edc edbf
dbd fef
deec fee
ffc fee
bfec bbbe
ebe dcebe
bdc beebc
bdf bbbec
eebbebb fed
dbd eebf
beed def
edbc def
ebbee bbbbc
beee dbbbb
debb eedc
eeec febb
ecee efc
ebbcc ebc
dcdc df
bfed bec
ebf fdf
bdc d</w>
fbe bbecc
dbf ebcc
ecee bebd
bea bbbe
ebe dbbcc
eec debcc
dbe dbdc
dcc bcee
ac bccc
bbbbc b</w>
debe bbebb
dbcc bebe
ecebb bcc
bcef bec
ded fbf
ffc fcc
edbd ddc
bedc bef
febe dd
bebec dee
bcebe bec
bbc bcebd
beee bbbec
bebbbb dbc
edcc bbbe
dc dbbdd
dc bbdbd
ebc bedbd
ebbc dbbd
eebe efef
dbec bbbd
bcef bcc
bdec fcc
bdbc eecc
eddd a
bbbb dddd
df bceec
dbbc bcbd
bbebc edc
febb ea
fbbc bbec
dccc ddc
bdc bcbbc
ebbc fbec
eedc becc
bbbcc bbee
ebbcc ebd
ddcc dd
bbbb fdf
bbbcc bbec
ebbc bcdc
bebc da
bebbc ecc
dced ded
bbbb fdbe
dbe eddc
dbe ecbec
fee bced
fec bcdc
ecbc fbe
dfc fbd
bdbf bcc
bf beea
fbc eebf
ebec ecbd
debb fbe
dbcc bbbe
fbbc bbbd
edbd dcc
bcef bbf
eea beee
eebeee bebe
bbc fbbbc
fc ebbebb
bcbe dbbf
edcc bebe
dcec bbf
bbd fdee
efc bced
bbcc eccc
ac bebd
ecbc ea
febb beebb
eeec eccc
eedc eccc
beef ecc
eedd fcc
ebf beebc
ebb bebbbec
ebe efebb
ebc bdbec
dcc bbbbc
bbcc bcbf
bdbe bbfc
bddd dee
eedbb ccc
ed fbbdc
edc eebcc
beec eccc
ecbc bbbbc
bcf eba
bedc debc
beebe eeebb
edec bfc
dc bbbbbd
bbbd bcec
dbf dfc
dbbc becc
bdef ccc
ebbed df
ed bbeccc
ebc dddc
cccc ecc
fdd fdc
bdf debd
fecc ff
bbbb bcbbf
dbd bbef
fc eebbd
bdc fdf
ea eeebb
bcbc bcebb
debe ddc
beed da
eddd fbc
bfec bebe
a bcbec
edc bdbf
ebcc bebf
fbf becc
befc bbf
ebc bcdbc
bec fbbf
dee fa
debb bcec
dbbbb ebf
bedc ba
ecdd bcc
ebbee bba
ecda cc
ebe dddd
ebc bcbbbc
dbc bddc
ebbc bba
dbb ebeed
bbbd bced
bbebb bcec
bbeec bebe
eeebe bebf
bcebe bbbe
bebbbe bbbc
dc ebba
bec fccc
fbc bbdd
fcc bcbd
bccc ba
fbf ddc
bedbb bcc
eec bceec
ea eebf
ded dbbd
ffc def
eea ff
bbd bbbbebb
dbb dcbcc
bbbf fef
bbbbbbbb bbec
ebfc dd
eebbc dee
bdec ba
bbcc bcbbc
fec bebbc
bebd debd
febc ecc
eebbc df
ebe edebb
bebd b</w>
beed fbd
bbbcc bebc
ef edbec
edc fdf
bbed da
bdbe eccc
bcdd dec
dbccc ccc
bec eeecc
ebd beeec
dfc efc
bcee bbbec
bbebd ff
ebc beebf
beee eecc
ebbbd bdc
bbc bfebb
bbd bdebc
beee ebbebb
beee bebbee
bbebb eecc
bcee bbecc
ba dea
dcc dbec
fbc decc
fbe c</w>
fcc dedc
ecbc ac
ecbd bbcc
bded fc
bdbf bdc
bcfc ff
bfbc debb
dcec deec
ecbc bedc
bbfc debb
bdbd debb
ebfc eec
dbcc ebf
edcc bbf
bdcc dec
bded bcc
ebbcc dee
bddd a
dcdc dec
bd fcccc
bf dbbbbc
dbe fdbe
ba eebf
fee ebec
beebe bebf
bbbe ebbbf
bbee eeef
bbdc ebcc
ecee dccc
ecdd bdc
bdec efc
bedbbf cc
eedebd cc
ebb ecced
bfc febc
ea eca
bbed dbbd
bbeec bbbc
fa bda
dcbd ded
ebd defc
ff bea
bcbbc fc
ebbee ddc
eec eac
dbe eba
bbee bcdc
dbd ffc
bbec da
bbec dedc
dfc bbcc
beed deec
bced fec
dbe bceec
beee bbdd
ebdc fed
ecbe edbf
bedd bebe
bbbdc bbc
edee ebbc
ef ecdbe
ccc debb
fee eebe
dbbc def
eeebb dbf
bcbbbb bebe
bd dbbbdc
ec febbcc
ebc ecbbd
fbc befc
bfcc bbf
beebc df
bfbc ebec
ebbec bef
ebc debcc
bfc dbbbb
bbec ffc
ebccc ecc
dbd e</w>
fbe dbbbe
ecbe debd
ecbf dee
eebbc a
bfed dee
bfbd fc
bcbbbe bbbb
bf eeedc
ef fcdc
bec deecc
beed debe
febb fcc
bded bdc
beebc bbf
eebbc bbbd
fbbbb bbbf
bbcbbc bbbb
ebd ddbd
eec dcdd
bbbc debd
bebd eedc
bcbd ebec
beef beef
ebbcc df
bebec bbf
ebc fdee
ecbe bbbcc
bccc fbd
bcbec dee
ebe bcbdc
ebf fbbd
eeee fa
beebe dbc
ebbbc eebc
ebf bfbf
ebbc befc
ea eeef
dbcc dcc
feec dd
bdbbc bbc
ebc edbec
ea bced
becc bcec
ebdc fdc
bccc ebcc
bbebc fbc
ecf dccc
edbc eecc
dbe eeebe
bebc edbd
bdbd edc
febc edc
ecef bcc
ebc fdbd
bec bdef
bef bedd
efc bbdd
bcbe edbd
bccc fed
decc bbf
bcef ff
deec deec
ecee dbbbb
bbbd bbbcc
def bcbd
def fdc
bedd ebbc
febc dee
edbc ebec
efc ecdc
fcc eddc
def debb
bbebc dbd
bbfc bbebb
febc bbbb
ebbbc bbebe
ebe ececc
dec dbbbb
ded bbbbc
bbec bcbf
beee ebeebe
dbf bbbbc
becc ac
dbec ddc
ecec ef
edcc fec
eced bbbc
bfdc df
dc bbea
dc bbbbebb
dd deecc
bbee b</w>
bbebb bbbbbbc
eeec dedc
dbbd ebbc
ebfc ecc
eeebb dbd
bcebb ecc
bebbbb dbbbb
efed ccc
dbe ebbebb
decc decc
ebb bbeccc
fbf fdc
efbf ccc
a eac
ebc eedbc
bbc bbbbebb
fed bcbd
debc ba
ebbcc bbf
bdee dfc
bfbd eec
dd bbedc
ea febe
efc eeed
bceec df
dcec ddc
edec fcc
eeee dec
eebc bdbd
bbbbbbbb bcc
fbbf bebbeccc
a eedd
bbd bcdbe
edc bcebe
bedd bbbd
dbfc df
bbbbcc bbbb
ebbec ebbc
ebe bebbbd
dd bcecc
bbc eebbd
fbd bebf
eecc bcec
ecbe b</w>
fedc df
bfec fbc
ed debbcc
bbd edbbc
bef eeed
beee eebebe
bbbbc fec
eebe eddc
debe bebd
bdcc fec
bebbd bbbc
a fdbe
dd bdbec
eef bbeec
edbc eccc
dcee bebc
dbc dedc
dcc bbef
bcbc bbbcc
def bcec
bedd bbbc
bbd febf
eef ebbebb
bbfc bbcc
dcbd eec
a fea
bbc eedf
bcc debf
bfc bfcc
eebc edbd
ecbc eedc
bbbbbbbb bbee
deec bef
bddc bec
acc ac
a bedf
ed bebbebe
bbc ddcc
bdc fbcc
ea bcbf
bbbd dfc
eebc debd
fbf ded
bebbc ebf
bebbc dbd
ef ebbee
ef ebeebb
ebe bcbbee
fc bfdd
fc bcff
bbbe dbbbc
dbe bcbbbb
dbc bdbf
fee bcee
fef fbf
bebbc fbc
fbbbb bbee
edbc debe
bbbb eedd
bbcc bbef
ecbc beebb
dbbc dbbbb
eebd eccc
decc ebcc
ec bbebecc
dd ebbbf
bec eebec
bbbc bbecc
bebe bebec
bbbd bcee
bbbf bbbec
ebdc bbed
beed fed
bbd bcdbc
dbe bebbbe
bebc dedc
bbec eccc
ddc fbe
dfc becc
ef bbefc
bebc eeed
eeee bebbbe
bcf b</w>
eebbc bbee
ebf b</w>
ebf bcebc
edc eedbe
bef bded
bbdd dbbd
bebbf bbbb
ebe ecdbe
fbc bcbe
deec ebcc
edbc ba
ebc bbbbcc
bcc beecc
debb bcebb
beebb bebbbb
eebbc bebe
fbec dee
fecc ecc
bdebb bbbc
fc fbbbc
bec bdbc
bbbe fbcc
eecc beed
fecc eec
ebc ebbebc
bdc fbbd
bfc dbbf
dd bedee
ebc edebb
efc bdcc
bebf febb
bea bbf
ddc bcdc
bcf efcc
bdbd bbed
fdd fcc
beebe edc
ecdebd cc
ebbc bcbbbb
ddc bcec
ac bbed
fdd bef
fc bdf
fc bbbfc
eec ecbec
bfc bcbe
fbc ecdc
fbe dbdc
bbbf fbbc
def bebd
bbfc dcc
bdbd beee
ebc bedcc
bec edbf
dbd bcdd
dbec bebd
beebb fbd
bedbb ecc
ebb fbbdc
ef edebc
bcc dbbbc
bbbe bcfc
ebbc ecbf
debe ded
dbec bedc
ecbd beec
eea fee
fc bcccc
ff eebe
dbc beebc
deec bbbd
ebf bddc
dee eedc
bcbc bced
ddc d</w>
bbbf ebcc
fef fec
fbbf a
f dbe</w>
bbec eeee
ecbd bebd
eced fbc
bdee ebec
ebe ebbdc
ebf efcc
bbbf da
bba bebc
eba dbe
decc bebe
ec bbc</w>
dc dbbbbc
ebe dcebb
bdc e</w>
ff eeec
bbebe dec
debc dbf
ebe eceec
bbf fdbe
bbee ebbebe
becc bbebb
bbef bebf
eebd ebec
bcebb ebd
dccc edc
ecdd dec
ebe bdeec
eec bfdd
dbc d</w>
ea bbdc
bfbf bbbb
bec bbbbbbbb
eec efdc
fbbc fbd
bbccc bbbb
ebc dded
df bbecc
eeee bebbee
debe fec
debf bbc
ebbee beec
ec bbefcc
dd eebbd
dfc bbed
febe dbe
bfbc eecc
bebbebb bbbb
ebf dbbf
dbb ecbebe
becc ffc
bbdd dbbc
ecf dbbd
eeed ba
dbbbe bbebb
fa dee
bddd dcc
bd dbbeec
df eeef
bebc bcbbc
eebd edcc
ebb fdbbc
dc fea
ebe bedee
ecc eebbd
bebe bebcc
ea fed
ebcc dbbc
debc ebec
eba bec
bbbec bfc
dcbc debb
bd ebb</w>
ecc fdbc
bcbc bbfc
eebf bfc
beebe dbe
fecc edc
dcec def
bbd fbbbc
bdc bebbbb
ff bcebc
ccc beed
fbd bcec
eef bbebd
bbdd efc
eeebb bebf
eea ba
bfbc beee
dc fdef
ebd bac
bebc fdd
fee fed
bcbc febb
eecc edbd
bdbf dee
ed ebac
ef fea
dfc beed
ebf bcebe
dbbbb fbc
dc fac
ebe eeccc
ebc bfef
ebc fbfc
bbc bebbee
fc beff
becc debe
dbec ba
eebf bbcc
dccc a
bdee bbebe
fecc dbc
bbbebbbb bbbe
bef bdebb
bbec decc
debb bdbd
bbed febb
bbbbc bebf
ecf ebfc
ecf bbbcc
bcbcbcbc bcbc
fc fbbbe
eeee ebbebe
fbd febc
eebe ebfc
bedbb ebd
bbf bebcc
bedc eccc
eedc ebec
dbbee dbe
a acc
ebe eeebd
da ded
eeec bbbf
ebe bb</w>
df ecbbc
edc bba
ebbc fbbbb
fee bdbd
bcec bbdc
ecbd dbf
bebec dbe
a ebbebb
dd bcdbe
ebc ebbef
bef beebc
eeee fcc
ecdd ebd
ebbcc bbbe
f dbd</w>
ebbc ecdc
bbbbc bcebb
fed debd
eebe bbecc
bcbe edcc
bbbec dbd
edbc bbebb
ebbc edbd
beee bbbcc
ddc ffc
ddc bcdd
debb b</w>
debe dbf
bbc bebdc
bbf edcc
bbbc eebbc
fec eeec
ecbd ba
dcbd bdc
dcbd dec
bfec dbd
edec dbf
bbbb eebec
bec bca
ecec eecc
eeed bbd
feec dec
dcec fee
dc fbecc
bec eeef
ecc bdbc
ecc fbbbb
ea deec
fbf fbe
ecec fee
bbbb bebbbd
dd ebbed
ecc ecbcc
beee bbebc
ac beed
eebc eebf
fbd beed
bbdd bbdc
ecee bbebc
fc eeccc
fbc bbbec
beee bdcc
fed eedc
bdec bbcc
bdec dbf
bbbc bded
dee d</w>
fdd dbf
bedd eebc
ebe bfa
ebc edebc
dee febe
bdbd ef
eded dec
eec eebbd
bbbc dbbbc
ea eeebe
ddc bced
bbdd fec
bcbbc bbbd
ebbbd ff
bcc bfed
bbf bebbd
dbec dbec
ecec bebd
eddc dbe
ecbbc dbe
bbc fdbc
ecc fbbf
eec bcdf
df dedc
da fee
a ebbcc
eec bbedc
dbb dcdf
fdd fed
eedd eecc
bcc bceec
bbee deec
bcbc eeebb
bbbf bbfc
bbef bbed
ebbbc ddc
bbbbbbbbbbbbbbbbbbbbbbbbbbbbbbbb bbbbbbbbbbbbbbbbbbbbbbbbbbbbbbbb
ecc bcbcc
dbc e</w>
eef c</w>
fdd dfc
bbc fbdc
fc dea
dee bcef
ac fed
eebba cc
bbc eebbf
bec fdbe
eec bdfc
dbc fdf
dcc eced
debb def
bbbf debe
fa dbd
bedbb bdc
dbc bebec
dd dcbf
df bfbf
bbec fbbc
fee eba
fbe ebbbf
febb fbf
eedc ecbc
bdbe bbebd
bfcc fbc
eddc fbc
bbbd fbbc
ded befc
dbbf dbd
ecef dbe
ebec eeee
ebfc bbbe
bf dbbbd
bbd bebbee
dbb efed
ea fdc
ecef a
dcec fec
dd dbbcc
bbc bdbec
fc eedbe
bdc fbbbb
bbbc bcef
beee fbbbb
becc decc
dedc ef
bded bebe
ebc bcff
dbb dcee
bbcc bdbd
bbebc fec
eebf ebbc
ebc bfebb
bbbc fbec
bbbf fbbbb
bcbd eeee
bcebb eebc
dd bcebd
bcc eebbbb
ccc eeee
bbbd bebec
bba eba
bbebf bbf
edec bebe
ebe fdcc
ecc eeecc
bbebb debe
eddd df
fc eebbbb
eec beeec
bbee bcbbbb
bbbd fdc
debb eccc
ecbd fdc
bebbbb bef
fbcc fbc
dbd edbd
bbec bcbe
beebb fec
beed dbbc
bbfc ba
bbc ebbbd
eec bbbbcc
dbc ecdd
ebec bbef
eebe dccc
cccc bccc
fdd fbd
dedc ebd
bddc dbe
eebf fef
bcbf dbf
bded bbbb
bdec bbed
bbd dcbf
dbc eeebc
bbbec ebf
ecf debd
bbfef ebfc
eec dddc
ded bcebb
bbdd ebbc
ecbec dbe
ddbd bdc
bd fbdcc
ebc dcfc
bcc eea
bbd ebbebe
bebc befc
beee bedc
fed bcec
dbbbb bbdc
beed fcc
bced ef
bbd bebbbd
dbc bebbbb
eecc dfc
febb efc
dedc bcc
bdbc ebcc
dcbc dbf
edec bcbc
ecc dcdd
dbb efa
bbec befc
fbc febe
dc eebebe
ecc ecdbe
bbd eedf
ba dfc
bbee ebbbbbb
bcbd dbbc
ecbbc bbf
ebb beac
bbbb edbf
bbc bdf
bbc febf
dbc dccc
bedd bbbe
eeebe eebe
ecbf ebf
eddc df
bbbb ebbed
dd bffc
fc bcbbf
bbd eebbbe
ff d</w>
dbbbb bfc
fa bbbe
ebb dbba
fbc bebbc
ecbc eeec
dbbbb bcbbbb
fbbc ef
fbbd bbf
ebb ee</w>
bbbcc ebd
eeed dbbc
dbdc bdc
bec efdc
ac ebec
bebd ebdc
ecbd bcbc
ebe beea
df bbebd
bbbc bdbf
ebbcc edc
bdbbbb bbebb
fdbb bdc
ebbec beec
ec bbbac
ebbc decc
ebbc bcebe
ddc ecdc
bbbbc fbd
eccc eebc
debc fbe
bbebc bbebc
bcbcc bcc
def fbf
bcbe eba
beebb ebcc
bbbcc dbd
fdd ba
beebe bbbd
bebbbb ba
bec ebbbbbb
ebd bfbd
bbbf eebd
bedd bbf
bd debecc
bcc bcdf
dcc bcbf
ecbc dbbc
deec fbd
fc febf
bbd bdf
dec dbbd
fec febc
debb bccc
dbcc ded
fdd ea
bedd bfc
beef ef
bdbe ebdc
bded bef
ac eebc
bdbd fee
bebbbb bcbc
edcc bfc
bbbc ecbf
beee eebbee
bbebb fed
ebec ffc
bcec dfc
eedd fbd
bfebb a
dd beccc
ff bdef
bebe ebbebe
bbbd bcbbc
efc bcbf
debc ea
fbf fef
debd eecc
bced ba
bbeec dbc
bcccc bccc
bf eefbc
ebc bddf
ecbd eebc
bcdc beec
ecee bbebe
fbec bbbb
ebe bddbe
ebc efbd
df ddcc
fee beed
debb bebf
fbf bebf
bba bcbc
cccc fc
beebc bbbe
bddc bdc
ec bbe</w>
debc dfc
fbbc bcbc
bbeec bcc
bbbedfcfceebcbfdbbbb efcbbebdeecbf
f bbf</w>
dc feecc
bec bebbbc
bbee bbecc
bbec bcee
bbed eebd
dbdc bbbb
bf debdc
bbc beff
eec bdef
abf ac
bbc bfbbc
dee ecbe
bbcc dfc
bbcc bbbec
bbef ded
ecf b</w>
bdbc bbebe
fbec bbf
eddd fc
bfec bcbc
bdc eded
ebec bebbc
bbed bdbd
bcebb bfc
bdbbbb bbbbc
eebebe eeee
a ebba
eec bdebe
ebbc bdcc
fee eef
eedc bebe
fbbf bbf
bbd fbebe
dbd febe
fcc bbdc
ac eeee
becc bcbd
eeec def
edbc bbbf
bfbc eebd
ebe debcc
bcbbbb bbec
debf a
bca bba
dcee bcbc
dec bbbec
debb bebbc
bccc eebc
dbcc ef
dbcc fec
ffc dbf
ecdd bec
ebe dfcc
dbe d</w>
dee c</w>
bedc debe
ecec fed
bedd ef
ffc ebbc
dedc dbc
bddc dbc
edbc eeee
bedf fc
bfbc bbbbc
edc bbbec
bebd bbebe
da bebe
ffc ba
dedc efc
ecfc df
ecbbbb bbbe
dbe fbcc
bbbd bbfc
beec eeec
eddd dcc
bbdbbcc bdbf
bbbb bdef
bef bdbf
bebec bdc
bfbf ff
bf febcc
bbbb febd
ebe bbcbf
bebc eebe
bbebb bcbe
becc eddc
beebb eebe
bcdd ff
bdec bebd
edbc eebd
dc dd</w>
ebd ecebc
bcc bfdc
ebf ebbcc
edc ecef
eccc ebec
dbbbb bbebe
dcbd ddc
bbbc bcbcc
ded dccc
bbec eedd
dcdc dbd
fbbd fc
ecc bdebe
ecc dddc
bbd bfbbc
bebe bebbf
beee bdbd
fbbc fec
ec bbd</w>
bf bebecc
ecc dfcc
bbbc bbbdc
bdbe debd
edee ac
a eefc
ebbc febe
bbbf febe
eded dbd
bbbe fbbbe
bbebb bbbcc
dbf bebf
bbbbc beed
beebc dbe
ebbebb beee
be dbc</w>
bbbb bedf
ebc deecc
eec bcecc
dec beebe
bef bfcc
fcc fa
eeec ebec
eebf eeebe
edcc fbd
bcdc ef
bcebe bcc
dced bec
bfec beec
eedbbd cc
ebe eefbe
bbbc eedd
deec decc
ebbbbbb bbf
ebc bcedc
ebf eea
def ebcc
bdbf dbd
ecc eea
dbb becbbc
fee bedc
bcbe ebbcc
dbbd fbd
eeebb bfc
ddbd bbbd
beee eea
becc bbbf
eccc bbed
bbdc dbbc
eedc fdc
bcbf bcbc
a ecdd
bf be</w>
dd f</w>
ebbc bcef
eebd ebdc
dedc fc
ea dea
beec bbdd
bbebc ba
bbebd ccc
bbccc bbc
bfbc ebcc
bfbc bbed
ebe fdbd
ebf bded
dbd eebe
dbd befc
bbec debd
beee eef
bbd bbbfc
df fdbc
dbc fbec
bfc bdcc
bcee dbcc
dbdc bcc
ecc beccc
bbcc ebdc
bcec eeec
eedf ccc
dcbc eebc
ebe acc
ebf bebcc
bebe bedd
bebc beebc
efc bbef
ddc eeed
ddc eedd
bbbf dfc
ecbf bbbe
dcbf ccc
ebbec bdc
ebe eddf
beec fdc
beebe beef
fbbbb fbbbb
dcbc ba
fdbb bec
ed fedcc
dd febf
bbbbc bdbd
bebf ea
bfcc bcc
fdbe a
ecc bac
bedc dfc
bced deec
bdbe dbcc
bfec becc
edec ff
ebbec bbee
bbd bcecc
efc bdbd
dbf debc
bccc ebec
bbcbbc bbc
ebe edbec
dd ebbbd
dd bdebc
ebc eedee
edc beecc
bef decc
debb ebdc
eeee eefee
bcee debd
bbebd bbbd
beff ff
dded df
bbbb ecebe
ebd ecef
ebd dcbd
bebe eebbee
ebbc beebc
dbb ecedc
debb beed
eeee bbed
eebd bbdc
dbec bcbc
bbebd dbd
dbbf bec
ed deac
dc febcc
bbf ecdc
dcc ddcc
bebc ecdc
bbebb bcbbc
eebd ebbcc
fdc decc
bbeec eec
ebc ecccc
ebd bbedc
bebe befc
beee bcbf
bba bfc
bcebb fbc
feec dbc
ebe ecccc
ebe bbdcc
dcc bddc
fcc eeed
dbbbe dee
eccecc eccecc
ded bded
ecebb bbec
bec bdebe
bec dbecc
ebd fbbbe
edc eeccc
bbbc bebbbc
dbf fef
dccc bdc
ebbbcdc debe
ebe eeecc
dd bebdc
ac debe
bcec eedc
ebb fdef
fc bdee
bcc bebbf
bbbc bbcbbbb
fbcc bbf
ded ecdc
bbebf bbc
ebbee bebd
ebbee dbbc
ed beebdc
efc fdd
bbbbc bbef
fbd b</w>
ecbc bbebe
eebd bedc
bf fbbed
dc bbbecc
dd fdec
ebd ebbed
bcc bebbd
bbbc bcbec
bec bcdf
eec bedbd
ff bcebe
deec bcbc
dcbc eeee
eebebe bbee
be deb</w>
dd bdf
dd deccc
fc ecee
beee dbec
fcc eebf
bfec bbec
bcdbb ccc
ebc bdbbd
bef eea
fbc ecbd
bbcc bced
bbebb eebf
beec fbe
debe bbed
bfbf a
eded bdc
ba beebe
ebbc ecec
bebc bcdd
efc bbfc
edbd bbbd
fbbbb ff
a bebbf
bcc bcbbd
bebe bcebe
ded febb
fbc fa
beee dbcc
decc edcc
ecbec dee
dc beefc
ef fdbb
ebc fbebe
ecc bca
bbf ecec
bbbc ebfc
dbb ebfcc
bef bbecc
fbc bbebc
bbebb eebe
dbf bced
eebc fbbc
febc bbbe
ecebb df
ed fdebc
bcc bdbc
bbbc eef
ccc c</w>
ded ecbd
beee bebbc
fee bcebb
ebec bcebb
edbd bfc
bddc bbbb
ecbbc fc
dcbc bebd
ef ebbfc
edc bbbcc
dbd beebe
dcc e</w>
bbcc dbbbb
bbebb bbfc
dbf eecc
eedc bbd
ebbbf bbc
bfbd dbc
bf befcc
bbebb b</w>
eeee bebbbb
eccc ba
bcbf fec
eeed bcbc
ffc bbbe
ef efdc
ebe bebbebe
ebc bedec
ecc eddf
fbd ac
fed beed
bea dee
eebbbe bebe
fc bcdbe
feec ff
ebbbbbe bbbb
ef bbcbf
ef ecbdc
dbe beecc
bbebb beef
dbbc bbbf
fdc bbbd
bdbd bfc
bebbc bebbc
eced ff
ebbee dec
edc eedf
bef ebfc
fbf beec
bebbbb bcbbbb
bdbf bbbe
ed deba
ef edfc
bef bbeec
ebec bcbe
dbec ebcc
bbbbbbbb bbbcc
eedc ea
edbd fcc
bec dbbee
dbc dbdc
dbc bcef
becc ecbd
dbbc eecc
dbbbb debb
eeef beebe
bdee fbe
bddc a
ebd bebdc
eec dcbf
bbbc bebbd
bebd bcec
debe ecbc
beebb dec
ebbed bbc
bf eb</w>
bdc eebbc
bcbd bbbbc
bedc ea
bdcc bbbe
bdcc ded
fdf df
bbbbbbbbbbbb bbbd
fbc ecec
eebd bbed
eeef bbbb
dcdd dbd
ecc fdcc
ebf bcbbbb
ba debc
ebbc bded
eccc def
ffc efc
bebbbb dee
bebbbb dbd
bcbbc dbd
ebbcc a
bdebb dbe
dced a
eebd debc
efbd ff
ef bcebf
dd dcec
bbcc eeebb
bbdc eeee
bcbe dbbbe
bbbbbbbb bcbc
bdbe bbeec
ecebb bebe
ebccc edc
bfbf bbf
bbebbc bbc
ebd bedee
ba ecbc
bbbbc bbcbbbb
bcec decc
bba bef
eeec eeec
eebbee bbbe
debe fbd
bfcc bfc
bfbd bbbc
dbe ecdd
fcc deec
bac bbc
eced bfc
bedf a
bf dbbbf
ed dbbbec
ebe bcdec
ebd dded
bcf bbebd
eebf bebc
ebbbbbb ebbbbbb
ebc dba
ebc dcebc
ff ebfc
dbb ebced
eebc bebbc
eebc febc
edcc ddc
bbbd beebe
eebe decc
eebe efbf
bbdd bcbc
ef ebdcc
dbe eedd
ba fbbbb
ccc ac
eebc fdd
dd eca
ebc dcebe
fee bcbe
fbe eddc
fec bbbbc
eef ebbbf
eeef ea
bebbf bbf
ef eedbe
ebc eddf
ecc bfed
ebd bdfc
dbe ebbcc
ebf eedd
eccc ecbc
bdbd bcbd
fef dbd
bdcc fbc
fbcc bbc
bdebb bbbd
ecbbbb bbbc
dcee bbed
dc befcc
bec bcebd
ba febe
fec bbfc
dbec beed
bdbd bddd
edcc eecc
eced bbbe
bebbd bebe
fedc a
dcbd fc
ebb dbbbec
bbd eeebd
beebb beec
dbcc fbc
bcdc bebe
bbd bcbbf
dee dbdc
dbc ebfc
ebbc b</w>
fed deec
bbdc ea
ebecc edc
bcbbd bbc
bcbcc bbbb
bfc bcef
ebbc febc
fbd bccc
eeec eebd
edbd debe
bdc dbbbe
ff bbeec
bbbc fa
dbb fcdd
beee bcbe
bbbf bbebc
bca bbc
edc bcbbc
ba bbbec
dbc bbebd
dcc da
beee fdc
bcbc bbef
fed ecbc
beed bbed
bdcc fcc
bbd bfdd
dbe fbbd
ebcc febb
bcbd becc
ecec dfc
bfbd fbc
edec bbec
bbee ebeebe
bbdc bbbbc
bbbbbbbb bebe
dbbd ecc
bef ecdc
dcc eef
efc bbbcc
ebcc bcee
ebbee eec
ebbbd bcc
bf bbdbf
ed fdebe
ba bced
bfc eef
bbebe bebbc
ecdd bbc
bcebc df
ddbd ddc
ef debec
bbbe ebbbbc
bbbc ecec
ded bbebc
eeee dbbc
beef beebe
eebbbb a
dcec bbec
bec fbbbe
dbb dcecc
ea debe
fee bcf
bcbd dbbbb
fef eec
eeed fec
eddc ebd
dcec bebc
dec e</w>
bba bda
eebf eeef
eeed becc
edbd fbd
dbbbc bbbd
bdec ebec
be dbe</w>
dd bbebf
bbee ecebb
bdbd bbec
eedc fed
bbbb bfbbc
bec bebbee
eebf bcbc
ffc ddc
ebecc a
ebc bda
edc eac
dbc dbbf
ebbc eebbc
ffc bebe
bdebb a
bebbd eec
eca bdbf
edc defc
edc bdef
bef dbbf
bebcc bbc
ebbbf bbbe
ed bacc
ebb feecc
ebe bfdd
ebe ecbbbe
dbf eebd
fec eedd
bcec bbebc
eba dee
ecbd becc
ecf e</w>
bebbd bbbd
eebbebbfed edcfcc
ebc fdcc
ebd bdbbd
dee dced
dec eced
bebc ecbe
bbec eeebb
debc ecdc
deec bedd
dbbd bcbc
bf bbac
fc dba
dec bcbbc
bbebb bedc
bbbf eeee
fbd ebdc
ebbcc bcc
bfed bbc
edebb ccc
bf fdef
ebe efdc
ebe fea
bec ecbbbb
dcc debd
bdbc ac
bcee bbeec
ecec bbed
eddd ddc
ef fbebc
bdc eefc
fee debe
fec befc
ecbc ecbe
bbebe bcbd
eba dd
bfc bbbcc
bebc febe
dbbd beec
ebb bedebe
dc aa
ebe dbecc
ebd ecebe
bbbe bfbf
eebe bfef
eebe efebe
dccc dbc
bddd bbbd
ebecc eec
bdbbbb dbd
fdbb bcc
ebbc bcfc
fee fdd
bbfc dbf
beef ea
bbecc edc
ebbbc fbe
bec eebbd
bebd bedd
bced becc
dddd dbc
bedbb ebc
ecced ccc
ebdcedbbec beebf
fc ececc
bbd bffc
bbbd bcbe
fef dbf
bcbf ba
ed debecc
bec bdfc
dbe ecbbc
debf df
bebbee bebe
ecc beeec
ebd eeecc
bbbc febc
bdbc debd
bcbbbb bebc
f dbc</w>
bec bfbd
eec bca
bbf bcebc
ebf fdbe
bbee bedd
dec c</w>
dcc edbd
ac deec
eba bca
dcbc ebbc
bbd eceec
bbdd ebec
dbbee bbbb
dac ba
dcee def
ee ebd</w>
ecc bcccc
ebf bbeec
bbee eea
ded bcee
beee ebbebe
ecec bbdc
ebc efdd
fc bedcc
bef bcebc
efc edcc
eecc bedd
ebbcc dbc
bd eacc
ebe bebbec
edc bcfc
fbc bdbd
ddc fbf
fbd bdbd
beebe ea
ebeebb bbbe
ebe dcbbc
bbbc c</w>
dbb ecdbd
dbd bcebb
becc def
debe bbbf
bcf dccc
bccc fdc
ecec deec
bcbec df
ebfc bfc
ecec eebc
dbb ecded
beec ac
eba ea
bbfc bbbf
beebe bebc
a fbbbe
ebc edef
fbc fecc
debb bedd
beec eedd
ebbbbbb bebe
ebbbc efc
ed bedbec
debb fdc
ecbc ecbd
debe eecc
ecbe bbebd
ecbe dbbbe
ecee dfc
dcdc dbc
dd ecdee
ebc eca
bcc bdbbc
bbf edbf
dbe bbbdc
ebcc decc
fec fdd
eebc bbef
da dbf
beed beed
bcbf dcc
bcbbc bebc
edc dbbbe
eba dbc
bbfc ebec
ebfc bebc
dbcc eecc
eebf bbbd
ecbec df
ebbbc bbdc
ebb feccc
ebc ebbdc
ebc dcef
bbcc bcee
bcbd b</w>
eeec debd
a bddf
ee dbb</w>
dc bebbed
ebe eeeec
ebd eedf
dbd decc
fbe d</w>
eedc bbee
bcbbbb dbc
bcdd bbc
eddc dec
ee df</w>
bf fbecc
bf fac
bec ddcc
bcc ecdf
ff bbbcc
dcc d</w>
efc bfcc
bedc bcbd
eedc edcc
ebccc dcc
bbf decc
beebb ebec
ffc becc
ec eeedcc
ecc defc
dee ecebb
bebe bbebd
ebbc bdbf
dbd fbbc
dfc bebd
eedc bcbc
dbdc ded
ef ecebd
ecc dddd
edc fbbd
dbd c</w>
fcc efcc
dbbc eeee
bedc ddc
ecbd def
bcbf bbec
befc bebc
bcdd bdc
ef bedee
bbee bbebf
beebe bbbf
befc dbc
fbec dbe
ebb bebbdd
bcc bac
ba fbbc
bebe bbeec
fee ebeebe
beebb bbbbbbbb
eebf fbd
bcdc bcbc
bcdc fec
bebbf bbbe
a bebbbe
ebe bfbc
bcc bdebe
ebf bcbec
debe fcc
bcec eebd
bdbd dbf
eeebe bbebb
bbdbbbb bbbd
ebd ebbbf
ebdc ba
da fbd
bdbe deec
bcfc bbc
ebc ebbbec
bec eded
bbd bddbe
bbec febc
ecdc bfc
bddc bbc
bcda cc
ecc ebbebb
bba dec
fef ddc
bcbf fbd
bebbbb ff
bbeec ff
bcef dbc
bbba ba
ee ebe</w>
bdc ebbcc
edc fdbe
dbec bbcc
bbbcc bfc
bcdc bbbc
ebb febdc
ebd edbc
ebbc dbbbe
bef ebbcc
ded eeee
fbc dedc
beee fed
bcee dbbbb
bbebc bbbbc
bba fee
dbfc ff
a efcc
dec dcdc
cccc df
ebe dcbec
ebc bebbec
eec ebbbf
dec bbecc
dec bcebc
ebcc bced
bbdc bcbd
beebb bbed
dbcc bfc
bcebb bbcc
ffc beec
bcbbdd cc
bbdedc fbebcc
a dddd
ebc bbbbebb
bec bbebbc
bbf eebbee
edc eeebc
bbbc bdebb
eecc eedd
bbebe fbe
bbccc bbccc
dfcc ccc
dd dcccc
bec fdbc
dbe dced
ecec ebec
bcbbc bbbbc
fbec dbc
bbf bcdd
dbbc b</w>
debe efc
ecbf ddc
a eeebc
eebe dbbbe
bebbbb dd
ebbbd fc
ee bbbb</w>
ebe bedbb
bbd fccc
bbbe eced
edc dbbf
dee eebbc
bebc bcf
bbef beec
bcebb bbbbc
dbcc dbcc
fdd bbcc
fa ea
dcec debb
fbbcc fee
ebc eebbbc
ebf eebbc
dee dbbbe
bbee bebcc
eebd febb
dfc dfc
eeed ebd
bebbbb bdc
ecdd fcc
bfec ebd
bbcbd fee
dec fecc
ebcc bedd
bbbf bcf
def bbebb
dccc dbd
bbecc bbc
ecbf bfc
eddd dbe
bbbb ebecc
fc debcc
eec eedcc
dee bfcc
eebc ffc
bbef bbbbc
bedc decc
bebbc ded
eebec bbc
bec ebbbbc
eddc ff
df dbbbe
bbf fbbbe
ebbc ecebb
bbec b</w>
bcbc bbebc
eeee bebd
eeec ebdc
bcebb bdc
bdbe eba
bded efc
bf dbbebb
ebe dcbc
ecc bcdee
ebf bebbee
bcebb dd
befc dd
bbbdc bbbd
bddd ded
ebe bdbcc
dbb ecbebc
fcc bced
beec beebe
bbbcc bef
bcebb bbd
dbbbd dbbbb
ed fcccc
dee edcc
bbec fef
bbed debd
fed bebf
eedd fdc
efbf ff
a bbccc
ebc dea
ecc bebbd
df bedf
ccc ecbc
fbe bbccc
eef ebbcc
bcebb debb
eeef eeebe
eec bebbbc
dbbc bbdd
bcc bedee
ebf dbbbe
bbee eebbc
dbb ebcebb
bbbd fbbbb
bebc dbdc
debe bcbd
eeed dbf
edbf bbc
bbbbbbc bbc
ef ecbbf
ebe eebdc
df dcdc
bbcc bedd
ebcc ecbd
ebcc edbd
fec bdcc
eccc beed
eebd bcbd
dfc deec
bedc fdc
bbbf fa
bccc dbf
bbbec debb
debd bbbc
dbbbc bbbe
bdee da
bcebe bbf
edee becc
bd fedcc
ed bebbdd
bcc dbbee
edc bbeec
bef bebec
bebc fef
beee debc
bcec dbbc
febc bdc
ecbbc bec
ecbbc bbbe
efbf a
eec ecfc
bef dbdc
bbcc fef
bcbc eedc
bbef bebd
bba fbc
fc dddd
ecbe dbdc
bcec fdc
dd ecccc
ebc fdec
eecc decc
eeec edcc
dcbd dcc
bbd edebe
beec eeee
dbec fbd
bebf dcc
ecf c</w>
dccc bec
eebbbe bbbb
ddbd ded
bbd bbdbd
dbe c</w>
bbbc eebbbb
bcbc eeed
bcec bbbbc
bedc ecbc
beef dee
efcc fbc
ebbbf ff
eebdc eebceba
edee dbbc
ef eeeec
ebd beff
bbf febd
dbc bbeec
dbd eedd
bef bebcc
bbdc b</w>
bcebb ebf
bea bbee
ecebb bbee
dcdc ddc
fbbf ff
bf beebec
dd fdbb
ebc bbba
bbd eebbf
dbbbb bcbd
bcbbbb bbee
eebbd ccc
a fdee
ebe fba
bdc ecdd
dbd bbebc
bebc edcc
beee bbfc
eba fc
dbbf bbbc
bcbbc bbebb
eefc ff
bebbee bbbb
fbc bcef
bbed eeed
eebe e</w>
fbbc ebbc
ded bbebe
beed bbebb
dbcc bbbd
bedd ddc
beef beebb
ebd bfed
eedc bbbd
eedc bebd
a fccc
bbbc bbccc
eccc dbf
bbdc fbe
dbbbb beee
bbbbbbbb bbdd
bebf eebc
dbbd d</w>
eebf fec
bebbc beee
fbbbe bbf
dc bebbebb
ebf fecc
dbb ecbef
dec beebd
fbf febb
dbbd bbbbc
bac bbf
edec bebc
dc ee</w>
ebc febbc
bbd ecbbd
bebe bfcc
dbb fcbd
bbebe bbef
bcec bbbf
bea bea
eded bbf
fc bfbbc
ebbc bbeec
dbd eeebb
fbc bfcc
debe eebc
bcbf bbbd
befc bbbb
bcdd bec
bef bebbbe
bbebe bba
eba beee
ecdc efc
bbecc bbbb
ed fda
dd bfef
bbbc ebbbbbb
eebc bbebc
dbec ecbc
decc bfc
bced fee
ecef bbc
bfec fee
ebe bdebd
ebd ebbbd
debc bbcc
bbbec bbcc
ecf bba
bedd debb
febe beebe
beef eec
fbbc fcc
dcee fbc
ecc beebd
fbf debb
fdc deec
bedc beee
bdebb bec
feec bbc
bfbf bbc
ecdf fc
bfbd bcc
bfebb bbbe
edec bbbd
dee eced
dbb fcbbc
def dfc
da dba
ecebb dbc
ebbec ff
ebf bbebd
bebe eebbbe
ebcc beebb
eccc edcc
edbd bef
ecee bbef
bcdd eec
beef fbc
fbbbb bbbbc
eea df
dcbd ebdebbcc
febf a
bf eebfc
ebb ebac
bdc eddc
dbd ecbe
beed decc
fef edc
bcdc bef
ebbcc ff
bdebb df
eded bec
ed eeeecc
bbd bfbbbb
ebf dccc
bdc bcebe
ccc ea
dec eebbc
bebd fbe
bebd bebbc
bbebe debb
febb debb
eeec fdc
bebf fdc
bcbf fee
ecdc fec
bdf dbbf
bedbe bbc
dcbc fcc
be bbeb</w>
ef eebdc
ecc bcbbbb
ebf eddc
ba cccc
bfc bcbbc
ddc ebdc
bcee bba
ecdd ff
eedf a
bbee bcef
ac eecc
becc febc
bcec ea
eedc eebd
eeebb eec
bcbf bbbf
fbbc efc
eedd bbbb
bac fa
ebbebb beebb
dcee ebbc
ebd ebbebe
bbd edef
ba fdd
bfc fbcc
bbdd beec
ebd dfcc
eccc bbbd
dbbbb eec
bcbd fbf
ebfc dcc
eea bbf
ef ebbbc
fc acc
ebd efdc
dbc eeeec
bcbc deec
efcc bec
fbbf ccc
bcbcc bbc
ba dbec
fcc eeee
debc fbd
ebfc edc
bcdc bbbe
ebbed bbbb
dd dd</w>
bbec bdbd
bebbc bbbbc
ffcc ccc
dc bedebb
fc bdbec
ba bcbe
bebe bdbf
bebc bebec
bbbec ded
bbbec bbbbc
debd bbbd
bcdd bbbb
fdbc df
ef eeecc
ebe eda
bef ecbf
fed fbf
bbeec bbf
beebc bbbc
bebcc bbbb
bf bbdbd
ebc dbbcc
ebf fccc
fec bcbe
eecc debc
eeec bbdd
dcec bfc
bf dbccc
ebc bcbdc
fc dcef
ebd ecbbbb
bef bcfc
fed bbdc
bbef beebe
bcdc bfc
fbbebd cc
ebc fcdc
bbee dbbbe
fbe eced
eebd bbbf
dbcc eebc
edcc bbbb
bf bbbccc
dd edbc
ebc bbdcc
edc fccc
dbd bba
beee bbebf
bcbc eccc
bbebe dcc
dbec dbf
bcbd ea
bcbd bbbf
bebf dbf
eedc eedc
dbdc dcc
fbbd fbc
bfbc ecbc
bceeefcfeccefebbc ecebcddbd
bd bbc</w>
ebc ebbbc
ecc bebbf
dbb ebcbbc
bbef febb
ebe dcfc
ebc edebe
ebf febd
bbbc bcebc
bbed bebbc
becc eeee
bedc bbcc
dedc bdc
bdbc dfc
dbe ecdf
edc bea
ff eeed
dec edcc
ebd bedbc
df febd
bbf ebbbbbb
bbbc bddd
bdec fbd
bceec dec
bfed a
dd dbbdd
efc dbbd
fbe bdbbc
ecbc deec
eebe ebebf
fbbc fee
edbd bebc
bca ccc
bf bbeecc
bf fdebb
ebd edbbc
dee bdbf
ebbc bebbbe
bef eebbc
dbbc ea
eef bfebe
ecec beee
bcbf bbcc
ebccc fc
ebbbbc bbc
bbcbd dbe
dbb fcef
fbc bcfc
cccc eec
bbbe fecc
dbb fcdf
bbec eeed
bbbbc efc
ffc dfc
febc fec
beebc bcc
bedbe a
ebd bcdf
edc bebec
ddc dbcc
ac bbbf
bbef fef
eba bbee
eedd ebf
efcc ecc
eded dcc
bbcbd ccc
edee ded
ebc ecebd
bbec ecbd
bebd bebbbb
bcf dbdc
bbbcc fbc
eeebe bcc
beebc fc
ef bcdec
fcc febe
dbbc fed
ebec bcbbc
ebcc beef
bebcbebc bebcbebc
eec edbf
bbbe decc
fbe bfef
eef dedc
bcec eeee
eeec fa
ecf dbbf
ef eedbc
dbb fcfc
bebc eeebb
eebc deec
ecbc febb
ecbc bdcc
bbebe eeebe
dcbc fed
ebc acc
bbc dced
df dced
ccc eeec
dbc bcfc
bebe dbbd
ded bdcc
bcbc bbbec
bbed bbebc
bebd fbf
bbef fa
beed ea
fef beef
fbbbb ebf
bbebf bbbc
ecbbc bcc
eebbdd cc
ddc bddd
eebf fbf
febc ebf
ebbec bfc
bc ebe</w>
bbbb bbdbd
ef bcfbc
bbbe bdbbc
bdc eddd
dbc edcc
ebec bbebc
ecbc bbdd
bbdc bbbf
bbbbbbbb bbbbbd
debd bbd
bcbec bec
ebbec dcc
ed febdc
bbc defc
bbbe beebd
ba beef
ff bbecc
dbc fa
debb bced
bbbbc fbf
fbbbb bcc
ebb dedcc
ebe ecdee
fec bcf
fec ecbd
eef d</w>
bebf beec
ebccc eec
ebbec ded
ececbd cc
ebb dbbebd
ebd bbccc
bbbc bebcc
bebe edcc
bebe ecebb
bbec beef
fbd cccc
ecee ebdc
beebc eec
bfbc ea
ebe bcebf
bec ecef
ecc edef
dbd bbbec
bbcc fdd
bbed ffc
fbd decc
bcee bbdd
deec ebdc
beebe bbec
eebbc ff
bdee debc
edec ddc
ebbec bbebb
fc edbbc
ecc dbfc
bebc bebbbe
bebd bbef
eebd def
bba da
bebf efc
bcdc fee
eedd bbf
bf fbccc
bbc beccc
fc bddf
ebd bcdbe
ebcc ecec
eecc def
bbfc fcc
bddc bcc
a beac
ecc bdfc
ecc efdd
edc dfcc
dbd ecdc
ebec fbbc
debb ecbd
bbbf bcbe
bbed bcebb
debe bcec
bcdd dcc
ebe edebc
dbe bebbbc
bdc bdebb
edc bfdc
becc eeed
beed dbec
bdf eba
bdec bbebb
dbbcc ccc
bfbd fec
ebe edef
df bea
bef bcebe
bced dbec
febe eeebe
ebeebb bbee
ebd debec
bbd beff
bbbe eea
ff dcdc
bbbd bdebb
bbec bebec
bcbd eeebb
dbcc bbcc
bced ebbc
dd ecbcc
ebc bcbebe
ebd beccc
bfc eebf
dbb becbf
bbed ebdc
eeee ebbebb
eeee eebbbe
eddc bcc
dc bbebcc
ef bebfc
edc ecbbc
bbbc bbcbbc
bef ecbe
ded dbdc
bbec bcbbc
bbebb bbbbebb
fbd fef
efcc fec
fbcc bcc
bfbf bfbf
ef fded
bbbe bcbbd
dec fbbc
debe bbdc
eef ebbef
bd bbbb</w>
bbd bfef
bbd bddf
df bebcc
bbbe bddd
ebf bebbf
bbbbc ddc
bdcc bbf
bbc eebbbe
dbbc fcc
bf bedbf
fc bfef
df feec
ff bcdf
bbee bcebc
eebc decc
ba eeed
bfc fa
bef bbebd
ebec dbcc
ebcc bbdd
bbed ac
eebe edbf
fdc eccc
dbbd bcbd
debd debb
bdbbd bbbd
ed bedebc
ebc bdeec
fc bfec
ebd bebbbc
bbbe edbd
ebf ebbebb
bebe bebbd
bebd da
bebd eeec
eedc debb
ebc edfc
ebc bddbe
bbd edfc
ebf ecec
bbec beecc
eeebe eebeee
ecbf dec
ecebb bebc
dded dbe
ee bbbbbbbbbbbb
ebc efbf
bbc bda
bbbe bcdd
fed dedc
eedc fee
ebbbd bbebb
ebbec dbd
ecc eceec
ebd bcecc
bebe eebebe
fbe efcc
fcc ecbd
fdc ecbc
eebbc dec
bddc ddc
ebc eebbee
bccc eeee
bcef bbbb
dd ececc
bfc ecec
debe beec
bbfc fbd
decc dcc
ebfc bef
edcc efc
ddcc ddcc
bcdbbbb cc
bf beefc
dd bcdee
bbc fbebe
dbd bcbe
eebc da
eebf dcc
dccc dbe
a bbbdc
dd beff
fed ac
bbdd d</w>
febb fbe
dbdc eecc
ecbf fbd
bcebc bec
feec dbe
fcbf ccc
ebb fdfc
eec bedee
ebf bcdd
dbf cccc
bcbf bbd
ecdc bbf
befc bef
ebbebb bec
ecbbebc cc
ebe eebbebe
bcec debd
bbebc bbcc
bf bd</w>
ba bcee
bbee eebbbe
dec bebec
bcbc dbec
fed bbed
bcebb edc
fc eceec
bbbe ecec
ff ecec
ccc bcbd
bebe eebeee
debc fcc
ecbe ebbcc
bccc def
ecee bbeec
eebec df
bebbee beee
bd bbeba
dee ecec
dee bcebe
fbc beef
fee eebeee
fbd beebb
dfc dbec
bbdd eeee
eebf bebf
bcebb fec
dedc ecbc
bcef fbc
fbec bdc
dcee bbcc
bbf bddc
fbe debf
dbf ecbd
eebc fef
ecbe bbecc
bdbd bbebb
bebbebd cc
bbc bffc
dee dbbf
bbbec beebb
eeebb ebbc
bcfc bec
bbc bcdee
ebd bca
ff bdebb
ddc ac
bcebb ded
bcbbbb dbe
edbc ea
eec dded
eec deccc
ebf ecebb
bebe ecdc
bebe bbecc
fee dbcc
bbebc bbbf
eedd ebbc
bcbbbb bebbbb
edee ea
be dbd</w>
dc bbded
ebc dbecc
ebf bbecc
fbe bac
dcbc debe
a bebbd
ef bb</w>
ebd bbebf
df fbdc
fbe dedc
bebd bccc
eeec fbbc
decc fbc
bded beec
bdec deec
ebe bbbbbd
ebf bebbd
ccc ffc
fbe bdbc
eebd ecbd
febb bbbbc
bfcc dec
bca bdbf
bebbecc cc
a ecfc
bf fbbef
eec dbecc
dbc dbbbe
bfc beebe
fec bbef
bbed fbf
bcbe edbf
beebc edc
ebbbc eeee
a febd
ee ebc</w>
ebe bbebec
dd db</w>
ebc edec
ff fbbd
eebd fbf
decc fed
bc bbeac
dc febec
fbe edbf
debb bebbbb
febb ebec
bcbbc bbee
ef bbcbd
ebe aa
ecc bfbf
eec bdebc
bdc eeef
dbb ebea
fbd febe
beebb bbef
bedc ebdc
dbbd bddd
bcdc bebc
bebbbe beee
dcec eedc
bbc eceec
bdc bbeec
dbc eebbc
dcc eddd
ac bea
ecbc bdbd
bbbec bebd
fa bef
ebbcc dbd
ef ecff
ef eeba
bcc bbbbcc
eec bbebf
bdc bebec
bebe bcbec
becc dfc
bedc bbed
dd dbccc
bbc fdee
efc bbebe
ddc ecbd
eebc ecbe
ecbc bbfc
febb bbebe
ecf dbdc
bbdcc ccc
bfec fcc
ebbec bcbc
ebc bfebe
bbd bedbb
df debf
bdc bedf
bebe bcef
ded e</w>
ded c</w>
dbf beed
fed b</w>
febb bebf
eba ebf
fef bbcc
fbbc bbbf
fbec fbc
bdec debe
bbbb bbedc
bec bcbbbe
ba bac
dbf eccc
eeec debe
edbd beee
ebeebb beee
a beeec
ebb bbcccc
ebe bebbbf
ebc eedcc
dec beef
bbec bbbcc
ebcc ecdc
dbf bcf
bbdc def
bbbec ebec
eebf dbd
eeed bbee
eded ecc
ebbbd bebc
ebbebe beee
bec ebbed
eecc bcbd
cccc ff
ecbd ecbd
eeed debb
dbbf fbc
ebbbc becc
df dcef
bbbe ecbbc
dec ebfc
fec bbdd
eeee ebbef
bcdc ebf
ebbee edc
dc bbdbbc
efc bcf
fee bebbc
bbed bced
bebd eccc
debc beee
ebbbbbb bbee
ef bfbc
bcc bebbbe
bfc ecdc
fdd bbbd
ed bbbebbbb
bbbe ecbbbb
fee bbfc
fed ebec
bbbdc dee
ef fbbcc
ebc ffcc
bbc eeebd
bec bfdd
ebd eebbbe
bef bfbf
bcee decc
bcccc bcccc
bcc eebcc
bdc dddd
bdc bedbe
bcbc befc
bbed bedd
bbebe bcebb
beed beee
eedc ebdc
dbcc bbd
bfcc dbc
bddc dcc
bfbd dec
ef febbc
ebd bcbcc
bbf eced
beec beef
becc fecc
beed fdd
ffc fed
ed eebccc
ebb bbeba
ff debd
ccc fbf
ea bfa
fbd bbbbc
bdee bbebc
a bbebf
a ecbec
bf eedcc
bf eebbebb
ebe fdbb
dd dea
bbf bebbf
bebc eebbc
debc bbed
febb ded
bbfc edc
dbcc efc
ebbee bbebc
fccc fc
bec edbbc
bbdc dbbbb
eef bbecc
dbec ebdc
dbcc bbee
bced bbbd
edbd bbee
edbf edc
bf bbbebbbb
ecc bcdbe
ebd ecbcc
eec dcec
bdc eba
ba eeec
dcc beebb
bced bbcc
bec debcc
dbb ecbbee
dbf bdbd
fbd deec
bcdc fcc
bfbd bebe
bfbd dbd
bbbb decc
ebd febf
ebbc bcdd
ac fbf
becc bebf
eef bac
bcdc fbc
ecebb bbbd
ebb dbdcc
dc bebecc
eebe eddd
bedd ebf
eeef df
bd bccccc
bf beded
ebd eeccc
beed eedc
dbcc bebc
bdbe bbbcc
fecc dec
dcbc eebd
bbbbbbbe bbbbbbbb
ed fbbef
dd bfebb
bcc fbdc
bdc eeebc
ba eda
dee ffc
ebcc dbec
ac bcbd
deec ecbc
dbbd eebc
dbcc bbec
beebe df
eeed efc
ecee b</w>
ebbebb bebc
ebc fdbb
eec fbbf
bbd fdbd
bfc fbbbb
ded bdbbc
ebec dedc
bbdc fdc
ecee debc
bbccc fc
ebd bdee
bbd bedbd
bbbc bbbbbbbc
ccc eedc
dbd bdbf
fee b</w>
ddc edbbc
beec beebc
bedbe dbe
feba cc
bbc edbbc
bcc bcecc
bbbc dbbf
ddc dbbbb
debb bcbf
bbdc bdbd
febb eebc
bebf bbebe
febe ea
a bdbbc
ebec bbfc
ac eeec
def eecc
bfcc eecc
ebec bcee
ebec bdbd
dbbc bdbd
eeebe fef
dced dbc
bfbd bbbe
ba bcf
ccc bcee
bebe eebbc
def bced
bcdc ebe
ebeebe beee
edec bbee
dd ffcc
eec ecf
bbd edebc
ccc eebd
fee ffc
def fbe
deec bbcc
ecbd ebcc
befc bdc
ebbbc bbef
bcbbbc bcbbbc
bf bebbbbc
ebb bbbdcc
ff bcbec
dbb ecbbec
dbf ffc
bbbf ecbc
bbbbc debe
fdd ebcc
bebbbb fc
dbbbe df
bbd fdbb
bbee bebbee
bef edcc
ddc dbec
bccc bcec
da bbec
dccc bbc
bdf bbbcc
bbbbebb bbbd
bbbb eea
ebc bebbebb
bec bbbfc
bcc dddd
eec eebec
eec dea
ba bedc
ebec bced
ebdc ea
decc bedc
eeef fef
bcbbbb bbbf
bbbb ecdc
ebc ebdcc
bbbc eced
bfc beef
becc eebf
dfc ebcc
fbf bcbd
beebb fcc
bcec fbe
ebfc bcbc
ebbbc dbbc
ebe eebbebb
bbd beebf
bbbbc fcc
eccc bebd
eebe dbbf
bea fc
bdbdbdbd bdbdbdbd
bbf bbbdc
bebe ecbf
bfc dbdc
bfc eeebc
bbdd bcbd
dedc ebbc
dc fdebb
ebc fbbee
bec eddd
bec ecebe
dec bfcc
dbd bdbbbb
beed dced
bfec fed
bf eedbd
bebe eefc
bbbbc bcbe
ecbd eecc
bbc bdebc
bbc ecdbe
eec eedbc
ff bfbf
bbbd fef
ddc debd
beebe bbcc
eebbbe beee
dded dec
dbe edbf
ba ffc
bbbc bcfc
bbbd bcbf
eccc bcee
fdc bbcc
dd ebbbbbb
eec eedf
dee eeec
bbee ffc
bebd fbbc
eebe ebba
bccc cccccccc
eedc dbf
eddee ccc
dc bbbccc
dc fbccc
ebe dceec
bec bffc
eec debec
df bebbd
dee bceec
fbe ebbef
bbdc fbf
eebe bfebe
bccc bcbd
bdcc ebf
ed fbbbbc
ebb dcccc
bec bedee
dbd bbfc
bbbec bbed
bcdf ccc
bfbd bdc
dc beebec
fc bfebc
dee ecbf
debb dfc
bbbf bba
beec fbf
eef ebbebe
debc def
bcec fbf
bced bcbc
beebe dd
bcbbc bbec
eea ea
febd dbc
bec bfebb
ba dbbd
bbbc dbdc
dee eeccc
ebbc ebfc
dbd bcbf
bef ecec
fcc fedc
bced beee
bbebd bebd
bcebe bebc
bcdbbd cc
bbd ebbdd
beec ffc
eeee becc
dbec def
ecbd ecbc
bcbf efc
dedc dcc
ecdf dcc
edbbbb febec
ebe debec
ba bbbbbbbb
ded fdd
eef bbbdc
eebd dfc
febc bbec
ed dbbebc
bcbd fed
ebbbd bbec
a efa
bf ecced
ebe ecebd
debd eebc
bdee eccc
ebebd ccc
ebc fbef
fc dddc
ebd bdbe
bdc ebecc
bfc efcc
bbbd fdd
bbcc bbebc
debc bbdc
bedd fcc
eeef bbc
fbbd bbbe
ecdbe ccc
bbbb debf
bbf ebbbf
ea bdbd
fbc dbcc
dbf bbef
ebdc debe
fef bebc
bcef ecc
ecef dbc
bf dbbed
ff fbbf
bbbc bfbf
dbf bbebe
beebb fbe
eba fee
bbbcc ebf
edbc ecbe
bf febec
dc dbbdc
ef edbcc
bfc dbbd
bbed beebc
ecbc ebdc
bcf dbbbe
dbbbb bbbbbbc
eebbbb ccc
fc bebbbc
bbd beedc
dbe beebd
bbbd deec
bcbe dbbbc
bcec eccc
bbbcc ebbc
bcebb bebd
bdbc bbef
dbbee dee
bdebb bbf
bbbe fbbf
fbc bebbbb
eebe dbdc
bdc ecebe
edc d</w>
ff eea
bbbc edbd
bbbd ebdc
fcc dbbc
eebc eeec
eef dbbbe
eeebb ebd
eddc dbd
edc dced
ff eedd
bbebb ddc
eba bda
edbf df
eccedc dee
bcc bbcbbc
fec bfcc
ac ebcc
bbbec beee
beecc a
eec bebbee
ff bca
fee bcbbc
bbebb fef
fdc febb
bced beebb
fdbe ecc
ebbbc ebcc
bfed dbe
bbd fbef
fbc fbec
fbd dbec
def bbbf
fbf bbef
bbfc bebd
decc ebf
edbc bbdc
bf bbdbbc
ebd ebbbbbb
ba eebe
beef bbebe
bbeec beec
beebc dbc
eddc bdc
fc ecccc
bbd edbec
ff ecbe
bbcc bcbe
ebdc fbe
bbdd bbbbc
da bcbc
ecee debe
ebbbd dec
bbbb feec
ebe bbbebbbb
bbbe bbcbbbb
ded ffc
bbec bcdc
bebd ebbcc
bbbec ba
dbcc bef
dedc bebc
bded dcc
ecebb dee
dcec dbf
bbbbbd dbe
bd fbfcc
ef bcbef
ebdc dfc
bcbbbb dbd
ed bedbbbb
ebe bebbcc
bbd bbdcc
bbbc bcbbd
fbd fdd
dbbc ebcc
dbbc eeed
bced debc
eebbbb bcc
dd eeebd
bbc ecbcc
bcbc fbbc
ddc bdcc
dedc ecdc
a bcbbd
dc eeba
bbbb eebbd
eec bcdbe
ecbc bbef
ebdc bcbd
beebe eebf
bcdd edc
bdef dbe
ebb bedef
dd ecdbe
bbbe bceec
bfc feec
fee bbdd
bbbbc ebcc
eccc debb
ecf bbeec
beebe ebd
bebbc debb
bebbd fc
bfbc dfc
bd bbebfc
ef beea
bef bbebf
becc bbebe
bccc bebd
fbf ebcc
febb eeebb
ecec fdc
ebbebb bbbd
ebbec bbbd
a debf
bec dfcc
bec eeccc
efc beef
fbc eced
ebec dbbbb
eeee eeebf
dbec bbed
bcebc dee
dcbd bbf
dcdd dcc
abd ba
a ecdf
ef bbfcc
dd beedc
eec bcebd
eeee bebbf
dbbc bedc
ebb dbbfc
bcc fdee
bbbf bbdd
eeee eebef
eebe ebbcc
eeec deec
dedc ebcc
edbd ebbc
febc ded
eca ccc
dbe eea
ff eced
def eebc
bebf ded
debd fec
ecbbc df
ef ecdbc
bbc edebb
eec eebdc
bdc bcfc
bbee fdd
bfc febe
dcc bbebe
fbc edcc
eebd ac
bcebe fc
ef bedcc
ebe ddbd
ebe dca
bcbc eebf
fcc fbbc
bcf e</w>
dedc debb
fbbbb fc
ed becccc
eec fdbc
dbf bdcc
eccc ac
febb eeebe
bebbc edc
fcbd ccc
bcc fdbc
dbd eef
bef bcdd
bedc bedd
debd efc
ffc ebf
beef bbbf
edbd fee
edbd debb
fdebf cc
ebe eebbbc
ef beebbc
ecc bdee
bbbc beeec
dbb ecebf
debc bcbd
bccc ecbc
dbec ea
ecdc ebf
bddd bddd
dcbc eecc
bf bbdbbbb
ebe bedbd
ebe eeea
bebe bbebf
fbd fbbc
bbebe bbebc
bcee bbebd
bebbbb bbed
beebc bbee
a bceec
edc bdebb
edc ecfc
ff bbebd
ebbc bdebb
beef bbebb
dbdc ddc
ecef bdc
bfec debb
bf eebebc
bcc bebbbc
bbd ecbcc
bbbe beeec
dbc ecebb
eeee bbebf
bbef debb
bebec fc
ebe bcbebc
bbd bbcbd
ebf eebbbb
ea eebd
fcc bcbf
bbd fdec
bbbc bdbbc
bebc b</w>
ded dcdc
bbec bebcc
fcc da
bbdd becc
ecec decc
bcdc efc
dd debcc
bec bedbb
bcc bdec
beee bebbf
ac ecbc
bcbe bbebf
febb fef
bedc dbf
bbbcc bccc
eebf dee
bebbbb df
bfcc bdc
bddc dec
ebbbc eebd
ebd bdbec
bbbe fbbd
bbee bebbf
ebbc ebbebb
efc bcbbc
bbec bded
eebe deec
beebb dbf
dd bcbbf
ebc bebbbd
ba deec
ebbc dbbf
bbebe bbdc
ebfc dbd
bcebe dbe
ebbee ebec
bfbc def
ebe fbfc
dbc eeef
eeee ebeef
ecbe eba
bcf ebecc
fbf cccc
bedd bebd
fbbbb bec
a fbdc
ebe dddc
bbd fbfc
bbbd bdcc
fbc bdcc
fee fbbc
ebcc bdbd
eec bcbbbe
fbc dbbbb
bbdc eeec
eebe c</w>
debd bbee
eebf fdc
bbecc dec
ed cccccc
dd dbecc
edc bebbd
ccc bbbbc
dbb ebcbf
efc feec
febd dbe
bfed ff
bbbb edcc
ebc bbcbbbb
ebf bdebb
beee bcee
eebc febe
da bbcc
fdd bbbe
bbeec debb
bea bca
bcdd ded
bddc fc
ebbbf a
ebbbbc bbbe
dcec eecc
be bbbd</w>
dc bbdbf
bbbb edebb
edc bebbbb
ccc dfc
ea dfc
eebd bccc
bcebc dec
ebeebe bebe
ef edebe
ccc bbebb
bbebe bbbbbbbb
bbbdc dbe
ecef fc
bc ebc</w>
bbd eac
bebf ebcc
bebf bccc
bedc beed
ecec bbbf
ecec dbec
bfcc fed
dcec bebe
a dbbbc
a bcdf
bdc bcbbbb
dbb fced
eccc eedc
dbcc ebbc
bedd efc
dbbf dee
bbbbbd bbebb
bcdebd cc
df ecfc
ebf eebbee
dbb ebcbd
ddc febb
bba b</w>
debf fc
bebbbe dbe
bcebc eec
dc dbbed
ebc eddbe
ebd eebdc
ebf febf
becc fbf
debc beed
bbef eebc
fdc eeec
bebf debb
eba bef
bbbcc ecc
fbec dec
bdebb bebe
febd bfc
ebe bbefc
ebf eefc
bbec bbecc
bbbbc eebd
bbdc bccc
eba bdc
bedd ebcc
ecbf bbbc
ebccc dee
dbbbd dbe
ef fdbf
ebe fbbbd
bbc dcbd
bbd ecdf
dbcc fee
bddc ecc
bdec fed
ebbbf ccc
bbf eedd
bbbd eeed
bbedc bec
edbf fcc
ebbbc dbbbb
a dedc
ed dbbebd
ebe fcdc
dd fbbbc
bbbe ecdc
ba d</w>
ea eccc
ded bbfc
beec bdbd
bbdc beebb
dbbc beed
eef dcdc
febc bfc
bbccc bbcc
[...]
