{"<unk>":0,"<pad>":1,"a":2,"b":3,"c":4,"d":5,"e":6,"f":7,"c</w>":8,"f</w>":9,"b</w>":10,"e</w>":11,"d</w>":12,"a</w>":13,"bb":14,"be":15,"bc":16,"ee":17,"cc":18,"bd":19,"ec":20,"bf":21,"ed":22,"ebb":23,"dc":24,"bbbb":25,"ef":26,"ebe":27,"dd":28,"ebc":29,"bbc":30,"fc":31,"bec":32,"ecc":33,"ebd":34,"bcc":35,"eec":36,"bbd":37,"df":38,"bbbe":39,"bbf":40,"dbe":41,"ebf":42,"bdc":43,"edc":44,"ba":45,"ff":46,"bbbc":47,"dee":48,"ccc":49,"dbc":50,"bbee":51,"bebe":52,"bfc":53,"dbb":54,"ebbc":55,"dec":56,"dbd":57,"bef":58,"dcc":59,"ea":60,"bbbd":61,"bebc":62,"efc":63,"ded":64,"bbec":65,"fbc":66,"beee":67,"bbcc":68,"fee":69,"bbebb":70,"ebec":71,"bcbc":72,"ebcc":73,"fbe":74,"ddc":75,"dbf":76,"fec":77,"debb":78,"bbbf":79,"bbed":80,"fcc":81,"beec":82,"eeee":83,"ac":84,"bbbbc":85,"eebc":86,"bebd":87,"becc":88,"fbd":89,"def":90,"eccc":91,"ecbc":92,"ebdc":93,"fed":94,"eecc":95,"bbebe":96,"bbdc":97,"dbbc":98,"eebe":99,"debe":100,"eef":101,"ecbe":102,"debc":103,"bbef":104,"bcbe":105,"bcf":106,"eebd":107,"dfc":108,"bbdd":109,"bccc":110,"da":111,"dbbbb":112,"dbec":113,"bcbd":114,"fbf":115,"bcee":116,"beebb":117,"fdc":118,"bbbbbbbb":119,"bcec":120,"bbebc":121,"deec":122,"beed":123,"bba":124,"febb":125,"eeec":126,"bebf":127,"eba":128,"bbfc":129,"bdbd":130,"bedc":131,"cccc":132,"bbbec":133,"dbbd":134,"decc":135,"eedc":136,"ecbd":137,"ebfc":138,"debd":139,"dbcc":140,"ecf":141,"bced":142,"eeebb":143,"fef":144,"bbbcc":145,"fdd":146,"eebf":147,"ecec":148,"beebe":149,"bcbf":150,"bedd":151,"bcebb":152,"eeed":153,"bebbc":154,"ffc":155,"bebbbb":156,"dedc":157,"bbebd":158,"edcc":159,"febe":160,"beef":161,"fbbc":162,"edbd":163,"bcdc":164,"bbeec":165,"eedd":166,"ecdc":167,"dbdc":168,"dbbf":169,"dccc":170,"eeebe":171,"dbbbe":172,"bbecc":173,"fa":174,"bdcc":175,"ecbf":176,"ecee":177,"bdbc":178,"febc":179,"bac":180,"bcbbc":181,"eced":182,"bdbe":183,"bdf":184,"bfcc":185,"bea":186,"bded":187,"ecebb":188,"befc":189,"eeef":190,"bcbbbb":191,"bdbf":192,"beebc":193,"bcef":194,"bcdd":195,"dbbbc":196,"debf":197,"ecdd":198,"eebbc":199,"eac":200,"bb</w>":201,"ebbcc":202,"fbbbb":203,"bbbdc":204,"bbebf":205,"bdee":206,"ebbebb":207,"bbccc":208,"bebec":209,"bddd":210,"eddc":211,"fbec":212,"bcebe":213,"bddc":214,"efcc":215,"fecc":216,"bdec":217,"bebbbe":218,"fbcc":219,"bdebb":220,"dbbee":221,"bcfc":222,"bcebc":223,"eddd":224,"dbfc":225,"fdf":226,"bebbd":227,"dcdc":228,"eebbbb":229,"ecbbc":230,"bebcc":231,"bbedc":232,"edbf":233,"eea":234,"fbbd":235,"febd":236,"ebecc":237,"debbc":238,"edbc":239,"ebccc":240,"feec":241,"dddd":242,"bfbf":243,"bedf":244,"bca":245,"eefc":246,"defc":247,"bedbe":248,"beecc":249,"bcbec":250,"bbebbc":251,"dba":252,"eded":253,"fbbf":254,"bbba":255,"ecef":256,"fdbe":257,"ebbbbbb":258,"bebbf":259,"ebbee":260,"bbbfc":261,"ecbec":262,"bdbbc":263,"ebbbc":264,"beebd":265,"bdef":266,"bdbbbb":267,"eeebc":268,"ebbbf":269,"ecebc":270,"fccc":271,"beeec":272,"ecfc":273,"bcbbd":274,"dced":275,"fbbbe":276,"ecebe":277,"ecdf":278,"ddcc":279,"eebec":280,"fedc":281,"bcbcc":282,"ebbbd":283,"eebcc":284,"bcdf":285,"bebbee":286,"bfdc":287,"bceec":288,"dea":289,"deecc":290,"dbbcc":291,"bebbbc":292,"eedbe":293,"bfed":294,"fbdc":295,"ecbbbb":296,"ebbed":297,"dcbd":298,"eca":299,"bfbd":300,"ebbbbc":301,"eedf":302,"ecccc":303,"fdbc":304,"bfbc":305,"be</w>":306,"ebbebe":307,"debcc":308,"bd</w>":309,"beff":310,"eebbd":311,"eebbbe":312,"ecbcc":313,"febf":314,"debec":315,"bda":316,"bebdc":317,"bc</w>":318,"bdebe":319,"dcdd":320,"bedbc":321,"edbbc":322,"dcbc":323,"eebbf":324,"beccc":325,"eeecc":326,"efbf":327,"dcec":328,"acc":329,"beebf":330,"bcebd":331,"bcecc":332,"dfcc":333,"dbecc":334,"bdfc":335,"ecbbd":336,"efdc":337,"fbbbc":338,"bfebb":339,"eebbee":340,"bbbbbbc":341,"bdebc":342,"bcbbbe":343,"dded":344,"fbebe":345,"eceec":346,"bbea":347,"bedee":348,"fdee":349,"beedc":350,"bbefc":351,"eeccc":352,"dcbf":353,"bbbbcc":354,"eb</w>":355,"bbebec":356,"bcbbf":357,"ebbef":358,"bdbbd":359,"fbef":360,"bbcbbc":361,"bcdbe":362,"bfef":363,"ebdcc":364,"ececc":365,"fbbee":366,"ecdbe":367,"bdbec":368,"edebb":369,"ebeebe":370,"eeeec":371,"bfbbc":372,"bddf":373,"ecdee":374,"edef":375,"bedbb":376,"dac":377,"fdcc":378,"bffc":379,"bcccc":380,"eeebd":381,"bcbbbc":382,"ebbdc":383,"ffcc":384,"fdbd":385,"eddf":386,"eebebe":387,"dddc":388,"bbdcc":389,"bbbbebb":390,"fbfc":391,"ddbd":392,"bfec":393,"eebdc":394,"ebeebb":395,"fdbb":396,"eeff":397,"bfdd":398,"eedbc":399,"edec":400,"dcef":401,"deccc":402,"fdec":403,"bfebe":404,"bedbd":405,"bcdee":406,"edbec":407,"edebc":408,"bbebcc":409,"eebeee":410,"bfa":411,"bcff":412,"ebbec":413,"eedee":414,"debdc":415,"dbbbbc":416,"bedcc":417,"edebe":418,"efef":419,"dbbbd":420,"bbcbbbb":421,"bcdbc":422,"eda":423,"ecebd":424,"fcdc":425,"bebbbd":426,"bebbebb":427,"eebbbc":428,"fba":429,"bfbbbb":430,"bdeec":431,"ebbebc":432,"eeebf":433,"bedec":434,"bebbec":435,"edfc":436,"bbfcc":437,"beba":438,"ebbdd":439,"fbebc":440,"bbcbd":441,"febbc":442,"eebef":443,"dcebe":444,"efdd":445,"ebba":446,"bebfc":447,"dcfc":448,"bcbdc":449,"fbeee":450,"dcebc":451,"bbac":452,"ebbbec":453,"efbd":454,"eddee":455,"ee</w>":456,"beebbc":457,"bbbbbd":458,"bcbebe":459,"dcbbc":460,"ebebf":461,"aa":462,"ecdbc":463,"bcedc":464,"ebbfc":465,"eddbe":466,"eedcc":467,"bbbecc":468,"ecdec":469,"bebbcc":470,"bdbcc":471,"bbcbf":472,"ebfcc":473,"bddbe":474,"ec</w>":475,"dcebb":476,"fbbbd":477,"dbbdd":478,"dedcc":479,"ecbbf":480,"fefc":481,"edee":482,"edbcc":483,"efebe":484,"bfebc":485,"ecbbbe":486,"ed</w>":487,"ebbbbbe":488,"fbbcc":489,"edbbbb":490,"ecbdc":491,"ebebbc":492,"fbbec":493,"dcbec":494,"db</w>":495,"bbdbd":496,"dbccc":497,"bcbbee":498,"fea":499,"eeedc":500,"fddc":501,"ebac":502,"eefee":503,"fdbf":504,"dceec":505,"ecff":506,"dcccc":507,"bdebd":508,"ebbbbd":509,"befcc":510,"edeec":511,"bdecc":512,"ebebbbb":513,"efbbc":514,"bfbec":515,"bcdec":516,"effc":517,"dca":518,"eedbd":519,"bbbccc":520,"fded":521,"edbbd":522,"dcecc":523,"efebb":524,"bbcebb":525,"bcdbd":526,"ebebd":527,"bbbebbbb":528,"fcbf":529,"bcbebc":530,"bcebf":531,"efa":532,"dbbebb":533,"bbdbbbb":534,"bcbef":535,"efed":536,"dcdf":537,"dcee":538,"dbbbf":539,"fbecc":540,"dbbed":541,"bebecc":542,"bedbf":543,"ddbf":544,"eeba":545,"bcfbc":546,"ebeef":547,"fbbbf":548,"beea":549,"bdbbbe":550,"bebbbf":551,"ecbbbc":552,"ecded":553,"bcbbbd":554,"beded":555,"fcdd":556,"ebedc":557,"beddc":558,"ecedc":559,"bbb</w>":560,"bddee":561,"bcbfc":562,"bebbed":563,"bbced":564,"fbbebb":565,"ebcbf":566,"ebced":567,"bbbbbf":568,"eedec":569,"fcfc":570,"bdbbf":571,"ebcbbc":572,"ebedd":573,"bbebdc":574,"bbdbbc":575,"eebebc":576,"ecdbd":577,"bbdbf":578,"bf</w>":579,"ebcebb":580,"ebeed":581,"becbbc":582,"dd</w>":583,"dcbcc":584,"bbbbbbbe":585,"fbccc":586,"eebbec":587,"ebbbcc":588,"bbeecc":589,"eefbe":590,"bedebb":591,"bcbbec":592,"ecdcc":593,"febcc":594,"bcded":595,"ecced":596,"ebbeec":597,"becbf":598,"bdff":599,"dbbdc":600,"bcdcc":601,"fac":602,"bcebbc":603,"eebbebb":604,"feecc":605,"bfbcc":606,"add":607,"fcbbc":608,"ecbebe":609,"bdbdc":610,"beefc":611,"bddbc":612,"dbbebe":613,"ecbebc":614,"ebcdd":615,"eeebbc":616,"bfdf":617,"bbbbbbd":618,"bcbbcc":619,"ecbef":620,"eebbbd":621,"dcebd":622,"edecc":623,"ebbbbf":624,"bbeccc":625,"fcdf":626,"ddef":627,"ddbbc":628,"ebea":629,"ebcbec":630,"bddbd":631,"bcba":632,"bbbbbbbc":633,"fdebb":634,"febec":635,"bebbbbc":636,"ebcdc":637,"bbbbebe":638,"eebfc":639,"eefbc":640,"bebbebe":641,"ebcbd":642,"ebbdf":643,"fcef":644,"edebd":645,"beebec":646,"fbbed":647,"fcbd":648,"eeddc":649,"bebccc":650,"bbcbec":651,"eebcbc":652,"ebcef":653,"dbdcc":654,"ebbebd":655,"abf":656,"bcfee":657,"eddbc":658,"ecbfc":659,"bbcdd":660,"becbec":661,"edccc":662,"fdef":663,"bbcef":664,"ebbdbe":665,"ecbbec":666,"bcbeee":667,"bbcebe":668,"dbbef":669,"dfdc":670,"ecebf":671,"ebcebc":672,"bbded":673,"ebbbbbc":674,"bdedc":675,"ecbbee":676,"debfc":677,"eebbcc":678,"bfbbf":679,"eeea":680,"fced":681,"dda":682,"de</w>":683,"bbcdc":684,"bcfec":685,"beebcc":686,"cccccccc":687,"beac":688,"bbbbbbbbbbbb":689,"bfecc":690,"dcdbe":691,"bdbbbc":692,"ddebe":693,"eedbf":694,"dbbfc":695,"bbdebb":696,"bcced":697,"dcbbbb":698,"bcbbebb":699,"bcfbe":700,"dc</w>":701,"aed":702,"eecbf":703,"ecfbc":704,"ecbeec":705,"ddebc":706,"ebebec":707,"ddfc":708,"abd":709,"bbcfc":710,"bcfcc":711,"dddf":712,"ecbcbc":713,"ebbecc":714,"dcbbd":715,"ecebbc":716,"feccc":717,"efbcc":718,"bbcbcc":719,"eddec":720,"ebbbebe":721,"bcefc":722,"bdccc":723,"dbbbec":724,"ebefc":725,"bcbeec":726,"ddeec":727,"ddbec":728,"ebebbbe":729,"bbcebc":730,"efdf":731,"defcc":732,"dbba":733,"bfff":734,"bdbebe":735,"ebb</w>":736,"ddebb":737,"bbcccc":738,"bedbbc":739,"efbec":740,"eeded":741,"bfbbd":742,"bfdbe":743,"bfebd":744,"dbbebc":745,"eecdc":746,"bceebc":747,"ecba":748,"bfbbbe":749,"fdbbc":750,"ebebcc":751,"eecbec":752,"efebc":753,"ecbbbd":754,"fcccc":755,"edbdc":756,"fbbef":757,"bbbcbbbb":758,"adc":759,"fcbec":760,"eebeec":761,"bebbef":762,"edbbf":763,"ebeebc":764,"eecdf":765,"beeecc":766,"bcdebb":767,"efbbbb":768,"dcdee":769,"fbbdc":770,"ddecc":771,"bcbccc":772,"bebbdc":773,"bcdbf":774,"abbc":775,"bcbbed":776,"fbbbbc":777,"edff":778,"bcbebd":779,"fda":780,"ebcbbbb":781,"bacc":782,"deba":783,"eebbed":784,"eeeecc":785,"edbbbe":786,"ecfec":787,"bbcbbd":788,"bedef":789,"bddec":790,"bbebfc":791,"bcfbd":792,"ddbbbb":793,"bbeba":794,"eacc":795,"bcbbbbc":796,"ebcfc":797,"aef":798,"bcbbbf":799,"fdfc":800,"afc":801,"ebbff":802,"bdbbbd":803,"dcedc":804,"bfeec":805,"bccbbc":806,"dbfcc":807,"ebbbbee":808,"ebceec":809,"bcddc":810,"dffc":811,"bbbbbbbbbbbbbbbb":812,"bbddc":813,"eebbbf":814,"bedebe":815,"fbbebe":816,"becdc":817,"bdbbee":818,"ebddd":819,"abbbb":820,"fedcc":821,"ecceec":822,"dbbbcc":823,"becebb":824,"ecfee":825,"bcebec":826,"eebbebe":827,"ebebebe":828,"bccccc":829,"ebcdf":830,"bcbecc":831,"bdebf":832,"ecbecc":833,"eebccc":834,"dbbebd":835,"eefcc":836,"dbedc":837,"dfed":838,"bbfbf":839,"ecdebb":840,"ecddc":841,"cccccc":842,"ebded":843,"bbbeebb":844,"deedc":845,"bbdebe":846,"eecdd":847,"bccbf":848,"aebe":849,"fdebe":850,"bbdef":851,"ebcebe":852,"eebebd":853,"aebb":854,"bbbbbec":855,"bccbcc":856,"bbbebbc":857,"eebecc":858,"efdbe":859,"bebbebc":860,"dfdd":861,"eecbbc":862,"febdc":863,"eddbd":864,"eedebb":865,"efff":866,"ecbbcc":867,"efecc":868,"bedbbbb":869,"bdbef":870,"bbdbbd":871,"ecefc":872,"ededc":873,"dcff":874,"fcebe":875,"efbbf":876,"dfbf":877,"ecbeee":878,"ecfcc":879,"ecbccc":880,"bcdbb":881,"eedbb":882,"fcbcc":883,"eefec":884,"ebdbf":885,"bdbebc":886,"dddbe":887,"fdebc":888,"bcea":889,"bbdbec":890,"bedebc":891,"ef</w>":892,"eccecc":893,"ecbebd":894,"eefbd":895,"ddbcc":896,"dcdbc":897,"edded":898,"bdfbc":899,"bbbdcc":900,"bceebe":901,"ebebbf":902,"ecdbf":903,"fcebb":904,"dcbdc":905,"bbbbbbf":906,"ebcbcc":907,"bbcbbbe":908,"eccbec":909,"ecfbe":910,"bdded":911,"bcebcc":912,"fca":913,"bbceec":914,"ddebd":915,"eeefc":916,"bdbfc":917,"ebbebf":918,"ecbbed":919,"bddcc":920,"bcfed":921,"bbbbed":922,"bebbdd":923,"bedbec":924,"ecbbebb":925,"ebbdbc":926,"bbbebf":927,"fbdcc":928,"bcecbc":929,"fcebc":930,"bbbbbcc":931,"dcdec":932,"bceecc":933,"fcdbe":934,"bbbbdd":935,"bcdef":936,"bceeee":937,"eebbef":938,"eeebcc":939,"bbca":940,"beced":941,"ebbbdc":942,"bbcbbf":943,"debbcc":944,"ecdef":945,"bebbbec":946,"eeebec":947,"ebbccc":948,"bcecbe":949,"bebba":950,"efccc":951,"eeac":952,"becdd":953,"becebe":954,"becebc":955,"eceebc":956,"fbbdd":957,"beeccc":958,"bcdebe":959,"dbebf":960,"eccef":961,"bbbbbbbd":962,"bceebd":963,"bbbeebe":964,"ebddc":965,"dbedd":966,"bceef":967,"eeecbc":968,"bbd</w>":969,"bbcdf":970,"bfccc":971,"dbac":972,"eddcc":973,"ecebcc":974,"ffdc":975,"bcac":976,"bbcbbbc":977,"ecebec":978,"bdba":979,"becbbbb":980,"bbdebc":981,"becef":982,"bfebf":983,"bfbdc":984,"bfbbbc":985,"bbda":986,"dbbeec":987,"bbdfc":988,"becccc":989,"bbbebbbe":990,"eccebc":991,"fbbfc":992,"deedd":993,"eccdc":994,"ebebbee":995,"beda":996,"becdf":997,"becbd":998,"bccef":999,"edbebe":1000,"fdbec":1001,"bedfc":1002,"ebedf":1003,"deac":1004,"eedbbc":1005,"eecccc":1006,"edbbbc":1007,"bbbbebc":1008,"ebbbbbd":1009,"bbcdbe":1010,"bcbbdc":1011,"bbcebd":1012,"bfbebe":1013,"ebbedc":1014,"ebbdee":1015,"bfedc":1016,"becfc":1017,"eebbbbc":1018,"ebbbef":1019,"beebdc":1020,"bebbfc":1021,"bbbbef":1022,"edbef":1023,"bccebe":1024,"ebdef":1025,"dcdcc":1026,"bebdcc":1027,"dcbbf":1028,"bfdbc":1029,"bbc</w>":1030,"bccbd":1031,"eedef":1032,"dddbd":1033,"ecfbd":1034,"bccfc":1035,"bbbba":1036,"dfa":1037,"fdbbbb":1038,"eecef":1039,"ebca":1040,"eccfc":1041,"ddbbd":1042,"bbebbcc":1043,"ecfed":1044,"bdebbc":1045,"bcdbbc":1046,"dfef":1047,"fbbebc":1048,"bdbbec":1049,"fbba":1050,"bbbfcc":1051,"eceecc":1052,"debecc":1053,"ebcecc":1054,"dddbc":1055,"ebbbebc":1056,"bccdc":1057,"dbeed":1058,"bccbec":1059,"ebcebd":1060,"bbe</w>":1061,"ddedc":1062,"bbebbbbbb":1063,"ececbc":1064,"bcceec":1065,"ebebbd":1066,"bcbbebe":1067,"eccbf":1068,"edbbec":1069,"ebddf":1070,"eebbdc":1071,"bccebb":1072,"ffbf":1073,"bdfee":1074,"bccdd":1075,"ebeecc":1076,"ecea":1077,"bbbcbbc":1078,"dcdbd":1079,"bccebc":1080,"eeceec":1081,"ebbbeee":1082,"ebdbec":1083,"bbfef":1084,"bbfbbbb":1085,"ddbdc":1086,"ecdebc":1087,"ecdeec":1088,"ebdbd":1089,"bfdee":1090,"ebebeee":1091,"ebdbbc":1092,"edbbee":1093,"bbbac":1094,"bfbbee":1095,"fceec":1096,"edbebc":1097,"dfbd":1098,"ebedbe":1099,"bedbbd":1100,"bbfbbc":1101,"bbdeec":1102,"eeecbe":1103,"beceec":1104,"eedbec":1105,"bbbb</w>":1106,"ebeff":1107,"fcdee":1108,"fbbbec":1109,"ebe</w>":1110,"bbedcc":1111,"bbbbdc":1112,"edebf":1113,"eccbbc":1114,"ebbbbebb":1115,"bdddc":1116,"ffdd":1117,"bedeec":1118,"dfbbc":1119,"bcdebc":1120,"eccdd":1121,"ecbbbf":1122,"ebbebbc":1123,"ebeeec":1124,"bdbeee":1125,"eebba":1126,"beca":1127,"efbbbe":1128,"bcbbdd":1129,"fdbcc":1130,"bbbbfc":1131,"bcbbef":1132,"ecdbb":1133,"eccccc":1134,"fdbbd":1135,"ebdeec":1136,"bfbef":1137,"efeec":1138,"ebdebc":1139,"bcdfc":1140,"ebdebb":1141,"fbfcc":1142,"eccebb":1143,"efbdc":1144,"bbdbbbe":1145,"dbebd":1146,"bccbbbb":1147,"bebebbbb":1148,"ebebbbc":1149,"dddee":1150,"edced":1151,"ebeebf":1152,"ecdbec":1153,"ffef":1154,"ebd</w>":1155,"dbebbc":1156,"fffc":1157,"dcbbbe":1158,"bbfebb":1159,"dcded":1160,"eccbd":1161,"dbddd":1162,"bbbdbbbb":1163,"eeeccc":1164,"ebeccc":1165,"aebc":1166,"bcdbbbb":1167,"ecdfc":1168,"bebbbbbbbb":1169,"dfebc":1170,"bcbcbcbc":1171,"becbcc":1172,"edbfc":1173,"eccedc":1174,"fdeec":1175,"ebc</w>":1176,"dbb</w>":1177,"ddccc":1178,"ebebdc":1179,"eeda":1180,"debccc":1181,"dbbbdc":1182,"bdfbe":1183,"ebbdec":1184,"becdbe":1185,"efebf":1186,"ebdbbbb":1187,"bedbcc":1188,"ecca":1189,"bbffc":1190,"edddc":1191,"efbbd":1192,"efbbee":1193,"ebeeeee":1194,"efbebe":1195,"ecdebe":1196,"ebdfc":1197,"ebcbbd":1198,"ebda":1199,"bfbfc":1200,"bebbbcc":1201,"bbfdc":1202,"ecdbbc":1203,"bffbc":1204,"ebcdbe":1205,"ecbbdc":1206,"bceccc":1207,"ebbfee":1208,"ebbdbd":1209,"eeca":1210,"edbeec":1211,"efdbc":1212,"bdfec":1213,"bdbcbc":1214,"edfbc":1215,"bddebb":1216,"dcebf":1217,"ebcccc":1218,"ebebef":1219,"ebbbbec":1220,"fdecc":1221,"bdefc":1222,"bebbeec":1223,"fcbbbb":1224,"adf":1225,"bdbbcc":1226,"bdbeec":1227,"eebbebc":1228,"ebeebd":1229,"efdee":1230,"ebcbbbe":1231,"bbcdee":1232,"ebbba":1233,"ecbbbbc":1234,"edceec":1235,"efebd":1236,"eebdcc":1237,"edba":1238,"fcff":1239,"bbfa":1240,"fdebd":1241,"eccebe":1242,"bcebdc":1243,"ddff":1244,"bbcbdc":1245,"fbebf":1246,"bbcdbc":1247,"bbbbdbe":1248,"eedebc":1249,"ecac":1250,"ebbeeee":1251,"eedebe":1252,"ebbfbc":1253,"bbdbcc":1254,"eceeec":1255,"bddbf":1256,"ececcc":1257,"bcdbec":1258,"ebbbfc":1259,"eccdf":1260,"bebbebd":1261,"efbef":1262,"eefed":1263,"bedebd":1264,"bcca":1265,"becdee":1266,"bbbcbbbc":1267,"decdc":1268,"beeba":1269,"eeced":1270,"eebbdd":1271,"fbbbcc":1272,"dbefc":1273,"bbeebbbb":1274,"eceeee":1275,"eecebc":1276,"feba":1277,"dbbecc":1278,"baa":1279,"bdbebd":1280,"effee":1281,"bbcbebe":1282,"bcbbebc":1283,"ecda":1284,"eceef":1285,"bdfcc":1286,"eddef":1287,"edcdc":1288,"bbbbcbbbb":1289,"ecdecc":1290,"dbbccc":1291,"ffa":1292,"dddec":1293,"bcbbfc":1294,"eceebd":1295,"df</w>":1296,"beb</w>":1297,"edbbbd":1298,"becbbd":1299,"eddbf":1300,"bbbcbf":1301,"ebfbf":1302,"bbcecc":1303,"bbebecc":1304,"eedbbbb":1305,"ececbe":1306,"febfc":1307,"befbf":1308,"bcda":1309,"ebedbc":1310,"bdbbebb":1311,"ebcbbf":1312,"edcef":1313,"fcecc":1314,"bcdeec":1315,"dddcc":1316,"ecfdc":1317,"edebbc":1318,"eceedc":1319,"dfdf":1320,"fb</w>":1321,"bbdbbf":1322,"edfee":1323,"bdcdc":1324,"bbcff":1325,"bbbbbebe":1326,"bbbebec":1327,"bdfbd":1328,"bdeebc":1329,"ebcdee":1330,"fdbbf":1331,"eecfc":1332,"eeebdc":1333,"bbbbbbebb":1334,"bbdebd":1335,"bedecc":1336,"eecbcc":1337,"eccbcc":1338,"eedfc":1339,"fcbbf":1340,"eecebb":1341,"beedcc":1342,"febbcc":1343,"bbeebf":1344,"ebdebe":1345,"dfbec":1346,"eddebb":1347,"bbbedc":1348,"eceebe":1349,"deebf":1350,"fcdbc":1351,"abec":1352,"ffff":1353,"dfebe":1354,"bdcdd":1355,"edcdd":1356,"bebebbc":1357,"edbeee":1358,"ecebdc":1359,"bebebf":1360,"dfecc":1361,"bbbcebb":1362,"dbebbbb":1363,"bbeeebe":1364,"dbcdc":1365,"bebfcc":1366,"bdcbf":1367,"fdccc":1368,"bdbbed":1369,"bdced":1370,"eebeebe":1371,"dfbcc":1372,"eebbfc":1373,"bbfdd":1374,"bbeeebb":1375,"bbbedd":1376,"eecbbbb":1377,"dfebb":1378,"abcc":1379,"dbebec":1380,"ebcdec":1381,"edcbec":1382,"ecbbdd":1383,"dcfbc":1384,"eecdec":1385,"dacc":1386,"bbdbbbc":1387,"ebcff":1388,"ebcdbc":1389,"bbfebe":1390,"eedeec":1391,"bfdbd":1392,"bcbbbec":1393,"bfdec":1394,"dbeebb":1395,"bcbbbbbbbb":1396,"eeeeeeee":1397,"bdcef":1398,"ddddc":1399,"dcbbbc":1400,"bbbebebe":1401,"fcbbd":1402,"becebd":1403,"eecdbe":1404,"bedbbbe":1405,"bdea":1406,"edefc":1407,"bedbbf":1408,"eccebd":1409,"ebcedc":1410,"bbbeef":1411,"bddbb":1412,"bffee":1413,"bcbdcc":1414,"eecdee":1415,"dcddc":1416,"fbbeec":1417,"fcebd":1418,"bdcebe":1419,"fbeef":1420,"dcbfc":1421,"edfec":1422,"dbeebe":1423,"bebbecc":1424,"bbcdbf":1425,"bdebec":1426,"bcbbbcc":1427,"dbea":1428,"bbefcc":1429,"dbeef":1430,"dcbebe":1431,"bbfbbf":1432,"bcdbbd":1433,"bdbecc":1434,"ebbbbcc":1435,"bbbbbbee":1436,"bfbebc":1437,"bcbba":1438,"eecebe":1439,"bbeac":1440,"fefcc":1441,"dcfec":1442,"ecfbf":1443,"dcbef":1444,"bbcbbee":1445,"ebfef":1446,"bbdbbbd":1447,"edcdf":1448,"eeeba":1449,"eedbcc":1450,"eebbbec":1451,"dbcdd":1452,"bbfed":1453,"bebeebe":1454,"bccebd":1455,"bbbebbbc":1456,"bbbeed":1457,"beebfc":1458,"fcbdc":1459,"bbbbbbbbc":1460,"bfdcc":1461,"ecbbebc":1462,"efbbbc":1463,"ebcbbbc":1464,"eecebd":1465,"ffbbc":1466,"eecbd":1467,"ecbbebe":1468,"bccecc":1469,"bebeebb":1470,"bbdbdc":1471,"bbbbebd":1472,"deddd":1473,"fdbdc":1474,"fe</w>":1475,"ecdedc":1476,"bbbea":1477,"dbbebf":1478,"efbeee":1479,"ebefee":1480,"bfba":1481,"bccdf":1482,"dbcbbc":1483,"fcdec":1484,"ebbbcbc":1485,"bcdebd":1486,"bececc":1487,"edcebc":1488,"bdcbbc":1489,"fbebbc":1490,"fbbebd":1491,"eedbbd":1492,"ebfbbc":1493,"edcbf":1494,"becdbc":1495,"adbe":1496,"ecdebd":1497,"ebbbbbf":1498,"edbbcc":1499,"aff":1500,"bebebebe":1501,"ececbd":1502,"bdbcbe":1503,"bddef":1504,"aba":1505,"dcefc":1506,"edbcbc":1507,"bbbebbf":1508,"bcb</w>":1509,"bdbbbf":1510,"decccc":1511,"fbbecc":1512,"ebbfbe":1513,"edbecc":1514,"ecfebb":1515,"bbbddd":1516,"edbbebb":1517,"efdcc":1518,"ebcbdc":1519,"dcbbee":1520,"dbedbe":1521,"deebbc":1522,"eecdbc":1523,"becbbbe":1524,"bbdff":1525,"becdec":1526,"bbebccc":1527,"dfdbe":1528,"ecbbef":1529,"bfbeee":1530,"bddbbbb":1531,"edcebe":1532,"ebbdcc":1533,"ebbded":1534,"ddbbf":1535,"bcdbcc":1536,"bfebbc":1537,"bbeebbc":1538,"dfccc":1539,"bdbcf":1540,"bbbeebc":1541,"abbd":1542,"aecc":1543,"bdeebe":1544,"edcfc":1545,"ebdebd":1546,"becbbf":1547,"ddded":1548,"fbeebe":1549,"bedccc":1550,"dcbebc":1551,"bddebe":1552,"bcedcc":1553,"beebbcc":1554,"abbf":1555,"becff":1556,"bdcebc":1557,"ecbdbd":1558,"bddbbc":1559,"bbbebbd":1560,"ebffc":1561,"befdc":1562,"eddebe":1563,"fdbbbe":1564,"bffcc":1565,"bdac":1566,"efedc":1567,"bfbbec":1568,"ebddbe":1569,"bbbebbee":1570,"bdcfc":1571,"bbcbbbd":1572,"ebcbebe":1573,"bffbe":1574,"ebbfec":1575,"bfbbbd":1576,"eecbbd":1577,"becbbbc":1578,"bdbbbbc":1579,"bbcdbd":1580,"bdebcc":1581,"befdd":1582,"ececf":1583,"decdd":1584,"befef":1585,"edbbed":1586,"bdbcbd":1587,"bdbbdd":1588,"ebfebe":1589,"ebfdc":1590,"edfbe":1591,"edbebd":1592,"ebbeebc":1593,"bbbefc":1594,"bdbcee":1595,"ebbbbbbc":1596,"accc":1597,"bdceec":1598,"bbcbebc":1599,"ecbbfc":1600,"aeec":1601,"ebcbebc":1602,"ebbdebb":1603,"ebbbebd":1604,"bbdbebe":1605,"dcfcc":1606,"ebbeebe":1607,"bcdecc":1608,"eccdec":1609,"dbbedc":1610,"bedbdc":1611,"ebedee":1612,"eeedcc":1613,"bbcdec":1614,"ccccccc":1615,"dbcfc":1616,"bdfed":1617,"ecbedc":1618,"dbcbf":1619,"dbced":1620,"dbbbbbbbb":1621,"dbcef":1622,"ebebebc":1623,"bdcbec":1624,"ffccc":1625,"bccbbd":1626,"dfeec":1627,"ebeedc":1628,"bdeeee":1629,"eedebd":1630,"bebbebf":1631,"aebd":1632,"abbbe":1633,"dbddc":1634,"fc</w>":1635,"bbcebf":1636,"bdeef":1637,"efba":1638,"ecbdcc":1639,"bccdbe":1640,"dfebd":1641,"effbc":1642,"edfcc":1643,"dbcbbbb":1644,"dcfee":1645,"ebbcbbbb":1646,"ffebe":1647,"edeebc":1648,"ebbbeebb":1649,"ecdbcc":1650,"efbfc":1651,"fdedc":1652,"ebbcbbc":1653,"ebcded":1654,"efdbd":1655,"bfbcbc":1656,"bbfbec":1657,"deeccc":1658,"bdbbdc":1659,"ddbbbe":1660,"bdeecc":1661,"eececc":1662,"bbbcebe":1663,"bbdecc":1664,"dfedc":1665,"befebe":1666,"bfbbcc":1667,"eebbbcc":1668,"bbfebc":1669,"ebdecc":1670,"ddfbc":1671,"ebfbbbb":1672,"efdec":1673,"fbac":1674,"ebfa":1675,"bcbfcc":1676,"bcffc":1677,"dfbbbb":1678,"dfff":1679,"deefc":1680,"ebbea":1681,"bbbebcc":1682,"becbbec":1683,"eedccc":1684,"dbeebc":1685,"deddc":1686,"dccccc":1687,"eceedd":1688,"edcecc":1689,"bbdbbee":1690,"bbcbef":1691,"ecdbbbb":1692,"eebbeec":1693,"bbcbfc":1694,"dbebcc":1695,"eeb</w>":1696,"eecff":1697,"bedbbbc":1698,"fcbbbc":1699,"fbedc":1700,"beeeebe":1701,"eedecc":1702,"ebbbeec":1703,"dfdbc":1704,"bbdccc":1705,"ebbbbed":1706,"ebdbcc":1707,"ebddee":1708,"bdfdc":1709,"bdecbc":1710,"deb</w>":1711,"eecded":1712,"ebbefc":1713,"ecdbbd":1714,"fd</w>":1715,"fbebbbb":1716,"eebeef":1717,"dcebbc":1718,"edea":1719,"bdbcec":1720,"becbdc":1721,"dbbba":1722,"eebbecc":1723,"bbbedbe":1724,"eefbf":1725,"ecbbbec":1726,"bdeebd":1727,"bbcbbec":1728,"bfcbf":1729,"bdecbe":1730,"bdbeed":1731,"eccbbbb":1732,"dfbdc":1733,"bccff":1734,"dccdc":1735,"bdfbf":1736,"eceeed":1737,"edfbd":1738,"efebbc":1739,"bccdee":1740,"bee</w>":1741,"bbcbcbc":1742,"bbbcbec":1743,"fdebf":1744,"edebcc":1745,"bbeebbee":1746,"bccbbf":1747,"bcfdc":1748,"dbbebbc":1749,"befa":1750,"bdcbbbb":1751,"dbbbfc":1752,"dccdd":1753,"dbd</w>":1754,"fddcc":1755,"dbcebe":1756,"eebfcc":1757,"eeeeebe":1758,"bbddcc":1759,"bbcfbc":1760,"edbcec":1761,"ebbbcbe":1762,"babbbb":1763,"bbcedc":1764,"edebec":1765,"bfdbf":1766,"debdcc":1767,"bcebbcc":1768,"bcbbebd":1769,"eebbebd":1770,"dfbbf":1771,"ebbebec":1772,"bfefc":1773,"fdbbbc":1774,"fbbebf":1775,"bdbdcc":1776,"dfbbd":1777,"ebcebbc":1778,"ebdbbd":1779,"ddebf":1780,"bccbdc":1781,"bffec":1782,"bbbbccc":1783,"edca":1784,"beffc":1785,"eccff":1786,"ebbbbebe":1787,"bffbd":1788,"dcbbbd":1789,"becbebc":1790,"dbbdcc":1791,"bebbbdc":1792,"ddbebe":1793,"eaa":1794,"bddebc":1795,"ddbbbc":1796,"bbcebbc":1797,"bbbbeec":1798,"bccbbbc":1799,"dcbbec":1800,"bbfff":1801,"bdbeebb":1802,"eefebe":1803,"bccedc":1804,"eefef":1805,"bcebfc":1806,"ebcbbee":1807,"fbefc":1808,"befbbc":1809,"deeebe":1810,"bbbbbebc":1811,"eddebc":1812,"deea":1813,"edbeed":1814,"ddbbbd":1815,"bbfbbbe":1816,"decbec":1817,"feac":1818,"bddfc":1819,"dbeecc":1820,"eebebf":1821,"bdbccc":1822,"fcdbd":1823,"fcfbc":1824,"ebbbecc":1825,"dbedf":1826,"bbacc":1827,"facc":1828,"bcfdd":1829,"eecbdc":1830,"ebcdbd":1831,"abbbc":1832,"bccdbc":1833,"dbc</w>":1834,"bcdedc":1835,"bdeeec":1836,"ebcebf":1837,"ebdccc":1838,"bebebbbe":1839,"ebdff":1840,"eebebbbb":1841,"fbbccc":1842,"ebcbfc":1843,"adbc":1844,"bededc":1845,"bbeebbbe":1846,"bcbbeec":1847,"febccc":1848,"ddcdd":1849,"ecbedd":1850,"ebddec":1851,"bbcbbcc":1852,"eddeec":1853,"bebbccc":1854,"fcded":1855,"bbbcbbbe":1856,"ebddbc":1857,"ebeba":1858,"deebec":1859,"efbebc":1860,"ebbdbf":1861,"edfed":1862,"dbeccc":1863,"fcdcc":1864,"fcbef":1865,"dbe</w>":1866,"bbbbbdc":1867,"bccbbbe":1868,"eccbdc":1869,"dcbcbc":1870,"bbbbdbc":1871,"feebf":1872,"dcbeec":1873,"abdc":1874,"bbdedc":1875,"bdfebb":1876,"bebbedc":1877,"eddfc":1878,"ecbfcc":1879,"ebfdd":1880,"bbfdf":1881,"bcdbbbe":1882,"febecc":1883,"ebbebcc":1884,"bbbbdbd":1885,"bbbbbbec":1886,"ebcfbc":1887,"bbdbebc":1888,"bebeef":1889,"ebbfcc":1890,"abba":1891,"ebdedc":1892,"ebbfbd":1893,"ebebbbd":1894,"ba</w>":1895,"fcbfc":1896,"bdda":1897,"edeecc":1898,"eceeebb":1899,"dbbbbcc":1900,"eccdbe":1901,"fbedd":1902,"bcfbf":1903,"fcebf":1904,"dcba":1905,"eefa":1906,"ebebfc":1907,"eddbec":1908,"decbbc":1909,"bed</w>":1910,"edeeee":1911,"bcbedd":1912,"dbdbf":1913,"bbfbcc":1914,"dcbeee":1915,"bebac":1916,"ffdf":1917,"deedbe":1918,"bdbebf":1919,"ecbba":1920,"becded":1921,"efea":1922,"bdbedc":1923,"efeeee":1924,"ebebbebb":1925,"bbdebf":1926,"bcdbdc":1927,"fcbbbe":1928,"bec</w>":1929,"ebcbef":1930,"bcdbbf":1931,"fbbbdc":1932,"bbbdbbc":1933,"ecbbecc":1934,"fbcbf":1935,"effcc":1936,"bedebf":1937,"bbbcdd":1938,"bcbedc":1939,"bedbbee":1940,"eebeebb":1941,"becbebe":1942,"bcbbecc":1943,"edcdec":1944,"bebbebbc":1945,"efbbec":1946,"eddbbc":1947,"edbedc":1948,"ebebbec":1949,"bbbfbbbb":1950,"eebea":1951,"edcbbc":1952,"bbeedd":1953,"bfded":1954,"eedbdc":1955,"edbcf":1956,"cccdd":1957,"dbceec":1958,"ebcfec":1959,"bfbbebb":1960,"adee":1961,"beeebbbb":1962,"fcbebc":1963,"ecdbdc":1964,"ebdbbf":1965,"bbbd</w>":1966,"dbcbec":1967,"eedbbbe":1968,"edda":1969,"ebeebbc":1970,"eccdee":1971,"edecbc":1972,"bcbebbc":1973,"cccdc":1974,"bddbbd":1975,"bbeedc":1976,"ecedcc":1977,"ffbcc":1978,"eecbebc":1979,"ebefbc":1980,"dfdbd":1981,"beebecc":1982,"eedbbf":1983,"bdb</w>":1984,"ebdbdc":1985,"dffbc":1986,"eeebbcc":1987,"ebddbd":1988,"befbbbb":1989,"bbbcbbd":1990,"fbea":1991,"ebebcbc":1992,"ebdbbbe":1993,"eebbebf":1994,"ebedec":1995,"eecbbf":1996,"eccbbd":1997,"dbebbd":1998,"bbeea":1999,"ebfebb":2000,"beeebf":2001,"ebedcc":2002,"deebcc":2003,"eecbbbc":2004,"bddbec":2005,"bbbebbebb":2006,"edbbbf":2007,"dcfbd":2008,"ecdccc":2009,"edbdcc":2010,"ebdbebe":2011,"bdbbebe":2012,"bbeeef":2013,"ebebbcc":2014,"ebedbd":2015,"bcccccc":2016,"dfdcc":2017,"bcbebf":2018,"ebbcbf":2019,"fcedc":2020,"ecbbbcc":2021,"becdbd":2022,"bdca":2023,"ebbbcf":2024,"bfcbbc":2025,"ebbfebb":2026,"beefcc":2027,"ecebbcc":2028,"dbcebc":2029,"eecdbd":2030,"bddeec":2031,"efcbf":2032,"decbf":2033,"bbfdbe":2034,"edac":2035,"dceecc":2036,"edbcee":2037,"fdbfc":2038,"bcc</w>":2039,"dceebc":2040,"bcbebbbb":2041,"bbbcbcc":2042,"bbbcebc":2043,"dfdee":2044,"fcbbec":2045,"eccdbc":2046,"fbebcc":2047,"fdbbee":2048,"eddbb":2049,"bbcba":2050,"bbbcef":2051,"eecbbbe":2052,"ebcdcc":2053,"bbbbbbcc":2054,"dbebbbe":2055,"ebcbbec":2056,"dcebec":2057,"aebf":2058,"ebf</w>":2059,"bdcebb":2060,"eebebbc":2061,"bbbdbf":2062,"becebbc":2063,"bfcfc":2064,"bbbbebf":2065,"dcdbf":2066,"bebcbbc":2067,"bcdccc":2068,"efcdf":2069,"bbfbbd":2070,"edcedc":2071,"fbbbbbbbb":2072,"efddc":2073,"eeebfc":2074,"edbbdc":2075,"bbbbdf":2076,"fbeebb":2077,"feedd":2078,"feeebe":2079,"edbcbd":2080,"edbcbe":2081,"fbebec":2082,"ecebfc":2083,"bbbbebbc":2084,"eccfec":2085,"edcdee":2086,"ebbddc":2087,"bbecbbc":2088,"ebcbcbc":2089,"badd":2090,"eadd":2091,"dbebbf":2092,"bfbbbf":2093,"bbf</w>":2094,"bebebec":2095,"bdbbef":2096,"ebdbebc":2097,"bbbbff":2098,"eecdcc":2099,"dcfed":2100,"dbdbbc":2101,"edbeebb":2102,"bbbbdee":2103,"beddcc":2104,"ecbbeec":2105,"efbcbc":2106,"bccdec":2107,"bdebdc":2108,"ebfbec":2109,"babf":2110,"ecb</w>":2111,"ebcbbbd":2112,"cccfc":2113,"bbcbbebb":2114,"edbccc":2115,"bbbcdc":2116,"dbeeec":2117,"edcebd":2118,"bdcdf":2119,"ebbbcbd":2120,"eccded":2121,"dccfc":2122,"bbdfbc":2123,"bbbcfc":2124,"ffbbf":2125,"aea":2126,"bcfef":2127,"ddbfc":2128,"ebbecbc":2129,"becbfc":2130,"eceebf":2131,"bccbebe":2132,"bbcded":2133,"bbbbbcbc":2134,"bbeebbf":2135,"bbbbbef":2136,"dbedee":2137,"dcdebb":2138,"becfbc":2139,"fbbedc":2140,"dcbbcc":2141,"ccccc":2142,"dbeebd":2143,"bbdbef":2144,"bedbfc":2145,"ecbbebd":2146,"ebbbebf":2147,"ebceebc":2148,"bcbbccc":2149,"eefdd":2150,"effbe":2151,"bbbbbbbf":2152,"bbcbeee":2153,"edcbcc":2154,"bfea":2155,"abebe":2156,"dcceec":2157,"bebbba":2158,"ebbeecc":2159,"efdbf":2160,"bebcbec":2161,"dee</w>":2162,"bdcebd":2163,"feedc":2164,"ebbbbbbbbbb":2165,"eccbbf":2166,"bbdbbec":2167,"bcefcc":2168,"ffed":2169,"ecceecc":2170,"fecdd":2171,"bbccbbc":2172,"bedebbc":2173,"decfc":2174,"ecedbd":2175,"bcfbbc":2176,"deedf":2177,"adbd":2178,"bcdebf":2179,"ebbeebd":2180,"ebbeef":2181,"dbcdf":2182,"bfddc":2183,"bceba":2184,"ecbebbc":2185,"feeef":2186,"bbbc</w>":2187,"aedc":2188,"abbee":2189,"becbef":2190,"bbdbfc":2191,"bdcbcc":2192,"ebdded":2193,"eebebbbe":2194,"eededc":2195,"bdbced":2196,"becebf":2197,"edfdc":2198,"ebbbcee":2199,"ebbfed":2200,"efbbbd":2201,"bcebecc":2202,"eeeebeee":2203,"decdf":2204,"bbbbecc":2205,"bfbeec":2206,"bebedc":2207,"babbc":2208,"decdee":2209,"bdcdbe":2210,"eeddcc":2211,"bbfbbbc":2212,"bebedd":2213,"dedbbc":2214,"ebbcebc":2215,"fbcfc":2216,"bccebf":2217,"ffdbe":2218,"fbbbfc":2219,"bebefc":2220,"fbcbbc":2221,"fdebbc":2222,"bbebbbbc":2223,"dbcdbc":2224,"dcbecc":2225,"fbebbbe":2226,"becbbee":2227,"efefc":2228,"eed</w>":2229,"ffebc":2230,"dcbebd":2231,"bebcbbbb":2232,"bbeb</w>":2233,"becedc":2234,"bebcbf":2235,"bcbefc":2236,"ebdbbbc":2237,"eecedc":2238,"bccbfc":2239,"bdeedc":2240,"dbca":2241,"bdeccc":2242,"efbbcc":2243,"ecbeecc":2244,"ebbeeebb":2245,"ddfec":2246,"dbdbbbb":2247,"beeebeee":2248,"fdba":2249,"ecffc":2250,"bbdebbc":2251,"efded":2252,"bedefc":2253,"bbbdbbbd":2254,"bdfdd":2255,"dec</w>":2256,"dcfbe":2257,"ebeea":2258,"decebc":2259,"bdcdee":2260,"dfbbbe":2261,"dbbfcc":2262,"bedba":2263,"bbecbf":2264,"bcdbbbc":2265,"bbeebebe":2266,"fecccc":2267,"bebbbfc":2268,"effec":2269,"ffbec":2270,"bdfef":2271,"ded</w>":2272,"ebbbebbbb":2273,"dbcccc":2274,"bbbbba":2275,"bdcecc":2276,"fbebbf":2277,"beebccc":2278,"ecbeebc":2279,"eefbbc":2280,"edeebd":2281,"abef":2282,"fcbeec":2283,"fcfee":2284,"dcebcc":2285,"bceedd":2286,"bbbbcbbc":2287,"eec</w>":2288,"bfbcf":2289,"eecbfc":2290,"bbbcccc":2291,"bdecf":2292,"efcdd":2293,"bdbebbc":2294,"ebfbbf":2295,"bccdbd":2296,"dbcdee":2297,"dcced":2298,"ebbfbf":2299,"ebbbcec":2300,"beacc":2301,"ebbbbdc":2302,"becbeec":2303,"bebea":2304,"bfac":2305,"ebcfee":2306,"bccfbc":2307,"eecfec":2308,"bbdba":2309,"dcbbed":2310,"bebebbf":2311,"dfebf":2312,"ddbbee":2313,"bbebbbbbe":2314,"eedbbbc":2315,"bfcef":2316,"bdffc":2317,"ddbef":2318,"ebcefc":2319,"bbbcbbf":2320,"ffecc":2321,"ebcdebb":2322,"eddecc":2323,"fcbcbc":2324,"ebbdbbc":2325,"becdcc":2326,"bbbca":2327,"eefdc":2328,"debfcc":2329,"deebbbb":2330,"beeebbbe":2331,"bfdebb":2332,"ddcdc":2333,"ecceebc":2334,"bbbe</w>":2335,"ebacc":2336,"dbddbd":2337,"eee</w>":2338,"bdecbd":2339,"bbdbbcc":2340,"dbcbcc":2341,"bfbecc":2342,"bdcbdc":2343,"bddebd":2344,"ebbcebe":2345,"edbbbbc":2346,"edcdbe":2347,"eccbbbe":2348,"edbced":2349,"bcfebe":2350,"ebbdbbbb":2351,"bfbbed":2352,"ddbebc":2353,"fbcef":2354,"befdf":2355,"bcbbbdc":2356,"dbcdbe":2357,"ebfebc":2358,"becbbbd":2359,"edcff":2360,"bebebbee":2361,"ebfbcc":2362,"bbdbbebb":2363,"beeebbee":2364,"ebbcfc":2365,"bbecbbbb":2366,"bbbeebd":2367,"ebbbccc":2368,"bdbbfc":2369,"ebbcdd":2370,"bfcdd":2371,"fbeff":2372,"edeeec":2373,"edbdbd":2374,"ebcbebd":2375,"edeef":2376,"edbbdd":2377,"ebfff":2378,"bebebcc":2379,"bbcfee":2380,"ecdbbf":2381,"bcebccc":2382,"bbcdcc":2383,"bfcdc":2384,"afbc":2385,"dbeff":2386,"cccecc":2387,"fecdf":2388,"eebbedc":2389,"bebbbbcc":2390,"ebcbeec":2391,"dbcbbd":2392,"bdbbebc":2393,"dbbebec":2394,"bdbedd":2395,"edbbebe":2396,"ebbcbec":2397,"fbbba":2398,"bffbf":2399,"deeef":2400,"bfeebc":2401,"fcfcc":2402,"dbbefc":2403,"cccbcc":2404,"befbbf":2405,"ecdbbbe":2406,"ebcba":2407,"bcbeebe":2408,"ebbbbdd":2409,"bbeedbe":2410,"bdfbbc":2411,"fdefc":2412,"bcbebec":2413,"dcdef":2414,"bbbebbbd":2415,"afee":2416,"bfbebd":2417,"ddfcc":2418,"dfdec":2419,"beeac":2420,"eccbebc":2421,"bce</w>":2422,"ebcbbcc":2423,"ebbbeebe":2424,"bbbebebc":2425,"beeebbc":2426,"dcea":2427,"eecbebe":2428,"ebcbecc":2429,"bdcff":2430,"eebebbee":2431,"cccbbc":2432,"bbecbec":2433,"edcded":2434,"ebecbbc":2435,"dffcc":2436,"bdbcebb":2437,"fbbebbc":2438,"bcd</w>":2439,"dccef":2440,"dfbfc":2441,"dbebdc":2442,"ebbac":2443,"bcbcbbc":2444,"dbebbbc":2445,"eebbbdc":2446,"dbcebd":2447,"decdec":2448,"bffdc":2449,"bfeeee":2450,"bbebbebe":2451,"bbeebec":2452,"deeecc":2453,"ffbbbb":2454,"ecfdd":2455,"edeccc":2456,"bccbef":2457,"bbbeeec":2458,"fcebbc":2459,"dbcebb":2460,"bbfebd":2461,"fecdc":2462,"effbd":2463,"bdecec":2464,"bbfccc":2465,"dbfdd":2466,"edbebf":2467,"bdbcbf":2468,"eceba":2469,"bcfebc":2470,"bddbcc":2471,"deeebc":2472,"dbcecc":2473,"eddbbbb":2474,"bfcebe":2475,"eecbecc":2476,"befebc":2477,"fcbbee":2478,"bdcccc":2479,"ff</w>":2480,"bcbbebf":2481,"edfbf":2482,"bbbbfbc":2483,"bbbdbbd":2484,"bceedc":2485,"ebbdebe":2486,"bdeeebb":2487,"eecbbec":2488,"edcccc":2489,"ebbbbef":2490,"bdcbbd":2491,"bbfbebe":2492,"eccfbc":2493,"befbec":2494,"eccefc":2495,"bdbba":2496,"ecc</w>":2497,"ecbefc":2498,"bcdbbee":2499,"ddefc":2500,"bbebdcc":2501,"decdbe":2502,"bdeebf":2503,"bcfa":2504,"bdbebbbb":2505,"cccbf":2506,"ebcfbe":2507,"ddfee":2508,"decbcc":2509,"ebbdbb":2510,"fdfcc":2511,"eecdebb":2512,"edeedc":2513,"dbdef":2514,"eecbeec":2515,"badc":2516,"ebbbedc":2517,"bdbbbec":2518,"fcbebe":2519,"bcbac":2520,"bfcdf":2521,"eccdcc":2522,"edebdc":2523,"bbcbbbbc":2524,"decebe":2525,"bfebcc":2526,"eecbef":2527,"bbbeebf":2528,"bfcbec":2529,"eecebbc":2530,"fcfec":2531,"eebac":2532,"bdbcdc":2533,"ebbdebc":2534,"efcdc":2535,"bebb</w>":2536,"dbedbc":2537,"eecba":2538,"bbfebf":2539,"eddebd":2540,"eadc":2541,"bbdbeee":2542,"bfca":2543,"bccbbee":2544,"decef":2545,"ebebeebb":2546,"feddd":2547,"bbdfee":2548,"bbbedf":2549,"ebbecbe":2550,"bebeebc":2551,"bbdddd":2552,"ebebbbf":2553,"ebebebd":2554,"cccef":2555,"eebbccc":2556,"bbcbeec":2557,"ebdfbc":2558,"bfecbc":2559,"eebedc":2560,"eebefc":2561,"fbedf":2562,"ebbbeed":2563,"ebfdf":2564,"eebedd":2565,"eeefcc":2566,"bebebbbc":2567,"bbccbbbb":2568,"debbbbbb":2569,"becbcbc":2570,"bbcfec":2571,"dbbbdbd":2572,"bbbeff":2573,"eecfbc":2574,"fbeccc":2575,"eefbbbb":2576,"bbecccc":2577,"bebcebc":2578,"bdeeed":2579,"efbbebb":2580,"beeea":2581,"bbeefc":2582,"efbeec":2583,"dbdfc":2584,"ebfccc":2585,"dbddf":2586,"feea":2587,"dbffc":2588,"beeebebe":2589,"bdbeebe":2590,"deddf":2591,"eebeebc":2592,"bccdcc":2593,"ecefcc":2594,"ebbbebbc":2595,"dbebebe":2596,"fbeebc":2597,"bfebec":2598,"bcbcbbbb":2599,"eedbfc":2600,"eccebbc":2601,"deedee":2602,"bfbccc":2603,"eceeebe":2604,"bdfebe":2605,"bcddcc":2606,"ece</w>":2607,"eddbbd":2608,"befccc":2609,"bfbcbe":2610,"dbbbecc":2611,"dcfdc":2612,"edfebb":2613,"bbfeec":2614,"bdecee":2615,"baebe":2616,"becfec":2617,"eebebcc":2618,"bfdef":2619,"adcc":2620,"bbbcebd":2621,"bbeddd":2622,"bddecc":2623,"ebbbcebb":2624,"befdbe":2625,"befbcc":2626,"dbdebe":2627,"eccebf":2628,"bdedbd":2629,"bbecebe":2630,"bbbdebe":2631,"fbcdf":2632,"bbbdbbbe":2633,"dceebd":2634,"eebeebf":2635,"efbbbf":2636,"ecdeecc":2637,"feebbc":2638,"bdcdbc":2639,"ecddcc":2640,"dcbcee":2641,"deceec":2642,"bbfbbee":2643,"bbbbdbbbb":2644,"ebbdef":2645,"dbddbe":2646,"ebdebbc":2647,"eccbebe":2648,"beecbec":2649,"deedbc":2650,"bcfccc":2651,"eccbfc":2652,"ebdbfc":2653,"eccbbbc":2654,"ecfbbc":2655,"bbccccc":2656,"abca":2657,"baba":2658,"fcdbf":2659,"bbbbbfc":2660,"bbbfbbc":2661,"ebcfcc":2662,"edbedd":2663,"ebbebdc":2664,"eccfcc":2665,"dedbec":2666,"bccbcbc":2667,"dccebe":2668,"bdd</w>":2669,"fbbdcc":2670,"bcbbbbcc":2671,"fcefc":2672,"ebdebf":2673,"bbbcdbe":2674,"bccfec":2675,"bbbceec":2676,"bbebebbbb":2677,"efac":2678,"ecbeccc":2679,"bbcbebd":2680,"ddfbd":2681,"fbebbee":2682,"bfbcee":2683,"fcbbbd":2684,"dbcbbf":2685,"ddba":2686,"dbda":2687,"eebebbf":2688,"dcbeed":2689,"bbbebbec":2690,"beeeef":2691,"dbbea":2692,"bbbced":2693,"eecbcbc":2694,"bbbeccc":2695,"ebbbdbd":2696,"bccbebc":2697,"fbcbec":2698,"ecdebbc":2699,"ecdefc":2700,"bbdbebd":2701,"ecdebf":2702,"bbccebe":2703,"ebceecc":2704,"dccbec":2705,"ebbeebf":2706,"bcfbec":2707,"fceebc":2708,"beeeeeee":2709,"bfbbbbc":2710,"eeebecc":2711,"dceeee":2712,"bccded":2713,"dbeedc":2714,"adec":2715,"ebdbbbd":2716,"bbdbeec":2717,"efcef":2718,"bdcedc":2719,"bebcebe":2720,"dbdbec":2721,"fdbbcc":2722,"abfc":2723,"ebddebb":2724,"eddbcc":2725,"bdbbbbbbbb":2726,"ecebccc":2727,"bbdbcbc":2728,"dccbbc":2729,"ecfef":2730,"bbdeebc":2731,"dccecc":2732,"ebbbbebc":2733,"eebbbbbbbb":2734,"ecebecc":2735,"edbebbc":2736,"ebbcef":2737,"bbeeebc":2738,"ffebf":2739,"eaebe":2740,"ebbeeebe":2741,"bcdbfc":2742,"bbbfbf":2743,"bbbebdc":2744,"abea":2745,"bcbeef":2746,"ecbeebe":2747,"bbdbbed":2748,"bcfdf":2749,"dbcff":2750,"bbfecc":2751,"eddedc":2752,"bbceebc":2753,"ebdeebc":2754,"bedbbcc":2755,"bbbcbbbd":2756,"eedba":2757,"bdcdbd":2758,"eeffc":2759,"ebbfdc":2760,"bbffbc":2761,"abbbd":2762,"defdd":2763,"ebbcdc":2764,"bbcbbed":2765,"bbfdee":2766,"bbfbfc":2767,"ebeded":2768,"beebbbbbb":2769,"eecfee":2770,"bdcdec":2771,"ebdbbee":2772,"ebbeeec":2773,"bbbcbebe":2774,"bbcefc":2775,"eeeeef":2776,"bebcef":2777,"ebcddc":2778,"eccdbd":2779,"ebcecbc":2780,"bbcebec":2781,"ecdbbbc":2782,"dbebbee":2783,"cccccccccccccccc":2784,"ebcbeee":2785,"bcbebcc":2786,"bebbea":2787,"eedbbee":2788,"ebebecc":2789,"bedbecc":2790,"bbecdd":2791,"fecbf":2792,"bbbcdf":2793,"fbeebf":2794,"bcbedbe":2795,"dedbf":2796,"eecebf":2797,"ebbbbbec":2798,"bdedcc":2799,"dceeec":2800,"ebcebcc":2801,"fcbbcc":2802,"bdbeef":2803,"ecbea":2804,"eccbecc":2805,"ffbdc":2806,"becbecc":2807,"dcecbc":2808,"edbbebc":2809,"eefccc":2810,"bcfbbbb":2811,"ebcebec":2812,"bcbbedc":2813,"baef":2814,"dccbf":2815,"ecbebcc":2816,"ffdbc":2817,"bbfdbc":2818,"dbdbbd":2819,"eecbbbd":2820,"edeebe":2821,"eefdf":2822,"dddbf":2823,"ecbbccc":2824,"bcbebbbe":2825,"dcbccc":2826,"eaea":2827,"becfee":2828,"bccbbcc":2829,"eeceecc":2830,"eecbbee":2831,"ecbedbe":2832,"dcdebe":2833,"ebefcc":2834,"ebdfec":2835,"fcba":2836,"edfef":2837,"bbbbbbed":2838,"ecfccc":2839,"aac":2840,"ddebbc":2841,"bbbbbeee":2842,"edecbd":2843,"dceccc":2844,"deebdc":2845,"fdbecc":2846,"eeeebf":2847,"bdfa":2848,"ebcdbf":2849,"ebfbbbe":2850,"bccbbec":2851,"dcdfc":2852,"bbbbbebbbb":2853,"bbcbbbf":2854,"dcbcbd":2855,"edbbef":2856,"ddbeee":2857,"ffbbd":2858,"bbcdebb":2859,"fbedbe":2860,"edcfec":2861,"deebbf":2862,"edbcebb":2863,"eedebf":2864,"bbebbbf":2865,"ebbbced":2866,"deca":2867,"ebddcc":2868,"becdebb":2869,"ecdbfc":2870,"eedbecc":2871,"bccefc":2872,"ebebbebe":2873,"dddebb":2874,"eeeea":2875,"edbcdc":2876,"ebfebf":2877,"edcbdc":2878,"ebbdfc":2879,"bfbcec":2880,"becba":2881,"edfdd":2882,"fccccc":2883,"dbddee":2884,"ecbbedc":2885,"ebebeec":2886,"bbbcbcbc":2887,"eebeecc":2888,"fbbbbcc":2889,"dbebebc":2890,"fccef":2891,"bbdfec":2892,"bbfbef":2893,"dbcbbbe":2894,"bfcbbbb":2895,"bdfebc":2896,"deddee":2897,"becbbcc":2898,"febdcc":2899,"bccbbbd":2900,"bcbeebc":2901,"dcbbebb":2902,"fdac":2903,"edcbbbb":2904,"eeeebbbb":2905,"becefc":2906,"ddbbec":2907,"dedccc":2908,"fccfc":2909,"bccebbc":2910,"dfbbbc":2911,"eeebccc":2912,"bffed":2913,"beceebc":2914,"ffdcc":2915,"fbebbbc":2916,"bedebec":2917,"eebbebbc":2918,"dcbcec":2919,"bbdfbd":2920,"eecddc":2921,"ebbeedc":2922,"ebdbef":2923,"deedcc":2924,"ecd</w>":2925,"bebcfc":2926,"ebbeccc":2927,"eeeebbee":2928,"eecbebd":2929,"deddbe":2930,"edcdbc":2931,"ebbdbec":2932,"ecbebf":2933,"bbbebef":2934,"bfcebc":2935,"fbcdd":2936,"eefbeee":2937,"bbbdbbee":2938,"ecbebbbb":2939,"effbf":2940,"bcbea":2941,"bedebcc":2942,"eeceebc":2943,"bbcbecc":2944,"fbebdc":2945,"bbbeecc":2946,"fcbecc":2947,"bdbbbcc":2948,"dcac":2949,"ebebbed":2950,"fcdef":2951,"eeeebebe":2952,"decbbbb":2953,"ebcfed":2954,"bbfbdc":2955,"ffebd":2956,"bfbcbd":2957,"bbbda":2958,"eefbcc":2959,"bfbebf":2960,"feeccc":2961,"bbbedbc":2962,"deebbd":2963,"ebedebb":2964,"bcfbcc":2965,"bddbdc":2966,"ebcfbd":2967,"efbbed":2968,"bbbebeee":2969,"edb</w>":2970,"dececc":2971,"fbb</w>":2972,"ecbeedc":2973,"efcbbc":2974,"ebbbbfc":2975,"fcddc":2976,"dfddc":2977,"ecfa":2978,"ddeebc":2979,"fbebbd":2980,"bcbbebbc":2981,"becbebd":2982,"ebbfebe":2983,"bebbefc":2984,"fbcbbbb":2985,"bcdebbc":2986,"fdea":2987,"edbbfc":2988,"aca":2989,"edffc":2990,"bbecebc":2991,"bdbbebd":2992,"eeacc":2993,"dfbebe":2994,"eaef":2995,"bfdbbc":2996,"bfcbcc":2997,"efcfc":2998,"eefbbf":2999,"debac":3000,"dbedbd":3001,"fecbbc":3002,"decdbc":3003,"dbbebcc":3004,"bbdebec":3005,"bafc":3006,"ebceebd":3007,"ddbcbc":3008,"fbcebe":3009,"edecec":3010,"beecbbc":3011,"ebcbbed":3012,"ebbca":3013,"ebfbebe":3014,"ddeecc":3015,"ebeeebc":3016,"ffbef":3017,"bebbebec":3018,"eecbbcc":3019,"eecefc":3020,"bbdbbbbc":3021,"eebeccc":3022,"eeeac":3023,"becebec":3024,"bbdbbbf":3025,"ebbbba":3026,"efdebb":3027,"fbcccc":3028,"bedea":3029,"ecbbbdc":3030,"dbbb</w>":3031,"ebdefc":3032,"dcdbbc":3033,"bbbcdee":3034,"bddbbbe":3035,"bdeedd":3036,"ebbfef":3037,"eefbebe":3038,"eccfed":3039,"fbbea":3040,"eedebbc":3041,"bcfbbf":3042,"dddddddd":3043,"ebbbeef":3044,"efecbc":3045,"bcfdbe":3046,"ebbcbbbe":3047,"edceecc":3048,"efbebd":3049,"ebbecbd":3050,"dccebc":3051,"bdeced":3052,"ffdee":3053,"eeeeccc":3054,"ebfbef":3055,"bebbdcc":3056,"bbebfcc":3057,"bdecdc":3058,"dcbbdc":3059,"dbbbccc":3060,"bcdefc":3061,"dcdeec":3062,"ecbac":3063,"bbcfcc":3064,"eabf":3065,"fcdebb":3066,"bdecbf":3067,"eebbba":3068,"fcfbd":3069,"acba":3070,"abeee":3071,"ddbeec":3072,"fecbec":3073,"bbecdf":3074,"efebcc":3075,"fbbefc":3076,"eecfed":3077,"dceedc":3078,"ddbbcc":3079,"eccbbee":3080,"dbfbf":3081,"ebbbcdc":3082,"ebbcbcc":3083,"ecbebec":3084,"eebeff":3085,"ebbfbbc":3086,"dcbbbf":3087,"ebefbd":3088,"eccebcc":3089,"ecbedbc":3090,"ebcbbebb":3091,"bdcbbf":3092,"bbbcbbee":3093,"fdebcc":3094,"ebeddc":3095,"bbedbbc":3096,"bcbbbfc":3097,"fdebec":3098,"dccdcc":3099,"efca":3100,"edcbbd":3101,"ebeebcc":3102,"ebffee":3103,"eebebec":3104,"bbbedee":3105,"bbbcbebc":3106,"dfbbee":3107,"ebefbe":3108,"bbccbf":3109,"dcbedc":3110,"dbedec":3111,"efdef":3112,"edcbebc":3113,"bbcfbd":3114,"beecccc":3115,"dcdebc":3116,"ecbeebd":3117,"efcbec":3118,"ebefec":3119,"abebc":3120,"dbbecbc":3121,"bbfbbbd":3122,"eccbef":3123,"edbeebc":3124,"dfbef":3125,"bfbbdc":3126,"bffebb":3127,"eedefc":3128,"eefbef":3129,"bdbfcc":3130,"ebdbebd":3131,"dbdebc":3132,"dcbcbe":3133,"ebbbcbf":3134,"fccbec":3135,"fcebec":3136,"efbecc":3137,"ebdbbec":3138,"deeed":3139,"dbeebf":3140,"bcfecc":3141,"ebdba":3142,"edceebc":3143,"bceac":3144,"feebbee":3145,"bcbcccc":3146,"eecfbd":3147,"ecfecc":3148,"ebbdbbd":3149,"ecfbcc":3150,"bbbebbcc":3151,"ebebccc":3152,"bcbbba":3153,"fffbc":3154,"bceebbc":3155,"dbddbc":3156,"dccbcc":3157,"ebedbf":3158,"bbbbbebd":3159,"ddbecc":3160,"bddbbf":3161,"eecebcc":3162,"eecdbf":3163,"bbfbebc":3164,"fbeed":3165,"bdddcc":3166,"efbccc":3167,"fbeecc":3168,"dffec":3169,"ecfbec":3170,"ebfecc":3171,"bedfcc":3172,"ebeeeebb":3173,"bbeebcc":3174,"ebbbebbbe":3175,"abbec":3176,"ebeefc":3177,"ebcea":3178,"bfbbef":3179,"ebbcbbd":3180,"ebebbbbc":3181,"bebeccc":3182,"bbbddbd":3183,"bddedc":3184,"bdcbbbe":3185,"bdebfc":3186,"bfcdbe":3187,"feddf":3188,"ddbebd":3189,"ebebeebe":3190,"ebdbeec":3191,"edbeebe":3192,"bedeecc":3193,"ebbbbbcc":3194,"bbbcdbc":3195,"bbccbec":3196,"eebcbbc":3197,"bcbedf":3198,"bdbdbdbd":3199,"bbdefc":3200,"ebdddc":3201,"eefbec":3202,"bbbbbbebe":3203,"ecdfcc":3204,"ffdbd":3205,"fbcebc":3206,"ebdfee":3207,"edfbbc":3208,"edbcbf":3209,"ebbda":3210,"ebdbecc":3211,"bbbcbdc":3212,"fcbebd":3213,"bbbcbbbbc":3214,"debbbbc":3215,"bcbebbf":3216,"befbbbe":3217,"eedeecc":3218,"efebec":3219,"eabbc":3220,"ebbceec":3221,"ddebec":3222,"bceebf":3223,"ecdbbee":3224,"dccdf":3225,"bdbbeec":3226,"bfcff":3227,"bebcbbbe":3228,"feeff":3229,"deebbbe":3230,"fbca":3231,"efbbef":3232,"bebebeee":3233,"bbccfc":3234,"ea</w>":3235,"eecbedc":3236,"ebebebf":3237,"ebcdebc":3238,"ebfdbe":3239,"dcfbf":3240,"bbdbbdd":3241,"bbccef":3242,"becebcc":3243,"dbcdbd":3244,"dcebdc":3245,"ebcdebe":3246,"ddfdc":3247,"befbbee":3248,"bebca":3249,"bbbdef":3250,"bccfee":3251,"edbefc":3252,"bbebbbbebb":3253,"fbdbf":3254,"ecdbecc":3255,"eefbbee":3256,"bebebbd":3257,"bebceec":3258,"edddcc":3259,"dedfc":3260,"bcfeec":3261,"bbbdbec":3262,"fcceec":3263,"ebdeecc":3264,"deebbee":3265,"bcbeccc":3266,"bfbeebb":3267,"ddebcc":3268,"eccbbec":3269,"ffbbbe":3270,"edcdbd":3271,"eeeebbbe":3272,"eebcbec":3273,"ebbbedd":3274,"bebbebcc":3275,"ebbcbbf":3276,"fecef":3277,"bdeebbc":3278,"bebcbebc":3279,"bbbdbbf":3280,"ddcfc":3281,"deda":3282,"bccbccc":3283,"dffbd":3284,"dcdcdcdc":3285,"dbedcc":3286,"ecbeed":3287,"eccbeec":3288,"bbbcbbebb":3289,"ebeebec":3290,"dedef":3291,"dcfdd":3292,"bdcebf":3293,"ecbcbbc":3294,"eefbbbe":3295,"ebebcec":3296,"bde</w>":3297,"bbbcbbec":3298,"becbeee":3299,"ecccccc":3300,"dbdeec":3301,"ebbcebd":3302,"befebf":3303,"ebbcdf":3304,"ffbbee":3305,"ebccbbc":3306,"bcfebd":3307,"deacc":3308,"eccbcbc":3309,"ecceebd":3310,"ddbbed":3311,"fbbfcc":3312,"ebbcdbe":3313,"bbbddbe":3314,"bfcdee":3315,"bbdbecc":3316,"befbebe":3317,"fdeecc":3318,"deddbc":3319,"becbbebb":3320,"bcceebc":3321,"edcebb":3322,"dbdccc":3323,"bbbbbcbbbb":3324,"beecdf":3325,"efbcec":3326,"bcbcbf":3327,"ebebcbe":3328,"feefc":3329,"bbbbdebb":3330,"ecceccc":3331,"bcacc":3332,"fbcdc":3333,"dbfbbc":3334,"ecbedcc":3335,"ebcbbbf":3336,"ecfedc":3337,"decebd":3338,"bbecfc":3339,"fbddd":3340,"bbbbbeebb":3341,"bebcdf":3342,"eebbbfc":3343,"bcbcfc":3344,"bccfcc":3345,"afcc":3346,"dbdbdc":3347,"deeebd":3348,"bbccebc":3349,"bebcdd":3350,"ecceedc":3351,"dbfef":3352,"bbdbbdc":3353,"dbded":3354,"ecfebc":3355,"ecdebcc":3356,"bfbbebe":3357,"eefebf":3358,"ebeecbc":3359,"edcebf":3360,"eebebdc":3361,"ebbbcbbbb":3362,"bbbddc":3363,"bdecebb":3364,"deeeec":3365,"eebbea":3366,"eccecbc":3367,"fbcbcc":3368,"fcebcc":3369,"fbceec":3370,"bbdbdbd":3371,"dbfdc":3372,"bebebdc":3373,"dcca":3374,"dbbeecc":3375,"fffee":3376,"bffef":3377,"efeebc":3378,"edbbbec":3379,"bbbddf":3380,"bfcbbf":3381,"bbbcebf":3382,"eefebc":3383,"beeedd":3384,"dbcdec":3385,"bbbbedc":3386,"bfdfc":3387,"dbebef":3388,"dbcbdc":3389,"eebbbbcc":3390,"afec":3391,"ebebcee":3392,"bfdbbbb":3393,"ddddcc":3394,"bbffee":3395,"badf":3396,"ecbbebf":3397,"bcceecc":3398,"fbeeec":3399,"bfeebd":3400,"fbcff":3401,"edecbe":3402,"bfeecc":3403,"bbbbbbdd":3404,"ebbecec":3405,"bbecef":3406,"decded":3407,"bbbcff":3408,"beeefc":3409,"eceeccc":3410,"bcbcdd":3411,"ebcbedc":3412,"bcdba":3413,"abbcc":3414,"dcbbdd":3415,"fbeebd":3416,"fbedbc":3417,"babbbe":3418,"bebbfcc":3419,"edcbbf":3420,"edcefc":3421,"becbbed":3422,"bbdfcc":3423,"bccebec":3424,"bebeecc":3425,"bdc</w>":3426,"bbbdbbbc":3427,"becfcc":3428,"becdbf":3429,"bffdd":3430,"ffbebe":3431,"decbdc":3432,"edbeef":3433,"bebddd":3434,"bebbbecc":3435,"bcfebf":3436,"edcdcc":3437,"dbbac":3438,"bcbeecc":3439,"bbbdfc":3440,"ebcbcec":3441,"aded":3442,"afbd":3443,"edeeebb":3444,"bbeebeee":3445,"bbee</w>":3446,"feebebe":3447,"ddea":3448,"abda":3449,"bbbbdec":3450,"eecdebc":3451,"bbbebbbbc":3452,"ebeeebe":3453,"effdc":3454,"bbcddc":3455,"fbcbbf":3456,"efbcbd":3457,"dbebbec":3458,"eecbeee":3459,"effef":3460,"bcfedc":3461,"bebcccc":3462,"eedbbcc":3463,"bdebbcc":3464,"fcbbed":3465,"eefdbe":3466,"bbbebcbc":3467,"dcdbec":3468,"ebebcbd":3469,"bbbeebbc":3470,"edeeed":3471,"bbccbcc":3472,"ebbeeef":3473,"bebcbcc":3474,"bcbb</w>":3475,"ecbebdc":3476,"fcdbec":3477,"ebdbcbc":3478,"eefecc":3479,"abcbc":3480,"dbcbebe":3481,"beecbf":3482,"ecbbbbbbbb":3483,"dccdee":3484,"ebedbbc":3485,"ebeeeebe":3486,"dffee":3487,"ebcdef":3488,"beccbec":3489,"dbebbbd":3490,"bbeebbd":3491,"dcdecc":3492,"ebebbef":3493,"bcbebbbc":3494,"dddef":3495,"ebbbcbbc":3496,"edecdc":3497,"ebbdeec":3498,"bdbebec":3499,"ededcc":3500,"bcbeeec":3501,"dcecec":3502,"ececccc":3503,"efdbbc":3504,"bcbebbd":3505,"bbebbbbbc":3506,"ebecbec":3507,"dfba":3508,"befbbd":3509,"bccbeee":3510,"bfceec":3511,"bbecdee":3512,"ddbbdd":3513,"bbfdbd":3514,"eafc":3515,"bfda":3516,"dbcbbbc":3517,"efbbebe":3518,"dfbebc":3519,"edfebe":3520,"ebbbdbc":3521,"bebeebf":3522,"ebcbcbd":3523,"bbbbfee":3524,"efbcee":3525,"ffedc":3526,"dedbcc":3527,"eccbebd":3528,"bcbbdcc":3529,"ddfed":3530,"dceeed":3531,"decbbd":3532,"decdcc":3533,"eecdfc":3534,"bddebf":3535,"befbef":3536,"ddbdbd":3537,"aebbc":3538,"beebdcc":3539,"bbcbccc":3540,"bbecdbe":3541,"bbbebbbf":3542,"bfdebe":3543,"edbeecc":3544,"bbbedbd":3545,"bbbbebec":3546,"fbebfc":3547,"dddbbc":3548,"ebfbdc":3549,"ffeec":3550,"fecbcc":3551,"ebbcccc":3552,"bbcebcc":3553,"dfefc":3554,"bebedbe":3555,"bbebbbec":3556,"bddccc":3557,"bbfba":3558,"ebbffc":3559,"ebddbf":3560,"edbba":3561,"feebeee":3562,"bdbefc":3563,"addc":3564,"efbeebb":3565,"cccbec":3566,"eddbdc":3567,"eddccc":3568,"bbeebbbc":3569,"bbbdebc":3570,"bbedbbbb":3571,"dcecbe":3572,"dcda":3573,"ebebbdc":3574,"edcebbc":3575,"dedebc":3576,"efbebf":3577,"fcbeee":3578,"bbcceec":3579,"bbeca":3580,"fbbebec":3581,"ebefbf":3582,"bbcbbdc":3583,"eabbbb":3584,"bdcfbc":3585,"bcfbbbe":3586,"babcc":3587,"bfbeed":3588,"ebccebc":3589,"bbeebbebb":3590,"dcffc":3591,"bfeccc":3592,"ededbd":3593,"deedbd":3594,"ebbcbbbc":3595,"eccddc":3596,"eccdebb":3597,"fbddf":3598,"eccfee":3599,"ebbfbbbb":3600,"bdcded":3601,"bebebef":3602,"eebeedc":3603,"beceecc":3604,"eccebec":3605,"bbecbcc":3606,"bbecbbd":3607,"dcbbbbc":3608,"deebbbc":3609,"ecfeec":3610,"bfeef":3611,"bbfbbbf":3612,"ebfbbd":3613,"becfed":3614,"bbeeccc":3615,"ebbdebd":3616,"ebfeec":3617,"bceefc":3618,"eebcfc":3619,"ebccfc":3620,"abbebb":3621,"ebfebd":3622,"bbebebbc":3623,"abbbf":3624,"ebbfdd":3625,"dccebd":3626,"dcfebb":3627,"bfbcbf":3628,"bcdebec":3629,"dcbced":3630,"bddbbbc":3631,"edcfbc":3632,"dcbebf":3633,"dcbdbd":3634,"edcbfc":3635,"ecfdf":3636,"eeecccc":3637,"edcfcc":3638,"fbdef":3639,"deeff":3640,"ebcdfc":3641,"bcdeecc":3642,"bcdbbcc":3643,"eedea":3644,"bfdbb":3645,"ddeeee":3646,"bbbefbc":3647,"bccbecc":3648,"ccceec":3649,"bbbeba":3650,"deddec":3651,"ebbeebbbb":3652,"feebbf":3653,"ddfbe":3654,"dcbcf":3655,"deeddc":3656,"bebebebc":3657,"ebbfebc":3658,"feedf":3659,"befebd":3660,"bebdbbbb":3661,"bcdfcc":3662,"dcdbb":3663,"efbcf":3664,"dddebe":3665,"bbcbcbd":3666,"bbbbcbbbbc":3667,"bdbbecc":3668,"deebbec":3669,"bceebec":3670,"ebcbccc":3671,"edcbecc":3672,"bdcbbbc":3673,"bcbcbcc":3674,"ada":3675,"bdeba":3676,"bbebac":3677,"fecfc":3678,"bbdfbe":3679,"ebfbbbc":3680,"babba":3681,"bbeedf":3682,"adbf":3683,"dbebfc":3684,"bef</w>":3685,"eecebec":3686,"beeebbf":3687,"bebdbbc":3688,"becddc":3689,"aefc":3690,"fffcc":3691,"bebedf":3692,"dbbcbbbb":3693,"edbebbbb":3694,"babbf":3695,"fbbbecc":3696,"dcecbd":3697,"eccfbd":3698,"dbdebd":3699,"dedeec":3700,"edeedd":3701,"bcbebbee":3702,"ecbeef":3703,"dbdbcc":3704,"beecdd":3705,"dcbeebb":3706,"bbccdd":3707,"ebefebb":3708,"becfbd":3709,"ecbedf":3710,"ebbbbebd":3711,"befeec":3712,"edd</w>":3713,"ebbeeed":3714,"decbbf":3715,"bedbbbbc":3716,"bbceebd":3717,"bebcebd":3718,"ecbebbbe":3719,"bcbcef":3720,"fcbbbf":3721,"eebcebc":3722,"feebbbb":3723,"fcfed":3724,"bdcfec":3725,"bcbeebd":3726,"ccccccccc":3727,"feb</w>":3728,"ebccebe":3729,"dceebe":3730,"eebbdcc":3731,"bdcbebe":3732,"dcbbef":3733,"ffbbbc":3734,"beeeccc":3735,"dddbbbb":3736,"dbebcbc":3737,"dbcedc":3738,"dbefbc":3739,"bbbebfc":3740,"eceebbc":3741,"dccedc":3742,"eeeebbc":3743,"ffbfc":3744,"edecf":3745,"feebcc":3746,"babec":3747,"bbbbbbdc":3748,"bebcbbd":3749,"bbfebbc":3750,"ebcbbbbc":3751,"eceac":3752,"deedec":3753,"ddcef":3754,"ebdfcc":3755,"dceef":3756,"bbbbdbf":3757,"ebeeecc":3758,"eedebcc":3759,"bcecccc":3760,"bdeeebe":3761,"dfdbf":3762,"bbfbbebb":3763,"ecbcfc":3764,"ebceedc":3765,"eecdef":3766,"bbcfbe":3767,"debb</w>":3768,"ebfbbee":3769,"bdcdcc":3770,"edfa":3771,"bbcdef":3772,"debbdd":3773,"ebcbbdc":3774,"bcbedee":3775,"bcfdbc":3776,"ebcbeed":3777,"ebceeec":3778,"becfbe":3779,"edbbebd":3780,"eebebbbc":3781,"bdbbbdc":3782,"eebcbbbb":3783,"bfdebc":3784,"ebceccc":3785,"dcbedd":3786,"bccbeec":3787,"eecfcc":3788,"bbabbbb":3789,"ecbcccc":3790,"bbbbcbbbc":3791,"bbcbbbbbbbb":3792,"effed":3793,"ebdfbd":3794,"bceedbe":3795,"eadf":3796,"bdcbfc":3797,"edcbeec":3798,"bbcdbbc":3799,"bbfbbec":3800,"bbebbbbd":3801,"ecbebbd":3802,"bbedbf":3803,"bbbbcbbbe":3804,"ebbecf":3805,"feebbbe":3806,"befdbc":3807,"bbebbbebe":3808,"edfebc":3809,"bdcefc":3810,"bbed</w>":3811,"dbf</w>":3812,"ebfbeee":3813,"bdfdf":3814,"ecdea":3815,"ebcebdc":3816,"becbedc":3817,"bbbdbebe":3818,"ebcceec":3819,"badbe":3820,"ebccef":3821,"dcbcdc":3822,"aeeee":3823,"bbbcecc":3824,"ebecfc":3825,"ecacc":3826,"bbbbbeec":3827,"becceec":3828,"bcfbbd":3829,"bccddc":3830,"bdecdd":3831,"edbea":3832,"ebddebe":3833,"bbfedc":3834,"ebcdbbc":3835,"eddbbf":3836,"ebbbdbe":3837,"bbbcdbd":3838,"ebccdd":3839,"eeccccc":3840,"efbbdc":3841,"edeebf":3842,"fcbeed":3843,"babbd":3844,"dbcbbee":3845,"dfebbc":3846,"bebdbec":3847,"befecc":3848,"eebcdd":3849,"effebb":3850,"edbebec":3851,"bbbebbbbbbbb":3852,"bbeceec":3853,"dcecdc":3854,"efcdee":3855,"dedebe":3856,"ebecbbbb":3857,"beccbbc":3858,"ecdba":3859,"ebfedc":3860,"bfeebe":3861,"bbbdbcc":3862,"bcbcbcbcbcbcbcbc":3863,"bbfbcbc":3864,"daa":3865,"ecceeec":3866,"ffddc":3867,"ebbedbd":3868,"acea":3869,"becdef":3870,"febfcc":3871,"ebdbbcc":3872,"dccdbe":3873,"eeccfc":3874,"ebbedcc":3875,"ebfdbc":3876,"edbbecc":3877,"bbfdec":3878,"efcbcc":3879,"bbcea":3880,"ebeca":3881,"ebbcecc":3882,"ebdbeee":3883,"bbcfed":3884,"bbecbbbe":3885,"dbfa":3886,"edcdebb":3887,"bbceeec":3888,"bbdbcbd":3889,"bfecbe":3890,"ebbdecc":3891,"ebbeebbc":3892,"bbcbcec":3893,"ebdebcc":3894,"bdcbbee":3895,"bebeff":3896,"fccdd":3897,"dfbcbc":3898,"bbedbec":3899,"ecbcdd":3900,"fcbcec":3901,"bfbced":3902,"dffdc":3903,"bebcdee":3904,"beebbebe":3905,"ebbdbcc":3906,"decdbd":3907,"bcbedbc":3908,"eccfdc":3909,"dfbbcc":3910,"dfded":3911,"ecdeccc":3912,"bfbedc":3913,"befdee":3914,"bcfbdc":3915,"ebccbec":3916,"bbebbbbf":3917,"eeeefee":3918,"bbebbef":3919,"eccbbcc":3920,"decbeec":3921,"bebcbbbc":3922,"bdebbebb":3923,"bbdea":3924,"bebeebd":3925,"ebbfa":3926,"befbdc":3927,"ecdebec":3928,"eecea":3929,"ebbcdbc":3930,"edbfcc":3931,"bcbcbec":3932,"ecbcebc":3933,"bbbbbcbd":3934,"bfecbd":3935,"ebbbdcc":3936,"befbbbc":3937,"bbbddbc":3938,"afbe":3939,"dccdbc":3940,"fcbccc":3941,"dceedd":3942,"bebcdbe":3943,"fdbccc":3944,"bbec</w>":3945,"dbdbbbe":3946,"efcff":3947,"ebbecebb":3948,"bbcdebe":3949,"bbbdeec":3950,"decff":3951,"feca":3952,"bcfbfc":3953,"eebeebd":3954,"ecfebe":3955,"ebbb</w>":3956,"cccebe":3957,"ecbcbec":3958,"ddceec":3959,"bebcbbf":3960,"edbcdd":3961,"ebcbcee":3962,"bccba":3963,"dbebbcc":3964,"dccff":3965,"eebebbd":3966,"dbfdf":3967,"fbdbec":3968,"ebecdd":3969,"bcbebdc":3970,"bbbfbbf":3971,"deeedc":3972,"efbeebe":3973,"ecbbbfc":3974,"ebfbfc":3975,"dbebeec":3976,"dbbecbd":3977,"ebcfdc":3978,"eedfcc":3979,"bcdbecc":3980,"bfbcebb":3981,"bcbddd":3982,"ddcddc":3983,"ecdedcc":3984,"bbbeedc":3985,"bbeddf":3986,"bfeebf":3987,"bbcbeed":3988,"dcbbebe":3989,"dcfef":3990,"bbceecc":3991,"bdeeef":3992,"bbbcbbcc":3993,"bbbcbfc":3994,"eecdbbc":3995,"dbbbddd":3996,"ebbcdee":3997,"fccdf":3998,"bfbbfc":3999,"eccea":4000,"eeeebbf":4001,"eccbbbd":4002,"bcbeed":4003,"bccccccc":4004,"befbeee":4005,"fbcdee":4006,"feefee":4007,"ecbbebbc":4008,"bebebbebb":4009,"bbbffc":4010,"ebfdee":4011,"fbbebcc":4012,"ebfed":4013,"fbe</w>":4014,"bbcbcee":4015,"efdfc":4016,"efbeed":4017,"bebedbc":4018,"ebcfebb":4019,"beecbbbb":4020,"dcecee":4021,"deced":4022,"ebdebec":4023,"bbbcebbc":4024,"dbbecbe":4025,"bdefcc":4026,"beeebcc":4027,"efda":4028,"dedded":4029,"eccbedc":4030,"ebdecbc":4031,"ebebeef":4032,"bccebcc":4033,"bdbddd":4034,"ebbeedd":4035,"dbbebdc":4036,"efbbbbc":4037,"bdfbec":4038,"fcdeec":4039,"bbcbbef":4040,"efbeef":4041,"bbebebbbe":4042,"ecbbdcc":4043,"beccccc":4044,"bffbbc":4045,"bdcbebc":4046,"ebfbebc":4047,"eeceebd":4048,"bfcbbd":4049,"ddac":4050,"bbbbbbbbcc":4051,"bbbfbbbe":4052,"bcfdee":4053,"fedccc":4054,"bbfbbcc":4055,"bbbddee":4056,"bccdbf":4057,"becbeed":4058,"ebdea":4059,"ebbcbebe":4060,"bdbcbbbb":4061,"bcbeff":4062,"bdfdbe":4063,"bcdebcc":4064,"bbcecbc":4065,"ebffbc":4066,"dccbbbb":4067,"fccbf":4068,"edcbbbe":4069,"fecdee":4070,"bbcfbf":4071,"ebeac":4072,"fbdfc":4073,"efcdbe":4074,"ebecebc":4075,"dcdbcc":4076,"bdcbbbd":4077,"eecbbed":4078,"bceeccc":4079,"bebe</w>":4080,"beccebc":4081,"baff":4082,"eebb</w>":4083,"ddeccc":4084,"edcfee":4085,"edcbebe":4086,"bebbbccc":4087,"ebbbebec":4088,"dcdccc":4089,"dcedcc":4090,"bbceeee":4091,"fceecc":4092,"eefbbd":4093,"eeebbbbbb":4094,"dbcfbc":4095,"bcecbec":4096,"bceeebe":4097,"bcdea":4098,"ebdfed":4099,"bebbeecc":4100,"dbdff":4101,"eccbccc":4102,"bcbcebe":4103,"dddddd":4104,"edbbbcc":4105,"fcdfc":4106,"ebbbeebc":4107,"efeccc":4108,"bbecbebe":4109,"ebbecdc":4110,"ebecbcc":4111,"dbacc":4112,"bbeeebf":4113,"bceebbbb":4114,"edbcbbc":4115,"fcecbc":4116,"fcbcbd":4117,"eddbbbe":4118,"edbebcc":4119,"ddcebe":4120,"eddebf":4121,"efcebc":4122,"eadbe":4123,"dfac":4124,"beffcc":4125,"eebcbf":4126,"bdfbbbb":4127,"dcdedc":4128,"fcbbebb":4129,"bebcbebe":4130,"ddcbcc":4131,"dcdbbbb":4132,"ddcecc":4133,"ebbbdebb":4134,"dcbcbf":4135,"becbbbf":4136,"ddcbbc":4137,"bedebdc":4138,"dbcded":4139,"eecdecc":4140,"edcbbee":4141,"edbcfc":4142,"fcfbf":4143,"ebddebc":4144,"eefbdc":4145,"eebcccc":4146,"eebcef":4147,"bbcbebf":4148,"fcfbe":4149,"bdbebbbe":4150,"dbeebbc":4151,"ebdeebd":4152,"bcecdd":4153,"dbcdcc":4154,"eebeeec":4155,"dbdbbf":4156,"bedac":4157,"ebdbbed":4158,"bfbbebc":4159,"eeebeebe":4160,"ecdbbcc":4161,"fcbedc":4162,"bccfed":4163,"dedbbbb":4164,"dbcbef":4165,"bfffc":4166,"bbeeff":4167,"bebeeeee":4168,"edeced":4169,"dfbbbd":4170,"bbcbbebe":4171,"fbcbbd":4172,"edbcebc":4173,"feebec":4174,"bccbebd":4175,"bcfbbbc":4176,"bfbebbc":4177,"eebca":4178,"bbcbeebb":4179,"bbecbbf":4180,"bbbbfbe":4181,"ddbbebb":4182,"fcea":4183,"dbdbbbd":4184,"bccfbd":4185,"ecbbbbcc":4186,"fecff":4187,"bfdbec":4188,"bceeebc":4189,"ebbbebbd":4190,"fecdec":4191,"dcb</w>":4192,"eefba":4193,"bbdeebd":4194,"bcecdee":4195,"fcdebc":4196,"fbcdbe":4197,"bbfdbf":4198,"dbdecc":4199,"bcbbebec":4200,"ebefebe":4201,"edcbbbc":4202,"bfbba":4203,"bdcbef":4204,"bcbcbbbc":4205,"dcdebd":4206,"ebbcbbee":4207,"efceec":4208,"beeb</w>":4209,"bbdeecc":4210,"edcfed":4211,"bbecebd":4212,"beecdee":4213,"efeecc":4214,"ecfbbbb":4215,"bcbbefc":4216,"decbbbe":4217,"ebcbebf":4218,"debbbec":4219,"ecfebd":4220,"bebcecc":4221,"bbdebcc":4222,"fccbbc":4223,"dbeba":4224,"debbebe":4225,"bfebdc":4226,"fbedee":4227,"bfbbdd":4228,"bffebe":4229,"bfcccc":4230,"ebbebfc":4231,"bbbbbbbbbbbc":4232,"edbbeec":4233,"dcccccc":4234,"bbcdbbbb":4235,"eececbc":4236,"dceebf":4237,"dfbbec":4238,"edcebcc":4239,"ebbbdf":4240,"bceea":4241,"fbcbfc":4242,"eccdbf":4243,"beccef":4244,"dbdded":4245,"eefdee":4246,"feeeeee":4247,"ffdbf":4248,"bbbdebd":4249,"bbeeebd":4250,"cccebc":4251,"eefdbc":4252,"ebeeebf":4253,"bbbebeebb":4254,"decbebc":4255,"ebbbefc":4256,"bbdfed":4257,"dbebeee":4258,"ddeebd":4259,"eebbefc":4260,"fcac":4261,"ebedebe":4262,"bebbac":4263,"ede</w>":4264,"bbecbbbc":4265,"beecef":4266,"ebbbcdd":4267,"edcddc":4268,"ecfbdc":4269,"eaba":4270,"fbdbbc":4271,"edc</w>":4272,"becdebc":4273,"eccbeee":4274,"edceebd":4275,"cccbbbb":4276,"bfeeec":4277,"bececbc":4278,"ddeeec":4279,"dceced":4280,"eecfdc":4281,"eecbeed":4282,"bbbfa":4283,"ebeeebd":4284,"bbcca":4285,"ebefdc":4286,"dddfc":4287,"bfcdbc":4288,"eebedbc":4289,"ebccbbbb":4290,"bceedf":4291,"bbebbbbee":4292,"eccedcc":4293,"ebebeed":4294,"bccbbed":4295,"ffdec":4296,"eecbcbd":4297,"eecdeec":4298,"ebbcbdc":4299,"bbbfef":4300,"cccdf":4301,"ebbdbbbe":4302,"bbaa":4303,"bdbea":4304,"dbbbdbbbb":4305,"dbbcbbc":4306,"fdeccc":4307,"bbdeeec":4308,"babca":4309,"ebedebc":4310,"bcbebbec":4311,"ecbeddc":4312,"bbddbbbb":4313,"ebbbded":4314,"edcebec":4315,"eccdebc":4316,"bbeedbc":4317,"ebbebbcc":4318,"bddddd":4319,"fdbbbbc":4320,"deebebc":4321,"bbebbebc":4322,"beccfc":4323,"efcbbbb":4324,"ebbecbf":4325,"ebbbcebe":4326,"eebedbe":4327,"def</w>":4328,"bbebba":4329,"bddbbee":4330,"dccdec":4331,"bbbfbec":4332,"fbeba":4333,"bdebecc":4334,"ecebdcc":4335,"fdebdc":4336,"edebfc":4337,"beeca":4338,"bbecbbec":4339,"ebbbea":4340,"edeebbc":4341,"dbbbdbc":4342,"deddbd":4343,"edfecc":4344,"bbfbeee":4345,"bbeda":4346,"eeceedc":4347,"efcdec":4348,"bcecbbc":4349,"bbbcbef":4350,"ecccdd":4351,"fdcdf":4352,"ddcdf":4353,"becbeebb":4354,"eebeea":4355,"dbefcc":4356,"ebcfbf":4357,"ebbcff":4358,"edbcef":4359,"ecbedee":4360,"bbbedebb":4361,"ebbbdbf":4362,"bbeebdc":4363,"dccbdc":4364,"dbcebf":4365,"eedebec":4366,"edfbec":4367,"dbcbebc":4368,"beecdec":4369,"bfcecc":4370,"dbdbebe":4371,"bfbeebe":4372,"ebbecee":4373,"bdfccc":4374,"bfcbbbc":4375,"ecbbba":4376,"ddb</w>":4377,"ebedef":4378,"ebccccc":4379,"bbdbeebb":4380,"edbebbd":4381,"ddbcbd":4382,"ecbeeec":4383,"dbcbcbc":4384,"eccdecc":4385,"fecdbe":4386,"ebbeba":4387,"bfbdbd":4388,"eccebdc":4389,"ebbcebbc":4390,"eecceec":4391,"bfbbbec":4392,"ebebebbbb":4393,"ebcbbebe":4394,"eccba":4395,"fbda":4396,"bbdcbbbb":4397,"ebefef":4398,"ddcbec":4399,"bcecdf":4400,"bbbebbed":4401,"beeebec":4402,"fbcebd":4403,"bdfbcc":4404,"ebeeccc":4405,"fcdbbc":4406,"bcbeedc":4407,"bcbedec":4408,"bbbebebbbb":4409,"eebcbcc":4410,"dcdbbd":4411,"eebeba":4412,"fbefcc":4413,"ebebedc":4414,"bbbdbdc":4415,"feedbe":4416,"bcbca":4417,"bbbbbbbbbbbbbbbbbbbbbbbb":4418,"eaccc":4419,"eeecbbc":4420,"bbdb</w>":4421,"eebcdf":4422,"eebedf":4423,"bbbedec":4424,"deebef":4425,"bbbbded":4426,"ddfbf":4427,"fcca":4428,"fccff":4429,"fbebecc":4430,"bbbcfbc":4431,"ecbebbf":4432,"bdbac":4433,"eefebd":4434,"bebcff":4435,"dcbdcc":4436,"bfcfbc":4437,"fbebbcc":4438,"bebddf":4439,"ebbeebbee":4440,"bfbdcc":4441,"bfcebd":4442,"becca":4443,"bebeba":4444,"bceeeec":4445,"bbdfbf":4446,"efcccc":4447,"bbeddbe":4448,"ddbbdc":4449,"eefeec":4450,"bbdeeee":4451,"eceedbe":4452,"deffc":4453,"ebecdf":4454,"bdbebcc":4455,"bfcdec":4456,"dbfbec":4457,"bdbedbe":4458,"ebcecbd":4459,"defccc":4460,"ddecbc":4461,"eebceec":4462,"babea":4463,"bbebb</w>":4464,"edcbef":4465,"dddebc":4466,"ebebcebb":4467,"bbdbeed":4468,"fbd</w>":4469,"bccdebb":4470,"bbecdbc":4471,"dbfbbbb":4472,"bbebebebe":4473,"eebbfcc":4474,"bfbeef":4475,"eebebbebb":4476,"deebebe":4477,"edcbebd":4478,"ebbcbbbd":4479,"bebd</w>":4480,"fbc</w>":4481,"bfbebbbb":4482,"bebcdc":4483,"fedbec":4484,"bfecf":4485,"fcbbdc":4486,"effebe":4487,"bedbccc":4488,"ccca":4489,"fccbcc":4490,"bcffcc":4491,"dbddec":4492,"bdcfee":4493,"bbffbd":4494,"ebebced":4495,"bbeedee":4496,"ebdbbebb":4497,"bbcbcbe":4498,"dbeded":4499,"babbbc":4500,"fbcecc":4501,"bbbbfbd":4502,"bbbebebd":4503,"bcfdbd":4504,"bbbbbbbec":4505,"ebcbced":4506,"ddca":4507,"ebddbbc":4508,"dcdbdc":4509,"bbeebef":4510,"edecbf":4511,"ebceeee":4512,"dbcbbbd":4513,"bceebcc":4514,"fdddd":4515,"bceedee":4516,"fbcbbbe":4517,"bfcbdc":4518,"ecbedbd":4519,"eebbebec":4520,"bbcbbdd":4521,"bbffcc":4522,"ebcbeebb":4523,"ebddef":4524,"bbebeebe":4525,"ecbebbbc":4526,"fbbeecc":4527,"ebbbbeec":4528,"bbbfebe":4529,"ebfeeee":4530,"ecccecc":4531,"bfcbbbe":4532,"ebcac":4533,"fbeedc":4534,"bbeddee":4535,"bbcbedc":4536,"bcbcdf":4537,"efbced":4538,"beecbcc":4539,"efebdc":4540,"bebcdec":4541,"efcebe":4542,"abdbf":4543,"efdebe":4544,"ddbeed":4545,"ebbcedc":4546,"bbeeeec":4547,"dedbdc":4548,"efdbec":4549,"dbebecc":4550,"dbbdbbbb":4551,"ebbbebbf":4552,"fbcfbc":4553,"becbbbbc":4554,"ddbccc":4555,"bcfdec":4556,"edbcebe":4557,"efeeebe":4558,"ebbcbebc":4559,"eebcbbf":4560,"fbbac":4561,"bbdbbbbbbbb":4562,"efeef":4563,"ddda":4564,"fdcccc":4565,"efeebd":4566,"ddcebc":4567,"bdbbbbcc":4568,"becbbdc":4569,"bcbcebc":4570,"feceec":4571,"edfbcc":4572,"ebbcdec":4573,"bcbcdee":4574,"debba":4575,"bcfbebe":4576,"dbedbf":4577,"bebda":4578,"bbccbbcc":4579,"bfecbf":4580,"cccff":4581,"bcbbfcc":4582,"eebbebcc":4583,"ebbbdee":4584,"bbebbbbbbbbbb":4585,"defa":4586,"dddbb":4587,"bbecdc":4588,"acda":4589,"bcfbbee":4590,"ebefed":4591,"bbdbbebe":4592,"dbbbbbbc":4593,"eceebcc":4594,"dbdbbbc":4595,"befbfc":4596,"ecccfc":4597,"eebcecc":4598,"fecebc":4599,"eecdebe":4600,"bbccebd":4601,"ebbeced":4602,"dbebbebb":4603,"bbecdec":4604,"beeefee":4605,"efeebf":4606,"bcccbcc":4607,"bdcebec":4608,"dccbbd":4609,"beccecc":4610,"bebeedc":4611,"becea":4612,"bbedebe":4613,"eecda":4614,"bbbbbdbd":4615,"bbeeeeee":4616,"bbecbebc":4617,"bdbeebc":4618,"bbccbbd":4619,"badee":4620,"afbf":4621,"bfeeebb":4622,"baebc":4623,"dbeddc":4624,"dcbbfc":4625,"becdbec":4626,"fbcdec":4627,"efdebc":4628,"dccdbd":4629,"dedbbd":4630,"dbcbfc":4631,"bbbbeebc":4632,"fffbd":4633,"fceeec":4634,"eeceeec":4635,"ddbbbf":4636,"aeba":4637,"beceebd":4638,"effdd":4639,"eadee":4640,"ebbdbbf":4641,"becdeec":4642,"fccebc":4643,"eceeecc":4644,"ededbf":4645,"ebbbcef":4646,"baccc":4647,"bbccbbbc":4648,"dbedebb":4649,"beeeebc":4650,"bdbebbd":4651,"edebbcc":4652,"ddcdee":4653,"bcceeec":4654,"eecbbdc":4655,"befbebc":4656,"ececbbc":4657,"bdacc":4658,"beeeff":4659,"becbcec":4660,"bcceebd":4661,"debebbc":4662,"bcebdcc":4663,"bdbcbbc":4664,"bbbefee":4665,"bdceecc":4666,"bfbcdc":4667,"efbcbe":4668,"beeedc":4669,"bbbebbebe":4670,"edceedc":4671,"fbbbccc":4672,"fccecc":4673,"ddfdd":4674,"debbebc":4675,"bbbbbccc":4676,"dedecc":4677,"dedbeec":4678,"eeebdcc":4679,"ddbcee":4680,"dbbeccc":4681,"beeeecc":4682,"eaff":4683,"bbbbbbbcc":4684,"ebedfc":4685,"bbbfff":4686,"ecdebdc":4687,"ebfbbbd":4688,"bffa":4689,"bbbbbebf":4690,"deddcc":4691,"debbfc":4692,"ddbcec":4693,"ebeeef":4694,"bbdecbc":4695,"bebeeec":4696,"ebbbebbee":4697,"ecfdbe":4698,"bebc</w>":4699,"edbeebd":4700,"bddbfc":4701,"bccdef":4702,"ebfdec":4703,"bbbfbbbc":4704,"beeceec":4705,"fbedec":4706,"bbedebc":4707,"bccffc":4708,"cccdcc":4709,"bebebcbc":4710,"dcecbf":4711,"bcfbef":4712,"dbcfee":4713,"bebebbcc":4714,"eeeebef":4715,"bbeebebc":4716,"dcbbebc":4717,"dceeebb":4718,"bdcdbf":4719,"bbbbdbbc":4720,"efbcbf":4721,"beceeec":4722,"bdcddc":4723,"cccdee":4724,"beccedc":4725,"ebfba":4726,"afed":4727,"bbbebeec":4728,"ebbbbbbcc":4729,"bbffec":4730,"bdbedf":4731,"bbbbfbf":4732,"bbcfdc":4733,"eeccebc":4734,"bbdbebf":4735,"edfdf":4736,"efbedc":4737,"edbedbe":4738,"ebddfc":4739,"ebbbcfc":4740,"bbeeecc":4741,"dcbcdd":4742,"bdceebc":4743,"fee</w>":4744,"bedeccc":4745,"fcfdc":4746,"ebcbbdd":4747,"ebbbcebc":4748,"ecbcbcc":4749,"bebbeccc":4750,"bbeebbec":4751,"bbcfebb":4752,"eeccecc":4753,"beeebef":4754,"fbebbec":4755,"edeba":4756,"fbebbebb":4757,"dcbded":4758,"ebccbf":4759,"adebb":4760,"becbccc":4761,"defdf":4762,"eecbccc":4763,"bbccdf":4764,"dbcbbec":4765,"bdbebbf":4766,"edecebb":4767,"ebbcebf":4768,"bdbebbbc":4769,"ddcdbe":4770,"bebebbbd":4771,"eef</w>":4772,"ebccbcc":4773,"eedbccc":4774,"dcbeef":4775,"ebebebbc":4776,"dbfff":4777,"bbbbcbcc":4778,"eecca":4779,"ebbbbecc":4780,"bbbbbbebc":4781,"edcdebc":4782,"dbddcc":4783,"bdfbbf":4784,"dddbbd":4785,"ebcca":4786,"bebdebc":4787,"ecfbbf":4788,"bbcdebc":4789,"ececdf":4790,"eeebeeeee":4791,"ebccebd":4792,"dcedbd":4793,"beeebbbc":4794,"efecbd":4795,"bfcebf":4796,"fbcdbc":4797,"bcbeebf":4798,"ebccecc":4799,"bdcebbc":4800,"bdcbbec":4801,"bfcbebc":4802,"beeeebf":4803,"bdfecc":4804,"bfcbef":4805,"dbfccc":4806,"ebbfbec":4807,"ebbdedc":4808,"efeeef":4809,"efcdbc":4810,"dddecc":4811,"ebbbfcc":4812,"ebbbddd":4813,"dbdbdbd":4814,"bbccecc":4815,"acbbc":4816,"acdf":4817,"eeccbbc":4818,"ffba":4819,"fed</w>":4820,"bbbf</w>":4821,"debbdf":4822,"beeddf":4823,"beebfcc":4824,"bdfdbc":4825,"debbbbbe":4826,"bbbbdcc":4827,"beeeba":4828,"eeccbec":4829,"befba":4830,"bbbbcbec":4831,"dbebebd":4832,"bbebbbbbd":4833,"abeec":4834,"eecebdc":4835,"bbdbcec":4836,"bbccbbbe":4837,"ddcdcc":4838,"acdd":4839,"eefea":4840,"bbbbbcbe":4841,"decbef":4842,"fbedcc":4843,"bdcbebd":4844,"bbeeba":4845,"fec</w>":4846,"eefbbbc":4847,"ebebbdd":4848,"feeebf":4849,"bcbbbccc":4850,"bbccdbe":4851,"ebecbf":4852,"bdbbebf":4853,"deeebbc":4854,"beebbbbbe":4855,"bbedef":4856,"ebbbebcc":4857,"eecdbec":4858,"dbfdbe":4859,"beebbbbc":4860,"dedebd":4861,"bbbbbcbbc":4862,"ffbcbc":4863,"eececcc":4864,"deeebf":4865,"deebcbc":4866,"bccbbebb":4867,"bbdfebb":4868,"ebecef":4869,"bdbbedc":4870,"ebccedc":4871,"ddcdbd":4872,"bdcbeec":4873,"ebbdbdc":4874,"bbfbeec":4875,"dbbbbbbbd":4876,"ecbedec":4877,"bbbbbecc":4878,"edefcc":4879,"deeba":4880,"dcbeebe":4881,"eabec":4882,"bdbb</w>":4883,"bddefc":4884,"cccedc":4885,"fbebbbf":4886,"bbbbcbbd":4887,"ebcdeec":4888,"eecbbebb":4889,"beebba":4890,"eceea":4891,"ebebba":4892,"dbbecec":4893,"fecdbc":4894,"bbfdcc":4895,"ddcccc":4896,"eeeeebf":4897,"edeeebe":4898,"bebcedc":4899,"bdbbccc":4900,"bbbbbbef":4901,"edfeec":4902,"beceedc":4903,"fbebbbd":4904,"bfecec":4905,"bcbbea":4906,"bdcfbd":4907,"ebeebdc":4908,"eebcebd":4909,"feebef":4910,"bbfefc":4911,"beeedbc":4912,"ddeedc":4913,"fcdebe":4914,"bebeebbc":4915,"ecfdbc":4916,"bccbbbf":4917,"bfdbbd":4918,"ebebcf":4919,"ddbedc":4920,"dfea":4921,"bdcfcc":4922,"bfcbfc":4923,"ecbcecc":4924,"efbba":4925,"ebebbebc":4926,"dddbec":4927,"dbdedc":4928,"effa":4929,"ddcdbc":4930,"dedbbec":4931,"ebcbedd":4932,"ebbbdbbbb":4933,"bbbebecc":4934,"fceccc":4935,"becbcbd":4936,"ebdbbdc":4937,"becdfc":4938,"bfdeec":4939,"ebdbedc":4940,"eeeca":4941,"dbfbcc":4942,"ebebdbd":4943,"bbdbccc":4944,"bbdfdc":4945,"ebffcc":4946,"eebcedc":4947,"bbbcdec":4948,"becdbbc":4949,"da</w>":4950,"bcbbbecc":4951,"eeccedc":4952,"bebbbbbbc":4953,"ededdc":4954,"edfbbbb":4955,"dbebbed":4956,"ebfbcbc":4957,"ebbfbcc":4958,"bbfbbef":4959,"bbdbcee":4960,"ebbcfbc":4961,"bbdcbbc":4962,"fcda":4963,"dbbbdcc":4964,"bbbbbcebb":4965,"efeeebb":4966,"ebcdbec":4967,"eebbbecc":4968,"cccccccccc":4969,"eeeeff":4970,"ebeeeef":4971,"becdebe":4972,"bbdbedc":4973,"bbffbf":4974,"bbecff":4975,"bebfbbc":4976,"bbbacc":4977,"ebfdbd":4978,"dcfebc":4979,"bbbcbeee":4980,"dbbbded":4981,"dcbcebb":4982,"fbeea":4983,"edecee":4984,"eebcbedf":4985,"bbbbefc":4986,"fbdff":4987,"fecded":4988,"abbed":4989,"eddbbbc":4990,"eebddd":4991,"ebecccc":4992,"eccbcec":4993,"bbeefee":4994,"ebbeea":4995,"eccecdc":4996,"fecbbbb":4997,"ebbbbbdc":4998,"efeeec":4999,"eddebbc":5000,"beecfc":5001,"bebdbf":5002,"bdfebd":5003,"befdbd":5004,"bbbdff":5005,"bcfdcc":5006,"ebbbcbec":5007,"fedbbc":5008,"eddefc":5009,"dbbcccc":5010,"bcccbccc":5011,"dcbcef":5012,"bcbebfc":5013,"bebbebdc":5014,"bbdbbef":5015,"beecebc":5016,"fdbdcc":5017,"bbbedcc":5018,"bebcdbc":5019,"bddebbc":5020,"feebdc":5021,"dcfebe":5022,"bebdfc":5023,"decedc":5024,"eecbcec":5025,"bbbdccc":5026,"bbdcdd":5027,"bddba":5028,"eecdedc":5029,"aebec":5030,"beecdbe":5031,"dbbbbbbbbbbbb":5032,"bceeecc":5033,"bdbeebd":5034,"befedc":5035,"bbebbfc":5036,"bdbcdd":5037,"eedeccc":5038,"bbebbbcc":5039,"eebdbbc":5040,"efcded":5041,"eebcebe":5042,"dbbcdd":5043,"bebefee":5044,"eabcc":5045,"bcbcbebc":5046,"dbfebe":5047,"defbbc":5048,"fdcef":5049,"eebcdbe":5050,"bbbbbebbc":5051,"edecbbc":5052,"efcecc":5053,"ebbeebbbe":5054,"befdec":5055,"beeedbe":5056,"fbedbd":5057,"eefdcc":5058,"ebecebd":5059,"fbdccc":5060,"edecdd":5061,"eddbbee":5062,"bbccbbf":5063,"eedebdc":5064,"bebbbbbbbe":5065,"fbcbbbc":5066,"bdbeccc":5067,"bebebeebb":5068,"ebcdecc":5069,"bcfebbc":5070,"bcccfc":5071,"eeecbec":5072,"bdbeecc":5073,"bdfdee":5074,"ebfdcc":5075,"ddcbf":5076,"efbbdd":5077,"effbbc":5078,"bebebbec":5079,"bcbedbd":5080,"bbeeebbc":5081,"ebecebe":5082,"ebbecbbc":5083,"eabbbe":5084,"ebbbddc":5085,"fccedc":5086,"fbcfec":5087,"bdfeec":5088,"bebebfc":5089,"bcbceec":5090,"ebcbbef":5091,"bbbfdd":5092,"dcc</w>":5093,"ebbfbbd":5094,"ecbcbf":5095,"eceedcc":5096,"ebbfecc":5097,"bbbcba":5098,"edeeef":5099,"dcecf":5100,"edceccc":5101,"dfcdf":5102,"eebbac":5103,"becebdc":5104,"dbbedbd":5105,"dfcfc":5106,"dbefee":5107,"bbbfbcc":5108,"ebfebbc":5109,"ecbcdf":5110,"dcfbbc":5111,"eddeecc":5112,"bbbfdf":5113,"beecbebc":5114,"fbdebc":5115,"eeecdd":5116,"edcbbec":5117,"bbbbcbf":5118,"ebdfdc":5119,"bbbbcbbbbbbbb":5120,"dedbebc":5121,"fbfbbc":5122,"bbbcbbbbbbbb":5123,"debbbf":5124,"bebdef":5125,"ededbc":5126,"babdc":5127,"bceeef":5128,"ecf</w>":5129,"bcbcbbf":5130,"debbef":5131,"beccebe":5132,"fdb</w>":5133,"decbbec":5134,"ebecbbbe":5135,"dfcdd":5136,"befebbc":5137,"efcbdc":5138,"fbcbdc":5139,"bcbbbbbbc":5140,"eecbedd":5141,"deebeec":5142,"bbedfc":5143,"eebebbebe":5144,"bbccff":5145,"fbeebbc":5146,"debbdbe":5147,"eceedf":5148,"bdebccc":5149,"ecbbefc":5150,"ebcbcdc":5151,"bcccbbc":5152,"ebbbdec":5153,"bbeebbbd":5154,"eebefcc":5155,"ebecdbe":5156,"beeddd":5157,"bdfbbd":5158,"ecffcc":5159,"bcecdbe":5160,"ecbcebe":5161,"fcbeebb":5162,"ebecdbc":5163,"bcdac":5164,"dcbebbc":5165,"dcbdee":5166,"ddcdec":5167,"ebbfbbbe":5168,"bbbbfebb":5169,"eeebbebe":5170,"bcdbbbbc":5171,"beeebbebb":5172,"ebbfebd":5173,"ecbefcc":5174,"bcbdbbc":5175,"bbececc":5176,"afdc":5177,"ebbbedbe":5178,"bcfbebc":5179,"bbbbea":5180,"bbbbfec":5181,"dbbbbbbbe":5182,"ebccdf":5183,"eeccdd":5184,"dedff":5185,"ebcdebd":5186,"bcccdd":5187,"fbebccc":5188,"bbbbbba":5189,"bcbcbbbe":5190,"eebedcc":5191,"dbbbdebb":5192,"fceedc":5193,"eebcdbc":5194,"ebbbfbf":5195,"bbfbbed":5196,"ebeceec":5197,"edcfbd":5198,"deefbc":5199,"bfeedc":5200,"dcecdd":5201,"bedb</w>":5202,"bfdbcc":5203,"eebcbbd":5204,"debbccc":5205,"bbbbcbbbd":5206,"beedbec":5207,"bbbbeeee":5208,"dbdddc":5209,"bcbebbbd":5210,"ececbcc":5211,"ebebbbec":5212,"bebcebbc":5213,"dadd":5214,"deebfc":5215,"bcbcdbe":5216,"ebbfbbf":5217,"ebdeccc":5218,"eedac":5219,"fceebd":5220,"eecfbe":5221,"abebd":5222,"efbbfc":5223,"decbbbc":5224,"bfbcef":5225,"efbbebc":5226,"beccbcc":5227,"bceebbf":5228,"ebecbbd":5229,"edbcbbbb":5230,"beeedf":5231,"beeebdc":5232,"eccac":5233,"bdbbdcc":5234,"fecbdc":5235,"befbbec":5236,"eccbbed":5237,"dbcebbc":5238,"ecbebbee":5239,"ffcdf":5240,"eceefc":5241,"bcbcbbd":5242,"debbbbf":5243,"debbbbd":5244,"ebebbfc":5245,"bbcac":5246,"deebbbd":5247,"eeecdf":5248,"ebebdcc":5249,"efcebd":5250,"bfedcc":5251,"babebe":5252,"ffbbec":5253,"dedbbf":5254,"eddbfc":5255,"dcbddc":5256,"dbefbd":5257,"edcdbf":5258,"efcbebc":5259,"ffbbcc":5260,"ebfbbcc":5261,"eebcbbbe":5262,"bfedbd":5263,"bccbbbbc":5264,"bbbfebc":5265,"ecbcef":5266,"eebeebbc":5267,"eceedbc":5268,"badbc":5269,"bccea":5270,"deedbf":5271,"ecbcbbbb":5272,"bcbedcc":5273,"bebefbc":5274,"bcdbbbd":5275,"ebeda":5276,"edcea":5277,"ebedbbbb":5278,"bbefbbc":5279,"bcbebbcc":5280,"bfbcbbc":5281,"edfbbd":5282,"ebbbebbbc":5283,"eccecbd":5284,"cccdbe":5285,"deebbcc":5286,"dcbdbc":5287,"ebeecbd":5288,"edceeec":5289,"ebbbbccc":5290,"ebbdbbbc":5291,"ebcbcf":5292,"bceddd":5293,"ebbcdbd":5294,"bbdcbec":5295,"bfeeebe":5296,"edeea":5297,"edbeeec":5298,"bbbbebcc":5299,"befbbebb":5300,"fcbcf":5301,"ebbcbbec":5302,"bdbeeec":5303,"bfbbbcc":5304,"dcbddd":5305,"ecbceec":5306,"bbbbcbbf":5307,"ebbbbebf":5308,"beecdbc":5309,"beebbbebe":5310,"dccbbf":5311,"fdddf":5312,"dcdddd":5313,"edcbcbc":5314,"bbbfbbd":5315,"eccdfc":5316,"eccbeed":5317,"fecbbf":5318,"eeccef":5319,"ebdeedc":5320,"eeebba":5321,"bfbfcc":5322,"fcebdc":5323,"bcbebbebb":5324,"edbebbbe":5325,"bbbbfcc":5326,"dbbbdee":5327,"ebcecdc":5328,"efcbbf":5329,"bbbbcdd":5330,"feda":5331,"edeefc":5332,"dbbd</w>":5333,"fbfef":5334,"ebedbec":5335,"ebeeeec":5336,"beeebbd":5337,"babbee":5338,"bfcdbd":5339,"debbbcc":5340,"ebebcbf":5341,"dfbecc":5342,"bcf</w>":5343,"edfebd":5344,"ebdbeed":5345,"bdcbcbc":5346,"fbdeec":5347,"ebdebdc":5348,"ecbeff":5349,"eedcccc":5350,"bbdddbd":5351,"dddeec":5352,"bdfebf":5353,"eddebcc":5354,"dccfec":5355,"ecfbbd":5356,"eedbbbd":5357,"dccded":5358,"ddd</w>":5359,"ebcda":5360,"bcbbebcc":5361,"ebdeeec":5362,"afa":5363,"bebdeec":5364,"defbcc":5365,"febbbbc":5366,"fbcbebe":5367,"bbbbbbbbbbbe":5368,"ddebdc":5369,"decbebe":5370,"ebdbcbd":5371,"ecbeebf":5372,"bcecfc":5373,"dbcfec":5374,"efbdbd":5375,"defdc":5376,"edbedf":5377,"ebdbbbf":5378,"bdbedee":5379,"dbefec":5380,"bbbddbbbb":5381,"edcecbc":5382,"bbbcbbbf":5383,"ebccff":5384,"ddcff":5385,"eebebbec":5386,"bceebbbe":5387,"beedbbc":5388,"ddcbdc":5389,"dbbbdbf":5390,"befdbf":5391,"fbcbebc":5392,"bbddbbc":5393,"edcbbbd":5394,"eebebbbd":5395,"bdbebbee":5396,"bccfdc":5397,"eebebbcc":5398,"fbcebf":5399,"bebddbe":5400,"bfecdc":5401,"fcbebf":5402,"bccbedc":5403,"efffc":5404,"bbdac":5405,"befbbbd":5406,"bcbc</w>":5407,"ecfbfc":5408,"bffbbd":5409,"bdceebd":5410,"bbdcebe":5411,"edbeccc":5412,"eceeebc":5413,"feeba":5414,"decbfc":5415,"fceeee":5416,"eabbf":5417,"ebecdee":5418,"fccfec":5419,"bbabbc":5420,"fffec":5421,"befdcc":5422,"bceedbc":5423,"bebbcbbbb":5424,"efbcebb":5425,"bedcccc":5426,"fcbced":5427,"bbbeeeee":5428,"debbeec":5429,"eefdbd":5430,"dbbecbf":5431,"bcbdbbbb":5432,"edcbedc":5433,"dbbbbbbd":5434,"ebbbebdc":5435,"ebdfebb":5436,"dddbcc":5437,"ffbebc":5438,"bebdbbbe":5439,"ecbbfcc":5440,"dbfbbf":5441,"eefbfc":5442,"bdcbecc":5443,"bbebebbee":5444,"fcbbbbc":5445,"bdcfed":5446,"debbbbbc":5447,"bcfbbec":5448,"bfbdbf":5449,"ebdfbe":5450,"fffbf":5451,"eebda":5452,"ebebcdc":5453,"dbcbeee":5454,"ebecbbbc":5455,"dcbefc":5456,"debebbbb":5457,"dbfebc":5458,"ebdbcec":5459,"dfbeee":5460,"ffbeee":5461,"ddcbbbb":5462,"ebbbdbbc":5463,"dcfa":5464,"befeeee":5465,"ececbec":5466,"ffefc":5467,"bffbbbb":5468,"febbbbbb":5469,"bfcded":5470,"deecdf":5471,"adef":5472,"bfcbbec":5473,"bbbecbbc":5474,"decbecc":5475,"eebdebc":5476,"abccc":5477,"bdeac":5478,"ebbedbc":5479,"ddbddd":5480,"bfbefc":5481,"abecc":5482,"ededdd":5483,"ecceedd":5484,"ebfbbbf":5485,"aeebc":5486,"bcdbccc":5487,"eefbebc":5488,"eccfdd":5489,"bcceeee":5490,"babbbd":5491,"bdcbeee":5492,"eecbbbf":5493,"bbcbbebc":5494,"bbfea":5495,"acbec":5496,"bdeebec":5497,"bffebc":5498,"ebdbdbd":5499,"bcceedc":5500,"dfebcc":5501,"feedbc":5502,"bbbbcebe":5503,"bbefbbbb":5504,"ebdbbdd":5505,"bcfefc":5506,"edbeedc":5507,"bdcbbed":5508,"bdbcfc":5509,"dffbf":5510,"ebecbbf":5511,"ebbeddc":5512,"edcdecc":5513,"feeebc":5514,"efbdcc":5515,"bccbbdc":5516,"bbebbdd":5517,"bbbbbbbbbbbbbbbbbbbbbbbbbbbbbbbb":5518,"edebecc":5519,"edcdfc":5520,"bebedee":5521,"bbbeea":5522,"bbbedbf":5523,"eebdbec":5524,"fdcdd":5525,"feeecc":5526,"ebbbeebd":5527,"ebececc":5528,"bbbecbbbb":5529,"eebcdc":5530,"bdbebdc":5531,"ebffec":5532,"ddcded":5533,"fedbcc":5534,"dfeccc":5535,"bedcbec":5536,"beecded":5537,"fbdbbbb":5538,"bceeeecc":5539,"bdbbba":5540,"ecdac":5541,"bbefdd":5542,"ebfbbec":5543,"efcbbd":5544,"feebbd":5545,"efeebe":5546,"efdeec":5547,"dbdfbc":5548,"bdfbdc":5549,"bbebbbebc":5550,"ecbcdee":5551,"bbeebeebb":5552,"ebecdec":5553,"bbbbbbbbbbc":5554,"fcbcbf":5555,"bbeddbc":5556,"bebddee":5557,"ecdbccc":5558,"ebcbcbe":5559,"ebcbdbd":5560,"dcbba":5561,"dbbcbec":5562,"febba":5563,"cccdec":5564,"befbcbc":5565,"eecbeebb":5566,"bbffbe":5567,"befea":5568,"bbccbdc":5569,"dbbbbbbbc":5570,"ddcbbd":5571,"ecbcebd":5572,"fbbebdc":5573,"bebcded":5574,"acfc":5575,"bcecdec":5576,"ecbddd":5577,"eedbbbbc":5578,"bbccdbc":5579,"beebeebe":5580,"dbedef":5581,"bebdbbd":5582,"eccbedd":5583,"bfbedd":5584,"ebbcbfc":5585,"bebfbbbb":5586,"bbcbcbf":5587,"beecbbbc":5588,"feddc":5589,"baebf":5590,"bccbcee":5591,"ebecbdc":5592,"eebebbbf":5593,"debedd":5594,"eccedbd":5595,"ddcebd":5596,"bbedbbd":5597,"bddeecc":5598,"eccdef":5599,"bbccedc":5600,"bcebbbbbb":5601,"bfbdbc":5602,"edeebcc":5603,"bbeefbc":5604,"eebddf":5605,"efbebbc":5606,"eccbbdc":5607,"ecbcbbf":5608,"fdcbec":5609,"ebceedd":5610,"bbebcbbbb":5611,"bcfdbf":5612,"debcbec":5613,"bebcbdc":5614,"eebdfc":5615,"ebcecec":5616,"eefdec":5617,"abbbbc":5618,"bebdebe":5619,"bfcdcc":5620,"fbedebb":5621,"bcbebecc":5622,"bfeeef":5623,"baea":5624,"ecbbebec":5625,"bdeebbbb":5626,"efdbb":5627,"beccdf":5628,"eccdebe":5629,"bbbdbbebb":5630,"eccceec":5631,"bdeefc":5632,"ebbecdd":5633,"ebcffc":5634,"dbebccc":5635,"eebcbdc":5636,"bfbded":5637,"dcd</w>":5638,"bbcbbfc":5639,"dbfdee":5640,"dbdbbee":5641,"bccbcec":5642,"fbffc":5643,"ebdbccc":5644,"abcbd":5645,"afebb":5646,"bebebbebe":5647,"bbfdebb":5648,"bbedccc":5649,"ecfbbbc":5650,"eebbeecc":5651,"ebbfeec":5652,"fecdcc":5653,"ecfebf":5654,"eebcdec":5655,"edbbedc":5656,"beecebe":5657,"fbfccc":5658,"eebcdee":5659,"bcbefcc":5660,"ebbcbef":5661,"ecfdec":5662,"bffdf":5663,"edcba":5664,"bbeebbebe":5665,"dbdbef":5666,"ebdcbbc":5667,"eecbbbbc":5668,"bdcdebb":5669,"eeceeee":5670,"edcdef":5671,"ebccdbe":5672,"bfeeed":5673,"bdbdbbbb":5674,"bbbcded":5675,"debcdf":5676,"bcbcff":5677,"fececc":5678,"fdcfc":5679,"ecfdcc":5680,"ebdda":5681,"bbfbbbbc":5682,"dbdbebc":5683,"bebffc":5684,"eebebfc":5685,"beecbbd":5686,"beccdd":5687,"fedef":5688,"bbbcfee":5689,"dbbbbdd":5690,"ecfbbbe":5691,"ebbeebebe":5692,"ebcbcebb":5693,"bfebfc":5694,"bebcbbee":5695,"bbedeec":5696,"ecbca":5697,"bcdebdc":5698,"bccbeed":5699,"deeded":5700,"fbddbe":5701,"eefebbc":5702,"ebceeed":5703,"bcbcdc":5704,"bbbfdbe":5705,"bdfdec":5706,"ebdbebf":5707,"bbecded":5708,"bbcdfc":5709,"eebcff":5710,"bcbeebbc":5711,"edbbbdc":5712,"ddffc":5713,"defbec":5714,"fdceec":5715,"ffea":5716,"fcbbef":5717,"bbbccbbc":5718,"bdfdbd":5719,"bceeefc":5720,"edeeebc":5721,"efbcdc":5722,"ecebfcc":5723,"cccdbc":5724,"ecccbbc":5725,"ecbcdbe":5726,"fcfebb":5727,"bbbfbebe":5728,"bdfbbbe":5729,"bccbcbd":5730,"deefcc":5731,"eeccbbbb":5732,"bcebfcc":5733,"ebdeeee":5734,"debe</w>":5735,"eeffcc":5736,"ebddeec":5737,"bddbbcc":5738,"eccfebb":5739,"ecceddc":5740,"dabca":5741,"bccfbe":5742,"ffeeee":5743,"febac":5744,"ebcfdd":5745,"bebdbebe":5746,"bbfded":5747,"dcbbbec":5748,"beeebeebb":5749,"bbbccbbbb":5750,"bbeedec":5751,"bbccdee":5752,"ffac":5753,"bbbcbbed":5754,"bbbdbebc":5755,"bccecbc":5756,"bbbebccc":5757,"ececdd":5758,"ebceebf":5759,"eefedc":5760,"bcbcdbc":5761,"ebccdbc":5762,"edbebdc":5763,"eccbcbd":5764,"dbbebfc":5765,"ecfdee":5766,"bbbcbeec":5767,"dbbdbbc":5768,"ebfefc":5769,"ebfbbebb":5770,"ffebbc":5771,"adbbc":5772,"ebceebe":5773,"dcebfc":5774,"dffbe":5775,"dbbbddc":5776,"ebcbbebc":5777,"bfdebd":5778,"ddbbbbc":5779,"fcfef":5780,"decebbc":5781,"ffded":5782,"bebbb</w>":5783,"ecbb</w>":5784,"ebefdd":5785,"decfbc":5786,"dcfecc":5787,"bbcdbec":5788,"fbfa":5789,"bdbedbc":5790,"bdfedc":5791,"ebcbbfc":5792,"ebcbebbc":5793,"becbebf":5794,"bbdeeebb":5795,"bebeea":5796,"bfdbbf":5797,"bbcbbbec":5798,"debd</w>":5799,"acef":5800,"ecdcccc":5801,"bdcba":5802,"bebdbebc":5803,"ecbebfc":5804,"dcbdbf":5805,"bbbefbd":5806,"bbeedbd":5807,"fbcbef":5808,"fccebe":5809,"dbcba":5810,"bcbeba":5811,"bbeebbcc":5812,"defdbe":5813,"ebbdccc":5814,"bbbcedc":5815,"bbbfccc":5816,"bdeea":5817,"bbcbebbc":5818,"bbefa":5819,"becbedd":5820,"ebdcebe":5821,"ecbeebbc":5822,"fbacc":5823,"dceddc":5824,"bdbcebe":5825,"edbac":5826,"ebbedbf":5827,"dffed":5828,"bbeebfc":5829,"ebccdee":5830,"bbdcef":5831,"bccfbf":5832,"beccebd":5833,"fbddee":5834,"bbbdbbec":5835,"faa":5836,"bdcbbcc":5837,"dcefcc":5838,"dcbbbcc":5839,"ebcdedc":5840,"eebe</w>":5841,"bdbeedc":5842,"bbbcbebd":5843,"dbfbbd":5844,"bdecbec":5845,"ddbedd":5846,"dbdebf":5847,"bbcbdbd":5848,"fcbcee":5849,"efcfbc":5850,"beeebbebe":5851,"bbbbbbbbbbbbc":5852,"dfbebd":5853,"fecfec":5854,"bbbbb</w>":5855,"fccdec":5856,"efcbfc":5857,"edbbccc":5858,"eddbecc":5859,"dbbecebb":5860,"fdd</w>":5861,"bfbbeec":5862,"eceedee":5863,"eebcbbbc":5864,"edecfc":5865,"efcbbbc":5866,"dbfecc":5867,"dbbcef":5868,"bbeacc":5869,"bbbdba":5870,"bbedbcc":5871,"fcdecc":5872,"ddfebb":5873,"bebcbbec":5874,"bbedbbf":5875,"fcffc":5876,"dcbeebc":5877,"fbcedc":5878,"eeeeba":5879,"bdbbebbc":5880,"fcbbfc":5881,"ebfea":5882,"ebffbd":5883,"bebcbcbc":5884,"dfcbbc":5885,"eeccbcc":5886,"bdbcef":5887,"bbbbebbbbbb":5888,"eebedee":5889,"bffbcc":5890,"bbebbdbe":5891,"eeecbcc":5892,"ebccbdc":5893,"feedcc":5894,"dcbfcc":5895,"eccdedc":5896,"eebbbccc":5897,"bbfbebd":5898,"dbcbeec":5899,"eebedbd":5900,"ebcedcc":5901,"ebddbbbb":5902,"dfbcbd":5903,"dbbeced":5904,"bbbdded":5905,"eeeb</w>":5906,"bfcebbc":5907,"abcec":5908,"dce</w>":5909,"dcfbec":5910,"ebbbbebbc":5911,"eccecec":5912,"eecbebf":5913,"dfbcec":5914,"dfdebb":5915,"cccbccc":5916,"eeeedd":5917,"dbeea":5918,"ebddecc":5919,"bbecbdc":5920,"ebbfdf":5921,"bbcbced":5922,"fedbf":5923,"edfdbe":5924,"defef":5925,"bbebbbbbbc":5926,"dbfba":5927,"ebdcfc":5928,"cccbdc":5929,"fbcded":5930,"ddcedc":5931,"beecff":5932,"bebebbbf":5933,"bedbdcc":5934,"eecdebd":5935,"eecac":5936,"decfec":5937,"ebdbbbbc":5938,"bebcbfc":5939,"bdbcbec":5940,"fbdebe":5941,"dcddcc":5942,"ddedcc":5943,"bbedbbbe":5944,"fbf</w>":5945,"ebdcebc":5946,"ebbeebeee":5947,"edbedbc":5948,"ebdfbf":5949,"dbcefc":5950,"ebbcbcbc":5951,"beccbbbb":5952,"dfbccc":5953,"bbeebbbf":5954,"edfedc":5955,"bbdeedc":5956,"decebf":5957,"eebc</w>":5958,"bbdbebbbb":5959,"dbdba":5960,"ebccbbbe":5961,"eceebec":5962,"eeecbbbb":5963,"bccdebe":5964,"ebbbedf":5965,"beecbbbe":5966,"eceebbbb":5967,"ebbebbbbbb":5968,"bceb</w>":5969,"dccbebe":5970,"bceebdc":5971,"dccfbc":5972,"dfecbc":5973,"bfdecc":5974,"edebccc":5975,"bbbdbdbd":5976,"bceddee":5977,"bbdebdc":5978,"ecccbec":5979,"beebebbbb":5980,"eccdeec":5981,"befefc":5982,"dbfdbc":5983,"eebcbebc":5984,"dcbdec":5985,"ebebcbbc":5986,"bfbcfc":5987,"edeebbbb":5988,"bbcbcebb":5989,"cccbbf":5990,"bba</w>":5991,"ecceeee":5992,"fffef":5993,"bbeddec":5994,"bbcbcf":5995,"dfebec":5996,"dbbecf":5997,"ebbefcc":5998,"ebddbec":5999,"befbbcc":6000,"efcfec":6001,"bbbeebec":6002,"ecccebc":6003,"bbecbeec":6004,"ecbebbcc":6005,"ebbebecc":6006,"bbbebebf":6007,"bbceeebb":6008,"bbbcfec":6009,"bfcbeec":6010,"eeeeeeebe":6011,"bcecebc":6012,"fccfcc":6013,"edecebc":6014,"ebbecbbbb":6015,"fcbbdd":6016,"ebfbebd":6017,"bbeebcbc":6018,"dbbdddd":6019,"bfcfee":6020,"dfbbbf":6021,"dbeeebc":6022,"ffbbbd":6023,"debc</w>":6024,"dbcfcc":6025,"dbbbdbbc":6026,"ebebea":6027,"eeeebeebe":6028,"bddbecc":6029,"becfebb":6030,"eecbbdd":6031,"bfbebec":6032,"ebdcdd":6033,"bcbedbf":6034,"eebbebdc":6035,"efbbbec":6036,"befbbbf":6037,"bfeba":6038,"bbceeed":6039,"eccbcee":6040,"ebdbeebb":6041,"eceebdc":6042,"decddc":6043,"acdee":6044,"feddee":6045,"ececebc":6046,"bbcdeec":6047,"dbcdebb":6048,"ecccbcc":6049,"bfb</w>":6050,"edcbeee":6051,"dcbcbbc":6052,"bbbeded":6053,"bebdbbf":6054,"fbfff":6055,"bfbeebc":6056,"edfccc":6057,"dbbbdbe":6058,"dcfeec":6059,"eabbee":6060,"fccbbf":6061,"bbebebec":6062,"acbcc":6063,"ebbeddd":6064,"eccffc":6065,"eecfebb":6066,"eabba":6067,"dccebf":6068,"fbdbcc":6069,"bcfba":6070,"bbecebbc":6071,"fbedbf":6072,"ecbcdec":6073,"fedff":6074,"bbbbbbbbbbbd":6075,"fdedcc":6076,"bffbec":6077,"dddccc":6078,"bcecbcc":6079,"abebf":6080,"bfcbcbc":6081,"dccddc":6082,"bbecbef":6083,"dceddd":6084,"bfcbebe":6085,"ebbdebf":6086,"dbbcebe":6087,"bcbeded":6088,"edcfdc":6089,"eeeebcc":6090,"efbded":6091,"feddbe":6092,"afef":6093,"bbdceec":6094,"eebdbbbb":6095,"fccebd":6096,"fbfbbbb":6097,"ebbfdbe":6098,"ecbcbbd":6099,"fde</w>":6100,"eddfcc":6101,"becfdc":6102,"beed</w>":6103,"bbcebdc":6104,"bbbefec":6105,"bcbddf":6106,"edecbec":6107,"deebeee":6108,"bfcfec":6109,"abbebe":6110,"efdbcc":6111,"bbbdebf":6112,"fbeefc":6113,"eebcebbc":6114,"bbceedc":6115,"bebcfec":6116,"bceceec":6117,"dceeef":6118,"cccebd":6119,"ddbced":6120,"bccceec":6121,"ebbbebbebb":6122,"dbcddc":6123,"bbecbbee":6124,"bcbcecc":6125,"beebac":6126,"eddba":6127,"bcecded":6128,"beee</w>":6129,"bebedbd":6130,"bebdebd":6131,"eebd</w>":6132,"bcfded":6133,"dbcbbed":6134,"eddea":6135,"edcebdc":6136,"bdfdcc":6137,"bddfcc":6138,"bbbdfbc":6139,"feedee":6140,"fedfc":6141,"deecbec":6142,"bcbcebd":6143,"aeca":6144,"bddebec":6145,"dfdef":6146,"bcccecc":6147,"abbdc":6148,"bbbcdebb":6149,"dbbc</w>":6150,"bbecdbd":6151,"feddec":6152,"ececfc":6153,"bbbbbdbbbb":6154,"bbbedfc":6155,"bebdbcc":6156,"bcbd</w>":6157,"bfbcbbbb":6158,"edcdebe":6159,"baecc":6160,"bfcbbee":6161,"dbbebbbbbb":6162,"bbbddec":6163,"eccccccc":6164,"ebbcbbebb":6165,"bbbbcef":6166,"ebeecbe":6167,"dbcdbf":6168,"debceec":6169,"bcdbbdd":6170,"bbbbeeebb":6171,"bceebbd":6172,"ebbdbbee":6173,"ebcbbbec":6174,"bbcbebbbb":6175,"bcfbbcc":6176,"aebcc":6177,"bbbedbbbb":6178,"fdcff":6179,"eeebebeee":6180,"edfbbf":6181,"becfbf":6182,"bcdeccc":6183,"ebcfef":6184,"bbbeeebc":6185,"efcdbd":6186,"bbbbfbbbb":6187,"edeeecc":6188,"ebbbbba":6189,"ddbeebb":6190,"fcfbbc":6191,"ecccedc":6192,"bcdbbebb":6193,"bcbbac":6194,"ebcbcbf":6195,"ebcfbbc":6196,"debeccc":6197,"dbcbbcc":6198,"bbbfbbbf":6199,"ebebedd":6200,"ebcecbe":6201,"bbcbbbcc":6202,"bbcbcbbc":6203,"bbfbebf":6204,"deebbebb":6205,"ebecff":6206,"bebebecc":6207,"debbebd":6208,"bceedec":6209,"bdbbbfc":6210,"ddbdcc":6211,"bceebbee":6212,"bdbeff":6213,"ebbe</w>":6214,"eccdbbc":6215,"dbeefc":6216,"debcef":6217,"beec</w>":6218,"dddebd":6219,"bbbbbbfc":6220,"ebefbbc":6221,"dbebcbd":6222,"eefbbcc":6223,"dfbbed":6224,"ebbcbbcc":6225,"dfbeec":6226,"fbcbcbc":6227,"bdfbfc":6228,"eedbbbf":6229,"deebecc":6230,"dbcbebd":6231,"fbebbef":6232,"bedceec":6233,"bfbcebe":6234,"bdceeec":6235,"baeec":6236,"bebcebf":6237,"ebccbbd":6238,"fbbeccc":6239,"edcbbcc":6240,"dedbef":6241,"bfbea":6242,"ebedbcc":6243,"abeebb":6244,"adba":6245,"edeebec":6246,"bfecee":6247,"dffdd":6248,"deebbed":6249,"dccfcc":6250,"dbbdbbd":6251,"eedcfc":6252,"cccbbd":6253,"feddbc":6254,"ddbebf":6255,"becbbef":6256,"bbbebbef":6257,"eeebfcc":6258,"eebebbef":6259,"beebebebe":6260,"bfbcebc":6261,"ebbbac":6262,"bbebebbf":6263,"eefbbbd":6264,"bcfddc":6265,"bfeced":6266,"ebbecbec":6267,"ddfef":6268,"bbcfef":6269,"bdcebcc":6270,"baebd":6271,"ebbeefc":6272,"decbcbc":6273,"bbecebf":6274,"fecbbd":6275,"bcdcccc":6276,"ebebebbbe":6277,"ebcdbbbb":6278,"dbbeba":6279,"dedddc":6280,"dbfebd":6281,"eeccebd":6282,"eedbbdd":6283,"ebbbeff":6284,"eefbbef":6285,"eebdecc":6286,"becdecc":6287,"eefbbebb":6288,"bdbebbbd":6289,"bcfbbbd":6290,"bebbbbbbbbbbbb":6291,"bcfbecc":6292,"ecbbebcc":6293,"ebeeedc":6294,"bbbedbbc":6295,"ebfbecc":6296,"bbecbbbd":6297,"dcecebb":6298,"ebccbbf":6299,"dbfbdc":6300,"ebdceec":6301,"bdeedbe":6302,"becbbebc":6303,"bbbebbdc":6304,"bebebebd":6305,"bccdfc":6306,"eebdeec":6307,"bcbe</w>":6308,"ddeeed":6309,"dfdfc":6310,"ebffbf":6311,"ffdef":6312,"dbbecee":6313,"dbddebb":6314,"eebfa":6315,"bfbbebd":6316,"becbbdd":6317,"bebebeec":6318,"bbbbcfc":6319,"fbeeecc":6320,"fbcebbc":6321,"efdbbd":6322,"efcdcc":6323,"dbbebbebb":6324,"dbbecdc":6325,"bddea":6326,"ebcfebc":6327,"bbbefbe":6328,"becbebbc":6329,"ebefa":6330,"becda":6331,"dbcfbd":6332,"edcbeed":6333,"febbef":6334,"ecceeed":6335,"bbbcdcc":6336,"dbbcfc":6337,"bdbcbcc":6338,"dbceebc":6339,"bebedec":6340,"ecbebbbd":6341,"ebbecebc":6342,"badbd":6343,"bcbedebb":6344,"bdcdef":6345,"edbebbf":6346,"bcbbbbbbbc":6347,"bbceebe":6348,"deefee":6349,"bebcbef":6350,"fbcefc":6351,"bbdbbebc":6352,"bebcbbbd":6353,"eddebec":6354,"dbbe</w>":6355,"ebbeebbf":6356,"ebbbcbbbe":6357,"ebcedbd":6358,"ebddebd":6359,"decdebb":6360,"bbecbfc":6361,"ebecdc":6362,"fccdbe":6363,"bfecebb":6364,"fcbbebe":6365,"bebebebf":6366,"eafee":6367,"eefdbf":6368,"fecebe":6369,"ddecbd":6370,"dbcfed":6371,"fbcbbee":6372,"bbdbbfc":6373,"fbcdbd":6374,"bcbdef":6375,"fdebfc":6376,"becac":6377,"beeebeebe":6378,"bbedff":6379,"abbef":6380,"bdeeccc":6381,"bddbbbd":6382,"dfbbebb":6383,"dbebcec":6384,"bbbebebbc":6385,"bbbbdbbd":6386,"bebcbeec":6387,"bbbbbcec":6388,"bebbbbbbbc":6389,"ebbcded":6390,"bbddbbd":6391,"febbebe":6392,"eebdedc":6393,"bddebcc":6394,"ebbbeebf":6395,"fbdbbf":6396,"edeeccc":6397,"dfeecc":6398,"dbbcbbd":6399,"fecbfc":6400,"eefbbbf":6401,"ecbbbecc":6402,"bbeeedc":6403,"ebbd</w>":6404,"bbcfbbc":6405,"bbbeefc":6406,"bceebbbc":6407,"ecfeecc":6408,"ebbecebe":6409,"ebccdec":6410,"ebbbeecc":6411,"eeceedd":6412,"fccbdc":6413,"dfcdee":6414,"ecececc":6415,"bdbcbbd":6416,"feebbbc":6417,"bcccef":6418,"bebebbbbc":6419,"fffbe":6420,"dafc":6421,"ecfefc":6422,"bffbbf":6423,"feacc":6424,"bccbebf":6425,"debcdd":6426,"bfeedd":6427,"bceebbec":6428,"ecbebecc":6429,"fffdc":6430,"deeefc":6431,"bdbcccc":6432,"bebedcc":6433,"dbbbdec":6434,"fdbfcc":6435,"bbfebec":6436,"bbfbecc":6437,"eeebbeeee":6438,"ebbbeeec":6439,"ebcdbcc":6440,"dbbbdf":6441,"eedbbebb":6442,"bdcbcbd":6443,"ffbbbf":6444,"ebccbbbc":6445,"bbebebbbc":6446,"eedbbed":6447,"ebbbca":6448,"efdbbbb":6449,"ecbebbec":6450,"bfebbcc":6451,"eccbced":6452,"ebfdbf":6453,"bfcedc":6454,"bfcba":6455,"befbeec":6456,"edccccc":6457,"bebcfbc":6458,"bbdcfc":6459,"eefbbec":6460,"dbecbec":6461,"bbedefc":6462,"fbbcccc":6463,"bcceccc":6464,"dcdbbf":6465,"fecebd":6466,"beebbef":6467,"bbdcebc":6468,"bebfa":6469,"bdcbeed":6470,"fccdee":6471,"edebbebb":6472,"ecbcedc":6473,"eebebecc":6474,"eccfbf":6475,"dccbbbe":6476,"bbbbcdbe":6477,"ebaa":6478,"eccbbebb":6479,"dbbebbcc":6480,"bbbbddc":6481,"fbdebd":6482,"ecbdebc":6483,"edbbebf":6484,"dceefc":6485,"fcbedd":6486,"eccfbe":6487,"bebdccc":6488,"bececcc":6489,"fecbebc":6490,"debbdee":6491,"beecebd":6492,"bcecef":6493,"edfbdc":6494,"bbdbcbe":6495,"bfeebbc":6496,"fefef":6497,"dcfdf":6498,"bdbedbd":6499,"ecbbea":6500,"bbcffc":6501,"dcceecc":6502,"eedcdd":6503,"adebe":6504,"bbbcebec":6505,"bbbbcbcbc":6506,"ebedbbd":6507,"bfcbbef":6508,"bbdbba":6509,"bfcfcc":6510,"bbdcdbe":6511,"bcbdfc":6512,"bbdcdf":6513,"bbdbced":6514,"bbecfbc":6515,"bbcecbd":6516,"dbceeee":6517,"dedbbbe":6518,"dbfeec":6519,"ebbfebf":6520,"acbbf":6521,"bbebeef":6522,"becbced":6523,"bbbfbbee":6524,"bbbbca":6525,"bfcefc":6526,"eaebc":6527,"bbbbcbebe":6528,"bcdbbbf":6529,"dceded":6530,"beccff":6531,"dabba":6532,"ebbebccc":6533,"bbdbebbc":6534,"bbebbebbc":6535,"bbbbbbbbbbbbbbbbbbbb":6536,"bebdbbbc":6537,"bbfcbbc":6538,"bdfbbbc":6539,"beecbbf":6540,"dcecef":6541,"ebdcebd":6542,"eececbd":6543,"dbdbeee":6544,"beccdec":6545,"dbbcdf":6546,"ececdbe":6547,"acca":6548,"fcdedc":6549,"becbbebe":6550,"acbbbb":6551,"ebedeec":6552,"feeebd":6553,"ecbedbf":6554,"beeda":6555,"fefa":6556,"debcbbc":6557,"bcbebbed":6558,"debbdbc":6559,"bcdb</w>":6560,"ecfbebc":6561,"bdbca":6562,"bbccbcbc":6563,"bcbbcbbbb":6564,"fbeddc":6565,"dbbcdbe":6566,"bcbddee":6567,"ecccef":6568,"fefccc":6569,"fbcfcc":6570,"bbcccccc":6571,"bbbbbbcbbbb":6572,"ebebbbcc":6573,"fbebbebe":6574,"defbbf":6575,"eeebbbbbe":6576,"fcbcdc":6577,"bbdfbbc":6578,"ffbccc":6579,"bbeedcc":6580,"edcdeec":6581,"dbbcebd":6582,"bccac":6583,"bccdebc":6584,"bbdca":6585,"bbbfbbbd":6586,"ecbcdbc":6587,"eeccdf":6588,"bbdbedd":6589,"ebbcbeee":6590,"bbebbccc":6591,"bfcbbbd":6592,"bbccbebe":6593,"debbbebe":6594,"eebcbebe":6595,"dbbca":6596,"ebfded":6597,"eabebe":6598,"fbeded":6599,"fecbebe":6600,"fcbbebc":6601,"edcecbd":6602,"babef":6603,"ddcbbf":6604,"bccbeebb":6605,"debbbbbd":6606,"bbeddbd":6607,"ebbbbbfc":6608,"bbdbbbec":6609,"fbddec":6610,"ebeecdc":6611,"becbcee":6612,"ebddbbd":6613,"bbbebbebc":6614,"ebbc</w>":6615,"fdca":6616,"bbecbbebb":6617,"debbecc":6618,"defff":6619,"bcdedcc":6620,"bbbbeebd":6621,"becffc":6622,"ebfbebf":6623,"beecbeec":6624,"ebdbedd":6625,"eabdc":6626,"ecbcdc":6627,"bbdcdee":6628,"eeecdbc":6629,"bdbcdf":6630,"bbbebcbd":6631,"ebbcbebd":6632,"dbdbfc":6633,"bebcbebd":6634,"eebfef":6635,"bdeebcc":6636,"ebcbeebe":6637,"eecdbcc":6638,"dbbbbdbbbb":6639,"beceeee":6640,"eccbebf":6641,"eebcfbc":6642,"ececdec":6643,"efcfee":6644,"dccbfc":6645,"bfbdebb":6646,"ddeedd":6647,"bcbcbebe":6648,"bcebbbbc":6649,"dfbcee":6650,"dbecbbc":6651,"edebbbc":6652,"eadbc":6653,"ebdcedc":6654,"eeccebe":6655,"bcedbbc":6656,"fbcfee":6657,"ecdbbbd":6658,"bfedbf":6659,"bbbbbeed":6660,"eefddc":6661,"ecbdbbc":6662,"bedbfcc":6663,"bbdda":6664,"bcecebe":6665,"ecfebbc":6666,"eedbdcc":6667,"bfebbebb":6668,"ebcfebe":6669,"eeebbbbc":6670,"efcbeec":6671,"eebdccc":6672,"bbbbbcbf":6673,"dbbcbcc":6674,"dbebbbf":6675,"eabbd":6676,"dededc":6677,"bfbebbbe":6678,"fccfed":6679,"beccbdc":6680,"dbbcdee":6681,"bedcdf":6682,"dbddbf":6683,"ebfbeec":6684,"bbebbebd":6685,"dbeebec":6686,"bbebbbeebb":6687,"bbefef":6688,"dbbbb</w>":6689,"fbcbbec":6690,"bbefbbf":6691,"babeee":6692,"ecbcbbbe":6693,"bbdcbbd":6694,"bcfbbbf":6695,"bdbcdee":6696,"dceeebe":6697,"bbebbeec":6698,"ecdbdcc":6699,"eebcded":6700,"bbefff":6701,"bbebcbbc":6702,"dbbedcc":6703,"bebddec":6704,"ebbdcdc":6705,"dccfee":6706,"ececdee":6707,"bcbffc":6708,"bdccccc":6709,"edbedee":6710,"fbdbbd":6711,"bcbeddc":6712,"eededcc":6713,"bbbcbcbd":6714,"dbdfee":6715,"debebec":6716,"eebddbe":6717,"dfcef":6718,"eeeddd":6719,"bafee":6720,"bbccdec":6721,"ebdac":6722,"beccfec":6723,"fbdbdc":6724,"edecef":6725,"dcbbeec":6726,"eecffc":6727,"ebfebcc":6728,"eabef":6729,"eebdef":6730,"eeecdec":6731,"bedd</w>":6732,"bbffdc":6733,"dbdbcbc":6734,"fbcdcc":6735,"fbddbc":6736,"bbdddbe":6737,"eeebebebe":6738,"ebbdebbc":6739,"dcbcebe":6740,"babfc":6741,"eecbebbc":6742,"bbebbebf":6743,"fccbbbb":6744,"deecdd":6745,"eabea":6746,"dbbbdbbd":6747,"bbedebd":6748,"bdbedec":6749,"bdecbbc":6750,"bbbfdbc":6751,"ecccebd":6752,"ecbeded":6753,"bcecbbbb":6754,"ebecbebe":6755,"ebdca":6756,"bcbdbec":6757,"bedcef":6758,"ecbdfc":6759,"debbff":6760,"bbebebcc":6761,"bcbebccc":6762,"bbfeeee":6763,"bbefebe":6764,"fbfdf":6765,"bbebbff":6766,"eebcbbee":6767,"fbfbf":6768,"dbfbbbe":6769,"bcdbbed":6770,"dddcdc":6771,"eebebccc":6772,"eddeccc":6773,"acebe":6774,"bebddbc":6775,"bcccbec":6776,"dceebbc":6777,"bceebecbbec":6778,"ebcdbbd":6779,"ddbcdc":6780,"fccdbc":6781,"ebdcbec":6782,"bdeedf":6783,"edbedcc":6784,"fddef":6785,"dbbbfcc":6786,"ebbfedc":6787,"bebdecc":6788,"ebcbcdd":6789,"fbcfed":6790,"deeeecc":6791,"ebbbdef":6792,"eecbced":6793,"beebbbbee":6794,"edbcccc":6795,"bcbbbbbbbbbbbb":6796,"dcedbf":6797,"ebbcefc":6798,"eaebf":6799,"defbf":6800,"defecc":6801,"ebbcdebb":6802,"bbbdbef":6803,"bddbbdd":6804,"defdee":6805,"efeba":6806,"dccbbbc":6807,"dccefc":6808,"eedca":6809,"edebbbf":6810,"edcbbed":6811,"eebedec":6812,"edbddd":6813,"bbcb</w>":6814,"ebeeba":6815,"bbfbccc":6816,"dbbcbbbe":6817,"bbeffc":6818,"beefa":6819,"bdbceec":6820,"fccfbc":6821,"ecbdecc":6822,"edecbcc":6823,"bebbeba":6824,"bbfddc":6825,"ebbcfec":6826,"dbdbbec":6827,"eabca":6828,"beeeebd":6829,"fcceecc":6830,"eceeddc":6831,"bdbcdbe":6832,"dcfbcc":6833,"bafbc":6834,"dbecef":6835,"bbcda":6836,"bbccbbbd":6837,"bbebea":6838,"dbecdd":6839,"bebbcccc":6840,"fbfdd":6841,"dfda":6842,"eeecfc":6843,"eeecdbe":6844,"bebfef":6845,"bbbbdebe":6846,"ebedecc":6847,"dbfebf":6848,"dcbcfc":6849,"beedccc":6850,"dfeebc":6851,"fecbef":6852,"fefff":6853,"bedca":6854,"bedcfc":6855,"bdfbebe":6856,"dcfebd":6857,"bbbcbbdc":6858,"dccfed":6859,"dedbebe":6860,"bbbbecbc":6861,"bbbebbbec":6862,"beecbdc":6863,"bbbbcbbebb":6864,"ebdcef":6865,"bdecdee":6866,"fdc</w>":6867,"dcebbcc":6868,"edcedcc":6869,"dfcbec":6870,"bbbceebc":6871,"acff":6872,"bcfbccc":6873,"bfdbbbe":6874,"beeddbe":6875,"ecbe</w>":6876,"bffdbe":6877,"bbbefebb":6878,"bbbdbbed":6879,"bbbdbebd":6880,"bbccbbee":6881,"edbcecc":6882,"beeebcbc":6883,"fbebbed":6884,"edeedbe":6885,"beebbbbf":6886,"bdfefc":6887,"bbcbedd":6888,"ecfdbd":6889,"bcbbcccc":6890,"dcbbebd":6891,"ebbeded":6892,"bebceebc":6893,"bbdeeed":6894,"babbebb":6895,"deebcec":6896,"ebdcdf":6897,"bceeff":6898,"fccded":6899,"edbcebd":6900,"dcbebec":6901,"eedbbdc":6902,"decbbbd":6903,"bebcdebb":6904,"bbbbcebc":6905,"dbbceec":6906,"eefded":6907,"edfbbbe":6908,"ebbcfee":6909,"decbbee":6910,"befddc":6911,"bbccfbc":6912,"ebccfbc":6913,"ebdcdbe":6914,"bceddf":6915,"eefefc":6916,"dbecdf":6917,"bcbbbbbcbbbb":6918,"dcbdebb":6919,"dcbeecc":6920,"ddbddc":6921,"ebbecef":6922,"efbcef":6923,"fcdbcc":6924,"bccfebb":6925,"ecbcff":6926,"eeeebec":6927,"debea":6928,"bfbdee":6929,"bbbbbebbbe":6930,"ddecdc":6931,"bbbcfbd":6932,"bebcbecc":6933,"bbedbdc":6934,"bdbcebc":6935,"edfdbc":6936,"edeedf":6937,"bbebbbbec":6938,"beecbfc":6939,"fedbdc":6940,"eebeddc":6941,"bcbeefc":6942,"bceeedc":6943,"fcdebd":6944,"bceeebd":6945,"fcecdc":6946,"bbbcdbf":6947,"decceec":6948,"bdecdf":6949,"eeeda":6950,"eebbeccc":6951,"fcbefc":6952,"ebffdc":6953,"defebe":6954,"edececc":6955,"eeccbdc":6956,"dbcbcbd":6957,"fecdbd":6958,"bccbbdd":6959,"dcebecc":6960,"dbeac":6961,"ecbebccc":6962,"edebbbd":6963,"bbbebcebb":6964,"bbfeebc":6965,"befbebf":6966,"bcfebec":6967,"bcbbeecc":6968,"adca":6969,"bededcc":6970,"bbbcbeebb":6971,"bcccebc":6972,"bceedcc":6973,"fcecec":6974,"bbef</w>":6975,"dcbdef":6976,"eefbbebe":6977,"eefbecc":6978,"ddbbef":6979,"ecbdccc":6980,"ddbbebe":6981,"dbbcebc":6982,"eeecef":6983,"bdfbbee":6984,"bfecdd":6985,"bbccbfc":6986,"bbbfbfc":6987,"bebdff":6988,"afdd":6989,"fecbbbe":6990,"ecbdbec":6991,"dcdbbbe":6992,"bebcdbd":6993,"eedcbec":6994,"beebebbee":6995,"edeac":6996,"bdfbef":6997,"bbedbebe":6998,"fccbfc":6999,"bbabba":7000,"eccbcdc":7001,"bbccebf":7002,"fbeebcc":7003,"defebc":7004,"ecbcbdc":7005,"debeebc":7006,"bfbbbbbbbb":7007,"bbcdbbd":7008,"bccbbef":7009,"dbefdc":7010,"baac":7011,"ebbcdcc":7012,"bbebbdf":7013,"bbbcefc":7014,"bcbcdec":7015,"bfbddc":7016,"dcbebbbb":7017,"bbdbddd":7018,"edcbcbd":7019,"efedcc":7020,"ebbfbbbc":7021,"bbdbcebb":7022,"dbecdee":7023,"ebecded":7024,"eeecbdc":7025,"beecbbec":7026,"bebddbd":7027,"debcebc":7028,"bbffebb":7029,"bbbdebbc":7030,"bbbdbeee":7031,"dceba":7032,"bbdeebe":7033,"decfee":7034,"bbbdbbdd":7035,"bcbcbdc":7036,"bbdcbcc":7037,"debebbbe":7038,"bcbbcbbc":7039,"bfbcbec":7040,"efdebd":7041,"eecbdbd":7042,"bbebbbbbf":7043,"ebfdebb":7044,"babebc":7045,"cccded":7046,"bedebfc":7047,"ecfbecc":7048,"bbccbebc":7049,"bdbcbbbe":7050,"ebbbbedc":7051,"bebacc":7052,"eecbbebe":7053,"bbfbeebb":7054,"fcbebbc":7055,"beececc":7056,"ebeebbebb":7057,"dbebbebe":7058,"bfbbecc":7059,"eecfbf":7060,"ebbceebc":7061,"befded":7062,"bbccdbd":7063,"fccefc":7064,"becceecc":7065,"ebdcecc":7066,"fefdd":7067,"bcbbb</w>":7068,"bcbebbbf":7069,"eeebbef":7070,"ebccbebe":7071,"dbfedc":7072,"edbcdf":7073,"ebbdced":7074,"deebccc":7075,"bbeebbed":7076,"bbbdbbbbc":7077,"dbfdbd":7078,"fbdecc":7079,"eeebeef":7080,"bccbced":7081,"dfca":7082,"bcbddbe":7083,"ecbddf":7084,"bceca":7085,"eeec</w>":7086,"ddecec":7087,"bccdbbc":7088,"bdcbbdc":7089,"bbbcbccc":7090,"eebdebd":7091,"bdeeebc":7092,"bfbcdd":7093,"bbcbba":7094,"beecdbd":7095,"ecccdec":7096,"bfecbbc":7097,"debcfc":7098,"eebddbc":7099,"ecdbbbbc":7100,"bcbda":7101,"efcedc":7102,"bcccccccc":7103,"dbedebe":7104,"fffed":7105,"bbeebbbbc":7106,"fbbb</w>":7107,"ebedbb":7108,"debcccc":7109,"bcfea":7110,"beeddee":7111,"ecfbbec":7112,"edcbedd":7113,"ebbcebec":7114,"bbebbbeee":7115,"fecbbbc":7116,"eccbbbf":7117,"bebebeebe":7118,"dedbfc":7119,"ebdedcc":7120,"bbfdef":7121,"bebefcc":7122,"eeeeea":7123,"bbceccc":7124,"bdbebbcc":7125,"ebcbebbbb":7126,"befbeebb":7127,"ddedbd":7128,"eceedbd":7129,"ebbecfc":7130,"efbea":7131,"bbbeebcc":7132,"dbefbe":7133,"dfcebe":7134,"efb</w>":7135,"bbbcbecc":7136,"beeebebc":7137,"bcbdebe":7138,"deccccc":7139,"fcfdd":7140,"ebdbcee":7141,"dcbcccc":7142,"bbcfdd":7143,"becdebd":7144,"dbedbbc":7145,"dbfda":7146,"bcbeebec":7147,"deeeebc":7148,"dbcebec":7149,"bdbddbd":7150,"eefbccc":7151,"beceedd":7152,"eeeebbebe":7153,"acebc":7154,"bbdbbebd":7155,"bbeeea":7156,"decbebd":7157,"eeecebc":7158,"bbdeebf":7159,"dbebbdc":7160,"fbfbbf":7161,"eeedccc":7162,"bfdccc":7163,"dcbedf":7164,"bbbbbbebd":7165,"eeeebeebb":7166,"edacc":7167,"ebdbbebe":7168,"eeecbbbc":7169,"bdbeebf":7170,"ebbfbdc":7171,"bbbdbfc":7172,"efcbbbe":7173,"bdeeecc":7174,"bbeebeec":7175,"dccbef":7176,"beeeebbc":7177,"efbefc":7178,"ffbbebb":7179,"bbcbcbbbb":7180,"ebdbced":7181,"bcbcbbec":7182,"becbbbec":7183,"decbeed":7184,"fbcfbd":7185,"ecbcbbbc":7186,"bbceebf":7187,"ecccebe":7188,"dfcbcc":7189,"ecfbebe":7190,"defbdc":7191,"ecedccc":7192,"ebdecbd":7193,"bbdfdd":7194,"eaecc":7195,"dcbbecc":7196,"dbebeebb":7197,"dbffbc":7198,"bbdfef":7199,"befbbebe":7200,"ebbfbebe":7201,"dcbcebc":7202,"ebcbefc":7203,"decba":7204,"fecba":7205,"eeeeebeebe":7206,"bebdbdc":7207,"bbddebe":7208,"bfecef":7209,"fdebbcc":7210,"beecbebe":7211,"dbbda":7212,"eedddd":7213,"bedefcc":7214,"bdebdcc":7215,"bbbeddc":7216,"bbeedebb":7217,"bbbfebf":7218,"dbcbbebb":7219,"bbbddebb":7220,"edbcbec":7221,"bfbebbd":7222,"bbfbcbd":7223,"bbedbbec":7224,"beccbecc":7225,"dbbcbbbc":7226,"ecbeba":7227,"bbbbbcee":7228,"bbfebcc":7229,"bebdedc":7230,"ecccdee":7231,"dbbecbbc":7232,"bccca":7233,"ecdcecc":7234,"dcbedbe":7235,"fcecbd":7236,"bbdfebe":7237,"eebcdbd":7238,"eeeceec":7239,"bcceeed":7240,"decdef":7241,"beeeea":7242,"ecbbbccc":7243,"bbbbac":7244,"bbbebcec":7245,"bbccbef":7246,"eceeedc":7247,"bdbebbec":7248,"bccebdc":7249,"ecbcbebc":7250,"bbbbbbbbbbebb":7251,"ddeeebb":7252,"bbbebcbe":7253,"edefdc":7254,"bebdbbee":7255,"ecfded":7256,"eeeebeef":7257,"bebbebfc":7258,"bcdbbebe":7259,"dfbbdc":7260,"bbbefbf":7261,"feedbd":7262,"eeebac":7263,"dbcdebe":7264,"bbbdecc":7265,"ecfddc":7266,"bdbebfc":7267,"ebbcbbbf":7268,"decfcc":7269,"bebbbdcc":7270,"becdedc":7271,"deebcbd":7272,"bebfbbf":7273,"efcbef":7274,"fcbcbe":7275,"bdcfbe":7276,"bcccebe":7277,"eeedbbc":7278,"bbbefcc":7279,"ffbecc":7280,"fecbeec":7281,"eebcebf":7282,"bcfbbebb":7283,"bdbcbbbc":7284,"fcbdbd":7285,"bedcbbc":7286,"bdfbebc":7287,"ecfbbcc":7288,"bfdbdc":7289,"deedebb":7290,"eebdbcc":7291,"bcccbbbb":7292,"eceddd":7293,"ebbfbbee":7294,"bbeedbf":7295,"bfcdbf":7296,"ebecfbc":7297,"ebccebf":7298,"beebea":7299,"bcdbdcc":7300,"dcbea":7301,"decefc":7302,"beeeeeebe":7303,"ecccdf":7304,"eedcecc":7305,"ebdffc":7306,"bebbcbbc":7307,"decdeec":7308,"effdf":7309,"bececbd":7310,"acdbe":7311,"bcfeecc":7312,"eceb</w>":7313,"bfbebcc":7314,"ebbfccc":7315,"dbeceec":7316,"bceedbd":7317,"fcbdcc":7318,"bcbcdbd":7319,"eebdebe":7320,"bccbbebe":7321,"bbdbcbf":7322,"bbedbbed":7323,"eeccff":7324,"ecfbef":7325,"bdf</w>":7326,"bbbbfbbc":7327,"ebecbebc":7328,"dddbdc":7329,"bcbcbef":7330,"bcbcbbcc":7331,"eecbcdc":7332,"bbdffc":7333,"babbec":7334,"beebebbbe":7335,"becbcebb":7336,"bbdd</w>":7337,"bcbcbbee":7338,"fecefc":7339,"bebbbbbbebb":7340,"bdcea":7341,"ebecebbc":7342,"edeebbd":7343,"efbedd":7344,"ddeebe":7345,"bbbbcbbee":7346,"dfcdbe":7347,"bcececc":7348,"bcecbeec":7349,"bfbdec":7350,"fceeed":7351,"dffebb":7352,"bcfbeee":7353,"bedcebc":7354,"edeca":7355,"fecedc":7356,"beedbbbb":7357,"aeea":7358,"edfdee":7359,"ddbcdd":7360,"dccbbee":7361,"bdbcebd":7362,"aeecc":7363,"dbbecdd":7364,"fbddbd":7365,"ebbbcbbf":7366,"cccfcc":7367,"bcbcbbbd":7368,"fdcdee":7369,"bbefbec":7370,"ebeedcc":7371,"babbbf":7372,"debbdbd":7373,"beccdee":7374,"ecccdcc":7375,"fdcebc":7376,"eedcdf":7377,"bfbca":7378,"efdecc":7379,"ebedebd":7380,"bbecfee":7381,"debebcc":7382,"bbdbdcc":7383,"aceec":7384,"dcfdbe":7385,"eccbbdd":7386,"fbdbebe":7387,"eceebbf":7388,"becbbfc":7389,"feeea":7390,"bbedded":7391,"efecbe":7392,"dccbebc":7393,"debedf":7394,"bceebebe":7395,"bebbbebbbb":7396,"dedbecc":7397,"bcbcbccc":7398,"dccccccc":7399,"ebbdbfc":7400,"efecdc":7401,"ebecbbee":7402,"bbedbebc":7403,"fccbebe":7404,"dbcbecc":7405,"befbbef":7406,"eedb</w>":7407,"bccfdd":7408,"efcebbc":7409,"bbbfbebc":7410,"eeebbbebe":7411,"dbbcdbd":7412,"fdefcc":7413,"bedeba":7414,"bbbcbbebe":7415,"fccebf":7416,"eeeeeeef":7417,"bceebebc":7418,"fdcdec":7419,"febea":7420,"eddbbcc":7421,"efcbebe":7422,"dbfbebe":7423,"bceebeec":7424,"bfbdf":7425,"bbceef":7426,"dbbedbf":7427,"dcceebc":7428,"fecbecc":7429,"edbebbbc":7430,"dcfedc":7431,"dbbcdbc":7432,"fbbbdcc":7433,"dcecebe":7434,"ebcbdcc":7435,"bcbcded":7436,"deeceec":7437,"ecdefcc":7438,"bbbfbbebb":7439,"ecbcfbc":7440,"bbdcff":7441,"bceddbe":7442,"ebebcbbbb":7443,"ebceeebb":7444,"ebccbfc":7445,"bceeebbc":7446,"eeecdee":7447,"eedceec":7448,"befbebd":7449,"ecbffc":7450,"bbcecec":7451,"ebdfdd":7452,"edcdebd":7453,"bedebbcc":7454,"ebbdcbd":7455,"bbdecbd":7456,"debefc":7457,"febbff":7458,"edebbed":7459,"ebebbebd":7460,"feeeec":7461,"aecbc":7462,"dcbcbec":7463,"ddc</w>":7464,"bbcbeebe":7465,"ebfddc":7466,"ecbebbebb":7467,"bbddbbbd":7468,"febbfc":7469,"bacba":7470,"ddfbbc":7471,"bbfbbebe":7472,"ebffef":7473,"fbdfbc":7474,"debedbe":7475,"bbfcdf":7476,"eccecdd":7477,"dbfbfc":7478,"bbddbec":7479,"ebcbba":7480,"bbbcdbbbb":7481,"eeccdbc":7482,"bebfbec":7483,"bbbebeebe":7484,"debbbdc":7485,"bbedbbbd":7486,"bfeddc":7487,"dcfccc":7488,"decbedc":7489,"bbccbbec":7490,"dcecdee":7491,"efbbbcc":7492,"ebffbe":7493,"defbbbb":7494,"defdbc":7495,"ebeffc":7496,"ebebcebe":7497,"fecbcbc":7498,"debbedc":7499,"fbfbec":7500,"fedeec":7501,"ebefbbbb":7502,"dbecdbe":7503,"bcecdbc":7504,"fbbebfc":7505,"eeed</w>":7506,"debbbbee":7507,"dbbcbbf":7508,"dbbbfbf":7509,"bebbebbcc":7510,"adfc":7511,"abfa":7512,"debcdee":7513,"ebbfdbc":7514,"eccfecc":7515,"ecbcbebe":7516,"bcfac":7517,"ebcbcbbc":7518,"ecdbbdd":7519,"efeeed":7520,"dedbbcdbf":7521,"bbedbbbc":7522,"fbdedc":7523,"ebcbeef":7524,"bbcbcdc":7525,"bdbcdbd":7526,"bffecc":7527,"ffbbef":7528,"fecfbc":7529,"bbbbcdbc":7530,"bffebd":7531,"ebbbedbc":7532,"efecec":7533,"bebcba":7534,"fbfbcc":7535,"ebbeebbebb":7536,"edecbbbb":7537,"ddecbe":7538,"bbdbcbbbb":7539,"ecbbac":7540,"dcfbbd":7541,"eccfebc":7542,"eaeec":7543,"ebecdbd":7544,"fefdf":7545,"eeee</w>":7546,"ddeebf":7547,"efcbecc":7548,"eeebea":7549,"bbffed":7550,"edceeee":7551,"beebebeee":7552,"ebfeebc":7553,"bcbcfbc":7554,"ecfbbee":7555,"edbceec":7556,"abcbf":7557,"bcdbbdc":7558,"edbedbd":7559,"ebfbccc":7560,"ebfbcbd":7561,"eabbbc":7562,"bbefdbe":7563,"bbfcfc":7564,"ebbbedbb":7565,"ecceebf":7566,"eefac":7567,"ecfbccc":7568,"dcbcbbbb":7569,"eeccdbe":7570,"bbdddf":7571,"bccbdbd":7572,"debbbebc":7573,"ebecdcc":7574,"bcfebcc":7575,"beebbbec":7576,"bdcfdc":7577,"bbecbecc":7578,"debebebe":7579,"dfcff":7580,"ebbcbeec":7581,"bbcbbcbbcbbc":7582,"cccbfc":7583,"fbebbbbc":7584,"feddcc":7585,"bceebfc":7586,"bacea":7587,"edbbbbbbbb":7588,"dfbebf":7589,"eeccfbc":7590,"fddbec":7591,"cccdbd":7592,"ebbdddd":7593,"efbebbbb":7594,"ebeecec":7595,"dbceebd":7596,"eebebba":7597,"beedeec":7598,"bcdbbef":7599,"ebffebb":7600,"cccbbbc":7601,"dbbbbbbebb":7602,"ebceced":7603,"bbfdbbc":7604,"bdcbedc":7605,"bbeebebd":7606,"dedfbc":7607,"bbdcebd":7608,"dabbc":7609,"bbebcbec":7610,"baedc":7611,"bbccfee":7612,"eeccdec":7613,"beeddec":7614,"eccdebd":7615,"ebbbcdbe":7616,"ebbeac":7617,"eeeebbbc":7618,"fdcbbc":7619,"efbdbf":7620,"eccbdbd":7621,"babda":7622,"eabeee":7623,"bbecbeee":7624,"bbfcbbbb":7625,"dcbdf":7626,"dceeebc":7627,"bbdbcf":7628,"ecbbeecc":7629,"efbcbbc":7630,"ebebdbc":7631,"deebebd":7632,"dbbeddd":7633,"bbbdbbbf":7634,"bbebe</w>":7635,"bdecccc":7636,"bccbcbf":7637,"bccbedd":7638,"dbbbbbbf":7639,"eebcbfc":7640,"ecbcdbd":7641,"bbbecbec":7642,"dcfbbbb":7643,"ebfbeebb":7644,"edcdedc":7645,"ab</w>":7646,"edcbccc":7647,"febbbbbe":7648,"fdeba":7649,"edecebe":7650,"ebccdbd":7651,"bbedbbee":7652,"ecbddee":7653,"edcecdc":7654,"bbbdbbcc":7655,"bcbcbfc":7656,"fecfed":7657,"bcbebbbbc":7658,"dbbbdebe":7659,"ecbcbfc":7660,"bbefdf":7661,"ddeef":7662,"dddedc":7663,"bccfef":7664,"deddbf":7665,"defdcc":7666,"bbebebbebb":7667,"beecbecc":7668,"edbeff":7669,"bccecec":7670,"ebccbbee":7671,"bbdbeebe":7672,"bebebccc":7673,"bbbfeec":7674,"debca":7675,"dcecdf":7676,"ebebfcc":7677,"ebcbbbcc":7678,"bbfac":7679,"ebfebec":7680,"eeebbbeee":7681,"dcbebcc":7682,"befdebb":7683,"bebcfee":7684,"bcbccccc":7685,"fecbbec":7686,"eebcdcc":7687,"deecdec":7688,"fbdbfc":7689,"efeedc":7690,"ebebeebc":7691,"edcffc":7692,"fccbebc":7693,"eedbbebe":7694,"bfefcc":7695,"ebccefc":7696,"dadf":7697,"eccdbec":7698,"dbbddbd":7699,"fcccccc":7700,"beccdbe":7701,"ecbdeec":7702,"ebcebfc":7703,"dbdbbdd":7704,"dcbcdee":7705,"ebecbbec":7706,"edcfebb":7707,"ebecbfc":7708,"ecbcded":7709,"bbdcdbc":7710,"bfeebbbb":7711,"edbebbee":7712,"ddbcbf":7713,"ebcbded":7714,"ddbded":7715,"bbcbeef":7716,"bdcbbbf":7717,"bebbedcc":7718,"ebebefc":7719,"eccca":7720,"fddeec":7721,"bbfbcbf":7722,"beccbebc":7723,"ebbeefee":7724,"ebcecdd":7725,"eadbd":7726,"bbbbcdee":7727,"bfbcccc":7728,"bbbbfed":7729,"bbeefbe":7730,"bbbdfee":7731,"bcbcebf":7732,"bdceedc":7733,"bdeedee":7734,"dcbdbe":7735,"bbbbdef":7736,"fcbcebb":7737,"bbeebbef":7738,"eeeebbebb":7739,"bbdcbbbc":7740,"bbcecbe":7741,"bfcdebb":7742,"bbebebeee":7743,"bbfeebd":7744,"badcc":7745,"beecdebb":7746,"eebcbbec":7747,"eeececc":7748,"bdeedbc":7749,"ecdbbbf":7750,"ebceef":7751,"ebdbbef":7752,"abeed":7753,"edceedd":7754,"ebceddc":7755,"dfffc":7756,"fccbbd":7757,"ecfeccc":7758,"eceebbd":7759,"bbbeeeebb":7760,"bbeebeebe":7761,"ebcbebec":7762,"dfdbbc":7763,"dbebeed":7764,"bdfebbc":7765,"edfebf":7766,"bbfdebe":7767,"edcdbbc":7768,"babbcc":7769,"dbbebbbd":7770,"bbebefc":7771,"eebfebe":7772,"bedddd":7773,"becbcbe":7774,"dbcdef":7775,"fbdbebc":7776,"bcfdef":7777,"edbbebbc":7778,"ebbddcc":7779,"bbbdbbbbbbbb":7780,"dedebf":7781,"bfbebbf":7782,"dbebbbbc":7783,"feefbc":7784,"fbedbbc":7785,"bfeefc":7786,"bcdddd":7787,"effebc":7788,"bbbebbdd":7789,"bcbcbeec":7790,"bbbffbc":7791,"bfbdef":7792,"dbebced":7793,"bdceeee":7794,"fbfebe":7795,"bbcdbcc":7796,"bedcdec":7797,"ecbc</w>":7798,"ffbeec":7799,"fecddc":7800,"bedcdd":7801,"ebceebbc":7802,"beceeed":7803,"ebdcccc":7804,"bbdbeef":7805,"efcebf":7806,"bceebef":7807,"bdbcdbc":7808,"becceebc":7809,"eedbfcc":7810,"ececdbc":7811,"ecceebe":7812,"eaebd":7813,"feedec":7814,"ebdebbcc":7815,"bbebbbef":7816,"eceeef":7817,"dbbebbbc":7818,"efcbcbc":7819,"bbebbbebbbb":7820,"ebccded":7821,"dbfbbbc":7822,"cccfbc":7823,"fbdfec":7824,"fbbbfcc":7825,"bada":7826,"ddcfbc":7827,"debbdec":7828,"bbbbbeebe":7829,"fceef":7830,"eccbdcc":7831,"eecdbbd":7832,"ebbcbbbbc":7833,"bbccfec":7834,"bbdcbdc":7835,"beaa":7836,"bfebbbf":7837,"bdbcbbf":7838,"dcbcdf":7839,"bbcfebe":7840,"cccbbbe":7841,"bbebbbdc":7842,"dbffcc":7843,"eeefa":7844,"bfe</w>":7845,"ebecbbbd":7846,"eecceecc":7847,"debeebe":7848,"becbcbf":7849,"dedbbbc":7850,"eeeebdc":7851,"ebdcdee":7852,"efbbeec":7853,"dbefbf":7854,"bbecfec":7855,"bbbfebd":7856,"ecdbbed":7857,"dcdebf":7858,"dfbced":7859,"bbbfdee":7860,"edbedbb":7861,"dceedf":7862,"feebfc":7863,"befbbed":7864,"bebfebe":7865,"bedcdee":7866,"dffef":7867,"fffdd":7868,"dbdebbc":7869,"debddd":7870,"edccfc":7871,"edbeebf":7872,"ebbbebbbd":7873,"eedd</w>":7874,"ebcbcfc":7875,"dbdbebd":7876,"bbecdcc":7877,"bbdcbbbe":7878,"bdeebbf":7879,"ebbeedbe":7880,"fbcbeec":7881,"eebeac":7882,"abdbd":7883,"efdccc":7884,"ffdebb":7885,"fbbcbbc":7886,"efecbf":7887,"bfcbbcc":7888,"bbbbcebd":7889,"bcecbbf":7890,"edbcdbe":7891,"bffccc":7892,"bfbcdf":7893,"ebcfa":7894,"ffebcc":7895,"bcceedd":7896,"dbfdec":7897,"bbbfbdc":7898,"beccbbf":7899,"beccdbc":7900,"bddbbbbc":7901,"eeceeed":7902,"ffcdd":7903,"efcba":7904,"bedcebe":7905,"bcbfbbc":7906,"deeea":7907,"bebdded":7908,"dfdebe":7909,"bddb</w>":7910,"dccfbd":7911,"efcdef":7912,"bcbbebdc":7913,"bebdbbbd":7914,"fedded":7915,"eebdbbf":7916,"ebbecbbd":7917,"bbecbcbc":7918,"eeeeeeebb":7919,"beedfc":7920,"bbdecec":7921,"fbebbdc":7922,"bbbbcbebc":7923,"eebcfec":7924,"bdbbefc":7925,"bbbbebbebb":7926,"feeddc":7927,"bcbebbebc":7928,"ecfebcc":7929,"bffeec":7930,"becfbbc":7931,"feedbf":7932,"bdfddc":7933,"ebbcba":7934,"bdbd</w>":7935,"efbcfc":7936,"bfbddd":7937,"edccecc":7938,"bbbcdbbc":7939,"edbca":7940,"decdbf":7941,"eebdff":7942,"beeddbc":7943,"eba</w>":7944,"eceebbbe":7945,"effbcc":7946,"bbdbcdc":7947,"bbdbbeec":7948,"bbffdd":7949,"bbbcbebbbb":7950,"cccbcbc":7951,"beeebbbd":7952,"bcedbec":7953,"bfeea":7954,"bebfff":7955,"febeebe":7956,"fcbeebc":7957,"feebcbc":7958,"ecbeefc":7959,"debcdec":7960,"edecbbd":7961,"bbbedebe":7962,"bbbccccc":7963,"fbcba":7964,"eeebebbee":7965,"bcbeeecc":7966,"ebcbeebc":7967,"beeebbcc":7968,"bbebbdee":7969,"dcecbbc":7970,"dcebccc":7971,"ebbceebd":7972,"dbdbeec":7973,"bbbbcbbec":7974,"bbbbcbbcc":7975,"bcbdeec":7976,"bbadd":7977,"ebbefbf":7978,"fbdebf":7979,"dadbe":7980,"dbbdbbbd":7981,"ebdfbbc":7982,"bdcdebe":7983,"ecbcbbec":7984,"bfbcbbf":7985,"bfbdbe":7986,"ebeeebbbb":7987,"ecceddd":7988,"bfcbebd":7989,"bcbdbcc":7990,"ecfdbf":7991,"fcfebc":7992,"bbbfbef":7993,"bfecbec":7994,"ebcdbb":7995,"ebdecdc":7996,"fbcbbbd":7997,"bbcdebd":7998,"efbfcc":7999,"ebebbeec":8000,"bbdecbe":8001,"bcecbebc":8002,"affc":8003,"ebebded":8004,"eadcc":8005,"edecdf":8006,"ebeecbf":8007,"decbbcc":8008,"ecfac":8009,"bcceeebb":8010,"dbebcee":8011,"eaeeee":8012,"decebec":8013,"dedbbbd":8014,"feebebc":8015,"ecccdbc":8016,"eebddee":8017,"febbccc":8018,"bcceebe":8019,"bebebbed":8020,"bfcdef":8021,"debbebf":8022,"febbbbf":8023,"edeedbc":8024,"ecbcdcc":8025,"deecbbc":8026,"beebeef":8027,"edceeed":8028,"feddbd":8029,"bcccdee":8030,"bdbdbbc":8031,"eeebefee":8032,"bfbac":8033,"ebccbebc":8034,"beebeeeee":8035,"dcbbbdc":8036,"bbbebba":8037,"ffbbdc":8038,"feffc":8039,"fbdbbbc":8040,"ebbbcccc":8041,"ebeecebb":8042,"ebdbebbc":8043,"efcdbf":8044,"ebbbb</w>":8045,"bbbbbedc":8046,"ebebcef":8047,"edcdbec":8048,"fbeebec":8049,"adbbbb":8050,"dceedbe":8051,"eecbcbf":8052,"badec":8053,"dbcdbbc":8054,"ebbcbbed":8055,"bcfdebb":8056,"fdcdbe":8057,"bebfbebe":8058,"ffbbed":8059,"bfcbecc":8060,"dedba":8061,"ebebcebc":8062,"becdbbbb":8063,"bbdfebc":8064,"bbbbcdf":8065,"bcfbbed":8066,"ebdedbd":8067,"bbdbbbcc":8068,"bcccdf":8069,"ebbecbcc":8070,"ebbbeccc":8071,"beeebbec":8072,"fcceebc":8073,"ebeeebeee":8074,"ebddedc":8075,"bebbbbbebbbb":8076,"ebbfbef":8077,"ddfebe":8078,"bccdbec":8079,"befebec":8080,"daba":8081,"bdcceec":8082,"ebeeea":8083,"dbbbdef":8084,"bebcbbebb":8085,"bceeebf":8086,"bdeceec":8087,"bbcdbfc":8088,"bbdeef":8089,"dbbeddc":8090,"fbcdebb":8091,"bbcbebec":8092,"ebdfef":8093,"bfecdf":8094,"dcbeeec":8095,"ecceced":8096,"dbbebecc":8097,"deddef":8098,"fbdbbbe":8099,"eceebbbc":8100,"fceedd":8101,"ebddbcc":8102,"dbebcbe":8103,"bdcbbdd":8104,"fccdcc":8105,"debeef":8106,"fecfee":8107,"ebcecbf":8108,"bbfbbdc":8109,"dbcbeed":8110,"ebbcdbf":8111,"ddcbbbe":8112,"bebfbbbe":8113,"bdffcc":8114,"ebeb</w>":8115,"ebdbcdc":8116,"ffcccc":8117,"efcdebb":8118,"abbebc":8119,"bbecdebb":8120,"deecdee":8121,"edebbbbc":8122,"efedbd":8123,"ffdbbc":8124,"decbbed":8125,"eeccdee":8126,"dabea":8127,"ecbeac":8128,"bbabbbe":8129,"dcbfed":8130,"bececec":8131,"bcceebf":8132,"ebcdbdc":8133,"befeebc":8134,"bdbeebbc":8135,"dcbceec":8136,"bbdedbd":8137,"cccddc":8138,"ecbeebcc":8139,"debcbbbb":8140,"abbdd":8141,"edebbbbbb":8142,"dceebec":8143,"ebfac":8144,"bdcdbbc":8145,"dbddbbbb":8146,"bbbdbcbc":8147,"efcefc":8148,"beebebbc":8149,"bdeebbbe":8150,"ebeedbd":8151,"eeeddf":8152,"edbcdbc":8153,"eccdbcc":8154,"bbebbdbc":8155,"abced":8156,"fef</w>":8157,"fbeac":8158,"febbdf":8159,"eeecbbbe":8160,"efbeebc":8161,"ebefebc":8162,"bbeebecc":8163,"bdecfc":8164,"abcee":8165,"dde</w>":8166,"becbeebc":8167,"deceebc":8168,"beeebeef":8169,"dcecbec":8170,"ebdfebe":8171,"ebdbdcc":8172,"bdeeeec":8173,"cccccccccccc":8174,"bbdfbbbb":8175,"bebdbebd":8176,"febbeec":8177,"ebbbebbec":8178,"eccbbebe":8179,"dcceedc":8180,"bccbbbcc":8181,"dccbcbc":8182,"beccded":8183,"fedbbbb":8184,"bdeebbbc":8185,"bbdcccc":8186,"dbeebcc":8187,"dbeecbc":8188,"bebcefc":8189,"fbcbbcc":8190,"ebecedc":8191,"beccbebe":8192,"fbdbef":8193,"eebeebcc":8194,"bbaba":8195,"bedc</w>":8196,"fceebf":8197,"ebdbbebc":8198,"bbdbefc":8199,"bfdebf":8200,"eccbeebb":8201,"dbeeecc":8202,"bbecedc":8203,"eeecff":8204,"ececbbbb":8205,"ebbeeff":8206,"feebbbf":8207,"ececbdc":8208,"ebbbcbbbc":8209,"afbbc":8210,"bede</w>":8211,"fcbded":8212,"ebdeebf":8213,"eecedcc":8214,"dbdbbcc":8215,"eebeefc":8216,"debcded":8217,"dbbbebbbb":8218,"ddbcebb":8219,"fcebfc":8220,"ebecfec":8221,"bebbcbec":8222,"bebf</w>":8223,"efeea":8224,"ebebebbee":8225,"eecfebc":8226,"dbebedc":8227,"bbbdddc":8228,"eebceebc":8229,"dbbcbebe":8230,"bbefccc":8231,"edecccc":8232,"eececdc":8233,"ebecebf":8234,"bdfdbf":8235,"bbffef":8236,"dbdbbebb":8237,"bcbedebe":8238,"bceebcbc":8239,"bfcbeed":8240,"daccc":8241,"ecfba":8242,"dcbeebd":8243,"bbbbcbdc":8244,"fcbfcc":8245,"eecfef":8246,"decbeee":8247,"ebdcbcc":8248,"bdeebdc":8249,"dbbeded":8250,"beebbebc":8251,"ecfea":8252,"bdbcff":8253,"bbdbdbbbb":8254,"bcecbcbc":8255,"febbbec":8256,"ececdcc":8257,"ebbeeebf":8258,"efbfbeee":8259,"dcdbbbc":8260,"bbdbcbbc":8261,"ebecbcbc":8262,"beccbbbe":8263,"deeac":8264,"dbdbbed":8265,"dbbcff":8266,"eefeecc":8267,"bfdbbbc":8268,"efebfc":8269,"befbeef":8270,"bbccebbc":8271,"fbeecbc":8272,"eeeedbe":8273,"bbbbceec":8274,"bdbebbebb":8275,"bfbbccc":8276,"ebcbfcc":8277,"dbceecc":8278,"bebebebbbb":8279,"eefbbed":8280,"bbefbbbe":8281,"fbbedcc":8282,"effbbbb":8283,"ddfa":8284,"eccecbe":8285,"deddebb":8286,"dabbbb":8287,"decfed":8288,"dbdfcc":8289,"befbccc":8290,"bbbdedc":8291,"ebdcff":8292,"bdbcbebe":8293,"ddeced":8294,"dedbbee":8295,"ebbcfcc":8296,"bbefbcc":8297,"eebdbdc":8298,"bbddbdc":8299,"efbdebb":8300,"ddbcbe":8301,"ebdeedd":8302,"dbbecebe":8303,"fbcdbf":8304,"beebbbeee":8305,"dcbebbd":8306,"bbcbdbf":8307,"ebfbbed":8308,"decebcc":8309,"bcecff":8310,"bfbbebf":8311,"bbecbebd":8312,"eefdef":8313,"bbefbbee":8314,"deeca":8315,"ebbdcbc":8316,"eecbcbe":8317,"eecfa":8318,"dbccccc":8319,"dbdfbd":8320,"fdda":8321,"eceebbee":8322,"bdbcbdc":8323,"dbcbbbf":8324,"bebcbbcc":8325,"efcfed":8326,"fecdbf":8327,"decdebc":8328,"fbedef":8329,"edbcedc":8330,"edbedec":8331,"bbcbcef":8332,"ebffed":8333,"bbbddcc":8334,"bcbdff":8335,"debddf":8336,"edfbbbc":8337,"edbcbcc":8338,"fcbeef":8339,"dbbebbbf":8340,"ddcfcc":8341,"eeccbbf":8342,"dcdbbee":8343,"bebcbeee":8344,"bdeebbee":8345,"ebebebec":8346,"becfef":8347,"eebebbed":8348,"ecbdedc":8349,"eceeeec":8350,"dbbecef":8351,"ecec</w>":8352,"dcdefc":8353,"deedef":8354,"ebcceecc":8355,"bceefbc":8356,"badbf":8357,"ebbdba":8358,"dceea":8359,"ddeddc":8360,"becdbcc":8361,"bbbcfcc":8362,"bbbcbebf":8363,"decfbd":8364,"decbcec":8365,"bbecbeed":8366,"ddcfec":8367,"bdfbbbd":8368,"bbceedd":8369,"eebebbbbc":8370,"ecfbbbd":8371,"bbebd</w>":8372,"bbfecbc":8373,"bbbcbbbcc":8374,"cccbebe":8375,"bbccdcc":8376,"becbdbd":8377,"bfbedf":8378,"ecccff":8379,"edbbbfc":8380,"bbbbbced":8381,"efbdec":8382,"bdcbccc":8383,"babcbc":8384,"bbebcbbbe":8385,"bedcecc":8386,"dcecfc":8387,"becbcdc":8388,"ebbcfbd":8389,"eefdebb":8390,"bfecfc":8391,"bdcfbf":8392,"bbdcdbd":8393,"dacea":8394,"acccc":8395,"dceeecc":8396,"dbebdbd":8397,"bdfded":8398,"bdcbbebb":8399,"bfcebcc":8400,"beecbef":8401,"bcecbbd":8402,"bccbcbe":8403,"dbcea":8404,"bfcebec":8405,"eeeeecc":8406,"beebbebf":8407,"ecdcdd":8408,"bdbedcc":8409,"aeeec":8410,"bfbceec":8411,"bdfba":8412,"beeefbc":8413,"bceebbebb":8414,"efbbebd":8415,"fecebf":8416,"beecfbc":8417,"edfdec":8418,"deceecc":8419,"bcbdccc":8420,"aeeebb":8421,"eddedcc":8422,"efceecc":8423,"eebcbbbd":8424,"dbfbbee":8425,"beeebbbf":8426,"beecdcc":8427,"fbddcc":8428,"bedcbcc":8429,"ebbbedee":8430,"efbcdd":8431,"beeedee":8432,"beeedcc":8433,"debeecc":8434,"edeebdc":8435,"bbecbbed":8436,"eeeebbd":8437,"bcecebd":8438,"bbfcbec":8439,"edbbba":8440,"dbebbdd":8441,"bebdfbc":8442,"debcff":8443,"eeecbbf":8444,"bedcff":8445,"beddbec":8446,"bfbdbbc":8447,"ebbfdee":8448,"ebccdcc":8449,"ecbcbbee":8450,"fedebc":8451,"fbbeba":8452,"ebeeeed":8453,"bebceecc":8454,"ececeec":8455,"bcdcdee":8456,"efdbdc":8457,"bbbcbbdd":8458,"bcbeea":8459,"edeeebd":8460,"dbefebb":8461,"bebcbbed":8462,"dedebbc":8463,"bcbdbbf":8464,"becbeebe":8465,"beccebbc":8466,"bcccdcc":8467,"dbbbbbbbbc":8468,"eedcebc":8469,"eeebebbbe":8470,"bffbbbe":8471,"ebfbbebe":8472,"bcbcedc":8473,"ecedbbc":8474,"bdbbebec":8475,"ebebdbf":8476,"ebeeebebe":8477,"bfceebc":8478,"bebfdf":8479,"bdbdbbd":8480,"eedcedc":8481,"eeebbbbf":8482,"febebebe":8483,"bcdbbfc":8484,"ecdbbdc":8485,"debebdc":8486,"eeecebd":8487,"bdfbbcc":8488,"bcbbbbbbbe":8489,"bebbbebbbe":8490,"eedbbfc":8491,"edeceec":8492,"dcbfdc":8493,"beebbbbbc":8494,"ebbeca":8495,"efbdbc":8496,"deecccc":8497,"ecccbdc":8498,"eeecbbd":8499,"bfcbbebb":8500,"deefec":8501,"dbcbbbbc":8502,"fedbbf":8503,"debcdbe":8504,"bdbddf":8505,"edbb</w>":8506,"bbecba":8507,"fdcfec":8508,"bbeeddc":8509,"debbebbc":8510,"beecfec":8511,"bbfcdbe":8512,"bdebbbbbb":8513,"bedebecc":8514,"ebeeebbee":8515,"bbcbefc":8516,"bccdeec":8517,"efcbbbd":8518,"eebceecc":8519,"ebbeeccc":8520,"ebccebbc":8521,"bcbdebc":8522,"fbbcfc":8523,"ebfeebf":8524,"edcfdd":8525,"feebbebb":8526,"bbbcddc":8527,"feebbbd":8528,"eeeeebc":8529,"beccbbd":8530,"febbdd":8531,"dcbcbcc":8532,"efbcebc":8533,"bcceef":8534,"edcbcec":8535,"beeedbd":8536,"bbccded":8537,"ebccfec":8538,"fbbcbbbb":8539,"aeebd":8540,"dfceec":8541,"dcbfbf":8542,"ebebcfc":8543,"eeecdcc":8544,"eeebbbbee":8545,"bbbcbeed":8546,"decdbec":8547,"bceeddc":8548,"bcee</w>":8549,"eedbbef":8550,"fcdbbd":8551,"ebfbbbbc":8552,"ebfdef":8553,"bfcbeebb":8554,"ebeebfc":8555,"dbbebbbbc":8556,"dbdfec":8557,"ebecbef":8558,"ebbbcbebe":8559,"bfbcff":8560,"efbddc":8561,"ebeebbbbbb":8562,"fcbcef":8563,"bbbcfbf":8564,"bbebedd":8565,"bffebf":8566,"dbfbeec":8567,"bbdfbec":8568,"edcac":8569,"dcecebc":8570,"dbbebbed":8571,"bcbedef":8572,"fdcbcc":8573,"bfdedc":8574,"bbecebec":8575,"edf</w>":8576,"eccda":8577,"dbddbbc":8578,"eeeedbc":8579,"beccfbc":8580,"ecccded":8581,"ebdcbbbb":8582,"bbdcbbf":8583,"adbec":8584,"fcbcbbc":8585,"eccbbbbc":8586,"debcbbf":8587,"eedcbbc":8588,"eebeeecc":8589,"eecbeebe":8590,"bbfcbbf":8591,"fadd":8592,"bdbeba":8593,"ebbfbfc":8594,"efdbbf":8595,"ebdeebe":8596,"dfecbd":8597,"dfcdbc":8598,"ecccdbe":8599,"bceedbf":8600,"eeefeeee":8601,"dfeebd":8602,"ffffc":8603,"dbddebe":8604,"efcfcc":8605,"fbdded":8606,"beeacc":8607,"dfbbdd":8608,"bebeeebc":8609,"ebecbbcc":8610,"bbebeccc":8611,"edeeeec":8612,"ebebbbbbbbb":8613,"bebedebb":8614,"bebcdcc":8615,"bebdbeec":8616,"ccccccccccc":8617,"ddbeef":8618,"bfcbbbf":8619,"befdef":8620,"bcdebfc":8621,"efbcbec":8622,"ebebddc":8623,"efceebc":8624,"bcbcbcbd":8625,"ececded":8626,"ebdbcebb":8627,"ebdfebc":8628,"bccbdcc":8629,"bdcdeec":8630,"deefbd":8631,"deedbbc":8632,"deebced":8633,"bfcbeee":8634,"ecebbbbbb":8635,"ebeebbebe":8636,"bbcfbbbb":8637,"eecbdcc":8638,"bdcdfc":8639,"ffbebf":8640,"bfcbbed":8641,"bbecbbcc":8642,"fbfbbbe":8643,"eceedec":8644,"edbbcdbf":8645,"aeebf":8646,"ebcfecc":8647,"bcbcfee":8648,"acdbf":8649,"bcec</w>":8650,"eebbeba":8651,"bccbbfc":8652,"bbdbded":8653,"eecdbdc":8654,"debebbf":8655,"bbefbebe":8656,"edebdcc":8657,"ebcbbebd":8658,"bccedcc":8659,"baded":8660,"cccebf":8661,"ebabbbb":8662,"eddddd":8663,"ebebdebb":8664,"ebccebcc":8665,"abedc":8666,"fcbbbec":8667,"dfbedc":8668,"dfedcc":8669,"dbdb</w>":8670,"debebbbc":8671,"dbbdbec":8672,"bbdbdbf":8673,"bbdbddc":8674,"ddcebf":8675,"acdbc":8676,"bbdcecc":8677,"deccbec":8678,"bdeb</w>":8679,"bfecebc":8680,"bbcfbec":8681,"bbbddbf":8682,"eccceccc":8683,"bbebebebc":8684,"dbeeebd":8685,"bcbddbc":8686,"bdbc</w>":8687,"ddfebc":8688,"ebdbebbbb":8689,"dfbcf":8690,"bcccedc":8691,"fdcebd":8692,"eedbbebc":8693,"dbefed":8694,"dbedbec":8695,"fecebbc":8696,"fccbbbe":8697,"eedcebd":8698,"fbbebbcc":8699,"edeebbbe":8700,"fcfbec":8701,"bbdddbc":8702,"bcecbef":8703,"bebbcbbbe":8704,"bddebdc":8705,"bbebbba":8706,"bcecbdc":8707,"eedc</w>":8708,"ecdbfcc":8709,"becbebbbb":8710,"edcbbdc":8711,"eeeebbef":8712,"bfbcbbd":8713,"ebbecdbe":8714,"eadec":8715,"eeeefc":8716,"bbabbbc":8717,"edcecec":8718,"ebdcbdc":8719,"eeefbeee":8720,"bdbe</w>":8721,"bdbbfcc":8722,"ecee</w>":8723,"bffdbc":8724,"bccdecc":8725,"bbdeccc":8726,"debcecc":8727,"debcebd":8728,"ddbbfc":8729,"bbcfebc":8730,"eecbbfc":8731,"eecfbbc":8732,"dcceebd":8733,"bcbedbbc":8734,"dbecebc":8735,"bceeba":8736,"bbecefc":8737,"ebebcdd":8738,"ebfdbbc":8739,"bbbecbbbe":8740,"eefcccc":8741,"dcfbbf":8742,"bbccbccc":8743,"dfcebc":8744,"dbecff":8745,"beedebc":8746,"fddfc":8747,"ecbd</w>":8748,"fbceebc":8749,"fdcecc":8750,"bdbeded":8751,"edeedee":8752,"dcbac":8753,"edcfbe":8754,"fccbef":8755,"eebeebec":8756,"bbddef":8757,"ebbeebef":8758,"dcbdbbc":8759,"bccbcdc":8760,"ebfbeef":8761,"bbbdb</w>":8762,"debbdebb":8763,"ebeeebbbe":8764,"ddbcf":8765,"ddbbebc":8766,"eecbbef":8767,"dbbbbbec":8768,"eeecded":8769,"dceac":8770,"dcdbfc":8771,"bbbcfbe":8772,"dbbdcbd":8773,"bbedbef":8774,"bbddebc":8775,"eceeebd":8776,"eedbbbec":8777,"ebccbef":8778,"fdf</w>":8779,"edfdbd":8780,"bbbbdbbbe":8781,"bbcecbf":8782,"ecdcfc":8783,"eccdccc":8784,"ebbcbecc":8785,"bebfccc":8786,"bbebc</w>":8787,"bbcbbeec":8788,"dbddef":8789,"beedbcc":8790,"bdbedebb":8791,"acfa":8792,"ffcff":8793,"bcbbeccc":8794,"ebbbeedc":8795,"bbbbeebbbb":8796,"bbbcdebe":8797,"bcbcdcc":8798,"bceeded":8799,"fdcded":8800,"bdecdbe":8801,"efbcebe":8802,"bbeceebc":8803,"beecba":8804,"bbbcdef":8805,"adebc":8806,"fcbeebe":8807,"bccdbcc":8808,"fbceecc":8809,"bcbfbbbb":8810,"ebfbcec":8811,"ffbcbd":8812,"fbcbebd":8813,"bbedbfc":8814,"beecbedc":8815,"abeef":8816,"bbcdecc":8817,"bccecbd":8818,"dbbbac":8819,"fecdebb":8820,"bbbfba":8821,"eebddec":8822,"aeccc":8823,"ecdbbebb":8824,"bfedbc":8825,"bfeded":8826,"bbdeedd":8827,"bdcbdbd":8828,"bebebcbd":8829,"ebbcebcc":8830,"feebeef":8831,"dbfbebc":8832,"befcdf":8833,"ddbeebe":8834,"ebcbdbf":8835,"fbcbecc":8836,"eddebdc":8837,"ebbeceec":8838,"dcedbc":8839,"eecbeef":8840,"edcfbf":8841,"bfcfbd":8842,"fccbecc":8843,"bfeeebc":8844,"bbbbeecc":8845,"bbebbbcbc":8846,"fecbbee":8847,"ecfedcc":8848,"dcbfbd":8849,"bbbbda":8850,"bbedecc":8851,"bdfbbec":8852,"bdbbea":8853,"fcdbbbb":8854,"eecbbebc":8855,"ffecbc":8856,"eebdbbd":8857,"bcbcbcbcbcbcbcbcbcbcbcbcbcbcbcbc":8858,"ffbcec":8859,"bbccefc":8860,"acbbbe":8861,"bebdbef":8862,"eebdbbbe":8863,"eeebebef":8864,"eecbcee":8865,"dfbcbf":8866,"bfcfed":8867,"dbfdcc":8868,"fecbedc":8869,"ecbedebb":8870,"dfcbbf":8871,"beebbeeee":8872,"abcf":8873,"bbcbeebc":8874,"baeba":8875,"bbdddee":8876,"dcfdee":8877,"cccbbee":8878,"cccbef":8879,"ecbddbe":8880,"ecbddbc":8881,"bdbcecc":8882,"edebbee":8883,"edefbf":8884,"ebdb</w>":8885,"eecfecc":8886,"fbcbbbf":8887,"bbebbbbebe":8888,"ebccbbec":8889,"beedef":8890,"ebfbeebe":8891,"ffebec":8892,"ddcbebe":8893,"fceeebb":8894,"fcfa":8895,"bbbcfed":8896,"decbcbd":8897,"bfbbbdc":8898,"dcbca":8899,"ebdeeed":8900,"bdcebdc":8901,"ebbcbbebe":8902,"edfdcc":8903,"ebebcbec":8904,"bbceebbc":8905,"ffdfc":8906,"bbeebebf":8907,"eeccbbd":8908,"eefbbdc":8909,"fffebb":8910,"bbbcbbbec":8911,"bfcddc":8912,"abcebb":8913,"bbbbbebec":8914,"eecbbbec":8915,"dfbdcc":8916,"fccfdc":8917,"edbbdcc":8918,"ebebebcc":8919,"bcecbbec":8920,"eedefcc":8921,"ebcbbeec":8922,"bbbcbcbbbb":8923,"dccbeee":8924,"eebcbef":8925,"ebcbcebc":8926,"eecfdd":8927,"fccfee":8928,"bebbbbbbbd":8929,"bfbcbcc":8930,"edfdbb":8931,"dcbbccc":8932,"bbfdbbbb":8933,"bdceeed":8934,"beecbcbc":8935,"bebbbbbebe":8936,"ebebebbd":8937,"bbcedbd":8938,"fbcbbed":8939,"bbebbecc":8940,"aebdc":8941,"bfdced":8942,"ebcecebb":8943,"bccfbbc":8944,"eecdbbbb":8945,"dbebebbc":8946,"bbbcea":8947,"bebcebec":8948,"bdcdbec":8949,"fbdfee":8950,"bcfdfc":8951,"bbbbeeec":8952,"efbbecc":8953,"effbec":8954,"bbcbdcc":8955,"bceebbed":8956,"bbbbbbbbbbbbbbc":8957,"febbbebe":8958,"bcfcccc":8959,"ebdbbfc":8960,"afebe":8961,"ebcbcebe":8962,"dfbbef":8963,"dfbdbd":8964,"ffda":8965,"deedbec":8966,"bcdbba":8967,"bfbeff":8968,"ebeeebbc":8969,"ebcdccc":8970,"bbfbbfc":8971,"dbebcebb":8972,"bdcdebc":8973,"dbcecbc":8974,"dbbdcdc":8975,"bbebbbbcc":8976,"bbbfdbd":8977,"dbbdbbbe":8978,"fedddc":8979,"edbebfc":8980,"ebbdded":8981,"beceeebb":8982,"beeebbef":8983,"edbbbbcc":8984,"dbbecbec":8985,"fbedebe":8986,"eebedbf":8987,"eebffc":8988,"eeddfc":8989,"bcdbbebc":8990,"efeebbc":8991,"bbfdfc":8992,"bbfbcec":8993,"dbbedbbc":8994,"bebdebbc":8995,"edbcdee":8996,"bbdbdebb":8997,"edcda":8998,"eabbbd":8999,"bebfbcc":9000,"efcbbec":9001,"beebbfc":9002,"bdbddbe":9003,"bdeedec":9004,"dcdfcc":9005,"bbbbbddd":9006,"bebcebcc":9007,"eebdbebe":9008,"ecbfdd":9009,"ebbdbbcc":9010,"dbbbda":9011,"bbedebbc":9012,"bcedccc":9013,"ebbbbbbbbbe":9014,"bbbcbbebc":9015,"efcbbee":9016,"fbecccc":9017,"bcbddbd":9018,"dedceec":9019,"eceefcc":9020,"dbbddcc":9021,"fbedfc":9022,"bcbebbdc":9023,"bdfea":9024,"eedbba":9025,"dfdebc":9026,"ebfecbc":9027,"dbfbef":9028,"bdeeeecc":9029,"dfcccc":9030,"feebbec":9031,"beccefc":9032,"beecbbee":9033,"eefebec":9034,"dbbbbdbd":9035,"bdeedcc":9036,"fecdfc":9037,"bcfbbbbc":9038,"edebeebb":9039,"dbeeeee":9040,"dbceeec":9041,"bebcfcc":9042,"bebcecbc":9043,"feeebbc":9044,"ddcbbee":9045,"beecedc":9046,"efeced":9047,"bbdbdbc":9048,"bdcecbc":9049,"dbcebcc":9050,"bcdd</w>":9051,"edecdbe":9052,"ebbbedbd":9053,"ebedbbbe":9054,"bbcbded":9055,"bccbbebc":9056,"bbffbbc":9057,"ebbeebbec":9058,"effbbf":9059,"ebeeced":9060,"bfeddd":9061,"bfebbbc":9062,"eebcfcc":9063,"ebdcdec":9064,"eeebeeeebe":9065,"bbbbeebf":9066,"ebcbedbe":9067,"bbcebfc":9068,"bbdbebbd":9069,"efcbebd":9070,"debebbee":9071,"bcccff":9072,"bebfdd":9073,"ecbeeecc":9074,"bebcbedc":9075,"bcbcebbc":9076,"beebb</w>":9077,"bbdbebec":9078,"bbebbdbd":9079,"ebbbbdcc":9080,"bebefbd":9081,"beccbfc":9082,"dbecdec":9083,"ecdddd":9084,"bccbbbec":9085,"ebfeef":9086,"bdcfebb":9087,"bebcbbbf":9088,"efcbedc":9089,"beccbbbc":9090,"eedda":9091,"ebbefdc":9092,"deecded":9093,"fddff":9094,"bdbebbed":9095,"bcbdbebe":9096,"ffcfc":9097,"edbcbbbe":9098,"dfbeebb":9099,"beecbebd":9100,"bcccdbe":9101,"bcccbcbc":9102,"dcecdec":9103,"ddbba":9104,"eccfef":9105,"dceebcc":9106,"dfebdc":9107,"eeccded":9108,"bcfdbbc":9109,"bceddec":9110,"bebbbfcc":9111,"bbceced":9112,"bbdfa":9113,"dbcbbdc":9114,"eeeebbbf":9115,"bcbeac":9116,"eebddbd":9117,"edfbfc":9118,"ebbfdbd":9119,"bbbbbbbdc":9120,"ebfbbef":9121,"beeeeec":9122,"eebdfbc":9123,"bcdbbbec":9124,"eccecbf":9125,"bbeefebb":9126,"eccfbbc":9127,"eafbc":9128,"bddbccc":9129,"bfbeecc":9130,"efebbcc":9131,"ebebebbf":9132,"beecebbc":9133,"bccdbbbb":9134,"eeeebebf":9135,"beedded":9136,"bddbbebb":9137,"ebbfdbb":9138,"fcdccc":9139,"eccefcc":9140,"ddcbbbd":9141,"eeecdbd":9142,"ecbcbccc":9143,"bfeebcc":9144,"bebeeeebb":9145,"eebcdebb":9146,"dbeca":9147,"ececa":9148,"bbbbbedd":9149,"bbcbbebd":9150,"bbcbcdd":9151,"bbdbcdd":9152,"edcfebc":9153,"bbbcebcc":9154,"debedbc":9155,"ecbeeccc":9156,"deecef":9157,"bddeccc":9158,"bfebecc":9159,"bccb</w>":9160,"feebbcc":9161,"acdec":9162,"bbbcecbc":9163,"bbbcbbef":9164,"deebeebb":9165,"bbddebd":9166,"eceebbcc":9167,"ebbbbebec":9168,"dffbbc":9169,"bbeeded":9170,"feebeebe":9171,"bbddfc":9172,"bbebcccc":9173,"bdbdbbbd":9174,"bdbcbbbd":9175,"ebcfbec":9176,"bbbebcbf":9177,"ddcbfc":9178,"bbbbcdbd":9179,"eeccdcc":9180,"bbdcbbdc":9181,"ecbebbed":9182,"deecdbe":9183,"eceefbc":9184,"bcebac":9185,"bfacc":9186,"bffbebe":9187,"ebbddbd":9188,"dcfbdc":9189,"bbeebbebc":9190,"bbbfebbc":9191,"bcbdbdc":9192,"fdcebe":9193,"bebbbbbbf":9194,"ebbecdf":9195,"efbebcc":9196,"ebcfebd":9197,"becbbbcc":9198,"dfeeee":9199,"feebbef":9200,"fccdbd":9201,"dbecfc":9202,"dbbdced":9203,"bdbdbdc":9204,"bbdeebbc":9205,"dbbecbbbb":9206,"bbddeec":9207,"fdebecc":9208,"bbbedebc":9209,"feebbebe":9210,"feefbf":9211,"dbfdbf":9212,"defdbd":9213,"ebdcdbc":9214,"eebbcccc":9215,"ddbebbc":9216,"becebfc":9217,"ecceeebb":9218,"bccbcbbc":9219,"dbbbba":9220,"deccef":9221,"ecbda":9222,"edcceec":9223,"ebbdcdd":9224,"ddeddd":9225,"bbdeced":9226,"befecbc":9227,"eeeeeebf":9228,"bdecdec":9229,"ebbacc":9230,"ebedccc":9231,"becbeef":9232,"bebeded":9233,"ebccbbbd":9234,"ecbebbbf":9235,"dbbbbdbe":9236,"bcecdbd":9237,"fcbbbcc":9238,"fcdbdc":9239,"bbbebcee":9240,"baebbc":9241,"bebebebbc":9242,"dbbebbee":9243,"eebcbebd":9244,"eccbbef":9245,"ffeccc":9246,"fbfebf":9247,"eedcdec":9248,"edbcbbf":9249,"eebcbccc":9250,"ebbdcbf":9251,"ebefbcc":9252,"bbbeac":9253,"bbeebba":9254,"bcccdbc":9255,"bdbddee":9256,"ecdbbef":9257,"ebefbec":9258,"dddcdd":9259,"ecdb</w>":9260,"ebedbbf":9261,"efcdebc":9262,"beecbbcc":9263,"bdecbcc":9264,"bfc</w>":9265,"edfbebe":9266,"edcdbcc":9267,"beecbbbd":9268,"defeec":9269,"bffbdc":9270,"dbddbbd":9271,"befbcec":9272,"fbdfbd":9273,"fcbcdd":9274,"edcbcee":9275,"ebecba":9276,"fbbbbbbc":9277,"ebebbecc":9278,"ddfecc":9279,"bbfda":9280,"deeecbc":9281,"bbecbeebb":9282,"bbfca":9283,"bfbcdbe":9284,"bddd</w>":9285,"edebbebe":9286,"dcefdc":9287,"bbbbbdebb":9288,"ebddbdc":9289,"dfbbbbc":9290,"bbbceebd":9291,"fedbfc":9292,"eeccfec":9293,"eebedbbc":9294,"eeaa":9295,"bddac":9296,"bfbebbbc":9297,"fcbcfc":9298,"dfbeed":9299,"bbfbebbc":9300,"bbebbbebd":9301,"beccebf":9302,"ecbdef":9303,"edeedcc":9304,"eccbcbe":9305,"bbbebcbbbb":9306,"beeebebf":9307,"fccebbc":9308,"ebeebbcc":9309,"ebdeeebb":9310,"bccda":9311,"eecbcebb":9312,"eeccebbc":9313,"eefdbbc":9314,"edbcfbc":9315,"edfbef":9316,"ebdbcbe":9317,"bccecbf":9318,"bbbebced":9319,"ffbbebe":9320,"bbbcbcebb":9321,"bbbbcbbbf":9322,"ebbfebbc":9323,"bbddbbdd":9324,"feeedc":9325,"bfecebe":9326,"dcbedee":9327,"ebcbcbbbb":9328,"bccfebe":9329,"bbfbcebb":9330,"ffbebd":9331,"bbbcbcbbc":9332,"eabbec":9333,"feebeebb":9334,"dbecbbbb":9335,"bcbdbcbd":9336,"dbbefcc":9337,"eada":9338,"feebebf":9339,"fecbebd":9340,"ecbdbbbb":9341,"eeedbec":9342,"eccbddc":9343,"bfeac":9344,"dcdeecc":9345,"bdcffc":9346,"bbeefbf":9347,"befdbbc":9348,"efcbbcc":9349,"fecfcc":9350,"edccedc":9351,"ebbbcdee":9352,"ebbdcec":9353,"bbbeeebd":9354,"ebfbbdc":9355,"bdcbedd":9356,"eecbfcc":9357,"bbbeebbebb":9358,"dbedebc":9359,"dbcbedc":9360,"dedbbed":9361,"eeccfcc":9362,"ecdcdcc":9363,"eede</w>":9364,"beeebfc":9365,"bceebbbd":9366,"dbbdef":9367,"bcdcdd":9368,"bdeebbd":9369,"ebcbcef":9370,"ebcfeec":9371,"fcbeecc":9372,"bccbcf":9373,"ebfdfc":9374,"bbbcbcec":9375,"fbdbbbd":9376,"fefbbc":9377,"ebcefcc":9378,"bebceebd":9379,"bcbcba":9380,"bbebebbebe":9381,"ebffebe":9382,"bdfdebb":9383,"deeebcc":9384,"bbeebebbbb":9385,"bbebbdebb":9386,"beebbccc":9387,"bfbeeec":9388,"dbdeebc":9389,"fbcebec":9390,"bbeecbec":9391,"bcdbbbcc":9392,"bfbedbe":9393,"ddcfee":9394,"bbdcbebe":9395,"bcbacc":9396,"eccbbfc":9397,"deebeed":9398,"dccbccc":9399,"bebcbeed":9400,"efcdfc":9401,"fdcdbc":9402,"eccbcbf":9403,"dbbbfbd":9404,"befbecc":9405,"eaac":9406,"bbbfbbec":9407,"bbbbcebbc":9408,"eefebcc":9409,"ebdecec":9410,"eeecbebe":9411,"fa</w>":9412,"ecdebfc":9413,"dedfec":9414,"ddcbbbc":9415,"debddbe":9416,"bedddf":9417,"ddbcef":9418,"ebcbebcc":9419,"bbbebbfc":9420,"beeeeeebb":9421,"bceefec":9422,"fbfdbe":9423,"fcbba":9424,"deefbe":9425,"dbbecebc":9426,"eaedc":9427,"ecbcebbc":9428,"ebbbcbbd":9429,"bbbbbcf":9430,"efdedc":9431,"bbfbeef":9432,"befbeebe":9433,"bebdbfc":9434,"fbdba":9435,"deffbc":9436,"febbdbe":9437,"dbccbbc":9438,"febeff":9439,"bcbbbdcc":9440,"ecdbbebe":9441,"dcbebbf":9442,"cccbbcc":9443,"decdecc":9444,"befbcbd":9445,"beecbeee":9446,"eebacc":9447,"eeebeebf":9448,"eeefef":9449,"becfebc":9450,"eccfebe":9451,"dccbecc":9452,"bbebedbe":9453,"ebbbcbcc":9454,"bebcfed":9455,"ebccfcc":9456,"ebcdbbbe":9457,"bbfeebf":9458,"dbcfdc":9459,"eebcefc":9460,"eeebebbbb":9461,"becbefc":9462,"bbfbeed":9463,"ebfeecc":9464,"eadbf":9465,"abcbe":9466,"bfdbfc":9467,"effbbd":9468,"dbbdded":9469,"dccbbbd":9470,"dccbbec":9471,"defebd":9472,"bbdcbbbd":9473,"dbecbcc":9474,"beebbbbebb":9475,"adbbd":9476,"dcbeedc":9477,"efbfbf":9478,"ebcebbcc":9479,"debbded":9480,"bbedfbc":9481,"bedcbbbb":9482,"eedcdbe":9483,"dcebbebb":9484,"dccbbcc":9485,"bbdcdec":9486,"debcbcc":9487,"bcccbdc":9488,"bceebecc":9489,"fceced":9490,"beeceecc":9491,"bedcebd":9492,"ebbbcebd":9493,"ecfcccc":9494,"bbfffc":9495,"ebecbecc":9496,"dbecdbc":9497,"feffee":9498,"ebcbddc":9499,"bbcecebb":9500,"fcfbcc":9501,"eeeedf":9502,"eeecdbbc":9503,"bdfac":9504,"ebbdefc":9505,"efeedd":9506,"ebebddd":9507,"dddbbbe":9508,"befdfc":9509,"ebdcedbbec":9510,"bdeebebe":9511,"bfeebbbe":9512,"ebcbdbc":9513,"becbcf":9514,"bbfbcee":9515,"bbfbced":9516,"bbbcbdbd":9517,"cccfec":9518,"dbdbecc":9519,"dccdbf":9520,"debeebd":9521,"eeecfec":9522,"bddbbed":9523,"fbdefc":9524,"bbbebebbbe":9525,"bfcbccc":9526,"ddceecc":9527,"defdec":9528,"edbddee":9529,"bdbedbf":9530,"bceebccc":9531,"ebcbddd":9532,"becebbcc":9533,"bbfbba":9534,"edcbced":9535,"dbcfbf":9536,"befac":9537,"ecfdebb":9538,"ecfbbbf":9539,"dcdebbc":9540,"edcbbebb":9541,"ecbbebdc":9542,"becdbbd":9543,"eebcbecc":9544,"eefda":9545,"dbecebd":9546,"bcecbebe":9547,"eeebebeebe":9548,"adea":9549,"dbefdd":9550,"ebfeebd":9551,"dbcbdbd":9552,"bbeeeecc":9553,"bebfbbbc":9554,"bcbfdd":9555,"bdecbbbb":9556,"eccbcf":9557,"bbfbbebc":9558,"dbedbbbb":9559,"bbbbcff":9560,"bbebdbbbb":9561,"bebecbbc":9562,"becfdd":9563,"bdcac":9564,"ebbcbeebb":9565,"bbedbeec":9566,"bceebbcc":9567,"eceeff":9568,"bebbdbbbb":9569,"eddbccc":9570,"bccbeef":9571,"bbbeecbc":9572,"bbffebe":9573,"edcfecc":9574,"ebeeedd":9575,"ebeeddc":9576,"bccfebc":9577,"bafcc":9578,"debebbd":9579,"beeebba":9580,"ecdceec":9581,"befbbbbc":9582,"bebdbbec":9583,"eebbcbbc":9584,"bbfcdee":9585,"bbfbbbec":9586,"bbeeeebc":9587,"bbebbfbc":9588,"fbebbebc":9589,"bbdebfc":9590,"bbeeefc":9591,"bbebebbbd":9592,"deecdbc":9593,"bfdbbee":9594,"bbcdedc":9595,"becb</w>":9596,"fccbbbc":9597,"dfcbbbb":9598,"bbdbeebc":9599,"dececbc":9600,"dedbcbc":9601,"bcbdbbbc":9602,"febbdbc":9603,"edeebbbc":9604,"bbbebdbd":9605,"badebb":9606,"dbbecdf":9607,"bdeca":9608,"eeeeeeeeeeeeeeee":9609,"ecbbeccc":9610,"efe</w>":9611,"ddbfcc":9612,"befeebf":9613,"fbcebcc":9614,"fbebbfc":9615,"fedbebc":9616,"bcbeebcc":9617,"febbebc":9618,"ecfebec":9619,"bdecdbc":9620,"ddbbbec":9621,"fbedebc":9622,"fdcbdc":9623,"bebfbbee":9624,"eeefebe":9625,"beceebf":9626,"ebbcddc":9627,"bebdebf":9628,"dbbcbbbd":9629,"dcbcbbd":9630,"bccecbe":9631,"bafbd":9632,"beeeedc":9633,"eebcebcc":9634,"bdbbbecc":9635,"bfbdbbbb":9636,"eebeeccc":9637,"debeedc":9638,"dfcdec":9639,"bbcdbbbe":9640,"fcedcc":9641,"fcbbecc":9642,"bfceecc":9643,"befda":9644,"bcbcbbbbc":9645,"bedcdbe":9646,"bcbbbbbbbbc":9647,"bebedbf":9648,"ecbcbeec":9649,"bbbccbbbcc":9650,"ddecdd":9651,"ebdbbbec":9652,"cccefc":9653,"cccfee":9654,"dbdda":9655,"deddeec":9656,"eeeeeebe":9657,"fdcfbc":9658,"bcdbfcc":9659,"abebbc":9660,"bcbbebfc":9661,"bfbebbee":9662,"ddecbf":9663,"fcbea":9664,"eccbcdd":9665,"deebbbf":9666,"bebeebcc":9667,"bebebbdc":9668,"dbbbdebc":9669,"befebcc":9670,"bbedebf":9671,"bfddcc":9672,"bfbebdc":9673,"ddfbec":9674,"becbcbbc":9675,"ebdbeebe":9676,"bccbebbc":9677,"bebcfbd":9678,"eebebbdc":9679,"fcecbf":9680,"bebebcebb":9681,"dccebbc":9682,"ecbddec":9683,"bbbccbbbe":9684,"eceebcbc":9685,"ebdecbe":9686,"dbcbccc":9687,"dbffbd":9688,"eedcef":9689,"beefbbbb":9690,"ebebbebf":9691,"eccebfc":9692,"bbeeebec":9693,"bbeefbd":9694,"bcecbbbe":9695,"bdfbbbf":9696,"abeebe":9697,"bbeeeeebb":9698,"efcddc":9699,"bcbdbbbe":9700,"bcdefcc":9701,"dcbebbbe":9702,"becbba":9703,"bbfbcf":9704,"dbbedbc":9705,"befbbdc":9706,"eaded":9707,"bbccbeee":9708,"fecdef":9709,"fedfbc":9710,"bbebebbd":9711,"eeecbecc":9712,"bbcdbdc":9713,"bdcbbbbc":9714,"eeeffee":9715,"eebbb</w>":9716,"edeebbf":9717,"ebeecbbc":9718,"eaddc":9719,"eedcff":9720,"eebbbdcc":9721,"bfebbbbbb":9722,"dbebbef":9723,"decbccc":9724,"dccdef":9725,"debbbbebb":9726,"fedba":9727,"bbebeebc":9728,"edecdee":9729,"bebeddc":9730,"debbbbec":9731,"bbedbbebb":9732,"debedee":9733,"dbbdfc":9734,"bdeedbd":9735,"ebbbeba":9736,"bbbbdbec":9737,"ddfdf":9738,"bbcdbbf":9739,"cccbebc":9740,"fccfbd":9741,"dbbcbdc":9742,"beebbff":9743,"bfd</w>":9744,"bfdcdc":9745,"ebedbdc":9746,"bbcfa":9747,"bccbcebb":9748,"bcfeccc":9749,"dedcdf":9750,"aeebe":9751,"eedbbbcc":9752,"bbbbcccc":9753,"ebdbddd":9754,"bccc</w>":9755,"edcedbd":9756,"bfcfbf":9757,"dcecded":9758,"bdbcded":9759,"eccbcebb":9760,"bccbefc":9761,"bbbdbcbd":9762,"efcebcc":9763,"ebbbebfc":9764,"dcebbed":9765,"becbeecc":9766,"bbecbedc":9767,"bcbebbbec":9768,"eeecbcbc":9769,"dbcceec":9770,"eebbedcc":9771,"ebcb</w>":9772,"ebdfa":9773,"ebbceecc":9774,"eabcec":9775,"eebfebf":9776,"ececdbd":9777,"bdbcebf":9778,"ebceddd":9779,"dbebbebc":9780,"bbebbfee":9781,"defbfc":9782,"eedcdbc":9783,"bdeebebc":9784,"bececdc":9785,"bbeebccc":9786,"febbebf":9787,"eebfff":9788,"bcceced":9789,"dbebebf":9790,"bebedbbc":9791,"dbbdcdd":9792,"bbbdbeec":9793,"fbcbeee":9794,"bbbfbcbc":9795,"eeeeeec":9796,"dbecccc":9797,"dabda":9798,"eedcdee":9799,"bdbefcc":9800,"efecebb":9801,"eccfa":9802,"debbbfc":9803,"bbededc":9804,"eecceebc":9805,"dadee":9806,"fbfbbbc":9807,"bdeeebd":9808,"dcbbbbbbbb":9809,"fcfebe":9810,"eccbded":9811,"bebebbef":9812,"dbbecfc":9813,"bcfdebe":9814,"febbfee":9815,"eecbefc":9816,"ebcdbbf":9817,"bdcdecc":9818,"bebeebec":9819,"bcbfff":9820,"fbbbbbbbe":9821,"efbddd":9822,"fcbdbf":9823,"bebddebb":9824,"fdcefc":9825,"abbba":9826,"bfefbf":9827,"edfbbee":9828,"ebffdd":9829,"bcbfbec":9830,"bdfbeee":9831,"bbdecebb":9832,"dbbbfed":9833,"bcedeec":9834,"beddeec":9835,"beefff":9836,"dcfdbc":9837,"dcbeccc":9838,"bbbbeebe":9839,"bbeeebcc":9840,"fbfbef":9841,"bcecbbbc":9842,"bdbebecc":9843,"bbbbebdc":9844,"efc</w>":9845,"ebededc":9846,"ddbefc":9847,"edceced":9848,"dbbbfdc":9849,"fbcea":9850,"bcbcbeee":9851,"feceecc":9852,"eefbba":9853,"eebcba":9854,"ecbedbbc":9855,"eeebeff":9856,"edbeebbc":9857,"bbbbecbd":9858,"ecbedef":9859,"eebdebbc":9860,"eebdbebc":9861,"bfeebec":9862,"bfebbbd":9863,"ebbbebbebe":9864,"efbcbbbb":9865,"dbcbbdd":9866,"bedda":9867,"bebbbbbbbbc":9868,"eebbbbbbbe":9869,"bdebfcc":9870,"ebbbeebbc":9871,"dcbeff":9872,"bbcbcebe":9873,"becdbdc":9874,"bceedebb":9875,"bebbbbbbee":9876,"bfbcbbbe":9877,"ebcfbbbb":9878,"deebbdc":9879,"bebefebb":9880,"dccbeec":9881,"bbbdfbd":9882,"ebccebec":9883,"fcb</w>":9884,"bbdbcef":9885,"bbccbbbbc":9886,"beebbeec":9887,"beedbebc":9888,"eeecedc":9889,"ecbdbcc":9890,"bcbfdf":9891,"eceedbf":9892,"edbefcc":9893,"dbedfc":9894,"fbcddc":9895,"fcceedc":9896,"bddddbd":9897,"bbbbecebb":9898,"bdcbebf":9899,"dbcfbe":9900,"bebebcec":9901,"decbced":9902,"eebfccc":9903,"bdbcbebc":9904,"edffcc":9905,"bbecfed":9906,"fecbbcc":9907,"beecebf":9908,"dbbdebe":9909,"bcbfa":9910,"ddefcc":9911,"bbcbbbbbbc":9912,"fddccc":9913,"fbbca":9914,"ebcbdec":9915,"bccedbd":9916,"bbdedcc":9917,"bbdbebbbe":9918,"bebeefc":9919,"dbecebe":9920,"bceefcc":9921,"bedcedc":9922,"bbddbbbe":9923,"efdbbbe":9924,"efbebec":9925,"bbcebbcc":9926,"ebdbeef":9927,"eecbeebc":9928,"bdbdbec":9929,"ebdeddc":9930,"bbccbecc":9931,"dbbbbdbc":9932,"eeecbebc":9933,"dbccdd":9934,"bcdcfc":9935,"bdbcbbee":9936,"ededccc":9937,"ebcfbcc":9938,"ebcbebbd":9939,"dbbedebb":9940,"decbeebb":9941,"bebdbecc":9942,"beedff":9943,"febb</w>":9944,"ecebac":9945,"bbcbfcc":9946,"bcbedebc":9947,"eebdbbbc":9948,"debdbec":9949,"bcdcdf":9950,"bbbfdec":9951,"acecc":9952,"dbecded":9953,"eeebbebf":9954,"ebbeebbebe":9955,"eddac":9956,"ebdbcf":9957,"ddcbef":9958,"ecccdbd":9959,"bceebeee":9960,"ecbdbdc":9961,"bbbbfef":9962,"bbdecbf":9963,"bbbddebe":9964,"ecbeea":9965,"bebbbbebe":9966,"ecde</w>":9967,"bbbddbbc":9968,"bbbfbbcc":9969,"bebdeebc":9970,"debdccc":9971,"baca":9972,"fdacc":9973,"bbeddebb":9974,"ebfcdf":9975,"edbebbbd":9976,"edbbfcc":9977,"bbbdbbdc":9978,"bbecfbd":9979,"beeedec":9980,"dbfded":9981,"ebdcfbc":9982,"beebbbeebb":9983,"eeeceecc":9984,"febeccc":9985,"efbdef":9986,"becfbec":9987,"bbdfbbd":9988,"ecbebbbbc":9989,"ddccccc":9990,"eceeeecc":9991,"dbebdcc":9992,"dcceccc":9993,"bbbddbbd":9994,"bbbfecc":9995,"fccbeec":9996,"acac":9997,"bebdfec":9998,"eebfeeee":9999,"dceeccc":10000,"dccfdc":10001,"ddcefc":10002,"debcbebc":10003,"bbbccbcc":10004,"eceddf":10005,"ebbececc":10006,"dceeeec":10007,"efecbbc":10008,"bfcfbe":10009,"ecbcecbc":10010,"fbfbdc":10011,"bfebccc":10012,"ebcdcdc":10013,"bbdc</w>":10014,"dbbebccc":10015,"ddcfed":10016,"bedcded":10017,"bddbdcc":10018,"bbbebeed":10019,"dbdefc":10020,"bbecdbf":10021,"fbcfdc":10022,"beccfed":10023,"bbfcbcc":10024,"efecf":10025,"fcdbbf":10026,"ebecbeec":10027,"eeccebcc":10028,"efdced":10029,"ebfeccc":10030,"bdceedd":10031,"bbbcbebbc":10032,"deeeeee":10033,"dabec":10034,"dbbbbbcc":10035,"edbcdec":10036,"eddbbbd":10037,"ddfbcc":10038,"ebdbebec":10039,"eabfc":10040,"eebcecbc":10041,"eebfbbc":10042,"eedebbcc":10043,"bbbbbeef":10044,"fcbddc":10045,"ebbcbcbd":10046,"ebecebcc":10047,"bced</w>":10048,"bfbeebd":10049,"bffbbbc":10050,"dcbbedc":10051,"bbbbbbbbbbd":10052,"fefebe":10053,"ebdbefc":10054,"bbfbedc":10055,"bbbffee":10056,"eeccefc":10057,"fbfebc":10058,"fdcedc":10059,"bfebbebe":10060,"ebbdbbbd":10061,"dcbebdc":10062,"eececec":10063,"ddcbcbc":10064,"bcbebbebe":10065,"bcccdec":10066,"bcecdcc":10067,"ecdcedc":10068,"bbbbfebe":10069,"bbebbbfc":10070,"beecfee":10071,"bcbdbbd":10072,"edbcbbd":10073,"abbbec":10074,"bfebbee":10075,"dcfbbbe":10076,"bbcbea":10077,"ebdbcbf":10078,"eecbded":10079,"debcebe":10080,"debceebc":10081,"daef":10082,"bbfcff":10083,"ecbfecc":10084,"bfbbedc":10085,"bfbbbfc":10086,"febbbbbc":10087,"fcdcdc":10088,"dbdea":10089,"dbdbbdc":10090,"daebe":10091,"beedbbbe":10092,"bdbddbc":10093,"bdeebbec":10094,"baddc":10095,"dbbbfbbbb":10096,"dedefc":10097,"dcfebf":10098,"ecceef":10099,"debbbbcc":10100,"bcfbbef":10101,"fbfbebe":10102,"adbcc":10103,"bfecbbbb":10104,"dceebbbb":10105,"bbcbdbc":10106,"becbded":10107,"becbebec":10108,"ebdbba":10109,"acbdc":10110,"bbebebdc":10111,"debcdbc":10112,"bceddbc":10113,"ddebfc":10114,"ddbbebd":10115,"fcfecc":10116,"babbbbc":10117,"bbeefcc":10118,"ecbcfcc":10119,"dfcbdc":10120,"bbddbbf":10121,"bcebbbbbe":10122,"ebbbcdf":10123,"eebbebfc":10124,"ebbfbeee":10125,"edcbebf":10126,"dccebcc":10127,"eabbebb":10128,"bebcbbbbc":10129,"feefbe":10130,"deecebc":10131,"eedcbcc":10132,"eeccbbbc":10133,"bcccbbbc":10134,"daff":10135,"bfccccc":10136,"dbbbcbbbb":10137,"ebbdebec":10138,"dbeeccc":10139,"ecbcbef":10140,"fdcbfc":10141,"bdbda":10142,"ecbfccc":10143,"bebefec":10144,"bbecfcc":10145,"defbbbe":10146,"eebedebb":10147,"bbebcbbbc":10148,"beeddbd":10149,"ebbbceec":10150,"bbbbbbeec":10151,"edcbeebb":10152,"baeeee":10153,"fbdebbc":10154,"bbabbd":10155,"eedcbdc":10156,"ecdbbfc":10157,"ebbfbbbd":10158,"becbbecc":10159,"ebecfee":10160,"eeccbebc":10161,"bcbfccc":10162,"eeddecc":10163,"edebbef":10164,"fcecbe":10165,"ebdeebbc":10166,"deddebe":10167,"bbdcebf":10168,"deecbcc":10169,"ffcef":10170,"bbddccc":10171,"bcbddec":10172,"ebbbcbbee":10173,"bffbbee":10174,"ebeecdd":10175,"dfbcdc":10176,"bbebebef":10177,"edbeddc":10178,"dbfbbcc":10179,"defbbd":10180,"bbadbe":10181,"bddbbdc":10182,"bfdebbc":10183,"bbefbdc":10184,"fbfdee":10185,"ebdbfcc":10186,"eecbcdd":10187,"bbbeeebbbb":10188,"bebefbe":10189,"dedbeee":10190,"ecccfcc":10191,"ececbbbe":10192,"febeef":10193,"ebcccccc":10194,"abbfc":10195,"bdbbb</w>":10196,"ebbdfcc":10197,"dbbbfebb":10198,"bcbcfcc":10199,"dbbdbbf":10200,"bcebbbec":10201,"fbbcbbf":10202,"edbdfc":10203,"fbcdfc":10204,"eebcbbcc":10205,"bbbccbbbc":10206,"fbbcdf":10207,"bbbabbbb":10208,"ebcbea":10209,"bbcecdc":10210,"dedfee":10211,"ebdcbbf":10212,"bbdcedc":10213,"fbffee":10214,"bdbcdec":10215,"ebbeebec":10216,"bbbfbeee":10217,"eecdccc":10218,"dfecbf":10219,"bbebeff":10220,"eefeccc":10221,"bcccbbf":10222,"eeebbfee":10223,"edccdd":10224,"bdeddd":10225,"bceebecbbecbbdbbc":10226,"bfeebbee":10227,"debeff":10228,"deecff":10229,"ececedc":10230,"ebbbcdbc":10231,"ebbbebbbf":10232,"dceedee":10233,"dbbbdbec":10234,"dbbbbebe":10235,"bdeddee":10236,"bebcdbf":10237,"fbcfbe":10238,"eceebbec":10239,"ecddecc":10240,"ebbcfed":10241,"bbbbcbef":10242,"dbbdbbbc":10243,"edbcbdc":10244,"edbcff":10245,"bfeebbf":10246,"bffdee":10247,"ebbdddc":10248,"bbbebedc":10249,"bebdba":10250,"debcbebe":10251,"fbfbfc":10252,"ebfcbbc":10253,"debddee":10254,"febebbc":10255,"beefbbc":10256,"dcccdd":10257,"bffbef":10258,"dcbdbbbb":10259,"bbbeeebe":10260,"ebfbced":10261,"ebecea":10262,"bbefebc":10263,"dbbbbbebe":10264,"decceecc":10265,"ffcbbc":10266,"bfbcdbc":10267,"eced</w>":10268,"ebbfdec":10269,"ebbfbebc":10270,"bbdbea":10271,"bbeedbbc":10272,"bbbdefc":10273,"bbbdeebc":10274,"bebcea":10275,"bcbdebd":10276,"efbdee":10277,"becbdcc":10278,"babbed":10279,"eeeefef":10280,"ecbcebf":10281,"febbbcc":10282,"ecbdebd":10283,"ececebd":10284,"eeeacc":10285,"fbfdbc":10286,"fdebccc":10287,"dcebbbd":10288,"ebecdebb":10289,"bcccebd":10290,"bbebcdf":10291,"bbbecdee":10292,"fefbcc":10293,"ffcdbe":10294,"bdbcbef":10295,"dcbedbc":10296,"bebcdebe":10297,"bbbbbbbbbbbbbbbc":10298,"dbbdbcc":10299,"deccecc":10300,"eeddedc":10301,"bfbcdee":10302,"ebebdec":10303,"dedbbcc":10304,"ebecfbd":10305,"beebbbcc":10306,"bebfbef":10307,"beebebbf":10308,"ecbacc":10309,"aeda":10310,"eecbcbbc":10311,"eecbcef":10312,"bfcdbec":10313,"beeefcc":10314,"ebdcbebe":10315,"bbeffee":10316,"bbfcef":10317,"ebbeebcc":10318,"bebbe</w>":10319,"bebbbac":10320,"dedbcec":10321,"bcbcfec":10322,"ebdcdbd":10323,"fbffbc":10324,"ecfdfc":10325,"febebeee":10326,"eceeebbc":10327,"eebecccc":10328,"bbeebebbc":10329,"efbebbbe":10330,"dfecdc":10331,"bdcdbbbb":10332,"dbbbdfc":10333,"decdebe":10334,"fbeda":10335,"bcbfbbf":10336,"ffcbec":10337,"faccc":10338,"dcbcdbe":10339,"fcfccc":10340,"eecbba":10341,"eedbbebd":10342,"bfeca":10343,"ebbecdee":10344,"dcecccc":10345,"ddbdbf":10346,"eccbebbc":10347,"eecbcf":10348,"bbeebcec":10349,"eebcfbd":10350,"defebf":10351,"eeecbfc":10352,"eeecebbc":10353,"eeeddbc":10354,"bfebbed":10355,"bbbeeecc":10356,"bbbcfebb":10357,"bbeebcebb":10358,"bbeeeeebe":10359,"dccba":10360,"dbffee":10361,"dbbcded":10362,"bcdcbec":10363,"eeceba":10364,"bbfcebe":10365,"bbbccbec":10366,"ececbbf":10367,"ebdbbebd":10368,"fbedbec":10369,"ffcbcc":10370,"bdbeddc":10371,"dcecbcc":10372,"defedc":10373,"bdeeedc":10374,"ecbbcccc":10375,"dcbbebf":10376,"dddbbf":10377,"ebceba":10378,"cccbbec":10379,"dbbcdec":10380,"bcedfc":10381,"beefebe":10382,"bbbbfdc":10383,"fecbbbd":10384,"debbfbc":10385,"bbedba":10386,"eebcbeee":10387,"bdbcfbc":10388,"febcdf":10389,"dbedefc":10390,"ebdcdcc":10391,"deccedc":10392,"beddedc":10393,"bbcc</w>":10394,"decdfc":10395,"bebcfebb":10396,"ecbcbecc":10397,"bbddff":10398,"eebfbeee":10399,"ececbbd":10400,"fadf":10401,"eceebccc":10402,"ebbfdcc":10403,"ebcebbebb":10404,"bbbefbbbb":10405,"bebcbcbd":10406,"ebccbcbc":10407,"dbfbcbc":10408,"dbbdff":10409,"beeffee":10410,"adeec":10411,"ebdbddc":10412,"bbbefed":10413,"bbbceeee":10414,"bebebbebc":10415,"bfcea":10416,"dbdbcbd":10417,"debcbdc":10418,"dfbcebb":10419,"ebfcccc":10420,"febeeeee":10421,"effecc":10422,"bebebba":10423,"bfcdfc":10424,"beebbdbe":10425,"bdccfc":10426,"edbebbcc":10427,"ebdbcdd":10428,"bbccbbebb":10429,"eeeedcc":10430,"eeddccc":10431,"bdfebcc":10432,"fbeebdc":10433,"fbdddc":10434,"beebbbef":10435,"dbbdbdc":10436,"ecdcebc":10437,"bdfbbebb":10438,"aecbe":10439,"abcdc":10440,"bbbbbdbc":10441,"eecbebbbb":10442,"dbbebbebe":10443,"ecccbbf":10444,"aeef":10445,"bbbfbbbbc":10446,"bbddbbbc":10447,"beefbeee":10448,"eeebebbf":10449,"ccccccccccccc":10450,"fdbac":10451,"bbbbdebc":10452,"bbdbfcc":10453,"ebfbedc":10454,"bfcdeec":10455,"bbecbbbbc":10456,"bebdbcbc":10457,"bbbecbbbc":10458,"eeeddbe":10459,"eeefff":10460,"bdecef":10461,"bbbebbbcc":10462,"ebecfcc":10463,"becceebd":10464,"fbbefcc":10465,"dbbdebd":10466,"ffcdee":10467,"ebebac":10468,"decbbebb":10469,"decbedd":10470,"bcbebbef":10471,"edbdbbc":10472,"bdcfdd":10473,"dfcdcc":10474,"deccfc":10475,"bebbd</w>":10476,"bbcbcfc":10477,"bbbefbbc":10478,"ffbcdc":10479,"bbeefec":10480,"dbdeecc":10481,"fbeeccc":10482,"dbfbbbd":10483,"ecbdebe":10484,"abdcc":10485,"fbbbac":10486,"bcde</w>":10487,"bccbcef":10488,"bbbedef":10489,"edcbdbd":10490,"bebcbedd":10491,"ecccddc":10492,"edccebc":10493,"ebbbbbbbbbc":10494,"bfbcbbbc":10495,"bbbbbcebe":10496,"bbfbebbbb":10497,"ebbcbebf":10498,"dbdeebd":10499,"fbceebd":10500,"dbbdeec":10501,"ebbeebdc":10502,"ecdebbcc":10503,"dbebcdc":10504,"bebeeeebe":10505,"bbebbeeee":10506,"fedbbd":10507,"ebfcfc":10508,"ebbbbea":10509,"ebeefcc":10510,"ebfeeebb":10511,"ebccddc":10512,"defbef":10513,"bbebcfc":10514,"bbbbbebbbc":10515,"ebfbeed":10516,"dbcbcec":10517,"dbcbebf":10518,"ebbcdebe":10519,"debbeebc":10520,"beecddc":10521,"edbeded":10522,"bbbbbebbd":10523,"bebebbbec":10524,"fbebdcc":10525,"eebeebbebb":10526,"edbcdbd":10527,"efbbebf":10528,"ebcbbecc":10529,"bbfdebc":10530,"ffdbec":10531,"bbebbdbbbb":10532,"fbdbbee":10533,"fedecc":10534,"bdfdef":10535,"dceddee":10536,"effdbe":10537,"ebefbbf":10538,"dfbcef":10539,"deceedc":10540,"bcdc</w>":10541,"bfbbebbc":10542,"dbebcbf":10543,"beecdebc":10544,"acded":10545,"fbdbecc":10546,"fedbebe":10547,"ebebca":10548,"bccbba":10549,"eeceebf":10550,"bdcfef":10551,"befbeed":10552,"eebeebeebe":10553,"ecbdfbc":10554,"feccccc":10555,"bbbbbcdc":10556,"bbde</w>":10557,"bbecbbdc":10558,"fbebba":10559,"eefbbbbc":10560,"bfdba":10561,"edfcdc":10562,"efd</w>":10563,"bfcbcbd":10564,"bbccba":10565,"feefef":10566,"fccebcc":10567,"eefdfc":10568,"ecbeebec":10569,"eeeddee":10570,"dcbb</w>":10571,"dbeda":10572,"bfcdebc":10573,"ebbcbccc":10574,"eabbbf":10575,"bbecebcc":10576,"feebecc":10577,"bcbceebc":10578,"ffca":10579,"bcbbbbbbbd":10580,"eccbefc":10581,"bbdbbbdc":10582,"dfdbec":10583,"ebfdebe":10584,"bbccebec":10585,"beecefc":10586,"ecbcfec":10587,"bbddbcc":10588,"dcccdcc":10589,"bcecbccc":10590,"bfbbba":10591,"bbfeecc":10592,"eabda":10593,"fcceebd":10594,"fdceecc":10595,"bcecbfc":10596,"febbbbee":10597,"ecbfbbc":10598,"bdfebec":10599,"ebbebdcc":10600,"ebebbbdc":10601,"ddfbbbb":10602,"fcecebb":10603,"eecbebcc":10604,"edcbcdc":10605,"bbecbbbf":10606,"edbdebc":10607,"dcebbee":10608,"ebebfbf":10609,"ddbcbbc":10610,"becfebe":10611,"edceebf":10612,"dbcdbbbb":10613,"efcfbd":10614,"fdcfee":10615,"debf</w>":10616,"bcdbbebd":10617,"bdcbcec":10618,"dbcb</w>":10619,"edbdccc":10620,"dcbcff":10621,"becbbeec":10622,"dfbbebe":10623,"eeecfbc":10624,"ecddccc":10625,"ebbbcff":10626,"bddbbbf":10627,"bbcbdebb":10628,"becbfcc":10629,"becbebcc":10630,"eccdbdc":10631,"dcceeee":10632,"acbbbc":10633,"eebeded":10634,"fbfbbee":10635,"dbccfc":10636,"efeddc":10637,"bafec":10638,"dbdeeee":10639,"ebbdbecc":10640,"effccc":10641,"eccbbbec":10642,"dbbdccc":10643,"edbda":10644,"bdeeff":10645,"ecbecccc":10646,"edeebbee":10647,"ebbcbbdc":10648,"fbddbf":10649,"febbeeee":10650,"bcebbbbbc":10651,"fbbbbbbf":10652,"eeecbccc":10653,"bececebb":10654,"dbdbbbf":10655,"feeded":10656,"beecdfc":10657,"fedfec":10658,"beedbecc":10659,"beefbbbe":10660,"edebeebe":10661,"dceca":10662,"beceebbc":10663,"dfbcbe":10664,"bbedbebd":10665,"bdbdbbbe":10666,"ecdcdee":10667,"ebbbbbbbbc":10668,"eccbbebc":10669,"bdcbeebb":10670,"decbbdc":10671,"bbefbeee":10672,"bdbebbbf":10673,"bdbbbebbbb":10674,"fceebbc":10675,"dbdebec":10676,"fbdeebc":10677,"ebcecbbc":10678,"ebcbcbec":10679,"fbcdef":10680,"bbddddc":10681,"bedcfec":10682,"fbbe</w>":10683,"bedbac":10684,"edfebbc":10685,"bbbbbdcc":10686,"ddbdbc":10687,"dbceedc":10688,"befdebc":10689,"ebccbeee":10690,"ecbcbeee":10691,"ebdcbbd":10692,"bbddbebe":10693,"bcdeba":10694,"bfecbcc":10695,"dfecbe":10696,"bcfbbdc":10697,"bdecded":10698,"ebefdf":10699,"eccbfcc":10700,"bcfedcc":10701,"dceebbd":10702,"ebdfecc":10703,"ecccfbc":10704,"bfeceec":10705,"dcdba":10706,"bbbbdfc":10707,"dfbedd":10708,"dbcdfc":10709,"ececff":10710,"bfbcfbc":10711,"ebbbebbcc":10712,"bececbe":10713,"bdcbbef":10714,"ebbcfbe":10715,"bcbcbbebb":10716,"ececebe":10717,"ebcedbf":10718,"fcfdf":10719,"dedeecc":10720,"deeceecc":10721,"fddbbc":10722,"bdfbbed":10723,"bbdbcebe":10724,"ebfeeebe":10725,"ebbcecbc":10726,"debbba":10727,"beeceebc":10728,"eeecba":10729,"bedcbdc":10730,"eceebebe":10731,"bdeefbc":10732,"bebbc</w>":10733,"eedebfc":10734,"ebbcbeed":10735,"fbedbbbb":10736,"debbbcbc":10737,"dabbbe":10738,"bdbeea":10739,"eebebdcc":10740,"bedebccc":10741,"fcefcc":10742,"eecdbbbe":10743,"dbcdebc":10744,"bbbdebec":10745,"deddbec":10746,"dbfbbec":10747,"daecc":10748,"febcccc":10749,"ecefccc":10750,"ddeded":10751,"dbeecbe":10752,"ebfbcebb":10753,"bbccfcc":10754,"fbbd</w>":10755,"eedeba":10756,"dcebbbf":10757,"bbccfbd":10758,"bbcceecc":10759,"eeeebba":10760,"bbebcef":10761,"bebbbbbcc":10762,"ebbccccc":10763,"bcbbebbcc":10764,"aeedc":10765,"edfbebc":10766,"ebcdebf":10767,"bececed":10768,"ebddbbbe":10769,"dffa":10770,"dbedeec":10771,"debbbef":10772,"ebbebbbbbe":10773,"eddcccc":10774,"bbbbdbbf":10775,"becbbebd":10776,"ebdbded":10777,"dbbeca":10778,"eaeba":10779,"ebcceebc":10780,"dbffec":10781,"bbedbecc":10782,"ddbddbd":10783,"eccfebd":10784,"edcbbebe":10785,"bbbdbeebb":10786,"bbecdef":10787,"beecfed":10788,"dabcc":10789,"eeedbcc":10790,"eceebebc":10791,"ebbbbbbbbebb":10792,"bbcbbecc":10793,"bbfeeebb":10794,"edcfef":10795,"bbbcbedc":10796,"ebdcbbbe":10797,"ebbbedec":10798,"efecdd":10799,"efefcc":10800,"ebeebbbf":10801,"dbebbbec":10802,"edcbbdd":10803,"ebecbebd":10804,"bcecfbc":10805,"beedbebe":10806,"bdbeefc":10807,"bbbbbdbbc":10808,"ebbcfbf":10809,"fecdebc":10810,"fccddc":10811,"bcbedfc":10812,"bcbedbec":10813,"beebbfee":10814,"dbbdbebe":10815,"bedddec":10816,"bcdceec":10817,"ebdeef":10818,"bedcdbc":10819,"bdbedebe":10820,"aecbd":10821,"bfdefc":10822,"bfbeebf":10823,"ebcecf":10824,"edcbbbf":10825,"ffeebc":10826,"beeefbe":10827,"ecbcddc":10828,"ecdcdbc":10829,"bdbcfee":10830,"effebd":10831,"ebceefc":10832,"bbebceec":10833,"ececbcbc":10834,"edbcbebe":10835,"ebbbbbbbbbbbbbb":10836,"fcfeec":10837,"bebeecebc":10838,"eabebc":10839,"eeeebcbc":10840,"debebebc":10841,"beedbbf":10842,"edbbbbbbc":10843,"bbbbbeebc":10844,"eccfedc":10845,"dccdebb":10846,"ebecefc":10847,"bbebcbebe":10848,"deccdec":10849,"eebffee":10850,"efbca":10851,"ebeecf":10852,"ebcbebbbe":10853,"beceef":10854,"bfcdbbc":10855,"dbbbfbbc":10856,"bbbdbecc":10857,"dbdcdd":10858,"ffbeebb":10859,"befeecc":10860,"bbcceebc":10861,"deccdf":10862,"bcbfdbe":10863,"beefbbf":10864,"eceeebf":10865,"bbcfeec":10866,"eccdcdc":10867,"ebbcdbbc":10868,"dbfea":10869,"edbddf":10870,"aeeef":10871,"deeebec":10872,"bfcbedc":10873,"fbcbbebb":10874,"ecbcbbbd":10875,"bcbfbcc":10876,"bcbbcbbbc":10877,"ebfdebc":10878,"bdcbced":10879,"beeebecc":10880,"feceebc":10881,"fdcbbf":10882,"ecebbbbc":10883,"bddcdd":10884,"bfeebbd":10885,"bfceebd":10886,"beebbbbd":10887,"bceacc":10888,"ebcfedc":10889,"becfa":10890,"dbeeeebb":10891,"dedfcc":10892,"dedbebd":10893,"beeedbbc":10894,"fecea":10895,"acebd":10896,"bbdcbebc":10897,"bbefbef":10898,"bbebcbebc":10899,"eeecea":10900,"eebfbebe":10901,"ddbebbbb":10902,"eecfebe":10903,"bdcbbebe":10904,"beeeeebe":10905,"bbccebcc":10906,"dbbbbccc":10907,"bdbdfc":10908,"ebbeebbbc":10909,"bdceccc":10910,"dececcc":10911,"dddddbd":10912,"dcacc":10913,"efbeff":10914,"eecbeecc":10915,"bdcb</w>":10916,"ebbcea":10917,"efcbcbd":10918,"beecbbed":10919,"fedbef":10920,"beeebbbbc":10921,"bbefdee":10922,"dbccdf":10923,"edbcdcc":10924,"bbbbbcbbbc":10925,"efcea":10926,"bcfbbbec":10927,"bbebcbcc":10928,"bdeeddc":10929,"ddddddc":10930,"edfefc":10931,"efdcdc":10932,"bbbedbec":10933,"dbcfebb":10934,"dbbbddf":10935,"beccbbee":10936,"beedbbd":10937,"bfccfc":10938,"ececbccc":10939,"eccbddd":10940,"bbeceecc":10941,"ebceeebe":10942,"eecbbbcc":10943,"dfbebbc":10944,"babebd":10945,"deedebc":10946,"eeeefebe":10947,"fedebe":10948,"bbeecbbc":10949,"bffedc":10950,"decdbbc":10951,"dbccbec":10952,"ecedbcc":10953,"bdeebfc":10954,"eccbeebe":10955,"bbeebeef":10956,"bbbdfec":10957,"bbebebcbc":10958,"bcccfbc":10959,"bcccfcc":10960,"bceda":10961,"eebfbbbb":10962,"ebbecccc":10963,"fcbdec":10964,"bbbcb</w>":10965,"debeeec":10966,"daeca":10967,"fdcdcc":10968,"ebabbc":10969,"efbeecc":10970,"bebebeef":10971,"dedeebc":10972,"fdcbbbb":10973,"bbfcdd":10974,"efccccc":10975,"ebbdebcc":10976,"dbdbeed":10977,"ecccbfc":10978,"bebfebc":10979,"febebbbb":10980,"abbbcc":10981,"bdbbac":10982,"bccdedc":10983,"ebecbbebb":10984,"ecbdff":10985,"eceeba":10986,"bfcceec":10987,"bdeddf":10988,"feecdf":10989,"ebbbcdbd":10990,"dcecdbe":10991,"efecef":10992,"becbea":10993,"edcecdd":10994,"deebcdc":10995,"decbbbf":10996,"bbbbbbbbdbbbb":10997,"fdddbc":10998,"eceebfc":10999,"bcbecccc":11000,"bffbfc":11001,"efeebbbb":11002,"efedbf":11003,"ecceebbc":11004,"bccecdc":11005,"eebceebd":11006,"beccfcc":11007,"fbddebb":11008,"bbdcfec":11009,"bcbebbfc":11010,"bcbdbbbd":11011,"bdeebbcc":11012,"bebbebecc":11013,"dbbdcbc":11014,"efcbbebd":11015,"ebccbeec":11016,"eefbdcc":11017,"fceebe":11018,"fcebbcc":11019,"deebbbbc":11020,"acebf":11021,"defbbbc":11022,"bebecbbbb":11023,"ecdbbbec":11024,"deddebc":11025,"fbcbedc":11026,"acbbd":11027,"fbdfcc":11028,"bbebeebf":11029,"eebfbbee":11030,"edccebd":11031,"bfbeccc":11032,"dcbfbc":11033,"efbeba":11034,"beceebe":11035,"bbfdbec":11036,"feeeeebe":11037,"eeecbbbd":11038,"eeebbff":11039,"ddbeebc":11040,"bcecebf":11041,"bbabbf":11042,"bebfbdc":11043,"dcdbbcc":11044,"ebceebbbb":11045,"dbbbfbc":11046,"ddcbebc":11047,"acdbd":11048,"ecbcbbcc":11049,"bbdcbfc":11050,"dbbcbef":11051,"febbbeee":11052,"beebeccc":11053,"bebbbb</w>":11054,"fdcebf":11055,"bbebca":11056,"beedbfc":11057,"bebfebf":11058,"bdeeba":11059,"ebebcbbd":11060,"bbcbddd":11061,"bbdeebbbb":11062,"ecbcdebb":11063,"eeccbbbe":11064,"fdcfed":11065,"eebfbbf":11066,"ececbbbc":11067,"bfebbbbc":11068,"ffbbbbc":11069,"feefcc":11070,"dfcded":11071,"eedcdcc":11072,"fbbcbec":11073,"eebbcbbbb":11074,"ebbbcbbbd":11075,"ebcbedf":11076,"beeeeeef":11077,"feebccc":11078,"bbeddcc":11079,"dfcecc":11080,"dbbbbbdc":11081,"bbbbbcbbd":11082,"bbfbcef":11083,"bbeebcbd":11084,"fecda":11085,"beccdcc":11086,"becccccc":11087,"beedbdc":11088,"faff":11089,"aecbf":11090,"deebbebe":11091,"dbcbeebb":11092,"debcbbbe":11093,"debdeec":11094,"beadd":11095,"bdeebef":11096,"dceceec":11097,"edbebbec":11098,"efbebbf":11099,"bbcedcc":11100,"bbcbbccc":11101,"dbeb</w>":11102,"bebeecbc":11103,"beeebeec":11104,"ebccbbcc":11105,"beccbbec":11106,"bcccdbd":11107,"ecbddbd":11108,"bcedbcc":11109,"bdbebbbbc":11110,"ebcfbbd":11111,"eebcdbf":11112,"defddc":11113,"bbefbbbc":11114,"bcbdbef":11115,"bbebcbbf":11116,"eedcfbc":11117,"fdddec":11118,"dceeebd":11119,"bbcfbcc":11120,"fcbbebd":11121,"bececbf":11122,"bafbe":11123,"bbdcfbc":11124,"eeecebe":11125,"ececfbc":11126,"bdbbebcc":11127,"dbebcf":11128,"bbccbbbf":11129,"fedbbbe":11130,"ecdd</w>":11131,"edeeff":11132,"ffbcf":11133,"bbebbbbed":11134,"fccbcbc":11135,"beecdbf":11136,"fbdbbec":11137,"debcedc":11138,"ebbdbbbbc":11139,"ddbbbcc":11140,"ebcbeecc":11141,"bebebedc":11142,"bbbbbbbbbebbbb":11143,"bdbdbbbc":11144,"ebbfba":11145,"fceeebc":11146,"eeceeebb":11147,"dbebbfc":11148,"ffbdcc":11149,"bebeeebe":11150,"bebcbbebe":11151,"ebecebec":11152,"defbbec":11153,"bbefebf":11154,"bdecebd":11155,"bffdbd":11156,"effeec":11157,"fcfbbbb":11158,"bbdebbcc":11159,"dfedbd":11160,"dedcccc":11161,"eeccbfc":11162,"bebbcbbbc":11163,"bdeebbbd":11164,"ebbfbbcc":11165,"dcdbecc":11166,"bbdbcbbd":11167,"bbfbbdd":11168,"dbbecbbd":11169,"eebfecc":11170,"bdeeebbc":11171,"bebbbebbee":11172,"bbcbcbcc":11173,"fcc</w>":11174,"bbfecbd":11175,"dbcdbec":11176,"befdbec":11177,"bebcbcec":11178,"bbebbedc":11179,"ecfebdc":11180,"eceebbbd":11181,"edbeba":11182,"bbbbbded":11183,"acfee":11184,"deecdbd":11185,"eeddeec":11186,"aeeebe":11187,"efebbebb":11188,"deebcebb":11189,"bebefdc":11190,"dbbdcbf":11191,"efcbeee":11192,"dadbc":11193,"bedcbebc":11194,"bbbecdbe":11195,"eddcecc":11196,"bbfbcbe":11197,"fecfbd":11198,"eeccebf":11199,"bceeebcc":11200,"ecfbbed":11201,"bbeebbdc":11202,"deceebd":11203,"bbccbeec":11204,"eacea":11205,"bcbbbfcc":11206,"ddeebbc":11207,"bbcbebcc":11208,"ebdeced":11209,"bbccbbed":11210,"defdbf":11211,"bcfbbfc":11212,"bceebebd":11213,"deefdc":11214,"bcbcdebb":11215,"efbcdf":11216,"dfdbcc":11217,"ebfbcbf":11218,"eebcbeec":11219,"eecccccc":11220,"febbbef":11221,"beddccc":11222,"fcbbeec":11223,"eecbedbe":11224,"ffbced":11225,"bbbcbcbe":11226,"ebcbdebb":11227,"bbbebcbbc":11228,"bfcbbbbc":11229,"fbebdbd":11230,"deccdd":11231,"bfbddf":11232,"fcbcebc":11233,"bbbeebbbbbb":11234,"bfeedf":11235,"efbdbbc":11236,"ebcfdf":11237,"becbcef":11238,"efcebec":11239,"beeebebd":11240,"bbbffbd":11241,"ecbccccc":11242,"ecdcdec":11243,"effbef":11244,"bccdebd":11245,"eeceebbc":11246,"dbeecbd":11247,"ffbcbf":11248,"fffa":11249,"dedbedc":11250,"beeddcc":11251,"bbbecbcc":11252,"abcbbc":11253,"bdfbecc":11254,"bbbbeccc":11255,"ebedbbbc":11256,"ebeebbee":11257,"ebebceec":11258,"bafbf":11259,"dbcecbd":11260,"fbcbcec":11261,"fccea":11262,"beccebcc":11263,"ebdcebf":11264,"bccccccccc":11265,"edbdebd":11266,"edbddbd":11267,"bdbeebec":11268,"bfdded":11269,"becfeec":11270,"babeebb":11271,"bbbdbebf":11272,"beeeddc":11273,"bebcbebf":11274,"fefbbf":11275,"bfeebebe":11276,"ebbbbefc":11277,"efbac":11278,"bbcdbbbc":11279,"bbbceeec":11280,"dbcbced":11281,"bebebcbe":11282,"dccbedc":11283,"eebdded":11284,"bcbdecc":11285,"eceddbe":11286,"bdececc":11287,"bbbbeebbc":11288,"bbbbbbccc":11289,"dffdf":11290,"bbbcbbfc":11291,"deeeccc":11292,"bbeeac":11293,"dbbebbdc":11294,"befdebe":11295,"ebedebbc":11296,"eeceef":11297,"decdedc":11298,"efceedc":11299,"dbbcdbf":11300,"bcfbba":11301,"dfcbbd":11302,"ecfbeee":11303,"bcebbccc":11304,"ecddedc":11305,"bfcecbc":11306,"efcbeed":11307,"bbccfed":11308,"deffcc":11309,"bbebcebc":11310,"eebbebbcc":11311,"ebbbbbecc":11312,"ffbeef":11313,"bebefbf":11314,"bbecdebe":11315,"bbebbfebb":11316,"bbefba":11317,"ebbccfee":11318,"bdbbbbbbbd":11319,"bfbcbebc":11320,"bbbbeeed":11321,"ddbdebb":11322,"bbcebbebb":11323,"bbbefebe":11324,"bbecfbe":11325,"bbebbdec":11326,"fecdecc":11327,"bbefdbc":11328,"bceedbec":11329,"dbccbcc":11330,"bebbbbbec":11331,"edbbefc":11332,"ebbdea":11333,"bbceeebc":11334,"bbbebbeec":11335,"bbfbdbd":11336,"cccbeec":11337,"dccebec":11338,"bcecdebb":11339,"debda":11340,"beddfc":11341,"ecdbbebc":11342,"bbbbbcef":11343,"eecfedc":11344,"bbdebbebb":11345,"eebeeba":11346,"ecbebbdc":11347,"ecbedbec":11348,"dfcfbc":11349,"bebbcdf":11350,"dcbddf":11351,"bddcccc":11352,"ebefbbbe":11353,"eecbddc":11354,"bcbcbebd":11355,"fecebcc":11356,"defba":11357,"bcfdbec":11358,"dbbbbbbee":11359,"ecfdebc":11360,"becfecc":11361,"deebbebc":11362,"bbbfdebb":11363,"bbedfee":11364,"eeccdbd":11365,"bbebebbec":11366,"bcfebdc":11367,"dfcebd":11368,"beebbdf":11369,"eeebbbef":11370,"ececbfc":11371,"eececdd":11372,"bebcbbdc":11373,"fccbedc":11374,"eebeebdc":11375,"decca":11376,"bffdcc":11377,"dcfdcc":11378,"bbcbcebc":11379,"bccdbbd":11380,"bccbeebe":11381,"bbbefef":11382,"edcfbbc":11383,"ebccfbd":11384,"fbeecbd":11385,"ddcdbf":11386,"fedebd":11387,"dfcdbd":11388,"deecfc":11389,"bbbbffc":11390,"eecedbd":11391,"fffbbc":11392,"ebbcdebc":11393,"bbebeba":11394,"bbebebbcc":11395,"febebbee":11396,"eeefbebe":11397,"edbcbbbc":11398,"bbfcccc":11399,"bbeeecbc":11400,"dbbecdbe":11401,"befcccc":11402,"dbbcdbbc":11403,"dadbd":11404,"bbbecdf":11405,"bdbebbdc":11406,"ebbbbdbd":11407,"ebcbbbbbbbb":11408,"fceefc":11409,"eccbeef":11410,"bdceeebb":11411,"dbbedebe":11412,"dccbebd":11413,"ddcfbd":11414,"fedbbbc":11415,"bbebedf":11416,"eceddbc":11417,"edfea":11418,"efbfed":11419,"bbcbebbbe":11420,"bccbded":11421,"bcbcbcec":11422,"bbbfdbf":11423,"fededc":11424,"edccbec":11425,"bbebbcbbbb":11426,"eddbbdd":11427,"dcbfebb":11428,"ebcdced":11429,"dbbedebc":11430,"ebbcbbef":11431,"dedebec":11432,"bbadf":11433,"edfbeee":11434,"ebbffcc":11435,"becbebbd":11436,"bab</w>":11437,"bebcbeebb":11438,"bbebbbeec":11439,"bbebebeebb":11440,"bcbdebf":11441,"bcdcdbe":11442,"bdbcbfc":11443,"bdbffc":11444,"ddecebb":11445,"bbcbddc":11446,"dccea":11447,"fbcbccc":11448,"bcbcbbed":11449,"bebfebd":11450,"fdddee":11451,"ebbbcecc":11452,"bfbcbebe":11453,"bbbbebbbbbbbbbb":11454,"bbdecdc":11455,"bbbcac":11456,"dcceeec":11457,"edbdecc":11458,"edbddbe":11459,"bebbbbbbbbbbbbbbbb":11460,"efdebf":11461,"efbcbbd":11462,"bbcbebbd":11463,"ebdebfc":11464,"dbbbfdd":11465,"debedbd":11466,"daea":11467,"bcedded":11468,"edccdbc":11469,"ebbfbbec":11470,"ebbfbbebb":11471,"becfbbbb":11472,"bccfbec":11473,"bbbeeebf":11474,"bbffa":11475,"debbfee":11476,"bbbbcebf":11477,"ecbebbbec":11478,"ecfdef":11479,"efdcbd":11480,"ebefbbd":11481,"bbceefc":11482,"bbbcbcbf":11483,"efcdeec":11484,"ecbcfee":11485,"dbbcbbee":11486,"fdcbebe":11487,"bebbbbbbd":11488,"bdccdd":11489,"ebbbbcbbbb":11490,"bdbbbccc":11491,"bbbceecc":11492,"daebc":11493,"bebbcbbf":11494,"febefee":11495,"bbeccccc":11496,"ebeeebbf":11497,"dbbedbbbb":11498,"bebcdebc":11499,"fbcdebc":11500,"bbbbcdbbbb":11501,"bebdefc":11502,"dfcbef":11503,"bbbecbbf":11504,"bdbcbbec":11505,"fcbebcc":11506,"bbebeeeee":11507,"eefdebc":11508,"ecbedebe":11509,"fbfecc":11510,"febbecc":11511,"ebbbebbbbc":11512,"efbbccc":11513,"bbceeebe":11514,"bbcbbbdc":11515,"bbcbfbf":11516,"fcdefc":11517,"bbbebbebd":11518,"deebbef":11519,"dedbeed":11520,"bdbdbebe":11521,"ebebbccc":11522,"ebbcdef":11523,"ebbcbbebc":11524,"fbdbeec":11525,"beefbebe":11526,"effebf":11527,"ebebdbbc":11528,"bfcac":11529,"eabbcc":11530,"efcecbc":11531,"ecfbbebb":11532,"ecdcdf":11533,"ebcbeebd":11534,"bbcbedbe":11535,"eeceebe":11536,"bbdfeec":11537,"bbdeeebc":11538,"feebeec":11539,"eebcddc":11540,"beccbef":11541,"beccbedc":11542,"bbdcded":11543,"eebdebf":11544,"bbdddbbbb":11545,"fefbeee":11546,"ebbebbebbebb":11547,"efddcc":11548,"fbcfbf":11549,"fccbbee":11550,"eebcebec":11551,"bcecedc":11552,"beedecc":11553,"bdbcdcc":11554,"cccccccccccccc":11555,"edbbbbebb":11556,"edfded":11557,"bdcdbcc":11558,"decfdc":11559,"dbddebc":11560,"feefbd":11561,"debbfec":11562,"bebdbbebb":11563,"dbbcbebc":11564,"eeecbbee":11565,"eeecbbec":11566,"deccff":11567,"eacba":11568,"fbbc</w>":11569,"bffdbb":11570,"bdceebf":11571,"dbbecbcc":11572,"ebbcfdc":11573,"bbbbcbbed":11574,"dbcac":11575,"ebccfdc":11576,"bcccbbbe":11577,"bbfcebc":11578,"eeebbccc":11579,"ddbebec":11580,"bcbcdbf":11581,"dbbcebf":11582,"bcfdebc":11583,"bbbecebc":11584,"eedcebe":11585,"bdecff":11586,"abded":11587,"bbbbbdbf":11588,"fcbcebe":11589,"dbcbbef":11590,"dccbbed":11591,"bbbdbbebe":11592,"beebeebf":11593,"fbbcff":11594,"bdcbcee":11595,"feefec":11596,"bbbfedc":11597,"eeeefbe":11598,"eebcfed":11599,"fbdea":11600,"eceddee":11601,"edfba":11602,"efebbbf":11603,"becbcebc":11604,"ebdbcfc":11605,"bccdccc":11606,"bbdbdbbc":11607,"bbbbcbfc":11608,"dbececc":11609,"febbfbc":11610,"fddedc":11611,"ecececec":11612,"bcbfdee":11613,"beefbbee":11614,"eeefbbee":11615,"bfeeff":11616,"efbebbd":11617,"ebddbbf":11618,"dbeebdc":11619,"dbebebbbb":11620,"defbbee":11621,"eeedbdc":11622,"bcdebbcc":11623,"efbceec":11624,"bccbcdd":11625,"bebeac":11626,"ebbcbedc":11627,"dbdfed":11628,"deddfc":11629,"fccffc":11630,"bbafc":11631,"febefc":11632,"eedddf":11633,"bdecebc":11634,"efbdf":11635,"ddbea":11636,"ebddccc":11637,"dbcfdd":11638,"ebcceebd":11639,"eebebbebc":11640,"bcecfec":11641,"beebebef":11642,"dcbcdec":11643,"ecbebdcc":11644,"ebbbbfcc":11645,"dceeedc":11646,"efbebbee":11647,"ebebeebf":11648,"eeceddc":11649,"becceedc":11650,"bcbdbcbc":11651,"bcdcdebe":11652,"ebdbbbcc":11653,"fbcecbc":11654,"ebecddc":11655,"dbffdc":11656,"bbeecbbbb":11657,"bdbcedc":11658,"ebbbebbed":11659,"ebdbebbd":11660,"ebfbebbc":11661,"bbbceeebb":11662,"ae</w>":11663,"ebeedbf":11664,"eccfbcc":11665,"ebbcbbdd":11666,"ecfbbdc":11667,"bccebfc":11668,"eecbebec":11669,"befebdc":11670,"efcdbec":11671,"debdfc":11672,"edbddbc":11673,"bdeebcbc":11674,"bebbefcc":11675,"efbda":11676,"efeebbee":11677,"bebeeebf":11678,"fbcffc":11679,"bbccbebd":11680,"ebecbeee":11681,"beccdbd":11682,"beedbeec":11683,"beefccc":11684,"bddedcc":11685,"edbe</w>":11686,"ddfbbd":11687,"bbdfdf":11688,"bbabec":11689,"bfbcbfc":11690,"afbbbb":11691,"bfbbbbcc":11692,"edfbbbd":11693,"babeec":11694,"deefebb":11695,"efcda":11696,"ebeceecc":11697,"ddcdebb":11698,"bdbdccc":11699,"bbebddf":11700,"bdbcfec":11701,"bfbedbc":11702,"eecdcdc":11703,"bbedfec":11704,"eebcfee":11705,"dbbcecc":11706,"bceeea":11707,"bceeecbc":11708,"bdedccc":11709,"dceddf":11710,"bfeddf":11711,"ecdc</w>":11712,"ecfbdcc":11713,"edfbbcc":11714,"ebbbedcc":11715,"efbcbcc":11716,"ebebeebd":11717,"ebceebec":11718,"bbceba":11719,"dbebeebe":11720,"deebedc":11721,"bbecbebbc":11722,"ebdcebbc":11723,"ececbebc":11724,"bcdcdbc":11725,"fafc":11726,"bdbebbebe":11727,"fbbebecc":11728,"bbdeba":11729,"fbebbbec":11730,"deececc":11731,"deecbdc":11732,"dcdebcc":11733,"ebebebdc":11734,"bbfbbbbbbbb":11735,"bebebced":11736,"fbcbebf":11737,"acbfc":11738,"eebcbbebb":11739,"dbccff":11740,"bbcbedf":11741,"decdebd":11742,"debbbebd":11743,"beecbbebb":11744,"eebceccc":11745,"bbfcbbbc":11746,"ecbdded":11747,"dedcbec":11748,"eceeded":11749,"edbbdbd":11750,"eecfeec":11751,"dbbdddc":11752,"fbebbdd":11753,"eebcbbed":11754,"defbebc":11755,"bdfdebe":11756,"ecdbba":11757,"ebcecebc":11758,"ebdfbec":11759,"ebfbdcc":11760,"beeefebb":11761,"feecccc":11762,"bbbffec":11763,"acbef":11764,"acfbc":11765,"beccbebd":11766,"fbdbbcc":11767,"ecdcdbe":11768,"ebceebcc":11769,"bccbbccc":11770,"bbdeebec":11771,"dbbcbbec":11772,"bbabbbd":11773,"edbdbec":11774,"ebbbcbdc":11775,"ebceeebc":11776,"ebdbcbbc":11777,"dbfddc":11778,"bbbbcecc":11779,"fbdbebd":11780,"ecccbebe":11781,"beeddebb":11782,"eeecbef":11783,"bdbdbbf":11784,"febebcc":11785,"bbdbbecc":11786,"bbdeefc":11787,"bbdbeebd":11788,"ecbcbbed":11789,"eefdbec":11790,"beebbbbcc":11791,"bbabcc":11792,"dcdcdcc":11793,"ebceeef":11794,"ffbbfc":11795,"fbcbcbd":11796,"dedcdd":11797,"febebbf":11798,"bcdcdec":11799,"ebbeedf":11800,"bcbbeba":11801,"edbbbbbd":11802,"bbbbecbe":11803,"efbdebe":11804,"deebdcc":11805,"bbccddc":11806,"ebecfed":11807,"eeecdebb":11808,"afebc":11809,"bcbbbbbbbbbbbbbbbb":11810,"bddbbebe":11811,"bbbbbcdd":11812,"bbcfbbd":11813,"fcbebec":11814,"dbbefbf":11815,"eabcbc":11816,"ebecbbed":11817,"ebdcded":11818,"eebdbbbd":11819,"bcccded":11820,"bcecbbee":11821,"beededc":11822,"dbccebe":11823,"dceebbf":11824,"dcebbdc":11825,"efdded":11826,"bbdfbcc":11827,"bbdbdbbd":11828,"dbdecbc":11829,"dbddddd":11830,"bcbcefc":11831,"bdfdfc":11832,"aecec":11833,"abebbbb":11834,"edfddc":11835,"eccbcef":11836,"edceddc":11837,"dbceedd":11838,"ebbcbebbc":11839,"ebccbecc":11840,"ebdcbbbd":11841,"fedfee":11842,"bceefee":11843,"beebbbbbd":11844,"bdedbec":11845,"bdeeebf":11846,"afba":11847,"bbbbbbba":11848,"bdcda":11849,"dccfdd":11850,"ebecbbbbc":11851,"ebccfee":11852,"beebbdd":11853,"ecedbec":11854,"afbec":11855,"bbbbdebd":11856,"deebdbd":11857,"dbcbbebe":11858,"fccbbec":11859,"beebbebbc":11860,"ecbdbebe":11861,"bdbedbbc":11862,"ecebbccc":11863,"edddccc":11864,"aeeed":11865,"efdbbbc":11866,"eecefcc":11867,"ffdebe":11868,"dbbebbef":11869,"dbbebbdd":11870,"fbebfcc":11871,"ecbcefc":11872,"fbfeec":11873,"bdbcbeee":11874,"bcfbdcc":11875,"bfeedbe":11876,"edbbebec":11877,"dcfdbb":11878,"bbbbebbcc":11879,"becbdbf":11880,"bccbcbbbb":11881,"bccbdbf":11882,"bccbddc":11883,"bbbeecbe":11884,"befeebd":11885,"eebeebbebe":11886,"bcfda":11887,"bcecebbc":11888,"dddddddddddddddd":11889,"edeb</w>":11890,"bbcbcbec":11891,"deddecc":11892,"fbcdebe":11893,"fbccccc":11894,"bcbcbbbf":11895,"dbfefc":11896,"debbdcc":11897,"bbbfbebd":11898,"beecfbd":11899,"eefeba":11900,"dbecbebe":11901,"bbbecfc":11902,"ebbeeba":11903,"beef</w>":11904,"efeefc":11905,"befeeebe":11906,"bebdeecc":11907,"bcccbebc":11908,"bbebcebe":11909,"ecbfedc":11910,"eceeac":11911,"eceddec":11912,"abac":11913,"effbbbe":11914,"ebfbbfc":11915,"edcefcc":11916,"ffeecc":11917,"deedeec":11918,"dbbeceec":11919,"fbcbbbbc":11920,"ebeceebc":11921,"bcbcbecc":11922,"fedbecc":11923,"bbdcdcc":11924,"abdac":11925,"bebbebccc":11926,"bcceddc":11927,"cccba":11928,"bebebebbbe":11929,"ebdcbfc":11930,"bcbdbbee":11931,"bcecfee":11932,"beddbbc":11933,"abcef":11934,"ecbbb</w>":11935,"dfdeec":11936,"dfeedc":11937,"bbbedbbd":11938,"ebfeeef":11939,"dbbbd</w>":11940,"befbced":11941,"bbecbbebe":11942,"bbdcbbee":11943,"ecbfdbe":11944,"dba</w>":11945,"ebcebecc":11946,"bbceebbbb":11947,"ebdbeebc":11948,"edcbdcc":11949,"deddbbc":11950,"fbcfebb":11951,"fbceedc":11952,"eeeebbbd":11953,"bdecebe":11954,"bfecdec":11955,"ad</w>":11956,"afdf":11957,"efbcecc":11958,"ddeeef":11959,"fcdebf":11960,"eecbea":11961,"bbbebcf":11962,"bbfbeebe":11963,"ebfecbd":11964,"fffebe":11965,"dbceebe":11966,"befbbebc":11967,"fccfdd":11968,"eeeecccc":11969,"dddbbbc":11970,"becfedc":11971,"dffebe":11972,"bbecddc":11973,"bbdcfee":11974,"debcbbbc":11975,"bbefbbebb":11976,"bbcfdf":11977,"eecebfc":11978,"bbdbebcc":11979,"dfbbfc":11980,"fbebdbf":11981,"bbedbbcc":11982,"bdfeecc":11983,"dcebbbc":11984,"ebebeff":11985,"becbdebb":11986,"bfcbcbf":11987,"fccdbf":11988,"fccdfc":11989,"ecfdbbc":11990,"ecedecc":11991,"fbbbbbbbc":11992,"edbedbf":11993,"ebec</w>":11994,"bbbebeef":11995,"decea":11996,"bbeceedc":11997,"dbfebbc":11998,"fedbeec":11999,"dabdc":12000,"dbccdee":12001,"fcecdd":12002,"bbbeecebb":12003,"ffbedc":12004,"befbedc":12005,"debcebbc":12006,"bcbdbebc":12007,"bebfdbe":12008,"bebfbebc":12009,"ebbfea":12010,"bccbcbcc":12011,"dfecec":12012,"bcbcddc":12013,"bbbfdcc":12014,"eeeeeebeee":12015,"ecbcfbd":12016,"febbbbebb":12017,"bebfecc":12018,"fdddbe":12019,"eecfbec":12020,"bbbbcbcbbbb":12021,"fabba":12022,"ddfdbe":12023,"bbbebdcc":12024,"ffbeed":12025,"dbcfef":12026,"dbdd</w>":12027,"dedebcc":12028,"debebbbd":12029,"ebefecc":12030,"bbbefdc":12031,"efcbbed":12032,"bcbebbeec":12033,"ebbbddbe":12034,"aecdc":12035,"eceecccc":12036,"ebee</w>":12037,"dfdbbbb":12038,"dbceeed":12039,"dccecdc":12040,"eaebbc":12041,"feddbf":12042,"eeccbecc":12043,"bbebcdee":12044,"aedcc":12045,"ebdbdbc":12046,"bbdbcfc":12047,"ddcbbed":12048,"bbefeec":12049,"bebbcebc":12050,"febcfc":12051,"bfbeedc":12052,"edbc</w>":12053,"bbbbfdd":12054,"bbcecbbc":12055,"becedcc":12056,"becedbd":12057,"becbeebd":12058,"ebdbdbf":12059,"dbcdbbd":12060,"eafbe":12061,"fecbccc":12062,"eebdbbee":12063,"bcbdbfc":12064,"bbbbdbbbc":12065,"dbcbcbf":12066,"efcdbbc":12067,"efcdecc":12068,"beeebbdc":12069,"eeeebbcc":12070,"bbddbdbd":12071,"bcecdeec":12072,"fbbcbcc":12073,"dcebdcc":12074,"ebefbbee":12075,"eecb</w>":12076,"ccceccc":12077,"ebbcbbbec":12078,"befbcebb":12079,"bcbdfbc":12080,"ebbbbebcc":12081,"ddedbf":12082,"ecceeef":12083,"edcdccc":12084,"bebddcc":12085,"bbbecbbee":12086,"bedddbe":12087,"eebbbfcc":12088,"bfecbbd":12089,"ebdd</w>":12090,"dbddeec":12091,"defbcbc":12092,"eeccfbd":12093,"bceefbd":12094,"bebfbeee":12095,"bedeac":12096,"ecdeac":12097,"dcbebbee":12098,"ebeebbef":12099,"bbdbeeec":12100,"bbbeebdc":12101,"bbfdbbd":12102,"bbfbcbbc":12103,"edcebfc":12104,"bbbcbced":12105,"ebecdbf":12106,"beedbbec":12107,"ecbddcc":12108,"bdeebecc":12109,"ac</w>":12110,"abefc":12111,"ebbdeecc":12112,"dcffcc":12113,"efbedf":12114,"bbbeb</w>":12115,"dbdbbbbc":12116,"bcecbecc":12117,"ecbdbbf":12118,"eddbdcc":12119,"fce</w>":12120,"decda":12121,"bbeffbc":12122,"fddecc":12123,"bacda":12124,"bdee</w>":12125,"bdbebccc":12126,"efbbbdc":12127,"dbeeeec":12128,"dedfbd":12129,"ddcdef":12130,"bbbffcc":12131,"bbdcbbec":12132,"debebcbc":12133,"bcbedbbbb":12134,"eebdbfc":12135,"bfbcecc":12136,"efbdebc":12137,"bbcbdbbbb":12138,"fcdced":12139,"fbedbcc":12140,"debceecc":12141,"ebbbcbebc":12142,"fdeac":12143,"dcdcccc":12144,"dddebf":12145,"fcdbbbe":12146,"becbcbbbb":12147,"bccbebbbb":12148,"efcbccc":12149,"feddebb":12150,"bfbcebd":12151,"bfbcebf":12152,"edeebebe":12153,"ebebcbcc":12154,"fcedbd":12155,"bccecebb":12156,"ffbeebe":12157,"debebfc":12158,"eebdfec":12159,"bbbbbbbbbcbbbb":12160,"beedbbbc":12161,"fefdbe":12162,"bdbeac":12163,"ddbbeec":12164,"ebcdbbbc":12165,"bbcbca":12166,"bebcbccc":12167,"beeebccc":12168,"fcceccc":12169,"defbebe":12170,"bceecccc":12171,"fcbebbbb":12172,"bafebb":12173,"feebebd":12174,"eeeedee":12175,"eebcebdc":12176,"eeccfdc":12177,"bbdcbef":12178,"eefebdc":12179,"eedcfec":12180,"ebbbcebbc":12181,"dcbddee":12182,"bdbbeecc":12183,"dcbedbb":12184,"efeeff":12185,"ddebbcc":12186,"bbdbedbe":12187,"dbcbcdc":12188,"dcceedd":12189,"dedea":12190,"debeebf":12191,"bebfeec":12192,"ffcdec":12193,"eceebecc":12194,"bdfdbbc":12195,"edbcbbee":12196,"fcbfdc":12197,"bbbeeebbc":12198,"ffebdc":12199,"dbbdcef":12200,"ddcbbec":12201,"debedec":12202,"ecbeebdc":12203,"eeebbeeebb":12204,"edccdee":12205,"bdccecc":12206,"ebbeebbd":12207,"bbcfbbf":12208,"bbfdbcc":12209,"ebffbbc":12210,"babecc":12211,"bfceedc":12212,"fbcbeed":12213,"ddcb</w>":12214,"dbfbecc":12215,"eebcbedc":12216,"bbabea":12217,"dcfdbd":12218,"ebedced":12219,"eecebbcc":12220,"bbfeccc":12221,"dbedbbd":12222,"eabeec":12223,"ebecbedc":12224,"eecceccc":12225,"bcfbbebe":12226,"dbecdbd":12227,"ecdcbec":12228,"dcefbf":12229,"ebefdbe":12230,"ebebcbbbe":12231,"dfbbebc":12232,"fecbcbd":12233,"fbdbcbc":12234,"beebbebd":12235,"bebfbfc":12236,"beddbbbb":12237,"ecbbbdcc":12238,"bccfbcc":12239,"bebcdbbc":12240,"bbedbeee":12241,"bbaccc":12242,"bdccbec":12243,"bdbcbbcc":12244,"fdfccc":12245,"abbeec":12246,"eccbcfc":12247,"baefc":12248,"ffdbcc":12249,"ebbcbcbe":12250,"dbdebcc":12251,"dedbced":12252,"acbebe":12253,"fbddfc":12254,"bbdddec":12255,"bfbbbbbbc":12256,"efeddd":12257,"efbbedc":12258,"ddbdec":12259,"bbcbdef":12260,"bbfebdc":12261,"ebbcebdc":12262,"bbebbeebc":12263,"bbbffbf":12264,"eeeeeef":12265,"acdcc":12266,"eebdebcc":12267,"fddfec":12268,"bddefcc":12269,"efbcebd":12270,"ddecef":12271,"ebceded":12272,"eccecebb":12273,"eccedbf":12274,"ebddddd":12275,"ebbcfebb":12276,"dbdbddd":12277,"dedda":12278,"bbebbbcebb":12279,"bbebbebbebb":12280,"ebecbcbd":12281,"bebdfee":12282,"dceebdc":12283,"ebebedbe":12284,"ebebeecc":12285,"eccfeec":12286,"dbceebf":12287,"bfcfef":12288,"dbbdcebe":12289,"bbefbbd":12290,"bbbbbfbf":12291,"ddbdbbc":12292,"babebf":12293,"bbeedbec":12294,"bbbdbebbbb":12295,"bbecdbec":12296,"dbffbf":12297,"beebefee":12298,"beddbdc":12299,"febebbbe":12300,"eceedbbc":12301,"edbcbfc":12302,"dcbcbdc":12303,"dcdea":12304,"ebdecebb":12305,"dfb</w>":12306,"edcdbdc":12307,"deebcbf":12308,"dbbbfef":12309,"ddcbeec":12310,"fbdfed":12311,"eeebbbec":12312,"ecdebecc":12313,"bbbbbbecc":12314,"bbcbebbf":12315,"fcbcdf":12316,"eccdbbbb":12317,"bccbebec":12318,"babccc":12319,"bafa":12320,"deeda":12321,"beecdecc":12322,"bebddbf":12323,"bebbcbbee":12324,"bfecff":12325,"ebefebd":12326,"ebcbfbf":12327,"bbcfebd":12328,"bbceebec":12329,"ebdecbf":12330,"bccbcccc":12331,"beecbeed":12332,"edecdec":12333,"ebebcebd":12334,"ebcbbccc":12335,"bbdfecc":12336,"bbdeded":12337,"bbbebdebb":12338,"dbefbbc":12339,"dbbeac":12340,"debbeecc":12341,"acbcbc":12342,"eebcea":12343,"eebfbec":12344,"bfdfcc":12345,"dcfbebe":12346,"bbbbbb</w>":12347,"bbbbbcbbbe":12348,"ebdbbeec":12349,"bbfbbbcc":12350,"dbcebdc":12351,"eebebbdd":12352,"bceedef":12353,"bedcfbc":12354,"bcbebdcc":12355,"eedbac":12356,"efeca":12357,"efebbebe":12358,"dbedbcc":12359,"bdcbcbf":12360,"dbbbffc":12361,"dedbcbd":12362,"eeecbeee":12363,"bdfda":12364,"eddbbbbc":12365,"edbebecc":12366,"dcfdec":12367,"ddeeebe":12368,"bbcdebf":12369,"becbedbe":12370,"bbbeecbd":12371,"deeecbd":12372,"dbcdeec":12373,"bebebeed":12374,"bbbdea":12375,"fbfdec":12376,"fdcbebc":12377,"ebeeddd":12378,"fcdbfc":12379,"fcbfed":12380,"becdccc":12381,"eccdbbd":12382,"dfbbbec":12383,"dfdebd":12384,"bbbebcdc":12385,"ebbcbcec":12386,"efceebd":12387,"bbecbcbd":12388,"bbbbcdec":12389,"bbfceec":12390,"febca":12391,"bdbedef":12392,"bdeebbebb":12393,"ebbfbbbf":12394,"bbbbeef":12395,"dfbba":12396,"bbbeeeebe":12397,"ebfda":12398,"dbddbec":12399,"fecbeee":12400,"feddfc":12401,"bbebcdbe":12402,"eeebbbbebb":12403,"ececfcc":12404,"bbbbbebbf":12405,"bbcbeeec":12406,"fcbdebb":12407,"ebdbea":12408,"ebdbcebe":12409,"babbebe":12410,"bbeebced":12411,"bfcbbdc":12412,"bbecdebc":12413,"bbbfbbed":12414,"beccbbcc":12415,"bcbddebb":12416,"bdddddc":12417,"bdecbdc":12418,"bcbbc</w>":12419,"dceedbc":12420,"efeebeee":12421,"ebbceeee":12422,"bcddccc":12423,"dcbcbbf":12424,"adebd":12425,"dcdeccc":12426,"efdbfc":12427,"ddbcebe":12428,"ebcbcbcc":12429,"bccbcebe":12430,"eecbdbf":12431,"dfdbbd":12432,"bbbeeeec":12433,"feceedc":12434,"ecbedebc":12435,"fdcfcc":12436,"bbbbbbbbbbbbbbbe":12437,"deecbebc":12438,"bdecbbf":12439,"ebbbcbef":12440,"ebbbcbbebb":12441,"bbbbfa":12442,"efbdfc":12443,"becefcc":12444,"dbcbedd":12445,"dccbeed":12446,"dccffc":12447,"bbefdbd":12448,"eebfbef":12449,"bdeefcc":12450,"febe</w>":12451,"ecdeba":12452,"bffba":12453,"dcbeebf":12454,"bbbbd</w>":12455,"ebcfdbe":12456,"bbcfecc":12457,"becfbcc":12458,"bccbbeec":12459,"ffbbdd":12460,"dbbeddf":12461,"dbbebbbbbe":12462,"bbbbcdebb":12463,"bcccddc":12464,"bceeac":12465,"edbdedc":12466,"dcbbdfdd":12467,"dcfbef":12468,"bbbbecbf":12469,"efecbec":12470,"ebeeefee":12471,"ebcbbbdc":12472,"ebfbcf":12473,"bdcdebd":12474,"bbefbfc":12475,"ecfdbec":12476,"bbbbbbebbc":12477,"bbbbebbbbc":12478,"efacc":12479,"bebefebe":12480,"dbdeeec":12481,"ebcceedc":12482,"eebebbbec":12483,"bcccbbcc":12484,"bebfbbd":12485,"bbbbdbcc":12486,"ecceefc":12487,"bccfa":12488,"fbcbbdc":12489,"bbbbcba":12490,"fefbbee":12491,"eebfbbbe":12492,"edecbdc":12493,"bffdec":12494,"edeeebf":12495,"ebefeec":12496,"ebebeeec":12497,"bececbbc":12498,"dbedebd":12499,"fecdbec":12500,"eeedeec":12501,"bdecbbd":12502,"bdecbeec":12503,"ebbbdbbbe":12504,"bbbbebfc":12505,"bbcbcbbd":12506,"becdbbf":12507,"eccbbbcc":12508,"ffdebc":12509,"dccecbc":12510,"bbececbc":12511,"bbadbc":12512,"ddfebd":12513,"bbfecbf":12514,"dbbebbebc":12515,"bebceedd":12516,"feedbbc":12517,"bcccbbd":12518,"bdbdeec":12519,"bbbeca":12520,"ebbbcbfc":12521,"bfdddd":12522,"effbebe":12523,"ddbdbbbb":12524,"ebcfbdc":12525,"bbcbdbbc":12526,"fcecbbc":12527,"eafbd":12528,"eadef":12529,"bbecbebf":12530,"bbccbbdc":12531,"bbddded":12532,"eeecddc":12533,"eacdbf":12534,"dcbcdbc":12535,"adbbf":12536,"ddfeec":12537,"ebfffc":12538,"debbbeee":12539,"beccbcbc":12540,"eebeedcc":12541,"bdbcbebd":12542,"bdeedbf":12543,"bdecbebe":12544,"ebbbcdec":12545,"edeebef":12546,"bbffbbbb":12547,"ebfdbbbb":12548,"bdcbcdc":12549,"befbcbf":12550,"eafbf":12551,"bbedbcbc":12552,"bbbbcfbc":12553,"beccbeec":12554,"debeba":12555,"dbccebd":12556,"ebefebf":12557,"ddecee":12558,"bccbfcc":12559,"bbfdeec":12560,"bbbdbbeec":12561,"acedc":12562,"eebddcc":12563,"eeecdbf":12564,"bbbbbdbbbd":12565,"eddb</w>":12566,"ebbbeea":12567,"ebcecbec":12568,"bbceeef":12569,"ebdeeebe":12570,"bdcdedc":12571,"dbbebeebb":12572,"eadebb":12573,"bbbbcbeee":12574,"fbdeecc":12575,"bbebedbc":12576,"dbbcbcbc":12577,"ececbebe":12578,"bdeddbe":12579,"ebbeedbc":12580,"abedd":12581,"bccbddd":12582,"bbbddef":12583,"acbebc":12584,"bbfcbbbe":12585,"dbbdbbee":12586,"edbdeec":12587,"bdfbbdc":12588,"fbbebccc":12589,"edbbea":12590,"dcfbfc":12591,"efbeeec":12592,"becbcdd":12593,"bccdbdc":12594,"bbdfdbe":12595,"ffbcee":12596,"deebebf":12597,"debbefc":12598,"bcecfcc":12599,"ebaba":12600,"bbfcbef":12601,"dbbbebbbe":12602,"bbfeef":12603,"bbbcdbec":12604,"eabeebb":12605,"bbccdbf":12606,"eebcfdc":12607,"dbbcbeee":12608,"bcebbfc":12609,"dcbedec":12610,"ddeefc":12611,"ebcebccc":12612,"bbdeeebe":12613,"deeeebd":12614,"decbeebc":12615,"bbbdfbe":12616,"ddcebbc":12617,"fecfdc":12618,"fedefc":12619,"bbbeceec":12620,"dbbdbdbd":12621,"efecbcc":12622,"bbcedbf":12623,"dfdecc":12624,"dbebedd":12625,"bfcbebbc":12626,"becceccc":12627,"eeecfee":12628,"edbcfcc":12629,"ebcbcecc":12630,"bcbdedc":12631,"fbfbebc":12632,"bcecdef":12633,"abcdd":12634,"eccfbec":12635,"bbbeda":12636,"ffecbd":12637,"bfcfdc":12638,"dbbebbec":12639,"fecbeed":12640,"debbdbf":12641,"beecdeec":12642,"bcbdfee":12643,"bfeeecc":12644,"ebbdbbdd":12645,"ebefbebe":12646,"ebebdbec":12647,"ebbcbdbd":12648,"ebbcbcebb":12649,"fecdeec":12650,"bcbedeec":12651,"fbfbbd":12652,"febbbdc":12653,"bfdbecc":12654,"bfecdbe":12655,"bffebbc":12656,"dcbbdcc":12657,"ddbcfc":12658,"bbcbebbbc":12659,"fceea":12660,"ffeebf":12661,"deedfc":12662,"deebcee":12663,"decebdc":12664,"bbebbbebf":12665,"ecbcba":12666,"bdecbbbe":12667,"bdecdbd":12668,"ecdbbebd":12669,"dcbebbbc":12670,"bbbbbfbbbb":12671,"efbfbd":12672,"ddecf":12673,"eccbba":12674,"ebdbebcc":12675,"efceccc":12676,"ebccdebb":12677,"fccdef":12678,"eefdebe":12679,"ecbedfc":12680,"eeebbbbbc":12681,"fefebf":12682,"edbcded":12683,"efbeebf":12684,"eecbcfc":12685,"edcecbf":12686,"beeeeccc":12687,"ecdcbcc":12688,"efbeebd":12689,"ebeeac":12690,"eecbebbd":12691,"dffbcc":12692,"bbeebeed":12693,"dccdfc":12694,"efcbbdc":12695,"beecea":12696,"bebdbbed":12697,"bbebefee":12698,"bcfbbebc":12699,"eeecdebc":12700,"bcdcecc":12701,"ebcfbbf":12702,"edceeebb":12703,"bfcdebe":12704,"bfcbcec":12705,"ebbceedc":12706,"efcfbe":12707,"fbffbf":12708,"beebbbebc":12709,"eeecbbcc":12710,"dbccdbe":12711,"ddddccc":12712,"dcbcdbd":12713,"bbcebbbbbb":12714,"dfeced":12715,"ebfebdc":12716,"dccdccc":12717,"beeebbed":12718,"bedceecc":12719,"fefbec":12720,"eddbbed":12721,"ebdefcc":12722,"edcfebe":12723,"bbbdeebd":12724,"fbcebdc":12725,"ebecbccc":12726,"eebcbbbf":12727,"dbbbbdee":12728,"adda":12729,"febd</w>":12730,"bdfbccc":12731,"ebbbedebb":12732,"ebcbebbf":12733,"ebcbdbbc":12734,"bcceebbc":12735,"bbdecbbc":12736,"dfeebf":12737,"bdcecec":12738,"badef":12739,"deefbbc":12740,"efcdedc":12741,"bcbdded":12742,"beebbecc":12743,"bfeebeee":12744,"dcbedcc":12745,"bbbbeeebe":12746,"ebebdef":12747,"bfcebdc":12748,"bbebebbbf":12749,"eebdfbd":12750,"bedcbebe":12751,"beefbef":12752,"eceebef":12753,"eddcedbbc":12754,"bfebeebe":12755,"dcbedbd":12756,"dbeecbf":12757,"bbeedbbbb":12758,"beecfcc":12759,"bebdbbcc":12760,"ebabba":12761,"bcdebecc":12762,"ebebebbbc":12763,"ebebfebb":12764,"bbdedbf":12765,"bdcdbbf":12766,"edcfa":12767,"babcbd":12768,"bebcddc":12769,"daeec":12770,"ebfcbcc":12771,"bebbcbebe":12772,"bcbbbbbbebb":12773,"dceeddc":12774,"eebf</w>":12775,"efebccc":12776,"ebeecbec":12777,"bbbcbcee":12778,"deebbdd":12779,"ebccfed":12780,"bbbbcbebbbb":12781,"bcdcdcc":12782,"dcedbbc":12783,"bbbcdebc":12784,"deedebe":12785,"bebdbeee":12786,"bebffee":12787,"ecebebdbbbe":12788,"eebbeebbee":12789,"ecbbedcc":12790,"ecdbbeec":12791,"dcfbbbc":12792,"dcfcdc":12793,"bbbbbbbebbbb":12794,"ebcbfdc":12795,"becbcbec":12796,"ebdbebbbe":12797,"beebbbbbf":12798,"febbfebb":12799,"bdbcebbc":12800,"befcfc":12801,"bceffc":12802,"ebbbcbbec":12803,"afbcc":12804,"bebbeac":12805,"edebfcc":12806,"bbcdccc":12807,"dfbdbf":12808,"bdcbdcc":12809,"bcedff":12810,"bdfbbef":12811,"ebbbbbbbbbd":12812,"ecdebccc":12813,"adecc":12814,"dcbbbfc":12815,"bccbeebc":12816,"bbfecbe":12817,"dbeeedc":12818,"fbcdbbc":12819,"dbfac":12820,"dbbdbebc":12821,"eedddbc":12822,"eceeebcc":12823,"bfbcebbc":12824,"dcbbba":12825,"bbbbbea":12826,"efbedbe":12827,"deceeec":12828,"ebecdef":12829,"eeeefbf":12830,"fddfbc":12831,"bbcbac":12832,"fcecf":12833,"eccbbeec":12834,"eecdbbf":12835,"bbbceeed":12836,"bbeefbbc":12837,"dbbebbbbd":12838,"dbbbfbec":12839,"dbdfdc":12840,"bedceebc":12841,"eebfedc":12842,"ffcded":12843,"aeebbc":12844,"bbbbbcbec":12845,"ddbb</w>":12846,"ebceedbe":12847,"fcbddd":12848,"dbefef":12849,"dbeecdc":12850,"bbeebbbec":12851,"bebdebcc":12852,"eeccbebe":12853,"febbebd":12854,"ecbdbbbe":12855,"eeefbbf":12856,"dcebbbbc":12857,"bbbbbbebf":12858,"efecfc":12859,"ebeeeebc":12860,"eccbedf":12861,"dfbcdd":12862,"feddef":12863,"eeccecbc":12864,"dabbf":12865,"febcbec":12866,"bfccff":12867,"bddbbef":12868,"bbcd</w>":12869,"fcebecc":12870,"eececed":12871,"edcbbfc":12872,"bbccdebb":12873,"beedebd":12874,"eeeddec":12875,"bdbebbdd":12876,"edbcebbc":12877,"dcbdccc":12878,"dcecbbbb":12879,"ebcbdee":12880,"ebcfccc":12881,"bdcdbdc":12882,"dbceccc":12883,"bebceedc":12884,"bbebbeeebb":12885,"bbbfbebf":12886,"beecbbdc":12887,"ecbdbfc":12888,"eebfbcc":12889,"ebebbebbc":12890,"bbdbfbf":12891,"bbbebeebc":12892,"ebffa":12893,"deebbfc":12894,"bebedebc":12895,"eabbed":12896,"bebcdfc":12897,"ddcbeee":12898,"ebbbbbccc":12899,"ebebedf":12900,"ebebdbbbb":12901,"ddeba":12902,"ddbebbd":12903,"fcecfc":12904,"fecdedc":12905,"beecebcc":12906,"dbbbbbbcc":12907,"dbecbdc":12908,"bdbcdebb":12909,"febcbbc":12910,"bccfecc":12911,"eecfbcc":12912,"deedbcc":12913,"efcfef":12914,"efcbedd":12915,"fbffcc":12916,"eceebeee":12917,"bdbcbbed":12918,"edecdbc":12919,"aeced":12920,"bddc</w>":12921,"ebeecebe":12922,"eececbe":12923,"bbdbbbbbbc":12924,"dbbaa":12925,"dbddfc":12926,"bbebbded":12927,"beecbedd":12928,"beccdebb":12929,"bbebeebd":12930,"dbbcbfc":12931,"bbbbeba":12932,"bbbbecbbbb":12933,"effdbc":12934,"bbfeebe":12935,"ebfbbebc":12936,"dbbdcbbc":12937,"bebcdef":12938,"bcbcdebe":12939,"bbefecc":12940,"bebfedc":12941,"decceebc":12942,"bdccdf":12943,"bdfdebc":12944,"bcefccc":12945,"bfbbcbbc":12946,"dcdebec":12947,"becbcebe":12948,"becebecc":12949,"bbbcbba":12950,"dccbcec":12951,"bbbfded":12952,"beccecbc":12953,"eebddebb":12954,"bdbdbcc":12955,"ebbbcfbc":12956,"ebddebf":12957,"ebfbcee":12958,"bbbcfbbc":12959,"ebbcbbfc":12960,"eeccbbec":12961,"dbdceec":12962,"edbd</w>":12963,"ebbfcdc":12964,"becdbbbe":12965,"fbedeec":12966,"dbbcbbcc":12967,"fdcdbd":12968,"ecbdbbd":12969,"bcedebc":12970,"fefbef":12971,"beebeff":12972,"edccdf":12973,"bcdcff":12974,"ebbeebbbd":12975,"dcedccc":12976,"dcbbebbc":12977,"bbcebecc":12978,"ebdbedbe":12979,"deefbf":12980,"dbfdebb":12981,"fccbbcc":12982,"defded":12983,"daedc":12984,"beedbef":12985,"beedefc":12986,"eedcbbf":12987,"eeeddbd":12988,"bdbedbbbb":12989,"febc</w>":12990,"dcebbef":12991,"eecdebf":12992,"deebebbc":12993,"dbbf</w>":12994,"bbeceebd":12995,"eeccbbbd":12996,"eebedbcc":12997,"beebbedc":12998,"eeddebc":12999,"dcbcded":13000,"edeeddc":13001,"edbbebcc":13002,"bbcecf":13003,"dbefebe":13004,"bcbcdef":13005,"fccba":13006,"fccbebd":13007,"fdddbd":13008,"bbeecdf":13009,"bfbcbdc":13010,"ebdfbcc":13011,"bccbcfc":13012,"dbeffc":13013,"deccbbc":13014,"bdec</w>":13015,"edbbbecc":13016,"edfdbf":13017,"bbbbfbec":13018,"ebeecef":13019,"ddbdef":13020,"fceba":13021,"fceddc":13022,"fcbeebd":13023,"bbbebebec":13024,"dbbdcec":13025,"bbebbea":13026,"debcdbd":13027,"bcbddcc":13028,"defcdf":13029,"dcbcecc":13030,"effbdc":13031,"efebeebe":13032,"ebdfebd":13033,"bccefcc":13034,"bbbdeeee":13035,"ddceebc":13036,"bebddebe":13037,"bebdbedc":13038,"ebdcfec":13039,"debddbd":13040,"eeddbec":13041,"befcbec":13042,"eeefbef":13043,"eceacc":13044,"ebebfebe":13045,"edceef":13046,"edcfbec":13047,"bfcffc":13048,"bbbfbeebb":13049,"bebdfbd":13050,"dabbd":13051,"edecdcc":13052,"fcbebbd":13053,"ebdfeec":13054,"edcbcbe":13055,"bafef":13056,"bbeedebc":13057,"bbedebec":13058,"fccbccc":13059,"ebdcbbbc":13060,"bcbdbeee":13061,"bceefbe":13062,"bdbdff":13063,"eeebbbcc":13064,"bedbbdd":13065,"ecdbbbcc":13066,"bbbbbbdbbbb":13067,"bdcfbbc":13068,"bbeedbbd":13069,"beecdbbc":13070,"bceeebec":13071,"fdcdfc":13072,"bcbffbc":13073,"bcefbebe":13074,"ecddebc":13075,"ecddbccffc":13076,"bdecbef":13077,"bfbdbec":13078,"dbebba":13079,"decbebbc":13080,"bebdebec":13081,"ecbcdebe":13082,"dcdcdd":13083,"edbcbbec":13084,"dcbcdcc":13085,"bbbbfbbf":13086,"ebedbbee":13087,"ebdfbbbb":13088,"bbfbdbf":13089,"dbbedbec":13090,"bbecbccc":13091,"ecccfec":13092,"ecbcdbf":13093,"eecceebd":13094,"bcecdbec":13095,"eeecebcc":13096,"bcbbcbcc":13097,"bfccdf":13098,"bfbbbbebb":13099,"dcfbbee":13100,"ecceded":13101,"bdcecbd":13102,"dbbbfec":13103,"bebcbebbc":13104,"beecebec":13105,"fbdbeee":13106,"bcecbbcc":13107,"ecbfa":13108,"eedebccc":13109,"bfbeba":13110,"bbbcbbbbbbc":13111,"dbbecdee":13112,"eabbebe":13113,"eeeceebc":13114,"bebfdbc":13115,"eedcded":13116,"efdbbee":13117,"ebebfef":13118,"ebcdebbc":13119,"ebcbdef":13120,"dbbedef":13121,"befbba":13122,"ecccbbbe":13123,"ecccefc":13124,"fedebf":13125,"bcfdbbbb":13126,"bcccebf":13127,"febbbbd":13128,"ecdcebd":13129,"edbeefc":13130,"ddbedf":13131,"deeebdc":13132,"bfcbbfc":13133,"fbcbbef":13134,"feeac":13135,"ecbcbbebb":13136,"bbebeecc":13137,"debcfec":13138,"fbfebbc":13139,"bbbbbbbbbbbf":13140,"fefdbc":13141,"bea</w>":13142,"edfeecc":13143,"bbbbbddc":13144,"bbbbfbbbe":13145,"bbcbbebf":13146,"fcbdbc":13147,"eececbbc":13148,"bbbcbedd":13149,"dbbecebd":13150,"beeefebe":13151,"debbbbed":13152,"fedbcbc":13153,"bbddbbee":13154,"dbecbbbe":13155,"bceedbbc":13156,"beedba":13157,"bbbecbebe":13158,"eeefccc":13159,"eecdebbc":13160,"deebeebe":13161,"bbebbbeebe":13162,"eefbbfc":13163,"bcecddc":13164,"bedcbecc":13165,"ececbbec":13166,"bcebbbcc":13167,"aebfc":13168,"bfdea":13169,"efeded":13170,"ebcc</w>":13171,"ebcbceec":13172,"ebceebbd":13173,"bbcbbebbc":13174,"ebdbcef":13175,"ebbcdbbbb":13176,"feefebe":13177,"fccbeee":13178,"eebcdfc":13179,"bbddecc":13180,"bbddedc":13181,"bcbdbbec":13182,"bbebcdd":13183,"deecfec":13184,"bebffbc":13185,"bdfbbbbc":13186,"bebbbebebe":13187,"edbcbbbd":13188,"ebbfefc":13189,"bbfbdcc":13190,"ffdccc":13191,"bbbdbdbbbb":13192,"eebcdbbc":13193,"bebdbdbd":13194,"debcbbd":13195,"eebdddc":13196,"ffcdbc":13197,"fbbcbbbe":13198,"deebcf":13199,"ddcbbcc":13200,"acfec":13201,"beedebe":13202,"ebabbbe":13203,"bedcbbbe":13204,"bedcbfc":13205,"eeebbbbd":13206,"edcca":13207,"eebeeebeee":13208,"eedeac":13209,"bfdbbcc":13210,"efbfdc":13211,"eccebbcc":13212,"ebbcdfc":13213,"efcbbbf":13214,"debbbbbf":13215,"bbeddbf":13216,"beccebec":13217,"ecbcebcc":13218,"eebdbbec":13219,"dadcc":13220,"dbbbbebd":13221,"fefbebe":13222,"bebbbbdbe":13223,"fbbcdbe":13224,"edfbbec":13225,"bbfbcdc":13226,"bbbcfdc":13227,"befbebbc":13228,"efcfdc":13229,"eeeebbec":13230,"ecccbccc":13231,"dbbbbbebc":13232,"edccbbc":13233,"bdbbcdbf":13234,"edbeebcc":13235,"ebcecfc":13236,"eecfebd":13237,"decbcdc":13238,"fbebbbcc":13239,"dbecbbf":13240,"bbaff":13241,"ececbbcc":13242,"beebcccc":13243,"edbcbebc":13244,"dcecff":13245,"eececbf":13246,"deebcbe":13247,"feedbec":13248,"bbbbcbeebb":13249,"bbdcbeee":13250,"bbbecbbec":13251,"ecfbbfc":13252,"bcfcdf":13253,"dcbcbebe":13254,"bfefdc":13255,"bbcbcbbbc":13256,"fcfebd":13257,"eccbdbf":13258,"bbdebbbbbb":13259,"bdcfebe":13260,"edcbeebe":13261,"eafcc":13262,"beecdef":13263,"beccfdc":13264,"debdbebc":13265,"bcebbbbf":13266,"bebbeebbee":13267,"abfcc":13268,"bffbeee":13269,"bbbbdeec":13270,"ebedebf":13271,"ebcecef":13272,"bbebbebec":13273,"ecccbebc":13274,"bcccbebe":13275,"eeebbdd":13276,"eddcdd":13277,"ebbbdbbf":13278,"bcbbedcc":13279,"eccbcebe":13280,"ebfbcdc":13281,"bbbcdfc":13282,"bbbcfef":13283,"bbeebbdd":13284,"ebdcefc":13285,"fedda":13286,"debedcc":13287,"bedddbd":13288,"bebbcbcc":13289,"dedcdec":13290,"beeffc":13291,"bcbbcbbbe":13292,"bfbcfec":13293,"edbebbebb":13294,"eddbbbf":13295,"ebeecee":13296,"edcbded":13297,"ebbcffc":13298,"beccfbd":13299,"ebdcbebc":13300,"bcccfec":13301,"bbebcff":13302,"bdbdded":13303,"bbbecbebc":13304,"bdbeebcc":13305,"bfbcbef":13306,"bbccccccc":13307,"abeebc":13308,"ebeecebc":13309,"ebcbcbbd":13310,"ebdecbbc":13311,"ebfbcbe":13312,"edcbbef":13313,"edcfeec":13314,"ecccebf":13315,"ecccbbee":13316,"bbebebbbbc":13317,"eefbbdd":13318,"deccebd":13319,"debdff":13320,"bfcbbefbedd":13321,"fcfedc":13322,"bbdbcebc":13323,"bbffebc":13324,"bfceeec":13325,"beccfee":13326,"bcccbef":13327,"dbbbbdf":13328,"bcecebcc":13329,"befcdee":13330,"edeedbd":13331,"ebbdbbebb":13332,"ebebdee":13333,"ebcbac":13334,"bbcfdbe":13335,"cccbeee":13336,"dbcdbcc":13337,"bfcbebf":13338,"eefdbcc":13339,"bbebcbbee":13340,"bbabebe":13341,"ececddc":13342,"bcebbeec":13343,"bcdcbcc":13344,"bbbbebbbf":13345,"bbdbb</w>":13346,"bbdfbbf":13347,"bdcbcbe":13348,"bbbceebe":13349,"dbbeda":13350,"bcbcfbd":13351,"eeeebebc":13352,"eeeefbc":13353,"deccfec":13354,"fefdee":13355,"edccfbc":13356,"ebdbcbbbb":13357,"bbbfea":13358,"bebddebc":13359,"fbfba":13360,"ebfcbec":13361,"bcebbdf":13362,"dbdcdf":13363,"ebbeedee":13364,"bbba</w>":13365,"bfbebfc":13366,"ebbbebbef":13367,"ebeeeff":13368,"fcbcbec":13369,"decbebf":13370,"beeeeebf":13371,"ddcdfc":13372,"beebbbdc":13373,"bcecbbbd":13374,"fefbdc":13375,"bdbcba":13376,"bcefdd":13377,"bfbcbbee":13378,"bbbbebbbbbe":13379,"bcbbbb</w>":13380,"ebdecdd":13381,"bbfeeec":13382,"dcceebf":13383,"bbebbbbbec":13384,"bebdddc":13385,"eccceecc":13386,"dbbcfbc":13387,"eebdeebc":13388,"dbecbebc":13389,"bebbcdee":13390,"bcbbcbcbbc":13391,"bdbbbbbbbe":13392,"bddbba":13393,"bbbbfebc":13394,"efecee":13395,"efefbf":13396,"ebde</w>":13397,"ebdbdebb":13398,"fccebec":13399,"acbeec":13400,"ecbcebec":13401,"bbebebfc":13402,"fbfbcbc":13403,"eeedff":13404,"befca":13405,"dcdcdcdcdcdcdcdc":13406,"fbbeac":13407,"bcbbd</w>":13408,"ebcecee":13409,"ebcecebe":13410,"bbdfebd":13411,"bbfdbbf":13412,"bbfbfcc":13413,"cccfbd":13414,"ebbceeec":13415,"bbbdfebb":13416,"bcecefc":13417,"beedfbc":13418,"bbfcdbc":13419,"eeddbbc":13420,"bbecceec":13421,"dcedbcc":13422,"edfebcc":13423,"dceedcc":13424,"edcbcbf":13425,"dbbdcebb":13426,"fbedecc":13427,"bbeddbbbb":13428,"eebcfebb":13429,"eebceba":13430,"fedeecc":13431,"debebbcc":13432,"daac":13433,"bceebbbf":13434,"fddefc":13435,"bfccbec":13436,"bbbbebbbbebb":13437,"ffffffff":13438,"bfeeccc":13439,"edbeea":13440,"fcfbbd":13441,"bbbcebdc":13442,"eaefc":13443,"feeefc":13444,"ddcbccc":13445,"bbdcebec":13446,"bbdddcc":13447,"bebecbcc":13448,"feccefebbc":13449,"dcececc":13450,"fbbbfbbebf":13451,"fceebcbfdbbbb":13452,"dfbded":13453,"ccceecc":13454,"dbbedec":13455,"debbbbbbc":13456,"ecccbbbb":13457,"eebedebc":13458,"bcecbbebb":13459,"eeddff":13460,"edbedebb":13461,"ebeeefc":13462,"ebefccc":13463,"ebcbeeec":13464,"bdcdbbd":13465,"bbecbedd":13466,"dbfdef":13467,"bbdcbebd":13468,"eedceecc":13469,"eeddfbc":13470,"abbebd":13471,"fbbbbbbbbbbbb":13472,"fcbdef":13473,"bccbbbbbbbb":13474,"eecbcebe":13475,
[...]
