#version: 0.2 - Trained by `huggingface/tokenizers`
b b
b e
b c
e e
c c
b d
e c
b f
e d
e bb
d c
bb bb
e f
e be
d d
e bc
bb c
f c
be c
e cc
e bd
bc c
ee c
bb d
d f
bb be
bb f
d be
e bf
bd c
ed c
b a
f f
bb bc
d ee
cc c
d bc
bb ee
be be
bf c
ebb c
d bb
d ec
d bd
be f
d cc
e a
bb bd
be bc
ef c
d ed
bb ec
f bc
be ee
bb cc
f ee
bb ebb
ebe c
bc bc
ebc c
f be
d dc
d bf
f ec
d ebb
bb bf
bb ed
f cc
be ec
ee ee
a c
bbbb c
ee bc
be bd
be cc
f bd
d ef
ecc c
ec bc
ebd c
f ed
ee cc
bb ebe
bb dc
d bbc
ee be
d ebe
ee f
ec be
d ebc
bb ef
bc be
bc f
ee bd
d fc
bb dd
bc cc
d a
d bbbb
d bec
bc bd
f bf
bc ee
be ebb
f dc
bbbb bbbb
bc ec
bb ebc
d eec
be ed
bb a
f ebb
ee ec
be bf
e ba
bb fc
bd bd
be dc
cc cc
d bbd
bb bec
d ecc
ee dc
ec bd
ebf c
d ebd
d bcc
ec f
bc ed
ee ebb
f ef
bb bcc
f dd
ee bf
ec ec
be ebe
bc bf
be dd
bc ebb
ee ed
be bbc
f fc
be bbbb
d edc
bb ebd
ed cc
f ebe
be ef
f bbc
ed bd
bc dc
bb eec
ee dd
ec dc
d bdc
d bbf
d ccc
ee ebe
d bbbe
bb ecc
f a
bd cc
ec bf
ec ee
f ebc
bd bc
ba c
ec ed
bc bbc
bd be
bd f
bf cc
be a
bd ed
ec ebb
be fc
ee ef
bd bf
bc bbbb
be ebc
bc ef
bc dd
d bbbc
d ebf
ec dd
ea c
ee bbc
b b</w>
ebb cc
f bbbb
bb bdc
bb ebf
bd ee
bb ccc
ebb ebb
be bec
bd dd
ed dc
f bec
bc ebe
bd dc
ef cc
f ecc
be bbbe
bd ec
f bcc
bc fc
d bbee
bd ebb
ed dd
bc ebc
d bfc
f df
be bbd
ee bbbb
dc dc
ec bbc
be bcc
bb edc
ed bf
ee a
f bbd
ebe cc
ed bc
f ebd
d ebbc
f eec
ebc cc
dd dd
bc a
bf bf
be df
be dbe
ee fc
d efc
bc bec
be ecc
bb ebbc
d ba
ed ed
bb ba
f bbf
ec ef
f dbe
ebb bbbb
ebb ee
be bbf
bd bbc
bb bfc
ebb bc
ec bec
be ebd
bd ef
ee ebc
bd bbbb
ebb bf
ec ebc
be eec
ec ebe
f ccc
f bbbe
bc bbd
ec fc
dc ed
ec df
dd cc
f edc
ee bec
bc bcc
ebb bd
ee bcc
bc df
be bbee
bf dc
bc eec
d ea
dee cc
be bbbc
dbb cc
bf ed
ee dbe
f bdc
ec bbbb
ebb ed
dc bd
bf bd
ee df
ec a
f dbc
ebb bbc
ecc cc
bf bc
b e</w>
ee bbd
ebb ebe
be ff
f ebf
ee bbbe
d ebcc
b d</w>
ec bcc
d ebec
bd a
be bdc
b c</w>
bd ebe
dc dd
ed bbc
be dbc
dc bc
ee bbf
be ccc
ef bf
ee ecc
a cc
dc ec
be ebf
bc ebd
bc ecc
dbe cc
ec bbd
df cc
f bbbc
ef dc
bd fc
bf ebb
ee bbee
bc bbbe
bd ebc
bbbb bbc
dd ed
ec eec
f bebe
be dee
f dee
be edc
bb efc
bb ea
ee ccc
e b</w>
bf ef
bbbb cc
bc bbf
ebb ef
bb ebec
bd bbd
bf bbc
bc dbe
f bef
ec dbe
ec ecc
bd bec
ebd cc
f bbee
ebb dc
bbc bbc
bf fc
ebe ebe
bd df
ec dee
ee eec
be dbb
f dcc
bf dd
bc ccc
ee ebd
d ac
ed ef
ff cc
ed ebb
ed df
bc bbbc
f dbd
ee bebe
bf ec
dd dc
bbd cc
bbbb ebb
f bfc
bf ebe
ee bdc
f dbb
dd bd
ee ff
ee dbc
ed ec
d eccc
ebe ebb
dc ef
f dec
bf a
be dbd
bc dee
bb ebcc
ed bec
ed ebc
ee beee
ee dee
dc bf
bc ff
ebb ec
d bbbbc
d ebdc
dbb bd
ef ef
be dcc
ed ebe
bc dbc
bbc bbbb
ed a
f ba
ed fc
be bbbd
ec ebd
bd eec
dc fc
be bbebb
ee bbbc
ee ebf
ebb ebc
bf bbbb
be dec
be bbec
be ba
dc ebe
ebb dd
bbf cc
bbc bd
f bebc
f ebbc
dc ebc
ef dd
bc bdc
be bfc
ebb a
ee bef
ebb bec
ef bd
bb ac
f beee
ed dee
be ebbc
e e</w>
bbbb bd
dc bbc
ebb fc
bc bebe
a a
ebe bf
ed dbe
bc edc
ee dcc
ec dbc
bbbe cc
ec dec
dc ebb
be bbcc
bbc bf
bd bcc
bd dbe
f bbbd
e c</w>
ebf cc
f efc
ded cc
ed bcc
bf ebc
dbb dd
ec bbf
ed ee
ef ebe
e d</w>
ebb bbbe
f bbcc
ec bbbe
ed bbbb
dc bec
ec bdc
ebe bbc
dc eec
d b</w>
f bbec
bbd bd
f ea
dbc cc
f ddc
ee edc
bc bbee
f dbf
ee fee
bd ebd
ef fc
eba c
bef cc
ec ff
bbd bbbb
dc a
ed eec
bd ecc
bbc ebb
bc dec
dcc cc
ebe bbbb
bf bec
dc ecc
ef ebb
ee dbd
bbbc cc
f ded
dbb ebb
ef bbc
bc dbd
fc bf
bc ebf
ebe bd
ef a
bc bebc
bbbe bbbb
ef ed
dc df
bc bef
dc ee
ed bbd
fbe cc
dbb bf
ebb bbd
fc dc
bebe cc
be dbf
dd bf
ee ba
bc fbc
f bbbf
dbb ed
bd bbbe
be bbbf
bc bbbd
ebe ef
be ded
ebe dc
ec bbbc
ec ded
be ea
fc dd
be ddc
ec edc
bb b</w>
be bbed
bd dee
ebc ed
bc bfc
bbbb bf
ee dec
ebc bf
bbd bbc
f bbebb
fc fc
bd bbf
ebc bbc
bec bbc
bb ebdc
ebe ed
ebb bcc
ee bebc
b f</w>
ebe dd
d d</w>
ec dbd
bbd bf
dbb dc
bbbb bbbe
bc bbec
fbc cc
ebb eec
ee bbec
be debb
ee fbe
dc bcc
ed ecc
bbee cc
bc ded
ec dcc
bd ff
f ebcc
ebc ebb
bec bf
bc ebbc
f ac
bc dcc
bbc ed
dd a
ee bbebb
fee cc
bd dbc
bf bcc
dd ef
ec bebe
fc bbc
bd bdc
ee ebbc
dd bbc
be efc
ecc ed
dbb ebe
bf df
ec bebc
ec bef
ee bbbd
bbbb bbd
ebb bbf
dc ebd
ebe a
bc bbcc
dd ebc
bb eccc
f ebec
bc ba
bd dbd
fc df
bbbb bbbc
be bbbbc
f debb
be bbebe
f bbed
ed ebd
bbbb ebe
ee fbc
ebc ebc
fc ef
ee bfc
ebb df
bbc bec
bebc cc
be ebec
ebc dc
ee ddc
fc bd
ee bcbc
ebc bec
dbd cc
ebb ebd
ed dbc
ebc bd
ec bfc
bc fee
bbd ed
f def
bbc ebe
bf bbf
dbb ef
bec bec
ec ebf
dd ebe
dd fc
bbc ef
ebb dbe
ec bbec
ed ccc
bc beee
df dc
ebc ef
ebb bbbc
ec bbee
cccc cccc
bf ecc
ee ea
d ebfc
ee bbcc
d e</w>
dc dbe
bd edc
be ac
bc fec
a bf
dd df
dd eec
be ebcc
fc ed
bd bbbc
bbbbbbbb bbbb
bbc dc
dd bec
dd ebb
ee dbf
bbd ebb
dbb a
dbb fc
d c</w>
bc bbebb
bcc ed
bc fbe
ec beec
ec fbc
bd ccc
dc bbbb
bc fcc
a ed
bcc bbc
ebe bec
f eccc
ec bcbc
ec ebbc
bf ff
dc bbd
bc efc
ebe fc
ed dec
bbc fc
bd bebe
ef df
ebc eec
bc beec
ebb ecc
bf bbd
ebb bebe
bf dbe
ebe bbbe
ebc dd
dbb bec
def cc
bf ebd
ef bcc
e bb</w>
bf bbbe
bc eebc
ef bec
bbcc cc
be dbbc
ebc bbbb
ee ded
ebc fc
bf eec
bbc dd
a bd
ec ba
fcc cc
dc dee
ed bdc
f bbef
ee beec
ec bbbd
bbc bcc
ecc eec
f dbbc
ed bbf
a dc
bbbc bbbb
be bbef
ebe bcc
bc dbf
bc debb
f bbdc
beee cc
dd ecc
a bbc
bc bbed
ef ebc
bec dc
dbb ebc
be bbdc
ef bbbb
bcbc cc
ee bbed
eec dc
bc bebd
dd bbbb
df fc
f bbbbc
bec ebb
f da
ba cc
eeee cc
ed bbbe
d eba
bbc ebc
a fc
ed ff
bbd dc
bd dec
be def
ec fec
a dd
bb ebfc
bb eba
ea cc
bbbbbbbb bbbbbbbb
bc bbbbc
bc bbbf
bc fbd
a ef
ebe ebc
eec bec
f dfc
bd bbbd
bd bbee
dbf cc
bbc bbd
ee bbbf
df ed
ebb ff
bc ddc
dbb ebd
f bbebe
dbe dc
be debe
ee bbebe
fed cc
bc ebec
ec fee
eec bf
bbbe ebb
fc bec
bccc cc
a bbbb
dbb bcc
bc becc
ee fcc
eebc cc
dc edc
bd ebf
a ebe
ebd dd
ec becc
eec df
ebc df
cccc cc
bbf bf
ebc ebe
ebb bbee
ec debb
ec ddc
ebd ed
bbd ebe
dee dc
bcc bf
bbd ef
f debe
bbbe bbc
ee bebd
ef dbe
f ebdc
be bbebc
eec dd
bcc bcc
eec bbc
ebe bebe
ee becc
ef ff
df dd
bbbb bec
a ebb
ec bbcc
dc ff
bd bef
be dbbbb
ef ecc
ed edc
ee debb
ed dbd
bbd bbd
df bf
ec efc
ef bbf
ec beee
ee fec
fc ebe
ecbc cc
ec fcc
bc dbb
dd dbe
dc dbc
bc ea
bd bebc
f debc
ebd bf
ecc ecc
ee dbb
bbd bec
be debc
ee fbd
ec dbf
e f</w>
fc bcc
bd fbc
ed ded
ec bebd
bbc bbbe
ebe bbf
bc eebe
ee efc
bbbd cc
dc bdc
fc ebb
dd bcc
ebc bcc
ecc bec
bc ebcc
bd bfc
bbbb bbf
bd ded
bbc eec
fc a
ebb ebf
bd dcc
ec fbe
bbbb ed
ec bbed
bc fed
dd ebd
fc ebc
bbbe bf
fbd cc
be bbdd
bbbb bcc
ebb dbc
be dbec
bc ecbc
ec bbebb
dc dec
bbc a
be bba
bec ed
bc def
ee ebcc
ee bbef
bc ecbe
bbbb dd
bc eeee
fc dbe
bbc bbf
ebb bdc
debb cc
ef ccc
bc eecc
ec def
ebb ccc
ee ebec
ec eebc
be bbbec
bec ebe
bec dd
f bbdd
bec ebc
ee ac
bf ccc
bc debe
bf bdc
ebd dc
bc eef
bb d</w>
bbc bbbc
bc eebd
ecc ef
ed dcc
bbbb bbbd
ec ebcc
be eccc
bf ebf
dbe dd
d bac
bf bbbc
bbbe bbbe
bec ef
bbc df
ec ebec
bec bbbb
ee ecbc
ebe bbee
bd ba
bbd ebc
ff dc
bbd fc
bbd a
bc ac
dbb eec
bbc dbe
becc cc
d eac
f bbfc
ebb dee
be dfc
bcc ebe
ecc ebc
bf bebe
ecc dc
bec df
ed bebe
be da
ed bbbc
bbbb ebc
bcc ef
ee dbbc
eecc cc
bf edc
bbbe ebe
bec bd
f dbec
ebb bbbd
bbc ebd
dc bbf
dc dcc
dd dbd
ebb edc
ebb bef
bc bbdc
ee bbbbc
bec fc
bf dbc
ed bef
ee def
df a
dee dd
ebd ef
bd bbec
be ebdc
bbbb ef
be bbfc
ebc a
bd ebbc
bb c</w>
bbebb cc
ec fbd
ecc fc
ebe df
bcc fc
bebd cc
f dbbbb
bbbb a
ec fed
ec eecc
f bbebc
eec ef
bc dbbc
dd dbc
debe cc
bb e</w>
bcc bec
bcc dc
ebd df
dd bbd
bcc bd
ebb bebc
dd edc
bbbf cc
f bba
dbe ed
bf dee
ec ecbc
df ef
bcc ebc
bbebb bbbb
bf bbee
bcc eec
ee bbdc
ebe bbd
ebd bec
bc bbebe
ebc ecc
dd bdc
bcc ebb
ed bbec
ebd bd
df bd
bbbc bbc
ec ea
ebe dbe
eec bd
bbf bbbb
ebb beee
ec debc
ebd bbc
ebe ecc
dc dbd
bbf ef
bcc dd
ed bebc
ed bbee
ff bf
bbd eec
ebd ebb
dbe bf
ebe beee
ec deec
e be</w>
f bbbec
bb bac
bbbb dc
be dbbd
ee ecbe
bec eec
bbf bbc
ff dd
ed ebf
ee dbec
fc eec
bc debc
ecc bf
ebd eec
bb bb</w>
fc dee
bbed cc
ff ef
be deec
ebd ebc
ec bbbf
ebb bbebb
ecc bbc
ecc bd
df bbc
dbe bd
bec a
bc bbdd
ee bba
f dbcc
bf bef
ecc dd
f dbbd
bc bbef
bbbb fc
ebe eec
ebb ebbc
ff fc
ec dbb
ef eec
bbd bbbe
fbf cc
ef bbbe
ecc ccc
bd fee
ecc ebb
edc ed
bcc bbbb
dbe bbc
bc dfc
dd dee
ebe ff
df ebc
ebe bbbc
bd ddc
dc bbbe
ebe ebf
ec dbec
a ebc
ef bdc
bd beee
bbf ebb
ed bfc
dd ccc
dc ded
bebe bbbb
ee eccc
eec eec
bbbd bbbb
ebd bbbb
e bd</w>
bec bcc
dbb bdc
ee da
e bc</w>
ebe ccc
ebb dec
f deec
ebd a
bc dbbbb
debc cc
bec dbe
ecc edc
d bb</w>
ebe bdc
ec dfc
ebd fc
be bbbbbbbb
ecc a
bbf fc
ef bbee
dbd dd
ed ddc
be dbcc
ef bebe
bd fbe
ec debe
ef ebf
ec dbbc
bf fbc
ebc bbd
ef bbd
ebe eeee
dc ebf
bd bcbc
bc eccc
be bbbcc
ec bbdc
ebb fee
ebc ebd
ebb dbd
bf bfc
bbf dc
ed fbc
ebc dbe
ebc ccc
ef dbc
ed beec
f decc
bd fec
ba a
fc bbbb
edc eec
ebb bbec
be bbeec
ef dee
ebe ebd
ebc bbbe
ee bbebc
bd debb
bbf a
ebe bef
bd efc
eec a
bd bbcc
bd beec
ff a
ef ebd
eebd cc
ec bbbbc
ee debc
ebb eeee
bcc a
bbc dee
dbe fc
f debd
ecc ebe
fbe bf
ee debe
dd ff
bbc dbc
bbc bdc
bbee bbbb
ebb fbc
bc ebdc
ed ba
ec ac
ec eccc
ec eeec
ed bbbd
bec dee
be eba
dec dc
ebb bfc
be bbebd
be debd
ef bef
fc ff
ebb ba
eec ebc
bcbc bcbc
ecc df
bc dbec
ec eeee
bebe bbc
bd dbf
bbd bcc
f bbbcc
bc bbebc
ee fed
bbbc bf
ed def
ec eef
be b</w>
bbbb dbe
dbb ecc
ebc bbf
f eba
ee bbdd
ed ebbc
ef fee
dd dec
bbd bbf
d f</w>
ec decc
ec da
bbbc bbbc
ee dbbbb
ed fee
edc dc
bbbb bbebb
ec ecbe
bc deec
df bec
ec eebd
bbebe cc
ff ff
dbb ccc
ed dbf
ebd ebe
bef bf
df ebe
bc da
eec fc
ebf bf
f b</w>
ebc dee
ec eedc
ec fdc
dd dcc
bc bbfc
bbc bebe
f ebfc
bd bebd
bbc ecc
bd fcc
bd bbebb
bbbb bebe
f dbbf
bec bbd
edc ef
ee ebdc
ed debb
a df
bdc dc
bd eebc
ecc bcc
bbbb bbbbc
bd fbd
ee dfc
bbbe dc
ebe dbc
ed beee
bbee bf
beed cc
eec ebb
febb cc
dee bf
bbd ebd
bbc ff
fc bbf
eebe ebe
eec bcc
bbbe bec
be decc
df ecc
fc ecc
ec ebdc
eec ed
eeee eeee
dd ddc
a bec
bebf cc
bebe bf
dbc dc
bbee ebe
df bcc
edc dd
bdc dd
edc bec
ee bbfc
bbd bbbc
dbe bbbb
df ebb
bbee ebb
dc fbc
bbf dd
bbf ebe
fc dbc
bdc bf
dc bbbc
ee deec
eec dec
bc bbbec
bdc ed
ec eebe
dbe bec
ebc dec
ebc dbc
f dccc
da cc
bd bbed
bbf ed
eec bbbb
ef bbbc
ec bbdd
bc bbbbbbbb
bf dbd
dbe ebb
df df
bbbe bebe
bbbe dd
fc bbd
a bcc
be bbecc
ebc ff
bec ebd
bf dec
ed efc
ecc ebd
ebc edc
ebb bbcc
dc ddc
ef beee
dc bfc
dbe a
f bbeec
ed fec
dc bebe
dbe ebe
bbef cc
bd ea
fc ebd
bf fee
bcbd cc
be dbbbe
bbc dbf
bbbc ebb
bdc ebe
bf bebc
ec fbf
bbc bbee
be dbbf
bdc ef
bd ebec
eec dee
bc dbbd
dbb ebf
bbf bbf
eec dbe
dc fec
ebc bbbc
bb eac
bbbbc bbbb
bd becc
ebb fbe
dc bef
bc bbbcc
bbbe ed
ee bbbec
ebe fee
fef cc
bbbe ef
dbe ef
ee eba
bc bba
bbd bbbd
bbbe bbbc
edc df
ec bbebe
f dbdc
ff bbc
bbbb bbee
ebb bcbc
be ebfc
dbc dd
ee dbcc
bf dcc
eec ebe
bbbe a
bcc df
fc bdc
eec ebd
f e</w>
bebe bebe
bd dbb
ec bbebc
ebf ef
bf ba
bcc ecc
bcc ebd
bdc bbc
bec dbc
ec dedc
fc dec
ee dbbd
bf fbe
edc ebc
bbbb ebd
ed bbcc
bebe ebe
f bbebd
eec dbc
bc debd
ebb bbbf
bd bcbe
bbc bbbd
bec ecc
bbd bdc
dd ded
bd def
ed becc
dc efc
a dbe
ed bbebb
ec debd
ebb ded
bd bbbf
a ff
ebc bdc
ec ecbd
decc cc
bbbe bbf
fbe ef
bf ebbc
bbd ff
df dbe
bf beee
ec febb
ebf bbc
ed bcbc
dc bbee
dbc bbc
f bbecc
ef edc
dee bbc
bbbe ebc
bec dec
bc b</w>
a ba
bebe ebb
bd dbbbb
ef dcc
bced cc
dbe dbe
ec bbef
bd bcf
bbebc cc
ebd ebd
dd bbf
ec bdbd
fbe bbc
bbbe bbee
bf bbbd
bc dbcc
df ccc
bf fcc
ebf a
ebf fc
bd eebe
bf bbec
ebb dcc
bd debe
dc bebc
edc fc
edc ebe
ebc bebe
bbbe bbd
bbf bec
ded dd
be dccc
bdc bec
a ecc
beebb cc
a bbd
bef dc
ed fbe
bbee bbc
ebd dbe
ebf dc
bbbd dd
a bbf
bd dbbc
f dbbbe
bdc fc
bbbe fc
bd bbdd
ed debe
bcc bbd
bef ef
dbd dc
ed bbed
eec bbd
ebf ebe
dec dd
bd bbbbc
bd bcbd
bec ff
ec bbfc
bd ac
bd ebcc
ebb eebc
edc bf
ebb bbbbc
bef dd
ebb bebd
fbe ebe
ebb fec
ed bebd
bdc eec
ebb debb
bec bbf
bd bcee
bec bbbc
ec ecf
ded dc
ebc bebc
dbc fc
bbc bebc
ebe bebc
ed fcc
ecbe dc
bc decc
dbb edc
bbc dbd
eec ff
bd fed
bec bbbe
eeed cc
ebb eebe
bbc dec
ebe dee
bdc ebc
cccc ccc
ef fbc
be dbdc
eec ecc
ecbd cc
dbc bf
a ccc
bbd bebe
dbbbb bbbb
df ebd
ef dbd
bd eef
be bbebf
df ff
f c</w>
edc ecc
bcc dbe
dbc ed
bf bcbc
bbc ebf
bd eeee
dee fc
dc fee
ee debd
ef ba
ef bfc
bbc bef
ebbc bbbb
dbc bbbb
a ebd
bcc ff
dc fcc
df bbbb
dd fbc
bf bbcc
bd bbdc
bec bbec
bd eecc
bbd ecc
ebb ea
ec dbcc
ef dec
ebd ecc
a eec
f dedc
ebe edc
dd bbbe
a bbbe
bbf ebc
ebb beebb
ee bbbcc
df eec
bbc bfc
ebf bbbb
dee ccc
ee bbeec
ed eebc
dbe ebc
bcf fc
ec dbbbb
bbd bbee
bbbc ebe
f bac
dcc ccc
fbe dc
df edc
ff ccc
ebb efc
ecc dec
bef ebe
df dbc
bcbf cc
bbbe bcc
bd ecbc
ebb beec
ebbc bbc
ebc ded
ec eedd
be dbbbc
ff ebe
ebd dee
bd beed
bbd ccc
ebb bbed
bd fdc
ee dccc
dbe bcc
d eb</w>
ee b</w>
fbe bbbb
ebd bcc
ee decc
bfc bf
ec bbbec
beee ebe
bbbc bec
bef bbc
be e</w>
dbbd cc
eebe ef
ecc bbbb
bd ecbe
dc ebbc
ba bbbb
eec ded
ee bbecc
dbc ef
ed ea
bec bdc
df bdc
bbbe dbe
dc bbbd
bd eebd
f d</w>
bbc bbec
fc bbbc
dd ebf
bbee bbee
ed fbd
dbc ebe
bcc dee
eef bf
bcc bbf
eeee ebe
f debf
eebf cc
dbb ebbc
bd fbf
bef a
bbdd cc
bd bcec
ed bcec
debd cc
bdc bbbb
dcc dd
fdd cc
ed ebcc
ebb bcbe
ec eeed
edc a
bdbd cc
ed ebec
bcf dc
dbb bfc
ef ebbc
ebb ebec
bbbb ccc
bf fec
ee bbebd
bbc bcbc
df bbd
bc bbebd
bbf ff
bbc fbc
d bd</w>
fbe fc
bcc bbbc
dd bbbc
be bbbdc
dbb ba
ebd bbd
bf efc
dc bbec
bf fbd
bec bebc
bf dbf
bcebb cc
bef fc
f dbbbc
bd beebb
dd bebe
ec dbbd
f bbebf
dcc dc
ed debc
ecc ff
eef ebe
eef ef
edc bbc
bcc bdc
bd debc
ea a
bc ebfc
ebc bbee
ebc ebbc
bbf bbbe
f eac
ebb bbebe
ebc bfc
bd eeec
dec bec
bcc edc
dbe df
ebc ebf
ebb becc
bbbb eec
bbc ebbc
dd bbbd
bc dedc
fc ded
dee ebe
ed beed
a bbbc
dbe ecc
bbc edc
bebe bbbe
f bbccc
eebe bf
bbee bbbe
fa cc
d be</w>
ebd ccc
bbbb bdc
ebb dbf
a bba
bd bccc
fc fbc
df bbf
bbbb bebc
d bc</w>
dc bcbc
bebe ef
bcf dd
bc bbeec
bd dfc
ed deec
bbbb dbc
a dbc
ebd dec
febc cc
bbbc bbbe
dee bec
eec bdc
be dedc
ebb fbd
ebd dbc
fc dcc
ecbe dd
dc beec
fc dbd
bcc bbbe
ed fed
ebc dbd
ef bebc
ebe ba
bbc bbcc
a bdc
fc bef
ebd ff
bbd edc
dbe ccc
a dee
ed eecc
bf ded
bbf df
bf bbbf
ecc bdc
eebe bbbb
dbbbb cc
bf bbebb
bd febb
bbbd bbc
bcc dbc
fbe dd
bcbe dc
bbd bebc
ec eeebb
be bbccc
ebb fcc
ebb ebcc
be bbedc
ddc dd
bc dbbbe
ebd edc
ebe bfc
dec bbc
ecc dbe
ebc fbc
bba cc
be c</w>
bbbc dd
b a</w>
ebf dd
febe cc
ecbf cc
bbbb dbd
bd da
eef a
f bbbdc
bbbb bbec
bc dbbf
be bac
bbf bcc
ed dfc
bd bedc
ef eeee
fc bbbe
fc bfc
be d</w>
ebe bbbd
bbee dc
ed eeee
ed bcf
bf ea
bbee dd
bcbe dd
fc ebf
bec bebe
bbd ebf
ccc dc
dee a
beee bbbb
bd bebf
edc dec
ed dbec
ff df
bec ded
eebe ebb
be dbbee
be bbebbc
ed dbbc
ed bedc
dbc eec
bc bbecc
bc dbdc
ec edcc
bbf dbe
be debf
eebe a
dee dbe
ef bbec
ccc dd
ebc bef
bcbe bbc
fee bf
ee dbdc
ef ea
beebe cc
ec bbecc
ee dbbbe
ebe bbec
ed bbbf
dc ba
ebe bbebb
ed ecbc
fbe a
ec dbdc
eec bbbc
ebd bbf
fc bebc
dbc bec
ebd dbd
dc beee
df fbc
ef fcc
eeebb cc
bbbe bbebb
ebc fec
bd dbbd
df dbd
ff bcc
ec bba
ebe fbc
ebd bdc
ebe dbd
ed da
ebe ebbc
ec dccc
bb bd</w>
ebd bbbe
eec dbd
ebe dec
dee bcc
ebb bcf
bec dbd
bcbe bbbb
bd bbebe
fc edc
bccc ccc
bef bbbb
ee dbbf
df dcc
eec bebc
bd b</w>
ee bbebf
bfc bbc
bbd fbc
dc fbd
bbec bbc
edbd cc
bd dbec
ebb febb
bbbf bbbb
bbee ef
bbee a
beef cc
bec ebbc
dbc ebc
ec bbbcc
ed bcee
fee ebe
bbbc bbd
dc eebc
bbbc ef
dbe bbd
ecc bbd
f dbfc
bdc a
df dee
dc dbf
ed ac
bc c</w>
dc eecc
bdc ebb
ecc dee
bd deec
eebe bbc
bbbb bbcc
ed dbb
eec bbf
bbbc ebc
bcf bf
bebc bbc
ecebb cc
ed bcbe
ebe bbcc
a ebf
ebd bebe
ebe bcbc
dbe bbbe
dcc fc
dc ebec
eec bbbe
edc dee
bbbb ebf
e bf</w>
fbe bcc
bfc fc
bbbc fc
efc df
bf ddc
ebb ddc
ecc dbc
ebc bbec
bbf bbd
dbd bbc
ebe dcc
beee bf
bbbc bcc
bcf ef
f dbbee
ed beebb
dd bfc
bbbb df
ebd bebc
ebb bcbd
ebc bbbd
f bbbbbbbb
ed bbdc
ec ebfc
efc bf
ec eebf
ec b</w>
ec bbeec
ed bcbd
bcbe bf
bd bbef
fbc bf
ba bbc
bedd cc
ecc ded
ebb ecbc
dbd bf
ef ddc
ebc dcc
fee dd
ebb eef
ef fbe
bc dccc
ee ebfc
dec bf
bb f</w>
bec bfc
dc debb
ecc fec
ebbc bf
dbe dee
bcf bbc
ba dd
ef bcbc
edc edc
dbe bbf
bebe bec
bebe a
fee dc
ed bccc
dbe eec
bbbb dee
ebc bcbc
ccc fc
bbbc dc
bdc df
bbbb ebbc
dcc eec
ebb eecc
ecbe bbc
bbbb ff
bec fbc
bbebb bbc
bcef cc
ec bbebd
bec ebf
bcc dec
bbcc bbc
bebe dc
bbbb bcbc
fc bbec
ded bbc
ea dd
ebb bebf
dbc a
bbbb bbbf
be bbba
be dbfc
ef dbf
bd ebdc
bec bef
bbbb bef
bbf bbbc
ebb eebd
edc ebd
bbbd bf
eef dd
cc ccc
dec fc
ba bf
ebb bbbbbbbb
edc bcc
dbe ebd
dbc dbc
ee dedc
ebc eebc
ff bbf
beee beee
bdc bcc
ecc bbf
bbee bbf
bc bbccc
be debbc
bbd bbec
bbd bef
bdc ebd
dee df
d ee</w>
f bbedc
eec dcc
bebe fc
fbe bec
dbc df
bbd bfc
bb bc</w>
bbbb ecc
ed fdc
ef bbbd
eebe bbbe
ebb fed
dc fed
bcebe cc
dc bbcc
bbd ebbc
bdc dbe
fec dd
dec df
bebe dd
ebf bec
ebb eeebb
bc debf
ec edbd
ef bbcc
eef bbc
ebb bcee
a ea
dc fbe
bd fdd
fee ef
bf beec
eedd cc
bd bced
bebc bec
bbbbc bbc
edc ff
bcc ebf
fbc fc
dec dee
bf ac
fbc bbc
bc eba
ebbc ebc
ee d</w>
a dbd
beee bbc
ecc eecc
ebb bbdc
dec ebc
bd eedc
f dba
f debbc
ebd ded
a edc
df ebf
bec bbee
be bbbfc
ecf fc
fbe bbbe
bbbb ba
bcc bebe
ef efc
eef dc
bb eb</w>
ebb bebbbb
ff ed
ecbe ecc
ebe ea
a bbee
dbc ccc
f bbbfc
bd fef
dcc ed
bcbe fc
fbe bbf
ff dbe
dd bef
bd eccc
bebc bbbb
dbd bbbb
d ed</w>
ecbe ebc
bf bcf
bec edc
ebb fbf
dbbf cc
d ec</w>
ebb bcec
dc becc
ef ded
eeee beee
dc bebd
dc ebcc
dd bbee
bbebb bbbe
be dba
bc dbbbc
bdc dee
bf bbed
bea cc
ff ebc
dd fec
ebd bbbc
bcc bfc
be defc
ebb dbbc
ff bec
ebb dbbbb
bbbd bbbd
bdc ecc
eec edc
beebc cc
ebbc ebe
bebe bbee
ee c</w>
ed decc
fc fee
bebe bbf
ebc efc
eec bfc
df bbbe
bf debb
bbc ded
beee bbbe
bf becc
bcc dbd
ebb bccc
ed eebd
bd ecbd
fbc ef
bbd bbcc
bec dcc
fecc cc
bec beec
bbd ba
bcee dd
fc bcbc
bbc ba
a bef
bbc bbebb
dbc dee
eba cc
ddc dc
bd ecf
ee dbbbc
ef fec
ebf ebc
bbbc bbf
ebf bbf
bbbc ccc
bebe bcc
bb be</w>
bebe ebc
bd bebbc
dbd dbd
f bbba
bdc bdc
bebc bf
bbec bf
fc beec
ed bced
dbe dbc
a fbc
ebb beebe
bec bbbd
eec fec
ecc eebc
bfc ef
fbe ff
beee bbee
bd ffc
bd bbfc
dc bbed
dbe ff
bd debd
ed bdbd
ebf ff
dee bbbb
ebc fee
ee e</w>
ed bbbbc
bbbe ebd
ebc debb
ed eeec
bf fbf
dbe bdc
bbc beee
debf cc
ebbc dd
bbbc a
ebbc fc
bef df
ed bbebe
ccc bcc
eebe bbee
bbec bbbb
bbd bbebb
dbc bcc
dcc ef
ebb dbb
ed eef
ebf bcc
ed bbdd
ebec bbc
bc bbbdc
ebbc bec
bf eebc
ebc bebd
dd efc
dd fcc
dd bebc
ee bbbdc
bd bbebc
ec dbbbe
bbbe eec
ebb bbef
ccc bbc
ec dbbf
df bfc
bbbe bbbd
bc e</w>
dc ea
ebc beec
ebc ba
dc def
bf bebd
bcf ebe
bebbbb cc
dbe bbbc
a bebe
ff ecc
bef bbf
ee bbedc
ccc ecc
ecbe fc
bbbe bebc
bcebc cc
edc ded
bcbe bec
bcbe ebe
dee ef
dec bcc
ed eccc
bbec bec
bd bedd
edc dbe
bbc fee
bf eeee
dee ecc
ed bebf
ebc becc
be eac
a fee
fc fcc
dbc dbe
ec eba
dbb efc
fec df
bd bcebb
f bbebbc
bcbc bbc
ebd bfc
bcc fbc
dbc ecc
bbbb fbc
ebb bbdd
bd ecec
dbc bbd
fec dc
f defc
ebb ac
df fcc
eec bef
ebb bedc
bd fbbc
bbbb bfc
bd bcbf
bc d</w>
df dec
ebb debe
dcc ecc
bcf ebc
bd cccc
bdc ff
efc dc
bf fdc
bdc bbd
bd bba
bef ebc
eebe fc
bbebb ebe
ed fbf
bd bebbbb
bbf ccc
dee ebc
dd fee
ba dc
bbbd bbd
ebb debc
a bfc
bbee fc
f f</w>
bbf ebd
fdf cc
dec ebe
eec bebe
bef bec
eec becc
bef bcc
ec c</w>
bbee bec
bd eeebb
bcf a
ecc bebc
ebb beed
dec ef
bf ebcc
dec dbe
ff bbbb
ed ebdc
eec bbec
bcee dc
eec beec
ba ebe
bbee dbe
ebf df
ed dbbbb
fbe df
bc dbbee
bbebd cc
ed cccc
dbc ebd
bd eebf
ebc bbcc
ed debd
dbd ef
bd dbcc
dbf fc
ebf ccc
dbb ebec
ee bac
efc dd
dbd fc
dcc bbc
bf ebec
ebb ecbe
bbdd dd
dc fdc
bbee bebe
ecf dd
bc bbebf
fbe ccc
bd bbbec
bbd beee
dbf dd
ecc fbc
ecc bbbe
eeef cc
eec ebbc
dbe bebe
ebe bebd
be bb</w>
eec debb
fbe ebc
bbd fee
eec fbc
ee bbccc
bbf bebe
bd bcdc
bfc dc
bbf ebf
bf def
bbc bbbbc
ebe bbbf
bbc fec
ebd fbc
eebe dc
bbee ebc
bf bccc
bd eeed
fc ebbc
ea dc
ef bbebb
bbbd bbbe
ef fbd
bcc bef
ed eedc
fed dd
bfc df
ecc dcc
dec dec
bfc dd
beee a
eebe dd
ebb bcebb
fc fec
ebb eeebe
bec fec
bbc beec
ebe beebb
beee bebe
bc bac
bbecc cc
bbbe ebf
a bca
ef beec
bfc ebe
bcbc bbbb
bbbd ebe
bbcc ccc
eef fc
ecc efc
ebb def
ebb ebdc
fbe bbee
ebb bebbc
ee dbfc
ebb eebf
bf ecbc
bef dbe
ed febb
bf bcbe
bbcc bbbb
ec efcc
bcc bbee
dbb bdbd
bbc dcc
bbbe ff
ec eeebe
bd decc
bbbe df
eebe ebc
ecc ebbc
bebe bbbc
bd febe
bec bcbc
dc eebd
bcc bebc
bbec ebe
debb bbbb
dbd a
dbd df
eef bbbb
bd ecee
eebe ebf
eec ba
bbed dd
dee dee
dbd ebe
bdc dbc
bfc a
beee ef
fee a
ecc ebf
ebd ebf
fc bebe
ded df
bd d</w>
bef ccc
dec eec
bfc bec
bcf ccc
bf bcee
bd edbd
dc bcee
ebd ebbc
ebb bbebc
ed dbbd
ecc bbbc
ecf bbc
ba ba
ed bedd
eeee ef
bebc ebc
ec e</w>
bcc bcbc
bd beebe
dbd dbe
bcdd cc
eec bcbc
ec deecc
dee dbc
bcc dcc
bbbf bbc
ebc fbe
ecdd cc
bbbc bbbd
bcc ded
bbbc dbe
ebb bdbd
dbbbe cc
fee bbc
bf bbbbc
bcc fec
ebc fcc
fc bbee
bbd bebd
f dbbcc
bbebe bbbb
efc ef
ecc bebe
a dcc
bbbe ccc
dd fbd
ea ebe
fbc df
ec debf
bcf bec
bbbc ed
beec bec
cccccccc cccccccc
bbbe bbec
eebc bbc
eebe bbf
fbbd cc
dc beed
bcbbbb cc
ecc bfc
bebc fc
bd bbbbbbbb
bebc ebe
bbbc eec
bbbb dbbbb
bbd bcbc
bbbd a
ba ef
ff ebf
dee bbf
ec debbc
ec defc
ded bec
ebc eecc
ecc fcc
ecbe ccc
ecbe ebe
eeebe cc
dbe edc
ebbc ef
ebb fdc
ecc dbd
dec a
fbc bec
dbc bbf
dcc ebe
bdc dbd
bbc bebd
bdc edc
be dbbcc
bcbe ef
dee ed
efc fc
bcc bbcc
ebd debb
bbd bbed
dc eeee
ee bbbbbbbb
ebd bbee
ba fc
bf fed
ebb eeec
bd beef
ecbe a
fbe ebf
ec ebccc
ec ebecc
efc bbc
bbf bbee
bbd beec
bbf eec
bbbf bf
dcc bec
dc debe
dbe bbee
dd ebbc
ebb bbbec
bebc ef
bedbe cc
eebe bcc
ebd bbbd
ebc ddc
fc dbf
ed dbcc
dc ecbc
fec bec
ee dbbee
ee dba
bbcc ebe
dbb ea
ccc ef
bcbe bbbe
bf eef
ed bbef
eeee a
dc bcbd
dbc ff
dc eeec
dd ba
bc dbfc
ebc ebec
ed fef
bf bcec
bf bcbd
ac a
ed dedc
ebe becc
bdc dec
ecf ef
bbd eebc
ebe ded
efc bec
ebb dfc
ebf ebf
bdc bbf
ed bebbc
dd dbf
bbbc ebd
eeee bbbb
bcf df
ebc beee
fec bbc
ed bbebc
ebc ebcc
bbbc bebe
be bbea
dd bbec
bfc bbbb
bcbe dbe
ec bbccc
bcc bbec
dbc bbbe
bc bbedc
bec becc
fcc ccc
bbf ecc
beebb bbbb
ebd dcc
ebc dbf
eec ebf
eec fee
bbbc df
fc eebc
dc bccc
ec dbfc
ebb bced
bbed bbc
ecf ccc
ed bcebb
eec bbee
bd fa
dbd bec
dee dcc
bf bebf
ebc ecbc
dc dfc
dee bdc
dd beee
fcc ef
eec bbbd
bbf dbc
fcc fc
dc eccc
beec bbc
bbf bfc
bbd fbd
eef df
bef bbbe
fbbbb cc
a dec
bd edcc
eeee bbee
ff dbc
ebf bbbe
ec dbbbc
ecbe dbe
ebe bbebe
eef ccc
bcbe bcc
a bea
ea ef
ecc becc
ded ccc
bbf fbc
bbc eebc
ecbe bcc
ebd eebc
bec fee
fbe dbe
dd debb
ed ecbd
fbe ebb
ec bbedc
eec eecc
fdbe cc
ebc fed
ff bbd
ee debf
bec ba
ebd fec
dc bbebb
dc bcec
ff dcc
fbe bbbc
bbbe bdc
ded bf
bcf bcc
ecbe bbbb
bbf bef
dee bbd
ecbe edc
ed eebe
bec bbcc
bec debb
fc bbbd
bd febc
dbd bbd
efc a
ef ac
bbbe dbc
ff bdc
ee bbebbc
bcbe ebc
bcbe a
ebb eccc
bbc bbed
ebb eedc
eedbe cc
bbbb beee
ef bbbf
ebb febe
ecf a
ebe beec
bc bbebbc
eeee bebe
dbe bebc
bbbb bbed
febd cc
bbbd bbee
fc ba
eec ddc
ee ebccc
bbbb bebbbb
ff ebd
dbe dbd
bf febb
bbf dee
edc fec
ebb fef
eebe ecc
fbe bdc
ef fbf
edc bdc
fc bbcc
fbc dd
dec ecc
ec d</w>
dc ac
edc dbc
eec bebd
ed fdd
def dd
ebb bba
df bbbc
ed bcdc
ebbc bbbe
ef bbed
eec eebc
bd bbbcc
bf dbbc
bbc debb
bbd fec
eef beee
df ddc
bbc bbbf
edc bbbb
bbc efc
be debec
bfc bcc
bbec ebc
f dac
ebe bbed
ded dee
bcf bbbb
f dea
ebd bef
bd bbebd
df bebe
bbec dd
ebb dbec
ded dbe
bbc ebec
fee ccc
be debcc
bcf bbf
bbbc bcbc
dcc ebc
ec bbbdc
ebe fcc
f bb</w>
bbbe beee
bcc bbbd
bbbe ecc
bec eebc
fc def
ea ea
ebb bbfc
bcc ebbc
fc efc
fc becc
dbd dee
bbbe bef
bfc ebc
fbd dd
ed ecec
ec bac
ebf bebe
bec bebd
ed b</w>
ebb ecbd
bbd bbbbc
ebe fbe
ebe eebc
bbf bdc
ebb bcdc
ed bbfc
bbd efc
ed ffc
eea cc
bd dbdc
dd eecc
ac ba
bc debbc
ebbc a
dc eedc
bbd ebec
dd eebc
eec bbcc
dbb ebcc
be bbebec
bd eedd
dbb b</w>
bf bbdc
dec dbc
bbebf cc
f bbefc
bcc efc
dec bbbb
ecc bbee
dc bedc
bd ecdc
dc bbbf
dbd ebc
eebe ccc
eebe bec
fc ddc
fbc ccc
bbbd ef
ebb beef
ebe debb
f bbea
ebe ddc
f debcc
be bbefc
bcf dbe
ecbe dbc
d ebac
ee debbc
bd ecbf
bd dbbbe
bebc a
bebc bbbe
fec bf
eeee bf
ebc eebd
f debec
ecc ebcc
fbc bbbb
ecc fed
eeee ccc
eef bcc
eec dbf
bec efc
eef bbf
ebb fbbc
dd bbcc
ebc fbd
ee bbba
ebc bbebb
dcc bf
ef ecbc
bebbd cc
dc debc
dc dbbc
bd eced
dddd dddd
dc deec
fc debb
ebb bcbf
bbc becc
ee eac
a bbbd
ecbe bec
bebe beee
dd bcbc
ed beebc
ebb dbbd
bebc eec
bcf ecc
fc ebec
dbe ebf
ff dee
edc eecc
ebc bbed
ebe fbd
bbd bbbf
fee bbee
bbbc dee
ef bebd
ebbc eec
bef bbee
bc bbba
ebd bbec
a ac
ef ebcc
dcc dcc
dc bbdc
dbe dec
a beee
bbbd bec
eebe ff
ea bf
dbbbc cc
bcbe df
bc bbbfc
ecbe bf
ebb bebbbe
fed df
ef debb
bef ebf
beecc cc
ebe efc
dd beec
bc defc
bcee bbc
fbe bbd
bebe ccc
bbbd dbd
bbcc bec
edc bbd
ef becc
ebd ba
bbbc bbee
bbbc dbc
ee defc
bbec df
be dea
ebe fec
be deecc
bd ebfc
eec efc
ebe dbf
edc eebc
ebe ebcc
ebbc bcc
ef def
bc eac
ded fc
bbc fcc
fbc a
bcbc ccc
bbebb bf
ecf ecc
bcbe bbf
ebd efc
bec ebec
fbc ebc
ebf ecc
bfc ff
ebe bbbbc
dee bbbe
df bbee
ebe beebe
ebd bebd
bef bebe
eeee bbbe
bddd cc
bdc bbbe
bd bfcc
eec fed
dd bebd
fbc dc
ebb bbbcc
fee ff
ebc ea
bbbc bebc
dd becc
dbd dbc
fc fbd
bf beebb
edc bebc
eef bebe
ebbc dc
fbe ed
dbb ecbc
fbe ecc
bd dbbf
ebd beec
bcf eec
bbc fbd
e a</w>
ded a
ec dbbee
bedf cc
ebd fee
bf bbef
ebbc bbd
ebe bccc
eddd cc
bf eecc
dcc bcc
ecf bcc
edc ebb
ebd ddc
bbbe bbcc
bfc dbe
bbbb bebd
ef bcec
ed befc
bbec fc
df fec
dee bbee
dbd eec
bf bbebe
ebf fee
bdbd bdbd
bec beee
bbbd dbe
ebf dbe
ebbc bbf
bd bbeec
debb bbc
ebf bef
bbbb bbebe
ed ecbe
bd dedc
dbf dc
ef bccc
dd ebcc
bcbe ccc
ebd becc
ebd eecc
fbbf cc
bbcc fc
ec dbecc
bebe bbd
ebb da
eef bbee
ebc debe
bec ebcc
ed bcbf
eec bedc
bbf bebc
ed fbbc
bec bbebb
ea bbc
bbbc bbbbc
beee eeee
ff fbc
ebe eeebb
bbbd dc
beec df
ee deecc
eec ebcc
bcc bccc
ed beebe
f deecc
ebbc dbe
ecdf cc
bebe bdc
bf fef
dcc df
fcc bec
fee fc
ebe bebf
ebe ebec
ebbc df
bbbe dee
be bbebcc
bd eebbc
bbebb bbebb
ef ebec
ecf edc
bfc dee
ebb bedd
dbd bdc
eebc bec
bebc bebc
ddc fc
eec fbd
eef bef
ebd bcbc
dbd ccc
bbd bbdd
bbbe bcbc
dd ebec
dd bbed
ded ef
bbbc bdc
ecc eccc
dd fdc
a bbec
dc bcbe
bbcc ef
bcc fcc
bbf bbbd
ebe bcec
ded dbc
bbbc bbec
dbf bf
ebe ecbc
dc fbf
ff bbbe
ecf bec
bbbc bbebb
bbcc bf
ebcc bbc
ecf ebc
fbe dbc
ecc bef
dbe dcc
dea cc
bbbb beebb
a bebc
ecc bbec
bcc fee
bbcc ebc
a fcc
ecc cccc
eef bec
bca cc
ecc bcbc
dbd ed
ff bef
bcf edc
bd e</w>
ecc eebd
fee beee
bbbb bcbbbb
bbbe ebbc
bbd becc
eebe bdc
ecbe ed
bbbd df
ebc bbbf
ff bbee
bcf ebd
bf dbbbb
bcc beee
bcc eebc
dd ea
dbc bdc
ecc beec
bf dfc
dee eec
bbbc ebf
fc ebcc
fc bebd
edc dcc
dee ebd
ecee ccc
fbc ebe
ecbc bbc
df fbd
fc bbed
ee bbbfc
dbf ef
dbf bbc
edc efc
fee bbf
a fec
eef ebf
bfc bbf
ebbc ebd
df bef
edc ebf
ebc bedc
dc fdd
fcc eec
bbd bdbd
bdc ebf
edc bbf
ed eeebb
ec debcc
ebb bcbbbb
bebbbe cc
ff dbd
ef bbef
dbbee cc
bd c</w>
ecbe ebd
bf eebd
bc bb</w>
df bebc
bcc eecc
ec bbebf
ebc debc
bf eccc
bbd bbdc
ef eebc
ecbe dcc
dc ebdc
dbc ebb
ef fdc
edc dbd
dec ebd
bebe dbe
dc bbdd
bbee bcc
fbc bcc
dbc dbd
bebe ecc
bbbd bbf
dbb ac
a bcbc
bc dba
beee bbf
bbbc ff
ebc bcec
dec ded
ebec bec
ebe eebe
bf debe
a fbd
bcbe ed
dc decc
bbcc bcc
dd bbdd
eebbbb cc
eec debc
bd ecebb
bebe ebf
bebc bcc
fbc ff
bbec dee
ef bcee
ebec bbbb
dcdc dcdc
ee bbea
eef bbbe
bebc dd
bf da
bbd fcc
bf fdd
ebe dbbc
df ba
bbee ccc
bb ee</w>
eec beee
ebe eeebe
ecc eedc
ebb ecec
ff fee
ef fef
bec fcc
eef ebc
dc dbec
dddd cc
bcbe bbbc
bcf ebf
bec fed
bbbd fc
dec bdc
bfc eec
bebc df
ebb eeef
ebb bdbc
ebe bcbd
dd bdbd
bdbe fc
dcc a
ed bbbec
bcbc fc
bec bbed
ddc ef
bbbe ba
bbbb debb
bbee beee
bec fbd
ecc ecbc
dcc dee
dd fed
bbec ef
bebbf cc
bbee bbebb
bdc fbc
bcbe eec
bf beed
ebcc fc
bebc ccc
bbd fbe
dbe bef
ebb deec
a bbcc
bbbe dbd
fee bbbb
beee fc
ed eeed
bd ebbcc
eeee bbc
ded ebc
fec ef
ddc bbc
dc ecbe
dbc bbbc
ed beef
bec dbf
eec dfc
bf bcbf
edc fbc
dbc dec
bbec dbe
ed febe
bbbd bbbc
dd def
eebc fc
bcbe ecc
dc ecec
ebb bcbbc
ded bcc
ebe bcee
bef bef
dc ffc
ea fc
bbbe bbbbc
df efc
dc bced
ee dbbcc
dec bbd
bebd bbbb
dd fbe
bbee bbd
bbec a
ef bcbd
bbf dbd
bbed bbbb
ebe bbef
bebd bbc
ed beecc
ed edcc
bbbd ebc
bbbe bfc
ef bebf
ea bbbb
bcdf cc
bbee bbbc
bba bbbb
a bda
edc ebbc
dcc ebd
bbebe bbc
dd dbbc
ebcc ebc
ef dbbc
fbc eec
ba df
ecc ebec
fee df
dc bbbbc
bbbe bbbf
bf dbb
bdc fec
bcc becc
ebb cccc
bd dccc
ebb fdd
dc eeed
ebe fbf
bec eecc
fee bebe
bcbe bbd
beebd cc
eec fcc
ecc bebd
ebe bbdc
ecc ddc
dbf a
bbebb bbbc
bbc bccc
dc da
dbc bebe
ef bbebe
eebe edc
ebf bdc
fbc bbf
ebbc bbbc
dbe bbbd
ef beebb
ff edc
bbec bcc
bf ecbe
bbcc eec
bec fbe
bb ebac
ed dbdc
ed ecdc
ff eec
ebcc ebe
dbe bcbc
ebc bcbd
fbd df
ec ecccc
bbf ba
dd debe
fee bbbe
ed edbd
bcbe dee
bebe bebc
ecc debb
bcee fc
fec fc
ded dec
eebc bbbb
ee ecccc
bcc ba
dbe bbec
ed bba
ebb ffc
ebd dbf
bef bbd
beee ccc
edc bfc
ed dccc
dd dbbbb
bcc ebec
ebb fbbbb
bdbe bec
ff bebe
ec bbbbbbbb
dbe fbc
ded eec
dc bdbd
a ebbc
bd eba
df bcbc
fbe ebd
ebb febc
bbec bbd
fee bcc
fc dbec
ebf ebd
fec bcc
a ddc
bbbbc bbbc
ebc bccc
f bbebec
dee bbbc
ecbe bdc
bbbb dec
bbbb bbdd
dbd ebd
edc becc
ebf bbd
ecee bbc
ed eedd
dd eeee
fbe bfc
ff fcc
bef ebd
ef bcf
dc bcf
bcee bf
bc debec
ccc bf
fbe eec
dbe bfc
dc febb
bd bbecc
bd debf
ebe febb
ebf bbee
bc dbbcc
a ded
dec dcc
bcbbd cc
ebc dfc
bdc bbbc
ebb debd
ebc def
ebf eec
bd dbbbc
dc dbb
ebb eebbbb
bbc ddc
bebc ebd
ecc fbd
beee dd
bdc ded
a bbebb
eebe ebd
ebb bbebd
ba bba
dec bbf
ecf df
bbcc dd
dbd bcc
ecf eec
beec bf
ee dea
ecbc ccc
efc dee
edc fcc
eef dbe
bbbe fbc
bebc bbd
a da
ee debcc
df dbf
bcbe bbee
becc bec
dc ecbd
df ebbc
eec ea
bef bdc
bbf bbbf
fbd ef
a dbf
f eb</w>
eeec bbc
eebbd cc
bbf ebbc
bcbe dbc
ecc fee
ecbc fc
bcbc bf
bbbb edc
dc bebf
bcbc bcc
ecbe ef
cccccc ccc
ebcc ef
bebd dd
bcbe ebd
d ebb</w>
bbf fee
ff bbbc
ebf ed
dc bedd
bcbc dd
bd eeebe
bcee bec
fc beee
dcc edc
be f</w>
ecbe bbbe
a bbbf
dc eef
dee dbd
eebc ebc
ec dea
bebe bbebb
df ded
ff bfc
a efc
ba bec
ebec ebc
ba bbbe
dc eebe
eecc ccc
bebe bef
bbd ea
bbbbc bbbbc
bbd bcbd
ebf dbc
fcc bbc
bebe ebd
beec dd
df fdc
dbbc bbbb
bbf edc
be dbbbbc
fbbbe cc
fbd bf
ebf bbbc
becc eec
bef ecc
dc beebb
bc deecc
ef fed
bdc dcc
bbec eec
dee ddc
bbc bbdc
df bbcc
dee ff
bef eec
bbebb bec
ccc bec
ebcc eec
bbc bcbd
ed d</w>
debb dd
ac ea
ebb bdbe
ed fa
bf debc
bdc bfc
eef ecc
ebc eedc
bc ecccc
bbc fbe
bbf bbec
ed bebbbb
bcc beec
fc bbbf
ccc eec
bcf bbd
ed ecf
df fee
ebd fcc
bdc bebe
bcc ddc
ed bbebd
ebc eccc
bb ed</w>
ebb decc
bcf bbbe
bbbb ebec
edc beec
bec bedc
bcf dbc
ebcc dd
bcee dbe
ebc bbdc
ebc bbbbc
edc debb
ebb eeed
bbbb bbdc
bec ddc
bdc efc
ef bbdc
ebd fbd
dee bbec
bbf dec
becc bbc
ebb ecf
dbbbb bbc
a eeee
ed eebf
dc bbef
ebb edcc
bebe ff
ed bebec
fc fed
ec eac
fdbc cc
d bf</w>
ebb edbd
dee dec
ecc bbcc
eebe bbbc
ebc ebdc
bf bedc
ebe eecc
ebc dbbc
bcec bbc
ed dbbf
dc bcdc
bf bced
dc ecdc
bbee df
bbebb bbf
bd bbbdc
bdf df
bebe dbc
bef dbc
ebb dbcc
bbbc bbcc
ebd debe
bcc fbd
bebd bec
bbbc dbd
eca cc
bd ecdd
bbbb fee
ebe bcbe
ec dba
ed febc
ebd beee
ba dbe
bcbc bec
bf bbfc
bebe df
bbbb beec
ebb eebbc
bbbe bbbbbbbb
ecc fdc
bbed bec
eecc fc
bcbc ef
dee bebc
ecbc dd
efc bcc
ebcc bec
ed bbecc
eec def
ec debec
bbebb ef
bbc eebd
bbebb bbd
ebc beed
ed bea
ebb b</w>
eeee fee
ded ebe
ff ddc
bb ec</w>
bef dee
ebec fc
bbbb dbf
ebc eeec
eebe eec
bbee ebf
ba bbf
ecc ea
edc bbbe
bef bbbc
ec deccc
dbbc bbc
ecbe df
ebb bdcc
bf ecbd
ebec a
fbd bbc
eebe bbd
ebd ebcc
fc beed
dbe bbcc
ef febb
fc bccc
fec a
ba bbd
bdbd dd
ebb ecebb
bc dbecc
bbbd dbc
dbd ecc
fed ccc
ebf dee
ebbc dbc
da a
febf cc
ea df
dec ff
dbd bbbe
bf fbbc
ebb fa
dcc dbe
ecbe bbd
bbec bbbe
ebf beee
ebbc ecc
bebc bbbc
bbc def
bdc bbee
eebc dd
bbebb bebe
bfc bbd
fcc df
bebc dc
bbbbbbbb bbc
bcbc ebe
bbbbc bbbe
beebb ebe
fbe ba
bcee bbbb
ec bbebbc
bebc bbf
ed bfcc
bebc dbe
bcf dee
bdc bbbd
ec bbbfc
bbc debe
f be</w>
ebd bbcc
ebbc dee
fc deec
bd ebbebb
bbbf bbf
bbbf bbbe
ccc ebe
ebec bcc
ecbc bec
dbc edc
ecf ebe
dc eedd
bf ffc
ebc fdc
bd eeef
ebf edc
ef beebe
bbbf fc
bbbbbbbb cc
ed bcdd
bd efcc
bebc dee
bf eebe
ecc eeec
ed bebcc
ebd ea
dbc fbc
beee bcc
becc ef
bf bcebb
bbbd bcc
ebf bfc
bcf bdc
dbb ebdc
bccc cccc
ecc bedc
fbd fc
ed bcbbc
ebd ecbc
bbbd bebe
eeee bbf
becc ccc
dc bbebe
bcf bfc
efc ff
ba bcc
dbb bddd
fcc dd
ec dedcc
dcc ff
ebec dd
bcec bec
dcc dbc
ebc bcee
bbc ea
dbd bbf
eedf cc
f bbebcc
ddc eec
edc bbbc
bdbc bbbb
ded ded
ebe beef
edc bbee
fee fee
eebc ccc
dc ecee
dbb ecbe
dc fef
bdf bec
dcc bbbb
bbed df
def fc
bcbd dd
bcec dd
ebc febb
dec beec
ebd fed
bbc ebcc
bbbbbbbb bbbc
edc bebe
bef beee
bbbd dee
dbe ba
dec dbd
ebb eedd
bec beed
ebbc bebe
bbc fed
a fbe
ef da
ef beef
beec bbbb
ef dfc
ef beed
ecc dbf
dddd dd
eec ecbc
bbec bbf
bbebe bbbe
ebb ecdc
bcbe bdc
ebd ebec
bf eebf
bbc dbbc
eccc dd
eec bbed
bbc eeec
fbd bec
be debdc
ebf fbc
bcc ebcc
bcf bbbc
fc ecbc
bf febe
bcee ccc
eec eebd
bf bebbc
bcc bebd
ed dbbbe
bcec dee
eeebe ebe
bf bbebc
eec dbbc
bdf dbe
bcbc bbbc
ed bbbcc
ed debf
ecc bccc
df bbec
dc dccc
bbee ff
dba cc
ba ff
bcc dbf
eec ebec
bebc bebe
be be</w>
ecbbd cc
ef bbbbc
df ac
ee bb</w>
ed eced
eef bdc
fc eecc
ecc bbbd
ded bbbb
dbe beec
bf cccc
dbd bbbd
ddc ebe
bbd eebd
bcc fed
ebd debc
bc debcc
bf dbec
dbd ff
fec dec
bcbe ff
bbee dbc
ebc bebf
bdbe a
bbf bbcc
bf ebdc
dc bcbf
bbd eecc
bdf bbbb
dc dedc
dd bbebb
ebbc bdc
fc dfc
ed bcfc
fbe dee
eeebb bbbb
ecf bdc
bdbe bbbe
ef eccc
fec dee
fc bcbd
beee bec
dd ac
becc ebc
ec dbbcc
be eb</w>
ed bcebc
bbbc ebbc
bebbee cc
bef ebb
be dac
efc ebc
bbf bcbc
bbc bcee
ddc bec
eebc a
bebbbc cc
dc edcc
bfc dbc
fc bcec
bbbe dec
bbdd bbbb
eef dee
ebd eebd
bbbe edc
fbc dee
debb ebe
fbc dbe
ebd bbed
dbf df
fee bec
bbf bbebb
eebe dbc
bbec bbec
ebf ebb
ecf bbbb
eef dbc
eebe ba
bf bba
dc debd
dcc bdc
bbbf bec
dc dbcc
efc dec
ebbc bbee
edc fed
ecbbbb cc
ddc ecc
ebf bebc
efc dbe
beff cc
bbc beed
dd dfc
ea dbe
eef ba
bbc ecbc
becc fc
ed bcef
ed ebfc
bfc bbbc
bdbe dbe
bc bbefc
efc eec
ebb bea
bcc bbed
bbd fed
bbc bebf
bbec bebe
bbebe ebe
bcee ebc
df bbbd
bcee a
bbebb a
dbb ecbd
bbbf a
ff dec
ecbe eec
bbc bcec
bf bdbd
fc fbe
bdc bebc
ebb bcdd
bf bbdd
edc eebd
dc dbbbb
ccc ebc
bbc eecc
ebe ac
dc b</w>
eec eedc
ebb dbbbe
dd eebd
ebb bebec
ddc ddc
fc debc
dbf bec
dbc ded
ebb bdebb
ecc debc
bbee ebd
bbbd ebd
dd bcbd
ea ba
edc fee
debb bec
bbbb bcbd
bbd ebcc
ebb bebbd
dd bbdc
beec dec
ebb beebc
edc ebcc
ecc beee
fbd a
fc bbebb
dbb bdbc
f deccc
dc eebf
eec decc
bc dea
efc ebe
bf bdcc
ef eecc
bfc ebd
fc bedc
bbf dbf
bbbc bef
bdf ccc
efc bbbb
bbed ebe
ebb ebfc
bbc fbf
ebbc bbbd
eef bbd
edc ebec
def ccc
bcee df
ba bca
bf eeec
bd dbbee
eebc ef
fee dbe
ed c</w>
beec a
bbc eeee
bf bbbec
dcc cccc
bbbf ef
bbed a
bf beebe
ddc bcc
fec dbe
bcee ebe
ebb bcebe
dbd bebe
ecc ba
bc bbebec
ecf ebd
ed bebbd
ecc edcc
dbc bcbc
dd eccc
dee bebe
bbed dbe
ebb befc
bbc beebb
bbec ebd
bbcc a
fec ff
ebbc ebbc
ee bbefc
bd ebecc
fbc bbd
dbd dec
beec ef
bcc debb
bbbd eec
bec ecbc
ecc ebdc
ebe fef
fc fbf
fcc a
ebb bded
be bbac
ebe eebf
bbbc bfc
ed eebbc
ee debec
ed bbeec
ded bdc
dc eced
ebe beed
fc ea
ebcc bbbb
bbc bbebe
bbd eeec
fee eeee
dd b</w>
fdc df
fbef cc
f debdc
dcc dec
fbc bfc
bec debc
bf bebbbb
bba a
edc ddc
eebc eec
ff dbf
dbb bdbbbb
ed fbec
dd eeec
dbc ebf
dc dbbd
fcc ebc
dbc bbee
bef bfc
bedbc cc
ebe eebd
ba bbbc
bf beef
bbebe bebe
fc ac
bbbe debb
bbc bbef
ecbe bbf
dbc bebc
eebe dbe
ccc df
bcbc ebc
dbd ded
eebbf cc
bcec df
bbbe beebb
f dbbbbc
bb ebb</w>
bbd b</w>
edc bebd
fcc ff
ebb eba
ecbc ebc
ebbc ff
bcbe bbec
bbed dee
ebb bdbf
eec fdc
ebb bdf
bbf beee
ebb ecbf
bdc bef
bbebb bbee
bbebb ebc
bec def
bbbc ecc
eebc df
ed fbcc
ebe febe
dbf bbbb
dbc dcc
ddc df
eebe df
bcbc a
bebe eeee
eebe ea
f bd</w>
ed e</w>
fbebe cc
ecee dbe
bbec dec
ebe bebbbb
ccc bbbb
ecbe dbd
eec bcbd
bebc ecc
ec ebdcc
ebe fdc
bbbe bebbbb
beec dee
ebec df
ebe debe
bbd beed
dc bdcc
dd da
ebbee bbee
bcbe dec
dbc bef
bbd fbf
fbe bbcc
bf ecf
ecbe ddc
bebe ba
eec deec
ccc a
dbe ded
bbdc bbbb
bd bac
becc a
eec beed
bebc ff
ecc decc
bbd beebb
ebe bedc
dd beed
eebc bcc
ebf ba
ebd def
ed fecc
ebc fbf
ec bbba
ebb bbeec
bbbe bebd
bfc dec
bbd eeee
bec bbbf
bbcc bbcc
ebc ecbd
fbe edc
dee edc
bdbe bcc
ebc cccc
dbc bbbd
bbee bdc
ebd bbebb
bcbe edc
dd ecbc
bbbc fbc
dbe beee
ded dbd
fec eec
bbf fbd
ef bced
bf eeebb
dd debc
bebc dec
bbbe bbed
bebe edc
fc dbbc
bfc ecc
bbc dbbbb
f bc</w>
eef ebd
bcee eec
ebe debc
bdf bcc
ebb ebbcc
ebc eeee
ebb ecee
dd fdd
bebd df
bdc fee
ff ba
ed bcebe
bcee bcc
dd bccc
d ef</w>
bbbbbbbbbbbbbbbb bbbbbbbb
dd fbf
eccc ecc
bcee dee
bbf fcc
fbe dec
eecc eec
ebbc dec
dd dbb
ac da
ef dbec
dbd bbbc
ecec bbc
bf ecbf
ef cccc
bebe eec
bfc bdc
eebe bbebb
ebb bdee
bbec dc
debe bbc
ebbc bebc
eebc ecc
eebc bbf
fee ebf
bcbcbcbc bcbcbcbc
bc ffcc
eef eec
bcbc dee
bbdc bbc
bdbe bbd
ebc bced
ea ccc
def dc
bbee eec
bef ba
fbc ecc
bbee dee
eecc bec
bbbf ebe
ebc bbebe
beec bcc
bbbb fbd
ebd dbbc
ed ecbf
dbc bfc
eeec bec
dbe debb
ebc beebb
ebcc a
ef fdd
eebc ebe
def a
fed bec
ebbc edc
bbbb ded
ef febe
ea ff
beee ebf
bcf dbd
be bd</w>
bbee bef
ecbe bbbc
ebb eced
ef debe
ddc a
bbbb fbe
ef ebdc
fbbee cc
bebe bbcc
ecbe dee
eeee ebf
bbbe bbebe
bbbf ff
fc bbdc
bbbd bdc
ec debdc
bbec bbbc
bebd a
ef debc
ac bbc
fcc bcc
ebb bebbf
bdbc bbc
dd dbbd
ddc dbe
ebe bcebb
ba dee
bcbe ebf
ebe eccc
bec beebb
bbbe fee
bcbc df
ded ecc
ebb dbbf
dcc bbd
fbc fbc
bf bcdc
ddc dee
ef eef
ef eebd
bdbe ebc
bfc bbbe
dbf dbe
bcf bebe
be bc</w>
bd dbfc
ed beebd
fc fdc
bef bebc
bbee ecc
fec bbbb
ff fbd
ccc dee
ebb bebbee
ba bea
fec ebc
bec dbec
bcebd cc
ddc ebc
ee bbebcc
fdcc cc
ebe fed
bcc eebd
bbcc bbbc
debb ebc
ebd bedc
ebd dfc
eec da
bdc ebec
fbc bbbe
dc dbdc
ed fdf
bbd bebf
ee ebdcc
beee ff
bf fa
ebe bced
bbec dbc
bcf bbee
ed ebbcc
ba ccc
debb a
bbd bcec
dbbd bbbb
ecf dbe
ee bbebec
eccc fc
debb fc
dbf ccc
ef bcbe
eec bccc
beec dbe
ebcc bcc
bcbbf cc
ecee bcc
bbebb bbbbbbbb
bebbc bbbb
bdc ebbc
ebb bddd
bbed bf
bbd febb
bfc fbc
bec bbbbc
ef eebf
ef eeebe
bbd ecbc
fcc bf
bcf dec
beec fc
eeec a
debb df
dc ecbf
f bbac
dd bbbf
ea bec
dbb eccc
fbbbc cc
dd bcee
bbc bbdd
eecc ecc
ed edbf
ebe eef
dbe ebbc
ebb bcebc
ebe dfc
bbcc df
dc bded
bbf fec
bef dbd
ebb dedc
bbbb bbbec
fbc dec
eecc ebc
debb bbbe
bbd bbbbbbbb
ecec df
bbee bbec
ee f</w>
bebf bbc
bbd bbebe
ebbc ebf
efc ded
dbc fee
ccc ff
f ee</w>
beec ebc
bebd ebc
ebb bcef
ba ebc
ea dee
eec debe
bec eebd
bbc bbbbbbbb
eec bbdc
becc edc
bda cc
bcc bbebb
bebd fc
dec bebc
a bdbf
bbc bedc
ecf bbf
bbbc beee
bebe bcbc
eeee bef
bbcc ebd
ccc dcc
ebe def
ecee ecc
dd bcec
ebbbbbb cc
bdbbbb cc
dd bddd
beebf cc
bbec bebc
dbe fee
fec dbc
eebc bf
ea bcc
bec deec
edc ecbc
bdf bbf
bbbb bbbcc
bbbb bcbe
bbed ebc
bec bcec
bbee bebc
eebc ebd
bccc bcc
dd decc
bfc ebf
fbc ebd
edc bef
ded beec
fbe bbebb
edc debc
dec bbbe
becc ecc
ebb fbec
bec bcbd
ed ecebb
ddc dcc
bbcc dbe
eef bbbc
ebe bba
fbe dcc
ebb bcfc
efc dbc
dbf ff
ecf dbc
eecc bbc
ef bedc
ef ecbd
dbd dcc
fcc ecc
bd bbccc
bcbbbc cc
f ed</w>
fbc dbc
bfc bfc
ed bedbe
beee ecc
bbbb bbebc
a eba
beee fee
ed defc
dc bbfc
bcc eeec
ed eddc
eec bbebb
beebb bbbe
dbe bbebb
bbf dcc
a fbf
eec dbec
bccc fc
ded dcc
ebcc bf
bbc bcbe
eeee ff
bbbb bdbd
ebb bbecc
ed eeebe
ebcc ecc
dc bcdd
bbbb eebc
bdc eecc
dd bedc
bbd bedc
bbcc bbbe
ebcc ebd
bdf dbc
dd d</w>
dc eeebb
bbbc dec
dee bef
dbf ebe
beee ba
dc beebe
becc ebe
ddc dbd
dc beef
def df
a fed
ecbe dec
ed feec
ed eba
dc edbd
bbee eeee
bbcc bbd
fee bdc
ecbc bcc
edc eedc
beebb bbc
ed dbbee
bec ea
ac df
bec dbbc
bbbb bccc
ebec ef
bd bbedc
beee ebc
dc bcebb
ebec bf
dc bbebc
dbe ddc
dbe bebd
edc eccc
dee ebf
bdbe bbf
beec eec
ebb bfcc
dd cccc
bec dfc
bcc ffc
bbbb dcc
bcf dcc
bbbb bebf
beed df
bdbe df
eef ea
bb bf</w>
bbbb fbf
be bbeccc
edc fbd
dbe dbf
beebb a
ebe bebbc
eedbc cc
bebe bbbd
bf dbbd
bdc bbec
be deccc
bbbbc bcc
bef dec
bbbf bbbc
bd defc
bec bccc
bbed ef
def bbc
bbba cc
dbb bdcc
bd debbc
dd dbec
bebe bbec
bbbb dbbc
eecc a
ecee fc
eec eeec
bbee ba
fbe bbbd
ebec ebe
fed bbc
efc ecc
bcbbbe cc
bdc ddc
ebbc fbc
dd deec
fec ded
ef eeef
bec bbdc
dbe fcc
ebc ac
bbebb bbbd
ff bcbc
bdc fbd
dee bcbc
bcbe bfc
dfc fc
ebb bdbbbb
ebc dbec
ed fbbbb
eebc bedf
edc bbec
eec dedc
bec debe
bdc beec
bd bbebf
ded bbec
eec eccc
bebd bf
bd dba
bbbbc bbd
ebb bebcc
beee bef
f ec</w>
ddc dbc
debb ef
bcee ecc
eec ebdc
ed efcc
bbc debc
bec eeec
fbe bbec
bbc febb
bbf bbef
ebcc df
ebc bedd
ebf ebbc
dbbbb bbbd
ebcc edc
bbbc ba
bcf bef
dbe becc
dbf bcc
ebf dec
bd bb</w>
ed ecee
ebb bddc
dd eedc
dbd bdbd
bdc eebc
fed a
dbb ecec
ebc deec
bf ecec
ef bcbf
bdf ecc
bbd bbef
cccccccc cc
fee bef
bec eedc
dbb cccc
edc bcbc
ecbc ecc
ebb bdec
bbd bccc
ff bbec
ebc bbdd
ec ffcc
beec bebc
bbbe dcc
fbe bbbf
dbbbb bbbbbbbb
bf deec
bbf efc
bbcc ecc
bdbe ebd
dee ebbc
bebe ebbc
dbe bbed
eef dcc
bdf ebd
eebbbe cc
fbe dbd
bbbb becc
ebe bcf
dec bef
beee dbc
eebd bbc
bc bbea
bf dbcc
ed deecc
dbb bded
bdbe bbbc
bbbb bbef
dc fbbc
bcee ef
bbd fdc
ebe eeef
ebb fbcc
ea bbbe
bbbd ccc
ee deccc
bbee ebbc
ded ff
edc dbf
a debb
edc eeec
dc ecf
ebe bbebc
bebe beebb
dd ebdc
ebd bbdc
dee fbc
a bbed
dd dbcc
dbc bbec
fbe ebbc
bcc bbbf
d a</w>
fc eeec
ded bbd
ebb dbdc
bfc bebc
eec bcec
bebd ef
dd bbbbc
bfc bef
bdbe ecc
ebe ebdc
dee ba
ded bbf
ebec bbbe
ecbe bbee
beee bbbc
ebd bbbf
bcc def
bdc fcc
bf bcef
ddc dec
bebbbb bbc
febb bbbb
ed ecdd
bbbd ff
bcbe dbd
ed debbc
fdc ef
bbcc bbf
dc ecdd
bebe fee
fbe ea
ed ecbbc
be db</w>
bbed fc
ebc decc
ecee a
ebe bbdd
bdc bebd
bbbe beec
fbc bbbc
ded bebc
eebc bbd
be bbebdc
ebb fecc
fbd ccc
dfc df
ebf fcc
edc bedc
ecbc bbbb
bbebb fc
eebc dbe
ebb bcbec
ebb bbebf
ded ebd
ed dbbbc
efc bbf
eec bedd
bdc dbf
fdbd cc
bcec dbe
ea bbf
dbc fec
ebb fbbd
fbd ff
ecc bbed
ebc debd
ecc ecdc
dc febc
bec ebdc
ebbc dbd
bcbc bbf
debb dbe
eebd dd
bf eeebe
ebf dbd
dbb edbd
ee dac
ac dd
ebbc bbec
ebec ebd
ebb bbbdc
bbbb fec
fbf bbc
bbee bbbd
bcec fc
ef eeebb
bbbe becc
ecee ebc
ebe dbbbb
ebf dcc
bbbbc bec
ed beeec
debb ccc
f db</w>
fbc bebe
dee bfc
bcee bbf
ebec dbe
dc c</w>
ebe bbbec
ebe bdbd
df ea
bccc bbc
debb bbf
bcbc dbe
edc dfc
ecc beed
bbebb bcc
fc debe
bc dbbbbc
bcbc eec
df beee
edc bbbd
eebe bbebe
bebbbb bbbe
bbef bbc
ed bcbbbb
ec f</w>
ed dbfc
dc bddd
ba bdc
ecee dcc
ee bbac
ef fa
ba dbc
dc febe
bcf bebc
ecec bcc
bbbf dd
bcbc bbbe
ebf bbbd
dc bdee
ebe dbec
ebb ecbbc
ebb eea
ff bbcc
ebe cccc
bf befc
ef fbbc
ebc bcdc
efc bdc
ac fc
bfc dbd
bbbb bcbbc
bbee fee
ebec dbc
df becc
ee debdc
ed edbc
ef bba
bcbe dcc
bcbd bbc
ecc dfc
bc dbbbd
fec bdc
ebe eeec
bc bbebcc
dec edc
bc f</w>
eec fbe
ef eeec
ebe ecbd
fbebc cc
ebec dee
bd ebccc
bbbb efc
bbcc bdc
eeebe eeee
bcf ebbc
ebd fdc
bdf ebf
bdbe ccc
dbbbb bbbe
bdf bbd
bef ebbc
eebe bbbd
ebb bfbf
bdf dee
ecc bcec
bbdc dd
ebec bbd
fbc bdc
bebd dbe
bf eedc
bf edcc
beee bbebb
dcc dbd
bbf beec
bcbbbb bbc
a beec
dbbc dd
bef bbec
bebc dbc
ecbe ff
ed eeef
bcc bbbbc
fbf fc
bebe bfc
beee dbe
dec bbec
dc bebbc
bdbe eec
ebb febd
bbbb fcc
edc decc
ebd eeec
bdbc dd
bf bbbcc
fec bbf
eebc dbc
eeebb a
bef dcc
dbf ebc
edc ea
bcbc bebc
ebbee bbbe
ebd ebdc
bbbc bbbf
debb bbd
becc bcc
bdf eec
bbbd bbebb
ebe bbfc
ebd eedc
beed dd
ddc bbbb
bbbbbbbbbbbbbbbb bbbbbbbbbbbbbbbb
fc eccc
ec befcc
ebf eeee
ccc dbe
beed bbc
ef bbebc
ef bbdd
bbbbbbbb bbbbc
ecbc df
bcbe bbebb
bdbbd cc
ebb fbbbe
ebe da
ebf bbcc
ec bbefc
ed eefc
dc bcef
beee bbd
bf bfcc
ebc bbef
dc dddd
bf ecdc
ef ffc
bbbb bcebb
bbec ff
dbf bbf
eebe ebbc
dbb bdee
eebc bbbe
bf bcbbc
bebe dee
fbc fec
ebd febb
eebef cc
bbc fdc
dbbbb bbd
ed beccc
ebb fbbf
dc bddc
eec bbbf
bbbd bebc
bbec ecc
fee dbc
bf fbbbb
bbbb bba
bbbb febb
bbf bbed
ed bedf
bc dac
bbbb ea
bcbe bbcc
ebe bcbf
fc eebd
a ebec
bf edbd
ddc ff
ee dbbbd
ffc df
bbbb eeee
dbf ecc
eecc edc
ecee df
dec bfc
fc da
bcf efc
bcc fdc
dec bbbc
bf bdbf
ed fbbd
bcc ea
bbd bcee
fbd eec
ba bebe
beec dbc
eebe dcc
bef bbebb
ecee dbc
ebb bedbe
bdc debb
dc bdbc
bbbb bebbc
ebc da
dbb d</w>
bbbbbbbb bbbe
fbc bebc
dbe fec
eebc edc
ec bbfcc
ebb edbc
ebf bcbc
eecc ef
bbdc bec
bbbbc bbf
ebd bcbd
fdd dd
bbbd dbbbb
dec bebe
bebc edc
bbed dbc
bcf bbec
bcdbc cc
ed eea
bc bc</w>
bebd eec
dbd ddc
bbc ac
dcc bbf
ebb dbbbc
dee bbcc
bdc becc
ebe bcdc
bbbf df
dee beec
fc bbbbc
dcc ded
dee bbbd
bf febc
dee dbf
a bebd
ebb bebbbc
fbd ebc
bdc fed
ecbc ef
bf bdbc
beed bec
ebd eccc
ebbc bfc
bedcc cc
a fdc
dbb bdbf
bcbc bbd
ecf bbd
dbb bdebb
df fbe
ebe bdcc
dd febb
fcc fec
fc eedc
eef bfc
a eebc
ff fec
ff beee
ecbe ebf
ebec eec
fcc edc
bcc eeee
fee ebc
ecbc eec
bccc bccc
bdc beee
fc beebb
bba bbc
dbd edc
dbbbb bbbc
ecc ecbd
bced dd
ebc ecdc
ff bebc
ef bbfc
eedcc cc
bbf fbf
ff fbf
ecec bec
bbbf bcc
bf fbbd
debb eec
efc ebd
ebb bbccc
ecbc ebe
ebb bebdc
dcc fec
ed febd
bdc bcbc
a bbbbc
dbe fbd
dfc dd
bef bcbc
bdc ba
ef bcebb
bcc bedc
ed bebbbe
dc fa
ccc edc
bbbf bbd
dbb ecbf
bbbc beec
bbbe eeee
ebec bbf
ebec ecc
ed debcc
dbc ebbc
ac ef
da dd
fc ebdc
bd bbba
bbee beebb
ebd beed
fbc ebf
fdc dd
ff efc
dbd bebc
bbdd bbc
dc ebfc
debb bcc
bddd dd
dc befc
eeebb ebe
df fbf
bef edc
ecc fdd
a becc
dbb bddc
bbbf ebc
bcee bbbe
ba ebf
eecc dd
bcee dbc
ef eebe
bcbe bbbd
bbdd dbd
bbbb ebcc
ba bbee
ebb eddc
ebb bdbbc
def dbe
ecec dd
bebc ebbc
def bcc
bbbbc ebe
beee df
bbbec bbc
deec df
ef bdbd
f bbebdc
beec ded
bc debdc
bdc eebd
ebec bbbc
bcbd bbbb
dc fecc
ebd bcec
bbbf bebe
bef eeee
ebdc bbc
ef bdcc
ecc eedd
ee dbbbbc
a fa
febb bbc
ed eddd
ecbc bf
bfc bbec
eebe bbcc
beebb bebe
bbed eec
ba bbbd
fc fef
ebec dec
ddc ebd
debe bbbb
bcf dbf
fc eeee
eef bebc
efc bbd
efc bebc
beebe ebe
bdbe bbee
bbbc bbbbbbbb
bbed bbd
febb a
bdbe dee
fcc ebe
bbdc ebe
dbd ebf
bbcc ff
bbf bbbbc
fbe debb
eccc ebc
ecf ebf
bd eac
ed beedc
bf eeef
dbc beee
dbd fbc
fee bbd
fbd bbbb
bf bedd
fee ecc
eebd bec
bebd bbbe
ecbc a
bbef bbbb
ecec ebc
bebe fbc
dcc fbc
fc bebf
ed ebecc
eebd a
bbf ea
bfc ded
bdee bec
bbbec bbbb
bd deecc
bdf bbbe
ebd bdbd
debe dd
eeec df
eebd df
bbebc bbbb
ebcc dbe
fdd df
bc eeeecc
bcc bcbd
bebd ebe
ed bbedc
bbcc dee
ecf bfc
fed dc
ac bec
fee ba
a def
bebf bbbb
dbbd bbc
ee ffcc
bc befcc
bbf fbe
bbee fbc
ddc ded
eebe bbbf
bdee fc
fed bcc
ecdbc cc
eeec dd
bcebb bbbb
bbf debb
bbbbc bbbd
eebc dc
bdbe bdc
bbee bbebe
bbcc dbc
d ebe</w>
bbebb bebc
bbbe dbf
dbe def
bccc ecc
bf fdf
ef deec
bbc dfc
beee dc
ecf bbbc
ff ded
ebf fec
beee bdc
bccc dd
eebd ebc
debc df
eccc eec
ecc ac
ebbc bef
ecbc dee
bebc ded
bebd bbd
ebd fbe
eebbee cc
bcec dec
eebc dec
ddc bdc
ecbc dbe
ff ea
bebe bbebe
dbd bef
eecc bcc
bdee a
ebf bbec
bfc beec
ccc dec
bdbc fc
bf ebfc
bf debd
bbef a
debb bbbc
ba ea
ebc bcbe
bbbf dbe
debc bec
ecf bbbe
ecf dec
ec dac
bbbd bbec
eec beebb
eeec bcc
ebbee beee
dbc fcc
eebd fc
bcbc ecc
df ebcc
fbd dbe
ef bcdc
ebdc fc
bebd dee
becc ebd
bebc bbee
fdc bec
ebb ecdd
bbbc ded
dbd bbee
fdc fc
ebb beebd
ebc bcf
fbd bcc
eccc bbc
bf eeed
bbed bcc
ecbd dd
ed bebdc
eccc bcc
bbebb dd
bbd ac
bbbcc bbc
becc dd
bedc bec
eec bbbbc
ebb feec
eeee bcc
df fed
ff ac
bbebb dbe
da bca
bdf edc
bef dbf
ebc bdbd
bebc bdc
ccc dbc
ebec bdc
bdf bdc
ecc bedd
eef dbd
fbf ef
be bbb</w>
bef ea
ecc def
ecbc bbf
eebc bdc
bdf dbd
ed dbecc
bbbc edc
eecc bbbb
dee beee
beec bbd
a bcbd
dbb ecebb
ebc eedd
bdbc ebe
ebbc bcbc
ebdc ebe
ebd deec
a bccc
ba eec
dc bba
bc ebfcc
bec bebf
ed eeebc
bbef dd
bf bded
eeee beebe
bd dbbcc
ebbee bebe
bf dbbf
ebc ffc
bbc bdbd
bbed bbbe
bbdc fc
edc def
bbbd ebf
ebcc bdc
bbbb b</w>
ebc bcebb
ecc edbd
eebe bbec
bf bcfc
ed bbbdc
dbf dee
ebc ecec
ebd bebf
ed eebcc
bcbebe cc
fec dcc
ecbe bfc
dc eddc
ebd bbdd
bebc bfc
ff ebbc
fbc bef
eef dec
bbf bebd
fcc dec
bbbc bbed
ec dcccc
ebc eeed
eeee ba
becc df
bbc bbebc
bbebe bbee
bcbe ebbc
ecf dee
ecf dcc
dbbc bec
fee dcc
eef ebbc
bbbc bebd
dc fbec
ebf fbd
fc bcf
dc bbbec
fed ef
ebc fdd
ebc eebf
ebd bccc
ebf ea
eccc edc
fec ecc
dfc bbc
bcc bcee
beec ebe
eebe bfc
ba ecc
bebbc bbc
ded bbbe
ccc bdc
bbdc ef
dc d</w>
dd ffc
bdbc bec
dbb eced
ddc bbd
bbbb fbbbb
bbbc fee
ec bb</w>
fec bbd
bbec bbee
bbbbbbbb bbbd
bbebb bbbbc
ebd eeee
bcbc ff
fc bced
bef bbbd
def bec
fc bcee
bcc bcec
dd bedd
eebc dee
fbf ccc
bbbb ebbbbbb
bbec bdc
ebc bbfc
bcc beed
fbf ff
df debb
bbbe ea
f dd</w>
ebb efcc
ebd bbbbc
dbbc ef
dd edcc
bbee bfc
fbd dee
ebd decc
bbee bbcc
bdbc ef
ebd da
ee be</w>
ebc bebbc
bbee dec
fbd ebe
bf decc
ebb fdf
bbee dbd
bdee bbbb
bdbe dbc
fc febb
ecc eddc
ebcc ff
eef edc
df bebd
bcc fbe
efc bfc
fc bbfc
df bcec
fa a
ecc febb
eec bebf
fba cc
efc fec
ec ebfcc
dbbc ebe
bf bebec
bcc eedc
bdc bbcc
ecc debe
bcbc dbc
fbf a
efc bbbc
ed fedc
dbe bccc
ecee bbbb
bf bcbbbb
bdf dec
ff eeee
fbc edc
eeec bbbb
ee eb</w>
bdec bec
fec fec
fdc eec
bbc dbec
ecc ecec
bdbd bbbb
bbec ded
eccc bec
dc bcbbc
dd bced
ebec ff
eebc ff
df bccc
dc bdbf
dc beebc
dbf bbd
dc efcc
bd bbebbc
bbf ded
bbed ccc
dbf ba
ec bbebec
ac dee
fc bcbf
f ebac
ecbc ebd
ebf bbbf
ebdc ebc
bebe bbbbc
ecbe ebbc
fed dee
bdf dcc
bdf bfc
bf fbec
ebd dbbbb
ed fdbe
bdc bbed
efc dbd
ef dbb
bbebc bbc
ebb dccc
beec bbbc
beec bbbe
ed bac
bebe ea
ecc bcbd
debc eec
ebb edbf
df def
ebd dbec
beec ff
efc dcc
bbbcc bbbb
bf bbebd
eeee eeebe
fc decc
fec ebe
ecee dee
ecccc ccc
ecbc dec
ebc eebe
bd debec
bf fbcc
bcc bbdc
bbc bced
bbc bcbf
ef bebbc
ebd ac
d ebd</w>
bbd bebbbb
bcee efc
ecc bbdc
fbe dbf
fed dec
bcbe ba
ebcc dee
bbed bbf
bf bbeec
bcc fbf
eebc bbbc
ed bbccc
ebb ebecc
eec febb
bbbe bebf
dc bfcc
ebc dedc
bcee dec
ebe fdd
bbcc edc
dbc ddc
ebbc ded
bebd bbf
bbc bbfc
bb a</w>
ebdc a
ebf bbebb
ed ecfc
bbcc bebe
ebdc dd
bbbf ccc
eec debd
bbc bebbc
ebcc bbbe
dc feec
dbc debb
bebc bcbc
beee beebb
dbb ebfc
bcc ecbc
edc ba
dbb bdbe
ebcc bbd
bf bcebc
dee fcc
fbc ded
bcbe dbf
bebe becc
bcf bbbd
ed bedbc
dc bdec
bbbe ded
eecc df
bf beebc
ebb bedf
dee ded
d ebc</w>
bebc ebf
dc ddcc
bec bedd
bec fbf
bbbe ebec
bdee dbe
ee bc</w>
dbc fbd
bbbb bdbbbb
ed eebbbb
edc beee
bebf a
bbbbc dd
bbc bbbec
fc bbef
ee bd</w>
bebc bbec
eeee dd
dbc beec
beed a
bc deccc
ebb bbebbc
dec becc
ed ecebc
dcc fcc
ebbc bbebb
ebe bea
fc ffc
dbc ba
ecc dedc
ed ebccc
eebe dbd
dcc ebf
dbbbb dd
ed eeecc
dc bbbcc
eec ac
fec bfc
bbc eedc
bebe bebd
bebc bbbd
acc a
dbb ecee
dbe bcbd
bcee bdc
bbebe bbf
ecbe bbcc
fef a
eebbbc cc
bc bd</w>
ea bba
ee bbebdc
ff bbbd
dbc efc
bf ecee
bebe bbbf
ebcc dec
dc e</w>
bbee bbbf
bbbe fbd
bcf ba
f dedcc
ebc edcc
dee becc
ebc bbebc
bcee bbd
f bf</w>
bef bbcc
ebd fbf
ded ddc
eec eeee
bcbd ef
bebe dec
bced dee
dbb bdbbc
bf eba
dbb c</w>
fed fc
bcbd df
eeebe beee
bdee ccc
ef dbcc
bbd eeebb
bef efc
ecc deec
dbc eebc
bbec dbd
bfc bcbc
a bcec
dbbc fc
bebf fc
bbec beec
bced df
ebbebb bbbb
ebb eddd
dbb ecf
bbee edc
bedc eec
bd dbecc
bf b</w>
bc be</w>
ebb dbbee
bbd eedc
dbb dddd
f de</w>
dbf eec
ccc bccc
fcc fbc
becc bbbb
febb ebe
bcc debe
dbe eebc
bbdc a
ebf efc
ebc dbbbb
bec decc
dbe bcec
bdbe edc
dc eddd
dec fbc
bfc dcc
ed dfcc
bbc eeebb
ed fccc
bbebe bbbc
dbbd bbd
bdbe ff
fea cc
bc bbac
bbef ebe
bfc ebbc
dbc bbcc
fcc bbf
be ed</w>
dd debd
bbef ef
dee bbebb
ecc eeee
bdf bbbc
ebcc bbf
dbc bbed
bbea cc
dec ebf
dec fec
edc fdc
beec bbf
bc dbbdd
bbbe fbe
bcee bbee
eebf a
bdbc bbd
bbec bbbd
bc eb</w>
dbbc bbd
ed eebec
edc ebdc
bbbb eeebb
bf bcebe
fbc bcbc
ecbc bbd
be ee</w>
debe ccc
dbe ea
bbc bcebb
bebe dbd
eebe dee
bcee bbbc
bbbe fec
dbf ebd
bbc eeed
bbbe bccc
bf eced
bbebe a
bbbbc a
ebb ecbbbb
bdc eeec
bbdd bbd
ebb debf
bcc eccc
df bbed
bebe beec
ed dea
ebc edbd
dec ebbc
bbdc eec
bbbbc ef
fed ff
df bbbf
ebb fdbe
ebd beebb
ecec fc
ba dbd
ec bbbecc
bec fdc
fee bbbc
f bbeccc
bec febb
bbec ebf
bedbd cc
bc dbbebb
dd dccc
bf ecebb
bf eebbc
df fdd
bcc dfc
dbfc a
ebb bebbebb
dbc bebd
dbb ebbbbbb
bcbd fc
bf eedd
ed debec
bbf bebf
eef bbebb
bd dfcc
bc dcccc
fec bebc
eba a
eebd ecc
bbbbc bbbbbbbb
ec bbebcc
bec bbebe
da fc
dbc dbf
beee beebe
bcf bbcc
efc fbc
df ecbc
df eecc
bbc deec
bcec ded
efc bef
bbec bfc
bd dbbbd
ebc fef
ebe fbbc
bbdd a
bbbb bbfc
ebec dc
fed dbe
bf bdee
eef bbcc
bcec eec
ebc fbbc
ebc bbbec
df eccc
ebb ecebc
dcc bbbe
ddc edc
ebb e</w>
bf fbbf
dee bbed
bef bbbf
fcc fcc
ebb eefc
bebd bebc
bdbe bbbd
fdc ff
dbb ebbebb
ebc ecbe
ebc bcbf
bbc bcbbc
dbd debb
ecc eeed
bdc def
eebd bbbb
bebd ebd
bdbc ccc
bbc bcf
beebb ef
ecee bec
fef ef
ecc ffc
eebd eec
bbbe eebc
dd ecbd
bbec ebbc
fdc a
bcec ebe
ed dba
dd bebf
ebb ecbec
ea bbee
bcec bcc
beee bbebe
ed ecbec
bfc bbee
eef bbbd
ebb beff
bbbf bbbf
df ebec
dbb ecdc
ebcc dbc
febb ef
ebf dbf
ebb bbba
ebbee bbf
fbf bbbb
dec debb
bbbe dfc
bd dea
be ec</w>
ebe bebbbe
fdbf cc
bfc fee
dec bcbc
bf bea
bbc bebbbb
bfc bebe
beec ebd
bbef bbf
ecbc dc
dd beebb
df bcbd
bcbe bbed
ac bcc
fef ff
bbbc debb
eecc ebd
ed ebbebb
ebe ecbe
debe a
deec bec
bbbd ba
debe bec
ebb ecebe
fcc ebd
bccc eec
edc bbcc
be ebac
bbbc dcc
bdbc a
bbec bef
fbe efc
eebc bebc
bdbc eec
bcbc ebd
bbed efc
bbd bbfc
bbec fbc
debc ef
be bbbbbbbbbbbb
ebb bca
beebe bbbb
ed bebbf
bbd ebdc
dbe efc
ebc febc
bcbe ded
ee dbbdd
ebc dbcc
dbb e</w>
fbe ded
dbe dbbc
fcc dee
eebc ebbc
bebd bebe
ebe dbcc
bbef ff
ed ebbbc
def ef
bcf ded
bd bbbfc
fbd bbf
dc eeef
ccc ebd
dcc ddc
bebc fbc
bccc ef
ebcc bbbc
bcee bbec
ecbd fc
ecbe dbf
bbbe dbbbb
ecec ecc
dbe bbbf
ebb d</w>
dd fef
debc bbc
bcf ddc
ecee bdc
ee dbbebb
eedc fc
ebb bac
debb ebd
ebf becc
bcc dbbc
bebc fec
bbebe bec
ec bbea
ebe bcbbc
bbd bced
bbf becc
ba ebd
ea fee
bbebb ccc
bdec bbc
dbec bec
dbb ebbcc
bbdc dee
ff def
eef bbec
fbc dbd
bdc beed
dd bdcc
ec bebecc
ecc dbbc
ebb beeec
bbd bedd
ebdc eec
edc debe
dcc bebe
fee dee
dfc dee
bdc ebcc
bbdc df
dc ecef
dc dbbf
bebc bef
bbdc dbe
bbebb eec
bbc bbbcc
bbee bcbc
bbbbc fc
fed dbc
ed eeccc
dd eeed
bdbe dbd
dc fdf
bbbd dec
bbd bba
eeebf cc
ebe fa
bbbc fec
bebd ccc
bbdc ebc
bbbd ded
ff fbe
fbc efc
bec da
bcf ea
ebb beecc
bbed dec
becc dec
fcc dbe
eef dbf
ebbc bbcc
edcc ccc
ecbc dbc
bc dbbed
dbb eba
eccc ef
dbec bbc
fec ebd
bbbd bdbd
bbebe ef
bcbd bec
bcc beebb
edc beed
ff bccc
a bebf
ec feecc
fef ccc
bc fbecc
ee dbbbf
ebbc beee
fed bf
bbbf bbee
bcec ebc
dc ecebb
bbd bbebc
fbf df
bec bebbc
bced bbc
ded bef
bbef fc
ed fbdc
dbb bdec
ebe bedd
fbbcc cc
eec bbdd
dbf dbc
bcec ef
bcbbbb bbbc
bcc bebf
bc dedcc
ecc bcee
dec ddc
bbfc bbc
eeebb eeee
ecbe bbec
ebc beebe
ebd debd
bbbe febb
debe fc
ac bbbb
ebf bebd
dbd ba
bdf bebe
bcbe debb
dcc bfc
eebebe cc
dc eded
bbd bebbc
bdbc bcc
bbbe dbbc
bf bdebb
ecbd bbc
eebc bebe
bcbf fc
fbeee cc
edbc ccc
a dbbc
eebe bbef
ef dbbd
dbd fee
ecbd ebc
bbbd bef
bc db</w>
fbc bbee
ebe eedc
edc deec
eef bbbf
bbbb ddc
df beec
ebf fbf
bbebb beebb
bec bbdd
bcc debc
becc ff
ebdc ebd
dc eebbc
dbd bfc
bbebb ebbc
fec bebe
ecbe bbbd
bd debcc
bbbe efc
ea dbc
bbbbbbbb bbbbbbbbbbbb
bdbe dec
ccc bbf
ecf ebbc
dbf bdc
bcbd a
ecbd ecc
ebe dbbd
debb ecc
bcbc bebe
ecf bebc
ea ebc
fbe bbebe
ff fdc
dee fee
bf edbf
ebe eba
dd dcdc
ebf bebf
ef bbbec
bbdc bbd
ed bedee
bedc df
a dba
bbee dcc
bbed ebd
bbbb dbbd
a ebcc
fcc bdc
ba bef
ddc bbf
dbb edcc
fc bbdd
bebc bebd
dd bcdc
debb dee
bbcc cccc
beebe bebe
fcc bfc
dc bcebe
eebc fbc
def ff
ed fbbf
fec dbd
debb dbc
ef dbbbb
eebd edc
bc dbbbf
f debfc
fc bedd
ecdbd cc
ac bbf
bbbbc bcbc
ecbd bec
bbbe bebbc
bf ebbcc
dc eeebe
a febb
ebe bbbcc
bbebb ebd
dec bbee
ebdc bec
ed ecef
ecf dbd
bbbd fbc
bbbb beed
ecc fbf
bbed dbd
bf fdbe
ecbc edc
ebdc edc
ecf efc
bbd bcebb
bf bdec
ebf ded
beec beec
bfc bbef
eedc dd
bf dbbbe
ebe deec
ee dbbed
ef bded
eef ddc
eeed dd
dbbbb dbbbb
fbd ebd
bf ebbebb
dbbc df
bcec bbbb
ed bbebf
bebd bbbc
dec def
ba beee
bbebb ff
dbf bbbe
bef bebf
bcee ebd
dbbc dee
da bba
eef bbef
be dedcc
efc fee
bec eccc
ecc bebf
bbf ebec
bf bddc
bcbc dc
bbf fdc
ecbc bbbe
bbd fbbc
bebbbb bbbc
ebb febf
bdee df
bcbc bdc
ac eec
a beebb
bbed ff
ecc bbbf
bebe dcc
bebd bcc
fed bdc
bbbbbbc bbbb
fbd dbc
fbe ddc
bebc eebc
ebc febe
dbe ebec
dec fee
bcbbc bbc
bbd bcbe
bf bbbbbbbb
bebe bebf
eecc ebe
ebc dbbd
ef bcef
ebf ebcc
eec dbcc
eeebb bbc
eeec fc
bf bcbec
fcc bbbb
bcbbc bbbb
bec bbebc
bfc fec
eedc a
ec dbbbd
bcbd dee
bcee dcc
bdbc df
ebbbc bbbe
ef eba
bbd eebe
dc fbcc
bfc ba
ee dedcc
bfc bbbd
efc beec
dd ecdc
debb ff
dbd beee
debb bbbd
bbbc ebec
bedc bbc
dd eedd
ebf fdc
bf bbecc
ebb bbbfc
bbebb bbbf
bf bdf
bebbcc cc
bcc eeed
bbebb beee
edbc df
bf bebbbe
bebd dec
bcee ff
bbbbc dbe
ecec dbe
dd edbd
bec bced
bbdd dbe
bec bbef
bbbe bbdc
dbb bdf
ebb c</w>
dc febd
bebd dbc
beef a
ccc fcc
ea bdc
dbec df
ebbc efc
dbbc ebd
bbd bbbec
eebc ded
beebe bbbe
dc dbbbe
bbc fbbc
fdd ef
eedbd cc
bef ddc
bebc beec
ecec dec
bebd ecc
fc dedc
bec ac
fbf bbf
bfc edc
ded edc
bcbc dec
dc bcfc
dbb bdbbd
bbbbc bebe
becc fec
ebb fedc
bbebb df
bbebb ebf
dbbc eec
bf bebcc
bbbb debe
f dc</w>
dc bbeec
fbc ebbc
dfc ef
ebc bcdd
ea bbd
ecbc ff
edbc ebd
bbed bbbc
bbebe bcc
bf bcdd
ecc fbe
dee bccc
debb bebe
dc bdef
bcbe ddc
bef beec
dfc a
fbc fee
bcec a
dd dbdc
bec ffc
bfc fcc
fbc bbec
dc bebec
eeec dec
dc bbebd
ea bebe
decc eec
bd dbbdd
dcc efc
be dd</w>
eebd ccc
fc bcdc
bedbf cc
ed ebbbf
ebb beebf
dd bddc
eebd ef
ed deccc
bbcc bcbc
bcc ac
bbbe bbef
bbcc dbd
bbee beec
ea ebf
dc edbf
bdbc dbe
bebc dbd
ecbc bdc
eebd dbc
ea bca
bbcc dec
bcf ebec
becc becc
bef ded
fbe bbef
eebf ef
ccc bbd
ebe ecdc
bbbe bbebc
bbf ddc
dee efc
dbf dbd
bbf bccc
bebd ff
ed fbbbe
eec ecbd
bedc ef
bcbebc cc
ebd dbbd
bbf eebc
dbbc a
eebd dbe
eebebc cc
da bbc
bbbbc ebc
dc eefc
beed dbe
debc fc
beebe a
bdbc ebc
dee bcec
ebb ecef
bbec bbebb
be bbeba
fcc dbc
bcebb bbc
bfc efc
dcc eecc
fbd dec
dbec dd
dbbc bbbe
fdd bec
ac ebe
becc bdc
ded bebe
ea bea
debc dd
bcbd ebe
ecee ddc
ba fbc
ccc bbbc
eeebe bebe
fec bbbc
bbd eeed
ed eedbe
ed ecbcc
bedc fc
bbfc fc
dc ebbcc
ebb ebccc
ecc bced
eec eedd
fbe ebcc
ebbc dcc
bbed bbbd
bedc a
bcee becbbec
bf ecdd
bbbbc bbebb
dbbc dbe
bba bba
bec eeee
bbc bedd
ff fef
bbcc bbee
eccc ebd
eeebb ef
ecc bbebb
beebb bbee
ebb debbc
ebb eded
bbbb bcbf
bbf eeee
ecec dee
bdbe ebf
bbf febb
ebec bebe
dbe ac
eec ffc
dbc fed
bebc debb
bbcc bbbd
fec beec
fbd bbd
fee ebd
ebdc ef
a bbdc
bbc fef
beebe eeee
ecbc bbbc
eeebb bbbe
bcc febb
eebc bbee
eedc bec
ed eedf
bcee edc
bbc ffc
bcfbc cc
bbdd bbbd
eeec dbe
dd bbebe
bfc dbf
ebbc debb
fcc efc
ea beee
ee dbbdc
edbc ecc
eec bced
dbd bcbc
bbbf bbbd
bdcc ccc
beebe bbee
fc bbebe
fc fbbc
fc ecbd
df da
bebbbe bbbb
fbd bdc
ebdc ecc
bcee bebc
dcc bbbc
ebd bedd
bbbe bbbec
ba ac
bbc eebe
bdbc bbbc
beed ccc
ee bbeccc
bbf beebb
eeebe ef
ebcc ebf
bcbbee cc
bcc bbef
dbf ebf
edc ffc
bbed bebe
def ebc
eecc bdc
dbbc bbbc
dbc eeee
bcc bbdd
dbb bb</w>
eecc dec
ed bebbbc
eeed a
ebe ebbebb
ebbc fee
ebec fbc
bbc bcbbbb
bbd bddd
dbbc ebc
bdee ecc
dc bebbbb
ea bef
bbcc ebf
bbbb bcec
dcc fee
fcc fed
bccc ebc
ed fdbc
becc dbe
dd bbef
bcbd dbe
eeec ef
fbd fbc
eeec dbc
ed bedcc
bbc ebdc
ebb bdef
df dfc
ebcc bebe
ac ff
beed dec
bbec bcbc
be debfc
bbcc fbc
ecdc ecc
df bbebb
bbbe ddc
ebb bbedc
ebb dcdc
bedc ebc
bbbb eebd
bccc bec
ea bbbc
dcc fed
dbf fbc
bbc b</w>
eec fbf
dbb bfcc
eebc ebf
def bbf
ec fbecc
dec bbbd
beec ecc
eccc ebe
fc fdd
bdf efc
bdee bcc
eeec bbbc
ac ebc
beec bdc
ebd edcc
ba bfc
eef bbebe
debc ccc
fcc eecc
ed ebbbd
dc bdebb
fdc dec
eec bebbc
a bbebe
bbcc bebc
ecbc bebc
bdbd dbd
bf ecbbc
bf dbdc
ed dbbcc
bbd fdd
beec bfc
eeee bbbc
dee bcbd
dfc dbe
bebf ef
bf dccc
dee bebd
bf ecef
bcbc bbbd
beec bebe
ee fbecc
bbbe bcebb
ebbc eebc
bbbf bfc
bcbbbb bcbbbb
ecbe ded
debd dd
fcc ded
bced bec
beebe beee
bbed bdc
ee fbccc
efc edc
ebbc bebd
eef ded
ec be</w>
dbd dbf
def ecc
dbbc bcc
ecbd ccc
a fef
dee eecc
debb edc
beba cc
bc feecc
ba fee
ebcc fbc
def ebe
bcf beee
beebb bbf
bbbb ecbc
df bcee
debe bcc
ebb fbebe
bbdc bcc
ecee bbf
bdee ebc
edbc bec
a bbef
bc bbbbbbbbbbbb
ecee dbd
ecc bbdd
bcbe bbbf
dd ecec
bbebb bef
eeec bdc
ef befc
bf febd
ef edcc
ed eac
ed eebbd
dbec eec
bdf bbee
efc bebe
ebbbc dbe
edc edcc
bc dbbdc
eeed bbc
bcbbcc cc
eeee bec
bcf bbbf
ebec dbd
edbd dd
dc bbecc
bbbd bbbbc
fbd ecc
bcbf bbc
ed ececc
bbbe fbf
dbb ecbbc
fcc bebe
eecc dbc
edc bbed
eebd bcc
beee ebd
ed acc
debb bdc
bbdc ebd
beed dee
bbbd bebd
ded bbbc
dbbd a
edc bcbd
fbe bbed
eced ccc
bccc a
beec bbec
bec dedc
bbd fef
bccc bbbb
ecf bef
bbebb bbec
dee fec
dfc ebe
ef bea
dbf da
debe ebc
bedd dd
ebb fbbbc
dbf bbbc
bbbf dbc
eeec ebc
bec bcee
eec bbebe
df eebc
ec dbbbbc
dc bedf
ecc bcdc
bbbe bcbd
fc bbebc
deec dd
bbbe bcec
dcc bef
fdc bbc
be bbebfc
ebb dced
fbbc bbc
bbf bcbd
dbd bbec
bbd bbebd
edc ecbd
bb ef</w>
bcbe ebec
bbcc bef
dc ebecc
fc debd
ebd ecbd
debb bbee
bbdd ebe
edc eeee
debb bebc
dc bedbe
bac ba
bbbbbbbb bbebb
ff bbbf
fc befc
ff fed
edbc eec
ee ec</w>
bbbb bcee
ef b</w>
bdc bcbd
fbc fed
bdbc dee
ba bbebb
eef efc
bcbe bbbbc
bdbd bbc
beee ebbc
bcbe efc
bbcc bfc
fc bebbc
eeec eec
bbbe fcc
bbbd ebbc
ba bebc
ebd bbebe
df bbdc
dbd bbdd
ef debd
fec fed
dfc bcc
fdebb cc
def bdc
ecf bbec
decc ccc
bc bbb</w>
ed efdc
ebd ffc
dc beecc
bbbc beebb
dfc bec
dc fedc
ac dbe
bbd bcbf
ebec ebbc
bbbd debb
febe a
f bbb</w>
bbbd beee
bf e</w>
eced dd
ebf fbe
ebec bebc
bcec beec
ebec dcc
bdec dee
ee db</w>
bedc dd
ea ecc
fbc fcc
ebec ded
debe bbbe
dbec ef
ebc bebbbb
eebe dec
bd ebdcc
bef bbef
fc dbcc
bbed ded
eebd ebe
dcbc ccc
bf bca
a fdd
fc ecdc
dbc becc
dbe fbe
ecbc bebe
ed beff
edc dedc
eeee beebb
fbf dd
eedc df
dbe beebb
bbbc bcbd
ebec bbee
ebdc df
bbc da
bf fecc
bbd eebf
bbbc fbd
ebf beec
bbbd bfc
dc bea
ecf ddc
dbd ebbc
eebd ebd
fdc dee
bebbbd cc
bbcc fee
eec bcdc
bdc eeee
bbfc bbbb
ef ecdc
bbbd ecc
eebe ddc
ecf bebe
ebb ecfc
eedc ecc
fef dd
ea bdbf
fec bef
bbed bebc
beed bbbb
bcee ebbc
ebf beebb
beee bcbc
fec bcbc
eec bdbd
eccc a
fc bdbd
beee bebc
bebd edc
fbd bfc
bf eddc
def dee
dbf edc
bdec df
bdbc bbbe
fc ecec
bdbe bbec
bbee fbe
ecbebc cc
dc bcebc
bbbf bbebb
bebd bdc
bced dbe
bdbc dbc
fec bbbe
dc eba
bbbbc dbc
eecc dbe
ebc bdcc
dbd beec
debe df
bbbd bbdd
eeee ebeebe
bf bebbd
ebd bbef
bbbc eebc
ccc ded
fec becc
bbed bbec
be defcc
febb ff
ebe decc
ed ecbbbb
ebe ffc
bbc bba
dec efc
eeee beef
ebb dbfc
bbd d</w>
bbebe beee
bcee bfc
ebe dbb
ec bbbccc
bbc ecbd
bec ecbd
bc dbbebe
bbee bbbbc
dbbc dbc
bbbc bccc
fbd bebe
ebe debd
bf fccc
bbdc ff
bdbc ebd
ecf ded
bbc eccc
ebdc dbe
fef df
ebf bccc
dd eebf
ea eec
becc dee
ba bda
bbebb dbc
debc ebc
febb fc
bd f</w>
ebbc beec
eeebb bebe
bccccc ccc
fec fbc
bebd dbd
bbf bbebe
ebe fbbbb
becc eecc
bec eedd
def dbc
bcee dbd
bdc bbdc
bdc fdc
deec dec
bbc dbbd
ebf debb
eedc eec
fc eeed
bbbc bbdc
deec eec
ebb fccc
eeee eeef
dcc eebc
bbee bbed
ef bcbbc
ebbc bbbf
ebec edc
bcc bced
ba bbbf
bbbe ebcc
fed ebc
bdbc bbf
bbcc fec
bcdbd cc
ee ed</w>
fcc bbd
bf efcc
dcc bebc
dbec dee
bcec dbc
bcbc bbec
bcbd ebc
debe dbe
ebe edcc
ebd bced
bcee bebe
ded bfc
febb bbf
ef bedd
bdf bef
bf bdef
ecbd df
eeebb beee
bbbb ac
ed fdee
dd bcdd
bdc fbe
efc ebbc
ecbc fbc
ecee edc
ec eb</w>
ebb bedbc
ff bbef
fbf bcc
bbebe fc
bebf bec
ef bbbcc
dbd fbd
debc dee
fee ea
bbfc df
bcf bbebb
ecec dbc
bbbc becc
bcbc bccc
ecc dbec
ecf bbcc
ccc bbbe
bbee ea
bef debb
bbc eebf
bcc fdd
a eecc
bbbb bbebd
ebec bbec
ebcc bfc
dbf bfc
bedc dec
dc fccc
da df
bec debd
bbef dbe
bdbe bbcc
debe bebe
ecc febc
bbf def
bedebb cc
dc ecebe
bbee bebd
bbc bcdc
fbc dcc
bbed bbed
dc ecdf
ed ebbed
dee debb
a b</w>
bbbb def
efc bbbe
bcec ecc
ccc dbd
dec fcc
eccc df
ebb fbdc
bbbd bcbc
f deba
ba edc
beebe ef
ecbf fc
bf bebbf
bef beebb
ee ebac
bf eebbbb
dbb ecdd
beed eec
dc fbbd
beec dbd
ec dbbdd
dc fdbe
bcc ebdc
efc ebf
beee eeebe
dbbc bbf
ebd cccc
bbbf bebc
eeee ea
bdf bebc
dbb bfbf
ebb fbbee
bbbbc df
bebf bbf
dbe fdc
beec becc
beebe bbc
ebe bcbbbb
eedd dd
ebe ecec
bbee dbf
bbef bec
ebc beef
bdf ebbc
fbd edc
bbdc dbc
bbbec bec
eeee bdc
bebd ded
beed fc
bbbb bebbbe
bcc bbebe
bbbf ebf
f bbebfc
dc debf
eebc bfc
ebc bbbcc
bf eea
fbf bec
ec defcc
debe ef
efc bcbc
bbef df
fbbbd cc
bbd ffc
fbd dbd
bbbe eeebb
bbd febe
bdc ea
fbf ebe
ecc fecc
ebd fdd
eebf ebe
dbc bbebb
bebc becc
bbbb fbbc
bbbbc bbee
bf bdbe
fbc bbbd
bebbbb bbebb
dc eeebc
bbbc dbf
bf bac
eeebe a
bbbc dbbbb
ee dbbebe
fdef cc
dd eeebb
edbc a
bc dbbef
bbec debb
fed ded
ebb dddd
bbbc bbebe
fbc ba
ecc ecdd
dbe bbdc
bbdd df
eeed ccc
debe ebe
bbd bcbbbb
ef decc
ecc debd
ebd bcee
ded bbcdbf
dd eebe
bef bbed
fee eec
fee dbd
eccc dec
dd eef
ed bbbbbbbb
ed bedbd
ebb fdbc
bbc fdd
ebc eeebb
bec dbbbb
fec edc
ebbbc bbf
bcf def
dbe bced
bcbc ded
dcc bbee
fbc fbd
dbbc dbd
bf feec
bbbd bbcc
ebcc efc
fed eec
dbbc ff
eeee bbebe
ecee bbd
dc bdbe
eebd bbf
ec fbccc
bbbe bcbe
beee ea
eccc dee
ef ecbe
fbe bbbbc
debc a
bbbd bbed
eccc dcc
dd c</w>
fcc ebf
bdee dbc
dbe beed
edcc fc
edc febb
bf debf
ed eca
ebc bcbbc
bbbe bcee
dec deec
eebc dcc
dd ecbe
dec ba
eecc ff
bcf ac
ebbc fec
ecbc ded
dbb edbf
bef bebd
ecec a
edc ecdc
bbd bdcc
dec bebd
dd fbbc
bbbf ebd
bfc bbcc
fee bebc
eebe bba
dc bcbec
ebf febb
dec dbf
bbd eef
df ffc
bbec fec
bbbf eec
ecec bbbb
ef fdf
fdc ebc
be deba
bcbc dbd
bbc eef
fef fc
bcf ebcc
bbd beef
ecc eebf
dbec dbe
ed bedbb
becc bbbe
ebb dcbd
ef ecbf
fee fbc
fed dcc
bbebb dee
ccc bfc
dbc bcbd
bf ebbbf
ebf ddc
eedc ebc
eebc dbd
ebbee dbe
dcec dee
ebec bcbc
eebc bbec
ba bbcc
bbd ecbd
bbbc efc
ebbc bbed
eeed df
a bcbf
ec bbeecc
dd bded
fec efc
ecc bdcc
ecbc dcc
dc bebcc
bbdc bdc
fef bbc
dbb ebbbd
ebcc bbee
beec debb
bf eefc
dbb bdebe
ded fbc
dfc ff
bccc ebe
bbbf fbc
ed ecebe
bcbc bbee
bebbebb cc
bec bcbe
ebbc ba
dbf bebe
bbbf dee
bec bbbec
bcc bdbd
beed dbc
ddc fbc
bebf bbbe
bd db</w>
dd febe
fc bcbe
dbb eddd
bbbd bbbbbbbb
ecf bbee
fcc cccc
ec dbbbf
ebb eac
ebb efbf
bec bbfc
def bbbb
bcbc bef
eecc fbc
bbebb bdc
becc bbf
ecec bdc
bea a
bebd bbee
ecf ebcc
dbbbb bbf
ecbd edc
ec bbac
dc bcdf
ebd ecdc
da dbe
bebf ebe
eebe ac
bcee beec
bfc debb
becc bebc
bd dbbbbc
fc eef
ecbc dbd
ef dccc
ebf fef
ed bbebbc
bec bcebb
beed ebc
dcccc ccc
bbc beef
ef bbeec
bbd bcf
debe bbf
bebbbb bebbbb
bfbc ccc
ed ebbbbc
ebd dedc
fee ddc
bbec edc
fec ba
dbc eebd
da ba
bcbc fbc
dbbc bebe
ecbd eec
bdbc dbd
bbbb beebe
ff debb
dc bdf
bbbf bdc
beebb bbbc
ebbee bbebb
bf ecbec
ebe bbebd
dee ea
bbebe bbebb
ecbe bbebb
bcee fbc
ebe bfcc
edc bedd
bbbf bef
fbd bebc
a dfc
bf fbbbe
ef eedc
bcc eedd
a eca
bbbb fed
ebf eebc
edc eedd
bec eeed
bbbbc bbec
ecbe ba
dbc ebec
bbef bbbe
bcbc bbcc
eeee eeebb
bec fbbc
beee bbbd
debb dbd
bdee bbf
ebbc ebec
eec dbbd
ebc eef
ebd bebbc
dec bedc
ecbd dee
ecf ba
eeebe bbee
ebf ebec
ebc befc
efc becc
dbe bbebe
dbb ebbbc
ea dbd
bdbc ff
ecc dbcc
ded becc
bbec ba
fbe dbbc
ed febf
df bced
dc eedbe
bec bcbf
ed beebf
fee dbf
def dcc
dbbbb a
bbed bbee
df dbbc
dd bcbe
ebc bba
ded ebbc
bbf ac
dbe debe
fbbbf cc
ef bdbf
bcc bcbf
ef eeed
bebd bbbd
eebd dee
bbc beebe
ef bebbbb
bbbc dbbc
dbe bbbbc
bbd ecec
dbec a
bbfc a
bbd bbeec
bcbeee cc
bbbb bedc
bbd beebe
bebe fcc
eeee bbebb
edc bccc
ecc eddd
ecf eccc
fdd eec
beef ebe
ed bebbee
bcbd eec
dd bcbf
bcbc ebf
ded ebf
ebbc bbbbc
bebf ff
bebc beee
bbd bbbcc
bbd bcdc
bbec bbcc
eef ac
bebe bccc
fbe bbdc
bcc bedd
dd dedc
dbe fbf
fec ddc
bbc ecec
bcf bbed
bcec bbf
bbec fee
ebec bbbd
dec beed
efc debb
bbec bebd
bef bbebe
ecbc bbee
eebd ff
ebb ddcc
ebd fbbc
febb bbbe
fc bded
edc debd
bebc ba
eeec ecc
ecee bbbe
dc eedf
bcc eeebb
df debe
bdc bbebb
ee ee</w>
ef febc
bbc febe
bbcc dcc
bf dedc
bcc deec
bcc fef
dbc def
ebbee fee
bf ecdf
dbec ebc
efc ba
debc ebe
bba bbbe
ccc fbc
eeec ff
ebb bb</w>
bcc bcbe
bbdd bec
dec bbed
ebec bfc
ebcc fec
ed ecbbd
ecee bbbc
ef fbcc
bcc ecec
dbbbb bbebb
eeef a
dc dbbbc
bcbc bfc
bf bbebf
bbec beee
bbec becc
debb ebbc
bbebc bec
edcc ecc
eec ecdc
dee eebc
fcc bebc
dc beebd
ded bbee
ecbc bfc
bdbe ba
dc bfed
beebb bec
ebd eebe
ecf ac
bfbc bbf
bdbe bfc
ebbee ebf
bd ecccc
bbdc bbbc
bbc debd
ed ecccc
beebb ebc
bb ebe</w>
dc ecbbc
df bebf
ff becc
bbcc ebbc
ebe eebbbb
eeee fc
bbdd dbc
ff bbebb
efc fed
bf bddd
bdc eedc
ebd febe
bbee bbef
bbdc bbf
bedc dee
bebbed cc
dc fbbbb
edc dbbc
ded ba
fbc beec
fbd fec
bf bcdf
ee dd</w>
ff bbed
bebe beebe
ffc dd
bef bccc
ebb bedbb
ebe ecbf
ecc bdbd
bdf ddc
bbd bded
ebcc dbd
fed bbbb
ebe edbd
bbbbc dee
dbc debe
dc ecbec
ebe bded
ed ebbbbbb
ccc bcbc
fee dec
bf bdbbc
fbd bbbc
ff beec
ccc ddc
ebc bded
ebe b</w>
ebe befc
ecee ebd
ebc fa
dd eced
fbd bbbe
a eea
bebc bbcc
fbc debb
bd bd</w>
ecc eebe
eec eeed
bbfc bec
a ecbc
bdc bbdd
ff cccc
bebe bbed
bbd edbd
dbb ddbd
bdec fc
ebc eced
bdbe bbebb
ed bbbfc
dbe febb
bcf debb
fee bcbc
ebcc ded
becc dbc
bbc ecbe
bbd cccc
ed eedbc
bebc bbebb
bbbd edc
bbee ddc
e ba</w>
dbd dbbbb
becc eebc
eecc eecc
debc dec
a bfa
bc bbebdc
dc bebbd
bbc bebec
fc bdcc
bcc decc
ff ebec
bcbc beec
ebb bebbbd
ebe bcebe
bbc dbcc
ebbbc bbbc
dbb ebecc
bebc fee
ebe beebc
ff bcbd
ea dcc
ec dbbed
bec beebc
dbf beec
ebe ecebb
edc eeed
ebc ebfc
efc efc
ebcc ebcc
bbbe bbdd
ebbc fbd
bbec dcc
eedbf cc
bbd ecbe
dbe bcee
fcc eebc
dc beeec
ebf ac
dec beee
debc bbbb
bdf bbbd
eebd bdc
da ccc
dbb eddc
bf dbbbc
ef edbd
ecee bbee
ebe bcef
bbd bcbbc
bfc becc
dbb bdef
bcbe bbebc
febb df
bbf fed
bdec eec
dcbc dee
be de</w>
bbbbc eec
ebdc dee
bcdd dd
dbd bbed
deec a
ebf bcbd
ff fdd
ecbd a
f ef</w>
bdc debe
dec bbcc
dbd bebd
eebf fc
bf bceec
efbf beee
ebc ecbf
dec bcec
da bea
bd ffcc
ef ecec
ded debb
be bf</w>
ebe eea
bef ebec
fcc dcc
eebc bbbd
bebe bebbbb
ebcc dcc
bdc fbf
bd bbefc
bf bedf
ef bcfc
dbec fc
bf edbc
ecc ecbe
bbd febc
ef bfcc
ba dcc
bdee dee
bbbb ebbebb
edc bbdc
ec bc</w>
bbbbc bebc
ebbbc ccc
dc ebccc
bfc bebd
be dc</w>
bf bbccc
dc ecfc
ebd bcdc
bdf dbf
bdc bedc
ebcc bebc
bdbe ebbc
dc bceec
bdbe ded
bbd fbbbb
bbf fef
dec fed
eebc eebc
bbef bbee
bdee bbbe
dbbd bbbd
bdc dfc
bbbc fcc
bebf bebe
eebd fbc
bedd bec
bdf ded
fbbed cc
bbdc bbbe
bba ba
bcbbbb bbbe
efc dbf
febb ccc
bdbd dbe
ecf dbf
a debe
beee bbbf
eecc dee
bcec bcbc
ebd febc
bbd fa
bbf bcbf
dbb eded
ebcc ebbc
eeec bbbe
eec fef
bbf dbbc
ef ebfc
ebb ecbcc
ebc eebbc
ebd bdcc
bdee bdc
cccccccc cccc
bfc def
eedd a
eebe bbbbc
bbebc bbbe
ecdc fc
bfc beed
bef def
ebd fef
ebd bcebb
dbbbe bbbb
dbc eecc
bcc dbec
bbf ebcc
bef beef
eedd fc
ebe bebbee
bfc fbd
fec fee
ebf def
dd fa
bbf ecbc
bef eebc
ded def
becc bebe
eccc dbe
ec dbbebb
ebe bdbc
ba bcbc
bbec bbed
ebc bebec
bbbd ddc
bbdc dbd
eeebe fee
bdbe dcc
bbbd fee
ded dbf
dc bcbbbb
bbbd dcc
deec bbc
ed dedcc
bcc dbcc
bbbc beed
dee def
bbebb bebbbb
fbe def
ebbee ff
ebc eddc
ebd edbd
febb eec
bdee eec
fdd a
ed fbbbc
efc def
ebe bbeec
ec dbbdc
fbe ecbc
eefee cc
bcbd ccc
bcec bebc
ebd dbcc
dd e</w>
fc bcebb
bebe debb
bedc ecc
dc eea
eebe ebcc
fbbbb bbc
beee bbec
fec bbec
ecee eec
edbc bcc
ebbc becc
eeec dee
bbef ccc
ed ecdf
a bdbd
ea dec
efc bbec
eebe bbed
bcec ff
decc ef
debd df
ebe febc
bccc dee
dd bcebb
fc beebc
edc dbec
bcc bbbcc
eccc bdc
bbcbbc bbcbbc
ebe eebeee
edbc dee
ddc fcc
bcee bef
edbc dbc
bbbe debe
bbbe beebe
dc bfbf
ebc dbdc
ecc eced
edbc dbe
ebc ecdd
bcc eebf
fbe ebec
ebb beccc
dc bfdc
ebe eeed
bec dbcc
bbcc bbec
edcc eec
ebd ebbcc
bcee ebf
a dbbbb
dd febc
beee dcc
eef debb
ecee ef
bec fef
beee dee
ffc ff
ebb ecbbd
bbd bdbbbb
bbbf ba
fec dbf
bbf fdd
bfc ebec
debc dbe
ebd eedd
edc bcec
ebf bbed
bcbd ff
ecc bbebe
df febb
ecbc bbec
bdcc eec
a beed
bf ecfc
ebd eebf
dbe ebcc
beee eec
bdf ba
ed ebbdc
ebe bcebc
fbc dbf
bdbc bdc
bbbb bced
ebd b</w>
bba bbbc
bbee beebe
fc ebfc
bbd eccc
fbc eebc
bbbf dbd
eeec bbf
ecec eec
bf bbbdc
dbc bbbbc
ef dbbf
ff dbbc
ebbee ccc
fee bfc
eef def
bccc dcc
ef beebc
dc dbbee
bcc bcdc
ecf bbbd
bec bcdc
bcf dfc
bbdd bdc
fdc fec
bba dd
ebc fecc
ebd eeed
f bbeba
dc fbbf
bbbc bebf
ebbc fcc
bcec bbec
da bbbb
dbc dbbc
debe bdc
ebdc bcc
fbbc bbbb
fdc dbe
bccc df
bcbc cccc
ac dbf
ebdc ff
eecc eebc
eef bbed
ebbc dbf
a bcee
ec ec</w>
ec ee</w>
eedc bbc
bcbc bcbd
debc ff
ecee dec
eeee ecc
ebbc eebd
bebc efc
bcbc dcc
fec debb
ebdc dec
eeebe bbbe
bbdd ef
eebe efc
bbdd eec
ecf ea
bec ecec
dc ecebc
bdbc bbbd
df bcbf
bfc eebc
bef becc
fbe dfc
eeebb bbf
ebf bbbbc
dc eebec
dc eeecc
bc ee</w>
bcc bbfc
ecbe ac
ecc beebb
bbebb ba
ebcc eecc
dbf fcc
dc defc
fc febc
bcbe ea
bebe bcbd
ebb fbef
bf bcbbd
bbee debb
beee bbcc
bebe eebc
ecbe debb
a cccc
ed f</w>
dc bbbdc
dbbd bec
ebe bddc
bbbc ddc
bf eddd
dbb ecef
eebd bbd
ba bbec
bbbc cccc
ed fdcc
ebe bcfc
bebc dcc
ef bdec
eedc edc
fc eedd
debc ded
fc bfcc
ff febb
bef bcec
ed eebdc
ed bedec
dc eac
fc beef
dbe eecc
beee beef
bbdd ebc
bcdc dee
ebf bbebe
bbebb bbebe
eced bbc
bcc bdcc
fbe ac
fed dbd
dbbbb bec
bbbb eebbbb
ecbe ebcc
dbc ea
dec ebec
beec dcc
ed bbdcc
bebc eecc
ddc fec
bebbbb bbf
bedebe cc
bf ecebc
bebbbe bbbe
bc dbbfc
befc df
ee dbbfc
ded fec
eeec bbd
deec dee
ed fdec
dbc beed
bcec bbd
bebf df
beec fec
eebd bbbe
becc ebbc
bb ebd</w>
ebe bdbf
eec bcbf
bdc dbbc
fdc bcc
fc dbbd
eeebb bbee
bbbd bbbf
ef bcbec
dec eecc
ccc bebe
bf febf
efc eecc
debc bbf
bbef bebe
bcdc dd
beebb eeee
febb bec
bdbd df
ebe eebbee
bcbc fee
eec bcbe
ea ebd
dbbbb bbbbc
eec dbdc
fbc bbcc
dee dbbc
becc bbd
eccc ff
ed eebbbe
dbf bbee
ed bb</w>
ef bcdd
bbfc bbf
eec bcee
dbd debe
ebc bfcc
bbbc bbdd
beec bebd
bdbc bebe
beebb beee
ebe bcdd
ebf eebf
ba dec
bfc bbed
a bbdd
bbbc fbe
ebc bcfc
dbbbb dbe
dee ac
dbb dcbd
ded bbbd
bbdc dec
bcf dbbc
a eeec
ee dbba
ebc beebc
fc eebf
bcc bbebc
fbd dcc
ebe bebec
dbcc bbc
bcc eebe
eec fa
bfc beee
ea eeee
ebdc bbbb
ebb dcbc
ef bdebb
fee bbcc
fee bbebb
ef bbebd
edbd bbc
bcc eef
dbb ebbbf
bdf bbec
df edcc
dbd bbebb
cccccccc ccc
ebb bedee
ecc bbbbc
becc ded
bcbd dbc
ebdc dbc
ebf fed
edc ecec
debb dec
eebc fec
a bced
bd bbebec
bbbbbbbb bbbbbbc
bebbc bbbe
fbbc fc
bdf bbcc
bf bcbcc
ecebb bbbb
ef bcebe
eec edcc
dbe ecbc
dee bced
dbf dec
ef eea
ebf bbef
ff ebcc
ebbc ddc
beec ba
bf c</w>
ebb eca
dd bbebc
edc ac
eccc dbc
bef ac
bdee bbee
a ffc
ebb bebbec
eeeeeeee eeeeeeee
ef dbdc
bbf debe
bdc deec
bbec efc
bbbc bebbbb
bedc ebe
bdebb bbbb
eebeee cc
bf fdbc
ebb ddbd
bbd bdbf
bbebe ccc
bcee bbebb
dc bdbbc
bec bdbd
dbe eebd
dbd fcc
dcc fbd
a bbebc
bd dac
ebec bbcc
bebd fbc
bcee bcbc
bdbe debb
beee fbc
bebf ccc
ebb fbfc
dd beef
bbc eedd
dbd bbcc
fee beef
bccc ff
ecbd bbbb
ee dbbef
ee dbbbec
ebf ecbc
bfbc ff
ec bd</w>
ffc fc
bdec dec
eec bbef
edc fbe
becc bbbc
eeec dcc
a fbbc
beec bbee
bf fbebe
ebe ebbebe
bdc bbbf
eeee dbe
bd bc</w>
ebe ebbbbbb
ebf beebe
beed bcc
bf eded
eec bbebc
efc bbee
eebc eecc
bcee ddc
bdbd bbbd
fec ebbc
ed eeebd
ebec bef
ba dbf
fbd ded
bcbd bbf
dd dcdd
ebf bcec
fbd bef
ed eedee
ebbbc bcc
fed ddc
bdec dbe
bdc debc
ebb dba
dc deecc
ebe eebbc
bdc eeed
bbfc dbe
bebbc bec
dfc ebc
fdd ff
ebcc bbec
eebd dec
fdc ecc
bf ebecc
bbd befc
dc bbccc
dc bcbcc
dd bcf
bcee ded
fbbebb cc
bf dced
bbf bcec
dbb ecebe
bcbbbb bbbbc
ec dbfcc
bbef bcc
bcbe ac
bbbb bebec
bebc bbed
dbec ff
eeee ebc
bced dec
df fef
eebe ebec
ef fbbbb
efc fcc
beee dbd
dd eddd
bcbd bbbc
beef bbc
bc ec</w>
ef bddc
df ecbd
efc bebd
ecec dcc
ef fbec
ed bbba
ed fdbb
bbf eebd
bebe eeebb
bebd bebd
debe bbbc
bcbe def
dfc eec
dee fbd
dd eddc
bbed bfc
dbc bbbf
ed eeeec
ebd bbebc
bdc bccc
bd bbea
ebe eebbbe
bd dbbebb
dbd fec
ebec fec
beec ebbc
f df</w>
fc dbdc
bbbec bbbe
dbec ebe
ff bbdc
dfc dec
dd beebe
bec bebbbb
ebb ecdf
ddc bbbe
eeee bebf
dbec bbbb
beec bef
df cccc
bbbc fbf
debe ecc
ed eceec
bbc fbec
ea fbc
bcbe bbebe
debc ecc
bf fbdc
dee cccc
dbec dec
bc debfc
ebd ecec
beec fbc
becc fbc
bdbc ecc
bdee bbd
ebbbbbb bbbe
ebb ecdbe
dbe bedc
ebec ebf
fee bbbd
bbed ecc
dcec dec
dbbc bbbd
ef bbecc
beee bbef
a eebf
ff bcec
ff bebf
bbbf ecc
eeec ded
decc bec
bcfcc cc
fcc bef
ebbbc bbd
bebbbf cc
bbbbc bdc
ed fdbd
bcc edcc
bf eeebc
bced ccc
dc bac
edc fdd
dd bebbc
fc bcef
dbf dcc
eeee bbef
eeee bbd
bcbc ebbc
dbf bebc
fef fee
ee dbbebc
fc fbec
dbb ebbbbc
dbf bef
ac dec
ebe ebfc
edc febc
bbbbc ebd
eba bbbb
ebe dbbbe
bbc bdbf
eecc fec
bc bbeccc
bfc bbebb
fed bbf
a febe
dc bca
bf d</w>
fbd ebf
bbebe ebc
edbbc dbf
bbc bcef
bec beebe
debb ebf
fcc becc
bd bbfcc
dd bbfc
dbd b</w>
bcee ba
ebe eebebe
bbbe bba
bef ebcc
eeee eebf
eecc bbf
bd eb</w>
edc fbf
bebd ebbc
debe dbc
ed ebdcc
ebe bebbd
bbc fbbbb
bb ebc</w>
bf beeec
ebe bebcc
bbcc ded
fcc fee
ac dbc
ebbee bbec
bbcc bccc
ebd bbfc
bbcc efc
fec bedc
eeee bbbf
beebb ebf
ff ffc
dcc bccc
bbbc def
bbee bebf
ebc dccc
bbec eebc
beee bebf
eec febc
febe bebe
ebb fdbb
eec beef
a eeebb
bbbc ea
bef dbbc
bbec ebec
bdee dec
dbc bbdc
beec bedc
ba da
dc dbfc
dd bcef
bbdd fc
ff ecbc
bcbd bcc
bbebd bbbb
bdbe bbed
ef bcebc
bfc bbbf
ecbd dbe
bc dbba
bbee efc
bbebb ecc
eec fecc
fdd fc
dbd dbbc
bdee bbbc
bc dbbbec
ebd bebbbb
fee bbbf
bcee dbf
ebc bcebe
fcc bbbe
bdbd bbd
bbbb eeec
bbee becc
ecbe efc
debc bcc
bdbd a
dbb bda
fbc bebd
eccc ded
fdc dbc
ebc bbeec
dec eebc
beebb fc
ee dc</w>
fdc ded
ef bdbc
eecc bbd
fbf ebf
dbbd fc
bbbb da
bbc bdcc
ea bbbd
bebc ebcc
fbd efc
fbf bbbe
ee fcccc
bd debdc
dd bba
fee bebf
dbbbb dbd
ec fedcc
df bcf
fee bbebe
beec bcbc
bbbcc bbbc
bcebb bec
ed efbf
ddc ebf
fec dfc
ed eedcc
dbe bebf
bcbe dbbc
a bcf
bbed bef
dbb ebbed
bbdd dee
a eebd
bf dbfc
bf bebdc
ebdc bdc
ef ebbcc
dedc eec
ebb fdee
ba eba
deec ded
ebb beedc
ebbbc bebe
bd be</w>
ccc ebf
dc eebcc
bf eebcc
dc dfcc
bbbbc bbcc
ecbe eccc
bbd bddc
df eebd
dbe fed
dbb ecbec
beebb bbebb
dbc cccc
dbd eebc
bd dbccc
bbbb bedd
dd fecc
eec fdd
dbb ecbbbb
dcc eedc
bccc edc
bcec bdc
ebc bbebd
dbb edbbc
bebc bedc
bcc bcbbc
fbc becc
fcc ebbc
ebb dded
ff bebd
ecec ded
bf beecc
df fbbc
bbf bbdc
beea cc
ebe bdebb
bbc ecbf
eebcbc cc
ebb eceec
bbc ebfc
bbbc fed
dbbc bdc
dec ebcc
ddc bbbd
da bec
bbc decc
dbe bdbd
fee beebe
debc ebd
eec bbfc
df bbdd
dbe dbec
fee ebbc
bcbe debe
bbd fbec
eef ebec
bcbd bcbd
ed ebbee
bbc befc
ecc eeebb
bbec beed
ecbcbc cc
dc fdee
ebc febd
df bdbd
dee ecbc
bc dd</w>
ccc bbee
dec decc
becc bfc
bbd eedd
bbf dfc
dbc eeec
beee bfc
ff bbebe
fbc eecc
bcbc edc
dbb bac
ee defcc
df beebb
dbb ddcc
edbd fc
bbbe eebd
bbbd dbf
da ebe
bcec bef
ebc bcef
df bdcc
bec eeebb
eec beebe
dbc bccc
fee edc
ed ecdbe
ef eebbc
ecc bcbf
df bbef
bbec beebb
dbb ebbee
bbc bded
dbb bfbd
eedc ebd
ba ded
fdc ebe
ebb dcec
ebf beef
fec bbee
ebc fbec
ecc bbfc
ebbc ebcc
bef ecbc
bbbb dbbbe
ecc fef
dbbbb bcc
febb dd
fa dd
bbc eebbc
debb ded
bbed beec
fbd fbd
ed debdc
ebb febbc
fee bbef
eccc eccc
debe bbee
bebe ebcc
ecc efcc
bbed ebf
edbc bbf
bf bebbbc
ebc ecebb
df beed
dcc bcbc
efc dfc
bdc dbec
ecee fcc
ec beeecc
bbbb eebe
bef bcbd
bf beff
bbc bbeec
ecc dccc
eec bdcc
bbec bedc
eec dbbbb
dbc fbf
bbdd ebd
a bcebb
ebe bebbf
bcc febe
edbc bbbe
bdf ea
fc bcfc
bec dbbd
bfc fed
becc ebf
ecc bbef
ebbc bbebe
bbcc beee
bbbd beec
bbebb bcbc
febb ebc
bf dbbee
ebb defc
df ebdc
dbe bcebb
fdc ebd
edbc edc
dec fbd
bcba cc
a eccc
ebe bbbbbbbb
be ebb</w>
dbc ebcc
bebc eebd
eeebe ebf
bf beebd
ebb bbebec
dd ecbf
debe bbd
bc ebac
ed ebeebb
ebb efdc
bbbc bbef
fc beebe
dbe bcbe
bbed fbc
ed fbebe
bbf febe
bdc bdbd
bbee bebbbb
bebc ebec
eef bbdc
bcc b</w>
ff dfc
bfc beebb
dcc eebd
eeef ef
bec fdd
bdc ebdc
dbd def
bcbf bbbb
edcc ebc
eeebe beebe
bf ecebe
ebe dccc
ebd bcbe
bbf bbfc
bebc fed
fdebe cc
ed bebfc
dd bfcc
bbc febc
fc fa
eebc bebd
ebb bedbd
ebe bbecc
edc fecc
dbd bcbd
ebb dcdd
df eeee
bdc febb
bbf fbbc
bf bedbe
bbd bebec
debb bbebb
eeebb ebf
ed fbfc
ebd beebe
ecbe bbbf
bec bbbcc
df bedc
bbbe ac
efc bbbd
bbd eebbc
ea ddc
bebf bcc
bbbc eebd
eef ebcc
da bda
fef ebe
bf acc
fbc beee
ecbe bbed
fcc fdc
ebbbc dee
fbc ebec
beed ef
bbf dbbbb
efc eebc
fbe debc
bccc dbe
bcee becc
ec debfc
bbf bcebb
bbbc bcbbbb
dcc bbbd
fbe cccc
bcee bbcc
ee bbeba
bd eeeecc
dec bcbd
efc ddc
efc bedc
bbebb bbcc
fec bebd
dbb dded
dbbd ef
dbb ecebc
fee beebb
ebc bcebc
df bbbbc
ebd fa
bebc fcc
bebbbb bebe
bdc bbbbc
ea ac
dc ebbebb
bbee bba
fbc bbbf
ea edc
fc ecbf
ebbbc eec
bf ebbbbbb
def eec
bcbe ebcc
bcc ecbd
ba ebbc
ef eced
ecc da
bbbe ecbc
bbbd b</w>
eebbcc cc
fc bba
eebc bef
ccc bef
ed eebbbc
dbd dbbd
dc fbdc
dc bfbd
dec debc
eea a
ec bbeccc
dee beebb
ea bbec
bbebe bebc
bf dcdc
bbd bdbc
bedc bbbb
bcc bbbec
dfc dbc
dee beed
bebe ddc
ee de</w>
bf eac
ebe eced
ed fbef
edc edbd
bbebb bebd
dbec dbc
bc dbbebc
dbe debc
dbe bbdd
bbbc bbbcc
bbee febb
dcc becc
bbbc bbbec
bfc eecc
ebb fdbd
fee bbec
bcbd bbbe
eeed bec
bcc dbbbb
edc bced
ebe bcbec
bbed ebbc
bccc dbc
bf bebbee
ef bebec
bbbc ebcc
fc bbbcc
bcf eccc
bcbe bbdc
bbc beebc
eebe bbdc
ebc ebbcc
ff eccc
bbee ded
bbbb eecc
ef bebcc
bbee bbebc
dcc ebbc
ecee fbc
ac fa
eeec ebd
edc bcee
dbb dced
ed ebbebe
ebc bdbc
bbd bdebb
bbf bebbc
bfc ddc
dbb dcdc
debb debb
beed ded
bdec a
bbbe bebbbe
ea dbf
fec ebf
bbbb bddd
df debc
bebe bbdc
efc debc
fec eecc
eef dbbc
ebb dbbcc
bec befc
bbbf ebbc
eebc fcc
def dec
bedd eec
ecdc dd
bf bbedc
bf eebbbe
fc bbbec
eeee eec
bbfc dee
bdc ffc
bedc ff
ecc fbbc
dbb efcc
ecbc beec
ebc bcbbbb
ccc bbcc
ebcc ebec
bd deccc
fc dccc
bbd eced
bbf eebf
eebd dbd
ebf febe
bebe febb
dcc beec
dbec ded
bcec ebd
bcec dbd
eedc dec
bebbbb bbbd
bcc bcebb
bcbf a
eebbed cc
ebc bddc
bbc bbebd
ebf dfc
fee fbe
ef e</w>
ef fbbf
bef beebe
bbbc bbebc
bdbd bec
ebf dbbc
bbbc debe
bebe bbef
fec fcc
eedc dbe
dc beedc
bcbf bec
ebb bbdbbbb
bcc fbbc
dc bcbbd
bf ebbed
ed dbccc
ebc bedbe
bbf bbebc
eeee dbc
eebe dbf
debd dbe
dd dbbbe
bbbf bbec
fed bfc
bebbbb bbee
bcbc ba
eebe eccc
bedc dbe
bebe fbd
bcf bbbbc
dc bebbbe
ebbbc bbee
ebe fbcc
bebe bebbc
bbebe dbe
ecbd dbc
dc bedee
bdc ecbc
ebcc bef
ac ecc
bedd df
dcc beee
ebc dbbbe
bec febc
bebe fbe
fee fbf
febb dbc
eec fbbc
bebe bcec
bbbe beed
bdbd bdc
bedd a
bdec bcc
ebb beba
dbb edbc
bedc bcc
dbd efc
bdbd dee
eecc ebbc
bf ddcc
bbc bcdd
bbbb bdebb
bbf beed
fbd ba
ebbee bcc
ebbbc ebd
fc eeebb
bebe ded
bedc ded
fbc ddc
bcee bbbd
bbd bebbd
ecc febe
ea bfc
bcdbf cc
ed fbbee
bcee beee
dfc bbf
ecdd dd
debb fbc
bbdd bbbe
ebc bebcc
bbc edbd
ec dbbebe
bbbb bbbdc
edc da
bcf debe
bfc ebcc
deec dbe
eebf ff
bcbbbd cc
ed eebbf
ecc ecbf
ccc fec
ebb beebbc
bbee eecc
eec bcebb
ebbee bef
bebc ecbc
febb dbe
dbcc fc
dd efcc
dc debbc
ebd dbdc
ebd bebec
bbee ebcc
eeee df
bcec bbbe
bbd beebc
dbec bcc
bf fdee
ecc bcdd
ff da
bd dd</w>
ebe dbbf
bbbbc dbd
fdc edc
bebe eeebe
bdee dcc
dc efdc
dee ebcc
efc bbcc
bebd bef
bcee bbed
ecbd bcc
bbc ecebb
ebd bbbec
ebf bbdc
bebe ebec
bebe dbf
beec bbbd
bebd bfc
ebd bddd
ebbc eecc
bbbbc ff
bdc ac
eeec becc
ec fcccc
eef bba
dbcc eec
ecf ebec
bf ebccc
ebfc fc
febe ebe
ecdc ebc
edbc fbc
decc fc
bbbe bbfc
fcc dbd
bbba bbbb
ffc a
dcc bbcc
eebc becc
bbebe bbebe
fbf dbe
eeef beee
ebb bbdcc
dd bbbec
bec bcbbc
ea da
dbc fdc
bcec bbbc
beed bebc
ebd bcbf
bbd bcdd
bcc da
bbd ecebb
eedc ef
eeba cc
a dbec
bd befcc
ec db</w>
dbf bcbc
bced fc
bcc bebbc
ded efc
ddc bbbc
dbf fbd
fbf ebc
bfcc ccc
ed bbbbcc
bbbb eebf
dd fbec
ecc bcbe
dbb ecfc
bbbd bcbd
a bcbe
bebf bbee
fbbc bec
dbc ecbc
ecdc edc
bbebb fbc
dbbbb ebe
ecdc eec
bf eebec
dbe bebbc
fbe debe
bbdc bbdc
febe ef
bbbb cccc
a beef
fc bcbbc
bccc ebd
ec eeeecc
dee dbec
bbbd fbd
ee bbb</w>
bf fbbbc
ebf eecc
dcc bbec
ebdc edbbec
ebf eef
ddc bfc
dc beccc
ef ecebb
ccc fee
f a</w>
bbebb dbd
bced eec
eddd dd
bebc bbbf
bbdd bbdd
bf efbf
ef fbbd
bddd dbd
bd dbbed
bec bcf
bbbe bcbbbb
eebd ebbc
ebe ebbcc
bbbe eecc
debb bbec
dc bbedc
bbd ebfc
bebe dbbc
beee edc
ecbc bef
eeec dbd
ec bbebdc
bec beef
ecdc dcc
bbbe def
bbebb bfc
fdc bdc
febe ff
eeef eeee
f ebb</w>
bcc ecbe
eebc bbcc
bded dd
bcc beef
bbbe bedc
dee bbbf
bbee fcc
eebe dbbc
edcc edc
ed ffcc
bf bdbbbb
ebec becc
fbd ebbc
bdbc dec
ecc bcf
ba fcc
beec edc
bbbbc bbbf
bf bbbfc
bdbe dbf
bdee ebd
eec bfcc
bcbd bdc
ffc bec
bcc bcf
bdbc bebc
bbbc febb
bbed edc
eeec fec
ecbd dec
ffc bbc
ef ecf
bbbe bcbf
ccc efc
bebf ebc
dbcc dd
bdbc ebf
a debc
ecc bddc
fed bbd
bceebc cc
bf ebbbc
ef bfbf
ebd eeebb
bbf bba
bfc fbf
beec eecc
a beebe
ebb acc
eedd edc
ecee dbf
dc fdbc
dbc bedc
eebc ebcc
eec bbbec
ebec fee
ed beebbc
bd bbbecc
bac ea
bbbb bcf
fbc dfc
bbebb fee
ba bbbbc
bbed debb
ecee bbcc
a bbba
bbc dbbbe
bbbb dbec
def dbd
bdbe ddc
bbf da
bef dfc
eebf ebf
bebbbb bbbbc
bbc fa
ebd ecbe
bbf bbbec
bebe bba
fbc fdc
bbf bced
bbbe bced
bbbe ebbebb
bef bbdc
fbd fee
eecc dcc
ddcc ccc
bf debbc
bbbe debc
bebd bbec
ebc b</w>
fc edcc
bbbe bdbd
ecee ff
bcc edbd
bcc eced
ded bcbc
eeee eebe
ebbee bec
dc edbc
bbbf bbcc
beec bbcc
beed ff
a ebdc
dd ecdd
fbc ebcc
bebd debb
fed ecc
eebd bebc
bbbbbbbb bbd
ebc bdbf
fc dbbbb
bbbf dec
eebc debb
bc defcc
bbf debc
a dca
ebe fbec
ebc efcc
fc bcdd
debe ebd
deec ef
beed dbd
bec bdcc
bebd ebf
ebfc bbc
ec dbbfc
bbbb bebbd
df bcbe
ccc bebc
bbec bbbbc
eef da
febe beee
ebb dfcc
beec fee
bbbb bbeec
dbb bdebc
bdf beee
eeebe bef
bc dbbbcc
dbc fbe
ecbc ebbc
bbdc bbbd
debe dee
bbbc bcebb
bbbc eecc
dbc bcec
ecbc ebf
dc eebbbb
eebf bbc
dbb bfed
ecbd bdc
dc ebbed
bbbb beef
ec dbbef
bcbc bbbbc
ddc bbee
ecbe dbbc
eeebe ff
bdf debb
ef bdef
ebec debb
bcbf dd
ebe eedd
ebc feec
dbe fdd
bef bbbbc
beec beee
eebd bbbc
eedc bcc
ed dbbbd
ba debb
eebc efc
bebe bcebb
dbd becc
ebcc bbbd
bcbf df
bded dee
eec befc
ded bbed
bbec fbd
fbe da
beebb bcc
debe edc
bccc bdc
febe bbc
dbe dfc
dcc dbf
ded beee
bcbe bbbec
bf fbef
ebb bebfc
bec bba
fcc fbd
bbebc ccc
ecbf ccc
fed bebc
bbbb ebdc
ebd bcdd
bbd bfcc
bbf bcf
ba fec
bd ebfcc
ec ed</w>
ebc bddd
bd bebecc
ebb fbeee
dbe eeee
fbe bbfc
bbdc ecc
bdee bebc
bcbd dbd
edbd dee
bbdc edc
df bcdc
bbee fbd
bebe fec
ded bbcc
fbf bbbc
eeec eecc
ef eedd
bdc decc
bbed bbebb
bbebe dd
ebe eddc
bdcc fc
bf ebbbd
ed dac
eedc ff
bdee dbd
bbf ffc
bcbd bebe
bbeec bec
bedc edc
bbee eeebb
debd bec
bbbc bcbbc
bf eebbee
ba eeee
dbb bfdc
fdd ccc
febb bcc
ddc bef
beebb beebb
bebbbb ebe
eeebe bbbb
ecbf dd
bd bbb</w>
dbec ebd
bcee debb
bbc bcebe
bccc bcbc
eeec dbbc
bbbe fbbbb
ee dbbbcc
ea bcec
ebf eccc
bdc bedd
ba fbd
efc ebcc
becc fed
fa ccc
ecdd ecc
bc ed</w>
dc eeccc
bcbe debc
bbebc eec
ecbd ebe
edbc dec
bbf beef
dbf dbf
eedc dbc
bf ebbebe
bbbf beee
febe eeee
a bebbc
ebdc fbc
bfc fbe
ecbf ecc
bdec ebc
ec ebac
ed ecdee
ddc efc
fcc bbbc
da dee
dbe defc
ebfc df
ebf fdd
fec bbcc
beed bbbe
eebf ccc
fc beecc
ecbe def
bbbb fdc
bbc eced
bbebb debb
bbebe bbbd
a bedc
bbbb dfc
dd fdf
ded deec
beebb ccc
bf ebbee
bebc bedd
ba ddc
dbb dcdd
fec def
bbf bebbbb
bebf bef
ecbd ef
bcbf ff
dbe bbef
bcbd bbd
bf eebbf
eebe debb
fda cc
ebd bba
bbee eebc
bbfc bcc
ecc eef
bdc bcec
bbbc bebbc
dbc bdbd
ebec beec
eeec fbc
bfc bedc
bdf ac
bcbc bbebb
ddc fee
bbdc bebe
ffc ef
eeef fee
dc eedee
ecbc fcc
ed ebbef
ebf eeebb
bbbc bcec
bebc dbf
eeec bebe
febc df
eebbbd cc
bbbb ecebb
bbbbc ebbc
eebbc bbc
a bbbec
fc eced
ddc eecc
bebd beec
becc efc
ebc bbecc
ddc bebe
beebb ff
eeef ebe
ebc dbbf
ebd beef
eec eba
dbe dbbbb
ebf eebd
bbec fed
bbbbbbbb bbbbbbbc
bf ecbbbb
bdc fdd
ef dedc
dcc fdc
ebbbc df
febb bebe
eeec bebc
ecf debb
ebc dcdc
dbc bbdd
ecec ebd
ef bebbbe
beee dec
dee fbe
dcc def
bebf dd
bbee eeebe
ded bcec
fbc bbed
ecee bcbc
bbbb fef
fc febe
ebcc fcc
eedd ecc
ecf bbbf
ebb fbbbd
fc bdbf
eec dccc
dbb ecdf
eebbbb bbbe
dbe da
bbee fbf
ebec ba
ebec ea
bebd eebc
ebb ececc
edbc bbd
fbc bedc
dc bebbf
bbf eecc
bbbc bdbd
bdc bebf
ebec fcc
bcf bbef
ef ecbbc
eec beebc
ecbc ecbc
eec eebf
beee eeebb
bcee fcc
a eef
fbc def
bcbd dec
ed bebbbd
bec bded
bdc beebb
bebc fbd
fbc ea
beec ebf
ecc bded
bfc deec
dbd da
bf eca
ebe bbebf
ebc bebbd
ebcc eebc
ebb bbea
dc beff
fc b</w>
bbd bebbbe
bebec bbc
bec ecdc
edc dbcc
bfc debc
eebd bebe
bbbcc bcc
eccc ddc
eecc fcc
bbbb debc
dbf ded
fbf bebe
bbd c</w>
dbb ebccc
dbd bbdc
fbe bbebc
fc fbcc
decc ecc
eeed dbc
bf bbba
bedc ebd
dee bbdc
dec debe
bcbf ccc
ebc eddd
eec bcbbc
febb ebf
bced dbc
ef bddd
eec bcdd
bbbd beebb
decc df
eeebe eeebe
bdf def
bbdd ccc
bec ebbcc
dbe bdcc
bbbd dbbc
ac bbbe
bdbc bbee
bbf bcee
dec dbec
bebc bbbbc
dbbd ebe
ecbc becc
ddc fed
dbc dfc
ea bda
ecbe ebec
ebb bebbbf
dbe cccc
dee eeee
bbed ba
bbfc ebe
decc edc
bf fbbee
dc bb</w>
dd befc
dbe eccc
eeed bcc
beef beee
ff bcf
beed bbd
eeec edc
eded ccc
bebe efc
dbb bfbc
ecec dbd
bac a
ebb dddc
bbc dbdc
eebecc cc
bd dbbdc
bcee fec
ed befcc
dd dbbf
df fa
dbb ebbebe
becc ebcc
bdf bbbf
bbbb bcebe
bdc bced
ebbc debe
eebe ded
dbbd bbbe
bceebecbbec bbdbbc
ebd bbebd
fdc efc
bbbd efc
bcbc beee
dc bfdd
ef fccc
dec bccc
becc eebd
beef ff
dbb bdfc
bebc bcbd
dbcc bec
ebd bcf
dbc bebf
ecec bbf
ebd bddc
ebdc dbd
febb fee
bdee edc
ec bbcccc
eec bded
bdee bbec
dcbc ff
ebe dbdc
bbd edcc
dbe bcdc
bbee ebec
bfc ea
bbcc bbbbc
fbe bdcc
bbfc ff
bbbcc bec
bbbb ecbd
ebc bea
dbc debc
dbf bbbd
fbbbb bbbe
fc bbecc
dbe bbebc
bbc bfcc
bdbc ded
bdee bebe
dbb bfbbc
fed edc
bf bbebbc
bbd bcef
da ecc
eebf fee
bbbc ecbc
dbb edebb
eecc ded
beed becc
fef bcc
dd bdbf
ebc bdec
fc bea
dbb bdbec
ecbe ea
bdf ebec
fbe dbec
eef bbbbc
bc bbebfc
ee bbebfc
dd ebfc
bbbc eeec
dec bbebb
eeebe bbf
dcec ded
bcbc fcc
fbf bef
bbbe fbbc
fbe bba
fdc fbc
dbc bbef
ebbbbbb bbc
bf ecbcc
dc bebdc
eec bcf
dbb bfebb
bc dc</w>
eec bcef
eedebb cc
ef dbbbe
bec dbdc
dec beebb
fbf bfc
edbd ebc
ebf bedc
dee bcdc
bcbc fec
eeec ebbc
ecec edc
efcc ccc
df bcebb
eebc beee
ebbee bbebe
ebd eef
bbd bea
dec dfc
def bfc
dbbbc bbbb
ebb debec
ebd eddc
ac bdc
bf dba
ef dced
dcc debb
eeea cc
fc feec
febb eeee
fbbc a
bebc beebb
bbbec ebc
dd bdbc
bbd bbbdc
bbbd dbbd
eebe eba
ecbe bbbbc
bebe fdc
bef beed
dbbc dbf
deec dbc
bdee bfc
ed beddc
bbee fec
fed fec
edbc bdc
dc fbbbe
edc bcdc
ebe bddd
ebd befc
eec bba
ecec bbbe
bec fbec
cccccccc ccccc
bbf bcbe
eecc bbbe
bbbc eeee
bebbd bbbb
ebbbc dbc
ef c</w>
ebec ebcc
fcc eedc
deec bcc
bdee ebbc
dc bbebf
dc bdbbbb
febe ccc
eced df
edc eebf
bbef ebc
ee debfc
bd dbbbf
dc bfbc
ecc bbebc
bcc befc
bbec def
dbf fee
ebb dbbbd
bbbf bbbbc
fc dbbf
debb bfc
fbf dbc
deec ebc
dbf fec
bbbf bcbc
bebf bbbc
dedc df
ee dbbebd
ec de</w>
bbd e</w>
debc dbc
eeec bcbc
dc eeeec
bec b</w>
ebd eebbc
ebf eeebe
debc bebc
dcec dbe
edc bbebb
eccc dbd
bbebc bbf
bbbec ebe
bbbcc bbbcc
bbc dbbf
beee bba
eebc fbd
ecbd ff
ed bbfcc
fbf bdc
dee ebec
dfc bdc
bdbd bbbe
ecc bcebb
bcc c</w>
ebbc fed
eebe ebbebb
be bbd</w>
bbebe bdc
eeec bfc
ed bebbcc
eebe ebeebe
fc fecc
bbdd ff
ecc ebfc
efc ea
debb ba
ef bcbbbb
bbbc bedc
debe ff
bdf bbebb
dc febf
edc bebf
bebc febb
bf ebbbbc
ebd bded
eebc ecbc
beebe bbf
a dbbd
beee bbbbc
beed bdc
fdd bbc
ebe bdec
bbd fbbd
bbee dbbc
ebbc beebb
bbec fcc
bbdd bbf
ebb fbebc
bbbb febe
bbebe ff
edcc dd
fbf fee
ef bbebf
ebe ecbbc
ebc bebbbe
ebcc bbcc
ac ac
dcc eccc
ded fee
def fbc
ebdc bbf
bdee fbc
dc bbbbbbbb
eebc ba
ed dcccc
bebd fec
fed bebe
ffc bcc
dbe ecbd
bebd ba
bfcc fc
ebe ebbbf
bbee bccc
ebbc bcbd
eef eccc
fef bbf
bdf bbed
df dbec
da dbc
fbf dee
ecf dfc
bfbc bbbe
bfc dbec
bbec bbbf
bcdc bec
be dbac
bfc dbbc
eecc bebc
dbbbb dbc
ed beded
ef fecc
bfc dfc
ebcc fbd
debd ccc
f dbac
ef eddc
bbbd bbdc
ecec bbd
bebe eebf
bbbd debe
bccc dec
ebbcc ccc
ebf debe
ebc fbcc
bbcc fbd
ebcc bcbc
eef dfc
beef fee
edbd ccc
ebe efcc
edbd ecc
bf defc
debb eebc
beec efc
bcec fbc
ecdc dee
ebccc ccc
bbc dedc
becc fcc
eebd ded
ebb bebbebe
bbbe bbbcc
beee fcc
fbe eccc
df ecbe
edc bdbd
bbbf fee
deec fc
bdee ba
dbbbb bdc
bbebc bbbc
ffc dee
bba dbe
fdebc cc
be bbe</w>
dc ebbbf
bfc bccc
bbbd eebc
debc bebe
bbd ecbf
bbcc bbebb
def bbbc
bbebc ebc
eedc fbc
fbbc bbf
ebf cccc
bbee bcebb
bbdd bcc
eedc dee
dc bfef
dd bcbbc
ea ebbc
a bbfc
ef fdbe
ebcc ddc
beec fed
bcdc eec
bbeec bbc
dbc bced
dbe bcbf
dbb bfbbbb
deec ff
bdbc bef
bdec bbbb
ecba cc
fa fc
bc dbbebd
dc ebbbd
debd dee
a ecbe
bec ebfc
fcc bcbc
da ff
ef beff
a bdcc
bf eceec
bbcc becc
dbbd bbf
ecee ebbc
bdbe bbbbc
edbc dbd
bcbbebb cc
ebb fdcc
ebe dedc
dec bced
ea bebc
beec eebc
dbbd bdc
eedc bdc
eebbc bbbb
ebb ecdee
bcc bded
ba bbed
bebe fbf
bc ecbccc
bbee bbdc
ebec fbd
febb bbbc
ebbbc ff
fbbef cc
dec ecbc
efc fbd
fec fbd
fbbc df
bdec dbc
dced bbc
bddbd cc
ecc bbbec
bef eebf
ddc bcbc
a eebe
ef ecef
ebe ecdd
dbbd eec
bec bebec
ea bbebb
bec eebf
ea ded
bccc ded
bcec dcc
efc beed
bbebc df
fbbbb bbf
edc bbbf
eeee bcbc
bdee ff
be bbbac
fcc eebd
fbf fbc
bdbd dbc
ebb fdec
dc bedbc
fc bddc
edc bbdd
bbee bebbc
ecec bcbc
dccc dd
dbb dcbc
bebc beed
bebd becc
ebdc dcc
bcbe bbef
bcf bbdc
dbbd ccc
edcc ebd
bbebe ebf
bcec bebe
deec eecc
edbc ff
bba bbf
ebcc beee
bbebe df
ef bca
bbee ecbc
eebc fee
dbbbb ccc
bcebb bbbe
bdbc fbc
dddd dbd
ed febbc
ebbc ecbc
dbf bbcc
bbebc fc
ecbd ebd
fa ff
bbc ecdc
bbbd ebec
bcbe dfc
bcdc df
ebc ecbbc
ebbc bebf
ea bbbf
bbebe beebb
eeec ba
bf eebbd
bbc bbbbbbc
edc eced
decc eecc
febe fc
def ebd
fdc bbf
ef ebbebb
ebe bfbf
ebf da
bbebb eeee
bdbe efc
bfc bcbd
eedd ccc
eeef ff
bfbc dbe
ac bbbc
bbebe bbcc
bbbec dee
dd bdebb
dbbd ff
ecee bbec
bcbe dbec
ef d</w>
bbbb bdcc
dec bedd
beed bbf
eeebb fee
bec beecc
bcc febc
bbef bef
ecee bebc
ec eebccc
bf eedf
ebc debf
bcc bba
dbb eca
def ddc
eedc ebe
bbbe eebbbb
bbebe bbd
fbc fbe
becc dbd
ef ecdd
bdc eedd
bbdd bbbc
bbebc a
bbbec dbe
ee ecbccc
bbbe eebf
bbee beef
eecc dbd
bcbd ebd
ef bcdf
fbc eebd
bcbf bbf
f bbe</w>
ecc bebbc
bcf bbfc
dbcc df
bcbbbb bbbd
eecc bbbc
a dea
ebbc bbdc
fcc beec
eebc dbf
bbbcc bbbe
bcbf dbe
ebb bebbcc
ecc dbdc
bebe beef
def bbd
ecbc fec
bcdc fc
bc de</w>
dc ecbcc
debe eec
debe bebc
ecf dbbc
dccc dcc
debb bef
bebd bcbc
dc ebbee
bbed dcc
fdc bfc
bdbe bbbf
ebb bbbbbbbbbbbb
dd fbcc
ebc fbbbb
bbec ebcc
bbebb beec
ddc fbd
bfbc bbbc
eebebd cc
ffc dbe
bded df
ebb ebdcc
ecc befc
bcc dedc
ebbc fbe
bccc bbbc
dc eebbd
ecc fa
efc deec
bbcc ebec
fcc bedc
debc bbbe
ee deba
ecc beebe
bbef bbbc
eced dee
bedebc cc
eeebb ff
bbc dbfc
ebd fecc
bdc eccc
ebbbc bbbd
dc bfec
dd fbbbb
ebd bfcc
ebf bcebb
bccc dbd
bebbbb bbd
ecec ff
ecdc dec
dc eeebd
edbd df
dcbc dbe
a bcdc
bcc ecbf
dbc dbbbb
beee beec
fed bef
eeec ea
bdbd fc
febb bbee
dc ecccc
ebbbbbb bbbc
eebe ebdc
beee becc
def bbbe
bbebe bef
bebf ebf
ef feec
dbbc bbee
eeec ebe
bbec bbdc
bbcc fcc
beebb eec
bbc bdbc
bebe ecebc
debb bcbc
bced bcc
bf fdbd
bbc ebbcc
dbc eedc
ecbc fee
eecc efc
bedd edc
bebbbb bcc
ecef ccc
eeee dcc
eebc eebd
eedd df
ded bebd
bbc bcfc
bec eebbc
bec bebcc
fed fbc
bbebc ebe
ecdc df
ebc fedc
ddc bebc
fbf bbee
bdc bbef
eeee bba
edbd a
ebbc beed
dbb bddf
fbd bbbd
fdc fee
edbc dcc
bfc bbbbc
dbd ea
bbec dbf
bbebb edc
beec dfc
ecc bfcc
bef da
fcc ebcc
dec eedc
eecc ebcc
eebf bbf
bdf ebcc
ecbecc cc
ecdebb cc
ebb ecccc
bec ecbe
df bebbc
ebf bced
bccc bbf
eeed dee
a ecbf
beebb dbe
dddd ddc
bf fdcc
bbbb bcbbd
ebc eefc
bc fedcc
eec bbbcc
fec da
ebbbbbb bbebb
eccc fbc
ebdc bbbe
febe bbbe
bdbe debe
ebbc dbbc
bbfc ef
bd bbbebbbb
dbc b</w>
bcbd ecc
beebb bbd
ed eebbee
ed dbbdd
bec bbecc
dcc bebd
beec debc
ed ebeebe
bdbe bbdc
ebe bcbbd
bebc debe
debb bbcc
ecf beee
bbbb ecbe
bebe bbebc
ea eba
febc ccc
bcbcbcbcbcbcbcbc bcbcbcbcbcbcbcbc
bbbb dbbf
fc fdf
fed bbbe
ecdd ccc
bfbc dee
bebe ecbc
dbd bbbf
ded eebc
bbef fee
bf fbfc
bebbc bbbc
dd bbebd
bbed beee
bbbbc bef
bbdd ddc
fc eebbc
fec debc
ac fbc
bbbec bbf
bbc bddd
eec ecec
ebec ebec
ebd dbbbe
bcc debd
df ecbf
fec ebcc
becc bbec
bbc bbecc
ebf beed
ebdc bbd
dbbbb bbee
bded bec
ebbee bbbc
bfbc bfc
eec eeebb
dbc febb
fec ea
dbbd bbbc
fecc ccc
ebe bca
ebbc def
dcc ebcc
ded fcc
bbcc ba
dbbc dec
bf fedc
ebb debcc
dc eca
ef efcc
bbbe bcbbc
eebf beee
ecee bfc
bbbb bebbbc
ecc fedc
ded eecc
bba bbd
bd bbebcc
efc beee
a dbcc
bbbb bcdc
ebf bcbf
edc fef
dcc fdd
eccc fcc
bebe bebbbe
fbd debb
fa df
bec bfcc
bdc dbbbb
bdc bcee
fec bbbd
bedd fc
a ecbd
ef dcdc
bec bbeec
bbebb dec
fbe bdbd
becc bbee
d ebf</w>
dbf bbec
fed ba
bedc bebc
ed bbefc
ed fefc
ebe fbbf
a deec
bcc beebe
bdbc bbec
ebc ebbebb
becc dcc
debc edc
dbe deec
bebe eebe
bea dd
dbdc dd
bdec ded
dfc ecc
eeec bbbd
bedc bdc
bfbc fbc
bd bbbccc
ed eeff
dc acc
fee fef
bbebc ef
fdd dee
ebe bbbdc
eec bebbbb
eec bebcc
ecbd dbd
bbf bcef
ff bbbbc
bebc bcec
ebec efc
dbbc ded
bbbec bbbc
dc bffc
bfc ecbc
bef dbec
decc dd
bddc dd
eebbebb cc
ebc bdebb
bbbe eebe
ebbc ea
eebc beec
fbd bbee
dcc ba
fc ecbe
bcc bcef
bbd bcebe
ccc bbec
bebc ea
ebec bebd
def edc
beebb dd
ecebb bbc
ef febd
dbc ac
febe bbbb
ebb bbdbd
fc dcdc
fbbc ff
bcbc bbed
a eda
df ecdc
bbbe fdc
dbb dddc
fdd dec
ebc eeebe
fbe bbbec
dbbbb bebe
bbbe dbec
fee fcc
bccc fcc
eeec bbec
ecec fbc
bf bedbc
dfc bbbb
ecee bebe
bf beebf
ef bdee
df bcef
bbf bdbd
eeee fef
bcbd bbbd
bdbbbb bbbd
ed fbebc
bebc bbdc
edbd dbe
ddbd dbd
bd bbac
ebc edbf
ed bbbbbbc
ebc bedf
ebd bdbf
bbd ebbcc
edc bbebe
bbcc beec
eebf ecc
bcbf bcc
ebb fba
ef bbccc
fbd ddc
ebd eced
bebbbb bec
dcec eec
bced a
bdbe ea
bbc bebcc
dcc eeee
bbbd fec
beebb fee
febe bbf
eedd bec
debc bdc
eeed dbe
bf fdbb
ebb dbbbbc
bcc ecdc
eecc bfc
ecbe bbdc
bcec bfc
ef bceec
ebf fbbc
dbd fed
fbd dbf
bcee dbec
bbed fec
dbd bbbbc
debd eec
dee bbbbc
edbd bec
be bbc</w>
ebb dbecc
fc c</w>
bbbe ebbbbbb
ecdd edc
bebe bbbec
fc bebcc
ded dbec
fbc bbebb
ecbc ddc
bcec debb
bba df
eebf bbbb
ecee ebf
dbe eeebb
ecbc beee
da eca
ecec ebe
beef bbf
ebb bedec
beebb bef
bbc c</w>
bdc fef
ded debe
fee bccc
beef bbbb
dced dee
dc bfebb
def bef
decc a
ef bdf
bc deba
ebbc bccc
fee eeebe
da bbbe
f bbbac
ed fded
fee beec
dbf ea
beed bbbc
dbbd bcc
edcc bec
bbd fdf
bdc b</w>
bbcc eebc
bcbd ebf
ffc dec
bcbc debb
bbbf fbd
eccc bbf
dfc dcc
ec dbbbec
bbebb bbed
fed ebe
bedc dbc
dced df
bbdc bbee
bcbf ef
bdee bef
da bcc
fdc dcc
fdc eecc
bbc fbcc
bbdc fbc
bbef ba
eeec bbee
eeebb bef
edbd bbbb
bf eebebe
dd fbbd
fc bdec
dbd ebec
bbebc bebc
bba bbbd
dbd eecc
beee bebd
beec ddc
ecee ba
ec dd</w>
ebe bac
dbb ecdbe
da ef
dd eded
edc eddc
ff dbec
fee fec
ecbc bbcc
bbebe bbec
bebe beed
beec dbf
bebf bdc
eebf eeee
fbe ebdc
beec bbed
dd eebbc
eec febe
dbd beed
def ebf
bcbd fbc
ebbee bdc
bbf fa
ac ded
bba bcc
bf dded
bbc bcbcc
bec fa
bbd feec
beee eebe
dbbd ebc
eebf bbee
edc beebb
ebb bbefc
bbbb beebc
ef febf
dbb ebbdc
dcc ebec
bbebe bcbc
dbbd ebd
bf eeff
bbbc bcbe
bedc fec
bbc ebbebb
bbc eeebc
beee ddc
ebbcc fee
bf beccc
bbef bdc
debd fc
dbcc bbbb
bbbe bbebd
ebf bebbc
ff bcbf
bebf dbe
dc dba
bbbe bbeec
ac bbd
debc eebc
bbbbbbbb bebbbb
bcec deec
bbbe febe
ea bbcc
fbc febb
bbdd ded
ef edbf
ff bcdc
beee fbe
ebc bcbec
bbc bcebc
fbc debe
eedd eec
ecdc bec
dcbd df
ff eebc
bbbc b</w>
efc dbbc
fbc fbf
bced ded
ebec bbebb
ecbf a
ecc dcdc
fcc ddc
debc bbd
dfc ded
dbbd bebe
bf ecbbd
bbbb bdbbc
dd bbbcc
dbe b</w>
ba fbf
dbb ecbbd
fec decc
bebbc fc
bc eacc
bc bbbbbbbbbbbbbbbb
dee fdc
fcc bbee
ecf bbed
bfbd df
bbbe fed
dbb bfdd
fbd becc
beebb ebbc
bcebb bbbc
ef eebbbb
bcec edc
bdf dfc
bcdebb cc
ef bdbbc
bbc bebbbe
ecc beef
bbf dbec
bbef dbc
dd ecebb
debb bebd
eced bcc
ebc eeef
bdbc bfc
ebb fbbec
dbcc bcc
ef bcbbd
ebe fdf
dbd eebd
fbc bccc
bbcc eecc
fbd ea
bcee bebd
febb bef
fbc cccc
bcec ebf
ebb dea
def ba
dbbc bebc
bcf debc
beebe ccc
bec febe
bbd ebbebb
fcc ea
bcf ebdc
eefbd cc
eec eebbc
ecf bbdc
bcebb fc
dcc ecbc
fee ded
bcbe bbfc
bcebb ccc
def dbf
bccc cccccc
bcbd bbee
edbc bbbc
bd fbecc
ef beecc
eec dbbbe
eebc ddc
bdbd ccc
ecee ded
dbc bedd
efc eedc
ebe fbbd
ebd bebbd
eec fedc
debb fec
becc bef
bebbc bbf
ef bfed
ba bebd
dbbc bcbc
ed fea
ebe beebf
bec eebe
ebbc debc
bbcc bebd
bbc edcc
ecc eebbc
bbd bdbbc
ebb bebbed
dd feec
bbd eebbbb
dbe ecbe
dec eebd
efc bcbd
ebcc beec
fbd fed
be bbbb</w>
ebc beecc
bfc bbdc
becc cccc
ebbee df
dca bdbf
ebc eebbbb
bbbec df
ecec bbbc
bebbebe cc
bbc bea
ecc febd
eccc bbbb
eced dbc
ed bbbbebb
bebe ac
fbc bcec
fbe ecbd
beebb bbbd
fdc fed
eeef bbee
bbc fbbd
bebe bedc
beebb ebd
ed bbbbbd
ebec ddc
ebdc ded
edbd dbd
ebbbbc bbbb
ed bebbec
ebc fbbd
bbc bcbec
bec ecebb
ebf ecbd
bbebc bcc
bbbe fef
bebe bcbe
bdbc fee
bbc bdebb
eeee dee
dd bebbbb
fc fbbbb
def bebc
ef bac
bbbbbbbb dbbbb
ed be</w>
ebb bedcc
dee debc
dbf ddc
bdee bbbd
edc bdcc
ff bdcc
eecc cccc
eec efcc
ac ebd
bbbbc ebf
bbbec bcc
eeebb ccc
beef bbee
ecdd fc
bebec bbbb
bdec ebd
bbcc ddc
ecbc bbbd
ebbbc dbd
ed beba
ebdc ebf
bbf bedc
bcdc dbe
bbeec bbbb
bbd eba
edc dccc
ebbc fbf
dbb edebe
debe bbbd
bbef dee
ebbc bedc
dcc bedc
ebcc becc
eebc ea
bebbef cc
dcc ea
dec da
dd eeef
ded cccc
bbebb dbbbb
ebbc bcec
bbed bebd
eeec debb
ecc fbec
ebe dbbbc
bbd bcbbd
bbbc bbfc
dfc dbd
ecf ebdc
dee febb
bbebe dbc
a eedc
bec eced
eccc bfc
fed dbf
eebe ebbebe
fdc dbd
febe bbee
be bbbbbbbbbbbbbbbb
ec ecbccc
ba fbe
eebc ebec
fbd bbec
bbbec fc
bbbb bdbf
beef bbbe
bcdc debe
febc fc
ef ddcc
ebe fecc
df dbcc
beee bccc
bbebe eeee
bedd ccc
ecc edbf
efc decc
bbef ebf
bdee bcbc
bfbc dbc
bec bbebd
beee dbbc
ac ebf
ac fee
bbbbc bfc
debd a
bcee ecbc
f bbd</w>
bbbb bdbc
ecc fbcc
ff bced
ded beed
dcbc dec
ed fba
dbe bcf
bbcc bbbf
beec fbd
bd dcccc
ef bebbee
ebe fbbbe
eebc fed
eecc ebf
da bdc
cccccccc cccccc
bbc bddc
bcc bcdd
ed bbdbd
dc dbecc
dbe beebe
becc bcbc
becc bebd
dc fdcc
bcbf bbbe
befc fc
bfec dec
dd fdbe
dfc bef
ecf def
febe fee
ed dbdcc
ecbc cccc
bbbec a
edbd eec
eac ba
bbc bbccc
bbc feec
bbf ecbd
bbee bcec
ebfc bec
bfbc bebc
bcfc df
ebe debbc
ebe ebbee
bbebb eebc
ebcc eebd
ac bef
bbdc ebf
edbd dbc
f bbc</w>
bf eebeee
ef beba
dee eccc
dec bbbf
dbbc bbec
ecbe dbec
bcbd bebc
bbfc dd
ecec bebc
ed bbea
ef bebbf
bbd ecdc
da ebc
beef ccc
dbb ebbef
febb beee
ecee bbbd
dbe ebdc
bbee dbec
efc bccc
becc bedc
bcbecc cc
bbbb bded
ecc dbbd
ebec dbf
fbe dbbbb
bbed bbcc
fcc fdd
eeee eebeee
bcee fee
bcec fec
dbe dbbd
fbc bbbbc
bcee ebcc
bcef fc
ebbbc bbec
ebbc bbef
bcbd bef
ebbc febb
bcf dbec
bdee ddc
dec fdc
bbbf edc
def bbec
bced ebc
a eeef
dee bedc
bcbc bebd
debb fee
bbbb bcbbbc
eeec bbcc
febe bcc
eddc fc
bdc eeebb
beec bbebb
fbf ecc
ebb fbbebb
dc fdec
ef fbef
dbc eeed
fef bec
bbeec df
eddc ecc
ed fbbbd
bbbb eebbc
ef bebbd
bbf eeebb
ecbe debe
bcbbc bbbc
bdec ecc
fbd eebc
bbfc eec
dbc beebb
ebdc fec
bba bec
bf bbbbbbc
ebd bbbcc
def fcc
bdc dbcc
bbbf fcc
ac bebc
bcee ea
defc df
dbc fdd
bcf bbbec
dcbd dee
ff beed
bebd efc
bccc bbbe
bedd bbc
ecbf bbc
ed eb</w>
ff fbbc
dec eccc
ac dcc
bdbd eec
dd beebc
ff beebb
debc eecc
ecec ecec
bcdc bbc
bbecc ccc
ebe e</w>
fc fccc
bbf beebe
efc bbebd
ded da
bdbd bbbc
bcfbd cc
bcc bdbf
bfc eebd
fbd eecc
bebf bbd
bcc fbec
ecbc debb
bbdc bebc
dbbc ecc
ecbd fbc
bcebb eec
ebc fdf
dbb bfef
ebcc fee
ddc debb
ed fddc
ba beec
bcec fee
bbebc bbd
debd bbc
ecdc dbe
bdbe ebec
ddc bbec
bbebc dee
ecf bbebb
ebbebb bbbe
edbc bebe
dc fdbd
ebe beebd
dbd eeee
bbed fee
eced bec
bfcc eec
feec df
fed ebd
febb fbc
bdbc edc
ebbee bbd
ebb bbebcc
bbbd bbeec
bbef beee
bdc da
bebf dbc
bbfc ebc
bef debc
bbdc ded
bcbd bcbc
bcdc dec
bdee ebf
bbf fbbbb
ba b</w>
fbd beec
dfc bbd
beebb df
bebf bebc
eba bba
decc dec
eebf bebe
dedc bec
ec deac
dc beebf
eebd dcc
eebc bbebb
dbbc dbbc
ebb ffcc
efc ecbc
dbf ebbc
dbf fdc
ac dbd
bebe bced
bf beedc
bbf bbbcc
fc bbeec
edc ecdd
decc ebc
bdcc dd
bd dbbebe
dc ebbbc
ebe bdbbc
ebf debc
bdc bbebe
bef cccc
beebb bbcc
bebf eec
fbbebe cc
ebb bbfcc
ebec beee
fec eedc
dbbbb fc
a ecdc
dbc deec
dbb edbbbb
fec bccc
fcc ffc
eebc bbed
dc eeedc
ef bcbcc
bcc ebfc
dbe bbbec
febb ecc
ebb bbbecc
bbc bebbd
becc bbcc
dfc ebd
bbebbc bbbb
dbc dbec
dfc fbc
ecec bfc
fc bcebc
bec bdbf
bef debe
bbbd bbebe
a bebbbb
bec bcef
bbf dbbd
bbee bcbd
bbec debe
ebcc fdc
beef bebe
ebbc fdc
bbec eedc
bbbbc ba
eddc dd
dbcc ef
dc dbbcc
dee da
eeee fbe
edbc ded
ebb fbbcc
bec edcc
bec bea
ff bedc
dbc eebe
dbb eceec
dcc ecdc
ebec fed
eebd ebf
bebf ebd
eba bbc
eeed bdc
edbd ebd
ff febe
bcbc bcec
bbfc bbbc
ec eecccc
ef dbbbc
ef bda
bebc debc
fcc bebd
becc beec
bdbe dbbc
bbec ddc
beee eeef
bebbc ebc
bbbbebb bbbbbbbb
bbebb ebbebb
bfed df
bbbbebb bbbe
dcbc bbf
ecbebd cc
bbbb ffc
ecc bddd
bbec eecc
bbbf dbf
ec dbba
dec bbdc
dec dbbc
ebcc fed
beed bfc
eec beecc
bebe eecc
bf fdec
ebe bcbcc
ebe ebbef
bbd eefc
df bedd
ecbc efc
ebbbbbb bbbbc
ef ebbbf
dee bbebc
ea bcbc
fbe bbdd
bcbd ded
a eeed
bd dedcc
bdee bbcc
ed fbeee
ef debf
bebc ddc
ecbe ebdc
fbf eec
febb ebd
a dda
ec dc</w>
bf bbbbcc
bbbf fec
eeee bbbd
bebf fee
bdbf fc
eef eba
beed ecc
bdbd bbf
bec ecbbc
bbebb eeebb
fcc bbcc
debc ebbc
bded ccc
ef dcbd
bbd bbecc
bbc eeebe
ff fa
dcc eeec
dbbc ebf
dbbc bfc
beebe bef
ec bbb</w>
ed eebebe
ebe bceec
dd bdec
fbd bcbc
beed bebe
a eeebe
dc efbf
ebd dccc
fbbc bcc
ec fbdcc
def bcbc
dd bcebe
fc bbebd
ebd fbec
dbe bedd
beebe ebf
ebd beebc
dbe eeec
ff beef
dcc bbed
dbec bbf
bcec bbee
eeebb bbbc
bbd eeebc
df b</w>
ea fbe
fbd bebd
ebb bebbbbc
efc eccc
fbc ecbc
fcc dfc
eeee cccc
fbd bbcc
bcbe dbbbb
bbdd dbbbb
ef bcecc
bef eecc
bbdc fec
ebc ebecc
dee bbebe
fed bbbc
bdcc bbc
bbc bfbf
eec bea
ff bbfc
dbc ecbd
bebc bbebe
ded bedc
bbebb febb
eeee febe
becc ebec
dbec dbd
eeec bef
eebf bcc
dd bebec
df bbebe
dee bbef
dee bcebb
eebe bbebc
fc e</w>
bec ecbf
ebd bdbc
ecc bcef
dbf debb
dbe bebbbb
dbd bddd
ea beec
bebc bccc
eebd fec
bcbbbf cc
dee fbbc
fee cccc
bbec fbe
fbd fcc
bbdc dcc
eef debc
ebbbc bef
dd dbbbc
bec fecc
deec bdc
fdd fbc
edc efcc
dbd debc
bbec debc
bebd eecc
bbdc bfc
bcee ebec
bbbb eccc
dbc dbbd
bbdd bebe
ebc eebcc
bcc dccc
eec feec
bbbe ebdc
bbbc bcbf
bcbc eebc
debe ebf
bdbd bebe
fbcc fc
ebc eba
ebc eeebc
fbc bcbd
becc bbbd
ecf debc
bfbc ebd
bf dbecc
ef bdebc
bbd bebcc
eebd bfc
bbbbbbbb bcbbbb
bbc bbbdc
bac da
ebe bdbec
dd ecee
eec ebbcc
eec bddc
dbc ebdc
beee febb
beef fc
dc ffcc
bbbb bcdd
ef bdebe
bbc eefc
ac bfc
becc eedc
fdd dbe
fa bba
df eedc
bcbc dbf
fed dfc
bcec ebbc
ecbd bebe
bbef bfc
ecbd ded
a bbbcc
a bcef
dc debcc
ec dbbebc
bdec ff
bcbebd cc
a fbbbb
dc ebbdc
bec eef
bdc eebf
fdd edc
bebbbe bbee
dd bbeec
fdc ebf
deec ebd
dd eeebe
eec edbd
dec dedc
ded debc
bbcc ebcc
beec ebec
bebd dcc
ebbbc ecc
ef eefc
bbbd ea
bbbec bbee
edbc bfc
ebbbc bebc
ebe c</w>
dee bebbc
bebf beee
dc bedec
bbc dbbbc
bbf bbdd
bcec def
ef eeff
bcc eddc
eec ebfc
bbbe beef
dbe fef
fec eebc
dbbc bef
bba fc
bebf ecc
bf eedbe
eec ecdd
dee fbf
bbdc bef
deec ecc
bebf fbc
beebe fee
bdbe bbebe
dc bedbb
ebe eebbf
bbcc bbed
bebbebc cc
ccc eccc
bbc bedbe
bbf cccc
ded decc
bebf bfc
dbcc ff
eeed bbbb
ebe beff
ebdc ebbc
eedd ebc
bded dbe
edee dbd
ebd dbbf
ebcc eedc
fdd fec
bbc eebbbb
edc bbef
bdf debe
ebd d</w>
bcc bcbbbb
bbd bedbe
df febe
bdc fbbc
ebdc ebec
bdbc beee
bc bbeba
dc dcccc
ebe bebdc
bebd bbebb
fed ebf
beed debb
bd bbeecc
fc ebbcc
fc bcebe
efc dbec
bbdc fee
bebc def
efc eebd
ded dfc
eecc bbee
bdec bbf
eddd ccc
ecbbbd cc
ebd efcc
fed becc
bbebc dbe
ebbee ba
ed bedbf
bebc eedc
dbbbb df
bedd dec
f deac
ac bebe
ebdc bfc
bcbd edc
dbcc dbe
bdec bdc
edbc bbee
eebbbf cc
a fba
bbc bedf
ecc eefc
dbb edef
bbbf debb
debe ebbc
bcf bba
bbc ecbbc
bcc bfcc
eec bedbe
fbc ffc
bbed dbf
bbbb eef
eec dbbf
ded ebec
bbbf fbf
eccc bbbe
ebdc bebe
bbebc bebe
dd bea
bbec deec
fec dbec
bbbc bced
fdf ccc
ed dbbbbc
ebb deecc
eec eebe
a bded
be deac
dc fdbb
bbbb bcef
dee deec
bbec dbec
ecebb ccc
ebbbd bbbe
ebbbd dbe
d ba</w>
ebd ecbf
ac beec
bbbbc dbbbb
ed fbbcc
fc eebe
bec bedbe
efc ebec
ecbd bbbe
dcbc dbc
dbb ecbcc
bbcc fed
bcbc becc
bbdc ebbc
bdbc dcc
ecdd ebc
beee bbed
bbbbbbbb bbbbbbbe
bbfc bbbe
dddd ccc
dbb eac
ecbe bbbec
dc dea
bcc bebbbb
bdc bcdc
ea fbf
debc bbbc
bbef bbebb
eced dec
bbbb bbccc
ebf bdcc
edc fa
dbb edebc
eeed dec
ebbbc ebbc
dced ccc
dac ea
dd ebbcc
bbc bcbbd
fc efcc
eec bebec
ff debe
beec beed
bbbbbbbb bbf
bba bea
fef beee
bbbb bcbbbe
ebe bcbbbe
bef bedc
eecc becc
bcbe deec
ebc eebec
bcc bddc
eecc fdc
a fdf
bbbb dbcc
ebc ecbec
bec fedc
ebd bcbbc
ba efc
ecbd dcc
dc deccc
ebe bbccc
bec bdebb
edc ebfc
bdec bbd
ebbbc bbebb
ebe edbf
eec eef
eecc bebe
ec eacc
bf ebeebe
dd eefc
bcebb bbf
ecdc dbc
bf eeecc
ecc bcfc
bbbe b</w>
bbbc eeebb
bbee dbbbb
ebbc eeec
dbb ebbdd
fec deec
eebc ebdc
bcf bbebe
ed bbebec
bbbb eeebe
bcc bcbcc
bef eeebe
bbed becc
edec dec
a bcbbc
ebe fdbe
bef bcbf
decc ff
bebbbb dbe
bec bcdd
ebd ebfc
bbbd becc
bbec bcbd
fbe dbcc
debb dcc
ebb fbbbf
ef bdfc
ebe bcebd
fc bebec
df bbfc
ea def
fcc dbf
eebc bedc
bf dddd
ebc bcecc
bbbe da
dee bdcc
fef bebe
edcc bbc
ebe ecf
ecc bbbcc
ecc ecebb
ef dded
ef eebeee
bbd fbcc
eeee bbcc
fed fee
fed beec
bcee def
ebbee dbc
ebbbc bdc
eec b</w>
ba beebb
bcbc efc
dbbbb bebc
fdc bebe
dc eebbf
ebd debf
debb beee
eebf bbbe
bbbf bebd
edcc a
bfec ff
ee dbac
eec dcdc
bef eccc
dedc dec
dee dfc
ebbc dfc
ebbc bbdd
dbb efbf
ecbc bbed
fc eefc
bbf eccc
ea bbed
ddc dbf
bdec dbd
dbe fbbc
beec ebcc
bd bebccc
edc fbbc
dbc eccc
dbc bbebe
bcbc ebec
dee debe
bbee debc
dbd d</w>
bef eebd
bef bbebc
bcbc def
ecbe debc
fef ebf
df fdf
eeebb bbebb
ec deba
ebe bedbe
fbe bfcc
bccc bbcc
bbd bcfc
fbc debc
bebd debc
eba ba
bbbbbd bbbd
ef fbbbe
ecc eded
fbc bebf
bcc dbbd
dbe bbfc
dbd fdc
fee becc
debd ded
dc eebdc
bbd eeebe
ff dbcc
bbdd bdbd
febc a
bf ecdbe
ef ecbec
ef eebbee
dbd dbec
debb eecc
eef debe
bcee fbd
bedd bbbb
bdbe def
ebe ecee
fdd ecc
bbc beeec
ebec bbed
ecbf ebc
ecbf edc
ff eebf
befc bec
bbc fdf
bbbbc dec
deec bebc
bebf edc
eedc dcc
bcc bbccc
bdc eebe
bdc debd
ff ecbd
bbbc ac
bbdc bbec
beebb ecc
bfbc fec
bd feecc
df edbd
efc bbed
ded ebcc
fee fbd
eeebb eeebb
ed beefc
dc bebbee
fc bfdc
bfc ac
ecec bbec
ed bebecc
beebb bebc
bedd ebc
bdf da
bbc bdbbc
fc eeebc
ddc beee
eebc bbbf
ebb dbbdd
dc bebbbc
ebbc bebbc
dbd dddd
eccc bebe
bbebe ba
bcbe da
eeed eec
ebe fccc
df dbbd
bdc bdcc
bbbd eebd
dbf def
fcc bbec
bedc eecc
dcc beed
bbef ecc
bbdd dec
fef dbe
edcc fbc
ded bcbd
bbebe ebd
bcee bbbf
bdbbc dbf
edec dbc
dbb bd</w>
efc da
a ecec
bcc ecebb
bbebe bbbbc
fdc bbbb
bfbc ebf
ef fbebe
dd bcfc
fbe bdbf
bedd ecc
bdbc fec
ef acc
ebe bebbbc
edc dbbd
bbbc fbbc
eedd bbc
fc edbd
bec feec
ecbe bbebc
dd bb</w>
dd bdbbbb
ebd dddd
edc eeebb
ba fa
ff ebdc
bebc dbbc
ebec bbbbc
ebe febd
ebe dced
bbd eebec
bba dbc
a d</w>
df bbebc
bcbe bbeec
bdee becc
ebbbbbb bbbd
dd febd
ff eecc
bbee beed
bcf da
bba ccc
eeec fee
eeec ddc
febc bbc
dd edbf
ebc ecf
bbbe eeebe
bbee ac
bcbc ddc
bccc fbc
bd ee</w>
bcc dbdc
ebbc eedc
bef bced
debe dec
bba dee
eced dbe
fc ecebb
bbd beebd
edc eebe
bebd bbcc
eef dbec
bcec becc
bedd dbe
a e</w>
ebd bcebe
bdc ecbd
bfc eedc
eac dbf
ebbbc dec
dbcc dbc
eebbbb bbc
dcbc dbd
ebec bcbd
ecee dbbc
a fbec
bf ececc
ebc fbdc
ef bbbdc
bbf ebdc
bbf bdcc
ebbbc fbc
ebc bbbbbbbb
fc dbfc
bbd ecbbc
ea fcc
bbec bbebe
ef beebf
bec dbbf
df dbbbb
ff bcee
dbd fbf
bcf bbebc
fdd dbc
dd eba
bbbe dbbd
bbbc dbec
ebbc eeee
bbbd fbe
eebd fbd
bdbd bcc
dc bbbfc
ecc eeef
ebf eeef
bfc fbbc
dbd ecbc
fed efc
debe dcc
eebf bef
a febc
ecc bedf
ccc beec
ea efc
eedd dbc
bbecc eec
bdbe ac
dcee ddc
bec bcebc
dbb dcbf
dbf efc
eccc bccc
bcdc dbc
ccc eecc
beebc bbbb
ebe bedf
ebd fbcc
df deec
bcbf bbbc
ebbee ebc
ed bc</w>
ebb bbbccc
dc debec
fc bfed
ba bccc
ded bced
fee dbbc
ddc def
dfc ebf
bcdc ff
ecee ebcc
bded bbc
bdec bbbe
ebe fbbee
bef bcebb
bbd fdbe
beee fbf
fee febe
fdc fcc
bcdc dcc
bbbb bea
bbbd bebbbb
bebbc bebe
fc debf
bcc fecc
dee bebf
dbd fbe
debb dbf
eebe bbbec
dcdc dcc
bfbc dec
be bbeac
bf fba
ebd bcfc
eec fbec
bebd dbf
def bbee
eebe bbdd
eef ebdc
ecec bebe
bdbc ebbc
beebc bbc
ecdebc cc
ed eeebf
dc eedbc
debb bbed
bcec fcc
bebbc dbe
bec efcc
edc bbbbc
ebec bedc
ecbe dfc
ebfc a
beebe ff
ecee ac
bbbb bbba
ebc bceec
ecbc fbd
eebd fcc
fdc bebc
fef bef
bfbc bebe
bbbb eeed
ef beebd
bec bebbbe
fbc beed
bbcc dbf
ebec eebc
ebec bccc
bd dbba
ebf bcf
dbbbe bbbe
ebe ecef
bbd bdbbd
ba bcbd
ebc bfbf
bcc bcebe
ded bbebb
bdec bebe
ef bedf
ded fbd
beee bcbd
bebd fbd
edbc ebbc
dc fbebe
dee bbdd
dbd dfc
bbcc bbdc
bbbf bbed
dc fbbbc
ebe ecbec
bdc dbbd
ea fec
bbef eec
ecbd bbf
ecee becc
ed bbebcc
bbd edbf
bebbc df
beef bef
dbd bedc
bebd bbed
fed debb
edcc bcc
ebe eefc
bbec eebd
ac bcbc
fef bbbe
ffc dbc
ec dbbeec
bec fbcc
beed beec
edec bdc
bc bbc</w>
ed db</w>
beee eebf
ed beebcc
ebb bedebb
eec eddc
eeee bbec
fef bdc
edcc dbc
ecdc ebd
bdf bbef
fbbbb bbbc
bbc eba
bbbbc bbed
bdbc ddc
bcdebe cc
f ebe</w>
ba febb
dee eebd
ccc fbd
dbb ecdee
eccc fec
bdbc bbcc
a bedd
ef eddd
df eeec
bbbd def
ded dbbc
dbf becc
deec dbd
ef bbedc
fc bebbbb
bbf eebe
bebd fee
a dbbf
bbbb debd
ebe bdbbbb
bfc eeec
dcc dfc
ebe bdee
bbc fbbf
bcc bbeec
dee bcee
ea debb
bcbbbb bbebb
dc bbdcc
ef fbdc
bbd fecc
ebf bbfc
dbb ebbebc
decc fec
bcebb ebc
bfbc ecc
dc fbfc
bcc bebec
ccc beee
bfc debe
bbbbc ecc
ecbc ba
eedc fec
dcbc ded
bbbb bbebbc
ff debc
bccc ddc
bf dfcc
dbb ebbbbbe
beec def
fdd ebc
ebb fea
dc ebdcc
df eebf
dbb dcbbc
ebdc efc
beed edc
dbbd bebc
dbcc ebc
bfbc bdc
bbd bcebc
bbbc debc
dbb dcebe
dec beebc
debb bbbf
bbbbc fbc
bebd ddc
abd ac
dee bded
ebbc dbbbb
decc eebc
ecec ddc
bbbb fbec
bec edbd
ccc bbbd
bebe febe
ebbc bbebc
bbef fbc
dccc dccc
dc ebbbbc
bcbc debe
fdc ddc
bedc bbf
bf bebfc
bec beebd
bccc ebf
ecdc bbc
bcbbc bbbe
edbc bbbd
ed bd</w>
bbbb ebbbbc
bec bebbd
ebd bebcc
ecbc eebc
fef bbee
ee deac
bdc dbdc
dee bcbf
dec fbf
eeebb bcc
ebe bfebe
bcec beee
ed fbbec
dd debf
eec bebbd
ebe beecc
dee bdbd
eecc fbd
bebbc bbee
ef ecfc
becc fbd
eccc ebf
beebb fbc
bf fbeee
bcec bbed
eced ebc
bcbbc bcc
bbbb ebfc
bbd beeec
ebbc bbbec
dec ea
ebec bbbf
ebdc bbbc
bccc bebe
da bbf
da edc
da dbd
beebe bcc
ecbf dbe
beec fcc
ecee bef
bdee fcc
bf eeccc
bec fbbbb
dbb dcef
beed ebd
fbbc dbe
bec bcfc
dbb dcec
bbcc debb
ebdc bbbd
bbdc beee
debe bfc
bbdd ebf
ecc bdbf
decc bbc
beebe fc
bdee bbebb
eddc edbbc
cccccccccccccccc cccccccccccccccc
ef dbfc
ecc ebbcc
ebd febd
dee bbfc
eebe edcc
bdbc ba
ef ecbcc
ecc feec
bbd bfbf
fbe bbbcc
ee bf</w>
df fbcc
ebbc bcebb
dcc eedd
ac bbee
bbebe fee
bbbb bbebf
ebe ecbbbb
ebe fbebe
bbbe bcf
bbbc bcee
bfc fdc
becc fdc
ecf dbec
bcebe bbc
dcbc bdc
a bac
ed dbbed
bbd febd
dbc debd
bcbe bbdd
bf febbc
bbbb ebbcc
ebc bbbdc
df ecec
ebcc debb
beec bedd
ebdc eecc
bc bbd</w>
fbe deec
fec beee
fec bcbd
eebc dbbc
ecbc bebd
debc dbd
bebbc bcc
ebb dbbebb
bbbb fdd
ebc dbbbc
dbb edec
eeee ebd
febe ebf
efc dedc
fed def
bbbbbbbb bbbf
bebbbe bebe
bbebb ded
ac edc
eeec ebf
ebfc bcc
bbd eddc
bbbec eec
bbbb fbbbe
ecc bbeec
bbbb bcbec
ebc beebd
ebd bbeec
debe bbcc
beed dcc
bfec dbc
ed bebbebb
bbc bebbf
df debd
ddc ba
bccc bebc
fef dee
bdbc debb
dc ecbbbb
fc bdebb
bbbe bdcc
bbbc bbbbbbc
bfc bcec
ea fbd
bbbb bbbebbbb
ebe feec
dbb bffc
bef eeef
ebcc bebd
ecee beee
fcc eccc
bcee bbbbc
bba ff
bd dbbef
bbc bdbbbb
bbf eef
dec debd
eba bbbe
ec dbbbcc
ebec eecc
bbfc bef
dbbd bbee
bbebd df
edbd edc
bcef ccc
dcbd ccc
bd fbccc
fc ecf
ebd ecebb
bebc bebf
fbc eedc
ecbe bbebe
ecbd bbd
dced bcc
bbbb befc
bbc dccc
bdc bcbf
bfc ffc
dcc bcbd
febb bbebb
bf bb</w>
bbbb bbecc
ebe eefee
bbbf ded
eebd bbee
fbf edc
fbf ba
bcee dbbc
ebb fefc
ebc fdbe
dbc eebf
ebdc bebc
debe dbd
decc bcc
ec debecc
ed fdbf
bbbb bb</w>
ebbc bdbd
beee bbdc
bced beec
dcbbd fdd
eec bdbf
dec bbbbc
bedd ff
eeed fc
edcc df
bec bcbec
bcc fa
bcec bbebb
beed efc
bbcccc ccc
ef bcebd
ebc bbccc
dbb ecebd
bbcc eebd
fbf fcc
ebbcc fc
edbf fc
a bbeec
ed beac
bbbd bebf
fee dbec
ddc dfc
eecc eccc
fbf bebc
dc fbef
ef efbf
eec fbcc
dbc eedd
fbc bbdc
ebc eded
df bbbec
bfc bebf
bcdc ecc
bceecc cc
bbbb dbbbc
ef beeec
bbd eded
bcbc fbd
ddc b</w>
eeed dbd
bf eebdc
bcc bcccc
ebe febf
bec bcbbbb
bbd bb</w>
ebf fa
bebc dfc
ddc bbed
beec ea
beec bbdc
debe ba
beebb bbebe
fbec bbc
ecbbed cc
ef bfbd
bef eeebb
fec dedc
bbdd edc
bdc febc
dbb bfebe
fcc ba
bbbbc bcbbbb
a debd
be ef</w>
dbc dbcc
bfc bbfc
dec bebf
eced fc
be a</w>
bbbb fa
bec dccc
becc debb
ecee bbebb
ebe bdbe
dec fbe
beec decc
eebd bbbd
ebe dcdc
dd ecf
bbbc bba
ccc ba
debc fec
ec dbbebd
ed eebeee
ebcc bbed
bebd beee
becc eccc
beebb ba
febb bdc
eebf eebf
bcebb bcc
fbbc bbbe
dbdc eec
a edcc
ef ebccc
bef bebbc
bdec bebc
edec dcc
bbbb ebbbf
df bded
bef bcf
def bebe
da da
bbbcc a
ebc ebccc
ebc bdef
ebf bcbe
debe bcbc
bcbd beee
ecec fcc
ebc ecfc
df decc
df bfcc
dbb ebbbec
dbbbb bbdd
debd ff
ebbee bbbd
ffff ffff
bbbb bbdbbbb
bbbbc debb
bbebe bbbf
bcbd fee
bedc fbc
bedd dee
dddddddd dddddddd
ebe bdef
dd bdbbc
ecc bba
bedc eebc
ebe bbebbc
ecc bedbe
bbbe bebec
dbe ffc
ebcc bccc
fec dbbc
bf dbbcc
dd bebbd
eebd ddc
eeec dbf
eebbee bbee
a bfcc
f ebd</w>
ebe bcecc
bcc efcc
beee febe
eef bbfc
bcbf dee
bdf dbbc
dc bedbd
dbe dbcc
beec deec
bbef dbd
ebc beeec
ebc dced
bebe bcee
dbb edbec
bef ebdc
ded bccc
bcbc bbbf
fcc ebec
eebd debb
debd dbd
bbbcc fc
edcc dee
dd bdef
bec bcebe
bbbe ecbe
dbc fef
ebbc ebdc
ebbc bced
efc debe
bbec bebbc
beef ebf
bcc fbcc
ff eeef
dbb ebeebb
eebc fdc
dbbbb bbbf
ebe eac
bdc ecec
becc beee
dbec bbbe
a decc
bbc fecc
ebd eeebe
bbd fbbf
bbdd bbee
eeec ebcc
bedc bebe
ebc bcbcc
ebd e</w>
bfc bcbf
eebc eba
bcec bbcc
bbbbc beee
bcee ac
dcec ff
ef eac
ebc fbbf
bdc eef
bdc dedc
bbec ecbc
becc fee
fbf fbf
bcec ddc
bebbbb a
bbc bca
df bba
bbebb bebf
bcbe eccc
bec dbbbe
efc ac
bedc bbbe
fdd ddc
bdee beec
bf bebbec
ebd fbbbb
bbf bdbf
fec beed
bebbee bbee
dcc ffc
eeee bebc
bebd ebec
fbd def
bdec bef
edbc fcc
bcbbed cc
bbc bdef
ebd bea
ea beebb
bbed def
edbd fbc
bfbc ebbc
bf ecdee
bbc eeef
bbf ecbf
ebf ffc
ded b</w>
bbef bebc
bbebd bbee
bcef dbe
dd ecef
fc beebd
bcc bddd
eccc bebc
ebbebb ebbebb
bd defcc
dc bedcc
ebe ecebe
bebd eebd
ebdc bbee
bbbb ecbf
ebe eddd
ebe beeec
fc ecbbc
fdd dbd
fbbebc cc
ef eca
bbf ecbe
dcc bbdc
efc fbe
bccc bbd
bf ecccc
dd dcbd
ebc bfdc
bdc dbbf
bebe dbbbb
ebb fdbf
bbbb deec
bbbb ecbbbb
fc bcdf
df bdbf
bbebe ecc
dbbc beee
ebe bfef
bbc debf
bbebb ebec
bbebb bcebb
eeebb bec
edee ddc
dc bfebe
ebe ecebc
fc dbbbe
bbbe bcdc
dbe eedc
debb ebec
bedc becc
dc bbebbc
dc bbba
eec ecbe
bbec bebf
ecbc ebec
dbbd bdbd
ebbbc bfc
bb ba</w>
bf bedee
fc defc
bebd fcc
bced ff
ef ebbebe
dbe befc
dec bebbc
bbed bcbc
dbbc bbcc
ecebe bdbbbe
ebc ecebc
ebf eeec
dee bcf
bebe bcbf
ecf bbbbc
ecec bbee
ebe bdebe
ebc bebbf
ecc bcbbc
bbd bedf
bbed ddc
eeee eef
a c</w>
ebb bebbef
bbf eeec
edc beebe
dbc bcbf
dbc bcdc
aa aa
ebb beea
bbbb eba
ebe d</w>
ebc bcbbd
bbc febd
bbc eebec
dbd deec
dbd eeec
fbd dfc
ecf bbfc
ebbc bbfc
eebc eccc
fed bcbc
bec bedf
eec bbecc
dee b</w>
fcc bccc
bec ebecc
ebd bedbe
bcc eebbc
bbbc fdc
edbc ebf
ff beebe
bbee fbbc
dcc debe
fec bbbf
eebe debc
beebb bbec
beed eecc
bbbcc bbcc
dcbc ecc
ebc eedbe
bebe debc
bbbb bebbf
bec eba
fbf bcbc
beed ba
eced ecc
ef fdee
edc bcbf
bebd bedc
eedd fbc
bbbb d</w>
fc ebecc
fc bcbec
bbf dbcc
efc bbdc
dbec bdc
beed bef
bdbd ff
befc a
bbf bcbbc
edc bcdd
def def
bcef bebe
ecdd df
bdee ded
bfed ccc
bf debcc
dbb edfc
efc fdc
ecebb bbbe
bfbc bef
bf bbbbebb
ebc eebbd
bbf bfbf
bebd debe
eecc edcc
eebd bbec
bdee dbf
dbc da
dec eeec
eccc bcbc
dbbbb bbcc
dbec bebc
febb bbd
bedd bdc
bf eeebf
ebbc bcee
fee debb
ecbc dbf
bccc fec
ed bedebb
ebd feec
edc bebbc
ba eea
fee bcbd
bbed ebec
dbec ecc
ecbd bfc
ecbd ddc
beebe bbbc
dc bfbbc
ef ecee
dd bbbdc
bbef ebbc
dbbbb bbec
bdf bbbbc
bebbbe bbc
edbc bebc
fee eeef
bbdc ddc
eef bbdd
eedd ff
ecdc bcc
bdcc ecc
ef ebeebe
dbc ffc
def ded
bbebc ff
ebe bbedc
bbd bcbec
df dccc
fef eeee
edcc dcc
bdf debc
ebbee dee
ed ebfcc
bbbe beebc
bbbe bdebb
bbf dbbf
ebd bcef
eec ecbf
bbbc eeed
dbb eddf
ac bbec
ecbc ebcc
dedc dd
bd dc</w>
bbbd fbf
eebc debc
bcdc ded
bd ed</w>
ebe debf
bbd eeef
df febc
ba bbebe
efc bbbf
bbebb ebbbbbb
eecc bbec
ef fdbc
eec bcfc
bdc bbfc
fee bebd
debd dec
a ebfc
bbbb bebcc
eec c</w>
beee ebcc
bcbd bbec
ebbbc bbbbc
bbbb bddc
ccc becc
bbee bbbec
bebe eebd
debb ebcc
bbd bdec
fdd bcc
ebe bcdf
ac bba
ac bac
fdc bef
ac bbbd
bccc bef
eeec eebc
eac ea
bf dea
ed febcc
ef eebbbe
bbd bdbe
ebf ebdc
bbebb bbebc
bcfc dee
a fbcc
dc eedcc
bbf bcdc
dec ebdc
bbbf bebf
beec beebb
def bbcc
ed eebef
ed beea
df eced
fee febb
bbdd dcc
dbec efc
bdbc bebd
eded dee
ebd ecdd
ebd eddd
dbb bfa
eccc eecc
dfc bfc
bf debec
dcc bcec
fbc dbbc
ecbc debe
eedc ded
a eebbc
dd bcebc
dbe bded
da ea
ebbbc ebf
ebbbc beee
bbbb fbbf
dd bedf
ba bebf
ebbc bcbe
ddc bebd
fcc beee
dc f</w>
bbbb bfbbbb
edc dbdc
bcebb bebc
bfc fef
beec dbbc
ecdd bccffc
edbc bbec
a befc
bc ebb</w>
ed dbbebb
dd bbecc
eec febd
bbcc eeee
fdd bdc
bbbb bfbf
ebe eeebc
bbbe eebbc
ee debccc
bebe bdbd
bbfc dbc
bbeec dee
bddd ddc
bbd ebbbbbb
edc febe
bebe bdcc
bfc bebbc
fbe eba
beed bbee
fa bbc
bbef ebd
beed fbc
bcbf ecc
bdbc bbebb
bcbbc bec
bfbc bbec
dc ebbbbbb
ef bedbe
bbbe eeec
fed bbec
ef bfdc
bbbe ecebb
bbbc dfc
febb bbbd
eeed ff
bdf bbdc
eec eebcc
eccc bbee
fed da
ecbe dbcc
bcee debc
bbbec bbebb
eeed ebc
ebbbd a
ed bbbecc
ed defcc
dc eebbbe
fee da
beec eedc
decc ebd
bdee beee
eec bfdc
ba dbbbb
bebc bced
dbf fbf
beebb dbc
eeebe ccc
f ebc</w>
ebe ebecc
debb bbbbc
febb edc
bcbbc bcbc
eded bbc
ef dbbee
dbb bfbec
dbd bccc
ecec bbcc
bbeec dec
bcdd df
dd bedbe
eec ecbbc
dbbbb ebd
bcec bbbd
edcc dec
bdec dcc
ef ebecc
ef dba
ebe bfdc
fc ecfc
ba becc
ff bbdd
bfcc bec
eec bbebd
dbb f</w>
bebc fdc
efc ffc
def ebbc
bdf eccc
ebe bfbd
ecc bcebe
bbf febc
dbd ebcc
bea dbe
dd dced
ff bba
dbc eef
bf bbefc
bbee eebe
dbf ac
bcbd ddc
fbf dec
bcec bebd
bbfc bebc
ebbebb bbc
ed dbbbf
dc ebbec
ef fbbee
debb ea
eecc ddc
bcbe bba
ebd fbbd
ebf bbbec
eecc ebec
beebb edc
fdc eebc
eeebb fc
beebe beebe
ecdc bdc
ebbee bbbf
fdbb fc
bfcbbef bedd
ebe dbbee
eebf edc
bded dec
bfbc bbee
f bbeac
ebe bbbbebb
eec eced
eec debbc
eec bcbec
ebf bdbd
dbb eda
bcbc beed
bcebb df
dedc ecc
eeef bebe
bebbbe bbebb
bfec ded
ef eded
ba def
dee ecbd
fbe decc
bebd ebcc
debc bfc
bcbd bfc
bcbd dcc
fbf bbd
bced bbf
eebf bdc
eeed bbbc
dd bcbbbb
eebf ebc
bf bbdcc
beef bec
ecbf df
fdf fc
bf f</w>
bcc ebbcc
beee fbd
fec fdc
bbbcc bbf
fbbc bbbc
dcec dcc
eec bcebe
ba bbdc
bbec bbebc
eccc bbd
bbebe ebbc
dfc edc
dfc bbbc
dfc fee
debd bebc
dc ebbef
bbbb bdbbd
dee dbcc
ded fed
eebd eebc
deec dcc
bcebb dbe
bdcc bec
ef beccc
ebd ecbbc
ebf bcdc
ecbe bbef
bdbc ebec
ebd bdebb
ebf eebe
bef bba
ecbc def
ecbe bbdd
eedc bbf
fdd efc
ef eebebe
ecc ebccc
bbbd bbef
bcbd debb
bebf bbebb
bbbb febc
ebf bcee
fec ebec
da dcc
bbbec bebe
ebc eea
ebd edbf
fbc ebdc
eeee fbf
bbdc efc
beebb eeebb
bdf dbbbb
beebc ccc
ebe bbba
ebe ddcc
edc eef
ff bbebc
ebcc bbebb
bdbd dec
bdcc bcc
bdee debb
ebe bfebb
ebe eebef
bbbd fcc
eeec beee
bebf dee
dcbd dbd
dd ecebe
dd bdbbd
bbec ea
dbf beee
bccc bfc
dbbbe bbc
dbbbe dbe
ef defc
bbbe cccc
bcbe dbcc
dbec bbd
eedd dbe
ebc bca
dbb ebbec
bebc cccc
dbf bbed
ecee fee
bdee bbed
a eced
ebd bcbbbb
bbbbc bebd
def fee
bbdc ebec
ecc dbbbb
bcc bcfc
bbf ebfc
edc feec
eebe dbcc
beebb bdc
bd ec</w>
ef debbc
ebf bbdd
bef bbfc
ddc eebc
beec debe
bedc bbbc
eeef ccc
dbd bbcdbf
eebd bbcc
edbd bdc
ebbee bebc
ebd dcdc
ba ebec
dbf fdd
fcc debb
dedc fc
ff bdbd
dbd cccc
fbe b</w>
ecbc bbebb
febe df
beef bcc
eebeee beee
bfc ebdc
ea eea
eebe dbbbb
debc debb
deec fec
dbbf dbe
bf efdc
ecc ddcc
ff eef
bbbc dbbd
beec bbbf
bcbf fbc
bdbf a
dc ebbebe
dc bbbbcc
bbf bfcc
efc fbf
fef dbc
eebf bec
dcbc bebe
ebc bdbbc
bbc fdbe
fc bebbd
eec eeebe
fcc def
a bcdd
ebe eeff
dee beebe
ebbc beebe
bbec dbbc
da fbc
bedc bbd
eec bbeec
edc fedc
bba bebe
f bbbbbbbbbbbb
bbbb bcebc
eeebb eeebe
bdcc df
bdbc fbd
bbbb fbbd
ebc bcdbe
bbfc ecc
dd ebecc
bbc edbf
fc ecdd
bbee bced
ea bbef
bbbd febb
bedc efc
beef df
eeef bef
bc bbbb</w>
dd eeebc
ba dbbc
eeee febb
bdbd ded
fc eddc
dbb bfec
bebc eedd
eebd efc
fdc dfc
bcebb a
bcebb bebe
bdbbbb bbc
bf fbebc
bbd bebbf
dbb dcebb
bebc bebbc
fdd ded
beec dedc
bbdc eebc
bcef df
bebec bec
bfbd bec
bd dbbbec
eccc bbbc
bcf dbbbb
bbfc fbc
dbdc df
dc fbbee
ef eebbf
fc bddd
dcc eeed
bbebb fec
bbbbbbbb bbbbebb
bbfc ebf
bf fbbec
ed feecc
fc eba
dbec bebe
bcdd ccc
ebbbd bbf
bbcbd dee
ebc c</w>
eccc efc
bbdc bcbc
bbd eea
ba eebc
ea bebf
fed eecc
ecbe dbbbb
bedc bfc
dbcc a
bced dbd
ee debecc
ed fbecc
fee fdc
bbebe bfc
bcee bbebc
befc ff
ebbc ac
beee bebbbb
deec bbbc
bba bbee
dbe ecbf
bbbd bbebd
eced bdc
bbba a
bdbbbb bbbe
edee bfc
ebb dbccc
bbc bebbbc
bbcc bcbd
eccc bef
debe bbec
bcbe bbbcc
eeec debc
fecc efebbc
dcbd ff
ed dbbdc
ef dcec
ebc ecee
ebbc fbbc
eedc eecc
ffc bdc
dedc a
febc bec
ebbebb bbee
dd dbbee
ba eca
efc febb
ddc bccc
becc ea
fbf dcc
eedc fcc
bebbc a
bdbe dbbbb
edbc fec
dcbc dcc
fceebc bfdbbbb
ec bbebfc
bf beba
bf fdbf
ebb eb</w>
ebc debbc
dbb ebebbbb
bbbf ea
eeee fbc
dccc bcc
bdbe bbdd
ebc bac
ebd eba
dbb aa
eebd bebd
ecec bef
be dbb</w>
bbc ebecc
dbe debd
fbd fdc
ecbd bebc
fef bbbb
bebbc bbd
bbed beebb
dbbc debb
bcf bfcc
ecec becc
eced dcc
ebb bedbf
fee eebc
ebec debc
ebcc dbf
fed bbcc
bbbec bebc
bbc bbebf
ecc fccc
ebbc bedd
fbd beee
bcec dbec
bbfc bbd
bbebd bec
ecdc ddc
ebd dbbbc
dbe bba
bbbf beebb
bbdc bbcc
bedc dbd
eec bcebc
df e</w>
ebf bbebc
dbc ecbe
eebd ebcc
bf eebef
bbc bdec
fbe edcc
ebe ebbbd
bdc bded
bbee def
bbbd beed
bdbe ebcc
ebe eebbd
eec bdebb
eebc bedd
ef bebdc
ebe eeebf
bcc beebc
efc bedd
ded ea
bbbf febb
bcbf bebe
fbbc fbc
bbbb ecbbc
bbbd da
ac fec
fed fed
bbdc bebd
bbd bdebe
ff bcef
dbb efdc
dcbc ebd
bf fbbbd
dd ecbbc
ecc eedbe
df dbbf
ded ecbc
ac def
bced bef
bbee eba
bebc ebdc
bbbf becc
bbed fbd
ecdc fbc
ebbebb bbebb
ebbbc edc
ebb fddc
dd bceec
dbc bbebc
bbbf dcc
bbef bbec
bbbec bbec
bebbc eec
ed dd</w>
bdc febe
bbbc eebe
debb becc
fef ba
ffc bbf
a bcebe
dbc bcee
bbbf ebec
fcc edcc
dbbc fbc
beef eeee
dcee dec
bcbc bebf
bbbf fbe
fbd fbf
bcbbc bcbbc
bdee fec
ebbee ebd
ebe ebccc
dbd bebf
fee fa
debe fbc
bcec dbf
eec bddd
ccc fdd
bcbbbb bbd
ebe fbeee
fc eea
dcc decc
fbf bbcc
beebe bbebb
bcdc ebc
eced a
bbc d</w>
fc febd
bdc fa
bbee bedc
debe beee
bdbc bbed
bca a
ef ecebc
ebc dbbee
edc ecbe
edc bded
ddc ebbc
bcec efc
bdbc eebc
befc dee
bdbf dd
ef ecdf
df ecdd
ebf dbbbb
bfc febb
da ebd
deec becc
bfcc ff
ee fedcc
bbbd eeee
eccc fbd
dedc dee
bcdc a
bdbc fcc
edbc bef
df bcdd
bfcc a
dcdc dd
ecbbebb cc
dbe bbebd
bbbc bedd
dbb ecbbbe
fee bbed
dbbd bbdd
ebe bcbbf
dbe bcef
edc febd
eef bbebc
bbef bbd
eeebe eeebb
bcc eefc
df fbec
bdc edcc
ba bdbd
bfc bbebe
dbbc bbdc
da eec
bdbe debc
bfbd a
dcbc bef
bbbe bebbd
dbd beebb
ded bbdd
bbbf efc
eef b</w>
bcfc fc
bf ebdcc
bec bddc
fec bedd
ac eac
ecec ebbc
bcbbbb bcc
bc bbbac
bdc fbec
dbb dcebc
bbec bedd
fed ebbc
dfc bebc
bedc ebbc
bbbb edbd
bcbe bbebd
bebbbb bebc
edbf ccc
ebc bcdf
bbec bccc
beec dbec
eebc cccc
eecc bbbd
eecc eebd
eeec fcc
bcebe ccc
fdbbd cc
bf bedbb
ed dbbebe
edcc ff
dcbbdfdd eecfdc
bf deecc
ebc dbfc
ebc bcebd
dbe febe
eef dbcc
ef beedc
ebc fbbbe
bbc bac
bbd bebbbc
bebe bbdd
beec bccc
bbfc bfc
bdcc a
bf eeebd
dc dbccc
edc eebbc
bbbc beebe
bbbd debc
becc ecbc
bbebe eec
beebb bbbbc
bebbc dee
ecee ecbc
ebbee bbef
eebbbe bbee
ecddbccffc ecebebdbbbe
ef fbeee
dd bebcc
dd beecc
fbd ebcc
eecc ecbc
bd de</w>
dc bfa
ef dcdd
fc bedf
ebf dbec
da dec
bedc debb
eedc ebcc
ecf debe
eeed ecc
febc ff
eddd ecc
beee ac
bcebb ebbc
fbbc bbd
eec ecebb
bbee bcee
bbbd bddd
fee efc
fee def
eebc bbdc
dbbd ba
fc fbbd
fc fedc
bbf deec
bebe fef
bbfc dec
ecf bbef
dcec ecc
ebb fded
ebd bebbbe
bef bbdd
dcc bced
beec bcbd
bbebe beebe
bcf deec
bcec ba
eedd bdc
ecdc a
bfcc bbc
bd bbebdc
dd eebec
edc ecbf
dee fed
eebc ecbd
eecc fed
dfc bcbc
ebe eebcc
ebc fccc
bbbe ecbd
ebf bba
eebc beed
debc bebd
bbbec bbd
bbbb dbbee
ebd eebbbb
bbbe bcebc
eebc debe
bcec ebcc
debd dbc
dbcc dbd
fc dced
dee ebdc
bebe cccc
bebe ebbebb
bfc eeee
dbb acc
bef bcbe
fcc febb
fbd debe
eef deec
ebfc ff
bebec bcc
ded bbdc
eecc eedc
bded a
bf bbfcc
dd fccc
bcc fdf
edc fbec
eeebb bbd
dbbf df
ee bbe</w>
ebe dcbd
bec eeebc
dbe beebc
dbe eebbc
ebbc ffc
dcc dccc
eecc bbcc
befc bbc
bdbbbb bbbc
ebc e</w>
fc bdebc
bbbd bbebc
eccc beec
eeec beec
dbbf bbc
fecc a
dcbc bbbc
ebf edcc
dee bbecc
bbee eebbbb
eebc dfc
eeec bebd
bdbbc bbbb
bbbd ebcc
efc beebb
fbe ecbf
bebbbb bbec
eded df
bbbbbd bbbe
ed febec
dbb ececc
dec bbdd
fbe dbbd
bbed beed
bedc bebd
decc eedc
ecebe ccc
dee beebc
beee dbf
debb ecbc
bebf ba
bcdc dbd
ecee fbd
dcdcdcdc dcdcdcdc
ebe ebbbbc
fc deecc
bbee bbdd
ded eedc
bbed debe
ebbbd dbd
edee edc
fc eeef
bec beeec
dcc ebdc
ebec def
ddc beec
bbed dbbbb
bcdebc cc
ebc bebbbc
ecc bdec
fbc bced
eebd bcbc
bdbd ebd
bbbb ecec
dee bcbe
debb fbd
dbbc ebbc
eebe bbfc
fdc bbd
ebbbd df
dd bdee
dbe fa
dbc bcbe
dcc bcdc
beed bbec
bebf bbbd
ebbcc bbc
ebecc ccc
bedbbbb cc
bf eedbc
bbbb bcbcc
bbbe dbcc
bbbe ffc
bbbbc beebb
bea bbc
bef eef
debb bcbd
ecbf bcc
bc bf</w>
dd fbbf
bec fdf
bbbe eccc
dbe bbbcc
dec ac
bbbbc bbdc
bdbc efc
dded ccc
bf eefee
ef eefee
dbe febc
ff b</w>
fbe ecdc
bf dac
ef eebcc
bbf bbbbbbbb
bbf bcbbbb
dbe bbeec
bbbc ebdc
bbebc bcbc
ecec fec
bebbd bbc
a bdebb
ebe bdebc
ddc becc
eebc eedc
dbbc bebd
fdc becc
fef fbc
bebbbb bbbf
febe febe
bfcc fec
fbbbf bbebf
ebd bcebc
ff bcebb
ebbee bcbc
bfbc dbd
a ecef
fee ac
bbebb ea
dbbc edc
bcf ebfc
ecbd fcc
bfcc df
ebe bcdbe
bcc febd
eec debf
eec beebd
bdc eced
bbee dbbd
eecc bcbc
edbc fbd
bf bbea
ebb f</w>
bbee eebf
dbd fdd
eeee bfc
ecbd bbbc
bbbcc bebe
bedd dbc
bbebd bbc
bdbc bbbbc
ec fbfcc
dd ecbec
ebc bfbd
bbd efcc
bbec bcec
fbbc dbc
bdbf df
bdec bbbc
eefc df
ebe bfbbc
decc ded
efc eeec
ebec ecbc
eebc bbbbc
bbdd fbc
dccc ecc
edc bcbe
edbf ecc
ebb beded
ef bdbec
bbd eddd
ba fed
ebbc dbec
efc ebdc
bbebe bebbbb
eedd dee
dbbbe bebe
bdbc beec
bedbb ccc
dc eeff
ebc ddcc
ba eeebb
dcc ac
debb beec
fcc debc
bbdc beec
fbf ebd
fbf beee
beebb bbbf
dccc dee
eded dbe
dcc debc
efc fef
eba bbbc
bcbbc fc
bbbbebb bbebb
dd fbdc
bbee da
bbbd bdbbbb
ebcc ea
bedd dbd
ecdc ded
dbdc dbe
dccc df
dd fdbc
dec bcdc
bcbc ecbc
bdec bfc
dcec dbc
bbbbbbbbbbbb bbbbc
bbbe fa
efc bebf
dbbf ff
bcef a
bfcbbefbedd dcbbdfddeecfdc
dc debdc
dc fddc
fc bedbe
dbf bebd
eebd fdc
dbcc ebd
bdec beec
dd bbbbbbbb
ebc ebbbf
ebc ecebe
ebc eedf
eec bac
ded bdbd
fbc ac
fee bbbbc
fed bebd
bced bbec
bddd dddd
bf fefc
ed ee</w>
df beef
bbbe dbbbe
edc eddd
bebe bcdc
dec beecc
bbebb beebe
eebc febb
eebe bbbcc
edcc dbe
be df</w>
dbd ac
beee ecbc
fee ecbc
bcbd ba
bbebc ebd
ecf decc
eeef bbf
ebe fbdc
ebc ecef
ebf febc
bebc eeec
bfbd ccc
bcbbebe cc
bdc bcebb
bbee febe
ddc beed
dbf bbebb
bbbf beec
bbbb fbcc
ddc bbcc
dedc ded
eced bbf
ed bbeecc
fc fbbf
bdc bcbe
beee eccc
eebc dbec
eedc bbbb
bced ecc
bdebb bbc
bef dbbbb
bcec ebec
bedc ebf
dbdc dbd
bded eec
ebe ebbed
ebbc ecbd
ddc dcdc
eba ccc
dbcc dee
ffc ded
bfbd bbf
ef bcbbf
ff fdf
bfc da
bcbc bdbd
bbbec bbbd
bdbe bbebc
fbec df
deba cc
ebe bbbfc
fee eeebb
bbed ebcc
dbcc ecc
bbeec a
f dbb</w>
ee ebb</w>
ed bebbed
ef dddd
bdc bcef
ff ecdc
eeee eea
ebdc fcc
bcf bbdd
ecebb fc
ef ecbbbb
ebd eebec
edc bfcc
ddc ebec
dbbf bbbb
fdbb a
df bcbbc
bbf fbbd
eeee bea
ecbe edcc
bbee bcbe
bbec fbf
bdebb bbbe
ec dbac
ded beebb
ddc ebcc
ddc eebd
bebd fed
bbebe fbc
dbcc bdc
ecec ebf
ebbbd bec
ef fedc
dd bfdc
bbc bbbbcc
bbd bbbbbbc
dbb ebeebe
fef ecc
fecc fc
ebbee fbe
ed feccc
ef ebbef
bbbc eebf
bfc bedd
bcee deec
eeec fed
ebbbd dee
ebb bbac
bcc bbecc
df bcfc
dbe decc
ebf bebbbb
ba bcbf
bbee eebd
ea beebe
efc bbebb
ebec fbe
ddc fdc
dbbbb dee
bcee fbe
bbebc beec
ffc dcc
ecdd dee
dc fefc
eec beccc
bbd ecef
dbd bcec
fdecc cc
ebc ebbed
ebbc bcbf
dbd ebdc
bcbc beebb
fcc bbbd
def dbbc
ecec beec
ebb dac
eec bedf
edc beef
dbc bebbc
bebe bbfc
fbc bbef
fee eebf
bbdc bbebb
dbbd ebf
dbbf fc
ecebb bbbc
ef bdbe
edc befc
dbf bccc
bbebe bebd
eeebe beebb
bbc e</w>
dbd febb
bdec bbec
bcc feec
bcc bedf
fbc bcbf
ebcc bedc
bbbf bebbbb
bebf bbcc
ed ec</w>
dd bfed
bbd ebecc
bbbc fef
bef bbbec
fa bca
eebbbb bbee
ebb beebec
bcc fbbbb
df ecef
dbc bbfc
fec debe
dbbbd bbbd
ebe eebec
ebc bebdc
ccc ebbc
dbd bdcc
bcbc fed
fcc ecbc
fdd bbf
bdf dbec
dbc ecdc
efc bbbbc
ded eccc
fee bcec
febb dee
fbbc bebe
bec eefc
bbd bbebf
bbd bbcbbbb
bdc beebe
dcc dbbc
dcc fbf
bebc bbdd
bbebb fbe
bbebb bebbbe
ecee dbec
dcbd dbe
ed bbdbbbb
ef bbba
bcc edbf
bbee bbfc
fbd dbbc
ecbd ebf
bbebd bbbe
bea bbbb
dc fdbf
ebe ecdf
dec bcebb
ebcc ba
fec bbed
fdc bbbe
bded fc
bcebe bbbb
eebeee eeee
ef edef
bdc ebfc
bfc bced
bcf bbeec
eedc ebbc
eeebb dbe
eeed edc
ffc eec
bbc fbbbe
ecc beebc
bbee bebbbe
dcc fbe
bbebb bcbbbb
fdc ea
ebe fbef
bbf debd
bebe bcbbc
bfc bbdd
bbebb bcbd
ebcc ecbc
bbbbc ebec
eeebc ccc
eeecc ccc
dd bcbbd
bbf fbec
dcc b</w>
fbbc dee
ecbf ff
ecee bbed
bbbdc bbbb
aa a
ec bbbfcc
ed bebbbf
ebc eac
bbd ecdd
dedc eecc
ebc bedbc
bec febd
bbf eeebe
dbb dcbec
bebc fbe
bbec bbdd
dccc eec
bfbc edc
ecc bcebc
fee bbdc
fee dfc
dbf fbe
fbd ebec
bbdc debb
bcee eccc
ebfc bbbb
bf fbbdc
ebe dbfc
ebe ecfc
bbd bdef
ba bbef
dbc bcebb
dcc bbbf
bbec febb
fec febb
bebbc ebd
fecc df
ececc ccc
bd dbfcc
beed bebd
bdf bbdd
bbbbbd dbd
cccccccc ccccccc
dd fedc
ecc c</w>
ebf bedd
dbc bcdd
bbbd bbbec
eeee eba
bbebc bbee
dccc fc
bdcc bdc
edbc efc
ef edbbc
ff eeebe
eeebb bbcc
bc bbe</w>
ebc bdebe
dbe bddc
ba fef
ba dba
debd bbbb
bebbc bebc
bf ffcc
ed fdebb
bbc beebd
dbe ecec
ff eebd
bcbc bcbf
dbf ecbc
def ea
ef bcdbe
ecc e</w>
eec eefc
bbed fbe
bbbcc df
eeef ebf
dc ebbdd
dd bfbf
ebc bfed
bec bfed
ecc ecef
ebbc bebbbb
ecbc bbbf
bcf dbcc
eeebb bbbf
febc dbc
fdbb ccc
a bdef
bbc beecc
bec bfdc
ea bbebe
fed fcc
da bbbc
beed bbbd
eebc fbf
bf fbbcc
bbc ecef
dbe ecdc
fec bcec
debb efc
debd bcc
dc fded
ef fdec
bbd beecc
bbbe befc
bbbc fbbbb
bef bcee
becc bccc
bcbd beec
bbc bdee
bbef dec
edbd bcc
bd dbbebd
dc dedcc
ef bddf
bec bdec
eec e</w>
bfc eccc
dbb efbd
ddc eeee
dbec ebbc
bbebc ebbc
bdcc dee
eec defc
dbbd beee
dedc ff
bcdc bcc
bdc beef
bdc bcdd
dbb ebdcc
dbb eddbe
bbcc ea
bbebb bebbc
bcbc bcbbbb
dbbc fee
dfc beec
da ac
decc dee
ecee ea
a bbebd
fc bdef
bbf bedd
bbcc bedc
dbbbb bbed
ecbf dbc
bded ff
ebb bd</w>
ecc ebecc
ebd fdf
bbcc beed
eebe debe
eebd dbf
fdc dbf
ba bbdd
bbbc bebec
bbee ebbebb
bcbc ebcc
dbec fec
beebb beebe
fdd eecc
eedd dec
ee bbd</w>
ebe bbbbbbc
ebc bdee
bbf fdf
bebd bbbf
fbf bbbd
ecdd dbc
eac df
bbc bcbbbc
fbc eccc
bcbc eeee
bcec debc
bbbec ebbc
eac a
bbc efcc
dcc eebf
eeebb dd
ecee bbdc
ebb be</w>
bbf bbeec
edc dcdc
eedc dbd
eac da
ebbbc ded
ebc bbebf
eef bbbcc
bced bbbb
eeebb dbc
fdd bfc
dbbf dd
dbb ebebbc
eecc ea
bdbc fed
ebbbc bbbf
bf bebbbd
fc ebccc
bbf eebbc
fbc deec
dbbc eebc
debc ebf
fbf fec
bddd ccc
ddc bcbd
eeee bccc
bebd bdbd
bbbec dd
ebbee dcc
ebbee ea
ef dcbc
edc bcebb
bebc ecbd
bebc bcebb
ebcc ebdc
eef dbbd
dbec bef
beed fec
bba bdc
ebe edbbc
ebc defc
bbf fbbf
bbbbc bbebe
fbbc eec
bddd dbe
bddc bddc
ddbd ccc
a ecebb
ec bbeba
ebb ebfcc
bcc eeef
dec ecbd
beee bebbbe
debc bbee
beebc bec
bd beeecc
ebc bbedc
fc bcbcc
df fecc
bbbc bcdc
dcc bdbd
bbec dfc
bbebb bbdd
ecbf fbc
bf eebbbc
bbf edbd
dbb ebebd
bbbbc bccc
becc bedd
febb ebbc
ecdc dbd
ebbbd bbbd
edc bbfc
dbb bc</w>
bef ecbd
bdbbbb bdbbbb
bbbbbd bbbbbbbb
ef bcff
ecc fdbe
ccc fed
f bbbb</w>
ebc bedee
bcc ecef
bbbe eba
bbbe bbecc
bbf befc
bbee ebdc
bbcc def
becc bbed
bbef bbbd
eebd bef
bba dbd
edbc ddc
bbc ebbbbbb
dcc edcc
ded ebdc
dbec eecc
fdc ebbc
bbbcc dbe
bded dbc
edbc fee
bbbb bbbfc
ebf befc
bdc efcc
ff bebbc
bfc beebc
beee debb
ecee debb
bbdbd dbd
fec ffc
bbed dbbc
fbd bbbf
debd ecc
febe bef
bded dbd
ebc dcdd
bcc ecdd
bbd ecf
edc bddc
ebec ebdc
debc bbec
deec ebbc
a dccc
bf eeeec
bf fea
ebb febcc
ebc eeecc
bbbe bedd
ba bdbf
bbbc eedc
beee fef
eebc def
becc edbd
eebe def
eeebb beebe
bebbc dbc
bcef dd
ebbbc bebd
dced dbe
edee dec
ebb debdc
bec ecfc
bbf bebec
edc dbbbb
becc fdd
eccc bbec
bccc bbec
ecdc ebe
bec c</w>
ea fef
fbd febb
eebe b</w>
ecbe da
bcf dbbf
dbec beec
fdc fdc
febc dbe
ebbbc bbcc
ebbbc fee
dced dec
bcc eeebe
bbbe eef
ea fa
debe bef
dbec bfc
bbbcc eec
eebbbb bbebb
bbbbbbc bbbbbbbb
bf bebbcc
ef bbbfc
bec ebbebb
bcc dbbf
bdc fecc
bcbc eecc
fec ecbc
eba df
bcbf bfc
ed fac
bbc eddc
ecc bebbbb
dee bba
bebe fbbc
bcbc dbbc
bcbc fbf
deec bbbb
ecec bbbd
dbbbe bbbc
bcbbd bbbb
eedbe ccc
dc bbcbbc
bbbe bcebe
bbf eedc
ebf eedc
ff befc
ebec dbbc
eeec eedc
bcbf dbc
ecee bbdd
fc bfbf
ebd c</w>
bcc eddd
ebbc eebf
bbbbc bebbbb
ecbe bbeec
febb dec
be ebe</w>
ecc b</w>
ff dccc
bbbd fed
eeee dbd
deec bfc
bedbb dd
bdc edbd
dbf bbbf
dbdc a
dcbd a
ebe eca
bbd bdee
ebf bfcc
bebc bcee
bbebb eebd
fec bbdc
debb eebd
becc ddc
bbebe bebf
deec bedc
bd bbbbbbbbbbbb
dec b</w>
fbbc bfc
bdbc debe
bddd dbc
bfbc ded
dbe bcdd
dee dccc
bebe ecbd
bebc bbef
cccc bcc
ee bbbac
bf bebbebb
dc bbcbd
bbee fef
bdbbbd cc
df eef
dbe beef
ba bfa
dee dbbbb
dec ffc
bbec bbbec
ebec bbdc
fec ebdc
febb febb
bedd ded
bdbe bbbec
bcbbbb bec
beecc ccc
edee bbbd
bbc dbbee
ecc bebcc
ebdc edbbebb
ecbf fcc
bdec ddc
dc fbebc
bbd bca
bbbe fdd
bebe fed
fdc bbbc
bfbd fc
dcec dbd
dc febbc
ef eeebc
ecc eebcc
dbb dcfc
bbebb fbd
bbed eebc
ac bbcc
eba bea
ecdee ccc
dc ebbebc
ecc ecfc
dbb ebbfc
eebe dbec
bdbe bbef
fbbdd cc
a edbd
bbbb eebbbe
ebd eefc
bcc bbebd
bbbe bdbf
bbee fed
fbe bbeec
beec eebd
decc bdc
bbecc bec
fecc ebc
edee bbcc
bbbb eedc
dd eedf
ecc bebec
df eeebb
dbe bebec
dbb ebba
fbc fdd
bbebb bbbec
debb fcc
bbed debc
ac beee
deec eedc
ecf dbcc
bdbc dbf
bdbc bbbf
dd ebccc
fc bcecc
ff bcbe
beec da
ac ddc
bebd beebb
eebe ebbef
bdbc eebd
bdec ebe
bedbb bec
ebbbc dcc
ebd fdbe
bbd bfdc
fbd debc
ecbc eecc
dbbbb bdbd
bbcbbbb bbbbc
ed de</w>
ecc fdf
def efc
beed ebbc
bebbbb ccc
edbd bebe
bdf ebdc
dd beebd
dd ecfc
ebc dcbd
dbe bdebb
bebc eccc
ebcc eeec
eebe da
fbf bbbf
beebe eeebe
fbec fc
dbb edbbd
fef dcc
fa ba
ecee eccc
ecebb bec
eebbef cc
dd bac
bbc ecdd
ebd beebd
edc bcf
beee cccc
fed bedc
dfc fcc
febb bebc
bebf ebbc
bbfc bbec
ecf da
eebbbb bbbc
bbcbbbb bbbc
ed bebccc
ef fbbbc
bbd bfbd
bbebb efc
fbe bded
ddc dddd
deec debb
bbbcc ebe
fbcc df
bfec bbf
bceebd cc
ecc ecdf
eec bebbbe
ebec beed
beebb eeebe
eedd bcc
bceebecbbecbbdbbc bbdbf
bd ebac
bf bbebec
bf beebbc
ed bbac
ed dbbef
bdc bbebc
fbe dbbf
dbbc bbed
bbef bbbf
fdc eebd
fdc eedc
febb bfc
decc bebc
bdec fbc
bbbedfc fceebcbfdbbbb
bd dbbfc
bd dbbbcc
ebb bebecc
ef eeebf
bbc bbebbc
bec e</w>
bbd bbccc
ba debe
dec bbebc
dec befc
bef bdbd
bbbd dddd
bbebb bbdc
becc edcc
fbf dbd
ffc bfc
dedc edc
edbd ded
bcdd dbd
edbc bbcc
bedebd cc
bbf bded
bbee bbeec
dbb eb</w>
debc fbc
eba ff
bbbcc ebc
bdee ea
dd beeec
bcc bbbbbbbb
dcc bedd
dbdc dee
dbbbd dbbbd
ef ecebe
ef bcccc
ecc eedf
dbe bcbbc
dbb be</w>
efc debd
dfc def
bccc bbee
beebb dee
bfec bebc
bbbccc ccc
bd debfc
ecc bbecc
eec ddcc
ba bbba
bbdd debb
bdcc ebc
a bebec
bbc ebbbf
ebf dbcc
ea febb
ea beef
dbf fed
bbebe dee
ebbbd bebe
bfec bfc
bfcbbefbedddcbbdfddeecfdc ecddbccffcecebebdbbbe
ebe bebbebb
eec bcbbbb
dbe bcebe
ebf dbbd
bbbc bcf
ebec bcec
ddc eccc
deec eebc
bebf fcc
bebbc ebbc
bcdd dee
dcbc bbbe
ebb fbbed
dc eedbd
eec bedbc
edc b</w>
ccc bbed
ac efc
bbdc bbed
fdc debb
ebb dbbbf
ef bdeec
ecc ecbbc
dbe bfcc
bbbc da
dbc decc
bbbd bba
ddc fdd
bced bdc
eeed ded
a dbbbe
a beebc
ecc eeebe
bbd bbbbbd
dbe edcc
eebf df
a bbac
bbbb c</w>
dd bdebe
fc beedc
bebe ebdc
bebe bea
bebe bcbbbb
bebc bcbe
bbbbc bbbcc
ebfc bbbc
fbbc bbee
bdec bbee
dcec beec
dc bbbbbbc
dec dbcc
dcc bbdd
fbe ecbe
fbe bbebd
becc ebdc
eebbc bbf
ebbee dbd
dcbc fee
be ebc</w>
bdcc ebd
bec eddc
ebf bbbcc
edc eefc
bbec bced
bbbbc ded
eeed bbbe
fdebd cc
dbc eeebb
ea bebd
bbebb bbef
bcbc bbdc
bedc ebcc
bedc beec
bbbec ebd
edbd ff
bdcc ff
dcdd ccc
eedee ccc
bef eeec
bbec bcebb
ebbbc bbed
ebe bdfc
bebe beebc
bbbbc beec
bedd bcc
bdf bbfc
edec dbd
ecc ecf
bef bea
bcbc dfc
debb bbebe
eeee ebbc
debc ecbc
bbdd bfc
dbec bbbc
decc eccc
ecbf dcc
bdf bbebe
edee fbc
bbd bbedc
dee beecc
dbc febe
ac ebbc
dbec dcc
bedc dcc
bcbf ebc
bec fbbd
df eddc
bebc bebbbb
bbec eeec
fec eccc
eeed dcc
dbe edbd
bbec ebdc
fbc febc
bedd ebd
eedd dbd
ecdf ccc
bfbc fee
bbbbebb bbbc
fc bceec
eeee edc
dfc bbbe
edcc bdc
a bcfc
ebe efbf
dd eea
eec eddd
bbd fbbbe
bbbbc bcbd
bbef ea
dfc ddc
bbfc bdc
bedc bbbd
bf fded
bcc bcbec
dbe eebf
efc bcec
bbcc eedc
bebd dbbc
fbf ebbc
dcec bdc
dc bebbec
ef edbc
fc beeec
dbe eebbbb
dbc ecec
bbebb becc
eeed ddc
fbec bec
ebb bc</w>
bbc ecf
eec eeef
bbd dcdc
bebe eeef
bcbc bcbe
debb fed
ecdc ff
bd dbbebc
bbbb bfcc
bbc ecbec
bbee bdbd
bcbc ea
bcf dbbd
eebd becc
bbdd dddd
eebbc bec
bf fddc
df bddc
dbb bfebc
bbfc dbd
dbdc bec
ebbebb bbf
ebf bcbbc
bbbc ffc
dbb dca
bef bbbcc
fbc fbbc
eeed bbf
fa bcc
bdec ef
ebbee bbed
bfbc ba
ebe fbbbc
bbbc eccc
bebc bcdc
fbe ebfc
febb ba
bbfc ebd
dbbd b</w>
dc ebbfc
dd bcbec
ac fcc
def fec
dbbbb ba
bcee bbebe
bea bba
fc bffc
eec ebccc
bbbe bebbbc
dbe bdbf
ff bfcc
bbec bbef
fbc fef
ecbc fed
ecbe dccc
deec edc
beed ddc
bbbb bebbee
eec bdbc
beee bcdc
bbbbbbbb bbcc
bbbec dbc
bebbc ebe
bbc ecebe
bbd ecebe
bbbe bdbbbb
beee ded
eeee eebebe
debd ebd
eedd ebd
bcecc ccc
bbbb bdebe
bbbe deec
bebe dfc
bcbe ebdc
dbbbe bbf
a bddd
df bcebe
bebe eccc
bebe bbbcc
bbcc fdc
fee bba
def fbd
eecc bccc
fc bdbc
df eebe
ebf ebfc
dee ecdc
dbb edeec
bef bcdc
ecbd bbee
bced bebc
ecbf ebd
bcebc ccc
bbbb bebbebb
bbc bceec
ff fbcc
dbc bdcc
bef deec
efc fbbc
bebf bcbc
bcbbbb bcbc
bbc eea
ebf deec
edc fbcc
dbc eced
fbc bbfc
bbcc fbe
eebd ecbc
ecbd ebbc
ecbd debb
beebe bec
dbbf ccc
dd dfcc
bbc bfed
df ebfc
dbbc ba
bcbd bdbd
bcec eebc
bbebc bbbd
be ebd</w>
bbec beebc
bcbf ebd
bcbf eec
edbd dec
efcc eec
bd bacc
bbc ecee
df ecebb
dcc c</w>
ded fdc
bebd ecbc
bcee da
febb dbd
ebb fbecc
bbbb eced
bbd bceec
bdc dcdc
bcdd ddc
ebbcc eec
a bddc
bc deac
dc beddc
edc bcef
ebcc fbe
bebf dec
bedc bedc
bbbec dec
dbfc abca
bfbc bbbf
ebb beefc
ebe ecbcc
dd fdee
bef b</w>
dbbbb ebc
beebb ea
bcec fed
bbbec ff
a fbbf
bbbb beebd
beec ecbc
dbbc bbebb
bdec ebf
bf bedec
eeebb ba
fef bbbc
bcebb dee
ebb beddc
ebb febec
dd ebbebb
df eeed
dbb ecbbf
dcc deec
efc febc
bebd ea
def bbbd
eebf eec
bebbc ff
dcbc bbee
a bbecc
dc bebfc
bbbb ebbbd
bbbf bbef
bbed bedc
ecdd dcc
fbbbb bbbd
dcbc bebc
fc d</w>
df fccc
bbbc febe
bbebc dbc
ecbf bbf
eebbc bbbe
ebd bcbec
bbcc dbbc
ac debb
ebdc ebcc
fdc bcbc
bcfc dbe
dd ecdf
fc fbdc
bebe eeec
ebec eedc
bebd beed
debc ebcc
dfc bbec
dbbbb bebbbb
dbcc bbf
dbbbe bec
ddbd dbe
ebbec bbbe
ebe bda
ebc fdbc
bcc bcebc
bbed bbbf
eeee ddc
fbd bedc
eded dbc
ebec eebd
bbebe edc
eebe bbebf
bcbe bbecc
dbec bbec
decc efc
ecec ebcc
edee ba
bccbcc bccbcc
ebd bedf
bcc bdebb
dbd bced
def beec
bbdc eecc
eebe bbeec
bbdd bebc
bcbd bbed
fa dbe
eeebc bbf
bfbc eebc
ed fbccc
ef eebec
ebd beecc
dee dbbd
bbee bea
bebbc bbbd
ffc fbc
edbc dbf
dddd bebeecebc
ecebc ccc
bec debf
ea eebc
bebbbe bbf
bbbbcc ccc
df ecf
ba fdc
bbebb fbf
bebd febb
bcf bbbcc
bbdd beee
bcebb ff
ecee bbbbc
bdbe dfc
bded ded
bfbc beec
eebbbe bbbe
fc bcbbbb
fc bdfc
df bddd
fee ebcc
eebe dbbd
bbdd ecc
ebbebb bebe
bfec bdc
fc eebcc
dbb efdd
dec ecec
dcc dcdc
debe becc
bbebc bbec
bbfc ded
bfbc fcc
fcccc ccc
eec bebdc
fec eebd
fec bebf
bbdc ba
bcbd ebbc
bcbd bbcc
fbf fbd
decc ebbc
bbbcc dee
ebd bbecc
bbdc becc
eebe ebbbf
bbbec bdc
beef dd
fdbb dd
edee fcc
bbc eddd
bbd ecbec
bbd bbcbbc
ecbc fdc
bbebc ded
eeed bebc
ed debfc
dc ebbbec
bec ebccc
bef eba
bbbd ac
debc fee
dbec debb
eebf fbc
eeebe eeef
bbba bba
bcc eeebc
dcc ecbd
ebdc ddc
bbdc eebd
dbec fbc
beebb febb
bcbf ebf
eebbee beee
bbc eded
bec bbbdc
bbd ebbbd
dbc fbbc
bbbf bbbbbbbb
debc eedc
bdbd ddc
ebc edbc
ebec bedd
fbe bdebb
bbed ea
dfc bbee
bdbd bebc
decc dbe
ecec debb
bdee efc
bfbc efc
a bcbbbb
bebbc dec
dcee bbec
bbbc befc
bbcc debe
eecc ebdc
ee bbc</w>
fc bbccc
bcc eded
ea dbbc
bcbd dbf
bedbbd cc
ebc edbbc
ebc efdc
bbc ecebc
ecc edbc
ebf debd
bdc ecbe
bbcc fbf
fbbc dd
bebbee bbbe
ebc bdbbbb
bbd bcbcc
fed fbd
bcbe debd
bccc beec
fdc fbd
beed bedc
bbbb fbbbc
bcc bedbe
bbd bfed
dbd eedc
eef dccc
bccc debe
eeec dfc
bebf eeee
dbcc ebe
eeebb df
bebbc dd
ecdd eec
bfbd ff
bec debbc
ebd fedc
bdc bddd
eecc bedf
bccc efc
ecee fec
ef eebbd
fc bca
bbf fbcc
dbb eddee
bebc fbf
ded dbbbb
fed debc
da fcc
febb bbec
ebb bbb</w>
bbee dfc
bcbc eebd
debb ddc
bdcc dbe
bea ccc
ebb dbbed
ef ebbbbc
bec eeebe
ebd eded
bebe debe
fbc eeec
ebcc def
bbed bbbbc
bbed bbdd
fbd fbe
bccc fee
febb bbcc
dcbc edc
dcbc bfc
ef bedbc
bbc bdebe
fc ecebc
ebd bdec
dcc bbebb
ebcc bbbf
bebd dbbbb
bea ba
ebbebb bbbc
dcbd eec
bec dbbbc
bbd bda
dcc cccccc
fed bbbd
decc ebe
ecf bbdd
ecf deec
eced edc
bdbf ccc
ebd bcebd
bbf beebc
bdc c</w>
dee debd
ebbc eccc
dec eeee
ddc eedc
eebc bebf
fed ea
bcee debe
dbcc bbbe
eeebb beebb
febe ecc
bdbe b</w>
ebe fdbc
ebd bdbbc
bbd dcdd
dbbd bef
bcbbc ff
fbec a
bbbbbd bbbc
bf fbbbf
dc eebbee
ef bbebbc
bbc bcbbbe
bdc ecdc
bebe eef
bebd def
becc ba
fdc beec
bbbec bef
bcebb bbbd
eebbbb bbbd
bc dbac
bec bcbcc
bec eebcc
ecc cccccc
ebd eebcc
eec dbbbc
df fbbbb
bbee eccc
ebbc eeed
edbf a
dcbc bbec
dd bcdf
ebd ddcc
dbe ecebb
efc ecbd
bcbc fbe
bcbc bcbbc
eebc ac
bba bbebb
ebb fdebb
df eedd
bbbe bbebf
bebe bbbbbbbb
fbc da
fcc decc
beec bebf
dbbc fec
beed bbcc
bbbb bedbe
beec bbbbc
dc dac
dbe bcbec
dbc bbbec
fee bcbf
eedc bfc
ffc fec
bcdc bcdc
ebbee bbcc
ed ed</w>
ebe beccc
bbbe febc
bebe fdd
ded beebc
bdbd ebc
fbbd fc
ebbbc ba
ebe bfed
bec bdbbc
bbebe dbd
ecbe bbfc
bcee dfc
ebe eded
ebd eeef
eec bdec
bbbc ecbd
fbe debd
bebd deec
bbdd bbebb
bdc bdbf
becc debc
dbbc bbbbc
befc bcc
fdf ff
bbbb ebbebe
fc ddcc
dcc bebf
eef debd
ecbe edbd
beebb dbd
bbebc dd
ebfc dbc
bcbbbb ccc
edec edc
fdbbf cc
dbe dccc
dfc dbf
eeef bbbe
df d</w>
dbe eebe
bef bebbbb
bbbd bedd
beee ebec
ebcc beed
ebbcc ecc
dbbbd dbd
ed dbfcc
bbf bcebe
bbee cccc
ebec debe
fcc fecc
ebdc fbd
dbbc beec
debc eebd
dbbbb b</w>
bcec debe
bbebc bfc
fef bfc
bbeec bebc
bdcc dbc
bdbe da
dc bbefc
dbe eced
fcc eeec
bbdd ba
bbdd bbcc
eedc ebf
eeebe ea
bcbbef cc
bebe def
dbf debe
fcc bedd
eccc becc
bbdd b</w>
bdbd ba
eebf dd
bcbbc a
ebd ebbebb
efc bced
fec bbebb
eecc ba
fbf bbec
bedc fee
febe bdc
dbdc bbc
dbdc ff
bdee bebd
feec a
bbbbbbbbbbbbbbbb bbbbbbbbbbbb
ed fdef
dee bcdd
dbb dceec
fbe bfbf
da ebf
beebb bcbc
bbbcc dd
bcbf bdc
dc ebeebb
ebe efef
ccc dbf
bbee bbebd
ebcc edcc
dbbc dcc
bdcc edc
edbc beee
ef eedf
ef eceec
ecc fbbd
bbf ebbebb
ccc def
dbc beebe
bef eebe
fec debd
eeed fbc
bec bedbc
ea ebec
ebcc dfc
bbed dbec
bcec eecc
befc ded
dcee bfc
ef ebbbbbb
ef ecccc
bbf bdef
bcbc bbebe
fed decc
eef decc
eeec fbd
bcbf bebc
eddc ebc
bec dcdc
bbbe ecbf
ddc ecbc
debb febb
eebd eebd
bcec fbd
deec ba
fbbc ebc
dbbf bbf
bbbb bcfc
bbbc beebc
bbbf dbbbb
ecbe dbbd
beda cc
ed beeccc
ef ecbbd
eec dced
eec dcbd
bbbe bea
ebf fbbbb
bbee fa
dec bbebe
debb bbdc
eebc fbe
bebec dbc
bbc dcdc
fc edbf
ecc eac
ebd bbbdc
eec dfcc
bbd ebbed
bbbe bcbec
bbbe bbbbebb
dbd bedd
dcc febb
dbf bcbd
fdc bbee
eedc bbbc
ecec ecbc
dbbf a
bdec edc
fc eeebe
fc bbbdc
fc eded
bebd bbbbc
ebdc bbec
eeec efc
beebe bdc
ef bebbbc
dd eebcc
ecf bbebe
ebd bcbbd
ded bbbf
ebcc bcec
bbed fed
ecbe decc
eebd ba
da eba
dbbbb bcbc
bebbbb beee
dd eebbbb
ebc febf
dbb ecdbc
bebc ac
fbc beebb
bebbbb ebf
beef dbe
efcc df
ebbbd bbbc
ee ef</w>
bbee debe
bbbd bebbc
ebdc bef
ef bdbbbb
ff deec
dbb ebebf
dbb fcbf
eebe edbd
bbebc bebd
beed ebe
bbfc beec
dbbd bbec
bded bbf
bceeefc feccefebbc
a bcebc
ebb bebbebc
ecc eeccc
bbf bbebd
dbe eef
eebd eecc
bdee dbbc
eddc edc
bfbc bbcc
ed bbbccc
eec eeccc
bdc bddc
dec febc
fee debc
bbebc bbebb
dc eb</w>
ef fba
dd edbbc
fc ecef
dee fdd
bbbcc ff
beebe beebb
bf fbbebb
dd bbccc
dd defc
df fbbd
bbbe bbbbbbc
dee eebbbb
dbc febc
ea bccc
beee fec
eeee bcbd
eeee eebbee
fdc ffc
edbc debb
ebbbd bbee
ebbebe bebe
eec dbfc
bbbd eeebb
ebec dbec
fbd bbed
ecbc dfc
beed debc
bced bbbc
ecee beec
fbcc ff
bbbcbbbc bbbcbbbc
ed fbbbf
ebbc fdd
fcc bbed
fbf ea
fdc def
beef ba
dc bc</w>
ebc d</w>
ebc ecbcc
dcc ecec
eebe dfc
fdc bebd
bdbd bbee
dbcc bbbc
bced bbbe
fbbc edc
dba a
ef fdcc
ebe efebe
dec bcee
fbc dbec
bbbf def
bbbf bbebe
eef dbbbb
bccc bbbd
bbebc bdc
bbbc bbebd
ddc eeec
eecc bef
bbef efc
bcf decc
beebb bfc
fdc ebcc
bedc fed
ecbd bef
dbcc edc
bcebb bcebb
bbebf bbbb
bdee ebcc
bfbc bbbd
dcbc beee
dd eedbe
fc bbedc
dee bcebc
bebe b</w>
dbd debd
ded bedd
ded bcdc
bbdd bef
ebfc dbe
eeebb eeef
bdbf ff
ebe beba
eec eea
dee bdebb
ddc dbbc
fcc eddc
ebdc debb
bbbcc bcbc
fdf a
fbbd bbc
bbd ebbbf
bbbbc fee
febe bec
ebd ebecc
dbd bddc
ded debd
eebc ecdc
bced bfc
ecec ba
ebbec dec
ebd bfdc
bcc dbbbe
dee bea
ded fbe
eeed bfc
bebbc bbebb
dbdc dbc
ecebb a
bdee fee
ebbebb a
ebc bcbbbe
fbc bcebb
fbd bbebb
bcbd fec
beed dbf
beed dfc
bbbcc dbc
bdbc bbdc
bcbbc bbf
bfcc ebc
bebec bbbe
bddd df
fbcc bec
ef ebbdc
fcc ebdc
debc bef
bebbc bdc
dcbc ddc
ebb dbbebe
fbc bedd
beee eba
eeee bbbbc
bbbec ecc
edbd bbcdbf
bdbf bbc
bbbb dbdc
bcc ecbbc
bcc fdbe
bbd bbebbc
beee bea
bbcc eeec
ebfc bbf
fbbd bec
ef fdbd
ef ebba
ebe bbbbcc
ebc ebbbbc
ebd ecbbd
bbbe fbec
dbe bebcc
edc bedbe
dee bbeec
dbd eccc
beec febb
bebd bbdc
ffc ecc
bdbe dbbd
febd bec
ebbc debd
bcbc debc
bbed bbdc
fcc eedd
becc eedd
fed bbee
bebf bbec
eeebe bbc
ecbf bdc
bcbbc df
eebbc bbbc
ebbee ecc
ef bbbbbbbb
ebfc dec
eebf dbc
eefc a
bf bedbd
edc ebbcc
bebe ecbe
ebbc deec
bbbd eecc
ebec bbebe
bbbf bcebb
eebc eeee
ef bcbbbe
fc bac
bbbe bcef
bbbd bcbbbb
dbbbb ff
fa bbf
fbc bcf
fbd bbdc
bba bbcc
eeebe beef
fbec ff
ebc bebbee
bbd bac
bbd bbdbbbb
dbb efebb
ded eebd
bbdd bbec
eedc bebc
bced bebe
ebc ebbbbbb
bcc bea
ebf ecdc
dee decc
ebcc debc
bbef eeee
bcee bbdc
bdebb ccc
bedee ccc
bbc ebbbbc
eec fbbbb
dbe bddd
dee bcbec
bef bdcc
bbbd bedc
ded dedc
bbebb dbf
ebcc eccc
def bccc
ecbc beed
debe ea
bbebc ecc
deec bbf
eded a
ebbbc debb
ebe bdf
bcc beeec
dbd dbcc
ebec dfc
debe ddc
bcbe dbbd
efcc a
bbd eebbd
df dbdc
bbbe bded
dee bebcc
fbe dccc
bbebc ebf
ecec eccc
fbbc dec
bdbc def
bbeba cc
ef dbecc
ef dddc
ebc ecdbe
ebd debbc
ebd bdbbbb
dbe fdf
bbbf eebc
eef bbbec
ecbd fbd
eebf ea
bdbc bbdd
bebbd a
bfbc fed
ed bebbdc
dc eeebf
ebe bcbbbc
dd bca
bbbe bebcc
bbbe bebbf
dbe bcebc
beee bcec
bbcc bbdd
bbbbc bbbbbbc
bebd bcbd
eef bfcc
da bfc
dbbbb bdbbbb
bddc bec
ebe dded
df fdbe
dbe bcfc
bbee fbbbb
bebc ffc
bbebc dec
debd bdc
bdec fec
ebbbc beec
bedbb fc
bcc ebecc
bbee bcbf
dcc fef
ecbc eebd
dbec fee
deec ddc
deec beec
bbebd a
eced ded
bebec bbbc
bbc eedbe
eec eeebc
bbf eba
ebf bcef
dbc befc
bbbbc bbbec
fbf dbf
fbf bccc
bdbd bef
fa bbbb
fdee ccc
bebebebe bebebebe
dc beded
bcc e</w>
edc bddd
dbb ebedc
bbcc beebb
debb bbdd
ecbc eccc
bcdc bdc
bedf fc
bd deba
dc bd</w>
eec bfed
df beebe
eecc dbf
debf ccc
bcc ecf
df edbf
ff febc
eeee ac
bced dcc
bcbbbb bbcc
ebbed ccc
dcdd ddc
ebb fbbbbc
ecc ecebc
ebd bfbf
bcc ecebe
eec bedcc
df eba
dbbc efc
eef bbebf
bebf dbd
eedc ddc
bcebb dec
ffc dbd
fbbc bdc
befc dec
ebbbd dbc
edee bcbc
ebd dbbee
fcc bcec
bcbe b</w>
fbf efc
bebbd bec
eebebe bebe
eebbebe cc
ebc bdfc
df bcebc
bbf b</w>
bfc eeed
ebcc eedd
bbbbc edc
eebe bfbf
fdd dcc
dbdc fc
febc dec
bd bcbccc
ed beebec
bbd eedbe
bebc eeee
bbbcc bbee
ecdd a
fbbd a
dcbc ebf
dd dba
bbd ecee
dcc febe
fec ac
bbebe ea
bdee fbd
dbc c</w>
bcbbbb bbf
eddd edc
bbc bcccc
bdc ecbf
ebec eccc
bbed eecc
bced ebe
bebbbb bbcc
bdee bbbf
bdec bcbc
edbf edbf
bbdbd bbbd
bf bedcc
ebd eea
eec ebbebb
ded eeec
beee eebc
ebdc beec
dbbd bfc
bedd fbc
bbebd bebe
bcdc bbbb
bfbc dbf
bec bbbbcc
bbd dcbd
bbbe ebfc
debb dbbc
bcee bbfc
dbbd fbc
debd edc
eebbbb bebe
edee dbf
dc eebef
ef dea
bbbc bcbbbc
bebc fdd
bbec bbfc
bbebb dbbc
ddc bbdd
debc fed
bbbbbbbb ebbbbbb
beed ebf
efcc fc
bcc bdef
bbd bbba
df bbeec
def ac
debc bbbd
debd bebe
dbcc dec
bcbf bbee
dccc ff
fbbbb a
dc fba
bbbc beef
bba bbec
ebbbf bbbb
ebc bcdee
bbc eebcc
dbb ecbdc
dcc ecbe
eecc beec
fbf ddc
beebb eebf
eedc eebc
bdcc dec
bdbe dbec
ecebb bbf
ebc beccc
bec bddd
ea bbbbc
ea dbec
eecc fdd
eecc ecdc
fdc bedc
eba bebe
bdbf bbbb
bcef dee
fbbd ff
dcec bef
ef ebbbd
ebc bbebbc
eec bdbbc
ebfc dee
bbbcc bbbd
febc fbc
eebbee eeee
bd debbcc
bbd fdbc
bdc bcf
fbf eeee
bdbd bbdd
bdcc bdcc
fc bebdc
eec bcbcc
df bebec
bebc deec
becc beed
dfc ebbc
da ddc
bebbbb beebb
bbecc a
ecc ecee
bcc bebcc
ba eebf
bbbf bccc
ebdc dbf
eebe ebbbbbb
bcbd def
decc eebd
eedc fbd
ecf bbebc
eeebb bbbd
fef fef
ecec efc
bedd fec
bebbc bcbc
eddc a
dc dbbbd
dd bebbbe
bbd fbdc
bbd eeeec
ebf edbd
ebcc debe
bdbf bec
ecc beecc
bbbc fdd
bbef bbcc
ecbd beee
bcef bbc
edbc ecbc
bedbe ccc
dded dee
ecc bbccc
ecc bdebb
ecc fbdc
dcc bcdd
bbcc bbbcc
bbed fcc
eebe ebeebb
eeebb bbebe
fbbd bbbb
ebccc fc
dc fbbec
ef bbcbbc
ebbc ecbe
ebbc bcbbc
bebc bbebc
bebc debd
becc dbf
decc dbc
bebbc bbec
ebbbc fec
ddbd dbc
ebc eebbbe
bcc fccc
ebbc bbbcc
ea bcbd
eebc edcc
becc ecdc
eeebb bbec
ecec dbf
bcfc ff
bedbb a
bebc bdbd
bcbe bfcc
dfc bbbd
febb bbbf
eeec bbdc
bbebd dbe
dbbbe dd
dbbbc bbc
bbbbbd dbbbb
bebbdd cc
ebe bdbbd
ebc ebbbd
bcc ecee
bcc bfbf
bbbc deec
dbb efef
fed bbbf
bccc eccc
cccc fc
dbbd fee
eebf dbe
beebe ba
eeed bbcc
eebbc dbe
ebbbc ebec
dcbd bec
ebc ecdf
bbd eebcc
bbed deec
dfc fec
bba bbbbc
eebbc fc
ebbee bfc
bfec fec
ebb deccc
bbf bebbbe
bef befc
eeee bbdc
dbbc eebd
debe fee
bbef dbf
febb dcc
bebf fbd
eedc efc
bcdd dbc
ebbcc bec
eddd dee
edef ccc
bcbccc ccc
ebe dba
ebe bcdee
bbd ecfc
ebf eeed
ebbc eedd
dec ecdc
fbbc dbd
ddbd dee
bf bebbbf
ecc ecbec
bbd ecebc
dec fef
ebcc fbf
eecc beee
debc efc
bcbd bbebb
dbbd bbdc
eeebb ea
efcc ff
fdbbbb cc
ebe defc
bbf ecebb
def becc
fdd ebd
eddc eec
fecc ff
bdec debb
ebb fbbebe
bbbb beeec
bbd bcebd
ba bcebb
febc dd
bea ff
bbccc bbc
eddd fc
bebbd ccc
bbd ecbbbb
df bbbcc
df bebbbb
bdc bfcc
def beee
fbbd ccc
fdbe ccc
bfbd dee
ed fdbbc
dc bedbf
ef bdbbd
bec eedbe
bbee fdc
dec eedd
ebcc bbdc
bbbbc dcc
eccc beee
ecbc bedc
bbbbbbbb bbcbbbb
bba bbbf
bbfc bebe
dedc eebc
edbd bbbe
dbdc bdc
dbbf bbbe
dbbbc ccc
bfbd dbe
ebc debec
bbf eeef
ebec beebb
fbe ebbebe
dbf eebc
ebdc fee
eef efef
bbbec bfc
decc becc
ed bedef
ebb bebccc
ef fbfc
ebd bceec
df bcbec
bbbd bcebb
ebcc eeee
bced def
bedd becc
eced dbd
ef bcedc
ebe bedbc
bec beedc
ebf ecbe
dec bdbd
bef bcbbc
bbbd d</w>
ddc bdbd
ecbc bebf
bbdd bddd
ee decccc
bbf bdebb
dec fdd
bcbc bcdc
eecc bebd
bbef bbef
bccc becc
dedc fec
bdbc eeee
bfbc bbebb
ec eebdcc
ed bedbbc
ef dfcc
bec ecbcc
bbf dbbbe
bbbc dbbbe
fbd eebd
cccc dcc
ecbd fec
ecee bbbf
fbcc a
ebb befcc
ef bcbdc
dd dbfc
ebc bcbbf
bcc bbbdc
df bcdf
dee bbbcc
dbb ecff
dec bcdd
bbbd eeec
fbc bcdc
bbbbc bcbbc
bced bbee
bcbf fcc
eddc dbc
ecdecc cc
bd eebccc
dd eeccc
bcc fedc
ded dbcc
ac becc
ebdc eebd
bdbf dbe
bbbb dddd
bbc bcdf
ecc bcbec
eec d</w>
bbd bcbbbe
edc eeebe
dee bbbec
bbee eeef
beee eebeee
fbe ebbebb
fbd eedc
dbec eedc
bcbd efc
bbebc debb
bbbcc bdc
ebbec bbbc
ebc eeccc
bec ecdd
ebd bdebe
ebd dddc
ebf ecbf
dbd bcdc
beee efc
fee eccc
ebec fdc
bcbc eeec
dbf bbdc
beebb bebf
eeebb fbc
bedd bebc
dedc eccc
bf bbebcc
ebc dddd
ebc bdebc
ff bcfc
bcbc febb
debe ebcc
bbbbbbc bbbbbbc
dc fbbcc
bbc bbedc
ecc dbbf
ecbc debc
fed dbbc
eebd dbbc
eded bbcdbf
bfbc dcc
ebe ebbbc
bec ecebc
bbbe bfcc
bfc befc
bbcc ac
eecc debb
bcf ebbcc
edcc fcc
bfbf ccc
dcbd fc
edee bebc
bbc ecfc
bcc bca
bbbc ecbe
dee fef
dbbbb ebf
febe dbc
eebbebc cc
ed bedebe
bbf bea
dec febb
bbbd bccc
bbbd dbec
fbe ebeebe
fcc beed
bced efc
dbbbe a
febc bbbb
ebbee ebbc
ec ebb</w>
ebc dfcc
bbee ecbd
bebe dbec
bebf fec
ffc bbbb
febd ccc
bec fbbf
dbe dbbf
ff bdbf
dec bcbf
fee bdcc
bbed bcbd
eebc bdbd
bcee ecbd
decc cccc
eeebb dbd
fa dbc
fbbbb bbebb
ebbbd ccc
bbfa bba
ee bbeac
ecc bceec
df efcc
bbbe eebbbe
bebe da
dec bded
dcc bdcc
fbf bbebb
fdd ebf
ef eeccc
dd bdfc
dd bfdd
bec bbccc
bec eebbbb
ecc bdef
fcc bbbf
bebbc bbcc
edbc fed
bedecc cc
ef deecc
ebe bbcbd
bec bac
df befc
fdc bbec
bfec bbbc
ebbec bebc
ed fbbed
eec bebbf
bdc dccc
bdc feec
eeec dbec
bedc bbec
bebbbc bbbb
dcbd dbc
bebba cc
bf eeba
eec fbdc
bbf bcfc
bdc bbbec
ff bded
beee ebdc
ebec ac
fcc fbf
ecbe deec
dbbd bebd
edcc dbd
eeebe eebf
ecee dbcc
ecebb dbe
bd cccccc
dc beebbc
ef eebef
ebe fdee
bec bbedc
ecc bea
ebd ecbec
eec fbbd
ebf eba
ff bcdd
dee bedd
bcbc bcbcc
eebc beebb
fbd bcbd
bcee bbef
febb dbf
bebf bbbf
ebb bebbbbbbbb
ebd dced
ebd dcdd
bbbe ebbebe
fee eecc
bcbc bcebb
fbe ecec
eebe bbebd
eebebe beee
dcee dbf
ebe bcccc
ebc bffc
fec beebb
eccc bcec
bbdd bbed
bedc eebd
bfbc fbd
ebe bbcbbbb
bbc eeeec
bec bfbf
ea becc
eebc bbebe
bedc ebec
bbbec beec
beebe ecc
febd df
fc bebbf
fc bdbbc
bec eea
eec ebecc
ff eba
debc dcc
ebfc ebf
ef dbbcc
dd bddf
ebc bcccc
bec ecbec
bbd ebbbbc
dbe bea
dbd bcee
bbec dbbbb
bbcc ecbc
fee eef
deec dfc
ecbd debe
febc bbf
ebb fac
eeec bbed
ecee def
ec bf</w>
bf bbbecc
dc eebbbc
dd efdc
bbbe ebbcc
dbc beef
dbc bcbbc
dec dccc
ea dba
eeec decc
bedc bbee
eced eec
ebbec bebe
bcc eebec
dbe dbdc
bdc bba
bbbc dbcc
fbc bbebe
eccc bbcc
ecf dbbbb
ecf efcc
beebe bebf
fbba cc
ebc ecbbbb
ebc bfbbc
ecc ecebe
bfc bbebc
eccc fdc
fef ea
beebe eeebb
bfbd bebc
bbbb bac
bbd bedee
df c</w>
dee eedc
bbebb ebcc
ddc debe
fbd da
edbc bbed
ebb dbbdc
bbbb eeef
df ebbcc
fee eebe
dbf ebec
beec bbebe
ecdd dbe
bdee bbbbc
ec ef</w>
dc bbebec
dd bda
ebc beff
bbc dddd
bbc ebbed
bcc d</w>
ebbc eeebb
ebcc ffc
beec ebdc
eebc bbdd
ecbc fbe
bdbd dcc
eebbbb bbf
bd dbb</w>
fbc bcee
dbf dbbc
bccc ba
eeec eeee
dccc edc
bdf deec
fbbf a
dd eac
bbc ecbbbb
fc bfdd
dbd eeed
fec fa
bebd fdc
debc becc
dbec ebec
bbbbbbbb bdbbbb
eebf bbbc
beebe bbebe
dd fbbbe
fee bea
eeec eebcbedf
bbbcc beecc
edbd bbf
bcdc edc
eced bbbb
beebc a
dd debbc
bbc bedee
bbef fbd
bcbf dbd
dedc eedc
edec ded
dc bebbbd
bcc ddcc
ebf fbec
bfc eedd
beee fa
fec bced
bbef fbe
eeec ecbc
bbfc bbee
bbfc bcbc
ecbbc fc
ebb bebbdc
ef ebbed
ebe beedc
dd bfbd
ecc dbbbe
dee dcdc
dbc bcf
bebe bebbee
dcc eebe
bbdc beed
bebf beebb
bedc fcc
bedc eedc
ebfc eec
bdf bbebc
ebbec bbf
bbd bcdf
bebe eba
bbcc bcec
ddc decc
ecbe bfcc
bbef fec
bbdd dbf
dbec ebf
eca a
bcbbebc cc
dd ecebc
edc e</w>
bbebb fcc
debb debe
bcebb bbee
bdec def
dabca bdbf
bb ebf</w>
bd bbeccc
ed dbbfc
bbc bfdc
ebd fbdc
bbbe bcbbbe
edc bedf
ebbc bba
dec bcf
ddc c</w>
fed beee
bdbe bba
eeef beef
dcbc bbbd
ef bbbbcc
ebc bbbfc
bec fbdc
bcc fbbd
bbd edebb
bdc befc
ccc eeee
ebcc ac
bedc bcbc
dbbd bbed
bea df
bebec a
edec bbf
ebe edbc
ebe fedc
dd eeecc
ebbc bcf
bbbd bcbbc
ebdc bebd
fdc ba
bdbd dbbbb
dbcc bebe
ebeebb a
bc dbb</w>
ebb bbebbbbbb
fc debbc
df ecdf
dee bebbbb
bef bded
ded beecc
bbcc bebf
bbbf fed
bddc dbd
edee bbec
bf ebfcc
ebe ecbbd
ebd eebbd
bbbe debd
edc bbebc
ff edcc
fec fecc
becc febb
eccc fee
debe bccc
bbeec bebe
ebb fbccc
ebb bedbbc
bbbb bfebb
bbc bcecc
ebd bdef
eec fccc
ebbc da
ded ac
deec fbc
fdd bebe
bebbc ecc
bebec df
bd bbd</w>
ebd fdbc
bbd bfebb
bbbe bbebbc
bdc bcbbc
dbb ecbbbc
ea eeebb
beee da
ebcc bcbd
eebbc a
ebb fbbef
bcc eba
bebc bbbec
bcee fed
deec efc
bbbcc bbbbc
febe fbc
bcdd dbe
debf fc
edec bbbc
ebe bcff
bec bebbf
debb beebb
ecbc bbbbc
dbec becc
dbcc ebf
bcbf bef
ecdc fcc
bdbc becc
edc ddcc
dbc ecbf
dbb ecdec
bbebb eeebe
bcbc dbbbb
bbebe becc
eebf fcc
ecec def
ffc fee
febc eec
befc dbe
ecdd dbd
ecbbc dee
bbbbbbc bbbc
a fea
bbc ebccc
bec dbfc
ecc eebec
bcc fbbf
bfc decc
fbe ecebb
ddc bedd
ecbc fbf
bbebe bccc
dfc bebe
ecee bebd
ebbcc bbbb
ebbee dbf
ebbed dbe
ebd bebbf
ccc eebc
bfc dedc
debb bedc
eecc bcec
bbdc fbd
ecf bbbec
fdd becc
eddd dbc
dc be</w>
ef bbdcc
ecc bbebd
dbb edbcc
efc eedd
bbbf dbbc
ecbc eeee
fa bea
ebbed dee
dcbc fbc
dcee beec
ebe dcec
fc bbebf
ecc dced
bbd bdbec
edc beebc
ff dbbd
ff ecbf
ebdc beee
bbebc bef
ebfc bdc
bdcc bbbb
ebbbf bbf
ed fdfc
ebc eeeec
ebd eeebc
ebec fbf
ac bccc
eebd beec
eeed bbbd
ebbbbbb bebbbb
bfcbbefbedddcbbdfddeecfdcecddbccffcecebebdbbbe ddddbebeecebc
ff fbec
eeee beec
beed bcbc
cccc dee
bdbc b</w>
eebbbb a
fc eeeec
bbbc ebbebb
fbe edbd
bbed b</w>
dbbc debe
bcbe ebbebb
fbbbb ccc
bddd dcc
bedbb bdc
dc db</w>
fc ecbec
ecc eeebc
bebc dbec
ddc ea
ddc bcdc
deec bebd
bddd bbbb
ebe bbcbbc
ebc ececc
bbc bfbd
ecc bfdc
ebf bebbbe
bebe bcf
dbb efebe
dec dbbbb
dbd bbef
ebec bbbec
bbbf bebbc
fdc debc
febb fcc
eedc bbbe
ecbd efc
ecec fbd
bbeec ded
eebbc bcc
edbc bebd
ed fbbebb
eec bbccc
dbd ecbd
bbbbc dbf
eebe ebbee
ebfc fbc
ecbbc bbc
bcbbbc bbbb
fc beccc
bec bdef
edc eded
ff bddc
dee bbebd
bfc bcebb
ebbc fef
dec bbfc
bcbe decc
bccc ccccccc
eba bbbd
eebbc dbc
febd a
dcbc beec
dd bdbe
ebc ecdee
bebc da
fee fed
eeee dbf
bbebe bbed
ebbcc dbe
ebbec bbec
dcee ded
ebb bbbbbbbbbbbbbbbb
ef bbea
ef ececc
ebd ecf
df bdebb
bebc bbfc
bebc febc
efc fa
eeebb bdc
ecdd dec
bbc fedc
bcf bbecc
dfc becc
dbcc dcc
beef bdc
edbc ebcc
ebc dcec
ba eebd
ff eedc
dee bcbbc
bcbc bbdd
eebe bfcc
eebe ebeef
deec fed
febe dbe
dbbf bbbc
bdcc dcc
bebd bbdd
bedd bebe
bebbbb bbebe
ecee da
fbbbb bebe
bdee bbdc
bddd a
bf dbbbbc
fc bfbd
ecc bedee
bcc eedf
edc ecebb
ddc bbdc
fec fef
eebc bbfc
debe ded
debc beec
eeebb beef
bcbf dec
eddc dee
bec dced
ebd bbbbbbbb
bdc bebbc
dbd bcdd
fbe bbecc
debb eeee
bedd ef
bcebb dbc
bda a
ebe bcbebe
bbc debbc
fc dbbbc
ecc ecccc
bcc ebbebb
bbbe eeed
ba bced
ebec da
debb dbbbb
eef bfef
deec bebe
deec bbec
bbbcc bbd
dcbc fec
bfec fbc
fc dcfc
ebd eac
eec fdf
eec eedbe
bbf eeed
fee bced
bbed dfc
eccc ebbc
bbbcc bebc
edcc ded
bdbc fbe
acc ccc
ebeebb eeee
babca bdbf
ed beeecc
bbc bdbe
fc bcbbd
bbf bca
dbb ebeed
bbebb ecbc
bcbc ac
eccc fed
dbbc def
bbbb bca
bbc bcbbf
ecc debf
ecc fdbc
bbd bedbc
bbbe ebbbf
bbbc bdbbbb
bbcc bbebe
fdd fed
ffc bef
fa bdc
eebbee bebe
bcc dcdc
eec bbbdc
ba ebcc
ea eca
bbbd ecbc
a edbf
ebe dcebc
edc debf
ccc ebcc
fcc bebf
eebd fee
beed def
fef dec
bbeec dbe
ecee ebec
ebe bffc
bec bbbbbbbb
bec beccc
bcc ecebc
dbc edbd
bebc decc
efc bebbc
efc bcdc
bba bca
bdec fee
edec bbbe
ebe bfbbbb
bbc bdfc
bec bbebf
bcc bdbc
ebf bea
ebf bcfc
edc bbbec
bbbbc bbdd
dbbc ddc
eba dbe
debd bbbe
ecf dbbd
eeebb eebf
eedd dcc
bcbbbb bebe
ebb bedbbbb
bcc debf
dbb efa
ea eebf
fbd bebf
debe bbebb
bba beee
febb fec
edec fbc
ebe dcef
ebc beedc
bec bcbbd
ebec bebf
ebdc eebc
eecc eddc
debc bcbc
bcec bbdc
fbbc bef
fbbc bebc
ecbf bbbb
bdf dbbd
ef eddf
ebd eedbe
edc ebecc
ebbc bbebd
fcc ecdc
bcbe bbbbbbbb
eedc bbec
bfcc fbc
bebec dee
bcc bebbd
bbd febf
edc eebcc
ba bebbbb
bfc bcf
dbb ebedd
ded d</w>
bbec beebe
fbe dbbbe
fbe bddc
eccc ebcc
bbebe beec
bcec ecbc
bebbc bef
bfbf a
ed dc</w>
dc bbfcc
eec efdc
ba dfc
edee fee
ebb bebba
ebc bfdd
bbd dced
df bdef
dbe eeed
bbbf ac
bbbbc b</w>
fbd ffc
fed cccc
bdcc dbd
dac da
efbd ccc
bef dbbd
bbbd bbbcc
ddc eeed
beec debd
dbbc ebec
eebd bbebb
ebeebe eeee
ef eda
ebe eedbe
ebd ecfc
df beebc
bbbe dbbf
bbf ebbcc
dcc ecbf
efc bbdd
bbbf bbdc
bbed bebf
fdc beee
bcebb bbec
bbebd bbbc
bdf debd
dcbd dec
bbbb ebebbbb
edc edbf
ba bbebc
dbd eebf
dcc bcee
debc debc
beebb debb
bbbec fbc
eeebb bebc
bebbc bfc
bfbf ff
dc dbbdd
bbbb eedd
df eddd
df fbbf
bbbd dfc
ddc bced
bbed ecbc
bcec dfc
bdbd ecc
fdd eebc
bdbe bbfc
bdbbbb dbbbb
bbd bebdc
bebe fa
dbd bbebe
ded bebf
bbed bbebe
bebd bebf
eef dbdc
eebd debe
bbbec bcbc
decc ebcc
dccc dec
eea ccc
ebbbc fcc
dbccc ccc
ed bbebdc
bbd eeecc
bbd bdfc
bbbc bcef
ddc deec
bbef bcbc
eeec def
bedc ba
d ea</w>
dd bcbcc
ff dbbbb
dee bcfc
fec bcbf
bbbbc bebbc
bebd dfc
fbd beed
fed bccc
da bbee
beef ecc
bdbc dbbbb
ebb bbebdc
bcc ebccc
eec dcdd
dbc bbbcc
ebbc bcdc
dbb edee
ea ebcc
bbbbc eebc
fbd febc
eef e</w>
da bfa
beebb eebc
fbbc bbec
bbeec bbbe
bcbbbb bebc
bddd bdc
ef debcc
fc dbecc
bbf ecdc
dbe dbbbe
bbbc debd
debb eedc
bbdc dbf
bcbd bebd
bbebd eec
bdf bba
ebc bbcbbc
dbc bba
eeec eccc
fef dbd
bcebb bcbc
bdee ac
eeebc bbc
bd bebdcc
bec defc
ebd ebccc
bbd fbbbc
bbf fdbe
bbee bbbbbbbb
bbee bbbcc
ebbc dbcc
bebc bcbf
fed eebc
bbef edc
bccc beee
edbd bbbd
bdf b</w>
bcdd dec
ebbee bba
ed dbba
ebc eeebd
ecc efdc
bebc eebf
bbebb fbbbb
bbed da
dbbd bbcc
febe bbbc
dccc ddc
eeebe bbebe
bdbc ea
bdbc dbbc
dcbc efc
bf eedee
bbd bbbbcc
dbe fbbbb
ccc ebec
bbebb eebbbb
bdbd bcbc
bedc debc
ecee fbe
eeef ba
bdee ecbc
eddc dcc
ecdf ecc
f deb</w>
ef ebebf
debb fbf
bebd debd
bbef fbf
beed ebcc
bebbbb dbc
fbbc ebf
bcebe bbbc
eddd dbd
ebbec dbc
bddbe bbee
ed bebbbbc
dd fdcc
fc bebbbe
dee fa
fec bebbc
bbbbc bbebc
def fdc
bbfc fee
ecbf bec
eced ddc
ecdd ddc
fbbbe bbbb
bc ef</w>
dd eeeec
fc dfcc
ebbc fbec
bbef bbebe
dfc ebec
decc ecbc
fbbc ebd
ef bcdbc
bbd eebbbe
dbe bebbd
bef bcef
fbe bbebf
eebd eccc
eeec da
dccc a
eeebe bebf
ef bcdee
ebc eebbf
bbc bcdbe
ebd fccc
bbee bcdc
bbee ebbbbbb
bfc fdd
ebbc dbbd
bef debd
dcc dedc
fbe ebbcc
bbbf bcbf
bbbbc dbbc
bbef ded
beebb bebbbb
eeef eeef
ebc bedbb
bec bceec
eec ecbcc
bbbe bebbee
bbf edcc
ebf fbcc
bbbc fbec
bebe eebbbb
ea beed
bcbc bcee
becc eeec
bbbec bbbec
ecbbc bbbb
ecbec dbe
dcec ddc
ee a</w>
bf fdbbc
dc fac
ebe efebb
bbc bedbc
fc bfebb
ff eeebb
bbec fdc
ebec febb
dcec edc
fbc ecbd
beee dbbbb
beee bdcc
fec bcdc
bbbf bcbd
def bcbd
debe debb
bedc fbd
eeda cc
ebc eebdc
bec ebbbf
ecc ecdee
eec eeecc
ea bbdc
bbbd dbbbe
fbc fa
dbf bcec
dbbd bbebb
ffc ebbc
dcbc bbcc
ebb beebcc
bbbb bfbbc
ecc bcecc
bbee bcf
bbee bdcc
bbee bded
fec fbf
bdbd ebe
bdbd debb
beebe edc
bbeec bbbc
dbdc dec
bdbe ebdc
ebc ebbebe
bbc bbbfc
ecc eebbbb
ba bcec
ff fbbbb
dcc dbec
bbbbc becc
fed ebcc
eef ebfc
dfc bbcc
bbdd fee
beed fee
bced debb
eebbc df
dced ded
efed ccc
dc ebfcc
dd fdbd
ff bdef
efc fecc
fbc bcbe
bbed bcec
ecbe bba
da ded
bbbbbbbb bbbbbbd
deec bbbe
bbebd bebc
ecee dbbbb
dbbbc bbbc
bdee ebec
ecbec dee
bec bdebc
bbd fdee
bdc fdf
ba bebbc
bbee bdebb
dbb ecccc
bbec ffc
bbebb bcec
eebe eddc
bcbf edc
febc bcc
bcdd a
ecbbc dbe
bbbb fdf
ebe bddf
dd ebbed
bbd bcbbbc
bebe bcebc
bef dbcc
efc eeebb
bbec ac
eedd ded
eedd ddc
ef ebbee
bbc bcebd
ecc eba
ea cccc
dbf ebcc
becc ac
deec debc
eeec bbebb
bebbbe bbbc
bdec bbbd
dcbd ded
ebe eedf
dd bebbf
fc bcebd
dec bcbe
bef eedc
fbc bebbc
fbe e</w>
eeee fcc
fed bcbd
fdc ebec
febb fbd
bebf bebf
edbc eebc
bfec dbd
ec bbefcc
bef beebc
fdd fee
bdbf bbf
eddc bec
eea beee
bfebb a
ebbc febc
dbd dbdc
efc befc
beec eccc
bbebc eebc
febb bcbc
dbfc df
ecebc ddbd
a feec
fc dded
bfc bbbec
bfc debd
dcc bbef
ea ecbc
fbe bdef
ecbd bbbd
bedd bbf
bedd bbbc
bcc ecfc
eec debcc
eec bfdd
ff c</w>
dbb effc
ea b</w>
bccc eecc
bdbd b</w>
ebfc ebc
ffc bcbc
bdec becc
dc dbdcc
ef aa
dd acc
ebbc bded
bbcc bbef
debb b</w>
da bbbd
bebbc ebf
ffc bbbc
bebbbb dbbbb
bcbbc dee
bdf bbbec
bddc bbbb
efef efef
ecc bcbcc
dbe bbecc
bdc febd
ff fccc
fed dbec
debc ebec
bba ebe
bdbd beee
bbebd dee
fbbc bbbd
bdf dbcc
bcdd bec
ebbbc dbf
bebbebb bbbb
a bcbec
fc eebec
bbee dbcc
ebbc bebec
bbebb beed
eebf ebd
dedc ef
eebbc bebe
bddc dee
a ecf
eec bfbd
ebf bcebc
ddc bedc
bbed dbbd
ebd fbbf
ac fbd
bebd eedc
ebdc becc
bbdc fcc
febc edc
bfcc edc
befc bbf
ecdd fbc
ebbbc fbd
bfec ba
a dbdc
bbc ebbbd
dbe eddc
ff dbdc
dbc bdbf
ebcc bbebe
fec dbcc
def bbed
debc eccc
bbdd fbd
ebbbc bbebe
bfec dcc
bf beea
dc bbbbbd
ebe bdeec
df dbbbe
dbc bddd
efc dbcc
eecc fee
edbd dcc
bcef bcc
bf eeedc
ebc dddc
fc bedbc
ebd bebbee
ebd bfbd
eec bcbbd
bbbe eedc
dbe ebfc
bfc bcee
bfc febc
bcbd fbd
dcbc debb
bbd bbbbebb
ebf fdf
bbcc eeed
bcbc fdc
def ecbc
ecbe b</w>
dddd dcc
bedf ccc
ebb dbbef
fc dcbd
bec bdbc
bbbe ecec
ebf bdbf
ff decc
ff bea
bbbc bbbbcc
bbee bcbbc
ded bbbbc
fbc eeee
bbcc bcbf
bbebe eeebb
eedd fcc
bded bdc
ebbebb beee
ebbee ddc
ecc ececc
bbd fedc
ac bebd
debc bedc
dfc fbd
dbec bedc
beed debe
bdbd bebd
bcebb bbebb
bedbb bcc
bd bbcccc
dd bedee
fc dcdd
ecc bcdf
ebd dbfc
bfc bcdc
ebbc ecec
efc eeee
bbcc b</w>
ebec bcbf
bcbc bedc
dbbc fbd
edbd ddc
bdcc fec
beebc bbf
bfbc debb
bd bf</w>
bbbb eeebc
bbbe fbcc
bfc ecbd
dbf bbbbc
bbfc fec
ffc ebc
dccc ded
bfbc bebd
a fecc
ebe bcbdc
efc eeed
bbebb dcc
ebcc eeed
bcf efcc
bbebc dbd
bced ddc
bdf decc
fdbe a
bbc bfebb
ebd beeec
edc fdf
bef bedd
fbc eeed
bbcc febb
fcc debe
eecc ecbd
dbec ddc
bbebd bbf
febe ba
bebec bbf
eebeee bbee
dc ebba
bbc bfef
bdc bbbcc
ea bcbf
fbc decc
ebec decc
ac dfc
beed deec
ffc bebc
febe dd
bdbe eccc
bbbbbbbc bbbb
ebc dcbf
fcc ac
ecbc bbdc
dbbc becc
dbbc bcbd
beebb fbd
dedc dbe
edbd bbbc
ebbcc ebc
ebbcc bbf
bfec bebe
ed bbb</w>
bbc eeecc
fc eeecc
fc dcec
bec bcecc
eec beedc
bbee deec
bbee bbecc
fbe dbdc
bccc ebbc
fbf fef
bbfc bbbd
ffc efc
fbbc fbd
fbbbb bbbbc
ecef dd
bf eefbe
ebb db</w>
ebb bbeecc
ef bcbbbc
bec d</w>
bec bebdc
fbc ecdc
def cccc
dbec fed
bbebc fec
beed eebc
bbebd dd
edcc bebe
bcbbc dbe
bdec bbed
ebbbbbb bbf
ddcc dd
bbd bfbbc
bbbe ecbbc
bebc beebe
bcbc bbbcc
eef dbbf
eedc bebe
bbc bb</w>
dee befc
dee dced
dbb efbbc
bebc dbbbb
ecbe dbbf
ecbe ebbebb
bbef dcc
dfc debb
bebf becc
bced edc
bebbc dbd
eebbc dd
ebbec ebd
a eac
bc a</w>
ebc bfebb
fc bdebe
eec ecebc
df ecbbc
bbec bcbe
fbc eebf
fbc febe
ebec bbdd
bebd bcec
eecc bedc
bbbec ebf
dbbbe ccc
bea bbf
bcef bbf
bcbbbe bbbb
bd dbbbdc
fc fdbe
eecc bbed
debc dbf
fef fec
bedd ddc
beef bbbc
edbd ebe
ecdc bbbe
ecee efc
eedbbbb cc
bbd ebccc
bbebb fed
fcc bcbd
beec bcec
eeee dec
ecbc beebb
bbdc bbdd
debe fec
debc ea
eebd ea
eebd fed
fbf ded
beed da
febb ea
eeec bbbbc
fef ddc
bedd bbbd
ffc becc
bbccc bcc
ef f</w>
ecc dcdd
bbebb bba
ebcc bbbbc
eeee ebbebe
def debb
debe bebd
bea bbbe
bded bcc
bceec df
ed fbbdc
ebe edebb
ecc bdbc
eec bdef
bbd bebbee
edc ecef
ff dbbf
dee d</w>
ebcc bebf
fbf fbe
bbfc ebbc
dbbd ebbc
eedc becc
beef dbc
fa bda
bfec bbbe
ebe ebbdc
ecc fbbf
bbd bcdbc
dee febc
bfc bdbd
bebc fbbc
fee bcdc
dfc ba
eeef bbbb
bfbf bbbb
ebbee dec
bd fbdcc
ebc bedbd
ebd edbc
bbbc bcdd
bbbc bdebb
eecc ac
bdf ebfc
bcc eedbe
bebe bebec
bcbc fef
bbbf fbbbb
ebdc fed
bcec dedc
bbebd ff
bebbd bbf
dcec bbec
bdc d</w>
edc fdbe
bfc fbec
fec bdbd
bcf eba
bcee bbbec
ebe bcdbc
dbe fbec
bbbc ecebb
dee bddc
ccc ecbc
bebe dbcc
fbc eedd
ac eeee
da bef
fdd fbd
ebbcc df
fdf df
bebbf bbbb
dded df
dc bebbcc
ecc eeecc
bcc beecc
ebf decc
bdc ecebb
bfc dbcc
dbbc bbbf
bbef beebb
bcf bfbf
bdec ba
edc bba
bbbc bbeec
eebc eedd
becc eddc
ebbcc a
bdec ebbc
bfbc bbed
dd bdebc
bbbe bddc
dbe e</w>
bbbc bdcc
ea fdc
bbcc eccc
fee beed
ebdc ebdc
eef ebeebe
bbef fcc
dbec bbbd
bced ef
edcc fec
bcdc ebd
ebc bdbe
bbc bebdc
fc fdbc
ebf dbbf
ba beed
bbbc bcebe
dec eeed
bbebb bccc
ecbe bbbcc
bbdd fec
deec deec
debd bbf
bcebc df
dc fea
ebc bbbbbbc
bbc fccc
ba bbbec
dbc bded
dcc eddc
beec bebbc
dbbbb ebbc
bbebc fbc
dbbd edc
debd eecc
bbbcc dbd
eebbc bbbd
ef ebeebb
bbc bfbbc
bec ecf
dec bebcc
dbec eebc
fbf fdc
bbfc debb
fbbbe bbbe
eedebd cc
dc fbeee
bbc eedf
bfc eeebb
bbcc bcbbc
ebdc bcbc
eebe efef
bcdc ddc
bebec fc
bdec beee
a fbbd
ed beebdc
dd eceec
edc eeef
bbbf fdc
cccc bccc
decc ecdc
dbbbe bbee
ebbec bbee
ebe bcedc
bec bcebd
bcc bfdc
ccc bcec
bcbd debe
eebf ba
eebf ebbc
bcbf fbd
bdbbbb bbbbc
a eedd
bbbb e</w>
bfc dbbbb
bef bbecc
bef bdebb
bbec bebbbb
beee beed
bbfc dcc
fdd bebc
eccecc eccecc
ebe dbbcc
ebc fbbbc
dbe bceec
ff bbbec
ff bcbbc
dee eba
fee bdbd
ebcc bbef
debc debe
bbdd bebd
bbdd dbbc
da bbd
deec ea
deec ebcc
dbbd efc
edcc bbf
edbc bbbf
ebbee bbbbc
ebbbc debe
ff bedd
eccc ecbc
eef bfbf
bcbe ebfc
bcbd fcc
bba bebc
bebbd bbbe
a eddc
ef fea
ebe dddd
bcc eebbbb
dbd bebbc
bbebb debe
fec bbbbc
dbec bbee
bbfc fcc
ecbd bbec
ecee dccc
fecc eec
dcbc eebc
ebbec ebbc
bf be</w>
ebe dcebe
ebc bedcc
ecc ecdbe
dbe eba
bbed bdbd
bcf debd
beebb bebd
bbfc ba
decc edcc
bdee def
ebbee fbc
dd beccc
ecc eddf
dbc bebbbb
ebbc ecbf
ded bebbc
ebec eeee
debb fbe
bbed eebd
bbdc fed
eef bbeec
ecbd fee
bedd eecc
febe dcc
eced bbbc
bcbbbb bebbbb
a bbbbbbbb
dc fbbbd
ebe bcbbee
bbc bebbee
ecc fbbbb
bdc bebbbb
dec beebe
bba ebf
fdd fcc
bcebb fbc
bcef bec
ecdd bec
ecdd bdc
bdee dbec
dbbee dbe
eeddc edbbc
bf bebecc
bdc beebc
dbc d</w>
bef eeed
bebc bbbcc
becc ffc
eedc eccc
fa fee
bbccc bbbb
dcec def
edec fcc
dcee fbc
dd bcecc
fc ecbcc
bbbe bbbdc
ccc ea
efc ecdc
bedc eccc
edbd debe
bac bbf
bfcc bbf
eebbc dee
ebbcc bcc
bdee dfc
bddc eec
bfed bec
ef edebb
bbc bbba
bebe fbbbb
debc fbe
bbebc edc
fef fbf
edbd bbd
febc dee
debf a
eded dbd
ebbbd bbd
bfbc beee
eaea eaea
ef edebc
ecc ecbcc
ebf beebc
bdc bcebe
bebe befc
dcc bbbbc
bbebb bcbbc
ebec bbef
bcbc eeebb
eeee dbbc
eeee bebbee
ebdc bbcc
eeec bbbf
eeec febb
bbbec dbd
dedc efc
fecc dbc
bbbbcc bbbb
bdbbd bbbb
dcee bebc
fc eedf
ebd ecef
df bca
dbb ecbebe
bbec eccc
bbebb eecc
ebec deec
bcbc b</w>
bcee bbecc
bedd debb
bcdd ff
ebbee beec
dcbc bbed
ebe dcdd
bebe ebbbbbb
bbbd debd
dbf bebf
fdd bbbb
fa bec
eea fee
dc ebeebe
ef edbec
ebe bbdcc
dd bdf
eec bfbf
bbee beebc
dbb dcdf
bba ea
fbec bbbb
eded bcc
ebbbd ff
edec bfc
a bfbf
ebb bebbbec
ef edfc
ebbc befc
beee eebebe
fbe ecbbc
debb bcebb
beed bbed
beed dbbc
fef fcc
dedc dbc
ecdc bbf
bdbf bcc
bedbb ebc
bfec bef
bf febcc
bbc fbdc
bbf bbecc
ff bbbcc
bbee b</w>
bbbd fbbbb
ded befc
ecbc ac
eef bbebd
dbcc eecc
eedd fbd
edbc def
bfbc eebd
ebbebe bbbb
dcec deec
eedbb ccc
fc ecdf
ebd bebdc
eec dbbee
bbbe eced
edc c</w>
ded dbbd
dbf dfc
bebd b</w>
ecbc eedc
bbdd efc
bcee ebdc
bebf febb
bddd dee
dddd dbc
bd ebb</w>
ec bbc</w>
ed debbcc
ebc eedbc
df bebcc
fbe ebbbf
bbebc bbcc
beed fcc
bced fec
ecec eebc
ffc ddc
bea fc
dcdc dec
ebb fbbdc
beee dbec
eeee fa
becc bcec
bbdc ebcc
ecbd def
eebf bfc
bdbe bbebd
bcccc bcccc
eebeee bebe
dc bbcbbbb
bbbe fbbbe
bdc eeebe
dbf febb
bebd bbebe
fed debd
dfc bbbf
eedd fec
ecda cc
ef ddbd
eec dddc
edc eedbe
bbbc fa
bbec debd
bebd ebdc
fed eedc
bbdd ebbc
bcee bbeec
decc decc
ecf debd
bedd bfc
bfcc ecc
bea dbc
fbbcc fee
efcbbebd eecbf
bec fccc
eec eebbbb
df eebbc
bbec bcbf
eebc eebf
bbdc bcbd
ebfc ecc
bdcc bbbe
bdebb bbbc
bca bba
bdbbc bbc
bfdc df
fdbb ebe
ebbbbbe bbbb
ed bbeccc
dbe d</w>
dbb efed
ea eeef
bbebb bcbe
bbbbc bebf
eebd beee
fbbc ebbc
bcbbc dbc
edbc ebec
ecef fc
dcec ebd
bf fac
bec ecbbbb
ff e</w>
bebc ecdc
fcc febc
eeee bebbbb
bdbd dbf
ecbd beec
dedc bcc
f dbe</w>
bf dbbbf
dc aa
dc fdef
dd bcdbe
eec eac
edc bebcc
ea febe
fbc debd
bbebb eebe
ebcc fdd
bedd bbbe
eeebe eebe
ebbcc dbc
bbbdc bbc
bddc dbc
edbc becc
dcbc def
ed bebbebe
dc bbea
bbcc dbbbb
dbbc eecc
bba eba
bdbd ebf
bcebb ebf
eced fbc
ec bbebecc
bf dbbbd
ebd fbbbe
bbd bcdbe
dbe bebbbe
dcc ecdd
ea bced
bbbd bcbe
ebcc decc
ddc ffc
bbbf debe
bbbf bbbec
eebc debd
debc ba
bcebb ecc
bcebb bdc
ebbcc bbbe
eddd a
edbc eecc
bfec beec
edee ebbc
bcc bcdf
efc bdcc
bbdd bbdc
beed fbd
eeec eeec
edcc bbbe
dcdc df
edbc bbebb
dcec bbf
eebbebb fed
bd fcccc
ef ebbfc
ebc fdbd
bbc eebbd
bbc fbbbc
fc ebbebb
fc ebbbf
bcc dbbbc
bbd edbbc
dbb ecdbd
dbd ffc
dbd febe
beee ebeebe
debb bccc
eeed becc
ebbebe bbee
ebd bac
bbbc ecbf
bbbc bbcbbbb
fee eba
fbe efcc
ddc bcdd
ecbe debd
bbef bbed
ecec eecc
bebbbb dbd
bcdc bbf
ebbcc ebd
bddc a
bdec fcc
ec febbcc
ebe bbea
ebc ecbbd
bec edbf
bcc ecbec
bdc fbcc
ccc fdc
bbbd fdc
bbbd bcec
ded dccc
bbcc eeebb
eeee beebf
ebdc fdc
beef beef
fbbc efc
bdbf dee
fbbbb bbee
bcebe bec
eddd fbc
bcbec dee
bfbc eecc
ebc bdbec
ecc fdcc
ff bcebc
dcc eced
beee bebbee
ebcc edbd
ebdc bbed
ecbe dbbbe
bdbd fbc
cccc dd
ebbcc dee
eddc df
feec dec
ebbed df
a bebbbe
bec eebec
ba ecbc
debb beed
eebe decc
bced ebf
eeed bebe
bded bebe
ebc bcdbc
bec eeecc
bef bcfc
fee bedc
ddc bcec
ddc ecdc
bbef bbbbc
eebd ebec
ecbd dbf
ebfc bebc
eebbee bbbe
edee ac
bf fbbed
dc dbbbbc
dc fbecc
fc efdc
bbd bdebc
bbf decc
bdc eebbc
ebbc b</w>
bbbd bbfc
bbec bcee
beee ebbebb
fee ebec
eebd febb
beed fed
eddc dbe
ef ebbbc
ebe ecdbe
ebc debcc
ebc ebbdc
bec ddcc
bbf eebbbb
bbf bebcc
ccc bebd
ebbc beebc
bbcc ffc
ddc debc
bbebc bbbbc
eeec ac
bddc dbe
bdec efc
f dbd</w>
bf fdef
dbc ecdd
eebc edbd
eccc bbed
ecbe edbf
dbbbb bef
bcbd ebec
bcbbc bebe
ecebb df
eddd df
dd bdbec
ebc ebbebc
eec deecc
bbf bcbec
ebf efcc
edc eac
bbbc bbbdc
ea eeebe
bbbf da
fcc fef
eebc fdd
fbd ecbc
eebe bbecc
bcbe dbbf
ecbd bbcc
bcbbc bebc
bded bbbb
bf bbdbf
dc eebebe
ebbc edbd
fec febc
debb debc
dfc bebd
ecdc bfc
bfec becc
edec ebd
ecdebd cc
ef fdbb
bbee bcbbbb
beee bedc
fbd ac
bbdd dbbd
bbbcc bbec
fbbc bcbc
bfed dee
fdbc df
bbcbbc bbbb
bbbe bcfc
ebf bebec
bbbc bebbbe
dec dbbd
ded fbf
beee bcebb
ebcc bced
dbcc ded
beebe dbe
febe edc
bdbc ecbc
bddc fc
bddc bcc
eded bdc
dcbc eeee
dac ba
bec bfbd
bbbe bfbf
dee eebbc
fed fdc
bbebe debb
bcf b</w>
bbbcc bef
dbbf dbc
ebb bbeccc
ebc edebc
bbbe dbbbc
bdc dbbbe
fbc befc
bbbf fef
bbbbc efc
eef c</w>
edcc bfc
fa dcc
bddc bbc
bbebbc bbc
bbbbbbbbbbbb bbbd
ebf bebcc
dec dbdc
fcc bbdc
bbbec bbbbc
fa dee
ecee bbebc
beebc df
fbbbb ff
fbec bcc
fecc ecc
dcdc dee
bfbc ea
dcbc dbf
dc beba
fc dbbee
ebf fbbf
dec bdcc
ebcc bedd
bbbbbbbb bebe
bcbf ba
eeed ba
ecbf dee
eced bfc
ecdd bcc
bbebf bbbc
edbc debe
fedc df
bfbc becc
bbec dedc
beec eeee
bebd fbe
bebd bebbbb
dfc efc
dbec edc
bdbe debd
bddc df
bebbd bebe
ebbed bbbb
ed ebac
ef efdc
ebe bebbbd
ebd ecebc
eec eebbd
bbd eedf
ebf bfbf
dbd e</w>
ded bcebb
ddc dccc
eebc ffc
eba bcc
fdd dfc
eddd dcc
ebc beebf
ebc edebb
bec fdbe
bbd ebbebe
ebf b</w>
fed debe
bedc debe
eedd eecc
dc feecc
bbd bfdd
beee eecc
da bebe
fbbd bbf
ecef bcc
bdef ccc
ebc fbfc
bbd fbebe
dbb dcee
bebc edbd
eef ebbebb
beed beed
bdbd bfc
decc bebe
eedc ecbc
ecee bbebe
bbccc fc
eddc fbc
bebbd bbbd
bedbbf cc
bec bebbbc
dec bbef
bcbc eeed
fec bbfc
bbbf bbfc
becc debe
bcbd bbbbc
fbf becc
bced dbf
ecec ef
beef beebb
fbec fbc
bdec dbf
bdec bebd
a eebbbb
a acc
ebe eeba
ebbc eebe
bef ecbf
bcbc bbef
eebc febc
fbf bebf
ecbd fdc
dbcc bfc
bbeec bcc
bcebe bbbe
ed fedcc
dbe bcbbbb
bebe eebbbe
eeec dedc
bced fbc
ecec fee
bbebf bbf
a fdbe
ebc bcedc
ecc dfcc
ebd dcbd
ba beebe
ded bded
beee eea
ebec ecbd
da fee
bba bda
fef eec
edcc edcc
beebc fc
bcebe bcc
fbcc fbc
edec ff
bbdbbbb bbbd
ec bbbac
ebc dded
ebd defc
bbebb bdbd
bccc dbf
dbbbb eec
dbbf dbd
bcbbc bbcc
bcebe fc
eebbd ccc
ec bbe</w>
ef ecdbe
ecc bac
ebd efdc
bbd bffc
dbe ecbec
ebf bded
ebbc beef
ea deec
bbebb bbbcc
bbebb eebf
bcbc bbfc
fbd decc
eba bbf
ecec bbed
bcbf dbf
ecebb bcc
dcbc ba
a bebbf
ebe fdcc
bbbc bcbcc
bef bdbf
efc bbfc
bbec fbbc
beee bbdd
ebec ffc
dbec dbec
dccc bdc
ecbf dbd
ecebb bebe
eddd ddc
fbbf bbf
ddbd ddc
ebe bddbe
dd bebdc
ebc eddf
df bbecc
ded bbebc
beee fbbbb
febb beebb
ebfc bfc
eebf eeebe
befc dbc
bcef dbc
ef ecbdc
ebc bcff
bec eeef
dbe fdbe
ebcc beebb
debb bcec
eccc ba
eecc bcbd
eecc edbd
bcbe ebbcc
dedc bdc
bcdc fec
bfbd dbc
ef eedbe
dd febf
eec bbbbcc
bebc bcdd
fbe c</w>
eeee eefee
eebc bebbc
becc bbbf
bedc dfc
fdd ea
fdd fdc
bdcc fbc
a bedf
bd dbbeec
dc beefc
ef bfbc
ebe bedee
ebd bdfc
bbd bdf
ba dea
bbee eea
bfc beebe
bbec decc
beee fbbc
fec eeec
eebd ebdc
bedc bef
bcdc beec
ecbf bbbe
bcbbc bbbbc
ecebb bbec
ebbcc edc
bbbbbbc bbc
bedbb ecc
ebb dbba
ebe ececc
ebe bfdd
ebc edbec
bcc bdebe
eec bca
ebbc decc
becc bcbd
beebe ea
bbeec dbc
dccc bbc
bcbbc bbbd
dcdc dbc
eedbbd cc
a eefc
ed fdebc
ebb fdbbc
dc dd</w>
bbbc eebbc
beee bebbc
ddc fbf
fcc deec
bcbe edbd
dbbbb bcbbbb
ecbd bebd
ecec bbdc
bcdc bef
bbeec eec
bdec bbcc
bcebc bec
ebbec ff
a ecdd
bf eefbc
dc bbbbebb
bbbb fdbe
ebe eceec
ebe dcbf
ebc dcfc
df bfbf
bcbc bbebc
def bbebb
eecc eedd
eebd bbdc
dbec bebd
eba dd
bced deec
fdd dbf
bdee bbebe
edbc eeee
ebbbf bbbe
df ecbec
fcc fbe
bbbbc fbd
dbbbb fbc
bebf ea
eedc fdc
ecf bbbcc
beef beebe
fecc edc
eca bdbf
a bebcc
ebc bddf
ebd ecebe
ff ebfc
bfc bfcc
becc bbdc
eebe e</w>
beebb bbed
ecbd ecbc
ffc ba
dbbbe bbbd
edebb ccc
ed fda
dbe ebbebb
dbd bded
bebc eeed
bbec eeee
bbec befc
beee bdbd
bbbbc fec
ecec bebd
edcc fbd
beef ea
fccc fc
ddbd bdc
dd bffc
ebc eceec
ebc ebbbec
ecc bca
bdc eded
dee bdbf
dbd fef
bbec eeebb
bbcc ebdc
dbcc fbc
eced bbbe
bdbe deec
fbbf bebbeccc
bcdbb ccc
bf debdc
ebe dcbc
ecc bfed
eec bceec
bbbc bbecc
bbee ebbebe
dbcc bbcc
dbdc dcc
eced ff
dced bec
ebb beac
bbbb edbf
ef ebdcc
dd eebbd
bcc bcbbd
bbd bcbbf
bbf fbbbe
bbec da
beee bbbec
ddc bbebb
ac beed
eebc bbef
dbec bbcc
bcbd dbbc
bcee debd
ecdd bbc
fbbbb bbbf
dcbd bdc
ebbec bef
ebe acc
ebe fdbd
eec bcdf
df bceec
bbbc bbcbbc
ebcc febb
beec bbdd
bcbe dbbbe
bcec decc
eeec eebd
fdd ba
bcebb bfc
bcbbc bbebb
eddc ebd
efbf ff
dd bbedc
dd ebbbd
ebc bcbbbc
ebf eedd
dbc beebc
dbb becbbc
fbc bbdd
bbbcc bfc
ffc bebe
fbbc ecc
fa dbd
bddd bbbd
fbec dee
edbc ba
beff ff
ec bbd</w>
bbd bbdbd
df fdbc
bebc dedc
debb ebdc
beec beebe
ac ebec
ecbe bbebd
ecbd becc
ecdf fc
eebec bbc
ebbed bbc
efbf ccc
bbdcc ccc
ebe eddf
ebc bdbbd
ebbc bdcc
dec bbbec
bef ecdc
dcc debd
bcbc deec
ddc d</w>
ebccc ecc
ebbbbbb ebbbbbb
bf dbbebb
ed deba
ebb ecced
ebe debcc
dd dbbcc
ebc bdf
dbc eeebc
ebbc bbbbbbbb
debb bdbd
bdbe dbcc
bea dee
bddc bdc
bcccc bccc
fdbb bcc
bf dbccc
ebe dcebb
dd ebbbf
ff eebe
ac bbed
fed deec
debe fbd
bebf bebd
ecbd ebcc
bcdd bbc
efcc edc
edbc beec
edbc eccc
bef decc
bcf bbebd
dbbbb beee
cccc ecc
fdd bbcc
efbd ff
dcee ebbc
ed debecc
bec bca
bbd bfbbbb
bbf bcebc
ba beef
dbd eebe
bef bfbf
bbbd beebe
bcbc bced
bbbf ebcc
fdc decc
eedc bbee
beebc dbe
efcc ecc
bd debecc
ed fcccc
ebe bfbc
dbd c</w>
dbf fef
becc decc
beed ea
bbfc bbebb
bbbcc ebd
bcbbbb bbec
dcec fee
bacc a
ebe bfa
bcc bedee
bfc ebfc
fec fbe
eeee bebbbe
bbef beebe
beebb dec
bebf bbebe
eba dee
bdbd fee
eedc ea
eedc ebec
bedd ebbc
ebbbc bbef
bf befcc
ed bedebc
bbbb bebbbd
dd f</w>
eec bbedc
bbbc bebbd
bcbc bbbbbbbb
fcc eeed
def bcec
ecbc febb
bccc ebcc
bba fbc
bedc bcbd
dbbd bbbbc
ecf ebfc
bedd efc
bedd eebc
ecee dfc
bdbc eecc
eeef beebe
fbcc bbc
eea df
a ebbcc
ef debec
ef fbebc
ebe eefbe
fc bdf
fc ecebe
eec ecbec
ebf bcebe
dbbc bbdd
da fbd
eedc fed
bfcc bcc
eded dec
dcbd ddc
bbfef ebfc
ed deac
ef bbefc
bdc fbbbb
bbbc febc
bbee ebeebe
beee bcbe
bbbf bcec
beec eedd
dbbc fed
bddc dec
ecfc df
ddbd ded
dbe beecc
ebf fbbd
dcc dbcc
beee eebbee
ebec bcbbc
bbbf bbebc
dbbbb bbdc
bedc ddc
bcbf bbec
ecdd ff
bebcc bbc
ebbbc eebc
ebbbd bbebb
dd bcebd
dd deccc
fc dddc
bec bcdf
dbd beebe
dcc ddcc
ebcc bcee
bbbf ddc
eef ebbbf
fdc deec
febb fbf
ecbd eebc
bebbc bebbc
edbd fcc
f dbc</w>
bbbb bdef
ebe bbcbf
ebe bebbebe
eec bcecc
bbd fccc
dee beef
dbc e</w>
bfc dbbf
bef bbebd
bef bfcc
bebc fef
beee bbbcc
bbebb bbbbbbc
dbf debc
bbbf febe
eebe dccc
bebbbb ff
dedc ebbc
edbc eebd
ecbbbb bbc
fc dba
ebd bfed
bbd eeebd
ba bcbe
bebe bcebe
bef dbbf
debb eccc
becc bbebb
eecc dfc
fdc bbbd
deec fbd
bcebb bbbbc
ebbbd bdc
bbbbbbbe bbbbbbbb
bf bbac
ebc efdd
bec dbecc
dbe fbbd
bbbc bded
bebc ecbe
def fbf
eebe dbbbe
bdec fbd
eea bbf
ebbebe bbbe
bbbebbbb bbbe
eebba cc
a ecbbc
bec efdc
dbe bbbdc
ebf bbeec
fbc bbbec
bbef febb
bdbd edc
fbec bbf
bdec ebec
be deb</w>
bf beefc
dc febcc
ebe eeecc
ebc dcebe
ebd eeecc
dbe eedd
bbbc ebfc
bbec febc
ebec bbebc
ac fed
bbef bebd
deec bbbd
eeec ebdc
ecbd eecc
bcef ff
dcec debb
dd bbebf
fc bcccc
bbd bddbe
bbcc bced
fee bcee
ddc fbe
eba ea
ecf b</w>
eeebb bebf
ffc dbf
ffc fcc
dbfc ff
eebebe eeee
edec dbf
ebe ecccc
ebe efdc
ebe beea
ecc bdebe
ebd ebbed
bbd bebbbd
bbbc eedd
bbee eebbc
bfc bdcc
bef ebfc
bcbc bbbec
fec bcf
bccc eebc
bcbd eebc
edbd fee
bdbf dbd
bdee fbe
ef bbcbf
bbcc dfc
fec bbdd
fbd b</w>
debe bbed
dbbbb bebd
dbec ba
beebe bebc
fa ecc
fbcc bbf
edbf df
bfbf bbf
eebec df
bbbb bedf
fc febf
bbd bedbb
ccc beed
bcbc bebbc
fec eedd
deec decc
eeec debd
ecf dccc
eeebb ebbc
eebf bebf
eebf eeef
bcebb eebc
bcbbc dbd
ebbcc ff
bdee debc
bdef a
ebc ecccc
bbd eebbf
ebf dbbbe
bbbc eebbbb
dee febe
ebec bebbc
bbbf fbbc
debe eebc
eba beee
eba fee
dbdc bcc
bdee da
bfbf bbc
bfbd eec
f bbf</w>
bbd eceec
dbb fcdf
ea fed
bbebb b</w>
ebec fbbc
dfc beed
bccc fbd
dbdc bbbb
ebbbd bcc
bfbd bebe
dfcc ccc
bfec debb
fdbb bdc
edec bebe
bbbe fbbf
dbe eeebe
edc eedf
bbbc dbbf
dbc fbec
dbb ecedc
bef bebbbe
efc feec
beee ebbebe
def ebcc
eebd bbed
eebd bcbd
bcec bbbbc
eebf bbcc
bcbf dcc
bdebb dbe
eea ff
bca bbc
dcee ba
bbbb ebecc
fc fbfc
bbf ecec
ebbc bcebe
bef bbeec
ebec bcbe
dbec ebcc
eebf fbd
beebc bcc
eded bec
bfbc bbbbc
bf eb</w>
ef fbbcc
ef bcebf
ecc eebbd
dbe ecdd
ba bbbbbbbb
dbc ebfc
efc bdbd
dbf eccc
dbf bced
eebe ebfc
bcec dbbc
eebf bebc
edbd fbd
bdcc fcc
bdebb a
eded dcc
ee df</w>
ed dbbebc
bbbc bebbbc
dbc edcc
ebbc edcc
dec beef
bbebb bedc
becc def
ecbc bbebe
eebf bbbd
ffc def
befc bebc
bbebf bbc
bedf a
ebc bbbbcc
fc eebbbb
bbbe decc
bbcc fdd
ebcc dbbc
eebe bfef
debe dbbc
bcbe edcc
eebd bedc
bccc fed
dbec bcbc
bba dec
bba fee
bdbd bcbd
ecf c</w>
dedc debb
ecbf ebf
eddc dbd
beff a
dac eabdbf
bbbc ebbbbbb
ebec bcebb
eecc beed
bccc def
dbbbb bcbd
bbbec ded
bbecc edc
dc bbdbd
bec ebbbbc
dbe c</w>
fec fdd
debb bebbc
dbcc dbcc
bfcc bfc
dbbcc ccc
ebbec bdc
dcee bebd
bbbb ebbed
ef bcdec
dd deecc
ebc deecc
ebc bedec
fc fbbbc
ebd debec
beee bbebc
bbbf fa
fbd ebdc
bebf dcc
bfcc dbc
eddc ff
bfec bcbc
bbcbd fee
dd dd</w>
ebc fdcc
bec bebbee
ecc beccc
df dedc
bbed febb
eccc def
cccc eec
bea bea
bfed bbc
eebbbe bebe
bd eacc
bbbb eebec
ebe dfcc
ebc dba
bef bebec
ebcc ecec
bbbbc beed
ebdc ba
bbebe dec
debc fbd
eebf fef
eddc dec
ebecc eec
bfef ccc
ebe dcbec
dd ecdee
fc fbbbe
dee c</w>
dbb ebfcc
bbec b</w>
fee fdd
fec bdcc
beec fbe
bbebe dcc
ecbd bcbc
beebe bbbd
eeed bcbc
bebbbb dee
bbebd bbbd
eeebe bbebb
bfcc dec
bdbf bdc
feec ff
bca ccc
ecc eea
ebf bebbd
edc bbbcc
beec eeec
eccc bbbd
bdbf bbbe
bcfc bec
bedbe bbc
bcbbd bbc
ddbd bbbd
ebf ebbcc
bbbc dbbbc
bfc bcbbc
dcc edbd
fbc bcef
debb bedd
ecbc dbbc
bbebe bebbc
bbdc bbbf
eebe efbf
bbfc bbbf
dedc ecbc
eedd fdc
bdf eba
ebbee bebd
ebc efbf
ebf bbebd
bfc bcef
dbb fcbbc
bef ecbe
bebc beebc
beee bcbf
fee ffc
bcee dbcc
dbbd fbd
eedc bbd
ecbd ba
eebf fec
bebbf bbbe
ebbbf bbc
dcbc ebbc
bf bbbccc
bebc febe
efc bbef
fbc beef
dbf ffc
bbdc dbbc
eebd edcc
bcbd fbf
eeed fec
bbeec ff
bcdd bdc
efcc bec
ebe ecbbbe
dd eca
df ddcc
ded ecdc
beee eef
eccc beed
bccc ebec
dbec def
bdbd bddd
bbecc bbc
febf a
dcbc bebd
ebb fdef
df bedf
ebf bddc
edc fccc
dbc dbdc
dbc bebec
bebe bebcc
bfc bcbe
dbd bba
dbd decc
bbbd bebec
eccc eebc
deec bedd
dbbd bcbc
febc bdc
bcbbbb bbee
fbbbb bec
fbbbb bcc
bcebe bbf
bedbe a
ecef dbe
ebbbd ebd
bebbebd cc
ebbc febe
dbb ecbef
ebec bced
debb bebf
eef ebbcc
debc bbcc
dfc bbed
bbbbbbbb bcc
eeec fdc
eba bbee
fef edc
fef bcbc
ecec fed
befc bbbb
bcbbbb dbe
ecef a
ebbbc ddc
ebbbd fc
bf fbbef
ebe dcfc
bec bdebe
bbbe beebd
bebe ecdc
bebe ebbebe
dbb ebced
dec bcebc
bef eebbc
fbc bfcc
fbc fecc
eebc fbbc
debc ddc
deec ecbc
edbc ecbe
bf bbdbd
ebe edbec
ebf ebbebb
bebe bbeec
fbc bdbd
eedc dbf
bcbbbb dbd
ebc ebbef
ebc bddbe
bec deecc
ebd eeccc
eec dded
ebf eebbc
bbbf eeee
bbbbbbbb bbec
bbfc bbcc
bebbbb bef
bcfc bbc
fbbbe bbf
bfbc ebec
ebbec beec
ed fdebe
dc bebbebb
ebd bbccc
df feec
edc dbbf
bbed bcebb
ac debe
fbd bcec
dbbbb bbebe
bedc fdc
ebfc bbbe
eebf dcc
beef ef
bbecc dec
fbbbb fc
ecbbc bbbe
bd bbbb</w>
bbd bbbfc
dbe ebbcc
edc eeccc
ba eeec
dbc fa
ebbc ecdc
bef ebbcc
dbec ecbc
bcbd eeee
eedc bcbc
dcbf ccc
bcc bac
bcc eebcc
bbd beff
edc dbbbe
beee dbcc
ddc bbbf
eef dedc
bccc cccccccc
bedc ecbc
beef eec
dbbbc bbbd
ebccc eec
bbba ba
bbdbbcc bdbf
bbbc bcbec
bbee bebbee
fcc dedc
dbbc eeee
bbef bebf
dbbbb bfc
eedc ebdc
fef bbcc
bcdc ef
bdcc bbf
beeec bbc
bfed a
dcec bfc
ee dbb</w>
ebc eca
fc ececc
ecc dddd
df dcdc
bdc fbbd
dbb dcecc
bbebe fbe
dbec bbed
beebb fbe
deec fee
eba fc
debd bbbd
bced ba
fdd bbbe
bebbc fbc
bbebd dbd
bcdc fee
bcbbc eec
bcbcc bbbb
bedbb ebd
bf fbecc
bf eebfc
ed dbbbec
ecc bebbd
bcc bceec
dbe fbcc
ccc debb
dbc eefc
bef eea
eeee bbed
eecc def
bbdd d</w>
bdbd bbed
dbbd d</w>
ecee debe
dcee bcbc
ebe eeccc
ebe eeebd
ebe fba
bebe bfcc
dbb fcfc
dbf bbef
fcc bced
deec bcbc
fef bebc
fecc bec
fbbf ff
bfbd bbbc
dcec bebc
bbbb febd
ef ecbbf
ebc dcef
ebf eea
ebf fdbe
bdc e</w>
edc bdbf
dec dcdc
bbebb bbfc
fed ecbc
fed bcec
bebbbb ebbc
beef dee
ebbbc fbe
ebe fea
ebd bbedc
df eeef
bbee bbebf
ea bfa
bbbd bcee
fec ecbd
debb def
fbd bbbbc
fbf febb
bba bfc
bcdc bbbc
fa bbbe
bcbbbb dbc
ee ebe</w>
bf eedcc
edc bdef
dbd bcebb
eeee bebd
fbd bccc
bcf dccc
bbebc ba
edbd bfc
ecbf ddc
eedf a
fdbb bec
edec bcbc
be dbc</w>
ee bbbb</w>
ec eeedcc
ebe bb</w>
bebe bedd
bebe bebbf
beec fdc
eebe efebe
bdbd bbec
ecdc fec
eeebe ba
bbecc ecc
bcef fbc
bcdd eec
ebbbc efc
ebc eedcc
bbc ecbcc
df bea
bbf ecf
dcc da
bbbf dfc
dbbc dbbbb
fbf beec
bba bef
febb efc
dbbd ecc
eedc edcc
bebbbb bcbc
fa ea
bfbc ebcc
bbbb ecebe
ebc eedee
bbc eebbf
fc eeccc
bcc ecdf
dbc bbebd
dbb ebcebb
beebb beec
eedc bebd
ebfc dd
eeebb bfc
bddc ddc
fedc a
ed bebbdd
dc bedebb
bbc bdbec
bec dbbee
bbbe ebbbbc
bebe edcc
bebe bebbd
bbbbc ddc
eccc dbf
bccc fdc
bced ebbc
ffc beec
bebbbb bdc
bdbc debc
ecbbc a
eea ba
ecbbbb bbbc
bfbd bfc
ebc bfef
ebc efbd
ebd bcbcc
bef bcebc
eebd ac
bebec dbe
ecbbc bec
ebccc edc
acc ac
bcbcbcbc bcbc
ef febbc
ebc fbebe
bbd ecbbd
dee ecbe
dcc d</w>
def da
ffc bbbe
dbbbe bbebb
bcbbc bbee
efcc fbc
ecced ccc
a beac
ed bedbec
ebc edec
fc beff
dcc bcf
bbbd bdebb
fcc fa
fed bebf
bbdc eeee
bcbd becc
bbecc bbbb
bdbc debd
bdf dbbf
eeef ea
eebbc bbee
feec bec
abf ac
bbdedc fbebcc
a ebba
ef eeecc
eec ecfc
bebe bbebd
efc bfcc
debc bbed
eebd ebbcc
bccc bcec
bcbd dbbbb
fdc ecbc
febb debb
eeec edcc
eba bec
dbcc eebc
ecf dbbf
eebf bcbc
eeed dbbc
bdbc ebcc
fbbd fbc
fc f</w>
fee b</w>
fbe edbf
bbdc ea
debe ecbc
debd bbee
eeebb ebd
bebbc bbbbc
ecebb bebc
ebecc edc
febd ff
ebbbc bbdc
bebbee bbbb
dcee def
dc ee</w>
ecc bcccc
bbbe bddd
bbbc c</w>
dcc bbfc
efc fdd
fee bcebb
fee ebeebe
fcc bcdc
bbebe bba
beebb ebcc
bbbcc ebbc
febe beebe
bf bedbf
ebb bebbdd
ebe bdbcc
ebc bbba
bbc ddcc
ecc bcdbe
ff dcdc
dbc eeef
dbb ebcbbc
dbd befc
bbbd bced
eecc bedd
bcbf fec
eeed bbd
bebbbb dd
be bbeb</w>
bbc fdbc
fc bbbfc
fc edbbc
ecc dddc
ebf bcdd
ded febb
fee bcbe
bbebe bcebb
bbdc bedc
bbbec bbcc
bbebd ccc
fbbc bbbf
bcebe bebc
ecbbc df
bebbf bbf
ffcc ccc
edee ded
ebbbcdc debe
ef eefbe
dd fdbb
ebbc bdbf
bbbbbbbb bbee
dccc bec
dbbbc bbbe
bcbcc bcc
dcee bbed
dc bbbecc
bbbb bcbbf
ebe dddc
ebe dcbbc
eec eebec
ba eeed
ff eeec
bbec bdbd
beee bcee
ecbc eeec
da dbf
bbbbbbbb bbdd
dccc dbc
eddd dbe
bdbbbb dbd
bbcbd ccc
ebd ebbbf
eec ebbbf
bdc eeef
ba bedc
ba fbbbb
efc edcc
bbec eedd
beee bbfc
ebec bbfc
def bebd
fed beed
fdd bef
dcdd dbd
dcec fec
dded dec
bcbbdd cc
bcdbbbb cc
ed eeeecc
ebe bcdec
ebc fdee
dbb ecbbec
bbbd fbbc
bbebb bbbbebb
fbe eced
beec ac
beebb fec
dccc dbd
bdbc dbbd
bebec bdc
dcdc ddc
bbbb bdbe
ebc edef
ebd febf
bbbc bdbf
dee eeec
bebc bcbbc
bbbbc debe
bbbbc bdbd
becc bebf
decc bfc
eeebb eec
bbeec bdc
ebbebb beebb
ee ebd</w>
bf bbbebbbb
bbbb feec
ebe dbecc
bbc edbbc
bcc bebbf
dbb fcef
beee fed
ecbc ea
bcec ea
bbebc bbbf
fef beef
eeed ebd
bea bbee
beebc bbbe
bdebb bec
eefc ff
ebbbbbb bebe
bfec bbec
eebbebbfed edcfcc
ebb bedebe
ef bedee
fc bcbbf
eebc deec
bebd bedd
da fec
dbbbb debb
dbbbb dbbc
bcec eeec
decc bbf
ecec dfc
ecbf fbd
febc bbbe
edee becc
bf eebbebb
bf fdebb
dc befcc
ef eeeec
ef ecebd
dd dcccc
ebc dea
bbc bbbbebb
fc bcff
ecc efdd
edc beecc
dee dbdc
dee bfcc
ccc eeec
ebbc bcef
bbed bebbc
debc fcc
debc dfc
dbec beee
bcee bbdd
eeebb bcbc
beebe dbc
bcbf fee
ecdc ebf
eeef eeebe
bcbbbb bbbf
bcbec bec
bcbec df
ebb dedcc
bbbb edebb
bef bcebe
bbcc bdbd
dbf eecc
ac fbf
bcdc bebc
befc eec
dddd cccc
feba cc
a bbccc
ef fded
fc eedbe
fc eebbd
bdc ecdd
bbbc eced
ebbc ecebb
dec e</w>
ded bdcc
debb bced
debb bebbbb
ac deec
bbdc b</w>
eba dbc
decc dcc
edbd bebc
be dbe</w>
ef bbcbd
ecc beeec
ebd ddbd
edc fbbd
bfc ecec
fbc ecec
ac ebcc
bbbbc bcbe
ecbc bbef
ebdc dfc
eebd bdbd
bedc ea
ebe bebbec
bcc bebbbe
dbd ecbe
bcbc eccc
bebd fbf
beebb ebec
bcec eedc
edbd ebbc
bcdc bebe
bfcc bdc
befc dd
fbbbb fbbbb
ebbee eec
bf bd</w>
ebe ecdee
ebc bbbbebb
ebd bca
bbd bcecc
bbd bfef
bdc bbebd
edc bcebe
dbc dbbf
bbee bedd
dbd fbbc
dbec fbd
bcec bbbf
eedd ebbc
befc bef
ebccc dcc
ebbbbc bbc
bc ebe</w>
fc eddd
ecc ebbebb
dbe edbf
ebf ecebb
ff d</w>
dee bcef
bbee eebbbe
bfc bbbcc
dcc e</w>
ea bdbd
beee fdc
bbebe bbef
bebf fbf
bcebb bbcc
bbeec bbf
bac fa
dc bbebcc
ebc edebe
ebd bdbbd
eec bebbbc
bbd edfc
debe dbf
eba bca
bebbc ded
eedd bbbb
ecee bbef
febc ded
eebbc dec
efcc bbc
fdf bbc
dcdc dbd
a ebbebb
ed bbbebbbb
ebb feccc
dc fbccc
dd dbccc
ba bcf
dbb fcbd
dec c</w>
bebc bcf
ebcc ecbd
ebcc ecdc
debb dfc
bebd eeec
fed dedc
beebb eebe
bcec fbe
bedc bbcc
eedc bbbd
bebcc bec
bfbd bcc
a efa
bbf eebbee
edc bcfc
ba bcee
ff eea
bbbc bddd
bbee dbbbe
eeee ebbef
eecc bbdc
dbbc fcc
ebfc bebe
dbcc bef
debf df
bcbcc bbc
ed bacc
bec fdbc
ba dbbd
bbbc bbbbbbbc
bbbbc fbe
ecbc bbdd
fed bbed
bbfc dbf
bbfc bebd
cccc ff
bcdc bbbe
eeef fef
ecbbc bbf
edbc ea
bbcbbc bbc
edee dbbc
bcda cc
ebe bdebd
dd dbbdd
ebd dded
dbc eeeec
bebe eebebe
bbec eeed
bbbf bcbe
ebdc debe
bbeec bbec
eebbc ff
fbec dbe
bdebb bbbd
bd bccccc
ebb fdfc
dbd eeebb
efc bbbcc
fbd febe
eccc ebec
debd bbbc
beebe bbbf
bded beec
fbec bdc
ecbec df
dced a
ecbbbb bbbe
dcbd bbf
edee debb
dd dcec
bcc bfed
ded fdd
eecc debc
bcbd b</w>
ecec ebec
ecec deec
edcc bbec
beef bbebe
eced ebd
bbbdc bbbd
eebdc eebceba
bf febec
ed febdc
ebb ee</w>
ebe eeeec
ebc dcebc
bbd fdbd
edc bfdc
bebe dbbd
bebe eebbee
ebbc bcbbbb
bba bcbc
cccc df
dbcc ddc
bac bbc
bdbe bbbcc
ecebb dbc
bebbbe beee
bdbbbb bbebb
dced dbc
dbb ecded
dbd bbfc
ded ecbd
ebcc ecbe
eebc bbebc
eecc decc
eef ebbef
bcebb debb
bdec bbebb
edbf bbc
edbc bbdc
feec dbc
bfec bbbd
eec beeec
bbd ecbcc
bbd bfebe
bbd edebe
bbbe edbd
ebf fccc
edc eeebc
beee bced
becc ecbd
ebdc bbebb
dbbc b</w>
eef ebbebe
debd debb
dbcc fec
bcbf bcbc
bebbbb fc
eeebe fef
bfbc def
a fdee
ee bbbbbbbbbbbb
ebb dbbbec
ebb febdc
ebd dfcc
bbd beedc
edc defc
bbed eeed
ac bbbf
eef d</w>
eebd dfc
febb bbebe
fbbc fcc
dbdc ded
eddc fcc
bfec fed
dd dea
fc dcbf
bbd bddf
ebf bcbec
dec bbecc
fbc bbebc
ac bcbd
bbbbbbbb bbbcc
debd eebc
dbbf bec
bdbc bbebe
bdf bbbcc
bdee bbebc
febd dbe
ebeebb bbbe
dbbbd dbbbb
ecbbebc cc
ebdcedbbec beebf
bd bbeba
bf beebec
ecc edef
eec bdebe
bbee bebcc
bebe bbebf
ebbc eebbc
ebbc fbbbb
bbbd deec
bbcc fef
dbbc ea
edcc ddc
bcdd dcc
dbbbc dbbbc
efdc df
bbbbbbc bbbbc
ef edbcc
ebd bbebf
eec bedbd
ebbc dbbbe
bbcc bdcc
bbbbc bbef
bcbe eba
bbeec debb
fa bbbc
ecebb dee
ebbebb ccc
eddc bcc
fecc dec
ecbbc bcc
ebb ebac
ef eeba
ecc eedee
ebd bedee
bdc bdebb
dbc fdf
dbd edbd
fbc bebbbb
bbcc bcee
fee debe
bcbc dbec
fbe d</w>
dbf beed
bbdc fdc
ecbe bbecc
eebd def
da dba
eebf fbf
febc bbec
eea bbbe
ebbbf a
dc bebecc
ebe eebbebb
eec bdfc
ba debc
ba febe
dbb fcdc
bef ecec
fec befc
eebd bccc
dfc fed
bca bdbf
edec bebc
ececbd cc
a bebbd
bf eedbd
fc ecee
ecc bdfc
ebd bcdf
edc bcbbc
dbc bcef
bebe eefc
dec fbbc
bcbd ea
febb eebc
bebf eebc
eedc debb
bcebb dd
bddc dcc
eebbbb ccc
f dec</w>
ebc bbdcc
ebc edfc
bbc fbebe
ebd eedf
bbd bedbd
ebf bebbee
ff fbbf
bbbf bba
bbed ffc
beec fbf
beec ffc
ac dac
bcec fdc
bfbd fbc
edec ddc
ebebd ccc
ed fbbef
bbc fdee
bec eebbd
ebd bebbbc
ba cccc
bfc b</w>
dec edcc
dbf bdbd
dbf bdcc
bbebe eebc
dfc dfc
bcdd ded
febd dbc
ebbee dbbc
ebbbd bebc
bf beded
fc debcc
bec ebbbbbb
bbd beebf
bbee bebbf
dbd bcbf
efc bcbf
efc beef
bbec bbbcc
fbc bcbbc
beee bcbbc
dbf bcbe
ac eebc
eebe debd
eebe bfebe
bebf fdc
dbbd eebc
dbdc eecc
bdbe eba
efcc bcc
feec dd
ebbbc becc
bf dbbed
ef bcfbc
bbc eeebd
fc bdbec
ecc bfbf
ebd bcdbe
bbd bbcbd
ba fdd
ff bbeec
dee ecbf
dee ecebb
bfc beef
debb bcbf
ecbc ecbd
bcf e</w>
bbdd ebec
dbcc ebbc
beebc bbbc
eac dec
bcfc a
dcdd dcc
eebbdd cc
bcdbbd cc
fbbebd cc
ed fbbbbc
ed eebccc
ef beebbc
edc dced
ff bcebe
bbbf ffc
ebdc ea
fed fbf
bcbd fdc
fbec dbc
eebbbb bcc
fbbf ccc
bfec ebbc
a dedc
bf bbeecc
ebe eebdc
bec ecebe
ebd ecbcc
bbbe fbbd
bfc fbcc
ea debe
febb fbe
bced becc
bdbe bbeec
bebbbe beebb
edbf fcc
dcbd bebe
dded dbe
ebb dbbebd
ef eedbc
bbbe bdbbc
ebf e</w>
dbb fcdd
bebc eebbc
bebd eccc
eebe ebebf
bccc ecbc
da bbec
bcbd fbe
bbbec ebec
bcdc bcbc
febc ecc
dcbd dcc
bfbd dec
ebe edef
bec eded
bbd edbec
dee bceec
dec bebec
ac bbebb
bbdc bdbd
debc beed
dbcc bbee
bded dcc
bf bbdbbc
ebc bebbec
dee edcc
bebc bcebc
efc dbbd
dfc beee
beebb eebd
bbbec bebd
eeebe bcc
ebbcc dbd
bbbdc dee
a fccc
ebe eda
bbd ecdf
dbe bdbc
ebf dccc
bbbc bcebc
bebe eebeee
bef edcc
ea dea
bbbd fa
bbed bbebc
fcc ecbd
beec beebc
eeee ebbebb
ac eecc
bbdc bbbbc
bbdc eeec
eebe deec
ecf e</w>
eedd bbbe
ebc eebbbc
bdc bbeec
bdc eefc
ff bca
bbbc eef
bbee eef
bbee ecbe
bbee bcebe
bebc eeebb
ded bcee
bbec beecc
ecbc fdd
bbdc debe
bbdd eebc
bcec bbebc
bbfc edc
decc bedc
fef dbf
debf bbc
bfec bebd
dd ecbcc
bec edbbc
bbf bebbd
bebe edbd
dbb ebcbf
ebec dedc
fcc dbbc
fcc edbd
eeee eebef
bccc bcbd
beed bbebb
bbbec ba
decc fbc
bced dbec
eeed debb
eeef bbc
ebbee edc
ebbbc ebcc
bfebb bbbe
ebbec dcc
bbbb ecdc
ef ecff
ef beea
ebe edebc
ecc dbfc
ecc bcdee
ebd bdee
ebd ebbbd
eec bdebc
fcc eebf
eebd bbbf
fbf bbbbc
bebf beec
bcbf ebbc
bcebb ded
ffc fed
febc ebf
eddc bbc
edbf edc
fcbd ccc
ebb feecc
ebe bbefc
ebc bcbdc
ff bdebb
dbc bddc
dbc bebbd
becc eeee
eebe eddd
bbfc fbd
fef ded
bedd ebf
beebd a
fdebf cc
ebe dceec
fc acc
bdc bedf
bbee ecebb
bfc dbbd
bfc fa
dec eced
fcc bcf
ebdc def
dbcc bbbd
bcbf bbcc
bcebb edc
eeed efc
eca ccc
bfec ebd
bf deccc
bbbb bbedc
ecc eceec
eec eedcc
bbd fdec
bdc ebbcc
bdc ebecc
bbbc bbccc
dbc bcbbbb
bef e</w>
bebc bebec
fcc efcc
becc dfc
bced fee
bebbbb ebbbbbb
dedc dcc
bcdc ebf
edee ea
ebc bfebe
bec fbbbe
ebd eebbbe
bcc bbebf
bcc bcecc
eec edbbc
eec eedbc
ebec bcee
bbed ebdc
bedc dbf
bbbec debb
bded bebc
eddee ccc
a ecdf
ebb bbcccc
bbbb decc
ef eebdc
dd beff
dd bfef
dd fdec
bbbc bcbbd
ebbc bcfc
dcc eef
ded eeee
ebcc dbec
fbe bfef
ecbc ebdc
eecc ecdd
bbdd bbbbc
beebb efc
dbcc fee
fbbc fec
dbbee dee
bfbd bdc
bfbd dbd
edec bbbd
bbbedfcfceebcbfdbbbb efcbbebdeecbf
a eeebc
bf bc</w>
df debf
bbec beef
bbcc bcbe
bcbc eedc
fbe bbccc
bbed bedd
bebd bebbc
ecbc bdcc
bbebe febb
bbdc def
beed dbec
bdec debe
bdebb dee
febd fc
eedf ccc
dcef ccc
be dbd</w>
bd bbebfc
bf fbccc
dc dbbdc
ebe bedbb
bcc eea
eec fdbc
bebe bcef
dbf cccc
ecbe eba
debc ecdc
dfc dbec
da bebc
beebb bbbbbbbb
fdc eeec
decc fed
ebfc ebd
ebfc edc
beebe bbec
ffc edc
ebc ecebd
bec bfdd
dbc dbbbe
dbd eedd
dbd ecdc
bbcc bedd
ebfc bcbc
eeed bbee
edcc eecc
bcbbc bbec
bcdd fc
fbbbb ebf
dbbee bbbb
eefc bbc
dcbc eebd
acc abdbf
bebbecc cc
df ecfc
bbbe bcbbd
bbf edbf
dbd bdbbbb
bcbd fed
fbf debb
bcec fbf
eedc eebd
ebfc dcc
ecec beee
bdbf dbc
a bbebf
bf dbbdd
dc bbdbf
dd ebbbbbb
eec deccc
ebbc bebbbe
ebec bdbd
ddc ac
fbd dbec
ecbc deec
febb ebcc
eeec debe
bebcc bbbb
edbc dbbc
ebd bedbc
bbd dcbf
bbf ebbbf
ebf bcbbbb
ff bcdf
efc bbebe
fec bbef
bcee dbbbb
bcec eccc
febe eeebe
fbbc dbf
febc fec
bded bef
bdbf bbbc
bdee debe
eddc bdc
eea ea
efbf a
dcec dbf
ebe bbbbbd
ebc bcbebe
ecc bebbf
bebc befc
ded bbebe
fbc bcfc
beee debc
fee bebbc
ebec eeec
bbed bccc
bedc beed
ecf dedc
beef bbebb
bdbc bbef
feec bbc
ebbbc eeee
fbdc a
ebbec bfc
ebbec dbd
ee ebc</w>
ebe bedbd
dd ecdbe
ecc d</w>
bcc bebbbc
eec debec
bbf bcdd
dbe dced
ebf bebbf
dee e</w>
dee eeccc
bebc dbdc
ded e</w>
ddc dbbbb
ddc bddd
bbef beec
bebf eebf
eeebb bbbbc
bcbf bbbf
bdcc bebe
ebbebb bbbd
bdebb bebe
bfec fee
bd fedcc
ed dbbbcc
dc bebbed
ebe ddbd
ebe bcebf
ebe eeea
ba dbec
ebbc dedc
bbec ecbd
eef dbbbe
bcee decc
beed fdd
eefc fc
ebbee bbebc
bcccc bcc
ebeebb bebe
bbbbbbbbbbbb bbebb
ef bebfc
ef fefc
df acc
dbc dccc
bfc eebf
dbb ecbebc
dbd bcbe
fec bcbe
fec bfcc
ecbc ecbe
ecee debc
ebbebb bec
efcc dec
eebbbb bbbbc
bbbe bcdd
ff debd
dbc dcdc
dec beebd
bbbd fdd
bebd da
eebe edbf
eebe ebba
bcbd bbbf
eedc eedc
ecee ebdc
feec dbe
ecbec bec
bfec fcc
a febd
dd edbc
ebc bebbbd
bbd fbbee
df bbebd
bbbe bbccc
fbc ecbf
ddc ebdc
bebd bccc
becc eeed
eebe c</w>
dbec ebdc
bced bcbc
fa bef
ebbebb bebc
bedbe bbbb
eded bbf
ebbbc eebd
dcbc fed
ebbec bbebb
dcee debb
eec bbebf
bbd eac
df febd
dbd bebbbb
dbf eeef
eef bac
debc ebdc
fdc febb
bbebc fee
dbbd bbbf
edcc ebf
beef fef
dbbf bfc
bcef ecc
ecdd ebd
bddd ded
bddc ff
bcc bdec
bbd fdbb
bbd edebc
ba fbbc
dbc eebbc
fbe debf
becc bbebe
dbbc eedc
debe bbbf
eeec ebec
ecf bba
bcebe dbe
bcbbd ccc
ebbbd bbec
bcdf ccc
dcbc fcc
bfebb ccc
eda a
dcee bbcc
dc febec
dd ececc
bbc eebbbe
fc dddd
dec bcbbc
fbc bebec
debb bbbbbbbb
bbebe bbbbbbbb
bded efc
bcbec dbe
ecdf edc
ebbec bbbd
dbbbd dbe
edbbbb febec
fc dcef
bec bcdbe
ebd dba
bdc ddcc
dee eebf
ea dca
fbe ebbef
dbf eebd
fbd beebb
debe eecc
ecec ac
dedc ebcc
bdf bbeec
ebbcc bebe
bdee eccc
bebbd bbbc
bf eeebbc
dd db</w>
bec bedee
bcc bdbbc
eec dcec
df dced
bdc bedbe
ded c</w>
bbbf beebe
eef bfebe
bcbf bbbd
bedd ebcc
dbbf fbc
ecbf bfc
bfec efc
ed bedfc
bbbb bbdbd
ebe fdbb
bbc beff
fc dea
fc bfef
ebd bcecc
eec ecf
dbe feec
dbd bdbf
fee bcf
debb fdc
bbbf ecbc
beec beef
becc fbf
debe efc
dfc bccc
beebb bbef
deec bbcc
eedd ebf
bdcc ded
ecee b</w>
fbec dec
febf ff
ebeebe beee
abd ba
a fbbbe
ef bedcc
ebe bbebec
ebe eebbebe
bbd ebbdd
bbee bcef
dbd bbbec
fee eebeee
ebec beebe
fbe eddc
fcc bcbf
deec dbf
eeec bbdd
bbfc efc
ebfc bef
eeed dbf
dbbf dee
be bbbd</w>
bbbb eea
ef bb</w>
bec eddd
bec ebbed
ebd beccc
bcc bbbbcc
bbbbc fbf
fbd cccc
bced bbbd
bcdc efc
bbeec beec
eedd eccc
bfcc eecc
bbbbbd bbebb
bcc dbbee
edc beebd
dbc dedc
bbee ebbbf
dcc eddd
fbc eced
eebe ebbcc
bcbd eeebb
bbbec bbed
edbd beee
ecef bbc
fdcc ccc
bd becccc
bbbb debf
bbc bdebc
fc bfbbc
ecc bcbbbb
eec bcdbe
bbd fbef
dee ecec
bbee bcebc
bcee bbebd
eebf fdc
dccc dbe
eecebd ecbbd
ebc ffcc
bec bedbb
ebf bdebb
bdc bea
ff ecec
dcc bcbe
ebec dbcc
bcbc befc
fbd fef
def bbdc
debe bcec
bccc bbbbc
beed dced
febb bbbbc
bebf efc
bebf ebcc
fbbc fee
bbbdc a
ef bcbfc
ebc dbbcc
ebd bdebc
ebd beedc
ebf bbecc
bebe ecebb
bbec bcdc
ac ecbc
eebc eeec
def eecc
def bced
ecbe ebbcc
beed eedc
ebfc ded
beef bebc
bddd bddd
ecdbe ccc
ed becccc
bbd edef
bbf bebbf
bdc eba
dcc bbebe
dcc bcbf
eeee eeebf
bcf debf
bbfc ebec
beebe bbcc
ecdd fcc
febd bfc
ef bcbbee
bcc eeecc
bbbc ecec
ea eebd
dbf bcbf
eebc fef
fbd fdd
eccc bebd
fed bbdc
debe beec
bcec eeee
febb ddc
eedd bbf
bfcc dee
fdf fbc
dcbc eecc
bbbbbd dbe
bcdebd cc
ef ecdbc
dd bcdee
ebc bebbebb
fc bedcc
fc edfc
ecc beebd
ebd ebbebe
ebd bfdd
bcc dbfc
bdc bcbbbb
ebbc bbeec
bef bcdd
ded dcdc
fbe bdbbc
bbed debd
beed bbdc
dbbbe dee
beeec a
bfbd bbbe
ed bebbef
bbbb bcbbbd
ebe bebbbf
dd bedbc
ebc ebbdd
eec fbbf
bbd bbdcc
bbebb ddc
debb ecbd
fbd eccc
fbd deec
bbebe eeebe
eebe dbdc
dfc ecbc
bbdd bcbd
dbbbb bbbbbbc
bedc ebdc
bebbbb bcbbbb
dedc bbc
ecebb bbbd
dcbd ebdebbcc
bfbd fec
edc dfcc
bebe ecbf
dbb fced
dcc bddd
bebc edcc
fee bbfc
bbbbc bbcbbbb
fbd bdbd
bbdd eeee
dbcc bebc
febc dbd
eddc ddc
bbbbebb bbbd
edee bbebb
a bdbbc
bbbb edcc
ebc ebdcc
bcc fdbc
bcc fdee
bbf bbebf
bfc bcfc
ebbc bdebb
bbec fef
bbbbc bcebb
def bbbf
debc beee
ebbbf ff
ebb dbbfc
ebe fbbbd
dd ecccc
dd ffcc
dd efdd
bec eeccc
dbb ebcbd
bef bebcc
bbcc bbbec
fbe bac
eef bbbdc
bccc bebd
beebb eeef
beed beee
eeed ebbc
edbd bbee
eea bbee
bebbee bebe
ebbec ebcc
a ecbec
ed dbbebd
bbc febf
dbe bebbbc
edc fbdc
fcc eeee
beec bced
eccc ac
beed decc
bba da
debd efc
dedc ecdc
beebc eec
bdee ebdc
ebc ebbbc
df dcef
dee dbbf
bbec eebbc
bbcc bebbbb
fee dbcc
ebec bcdc
fbe ecdd
bbed fbf
fbd eeee
eecc fbf
eebe dbbf
beebc ff
efcc fec
fecc fbc
fbcc eec
ebbed dbc
eddf ccc
ebbec bcbc
bf bebbebe
bbbb eefc
ef eeebd
dd ebbdc
df eeebe
bbbc bdbbc
dbb becbf
dec bcfc
bbed ac
eebc ecbe
bbef fa
ecf bbeec
bcef bbbe
bc bbeac
dd eebbf
edc bdebb
bbee ecbbc
bef dbdc
dcc beebb
bbbd eedc
fee bbbec
ebcc bdbd
ebcc beef
bbed bced
ecbc bdbd
dbbc eeebb
dfc deec
bbebc becc
eba bda
edcc efc
bbebf a
eebbbe beee
dddc ddc
ef ffcc
ebc eebbee
ebc fdec
ecc eebdc
bbf bbbdc
bbf febd
dbc eeebe
dbb ecbbee
bbbd bcbf
fee bbdd
ddc edbbc
def fbe
def eebc
dbec dbf
bedc decc
eeef bdc
ebccc dee
ebbee debb
bfed dbe
ef fddc
ebe ecdbc
bec ecef
ecc defc
bbee fdd
bebe bbecc
bebe bcbec
ebcc eebf
fcc fedc
bebd decc
eebd bbdd
eebd fbf
dbbd bcbd
ecf dbdc
bdbf fbc
bbebf ccc
bebec bcbc
bfbf bbbc
bedf ff
fccc ff
bfbd ebf
cccccccc ccccccccc
ebe bebbcc
fc bddf
eec bcebd
eec bcbbbe
bbee ffc
bbbd ebdc
def dfc
debe bcbd
eef dcdc
bcbe edbf
deec da
eba ebf
dbbbc a
fbec bbbc
bedf bbc
bedbe bcc
bceec dee
edec bbcc
bf eebebc
bbbb dba
ef bcbebe
bec debcc
bec bfebb
dbe ecbbc
edc bebec
ba bac
bebe ffc
dbb ebeef
ded bebcc
fbe ecef
fbe bfbbc
beec dbcc
bbebc ebec
bbbcc ebf
bcdc bfc
ecee bbeec
bac df
bebbf a
bec bcbbbe
bbf bbccc
ebbc ebfc
bebc bebbbe
dbf bcf
fed febb
bbebe bcbd
dbbc eeed
eebd fdd
dbec eeec
fbf cccc
bbfc bbed
bebbc bbbf
bcdc fcc
eebbbb beee
ebbbd fbc
ed bedbbbb
ebb dbdcc
ecc edbbc
ecc bfdd
df eded
bdc eeebc
bbbd bbbdc
bebc bba
bbec bded
bebd ebbcc
bbdc dbbbb
eef bbecc
bebf fef
dbcc efc
bedd fcc
dbbbe dbd
eea bea
bfbf bfbf
dcbd fee
efbd dbe
ebe dca
ebc bbcbbbb
ecc bddf
bdc bcfc
ba ffc
bbee bebbd
dec fecc
ded bcf
bbed fdc
beec bebcc
eecc ffc
debc ecbd
febb eeebb
bbbec becc
dedc bebc
edbd debb
bebdc edc
bfec dfc
dd debcc
bbc bdbbd
bbec bebec
bbebb febe
ddc eedd
fec bea
fbd debd
eccc debb
bcec eebd
debd fbc
eeebb dee
bebbbb ebd
bbebd ded
dbdc efc
bdec fed
dcee fec
bf bbdbbbb
ed bebdcc
ebe bbbebbbb
bbbe fecc
bbbe beeec
bbbc bebcc
bebe eebbc
dbd bcf
bbbd fef
bbebe bebbbe
bcee bba
bebf bbbbc
bded bbbe
bddd bdbd
bbbb eebbd
dd eeebd
eec dea
ebf febf
bfc fbbbb
ebbc bedf
dec febe
bebc eebe
fee bcbbc
bebd bced
ebdc beed
bccc fbf
bbbbbbbb bbbbbd
deec bef
edbd bef
beebc dbc
eded fc
dcec eedc
bec bffc
bcc eceec
eec fdbe
bbd eebbbc
ebf eebbbb
bdc fdbe
bbbc bcbbbe
bebe febc
dec ebfc
dbf ecbd
ac fbe
bbbbc fcc
fed ffc
bbebe bbebc
debe fcc
bccc eeee
bedc beee
bbbcc fbc
eeebe eebeee
eced fcc
bdee bbdd
bebbd fc
bdef df
dedbbec bbdedcfbebcc
bbbb ebbbc
ecc dded
bbd beccc
dbc bbecc
bbbd bddc
bbdc fbf
dbbc ebcc
dbec beed
ecec bbebb
bea bca
edbc bbbbc
edbc ebdc
beecc a
bbcbd dbe
bf beebcc
ed fbbebe
dc fdebb
ebd beff
bcc efdc
eec bedee
bbbe bbcbbbb
bbf eedd
dee ffc
bbee befc
ded bbfc
bbec bcbbc
eeee beff
bebd bbef
bebd fdd
bebd bcebb
becc deec
becc febc
fed b</w>
bba bbba
eeec fbbc
bebf debb
eebf dbd
beebe ebbc
bebbbb fbc
bfdc ff
ed eacc
bbc defc
bec bbbfc
dbe debf
bfc eef
bfc febe
bfc ecdc
dbb ecbfc
bbcc bcebb
bbcc bcbbbb
fed ac
bbdc eeed
eebd ecbd
ecec debe
beebe bcbc
edbd ebf
bbeec fc
ecbf dec
eeef df
bddd dec
bceec dec
eccedc dee
ebe debec
bbc bdf
bec bdfc
eec edbf
bbbe ecbbbb
ddc ecbd
fed ebdc
bbdd bcbc
beebc edc
bcef bdc
bedbe bdc
bebdc ecc
bedbb edc
dddc dcc
dcee becc
bedebf cc
dd beedc
[...]
