#version: 0.2 - Trained by `huggingface/tokenizers`
b b
b e
b c
e e
c c
b d
e c
b f
e d
e bb
d c
bb bb
e f
e be
d d
e bc
bb c
f c
be c
e cc
e bd
bc c
ee c
bb d
d f
bb be
bb f
d be
e bf
bd c
ed c
b a
f f
bb bc
d ee
cc c
d bc
bb ee
be be
bf c
d bb
ebb c
d ec
d bd
be f
d cc
e a
bb bd
be bc
ef c
d ed
bb ec
f bc
be ee
bb cc
f ee
bb ebb
ebe c
bc bc
ebc c
f be
d dc
d bf
f ec
d ebb
bb bf
bb ed
f cc
be ec
ee ee
a c
bbbb c
ee bc
be bd
be cc
f bd
d ef
ecc c
ec bc
ebd c
f ed
ee cc
bb ebe
bb dc
d bbc
ee be
d ebe
ee f
ec be
d ebc
bb ef
bc be
bc f
ee bd
d fc
bb dd
bc cc
d a
d bbbb
d bec
bc bd
f bf
bc ee
be ebb
f dc
bbbb bbbb
bc ec
bb ebc
d eec
be ed
bb a
f ebb
ee ec
be bf
e ba
bb fc
bd bd
be dc
cc cc
bb bec
d bbd
d ecc
ee dc
ec bd
ebf c
d ebd
d bcc
ec f
bc ed
ee ebb
f ef
bb bcc
f dd
ee bf
ec ec
be ebe
bc bf
be dd
bc ebb
ee ed
be bbc
f fc
be bbbb
d edc
bb ebd
ed cc
f ebe
be ef
f bbc
ed bd
bc dc
bb eec
ee dd
ec dc
d bdc
d bbf
d ccc
ee ebe
d bbbe
bb ecc
f a
bd cc
ec bf
ec ee
bd bc
f ebc
ba c
bc bbc
ec ed
bd be
bd f
bf cc
be a
bd ed
ec ebb
be fc
ee ef
bc bbbb
bd bf
be ebc
bc ef
bc dd
d bbbc
d ebf
ec dd
ee bbc
ea c
b b</w>
ebb cc
f bbbb
bb bdc
bb ebf
bd ee
ebb ebb
bb ccc
be bec
bd dd
ed dc
f bec
bc ebe
bd dc
ef cc
f ecc
bd ec
be bbbe
f bcc
bd ebb
d bbee
bc fc
bc ebc
ed dd
d bfc
f df
be bbd
dc dc
ee bbbb
ec bbc
be bcc
bb edc
ed bf
ee a
f bbd
f ebd
ebe cc
d ebbc
ed bc
ebc cc
f eec
dd dd
bf bf
be df
bc a
ee fc
d efc
be dbe
be ecc
bc bec
bb ebbc
d ba
ed ed
f bbf
bb ba
ec ef
f dbe
ebb bbbb
be bbf
ebb ee
bb bfc
ec bec
bd bbc
ebb bc
be ebd
bd ef
bd bbbb
ee ebc
ebb bf
ec ebc
f ccc
be eec
ec fc
bc bbd
dc ed
f bbbe
ec ebe
ec df
dd cc
ee bec
f edc
bc bcc
ebb bd
ee bcc
bc df
be bbee
bf dc
bc eec
d ea
dee cc
dbb cc
be bbbc
ee dbe
bf ed
f bdc
ec bbbb
ebb ed
dc bd
ec a
bf bd
ebb bbc
ee df
ecc cc
f dbc
bf bc
b e</w>
ebb ebe
d ebcc
b d</w>
be ff
ee bbd
ee bbbe
ec bcc
f ebf
d ebec
bd a
be bdc
b c</w>
bd ebe
dc dd
be dbc
ed bbc
dc bc
ee bbf
be ccc
ee ecc
ef bf
dc ec
a cc
be ebf
bc ebd
bc ecc
df cc
dbe cc
bd fc
ec bbd
ef dc
f bbbc
bf ebb
ee bbee
bbbb bbc
bd ebc
bc bbbe
dd ed
f bebe
ec eec
bb ea
be dee
f dee
be edc
bb efc
ee ccc
dc bf
bbbb cc
e b</w>
bb ebec
bc bbf
ebb ef
bd bbd
f bef
bbc bbc
bc dbe
bf ef
ebd cc
ec ecc
f bbee
ec dbe
bd bec
ed ebb
ebe ebe
ee eec
bf bbc
bd df
ec dee
ed ef
be dbb
d ac
f dcc
bf fc
bc ccc
ee ebd
bc bbbc
ebb dc
ff cc
f dbd
ed df
ee bebe
dd dc
bbd cc
bbbb ebb
f bfc
dd bd
bf ec
ee bdc
ebe ebb
f dbb
ee ff
bf dd
ee dbc
ed ec
dc ef
d eccc
f dec
bf ebe
be dbd
bc dee
ed bec
ed ebc
bb ebcc
ee beee
bf a
bc ff
ebb ec
ee dee
d ebdc
d bbbbc
be dcc
ed ebe
ef ef
dbb bd
bbc bbbb
bc dbc
ed a
ec ebd
fc dc
be bbbd
be bbebb
ee bbbc
f ba
bf bbbb
bd eec
ebb ebc
ee ebf
be dec
be bbec
ed fc
bbf cc
be ba
ebb dd
f bebc
bbc bd
f ebbc
ee bef
dc ebe
ef dd
ebb a
be bfc
dc fc
bc bdc
f beee
dc ebc
bb ac
ebb bec
ef bd
ed dee
e e</w>
be ebbc
bbbb bd
bc bebe
dc bbc
ebe bf
a a
ec dbc
bc edc
ebb fc
ed dbe
ee dcc
bbbe cc
ec dec
be bbcc
bd bcc
bbc bf
ebf cc
bd dbe
e c</w>
dc ebb
f bbbd
dbb dd
ded cc
ec bbf
f efc
ed ee
ed bcc
ef ebe
bf ebc
ec bbbe
e d</w>
ebb bbbe
f bbcc
ed bbbb
ec bdc
ebe bbc
f bbec
dc bec
d b</w>
bbd bd
dbc cc
bc bbee
f ea
ee edc
f ddc
eba c
ee fee
f dbf
dc eec
ec ff
dcc cc
bd ebd
ebb bbd
bef cc
ed eec
bd ecc
ebe bbbb
ef bbc
bf bec
bc dec
ef fc
dc a
ee dbd
bbbc cc
f ded
ed bbd
dc ecc
ef ebb
bbc ebb
bc dbd
ebe bd
bbbe bbbb
fc bf
bc bebc
bc ebf
ef a
dbb ebb
bbd bbbb
bc bef
ef ed
dc df
dc ee
dbb bf
fbe cc
dbb ed
bebe cc
be dbf
dd bf
ee ba
bc fbc
ebe ef
f bbbf
be ea
bd bbbe
be bbbf
ec bbbc
ec ded
bc bbbd
be ded
fc dd
ebe dc
be ddc
ec edc
bb b</w>
bd dee
bc bfc
be bbed
bbc ed
f bbebb
ebc bf
ebc ed
bbbb bf
ee dec
fc fc
bd bbf
ebc bbc
ebe dd
bb ebdc
bbd bbc
ee bebc
ec dbd
bbd bf
b f</w>
ebc ebb
ebe ed
bec bbc
d d</w>
dc bcc
bbbb bbbe
fbc cc
ee bbec
ebb bcc
bbee cc
ee fbe
be debb
bc bbec
ec dcc
f ebcc
bc ded
ecc ed
ebb eec
bec bf
bd ff
dbb dc
bc dcc
f ac
bc ebbc
ee bbebb
fee cc
bf bcc
a dd
fc bbc
ec bebe
bd bdc
be efc
bd dbc
dbb ebe
ec bebc
ebc dd
ee ebbc
bf df
bbbb bbd
bc bbcc
ec bef
ee bbbd
dc ebd
ed ecc
ebb bbf
bb eccc
fc df
dd ef
dd bbc
ebe a
ebc bec
bd dbd
bc ba
bbbb bbbc
f debb
f ebec
be bbbbc
ebc dc
bbbb ebe
ee bfc
ee fbc
be bbebe
ebc bd
ebb df
fc ef
ed ebd
be ebec
f bbed
fc bd
ee ddc
bebc cc
bbc bec
ee bcbc
ebc ef
dbd cc
ebb ebd
a bf
bc fee
ed dbc
ec bfc
bbc dd
bec bec
ed ccc
f def
bbc ef
ebb dbe
ec bbec
bc beee
bbc ebe
dbb ef
df dc
ec ebf
ebc ebc
bbd ed
ebb bbbc
bd edc
ec bbee
d ebfc
ee bbcc
bf bbf
ee ea
fc ed
dd a
d e</w>
bbc dc
bc fec
be ebcc
cccc cccc
be ac
bbbbbbbb bbbb
bf ecc
dc dbe
bd bbbc
dd ebe
ee dbf
dbb fc
bbd ebb
bcc ed
dc bbbb
bc bbebb
bc fbe
d c</w>
a ed
eec bf
ec fbc
ec beec
dd ebc
ebe bec
dd fc
a bd
bbc fc
bc fcc
dd df
ec bcbc
ebb ecc
dc bbd
ec ebbc
f eccc
ef bcc
bbc bcc
ed dec
ebb bebe
bc efc
bd ccc
dbb bec
ebe fc
bc beec
dd eec
dd bec
ebe bbbe
bbc ebc
ef df
def cc
dbb a
bf ff
bd bebe
e bb</w>
dd ebb
bbcc cc
be dbbc
ef bec
ee ded
bf bbd
bf dbe
bf ebd
dbb ebc
eec dc
bc eebc
ec ba
bf bbbe
f dbbc
ebe bcc
eec bec
ef ebc
ec bbbd
fcc cc
ed bdc
f bbef
bbbc bbbb
a dc
fc bec
ee beec
be bbef
ed bbf
ebe ebc
eec df
beee cc
bc debb
ef bbbb
dc dee
f bbdc
dd ecc
bcbc cc
be bbdc
bc dbf
a bbc
bc bbed
f bbbbc
ed ff
bc bebd
f da
ebc bbbb
ba cc
d eba
ee bbed
eeee cc
ed bbbe
ec fec
bbc bbd
be def
bd dec
bb ebfc
bc fbd
dd bbbb
bb eba
ea cc
bc bbbbc
ebc fc
a ef
bc bbbf
f dfc
a fc
ebb ff
bd bbbd
dc edc
bf eec
bcc bbc
dbf cc
ebb bbee
ebc eec
bc ddc
df fc
bbbbbbbb bbbbbbbb
bbd dc
ee bbbf
be debe
f bbebe
bec dc
bd bbee
ebd dd
a bbbb
fed cc
ecc eec
dbb bcc
bec ebb
ec fee
bc ebec
ee bbebe
ebe bebe
bccc cc
ebc df
bc becc
bd ebf
ec becc
eebc cc
dbb ebd
ee fcc
dbe dc
df ed
bbf bf
ec debb
ec ddc
cccc cc
ebd ed
bbbe ebb
dee dc
bbd ebe
eec dd
bcc bf
a ebe
f debe
bbd ef
ebc ebe
ee bebd
a ebb
bbbb bec
bcc bcc
bbbe bbc
ee becc
ef dbe
be bbebc
df dd
eec bbc
f ebdc
ed dbd
ee debb
ef ff
ec bbcc
ef ecc
be dbbbb
bd bef
bbd bbd
ec efc
ed edc
dc ff
fc ebe
ef bbf
df bf
ec beee
ec fcc
ecbc cc
bc dbb
ee dbb
fc bcc
ee fec
ebd bf
bd bebc
dd dbe
f debc
bc ea
bbd bec
be debc
e f</w>
ecc ecc
ec bebd
ee fbd
dd bcc
dc dbc
ed ded
bd fbc
bbbd cc
bc eebe
ebe bbf
ec dbf
fc ebb
dc bdc
bbbb bbf
ebc bcc
bbc bbbe
ecc bec
ec fbe
bd ded
bc ebcc
fc a
bbc eec
dd ebd
ee efc
bd bfc
ebb ebf
ec bbed
bd dcc
bc fed
bbbb ed
be bbdd
be dbec
ec bbebb
ebb dbc
bbbe bf
fbd cc
bc ecbc
fc ebc
bbbb bcc
dc dec
bc eecc
fc dbe
bbbb dd
bc def
bc eeee
ee bbef
ee ebcc
bbc a
bec ed
ebb bdc
bbc bbf
debb cc
ec def
be bbbec
ee ebec
ebb ccc
bc ecbe
be bba
ef ccc
ee ac
bec dd
bec ebe
bec ebc
ec eebc
f bbdd
be eccc
bc debe
dbe bf
ecc ef
bbbb bbbd
bc eebd
bbbe ebe
ebd dc
dbe dd
bc eef
ee ecbc
bb d</w>
bbc df
bf ccc
d bac
ed dcc
ec ebcc
ff dc
bc ac
bbc bbbc
ec ebec
bd ba
bec bbbb
bbd ebc
bec ef
bf ebf
bf bdc
bf bbbc
bbd a
dbb eec
bbd fc
becc cc
bbbe bbbe
ecc ebc
f bbfc
dee dd
ecc dc
ebe bbee
be da
bec df
bec bd
bcc ef
ed bebe
f dbec
be dfc
ebe df
d eac
ee dbbc
eecc cc
ed bbbc
bbbb ebc
ebb bbbd
bbc dbe
bc bbdc
bbc ebd
bf bebe
ebb edc
ebb dee
bf edc
bec fc
ee bbbbc
ebb bef
be ebdc
be bbfc
bbbb ef
ed bef
bcc ebe
ebd ef
dc dcc
bebd cc
dc bbf
bf dbc
bb c</w>
bcc bd
ee def
dd dbd
ec fbd
bcc fc
bbbb a
df a
f dbbbb
eec ef
ebc a
ecc fc
dd bbd
bbebb cc
ec fed
bd ebbc
bc dbbc
df ef
f bbebc
bd bbec
f bba
bbbf cc
ec eecc
debe cc
ebc ecc
dd dbc
ebb bebc
bcc dc
dbe ed
bcc bec
ebc ebd
bb e</w>
dd edc
bbebb bbbb
ec ecbc
bcc eec
ebe bbd
bc bbebe
ecc bf
ed bbec
ebd df
ee bbdc
bcc ebb
ff bf
bd fee
bcc dd
ebe ecc
ec ea
bbbc bbc
dc dbd
bcc ebc
eec eec
ebb beee
ebd bec
bbf ef
bbf bbbb
dd bdc
ec debc
ec deec
ebd bd
bf dee
ebe beee
ebd bbc
ed bbee
bb bac
bf bbee
fc eec
ed bebc
df bd
ebe dbe
be dbbd
bbf bbc
bbd eec
ee ecbe
bec eec
ee dbec
bb bb</w>
ebe ff
fc dee
f bbbec
e be</w>
bbed cc
bbbb dc
ed ebf
ecc bbc
ebb bbebb
bd ddc
ff dd
be deec
df bbc
bc debc
ecc dd
ec bbbf
ebb ebbc
ebe eec
bd beee
ee bba
bec a
ef bbbe
bc bbdd
f dbcc
bbbb fc
bc bbef
ec dbb
ecc ccc
f dbbd
ebd eec
bf bef
ef eec
ebd ebc
bc dfc
ebd ebb
fbf cc
ecc ebb
ef bdc
bbd bbbe
dbe bd
bcc bbbb
bebe bbbb
ebe bbbc
dd dee
edc ed
ebe ebf
ec dbec
ff ef
e bd</w>
dbe bbc
ff fc
dc bbbe
bbf ebb
dc ded
ecc bd
dbd dd
bbbd bbbb
ee eccc
ebe ccc
a ebc
bc dbbbb
ec dfc
be bbbbbbbb
df ebc
bcbc bcbc
bec bcc
ed bfc
ecc edc
f deec
e bc</w>
d bb</w>
dd ccc
ebe bdc
ee da
debc cc
dbb bdc
bd fbe
ebb dec
bec dbe
ef ebf
ebd bbbb
be dbcc
ecc a
bbf fc
ed ddc
ef bbd
ef bbee
ebe eeee
ef bebe
ec debe
ebd fc
ebc bbd
ebd a
bf bfc
be bbbcc
bbf dc
ec dbbc
bf fbc
ebc dbe
ec bbdc
bc eccc
ebb fee
ebb dbd
eec a
ed beec
ef dbc
bd fec
bd bcbc
ed fbc
bd debb
dc ebf
ebc ccc
ebe bef
ebb bbec
f decc
bd efc
be bbeec
fc bbbb
a df
bd bbcc
bd beec
ee bbebc
ebe ebd
ef dee
ebc bbbe
bbc dee
ebb ba
ec bbbbc
edc eec
ef ebd
eebd cc
ed ba
fc ff
bbf a
f debd
ecc ebe
bc ebdc
dd ff
bbc bdc
fbe bf
bbc dbc
bbbb dbe
ee debc
ec ac
ebb eeee
ee debe
ebb fbc
bbd bcc
ec eeec
bd dbf
ec eccc
bc dbec
ebb bfc
ecc df
be bbebd
ef bef
ee fed
be debd
bcc a
bec dee
bbbc bbbc
dec dc
be eba
eec ed
ee bbdd
f bbbcc
dbe fc
bbee bbbb
ec eeee
eec ebc
f eba
dbb ecc
ba a
bd bebd
ef fee
bbc bebe
bc bbebc
ec da
ec eef
bd fcc
ed def
edc dc
bbbbc bbbb
ec decc
dbb ccc
ff a
dd dec
bc bbfc
ec eebd
d f</w>
be b</w>
ed bbbd
bec bbd
ed dbf
bbbc bf
ebf bf
bbc ecc
bbebe cc
ee dbbbb
ec ecbe
f ebfc
bef bf
bc da
ebe dbc
bd bbebb
ebc bbf
edc ef
fc ecc
bc deec
dd dcc
ec fdc
ed ebbc
ec eedc
df df
f b</w>
bbd bbf
ed fee
bdc dc
bbc ff
bbbb bebe
bbbe bec
bd fbd
bd eebc
ebc dee
f dbbf
eec fc
ee ebdc
bbbb bbebb
bbd ebd
be decc
eec bcc
ecc bcc
ee dfc
fc bbf
eec ebb
beed cc
febb cc
bbee bf
ebd ebe
df bec
ed debb
bbbe dc
ec eebe
dee bf
fc dbc
a bec
ff ff
df ebe
bdc dd
edc dd
bebe bbc
ed beee
ec ebdc
bebe bf
df ecc
bbbc ebb
dbe bbbb
bbee ebe
dbc dc
bebf cc
bdc bf
f dccc
bd bbed
bdc ed
eebe ebe
df bcc
ee bbfc
bbf dd
bbee ebb
bbbe dd
eec bbbb
df ebb
a bcc
dbe bec
ebc dec
edc bec
ec bbdd
dc fbc
eec dec
da cc
bbd bbbc
ebc ff
ebc dbc
bbf ebe
ee deec
bf dbd
bc bbbec
bf dec
dbe ebb
bc bbbbbbbb
eeee eeee
bdc ef
dd ddc
dc bbbc
bbbe bebe
fc bbd
bec ebd
eec dbe
be dbbbe
bd ea
ed efc
be dbbf
ecc ebd
ebc edc
bbbe ef
bd dbb
bf fee
bcbd cc
eec dee
dc ddc
f bbeec
fc ebd
bdc ebe
fbe ef
dc bfc
ed fec
dbe ebe
be bbecc
bbc dbf
bd ebec
bc bbbcc
dbe a
bbef cc
dbe ef
dc bebe
bbf bbf
bc dbbd
bd becc
ebb bbcc
bbbb bbee
bf bebc
bc bba
eec ebe
bb eac
fef cc
dc fec
ec fbf
dc bef
bbc bbee
ebf ef
bbd bbbd
edc df
ee eba
ee dbcc
ee bbbec
dbc dd
bbf ed
bebe ebe
bcc ebd
bbbe bbbc
bbbe ed
be ebfc
fc bdc
bbbb bbbbc
bf dcc
ec bbebc
ef bbbc
ebc bbbc
eec ebd
ff bbc
eec bd
ec bbebe
bcc ecc
bebe ebb
bbd bdc
bbbb ebd
ded dd
f dbdc
f e</w>
ec dedc
bbbe a
dbb ebf
ef beee
ebe fee
bf ba
bcc df
dbc bbc
fc dec
ebb bcbc
bc debd
bec ecc
edc ebc
bdc bbc
fbe bbc
f bbebd
ee dbbd
ebf bbc
edc bf
bec dbc
a dbe
ec debd
ebb bbbf
ed bbcc
a ff
bebe bebe
ec ecbd
bd bcbe
bd def
a ba
dc efc
ed bcbc
bbbe bbf
bc b</w>
bd bbbf
decc cc
f bbecc
ebb fbe
ed becc
ec febb
bbbd dd
ed bbebb
ef dcc
ebc bdc
dc bbee
dbe dbe
dee bbc
eec dbc
bec bbbe
bbd ff
bec dec
bbebc cc
df dbe
ec bbef
bf beee
bd dbbbb
edc ebe
ebb dcc
ebb ded
dd bbf
bc dbcc
bf ebbc
bbee bbc
df ccc
bd bcf
bbbe ebc
a bbd
a ecc
bd eebe
edc fc
ebd ebd
bec bbf
dd ded
fbe ebe
be dccc
dc bebc
bd debe
bced cc
beebb cc
a bbf
bec ff
bdc ebc
ec bdbd
bd dbbc
bbbe bbd
ebf fc
bef dc
ed debe
f dbbbe
bf fcc
bd ac
ef edc
bf bbec
ebd dbe
bbbe bbee
bdc fc
bbc bbbd
ebc bebe
bf fbe
ebb fec
bf bbbd
eec bbd
bec bbbc
bd bbbbc
bbc dbd
bd ebcc
bef dd
ec ecf
dec dd
bef ef
ed bbed
bd bcbd
bd bbdd
ebf ebe
ebf dc
ed fbe
ed bebd
ebb eebc
bbbe fc
bd bcee
ebb bbbbc
a ccc
bdc eec
bbc bebc
ec bbfc
a eec
ebc bebc
ebb debb
ebb bebd
bbd bebe
dc fcc
ebb eebe
bc decc
ecc dec
dbb edc
be dbdc
ebe dee
eeed cc
bbc dec
cccc ccc
dbc fc
bd fed
ecbe dc
dbc bf
dbc ed
dbbbb bbbb
dbc ef
ebe bebc
bdc bec
ff ccc
bcc bbd
df eec
ebe edc
bd eeee
ee debd
be bbebf
a ebd
a bbbe
dbd dc
f c</w>
bbc ebf
bd eef
ef ba
ecbd cc
bcc dbe
df ebd
ef fbc
ed fcc
dbc bbbb
dc fee
ebbc bbbb
ff ebe
ed eebc
ebb beebb
ec dbcc
ef bfc
f dedc
ebbc bbc
ebc ded
ef dbd
bf bcbc
bbf bec
dee ccc
bd bbdc
dd bbbe
bd eecc
eec ecc
bbbc ebe
bbd ecc
df edc
bef ebe
bf bbcc
ee bbbcc
bbf ebc
ebd ecc
dd fbc
ebf bbbb
ef dec
f bac
ebf a
bcbf cc
bcf fc
df bbbb
df ff
dee fc
ebb ea
bbbe bcc
bec bbec
ee dccc
dbe ebc
ded dc
dcc ccc
ec eedd
edc ecc
bbd bbee
bbc bef
ec dbbbb
ee bbeec
bbc bfc
dbe bcc
ee b</w>
eec ff
be dbbbc
fc bbbc
fbe dc
beee ebe
ee decc
ebb beec
df dbc
bbd ccc
ebb bbed
ebd bcc
ebd dee
bd fdc
bd ecbc
d eb</w>
eec ded
ebb efc
ec dbbd
f d</w>
fbe bbbb
eebe ef
dc ebbc
ed ea
bd bcec
bec bdc
dbb ba
ee bbecc
bbbe dbe
eef bf
ec bbbec
bd eebd
bbc bbec
bfc bf
bd ecbe
bd beed
ecc bbbb
df bdc
bcc ff
dcc dc
bd fbf
ec eeed
ed fbd
ef ebbc
bcc dee
be e</w>
bbc bcbc
bbbc bec
f debf
ed ebcc
bbee bbee
bcc bbf
bcf dc
dbb ebbc
bef a
bdc bbbb
dbb bfc
dcc dd
d bd</w>
fdd cc
dbc ebe
eebf cc
eeee ebe
bbdd cc
bbc fbc
ed bcec
ebb bcbe
ba bbbb
bbc edc
ed ebec
bf dbf
debd cc
bcebb cc
bc bbebd
ee bbebd
df bbf
ebb ebec
bf efc
f dbbbc
f bbebf
bdbd cc
df bbd
ebc ebbc
ebd bbd
dd ebf
bcc bdc
bf fec
bbbb ccc
edc a
bef fc
ecc ff
ebb bbebe
bf fbd
dc bbbd
bec bebc
dbbd cc
be bbbdc
dd bebe
ea a
bd debc
dd bbbc
bbc ebbc
bbbb eec
bcc bbbc
dc bbec
bbf ff
bd beebb
eef ebe
bcc edc
eef ef
bc ebfc
ebc bbee
fbe fc
bef bbc
dee ebe
bbbb bebc
ed debc
dee a
ed beed
dd bbbd
bbf bbbe
dec bec
f eac
bd dfc
dbe ecc
eebe bf
bd bccc
fc dbd
fc fbc
ebb becc
dbe df
bba cc
fa cc
bcf dd
eec bdc
ebc dbd
a bbbc
bcc dbc
d bc</w>
bc dedc
bd eeec
ebc ebf
ebd ccc
bebe bbbe
ebd ff
eebe bbbb
f bbccc
ebc bfc
a dbc
be dedc
bbee bbbe
bc bbeec
febc cc
ddc dd
ecbe dd
ebd dec
bbc bbcc
ed deec
be bbccc
fc ded
bbbc bbbe
ebd dbc
ebe ba
dee bec
ef bebc
ebb dbf
ed fed
dbe ccc
fc dcc
fc bef
d be</w>
bbbb bdc
bcc bbbe
ecc bdc
dc bcbc
bbbb dbc
fee bf
dc beec
a bdc
bbd edc
bd febb
be bbedc
ed dfc
ecbf cc
ebf dd
bbf df
bc dbbbe
febe cc
ebb ebcc
bbbb dbd
bbbb bbec
ebc fbc
bbd bebc
bebe ef
ebb fcc
a bba
ebd edc
ebb fbd
ebe bbbd
b a</w>
fc bfc
bd da
ed eecc
ec eeebb
dbbbb cc
ecc dbe
fbe dd
bcf bf
fc ebf
dc ba
eef a
ebe bfc
ed dbec
dec bbc
be d</w>
ed eeee
bcbe dd
dbd bf
bbf bcc
dc beee
be bac
ff df
dee dbe
bd bebf
ec bba
bec ded
ef ea
bd bedc
ef eeee
ebe bbebb
bbd ebf
bc dbdc
fc bbbe
be c</w>
ebc bef
bc dbbf
f bbbdc
bbbd bbc
ec bbecc
fbc bf
ef fcc
be debf
bbbc dd
bcbe dc
be dbbee
eebe ebb
bec bebe
bc bbecc
edc dec
be bbebbc
ef bbec
ed dbbc
ed bedc
ebe bbec
bbbf bbbb
eebe a
edc bbc
bbee dd
bf ded
ee dbdc
ed bcf
ccc dd
dbc eec
ebc fec
bf bbebb
a dee
beee bbbb
fc bebc
ec dbdc
ebd bbf
bb bd</w>
dbc bec
ee dbbbe
ed da
ebe ebbc
ecc dee
ed ecbc
bcbe bbc
ccc dc
bd dbbd
bbee dc
ec edcc
ff bcc
eec bebc
ebe fbc
df dbd
beebe cc
ee dbbf
bd b</w>
ebd bdc
df fbc
eeebb cc
ebd dbd
bef bbbb
bbbc bbd
fbe a
ebe bcbc
ebd bbbe
ee bbebf
ebe dec
eec bbf
ecc bbd
dbe bbd
bbee a
ebf ebb
beee bf
ebe dcc
dee bcc
eec bbbc
bd dbec
bbbe bbebb
ed bbbf
dc fbd
ec dccc
edbd cc
ebd bebe
bd bbebe
bbee ef
ebe bbcc
ebe dbd
bccc ccc
df dcc
bcbe bf
ebbc bf
fc edc
ec bbbcc
bec dbd
bdc a
ebb bcf
bfc bbc
ebb febb
beef cc
ecebb cc
dbc ebc
eec dbd
bd deec
efc bf
dec bf
bbf dbe
ed ac
dc eecc
ed bcee
f dbfc
bc c</w>
dc eebc
bcbe bbbb
bbbc bcc
bbbc ebc
df dee
fc bbec
ecc dbc
fbe bcc
f dbbee
ed dbb
bbc ba
bbbc ef
eec bbbe
ebc dcc
bbbb bbcc
dbe bbbe
ebc bbec
dc ebec
a ebf
e bf</w>
bdc ebb
eebe bbc
bbbd bf
bec ebbc
bfc fc
bbbb ebf
dc dbf
bebc bbc
bc dccc
efc df
bbf bbd
edc edc
f bbbbbbbb
ef ddc
ee ebfc
ed bbdc
bbbb df
fbe ebb
fee dd
fee ebe
ed bcbd
ed bcbe
fbe bec
ec ebfc
bbbb ebbc
ecc fec
edc dee
ebb ddc
bbec bbc
ebc bcbc
ba dd
ea dd
dbe bbf
bf bbbf
bb f</w>
bebe bec
bd bbef
ebd bebc
bbbb ff
eec dcc
dc fed
dbd bbc
ed beebb
bbbb dee
bedd cc
ec bbeec
ef bcbc
bcc dec
bd ebdc
ebf bec
ba bf
ec b</w>
ebc bbbd
ccc fc
bbc bbebb
ed bccc
bbbc dc
dbe eec
edc ebd
bdc df
ebb bcbd
ecc ded
dcc fc
bbd fbc
bbbc fc
ff bbf
a ea
bcf ef
dd bfc
ebb ecbc
bec bfc
ec eebf
bcc bebe
bbc ded
bbbb bcbc
bbee bbf
bbbb bef
dbe dee
dc debb
bec fbc
f bbedc
dc bbcc
cc ccc
dbe ebd
bbd bef
be dbfc
ec bbebd
ebb bebf
ebc eebc
bc bbccc
eef dd
ef fbe
bbbb bbbf
bbc beee
edc bcc
bf ea
a bebe
dcc eec
be bbba
ebb eecc
ef dbf
bebc bec
d ee</w>
bdc ebd
fee dc
ebb bbbbbbbb
ecc bbf
bbd bbec
bcef cc
ff ed
ecc eecc
fec dd
bbcc bbc
be debbc
dec fc
ec edbd
bcf bbc
dee df
a dbd
bc debf
ebb eebd
ebb eef
dbc df
bf ddc
bc eba
ecbe bbc
fee ef
bb bc</w>
a edc
a bbee
bec bef
bbd bfc
bdc bcc
ebd ded
eebe bbbe
ee dedc
bd bced
bec ebf
ed fdc
ebb bcee
ebb fed
ef bbbd
bcebe cc
eeee beee
dec df
bbbb ecc
bf beec
bebe dc
ba bbc
dec dee
bdc dbe
eedd cc
bbf bbbc
bebe dd
ded bbc
ebbc ebc
fbc fc
bcc ebf
ff dbe
f bbbfc
bebe fc
fbc bbc
f debbc
bbebb bbc
dbc dbc
dc becc
fbe bbbe
bec bbee
ef efc
ee d</w>
ff ebc
dc bebd
bebc bbbb
bb eb</w>
bec edc
bebc bf
bcbe fc
ebd bbbc
eec edc
bcc bfc
bd eedc
dbc a
bd eccc
ef bbcc
ecbe ecc
ebb eeebb
dd fec
dbd bbbb
beee beee
f dba
ecf fc
bbd ebbc
ef ded
be defc
bbbd bbbd
bd fdd
d ec</w>
dc fbe
ebe ea
dec ebc
bdc dee
df bbbe
dbbf cc
be dba
bbec bf
bc dbbbc
bbee bebe
fecc cc
be bbbfc
ef fec
ff bec
bd fef
d ed</w>
ebb bebbbb
dbc ccc
bbbb ba
bdc ecc
fbe bbf
beebc cc
ecbe ebc
eef bbc
ed eebd
a bef
fc beec
fc fee
dc ebcc
bcee dd
bbbbc bbc
ee c</w>
bf bcf
eec bfc
bbbc ccc
bd ecf
efc dd
bd bebbc
ebf bbf
bcc dbd
dbc dee
dcc ed
ebb fbf
ebb bcec
bea cc
ebb bbdc
bec beec
bebe a
bf ac
ebc fee
bcc fbc
eec fec
bbd ba
dc bbed
bebe bbf
df ebf
dd bbee
bbebb bbbe
ee dbbbc
bfc ef
bd ffc
dd bef
ebc efc
bbbc bbf
ff ecc
ebc debb
ed decc
fc bcbc
ebb dbbc
bec dcc
bbbc a
eef dc
debf cc
dee bbbb
beee bbbe
bf debb
ddc dc
ecc eebc
bb be</w>
eba cc
dbd dbd
ee e</w>
bd ecbd
bbd bbcc
dbc bcc
bf becc
bdc bdc
bd debd
ebbc ebe
ed bbbbc
edc dbe
ecc bbbe
ed bced
bcf ebe
ebb dbbbb
bf bbed
dd bebc
fbc ef
bef df
bc bbbdc
dbc dbe
ebf ebc
bec bbbd
edc ff
bebe bbee
ebf bcc
bbd bbebb
beee bbee
ebbc fc
bbec bbbb
bbbe ebd
ebb bccc
bd bbfc
ebbc dd
bfc dd
fbe ff
ed eeec
ed bdbd
ebc bebd
ed eef
ed bbdd
ebf ff
bebe bcc
bbc fee
ec dbbf
bcebc cc
bbc dcc
bfc dc
a fbc
dbe ff
ccc ecc
fec df
ee bbedc
bebbbb cc
ebc beec
dbc bbd
bd bbebc
dbb ebec
bd bedd
ed bbebe
ebbc bec
f bbba
bf fbf
dee ef
bf eebc
fc fcc
dbb efc
ccc bcc
bef bbf
ec dbbbe
ebc ba
bcbe ebe
ebb bbdd
bbee dbe
bd fbbc
f defc
bcbe bec
dc def
bbbe bbbd
a fee
bf bebd
dd fcc
df dec
be eac
ecc bebc
bc e</w>
ebc bbcc
ebb beebe
bbbe bebc
beee bbc
dc ea
eec bebe
ebc becc
bdc ff
eebe bbee
ccc bbc
bbec bec
edc ded
ebec bbc
df fcc
bd bcebb
f bbebbc
bc d</w>
dcc ef
df bfc
dbe bdc
ebb ac
bcbc bbc
dbe bbbc
ee bbbdc
dbc ebd
dec dec
bf fdc
bf eeee
bbebb ebe
bbee bec
dee ecc
ff bbbb
ecf dd
ed eccc
bcc bef
bbbe eec
fc ebbc
dbc ebb
bbf ebd
fec dc
ef fbd
bd ecec
bbf ccc
dbf dd
ed bebf
bd bcbf
ec eba
bcf ebc
bd dbcc
dee ebc
dbc ecc
ed dbbbb
bfc ebe
eec becc
bef ebc
fc bbee
bd cccc
f f</w>
bc bbebf
ed fbf
bbbb fbc
bbbd bbd
bcee dc
ebb debe
bd eeebb
eec bbec
ed cccc
ebb bbef
bdc bbd
bbf bebe
ecc fbc
bef bec
ecc efc
bd bba
ec c</w>
ecbe fc
bc dbbee
dd efc
bbebd cc
dec dbe
bd eebf
bcf a
bd bebbbb
ccc bf
ebc fbe
dd fee
dec bcc
ebb dbb
fdf cc
eec debb
ed eedc
dbd ef
eec beec
ba dc
ebb bedc
bd bbbec
fc bebe
bc bac
bfc df
ecc dcc
ed ebdc
bbc bbbbc
dec ebe
bf ebcc
eec bef
bbbe ebf
bfc bec
eec ebbc
fc fec
ee bac
bd bcdc
ebb debc
efc dc
be bb</w>
dbe dbc
eec ba
bbf ebf
ed debd
ea dc
bbd beee
bfc a
bcc bbee
dec ef
ebe beebb
fed dd
bbd fee
bbbe df
ebb ecbe
bebe ebc
bbdd dd
ebe bbbf
ebe bebd
ccc ef
ee bbccc
bbc beec
ebd fbc
bf ecbc
eebe dc
eebe fc
fbe df
ebb beed
ebf df
eebe dd
eeef cc
bebe bbbc
bbcc bbbb
debb bbbb
bec bcbc
bbc fec
dbb bdbd
bbbe ff
eec fbc
fbe ccc
eef bbbb
bbecc cc
bebc ebc
bd eeed
ef bbebb
beee a
bbee fc
ef beec
dbd fc
ebf ccc
dbd df
fee a
dbf fc
beee bebe
bd beebe
ded df
eebe ebc
bcc dcc
ec efcc
ebb bebbc
dbe bebe
fbe ebc
bf ebec
bcbc bbbb
ee dbfc
ecc ebbc
dee dee
bf bccc
ec eeebe
bd febe
bcdd cc
ec e</w>
ed dbbd
bef ccc
bf bcbe
dbbbe cc
dc fdc
ed febb
bbf eec
bd ecee
ba ebe
bec fec
eebe bcc
bf def
a dcc
bbbc ebd
bbed dd
bd decc
ebb bcebb
bef dbe
bef bcc
dbd ebe
ecc ebf
bd edbd
bbec ebe
bbbd ebe
fbc df
bbbd bbbe
dc eebd
eebe ebf
ef bbbf
ec deecc
fee bbc
bdc dbc
ecdd cc
dc bcee
dec eec
bbf bbee
bbbb dbbbb
ebb def
dbd dbe
ebd ebbc
ecc bebe
beec bec
dee dbc
bcf ccc
ecc bfc
ebd bfc
ecc bbbc
ecf bbc
bbcc ccc
a bca
ba ba
fc dbf
bbbb bfc
bbbf bbc
ebc fcc
ed bedd
ebb ebdc
ecc fcc
ded bec
bcc bcbc
dcc ebe
bd d</w>
fbbd cc
bcbbbb cc
fc efc
ebd ebf
bbbc dbe
bcc fec
bbbc eec
bbebe bbbb
ef ac
ecbe ccc
bbc bebd
dd fbd
fbe bbee
bf bcee
fc bbbd
dbc bbf
dd ba
dbd a
eebe bbf
dc beed
bbbe bbec
beee ef
dbb ea
bbbc ed
eec bcbc
bbbe ccc
ebb bdbd
bcc bebc
fbc bec
ec debbc
ec defc
bbd bebd
ec debf
bbcc ebe
ebc eecc
dcc bec
ebb eebf
bcf bec
fc eebc
beee eeee
bf bbbbc
eeebe cc
dc eeee
bcc ded
dbe edc
a dec
ebd bbbd
bbd beec
efc ef
bdc edc
bebc ebe
dbd bec
f dbbcc
a bfc
ebd debb
ed dbcc
bd bbbbbbbb
ec ebccc
bbd bcbc
dcc bbc
ecf ef
bbd eebc
dcc ecc
ebb bbebc
ee bbbbbbbb
ec ebecc
ed bebbc
ebbc ef
bbee ebc
ff ebf
ea ebe
ebb eeebe
bc dbfc
bbbf bf
bbbe bdc
a bea
bcbe ef
ecbe ebe
bbd bbed
bcf df
dbc ff
bbf ecc
ed dedc
bbc eebc
ebd eebc
be dbbcc
bbbc bbbd
ee dba
bdc dbd
eef fc
ebb fdc
bbf fbc
a bbbd
def dd
ebbc dc
bbc bbed
bbf dee
bbf bfc
ebe ded
beebb bbbb
eec fee
bdc dec
ebd bbee
ebb eeec
bbbc bebe
bbc efc
eeee ef
bebc ef
ebc ddc
ecc dbd
ebc ecbc
bbc ebec
ec dbbbc
dbe bbee
cccccccc cccccccc
ebc beee
bcbe bcc
be bbea
ee dbbee
ebe becc
bedbe cc
bbec dd
fec bf
bbbc df
fbe ebf
bcbe dbe
ded bf
eec ebf
ebb bbbec
bd edcc
dc eeec
ebc ebcc
fc bbcc
bd beef
ecbe a
ecc becc
ff bdc
bec becc
dc ecbc
ed bbebc
eef ccc
bcf bbbb
ebc ebec
bc bbedc
ba ef
dcc bf
ecbe bcc
ff dbc
bbf dbc
dbd bbd
eec bbbd
ed eebe
eef df
dd dbf
ec bbccc
bcbe bbbe
dc bccc
ea ea
bec fee
bcc bbcc
eec eecc
eec bbee
ecbe dbe
dc debe
ebe fcc
ebd fec
fc ba
ed fef
bbbb bbed
ecf ccc
a ac
dd ebbc
bbbb beee
ed ecbd
dc eccc
dee bdc
fdbe cc
eeee bf
bd fa
ebc dbf
ebf bbbe
bcc bbec
dc dfc
bbbb bebbbb
bbc bbbf
dc bcbd
ed bbef
dd beee
ff bbd
bbc debb
fbe dbe
edc fec
dee bbf
ed bcebb
ee debf
bbebb bf
ebb bced
dec a
ebd dcc
bec debb
ec dbfc
eedbe cc
bcc efc
ebe bbebe
dd debb
eeee a
ed bcdc
ebf ebf
edc bdc
ebb dfc
bf bcec
bec ba
ed fdd
fcc ccc
dbd dee
ec bbedc
ebe beec
bbbc bcbc
eebe ecc
fbbbb cc
dbe bebc
fcc ef
bbd fec
bbf bef
dbc bbbe
bfc bbbb
bd febc
ded dee
bec bbcc
febd cc
bcc bbbd
bcbe ebc
dc bbebb
f dac
edc bbbb
eeee bbbb
bec efc
dd bbec
ded ccc
fcc fc
bcc ebbc
df bbbc
ee ebccc
bf fed
bec eebc
ff dcc
fbe bbbc
be debec
ee bbebbc
dc bcec
bbd fbd
eec ddc
ebb eedc
ebd bef
dee dcc
ec d</w>
bebc fc
ebb eccc
eeee bbee
eec bebd
ded dbe
edc dbc
ebb dbec
ecbe bf
bbbe bef
bfc ebc
fbc dd
eef beee
bbbd bbee
ecbe bbbb
ef fbf
bcbe a
be debcc
eec eebc
bbc becc
fbe bdc
bbbe ecc
fc becc
bd bbbcc
dc ac
ebe bbed
fc def
eeee bebe
dec bbbb
ebc fed
bbf bdc
ff ebd
bf bcbd
bbbd a
eef bcc
bf bebf
fee ccc
bbbe dbc
dee bbd
ebe debb
bcf bcc
bd dbdc
ebc fbd
ef bbed
bbbe beee
ed b</w>
dec ecc
f bb</w>
ecbe edc
efc bbc
ebb bbfc
fc ddc
df ddc
ecf a
dd eebc
fbe bbd
bc bbebbc
bec bebd
ebb febe
be bbefc
fbc bbbb
bc debbc
f dea
ed bbfc
ac a
ed ffc
bbec ebc
bd bbebd
eea cc
df bebe
ea ef
bf dbbc
bfc bcc
efc fc
eef bbf
d ebac
dbe dbd
fec bbc
dec dbc
dbb ebcc
bbd ebec
ba fc
ebc eebd
dd bcbc
fbc ebe
ed ecec
beec bbc
ebc bbed
ebbc a
ebf bebe
dd eecc
ebe eebc
ff bef
be bbebec
eec bbcc
eec efc
bbd bbbbc
eebe ccc
ee eac
bec ebec
bbd bbbf
ebb bba
ef debb
fbc ccc
be dea
ec bbbdc
dbb b</w>
ebd efc
dc dbbc
bbbc dee
bd dbbbe
bd eedd
ebb fef
eef bebe
ecc fed
f bbea
ee debbc
bcf bbf
dddd dddd
ebb beef
ef ecbc
bcf dbe
ebbc bbbe
edc eecc
ef bebd
ebb ecbd
dcc ebc
bd eced
ff dee
eeee ccc
ebf bef
bebbd cc
bbebf cc
bd ecdc
dc bbdc
dbbbc cc
bc defc
dc deec
ec bac
bbc fcc
ea bf
fc debb
bd ecbf
ee bbba
fc fbd
ac ba
a beee
dd beec
fec bec
bbec df
ef ebcc
f bbefc
eec fed
dc eedc
dd bbcc
ecc bbee
dbf bf
ebb bcdc
ebbc bcc
ecbe bec
eebe ff
ebb fbbc
dc bbbf
ebe fbd
ecc ebcc
ecbe dbc
ebc bbebb
bdc bbf
bbbc bbee
f debcc
ebe ddc
bbed bbc
bc bbbfc
f debec
dcc dcc
efc a
edc bbd
ebe ebcc
ebf fee
eebe bec
bbbe dee
bbbc bebc
df bbee
ebe fbe
bbcc bf
dc bedc
dbe dec
ef def
edc bebc
bbc fbd
beecc cc
dc debc
ecbe ebd
efc bec
ebe fec
a bebc
dbb ecbc
bbf bbbd
ecc bef
ed beebc
df bef
bf bbdc
bf febb
ee defc
eef bef
bd bfcc
ebd bebd
dbd ebc
dc bcbe
ebb bcbf
fcc bec
fc ebec
ef becc
ebd bbec
dee ed
dbe ebf
bcf ecc
ebd ba
edc eebc
bc eac
fee bbee
bcbc ccc
eec fbd
ecf ecc
ebb dbbd
ecf bcc
bbbe bbcc
ebe bccc
bc bbba
ff fbc
bcee bbc
dbd dbc
dcc bcc
ebe dbf
bbbb bebd
dd becc
bd dbbf
eec ebcc
eec dbf
bbf bebc
fbe ed
bddd cc
ef bccc
fbe ecc
df fec
ecf bec
ebf ecc
bedf cc
ebe eeebb
bbee bcc
ebb bebbbe
a bbec
ebe efc
ebc ea
bf bbef
ebbc bbd
ebe bbbbc
bebe ccc
bbbd dbd
bd dedc
bdc bbbe
bd ebfc
bfc dbe
fed df
dd bebd
ebe beebe
ebd beec
ed beebe
be deecc
ebb bbbcc
bbbc dbc
bbcc bec
eebc bbc
bcbe df
bdbd bdbd
bbd efc
ebd ddc
eef bec
bbbb bbebe
ecdf cc
ff dbd
fbc ebc
ebd fee
ed fbbc
ed bcbf
ebb da
ebd becc
bbbc bdc
fc bebd
bbbc bbbbc
debb bbc
bcbe bbf
bef bbbe
ee deecc
ef ebec
ea bbc
ebbc eec
dd ebec
bcee bf
ec dbbee
dcc df
bd bbeec
bfc ff
bebc bbbe
fee ff
dee bbbe
fbc a
ef bbef
bebe beee
bbcc fc
e a</w>
eec bedc
ebe bebf
ebc debc
ebf dbe
dc fbf
bbd bbdd
bbcc ef
bec ebcc
dbc dbd
dc ebdc
ebc debe
dd fdc
bef bbee
bebc a
bbbd ef
bcc fee
ed befc
bbebb bbebb
fbd bf
ec dbecc
eef bbee
bebe bbd
bebc eec
eddd cc
ded fc
bcf eec
bbbd bec
fcc eec
ebd eecc
dee bbee
bcbe ccc
bf beebb
dd ebcc
ecc bbec
ff bbbe
edc dbd
eeee bbbe
eebc bec
ebb bedd
be bbebcc
ebbc bbf
fec ef
bd eebbc
bebc bebc
bbbd bbf
ddc fc
ded a
bcc bccc
df fbd
dcdc dcdc
dbe dcc
ecbe ed
ecc beec
bbbc bbebb
ebe ebec
ded ef
dc fdd
bdc ebf
ecbc bbc
eef bbbe
ebe bcec
bd e</w>
bbbc bbec
bec beee
ecc cccc
dbd eec
ebbc ebd
bef ebf
ebbc df
ff bbee
ebcc bbc
bcf ebd
dea cc
ecc bcbc
ecc eebd
dd bbed
fbbf cc
ebbc dbe
bbbd dbe
bfc dee
bbd becc
bef bebe
f deecc
ded dbc
bec bbebb
bcc eebc
edc ebb
dbd ccc
bbbb bcbbbb
beec df
ef bcec
bcbc bf
ebe bcbe
fee fc
bbbb debb
ecc eccc
bca cc
fbc dc
dbf bbc
ecbe dcc
ebc bbbf
ecf edc
dec ebd
bbec fc
fbd dd
bbbb beebb
bebc df
ee bbbfc
bcbc fc
bcc fcc
a fcc
dbd bdc
dee ebd
bbcc ebc
bebc dd
ecc eedc
dbf ef
bbd bbdc
dbd ed
ecf ebc
ec debcc
bf bbebe
eef ebf
ebe ecbc
edc ebf
eebe bdc
ebb bcbbbb
bbbd dc
bd ecebb
dee eec
ee bbea
ecc ecbc
fbc bcc
fc ebcc
fbc eec
bbd bdbd
dbf dc
bebe bdc
dcc a
dbbee cc
ff fee
bf fef
ef eebc
ed bbbec
bbbd df
bfc bbf
bbbc ebf
eef ebc
beee dd
dbc dec
bbbb edc
bf dfc
dbe bef
dbc bdc
eebbbb cc
a fec
ebe bcee
bf dbbbb
dddd cc
bbf fee
ba df
ec bbebf
bcc eecc
fbe eec
bf eebd
fbc ff
ed ecbe
bf eecc
bbbb bbdd
ebb ecec
bbec ef
dec ded
bbbc ff
beee fc
ecee ccc
bcbc dd
ebc bedc
bc dba
a bbcc
dc bbdd
fbe ebd
fbe dbc
ba bbbe
bebbf cc
edc bbf
edc efc
bec bbed
bbd fcc
bcc ebec
bebe ecc
bd c</w>
bbbd bbbc
bec fcc
bec dbf
bf fdd
ff bebe
dec bdc
ed beef
bebd dd
bebbbe cc
bcf ebf
edc dcc
dbb ac
bcbe ecc
bbbd fc
ebc bcec
a ded
a fbd
ed eeebb
bbee beee
bb ee</w>
fee bebe
dd ea
a bda
bbbb dec
eec debc
bbbe bbbbc
ebe eebe
ef fdc
bbc ddc
fbc bbf
ef bcbd
dbe bbec
eec beee
ef fef
bcf edc
bebc ccc
ee dbbcc
bd ebbcc
fc bbed
eef dbe
bbbe bcbc
dc dbec
ebe bcbd
bbbe ebbc
ed eeed
bbcc bcc
ebb eeef
bebc bcc
bc bb</w>
ecbe bdc
fc dbec
ebd bcbc
eef ecc
a bcbc
dbc bebe
beec bf
ec bbbbbbbb
dcc dee
ebe dbbc
ebe eeebe
df fee
ebc def
becc bec
dbe bbbd
bbee bbd
dc decc
ebe bbef
bcbe bbbc
dd def
ebb bcbbc
ed ecdc
ebb deec
bdbe bec
ed edcc
bcbe eec
dc ecec
ec ecccc
ef dbbc
bcbe bbd
bbebb bbbc
ebec bec
df ba
bef bbd
bcc beee
bfc eec
bbec dee
dd bbdd
bbf dbd
ea fc
bf da
dbc bbbc
ef bbebe
df bebc
ed febe
ebb bdbc
bebe ebf
ebc bcbd
bbbb fee
ef bcee
ff edc
ded bcc
ecc bebd
bcbbd cc
dd fed
dc eeed
dec bbd
dec dcc
eec dfc
bd debf
bef bef
dd bdbd
a ebbc
beebd cc
bbc bccc
bbec dbe
bbbe bbbf
bf debe
ed beecc
bbbe dbd
bbbb ebec
fbe bfc
dd dbbc
ebf bdc
ff eec
fec bcc
ebb cccc
bbc ebcc
df efc
bebe dbe
bbebb bec
bd dccc
bbf ba
ebb ffc
ebd dbf
ed bba
fee beee
bdbe fc
a ddc
ef beebb
ccc bec
ed dbdc
ed dccc
bbee bbbc
bbbd ebc
bbed bbbb
dc ecbe
dc da
ebe bbdc
edc ebbc
ded ebc
ef bebf
fc beee
bbcc eec
bbec a
f bbebec
ebe fbf
bbc bbdc
ea bbbb
bdc fbc
bcf bbbe
ba bcc
bf beed
ebcc ebc
bbee bbebb
dc ffc
bf eccc
ed edbd
dee dbd
ebbc bbbc
ecc ddc
ecc debb
fbd df
ecc fee
ebb fbbbb
bdc ded
bebe bef
eebe edc
bec eecc
ecc ebec
bbec bcc
bbec bbd
dc bbbbc
dee bbbc
ecf eec
bf eef
bbf bbbf
ebf bbd
bec fed
bbee ccc
ebb debd
ebf eec
bcee fc
eebc fc
ebcc fc
a bbebb
ebf ebd
bbebe bbc
a bbbf
ebb fdd
dcc ebd
dc febb
bf bcbf
bc debec
dc bced
bd dbbbc
edc fbc
dc bebf
dc bdbd
edc bfc
ecf df
ee ecccc
edc fcc
fbd ef
dee ff
ebc dfc
bc deecc
bc dbbcc
ee dea
bf dbb
dd eeee
bbbe fbc
bcc becc
ccc eec
bbbe ba
ded dec
ebb eebbbb
fee bbf
dd fbe
dc bcf
dee ddc
bebe bebc
ebb febc
fee df
bef ebd
bebd bbbb
bcdf cc
dc dbb
ef bcf
dd debe
bbc bcbd
bbbbc bbbbc
bd bbecc
dee bbec
bcee bec
ebc bccc
edc becc
bdc bbbc
bcbc bcc
a da
bd eba
bb ebac
fec fc
bbd fbe
ebf bbbc
ba bba
bbee df
a dbf
dbe bfc
be f</w>
eec ebec
beee bbf
bebd bbc
bec ddc
a efc
ff fcc
bebe df
dbbc bbbb
ed bebbbb
ba bbf
fbbbe cc
dc ecbd
ecc fbd
dbd ebd
ded eec
ed eedd
bcbe bbee
ecbe ef
dbd bcc
beec dd
dc beebb
bbcc dd
ebe febb
bec fbd
ecbe df
ebb bbebd
bef eec
ed d</w>
ebb eeed
dec bbf
be dbbbbc
bbc eebd
bebc ebd
ecbe bbbe
bcbc ef
fc bbbf
eebc ebc
fee bbbb
fc fed
bdc fec
bcbe ebd
cccccc ccc
f eb</w>
ebcc ebe
dc eebe
eebbd cc
bdc bebe
dc bbef
ff bbbc
beee ccc
dd dbbbb
dbe bcbc
dbc edc
dbe fbc
bbbe bfc
ecee bbc
dcc edc
eeee bbc
ff bfc
ed ecf
fee bcc
ba bec
bbbb bbdc
bebc bbd
bbf ebbc
ebc bbbbc
ec eac
dee dec
ddc ef
ebd fcc
dc eef
bbbb dbf
ebe eecc
ee debcc
bc ecccc
bd eeebe
df dbf
bbf bbebb
ecbc fc
ebc eedc
eec def
bbc fbe
d ebb</w>
ebf bbee
bdc dcc
ed fa
bbc def
debb dd
ebc bbdc
bcbe dee
bcf dbc
ebc beed
ebc eeec
bec fbe
ed bbebd
eebe bbbc
bd bbbdc
eebc bbbb
bf debc
ebc eccc
dc bedd
bcc beec
eec fcc
bba bbbb
ecbc ccc
bbbbc bbbc
bbc bbbbbbbb
ef fed
ebd fbd
bcee dbe
ea df
bdc bfc
edc beec
bbc dbbc
bbf bbec
bbebb bbd
ecbe bbd
bbed bf
bbbbc bbbe
ebb ecf
fee bbbe
bef dbc
bbebb bebe
ed febc
bdc efc
bb ed</w>
d bf</w>
ebf beee
bdf df
ec dea
ebc ebdc
bec bedc
bbbd bebe
ebcc eec
ba dbe
ebcc ef
dc bcdc
a eeee
bbbc ecc
ebec fc
eca cc
bbbb beec
becc eec
bcf bbd
bcc ddc
bd ecdd
ed bea
ebd debe
bbf edc
ebc dbbc
ed dbbf
ebb bdbe
bbbc dbd
ebcc dd
eecc ccc
ef bbdc
ed eebf
fc beed
ba bbd
dbc bbee
df ebbc
bebd bec
bef ecc
eebc dd
ef febb
ed bebec
bbbe bbbbbbbb
bbec eec
dc ecdc
efc dee
ded ebe
ebec bbbb
becc bbc
ec dba
ebf edc
bf eebe
bbbd bcc
bcbcbcbc bcbcbcbc
bbf bcbc
da a
ecc eeec
ff ddc
ebb edbd
ac ea
bec def
febf cc
ebd bbcc
dcc dbe
eecc fc
ebb edcc
ebf dbc
ed bbecc
bbf dec
efc bcc
bbc ea
ebec a
ebbc ecc
ebd beee
bbc fed
bbec bbbe
dbf a
edc debb
bbc eeec
bbd bcbd
bf ecbe
ebb decc
ebb eebbc
bbc bcec
ebd ebcc
bdc bbee
bebe ff
fcc dd
df bcbc
bbed bec
ecbc dd
fc bcec
bf bced
df fdc
bebc dee
beebb ebe
ebb dbcc
dec dbd
bcbe dbc
ecc fdc
df bbcc
df ded
ec deccc
bf bedc
bef dee
bcf bdc
ebcc bec
bbebb bbf
eeee fee
bbebb ef
ecc bbcc
dec beec
bebc bbbc
bd ebbebb
bbd ea
bebe ebd
ebb fa
bef bdc
ec debec
eec ea
ebbc dbc
ed bfcc
bcbc bec
ecbc ebc
bbbb bcbd
bf ecbd
ebb bdcc
bef bbbc
bbbd dbc
a fbe
dcc dbc
fc bccc
dc eedd
bebc dbe
fdbc cc
bb ec</w>
dbd bbbe
efc ff
ebb ecebb
bbc debe
bbbd eec
dec ff
fec a
bcf bfc
eebe ebd
ecf ebe
ebb b</w>
ccc ebe
ecbc bec
ddc eec
bebc bbf
ed bcdd
ebc bcee
bcc ba
dbe bbcc
dcc ff
eebe bbd
dbf df
fbd bec
ebec dd
bcbe bdc
bbbf bbf
dee edc
ef beebe
ec bbbfc
ebf bfc
dbe beec
dbb ecbd
ebc fdc
eedf cc
bc dbecc
bf bcebb
bcbd dd
ddc ddc
ec dedcc
bbbe edc
bbed df
bf eebf
bbc beed
dc bbebe
dc fef
bbc eecc
bd eeef
bbbc bbcc
bbbc bfc
eec dbbc
dbb bddd
ebbc dee
fcc df
bf bbfc
ecc ea
eeee bbf
ecc bbbd
bcbe ed
bccc cccc
bef beee
fbc dee
fee fee
ec bbebbc
bebe bbebb
bbbf fc
ebf dee
f bbebcc
ebf ed
f be</w>
bbc bcee
ef dfc
ef beed
bebe dbc
ebc febb
beec bbbb
dc ecee
dec ed
ebd ebec
bbbc ebbc
dbb ecbe
bd efcc
beee bcc
ef da
ded ded
ecc bedc
ebd ecbc
ebe beef
bcc ebcc
bdbd dd
ebb eedd
dbb ebdc
ef bbbbc
bdf bec
fc deec
bbc bbef
ef beef
bbebe bbbe
ecbbd cc
becc ccc
bf fbbc
bdc bebc
ebf bebc
eec eebd
bfc bbd
dd ac
bbbbbbbb cc
bbbf bbbe
bcf dee
fed ccc
bbf bbcc
bbbd dee
bcc dbf
bec beed
ebd ea
ebbc bebe
bdbc bbbb
bcbe ff
bdf dbe
bc debcc
bbc ecbc
ebf fbc
dcc bbbb
fcc bf
edc bbbe
fec dee
bbc fbf
ebe ac
fbd fc
efc dbe
ebec ebc
dc dbcc
bdc bbbd
eec bbed
bcee ccc
be be</w>
becc ebc
ba ff
ee bb</w>
dd eccc
edc fee
edc bebe
bebbbc cc
ebb bebec
dc dccc
dc edcc
bbc eeee
fc eecc
eef bbd
eeebb bbbb
dbc fbc
bcec bec
bcee ebe
bc dea
ebd fed
bebbee cc
dbd ff
ecc bccc
bcbc ebe
dddd dd
ed bbbcc
fc dfc
ebb beebc
ef eccc
bbec bebe
ebb ecdc
ebec bcc
dba cc
bbee ebf
bcee bbbb
ed bcbbc
fc ecbc
fc bcbd
ed dbbbe
ed bebcc
ddc ebe
ed debf
efc ebc
ea dbe
df ac
beff cc
eebc bf
bdf bbbb
dc dedc
fc bbebb
bebc bebe
ddc bcc
dc dbbbb
ddc ecc
ebb bdebb
dc bcbf
bec bbbf
ddc bbc
be debdc
dbc ded
eec decc
edc bbee
ed bcfc
fc fbf
ebd debc
eef bdc
eebc ccc
eebc ef
bbc bebf
fc fbe
bdbe bbbe
dbe ebbc
ebd eebd
bcec dd
dbc dcc
eebe eec
dbd bbf
be dac
ebd bbed
bf bbebc
eeebe ebe
ec dbbcc
fc bedc
bcc fed
ded bbbb
dbc bef
bf ffc
bbee ff
bebe eeee
ed eced
df bbbd
bbc bbebe
fbc bbd
ed bcebc
fee bec
bcc bebd
bcf bbbc
bf bebbc
eebc a
bbc beebb
bbec bbf
bbbb fbe
dd bbebb
fc ea
dbd bbbd
bcc fbd
ecbbbb cc
fec ff
bf dbec
bcee ebc
ebb bebbd
fec dec
dc b</w>
eef ba
bbd eebd
bcec dee
fc debc
fbc dbe
bbf dbf
dbd ecc
bc bbebec
ebe febe
edc bbbc
bf bba
bdc bef
bcbc bbbc
dc debd
ebbc bbee
efc eec
be eb</w>
bbd eecc
edc fed
bbec ebd
beec dee
ef eecc
ecf bbbb
bc bbefc
dec bbbe
ebc bebf
debb bec
ecf ebd
bebc ecc
bbd ebcc
fcc bbc
dbe ba
debb ebe
bf ebdc
fbe dee
bf bbdd
bf febe
bf cccc
ebb ebfc
bbbbbbbb bbbc
ed bbeec
dcc cccc
bbc dbbbb
eec ecbc
dc eebf
df bbec
edc ebcc
ebb bdf
bcee a
fbc bfc
ecc dbf
becc ef
dbd ded
eef dee
fee eeee
ff dbf
bbbd ebd
bbee ebd
ccc ebc
eef dbc
ebe eebf
bbbe beebb
dec bebc
ebb befc
bbd fed
dbe beee
dd eebd
ee bbefc
fc ac
ebe debe
be bbac
ed e</w>
bbec bbbc
beec ef
ebb bcdd
edc ddc
ecf bdc
ea ba
fbd bbc
ed c</w>
bec debc
ecc beee
edc eebd
ccc bbbb
bf eeec
bec ecbc
dd eeec
dc eced
eec fdc
eec beed
bbbf a
ebe eebd
bbcc a
ebe fdc
dd dfc
bfc dbc
eebe dbc
ebcc bbbb
bcee df
bbebb bbee
ecc edcc
ebe beed
bcc bbed
ff dec
eec bcbd
eec deec
ebbc bdc
bbbf ef
ccc df
ebb dbbbe
bba a
bdbe a
dbb bdbbbb
dbbc bbc
f deccc
bbd eeec
ba bca
ebe debc
bcbe bbec
ecbe ddc
bbdd bbbb
ebb bded
edc ebec
ecc debc
bbee dbc
ebb ebbcc
bddd dd
f dbbbbc
dee bebc
bbebb ebc
becc fc
efc bbbb
ebb ecbf
ebb bcebe
eebe dbe
d ef</w>
bbebb a
bd dbbee
dcc dec
bbbf bec
fbe ba
bd ebecc
ec ebdcc
f debdc
ed ebfc
beec a
bbec bbec
ebb bea
ed eebbc
dbb bdbc
ded dbd
ed fecc
bbf beee
bbed a
eec eedc
efc dec
bcec bbc
bbbc bef
eccc dd
fdc df
ddc df
bec beebb
eebe ea
dbe fcc
ebc fbf
ebbc ff
ed bcef
ecbe dee
bbbe debb
ebb bdbf
bbee bdc
dcc bdc
dbc ebf
ee debec
ed fbec
dbc bebc
beec dec
bfc ecc
dbd bebe
bf beebe
ebb ecee
bdf ccc
bfc bbbc
ec bbba
dd b</w>
ebe def
ebc cccc
bbd beebb
ed bebbd
dd bcbd
ecbe eec
dbc bcbc
ecc decc
fec dbe
ebb eba
bf bdbd
ecc ebdc
ebbc ebbc
eecc eec
bf bbbec
ebe bebbbb
ebc bbebe
ecc ba
fbd a
bbdc bbbb
ebe fef
ddc bec
bcec df
bbbe bbed
beee bec
fbc ebd
bdf bcc
ebe eccc
fc dbbc
bcbe edc
bcbe dec
bbbe bebbbb
eebc bcc
dc dbbd
eebe ba
fbef cc
ebe bedc
bbbd bdc
fee dbe
bcbc a
bbbbbbbbbbbbbbbb bbbbbbbb
ea ccc
eeec bbc
bbd b</w>
eebc df
eebe df
bbbe dec
dee bef
bbbb ded
dd fbf
fcc a
fcc ff
fbebe cc
bbbc fbc
ecbe bbf
bd bac
eef ebd
bebc ff
dc bdcc
bfc fbc
fbe bbcc
bebd df
ebbee bbee
bf bdcc
bfc ebd
becc a
bebe ba
bcee eec
bbd fbf
ef cccc
bbed dbe
dd bbdc
eef eec
bbd eeee
ecee dbe
def fc
ebec df
bdbe bcc
bfc dec
dbf bec
bdbe dbe
ebc ecbd
def ccc
dd ecbc
eebc eec
ba bea
bb ebb</w>
edc bef
dd debc
ebe bcebb
bbd beed
f bd</w>
bcc debb
bbec dbc
dbf bbbb
bbebe bebe
eebbf cc
bf beef
eebe bbebb
dee bebe
edc bebd
ebbc bbbd
be bd</w>
f bc</w>
bf bebbbb
bebc dc
fed bec
bf ecf
fc bbdc
ef febe
bedbc cc
ccc a
fcc bcc
bc ffcc
dbd dec
bdc fee
bbf fbd
ebe bced
bbee dee
ebd bbebb
bbc bcbe
dbe ded
ba bbbc
fbc ecc
bbbb fbd
bbbe bebd
bcf dbd
bbbb bbbec
ebc bced
ddc a
ebd dbbc
dc dbdc
bbee bef
ed ecbf
ebc eeee
dbc bbbd
bcee bcc
fdd dd
bcee dee
fbc bbbe
bfc bdc
ecbe dbd
ee bbebec
bbc bbdd
bbf fcc
ebc beebb
ebd def
bbebe ebe
ecbe bbbc
fbbee cc
ebb bbeec
bbbf ebe
ebf eeee
eccc ecc
bfc bbbe
ebc ac
fbe edc
bbed dee
bbc bedc
bcbc df
ef bced
beec bcc
ef ebdc
bebc dec
efc ebe
a bdbf
ef debe
dd beed
ebbc edc
bbee eec
ded bdc
ef dbec
dbe becc
dbbd bbbb
ebb bebbf
fbc fbc
bec bbbbc
dd bccc
bcf dec
ed bcebe
ef eeebe
ebbc bebc
eebc bbf
f bbac
bbd bbbbbbbb
ef eef
dd da
fdcc cc
ef eebd
ddc ebc
bdbbbb cc
bec bbdc
bcbc ebc
fec eec
ed fbcc
ebbc dec
bcbc dee
debb a
bcf bebe
dbe dbf
bebd a
bbcc bbcc
bf ecbf
ccc ff
bcbbf cc
ee bbebcc
ebb bdee
bbebb bbbbbbbb
def a
dd dbb
bbec dc
ac da
bcf bbee
ebe fed
bbd bbebe
dbbbb bbc
ecee bcc
dbd bbbc
bef bfc
eccc fc
eebc ecc
fec ebc
eec debe
bbcc ebd
ebb eced
dbe bbebb
bbec dec
beee fee
ef eebf
bccc bcc
bdc ebec
dcc bbd
becc ecc
bebe edc
bec ea
bbed ebe
eec da
bbbb bdbd
bbee eeee
bbec bebc
bdbe ebc
bbcc bbd
ba dee
a fbf
bf eeebb
ba ebc
dbe ddc
dc bbfc
bec dbec
fbc dec
ef debc
dcc dbd
ded bbd
dbc bfc
bbbb eebc
ff fbd
fc eeec
eec eeec
dd bbbf
a eba
bec eebd
ef fdd
ea dee
ebb dbbf
bec deec
fcc ebc
ecee ecc
ed edbf
ebb bcef
ba ccc
bbcc bbbc
dbe debb
beee ebc
bdbe bbd
ed ebbcc
ddc dee
bcc eeec
eec bbdc
bef bebc
ecec bbc
bda cc
beee ff
bec bcec
bcc eebd
debe bbc
bcebd cc
bdbc bbc
bbbe fee
bdc eecc
bf bcdc
ef bcbe
beee dc
bbbe bbebe
edc eedc
fbbbc cc
fcc ecc
dd fdd
debb ebc
bbbb bccc
ded ecc
ded beec
ee ebdcc
dd bcee
dbb eccc
beee ecc
ea ff
bbbb bbbcc
ebe dfc
bbbf ff
ec debdc
ebf bbbd
bf fa
bbbb bebf
ded dcc
debb fc
dd bcec
ebe eef
bbd ecbc
bebe eec
ebb bebbee
ecf dbe
be bc</w>
ed beebd
bd dbfc
bcc def
ebf dec
bbbf bbbc
beec eec
fbe dec
bbed ebc
bcc ffc
ccc dcc
bebe bcbc
dc ecbf
bcf bef
dbc fee
bebe bbcc
eeee bef
bbee bebc
dc bbebc
dc eeebb
bdc dbf
bbbb dbbc
ef bcbf
bec eeec
bdc ddc
ccc dee
becc edc
ebf ba
a fed
bbbe beec
ebbbbbb cc
bbf fec
bdbe df
bbbb fbf
bbc fdc
eecc ebc
bbd bebf
ed fdf
ef bedc
ed bedbe
ebd dfc
ebb bcfc
bbee ecc
dc bcdd
bdc eebc
f ee</w>
be deccc
fc fdc
ebc bbdd
ebb bcebc
ecbc bcc
be bbeccc
bbee bbec
bbc febb
eecc ecc
beee bef
fbe bbec
ed eba
fbe bbebb
dc bded
ebcc bf
a debb
bec bccc
def df
eec bccc
bbcc df
dbc bbec
bdbe bbf
ed ecebb
ebbc ebf
bdbe bbbc
ddc dbe
bebe bbbd
ee f</w>
ebcc bcc
eedbc cc
dc beef
ebe bebbc
dbf ff
bbbbc bcc
eecc a
ebb bbecc
bbbb bbebc
edc debc
dbd dcc
bdf bbf
dd dbbd
ebcc a
bebd ebc
ecf bbf
bbc debc
ecec df
eeebe eeee
ebcc ebd
dc edbd
beee bbbc
ef ecbd
bfc ebf
fbc dbc
bcbe ebf
ebcc ecc
bdc ebbc
bdc bbec
bfc bebc
beee ebf
bdf ecc
bfc bef
dbf ccc
ebb fbec
ebb dedc
ef eeef
efc dbc
dd decc
ebb bfcc
ebb bddd
dbd bdbd
bbcc ecc
ac bbc
ac df
eecc bbc
ff ba
f ed</w>
bb bf</w>
debb df
beed df
beebf cc
bdf dbc
debb bbbe
bbbb dcc
beee ba
eecc bec
bef ba
bbbbc bec
dbe bebd
bbebb bbbd
a beec
eec ebdc
bbd bcec
bbcc bbbe
ddc dcc
ac dd
eef ea
bbbb bcbe
dec bef
fbe dcc
bdc bebd
bbee ba
f ec</w>
eef bbbc
ebe bbdd
fee ebf
bcbbbc cc
bbcc dbe
ebec bf
bd bbebf
dee ebbc
beebb bbbe
bbed ef
ebb bebcc
eec dbec
dbf dbe
beebb bbc
ded ebd
bbbb bcbbc
ff bcbc
eec eccc
dee ebf
dee bcbc
bcc bbebb
bbd febb
ebec ef
bd bbedc
ebcc edc
ddc dbd
bdc beec
ebb dbdc
bbf beec
dbbbb bbbd
ecbe dec
bbbb becc
ed efcc
dee ba
dc beebe
ea bec
bd bb</w>
bd defc
ccc edc
fbe bbbf
bbbbc bbd
ebc deec
eec bbebb
beebb a
ecee a
ebe bba
dbb ecec
fec dbc
bbf dcc
dd cccc
eeee ebf
ed eeebe
bebc edc
bd bbccc
bbbb bbef
ed feec
bec eedc
fbe bbbd
bf ecec
bc bbea
bdc fbd
ebe ebdc
eebc ebd
fee bef
bbf efc
beee dbc
dd eedc
fc debe
bebe ebbc
ecf dbc
bcc bbbf
bf dbbd
ebe bcf
dd bedc
df ea
bdc fcc
bfc bfc
ecbc ecc
ef bba
ebe bbebc
dd dbec
dbd edc
ef fa
ddc dbc
ded bbec
ebc bedd
ebb bdbbbb
bbbe becc
fc eccc
bec bcbd
ebd bbdc
bec dfc
bf deec
ebd bedc
eeec a
dbf bcc
ebe bdbd
bbd bccc
bbd fdc
ebf fcc
eebc edc
bbbc dec
bec dbbc
d a</w>
bcbbbe cc
eecc edc
bebbbb bbc
ed eddc
ed fbbbb
dbe bbed
ebf bcbc
ebb fbcc
bbf bbef
bbd bcee
ebbc fbc
bbdc bbc
fc da
dbb bdcc
bbbb bcebb
ef eeebb
ebc dbec
eebbbe cc
cccccccc cc
eeee ff
ebe eeef
bec debe
bbd bedc
bbf fbf
bbec ff
bebf bbc
bbba cc
ebf dbd
dc febc
bbbc beee
dbb bded
dc bcebb
fbe ea
ed ecee
eebc bedf
bbbb efc
fbd ff
fec ded
a bbed
ed dbbbc
eebd dd
ebe cccc
ecc bcec
bbee fee
ebb eea
ecc ecdc
fec bbbb
ebb bbbdc
ef eeec
ed debbc
beec fc
bebd bf
bdf ebd
bef dbd
bbbd ff
bcf dcc
ebb bcbec
fed bbc
ed defc
dbb cccc
bccc bccc
dc bcef
bcbe bfc
be bbebdc
bbd bbef
beec ebc
fdbd cc
bbbe dcc
bebc dbc
bd debbc
fee bdc
dc febe
bebd fc
dec edc
eec bcec
bbbd ccc
bbdc dd
bd dba
eec dedc
a ebec
beec dbe
dbbbb bbbbbbbb
bcee ecc
bdbe ebd
bef edc
bbebb fc
bdbc dd
ee deccc
bbebb bcc
eebd bbc
efc ded
eebc ebe
dbbc dd
bebe fee
ea bcc
bcbc bebc
dbf ebe
def bbc
fdc ef
eebc dbe
bbbb bebbc
ed ecbbc
efc ecc
ebbee bbbe
bef dec
beee dbe
fbe dbd
eef dcc
ebec ebd
fbd ccc
ed ecdd
ed dbbee
bbcc bbf
ee debdc
bebbbb bbbe
fbc bbbc
bdbe ccc
bebe beebb
ebc decc
bcf ebbc
bccc fc
eeec bec
bdbe ecc
bdf dee
ebf dcc
ddc bf
ef bbdd
ef fbbc
bebe bbec
bcbe dbd
bbee ebbc
ebec ebe
ebb ecbbc
ea bbbe
ebb bddc
fcc edc
fbc fec
bdf eec
bebe bfc
bcbc eec
ebc bbef
bbbf dd
dc c</w>
ebb fbbd
ecbc bf
ecee dcc
ebb fecc
bbbc ba
ed eeef
dc ecf
edc eccc
dfc df
ee bbac
bec ebdc
dbb edbd
dfc fc
dbe fee
bbbf bcc
ebf ebbc
ecbc df
dc fbbc
ed deecc
bbbf df
beec bebc
fbd ebc
eeec dd
edc bbec
bbbbc bf
ebd fdc
bbbbc bbbbbbbb
ded bebc
fbf bbc
bbbc bbbbbbbb
debb bf
bebd ef
ed edbc
ba bdc
bcee ef
ec f</w>
bcbc bbf
debb ef
becc ebe
f db</w>
dec bbec
ebec bbbe
dfc dd
bef ebbc
efc bdc
fbc bdc
bcbbbb bbc
eec bedd
dee beec
bbed fc
eebe bbebe
bbcc ff
fbe ebbc
debb dbe
ecee df
bd ebccc
ec bbefc
ebc bcdc
bccc bbc
ebb bdec
bbee bbbd
eebef cc
ebec dbe
beed dd
bdf bbd
ec ffcc
bcec dbe
ecbc ebe
fc beebb
ebec dbc
bc dac
dc bebbc
dc bdee
ddc dec
ebb fbbbe
bbbb febb
eeebb ebe
bc dbbbbc
beee bbebb
ebb febd
ec befcc
bcbd bbc
bbec ecc
a fdc
ebb bedbe
bcf bebc
bbbb ea
bbbb fec
dbbbb bbbe
ebcc df
eecc dd
ded ff
ebc debd
bccc dd
fbebc cc
bbbb bba
bcbc bbbe
eebe dcc
dbb bdebb
fc eedc
eebc dbc
ebb bfbf
bbf bbed
ebec eec
edc fbd
dee fbc
bf eedc
dc ecdd
be db</w>
bf dbcc
eebc bbd
debb ccc
bbbbc bbbd
beed bec
bbbb eeee
dbd ddc
bcbe bbbd
ecec bcc
ebe bbbec
bebc ebbc
da dd
dee bfc
bcbc dbe
ebb fbbf
ebd eccc
ee dac
fc eebd
eec fbe
a bebd
ef bbfc
dec bbbc
bf bcef
ef bbebc
becc bcc
bcee bbf
ebec bbd
ed bcbbbb
beee df
beee bdc
ecc ac
bdbbd cc
fec bdc
bef bbec
ecc bbed
dbc ebbc
ecbe bbee
ffc df
ecee fc
bcbc bbd
debb bbf
debb bbd
ebe bbfc
bbc ac
dee bbbd
eeec df
ebe bdcc
efc ebd
bf edcc
ba bebe
ff bbec
ded bbf
ed dbfc
dc bddc
dbe fbd
edc dbf
efc bebc
ff bbcc
ebf bbcc
eebc bbbe
bf edbd
bcc bbbbc
bbbf ebc
ecbc ef
eebe ebbc
ecee dbc
ba dbc
bcc ea
dee dbf
ecbc bbbb
bcbe dcc
bebe fbc
bc dbbbd
ebe da
edc ea
ebe dbbbb
bbef bbc
bcbe bbcc
bf bcbbc
ed fbbd
ebb bebbbc
ecc ecbd
ccc dbe
dee bbcc
dc bdbc
ebe ecbd
edc eeec
ebb bbccc
ebb dbbbc
ebc bcf
bced dd
ebbc dbd
bbdc bec
bf eeebe
ed eea
ed beeec
bbbb ebcc
bef bbebb
fc bcf
ebbc bbec
bdbe eec
bf bbbcc
dc bddd
ecbc eec
bbbbc bbf
ebb bbebf
beec dbc
beebb bebe
dcc bbf
fdd df
dc dddd
edc bcbc
bbbf bbd
ecc dfc
ecc beed
fec bbf
eecc ef
ebd eedc
eeebb a
bf bfcc
fc ebdc
bcbe bbebb
ed bebbbe
bbbb fcc
dbb bdee
ebc ecdc
efc bbf
bbbbc dd
fed a
ed eefc
dbb d</w>
fbf ef
ebe dbec
ebe eeec
beee bbd
ba bbee
bfc dbd
debb bcc
ebe bcbf
df becc
bc f</w>
ed febd
ebd beed
bdc bcbc
fbd eec
ebd ebdc
ecbe ff
eedcc cc
bbdd dbd
dd deec
bdf ebf
ed debcc
dcc fec
ecf bbd
ee dbbbd
dcc ded
dd d</w>
ebc da
bc bbebcc
ebd eeec
a fa
bebd eec
def bcc
febb bbc
fbc bebe
bbbbbbbb bbbe
dd ebdc
dec bebe
ebd bcbd
ecbe ebf
bcec fc
dbc fec
ef bdbd
def dc
ed bedf
ebd bbbf
bdbe dee
dbe fec
bbbd dbbbb
edc ecbc
bbbc bbbf
ebcc ff
ddc ff
eebe bbec
bcee bbbe
beed bbc
ddc bdc
dbb bdbf
bef dbf
fbc bebc
bbdd bbc
edc bbbd
eebe bbbd
bdbe bbee
bcc fdc
eebe bbcc
fbc ebf
bebd dbe
bf ecdc
fc bebf
bcc bedc
ef ffc
bbd ac
bef bbbd
bc bc</w>
ecf bfc
bf fbbd
bdc eebd
bbdc ebe
ed beccc
ecee ebc
fee ba
dec bfc
fc eeee
ea bbf
ebec dee
fcc fec
bba bbc
ff fec
bef dcc
bcee dbc
bebbc bbbb
ef bcebb
bedcc cc
fc bced
bbbe eeee
debb eec
eef dbd
dbb ecbf
bcbd bbbb
edc bedc
dbbbb bbd
ebb bebdc
ebd febb
dd dbcc
ff bebc
bebd bbbe
ec bbfcc
dbf bbf
eef bfc
bdc becc
bbebe bbee
fc bbbbc
bdc fed
debb bbbc
bcf bbec
bf bdbf
ebd fbe
ff fbf
eebd a
ebe bcdc
dbc beee
ebec bbbc
dc befc
debe bbbb
dbf ebc
ebd bcec
df beee
ff beee
ddc bbbb
ebb bdbbc
dc fa
bef eeee
ecec bec
ff efc
bf fbbbb
febb bbbb
bfc ded
deec df
a def
bfc bbec
bbbec bbc
dec becc
eebd ebc
a bccc
bd eac
ebb edbc
dd bddd
bf befc
a becc
ed eddd
ecc eedd
ebf bbbf
a eebc
bcdbc cc
eef bebc
ecc fdd
bcc eeee
ba bbbd
bdc beee
eec bbbf
bbc bbebc
bbf ea
ac bec
bdee bec
bf febc
ebd bdbd
bcc eedc
df ebcc
fee dbc
bbbbc ebe
bbef bbbb
ebd bbdd
bcf efc
ed beedc
bdc bbed
bdbc fc
df fbf
ebec bbf
ebb eddc
edc decc
fee ebc
ef bdcc
bcc bbdc
bbebb dd
bbbbbbbbbbbbbbbb bbbbbbbbbbbbbbbb
ed ebecc
edc dfc
bebe dee
bbbe ea
bbbe dbf
eebd bec
fdc dd
fee ecc
ebb beebd
ebec ecc
bbbec bbbb
eebc dc
bdbe bdc
ebf fec
ddc ded
fed bcc
df eccc
bedc bec
beec ded
fbd bbbb
bc eeeecc
bd bbba
ec dac
bbef dd
ebf bbec
efc bbd
fee bbd
ef eebe
ef deec
dbd fbc
bdf bdc
bbebb bebc
ecbc dee
bbee beebb
ebec dec
bbbbbbbb bbc
fc bcbf
bbed dbc
bebd dee
ecdbc cc
ebc bcbe
ebc bdbd
dc bba
dbbc bec
febb a
ccc dec
bef bcbc
eec beebb
bbf fbe
bef ea
bbcc bdc
dbbbb bbbc
ddc bbd
ecbc ebd
f bbebdc
bebc ded
ac fc
bcec dec
ecbd dd
ee dbbbbc
bbcc dbc
beebe ebe
dbe def
bebd bbd
ecc bedd
bf bedd
ebbc bfc
bebf bbbb
bbc bcbf
beec bbbc
fed dc
ba ebf
bcc bcee
ebec bdc
eebe bbbf
debe dd
ecc edbd
ddc ebd
bbed bbd
bd deecc
ecc def
bbcc edc
bcebb bbbb
bf bdbc
ed eebcc
bbee fbc
eebd df
ef bebbc
ecc bbdc
ecbc bbf
fdc bec
ebc eedd
bbebc bbbb
bcf dbf
debc bec
bebc bdc
eebd fc
ebc ecec
eef dec
a bbbbc
bebd ebe
bfc dcc
fbe debb
bcbebe cc
bf eeef
ba ea
ec bbebec
bdee bbbb
ef dbb
becc df
ecc debe
bbbd bbebb
eccc eec
bdee fc
ebb ecdd
ebc ffc
dbe bccc
eebc bdc
bf bded
dc d</w>
bbc bbfc
dbf dee
dbd bbee
bcc bcec
fbf fc
ebd bccc
a bcbd
a febb
bebe bbebe
bbf debb
bbed ccc
ecf bbbc
eebbee cc
ebb feec
fec dcc
ecf ebf
eebc dec
ed bbedc
beec ebe
fbf ccc
eebc dee
bc befcc
ebbc bef
ecf dec
bf fdf
edc ba
bbee bbebe
dbd bef
ebdc bbc
eec bbbbc
bdc debb
eec eeee
edc def
ebcc dbe
bf eeed
bdbd bbbb
bbbc ded
debc df
bcbc ff
fec ecc
fdc fc
ecf dcc
ebd da
bbf bbbbc
dbd bebc
bebf fc
eebe bfc
beec bbd
becc dd
fed ef
bbbc fee
dbbbb dd
ecf bbbe
ebbee bebe
ebc bcebb
bf ebfc
bebc bbee
bbed eec
ecbc a
bc debdc
bcc beed
dee ded
fbd dbe
eef ebbc
ebc eeed
bcbc dc
bbbf dbe
bdf dec
ebd bebf
bbec ded
bbc dfc
eebc ff
bcbe ebbc
ed bbbdc
dd ffc
def bec
fdc eec
ff ea
fc bbef
bbbcc bbc
bdf dbd
bcee efc
ed eeebc
ef bcdc
ec ebfcc
ccc dbc
eccc bbc
ecbc dbe
fc febb
bbbf bebe
bdf bbbe
bcc bcbd
dee fcc
eecc bbbb
bc ebfcc
ebd eeee
d ebe</w>
ee ffcc
ebd deec
bd dbbcc
ecc febb
ecc eddc
da bca
bcc fbe
ff eeee
f ebac
ebc fdd
bebd bebe
bbf ded
dc bbbec
beee beebb
bbbcc bbbb
bbee dec
bbcc dee
ff ac
bbbc bbed
bbbd bebc
bcc ecbc
bbbe bccc
ecec dd
ebc eebf
eef edc
bcbc dbc
ebcc dbc
ed bebdc
ecc bcbd
dbb ebfc
ecf dee
bbbc beec
dbbd bbc
ebf efc
ebf bbebb
ff ebbc
a dbbc
ebc eebe
dc ebfc
df fbe
dbb bddc
ebc bbebc
bf debd
dd bbbbc
fc fef
dec ebbc
ff ded
be bbb</w>
ec bb</w>
ebe fdd
dec fbc
dc fecc
bbc dbec
fbf a
bdbe dbc
bdf edc
ebc bbfc
ebc bebbc
bec bebf
bbd eeebb
bebe ea
bf dbbf
bbc bbbec
d ebd</w>
ac ef
ec dcccc
bdc ba
bebd bebc
ecbe bfc
dc bdbf
bbbe fbd
bbee dbd
fbc bef
fcc ebe
dbc ba
bcbe ba
bbee bbcc
def dbe
ebb dccc
bbbc edc
bbbf ccc
bdee a
bbc bebbc
bbef a
bec bedd
ebdc ebe
ecbe ebbc
fba cc
dc eddc
bdbc ebe
ed bac
ebb edbf
df fed
bbee bfc
ebcc dee
bbdc ef
bcc fbf
becc ebd
fbd dee
bbbd bbec
fa a
bdc bbcc
dc efcc
dc bbbcc
ebc dedc
ee be</w>
bdbe edc
bbbc bebd
dbf bbd
bdec bec
dd bedd
dbd ebf
bbc bdbd
fc bcee
efc fbc
beee bbebe
bbbbbbbb bbbbc
df bebd
fec fec
bbbb b</w>
fcc dec
efc bfc
ed bbccc
ed dbecc
dbb ecebb
f dd</w>
bf bbeec
ecee dee
eebc bbbc
ed ecfc
efc bbbc
dbf ecc
dbbc ef
bbea cc
bbbd ba
bbed bcc
fc decc
dd febb
bebc bbec
bbed bbf
fc ffc
dc beebc
fbc edc
eeee ba
bd bbebbc
fc bbfc
ebf ea
ebf fbd
bebc bcbc
dfc bbc
eecc bcc
bdbc ef
bbbb ebbbbbb
eebe dee
bf fbcc
bbebb dbe
eeec bcc
ebcc bdc
fee dcc
dc bfcc
ecc dedc
eebbbc cc
bbf bebd
dbc beec
eebe dbd
ebc edcc
ebd dbbbb
df bcbd
dbb eced
bbbd ded
ee eb</w>
bfc ebbc
a bcec
dc e</w>
dc fbec
ebb bbebbc
ecc ecec
eec bebf
df bcec
df debb
ccc bccc
eeee dd
dbe ea
ebd decc
bbec bdc
ebb fdf
bbc bced
fed bf
ed fdbe
def ef
bbebb bbbbc
dbf ba
ebdc fc
ccc bdc
fbc ded
ddc edc
beec ff
bebe bbbf
bedbd cc
eec debd
eec ac
dec fec
ebd bbbbc
bebc bfc
bdbc bec
fbd ebe
dc ddcc
dd edcc
bbed bbbe
f bf</w>
ebdc ebc
ebbee beee
ed bedbc
ebd fbf
dbc efc
ebbc bcbc
becc bbbb
df bccc
bbee bbbf
ed fedc
bbd eedc
dec ebf
ee bc</w>
bbd bebbbb
dbd ba
ebcc bbbe
ecee bec
eeec bbbb
bcc debe
ebb bedf
beec bbbe
ecee bbbb
ebbebb bbbb
bc eb</w>
dcc bebe
bcee bdc
dcc fbc
df ecbc
bf decc
ed ebccc
bbbd bdbd
bced dee
bbd ebdc
eccc bec
beebe bbbb
ecc deec
bef efc
dbf dbc
eebc bebc
dc bdec
ebe bcbbc
bf bcfc
ed eebbbb
bbc bcebb
ccc bbf
bb a</w>
ecc eeee
ff fef
bbed dec
bbc bcf
df ebec
dbb ecf
ebb efcc
ebd dbec
bef bbcc
efc fec
bbbe ebec
eccc ebc
bbec beec
ecbe bbcc
ebb ebecc
bbbe bebf
bbc eeebb
bbbc fec
bfc beec
eeee eeebe
bcec ebc
fcc fcc
ed ecebc
ebb ecbbbb
fc bbdd
ebf bebd
bbee bcbc
dbb dddd
bfc fee
df bbbf
dbe eebc
ff bbbd
d ebc</w>
dbc fcc
dbb bdbbc
ebe bea
eeee beebe
bd dbecc
bec febb
eec bbdd
bf bebec
ebdc dd
bcbe dbf
ee bbebdc
ef bbbec
bef bbbf
bf eba
bbc eeed
ecc bcee
ebd beebb
ecee bdc
dec ddc
ac dee
fed dee
ecec ebc
bbc deec
dbc debb
eccc bcc
bf b</w>
edc beee
dc bcbbc
bbbe ded
bebd bbf
fbf ff
bf beebc
ed fccc
dbb bdbe
dc feec
ea bbee
fcc bbf
bbebe bec
ac bcc
ebb eddd
ecc ffc
eec febb
ea bba
dcc ebf
fbd bcc
bcf ba
bbec ebbc
fbe dbf
ecbc dec
fed ff
bbbbbbbb bbbd
f dedcc
bf fbec
dd dccc
bcec bcc
a bebf
bfc bcbc
dcc ddc
bbec bef
dc eddd
bfc bebe
ebb debf
dbbc ebe
bcbe ded
edc fdc
eeee bcc
ef bded
fed dbe
a fef
bbdc eec
eebd bbbb
fcc ebd
fbf bbbb
ebb fdbe
ecbc bbd
f de</w>
ed dfcc
bec fdc
be ed</w>
bbc ebdc
bbbe fec
bcbd df
ed ecbec
dee beee
bfc fec
a bbebe
ef dbcc
bbbd ebf
fbe efc
eebc ebbc
bbc eedc
bebc fec
bcec eec
dc eeef
ccc ebd
dd bced
bccc eec
ebb bebbebb
dbc ddc
bbec bbee
bcbc ecc
be ebac
ed dba
bcec ded
be ee</w>
bebe dbd
bebd ebd
ee bd</w>
bcf ded
dbc bbed
ed dea
edc ebdc
bdf dcc
bd dfcc
bbbd fbc
fee dee
fed fc
deec bec
bcbc ebd
a eca
bd debec
df def
bccc ecc
a bbdc
bbbc debb
dbb c</w>
bbec dbd
fed dec
ecec fc
bbbb bdbbbb
bbbe dfc
bebd bcc
bc bd</w>
bf bcbbbb
edc debe
ba ecc
bfc bbee
dbb ebbbbbb
bbbd dec
ecccc ccc
ebbc bbebb
bbbbc ef
ebe ecbe
dbc dbf
debc eec
bc dbbdd
bbbb eeebb
bcee bbd
ebb dbbee
ebc bbbec
bbc bebbbb
bcf bbcc
a ebcc
bbbe dbbbb
fdc ff
eeebe beee
ed fbbf
bec fbf
bc deccc
ebc fef
bbbe eebc
efc dbd
bbbb fbbbb
ed eeecc
ebb bbba
dd beebb
fc fbbc
eccc edc
bc dbbebb
bc bbac
ebc bcbf
ebc fbbc
debe ccc
dbc bbcc
bbbf bbbf
ebe bedd
ebc ecbe
bbc bbbcc
bbc bcbbc
bbf bebf
dee bbebb
ebec ff
bebe becc
debb ebd
bcee dec
bd bbbfc
dd bdcc
bcee bbee
bdbe ff
ebb e</w>
ecc dbbc
dbe efc
debc ef
be ec</w>
dd debd
bbbb bbfc
ebe fbbc
dbe bcbd
eef bbcc
df bbed
ebbc bbcc
df beec
fbc bcbc
bdf bfc
ee dbbbf
dee becc
dbc bebd
fbe bbef
bedc eec
bf bcebe
bdc eeec
ba eec
bebc ebf
ebcc bbd
f bbeccc
edc bbcc
ded bef
bf bea
ebe dbcc
a beebb
a dba
ed eebec
bf ecee
df fdd
dee bbed
dcc fcc
dbbd bbd
eedc fc
ccc bbd
fed dbc
dd bebf
bec bbef
bbbe bbef
eeebf cc
eebe bbef
beebe bebe
bf bcebc
ebb bac
bbebe bbf
eef bbbd
bcf ddc
bf eced
ebb ecbec
dd fef
bbc fef
bdc ebcc
ba ebd
ebb eefc
dec bcbc
bbec ebf
fec bbd
bc dcccc
ebe bebbbe
ebc dbbbb
dbb eba
ded ddc
dbf ebd
eecc ebd
ee dbbdd
ebb beff
eef bbef
eebd ecc
bec decc
eef bbebb
bdbe bbbd
bcf bbbd
be bbbbbbbbbbbb
bc fbecc
ec bbebcc
ebe eedc
bbbe dbbc
ebf becc
bbec bbbd
dc ecebb
ebcc bbf
dbf bdc
ebdc eec
bdee dbe
bec bbebc
bbbe bbdc
bebe bebd
bcc dfc
eebd eec
bc be</w>
dd eeed
df dfc
ebf fbf
ff def
dbb ecee
dbd debb
eebf a
bf bbebd
bec bbdd
bebe beec
bbbbc fc
fbeee cc
fbc ebbc
ef dbbd
efc dcc
dbb ebbebb
dbb ecdc
bd dea
ebc febc
bbbe fbe
bec bebbc
ebe fa
bec da
dbc fbd
edc beed
febb ef
ecc eeed
bbbc dcc
dbbc fc
bdbc bcc
dbc eebc
bebe dec
ecbe bbbd
ebb ecebc
ba dbd
bcbe debb
bdc def
ed bebbf
bcbbbb bbbc
bbc eebe
dee fee
bebc bef
fbc efc
bbd bbebc
bebc bbbd
ed debec
dbb e</w>
ebbee bbf
ebbbc bbbe
ebc edbd
ebd debd
dec debb
bbec bfc
ebec dc
fcc dbe
bf ecebb
fc bbebe
bebe bebf
ea fee
eef dbf
fec ebe
dd ecbd
dbc fed
fbc bbee
bbd bbfc
fbc dbd
bcbd ef
f debfc
bec ac
beee beebe
bbed ff
a bbef
bdee ccc
bd dbbbd
df bbebb
dbe bcec
bbbe bebbc
bbbb dbbd
bebc beec
bbbb bcec
bebbbb bbbc
ebbc ded
bbdd bbd
febb ebe
eebd edc
bd debcc
ebb beebf
fbd bbf
ed eeccc
df eecc
dbbc bbd
fec bfc
eef bbbf
ec bbbecc
bbee edc
ebb d</w>
bbc fbbc
bbbe efc
bcee bbbc
ec feecc
ebb ecebe
ebcc dec
ebb beecc
eec eedd
fcc bdc
dfc dee
ecec ecc
bdbc bbd
fee bbbc
bccc ef
bebe bbbbc
ff fbe
da fc
ecf efc
bf fbbf
fea cc
bcc bebf
debc dd
bf eedd
bcee bbec
ec bebecc
ff fdc
dee efc
bdbc ccc
bebe dcc
dbb bdec
fdbf cc
bbf ebec
bbf becc
eeebb eeee
ebb beeec
ebc dbcc
dbb bdf
ee dbbebb
bdc bcbd
ff bbbf
ebcc bbbc
bbebe bbbc
ee dbbed
ebb bca
ef dbbbb
ecbe bbec
bf ebbcc
ecc bced
ebf dbf
bfc edc
bfc ba
bef beec
edcc ccc
bebc fbc
bbdc fc
eef bbec
dbec bec
bbed efc
fbbcc cc
bcc eccc
dc dbbf
fec ebd
beebb ef
bbdc ebc
bebf a
bdc beed
fcc dee
ed ebbebb
ecbc edc
eebebe cc
ecc fbf
dcc bbbe
bbbbc dbe
eba a
ecc bbebb
dbb ebbcc
bbbb ddc
fbd ebd
ecbd ebc
ed bbebf
dc eefc
fc bedd
ecc fbe
bebd ccc
bec eccc
fec bebc
debb dee
beec ebd
bcec ef
ed fbdc
bbd bcbe
bf eebbc
fef ef
dc fdf
bdbe dbd
ec bbea
bbc ffc
dcc eecc
eedc dd
a debe
bbbc ebec
bbbbc bcbc
ebe dbbd
bfc bbef
bbd bba
bfc fcc
bbdc dbe
bcbd fc
bbdc df
bbd bced
bbec fbc
bbc ecbd
dbc eeee
ded bbbe
dbf eec
ebb febf
ac bbf
bbebe ef
bec bced
bbbf bbee
bbbbc a
bfc efc
ea ebc
bbbbc bebe
bc dbbbf
dc eded
becc ff
da bba
ebb ebccc
bbd bebbc
bbebb ebbc
bbbbbbbb bbbbbbbbbbbb
bebd bbbc
bbfc bbc
bdf bbbc
beec bbf
dc ecef
ebdc ebd
eec ecbd
dbd beee
becc dec
dbbc df
ecec dbe
acc a
fc dedc
bec bbebe
ac bbbb
ebe deec
fee ebd
ecbe dbf
beed a
fef a
debc bbc
bcbe bbed
debb dbc
bc db</w>
ecf bebc
bdbc a
bbcc bcbc
bcbbc bbbb
fbe ddc
dbbc dbe
bcbd dee
eccc ef
fef ccc
fbc fcc
bbcc cccc
bbbbbbc bbbb
ebe bbbcc
fbe bbebe
def bbf
eeebb bbbe
fc bcdc
bbd fbbc
ff bccc
bbee dcc
edc deec
dbbc ebd
bcc ac
bcc debc
bbdc a
bbbf bbbd
ecbc dbc
eecc df
bbd bedd
ebbc beee
bbebb ccc
bfc bbbd
bbcc bebe
debb bebe
eebc bebe
dbbc a
ebf ded
ea bebe
fbe ded
fec bebe
fc bbebc
edc ecbd
ba bef
ddc bbf
bcc beebb
debb bbbd
bbed dbd
ebb bbbfc
bbd bbbec
fbd dec
ebe ecdc
bec bcee
ebd dbbd
bbbe bbebc
ebb c</w>
fdc a
bbec bbebb
debb ecc
def ff
bc dedcc
bbbb eebd
bec ffc
ebf bebf
beec beec
ebd bedd
ea bdc
ecbc dc
bbdc dee
eeec dbc
bdbc df
bbbe bcbd
ebbc bebd
dbd bfc
bebc bebd
eebf ef
bdee bcc
ebc beebe
eec dbcc
dbbbb dbbbb
bec eeee
ecc bebf
eebc fbc
ecec dec
efc fee
dcc bfc
bf bdebb
dd eedd
bcbc bebe
bcebb bbc
df bcee
dbec bbc
ed ebbbc
ea dbc
ebdc edc
eecc ebe
bced bbc
fbc fee
ec dbbbd
bf edbf
bbbb beed
eef ddc
ecbd bbc
bedbf cc
bbdd a
bcec ebe
ecf ebbc
eedbd cc
bf ebbebb
ebc febe
eeebb bbc
efc beec
eebd ccc
bbbb bcbf
dbbc bcc
dbe bbbf
ea bbd
ded edc
bf bebbbe
fcc fed
becc bdc
dbbc dee
bedc df
dbd dbf
ebf beec
bbebb ebd
dbe ebec
bbebb beebb
bbef ef
dbb bb</w>
fbc bbec
bbef bbf
ba beee
ecbc bbbe
bbdc bbd
bcf bbbf
bdbc dee
dc eeebe
bbebb eec
ecdbd cc
eebc ded
bbef ff
bbebc bbc
dbb edcc
bebd dec
ebb dcdc
dcc fee
ecec dee
bcbf fc
bdcc ccc
ed bedee
fbd bbd
bcbe ddc
ee dedcc
bbbc bcbd
dbd fee
debe bec
eebd dbe
dfc ef
eeed dd
ba fee
bbcc dec
ebd ac
becc fec
fbd bdc
ed ecef
dc bbeec
eec ffc
ebf ebcc
ea bef
eebd ef
eeec dec
be dd</w>
bbf fdc
dbd bcbc
fbc dcc
fbd dbc
bbdd dbe
eeebe bebe
ebb debbc
dc bcebe
ba bfc
eec bebbc
bbebb ebf
fcc bbbb
deec dd
ea bea
dbb bdbbd
bbed ebd
bdbe dec
bdec bbc
bbbf dbc
eccc ebd
ecbe ded
bcec bbbb
ebec bebe
ebdc a
bcbd bec
bedc ef
ecbd fc
debb ff
bbebe bcc
bcbebc cc
bbf eeee
bbef ebe
fbf df
bbebb ff
eebc bbee
fbf bf
dbf bbbe
bc dbbed
dd dcdc
eebebc cc
ed deccc
ac ebe
bebd dbc
bccc bec
dc eebbc
bcee becbbec
ebc dbbd
dd bcdc
fcc dbc
ebdc bec
bdee df
ed bedcc
fdd ef
dbb bfcc
ebb fedc
bebd ecc
ebc bcdd
fbc fed
dee eecc
ebb bdef
eec bced
beebb bbee
edbc ccc
bc bbbbbbbbbbbb
dc edbf
ebbc efc
ea ebf
def bf
def ecc
ebbc debb
bbbd bef
bd dbbdd
def dee
ef eba
dcc bbbc
dcc efc
eedc a
ed ebbbf
edc bbed
eebe dec
edbd dd
bbc b</w>
ebe eba
bbf bccc
dbbc bbbe
bbef fc
beef a
bdbc eec
fcc fbc
ecbd ecc
ed ecbcc
be bbeba
bbf ddc
ebbc fec
dbd bbec
ea bca
beee ebd
fcc eecc
ecee ddc
bdbc dbe
dc fbcc
ba fbc
dbec ef
bbc da
bbcc bbbd
bbebe a
dbec dd
bebbcc cc
fbf dd
df da
eeec fc
eeec dbe
bebf ef
bbbb debe
ebe decc
dbf ebf
dc bcfc
beed ccc
df eebc
fec bef
fef ff
bedc a
bedc fc
bdf bebe
dc febd
bbbc bbdc
dcc fed
ded bebe
bbbb ecbc
bbbe bbbec
beec bdc
bbbbc bbebb
ebdc ef
bdec dee
f dc</w>
dc ebbcc
edc edcc
dfc bec
bbbc eebc
ac ff
bcfbc cc
bf dbbbe
beed dbe
ec be</w>
bf fdbe
bbbe febb
bbbd bbed
bbbd bebd
bbcc bbee
edbc ecc
beee bcbc
fbe bbed
ed eedbe
beebb bbf
bdf efc
bbc bedd
ecf dbd
bcbbcc cc
dc bbebd
ebb eded
bebc eebc
bbd eeed
ba bbebb
dee bcec
ebdc df
bcee ff
fcc ded
edbc ebd
dc bebec
ee dbbdc
dec bbbd
bebc debb
bbbbc ebc
dbbc eec
eef ded
ed fbbbe
ebbc fee
dec bbee
bef ddc
bbcc fbc
ebcc fbc
ebdc dbe
bced df
eef efc
dbec df
bcbbbb bcbbbb
dc bdebb
dc beecc
dd bddc
ebb ecef
ef bcef
fc dbcc
bcc febb
ecbc ff
eeee bec
debe a
bf bdee
bbbb bebbbe
dd ecdc
bbbc fbd
bebc becc
bbed bdc
bdbc ebc
ed fdbc
ed eedf
bbebb bbec
beec bfc
fed bdc
eebe ddc
bcbe efc
bcee edc
fc debd
bcee ebd
fc ecdc
bbbc dbf
decc eec
bdec df
eeed a
ee bbeccc
fc befc
ebf fdc
def ebe
ed ececc
eecc bdc
dbc bcbd
fec dbd
bcc bbdd
dc ebecc
dbe ac
ecbebc cc
ed ebbbd
bbbe bcebb
bbf eebc
bef bebf
bcf ebec
bcbbee cc
a dca
be dedcc
bbbc beebb
bccc ebc
bcee dcc
fc ecec
bb ef</w>
dc bdef
eef bbebe
ee fbecc
dd bbef
ecbd ccc
dd bbebe
dbbc ebc
eeec ef
bdf bbee
bf ecdd
bbcc bfc
bbbf bfc
bebd ff
a fdd
fec bbbe
ecbd bec
dc dbbbe
bebc dbd
eedc bec
beebe bbee
ed eac
bdf bef
bbed bebe
fcc bfc
bba bba
ecc bcdc
bbcc ebf
fbe ebcc
def ebc
ecbc bdc
debe ebc
bf bbbbbbbb
bbc dbbd
bcc bbef
dbe fdc
ba ac
ebbc dcc
bbebb df
bbbc efc
bcbc dec
bf bddc
dc bebbbb
bbd bddd
edc bcbd
ef edcc
ebb fbbbc
bbd bcebb
dbec dee
ebec ded
eeec bdc
beec bbec
bebd dbd
debc ebc
bbf febb
bbbd ebbc
bbbd beee
dc eba
bbd eebe
dec fee
bbbd bbdd
bcbc bdc
bbdc bcc
debe bbbe
bcbbc bbc
bf bcbec
ef debd
eec bdbd
bbebb bbbf
ebf debb
ba bebc
ccc ded
be debfc
ec fbecc
bbcc bebc
bdbc bbbe
ebb bbedc
beba cc
eec bbebe
bbf beebb
fc bebbc
beec ecc
ebe ebbebb
dbe bbebe
bf bbecc
eec fbf
ebbc eebc
bef ded
bbcc dbd
fcc efc
becc eecc
ebdc ecc
fef dd
bc bbb</w>
bcbe bbbf
eeebb ef
ebcc bebe
dbf edc
edbc df
ebb dced
dee bccc
bbee bbed
bbbd bbbbc
dbf dbd
fbd ecc
eeebe ef
bcc bced
dfc a
bcbd dbe
ecbd df
bcec a
ee ec</w>
dd ecec
bcc dbbc
bdc bbdc
bbbc bccc
eebd ebd
bdee ebc
bf bcdd
bbc bba
beec dbd
eccc dec
bf ecbbc
debc fc
eebd dbc
ec dbbbbc
bcbd a
efc edc
bccccc ccc
dbe debe
ff fed
bbee bbbbc
f bbb</w>
ebe dbb
debc ccc
bcf ea
beed dee
ecf bbec
edc bedd
ebbc ebec
bbebb beee
fec bbbc
ecc bbbf
bebe beebe
ded bfc
ebd edcc
bbf def
bebe fcc
eeee ea
bbc eccc
bdbe bbcc
ebc bebbbb
bef beebb
dd edbd
ecee dbd
ebb ecfc
ef bea
bbbe ebcc
dbe fbe
dfc ebe
ef b</w>
bbbc becc
beee bebc
bcbd ebe
decc ccc
fc fdd
ebd bcee
dcbc ccc
bbc fdd
bec debd
dbe dbbc
dbf da
bcbe ebec
dee eebc
dbc ebec
bdbd dbd
ee fbccc
bec eedd
eeee bbebe
ac ebc
bbd bbebd
bbee ea
dec bebd
eeec ebc
bbd eebf
dbe bbdc
fbf bbf
eeed ccc
bf dccc
dc bedf
bbbb bbebd
eeee beebb
ed acc
ebd bbebe
eeec bbbc
bdbe ebf
ebb fbdc
bbbd bfc
efc bbbe
bdee ecc
bbee beec
dcc bef
beee ebbc
ef befc
ff bbebb
bbc bcbbbb
ebd bced
bcbc bbec
bec bbbec
dec beed
fbc fbd
ecbc bbbc
bbc eebf
eccc ebe
dfc bcc
ecf bebe
def bdc
eced ccc
ebd ecbd
bbd fdd
ea ecc
dc bbecc
dbe beebb
dbf fbc
bbd fef
bef bbebe
ebb fbebe
dc bcebc
ebc befc
dec ba
fec ba
eeee ebeebe
bebd bdc
bbdd ebe
bf ecef
fdebb cc
beec bebe
dbbd a
eedd dd
be defcc
bd ebdcc
bbbe ddc
bbee debb
bbbf ebf
dbc bbebb
bbbd debb
edbc bec
bf bebbd
bbf bcbd
bbed bbec
becc becc
dbbc bbbc
ecbe ba
bbbb bcee
bbf ebcc
bebd edc
eccc dee
dbb ecbbc
bccc a
ecdc ecc
dc bedbe
fc ecbd
bbd febe
eebc dbd
eeec eec
bcc eeed
dec def
beee ea
ec bbbccc
bbbb ac
bbbe bcec
bbcc bef
ecee edc
bdbe bbec
bcc ebdc
ecbc bebc
bbbbbbbb bbebb
dd eeebb
bbbe bcbe
ed efdc
bebd bbee
ecf ded
eeee beef
be bbebfc
bc dbbebe
df bbdc
bbbe fbf
fee dbd
ee ebac
dbc debe
bbbd ecc
ecf ddc
bdbe bfc
ebbc bbbf
dec fcc
bebbbd cc
bec dedc
dee bcbd
bebf bbf
efc bef
fc bcbe
bdc fbe
bccc ebe
eeed bbc
bbbe fcc
ff becc
fec beec
eebc ebf
bcf bbebb
bdbc bbbc
fc bdbd
bedc bbc
bdf bebc
ecf bbcc
bf dbdc
dee debb
eebd bcc
bccc bbbb
eced dd
ebb fbbee
bbee dbf
bfc dbf
ebec fbc
ebcc ebf
beebe a
bcdbd cc
dc bea
dec efc
beee eeebe
eccc df
eedc ecc
ebd ffc
bebbc bbc
dec deec
ef fdf
bec ecbd
ac dbe
bc feecc
ec eb</w>
bf bebcc
ebb fccc
dbec eec
bcee dbd
fc bdcc
bcbc dbd
eebd ebe
bcc bbebe
bbd bcbf
bbed bbed
eecc ff
ecf bef
bd f</w>
bbbb fbbc
ebec bebc
dd dbdc
bcbc bef
bcbc bbcc
eec bcdc
bbd ffc
ba bbec
beebe bbbe
bec bcebb
bbd d</w>
bcbc bbee
fec efc
bebbbb bbebb
bdc ea
ebec ebbc
ed eebbd
ef bedd
dd eebe
bbbbc bbee
dfc dbe
bcec ecc
bcec beec
bf bdec
fc eeed
df febb
bcf beee
bedc ebc
ed eca
fec edc
beed bbbb
a eea
ed fdee
dd bcdd
dcc bbee
bdbc ebd
a eecc
dbb ecdd
fbd dbd
ebbbc bbf
ccc fcc
bcbc bbbd
fdc dee
bbef bec
ebe edcc
ba bbbf
debb dbd
becc dee
eccc dcc
fdc ebc
eedc df
bf bca
ef decc
ebe debd
bbec fee
debe bcc
bbd bdcc
ac eec
dc fdbe
ecc bbdd
fbd bebe
ecee bbf
bec bbfc
fee ea
bbed ded
ef ecbe
dcc bebc
debe df
bcee bebe
bebbbe bbbb
ded becc
bcbc bccc
dcccc ccc
ebb dbfc
ef ecdc
ebec bbee
bbed bebc
fcc bebe
dbc becc
bef bbef
ee db</w>
bcc fdd
efc ebbc
bbbf bebc
eeebb bebe
dbbc dbd
fdef cc
be deba
bbbc bbebe
fcc ebf
eeee eeef
bcee bebc
fdc dec
febe a
ed dbbcc
efc bebe
dbf bebe
bcee beec
bf bdf
bbc eef
dbb edbf
dcc eebc
fec becc
ed bebbbc
dc fedc
dbbc dbc
fbbbd cc
dc ecebe
ebc bdcc
bcbc ded
deec eec
ec defcc
bbbf bbebb
ecbc fbc
bbdc ff
bced dbe
ebe bcbbbb
ebc eeebb
ebcc bfc
bcee ebbc
eeec dee
eedc eec
bef bebd
ecbf fc
bbc ecec
ebd fdd
edc debd
bedebb cc
ebb dcbd
bbd ecbd
debe fc
febb ff
ed ebbed
ebe bbebd
fee eec
a ecbc
dc bcbec
dd c</w>
bbc beebe
ebf ddc
ecbe bbebb
bbdd bbbd
febb fc
bac ba
dd fbbc
bbf bbebe
ebf fef
fbd fbc
debe dbe
bbfc df
ecc ecdd
dbf bfc
bbdd bec
ebc bba
bbbc dbbbb
eecc dbc
bebf bec
bbbe beebe
debb bdc
bbed bbbd
bf eddc
dc fccc
dec bedc
bbcc bbec
dcec dee
ef bbbcc
ebf fbe
def bbbb
def dbc
ebe ffc
ebe bcebe
fec bcbc
debb edc
fbf bec
fed eec
ebe fbbbb
dbec dbe
bcec dbc
f bbebfc
ee ed</w>
debb bbee
dbbc bbf
dbb bfbf
bebbebb cc
a dfc
a bfa
debc dee
ebb fdbc
ecc fecc
ecbc bebe
bcf ac
ebc bcbbc
ec dbbdd
ef eeed
ded bbcdbf
bbed bbbc
fbd edc
ebc beef
bbc bcdc
bdbc dbd
bf fecc
ff bbef
fec fbc
bbbbc dbc
bf febd
ebb bedbc
ef ecec
bebc ba
fbf bcc
ebbee bbebb
ed ecbbbb
dd ecbe
bbd bcbbbb
ec bbac
dc fbbd
ecc febc
ea eec
ebec dbd
fef df
ee ee</w>
dd eebf
efc becc
eeebe a
bbf fed
edc eeee
beebe beee
ebf eebc
bcbc fbc
ecf bbee
edbc eec
a bcbf
bc dbbdc
ed bedbd
ebf bccc
ebf bcbd
ea bbbc
bbef dbe
bbfc fc
ebb bedbb
ecc eebf
eef ac
ec fbccc
dc bcbbbb
eecc dbe
bbdd df
bcc bdbd
debb bebc
ebec dcc
bcf ebcc
beebb bec
bdc fdc
bbec becc
debe bebe
dfc ff
ebbc beec
bbcbbc bbcbbc
ccc bfc
fbe bbbbc
fed dcc
bcee bfc
bac ea
ed bbbbbbbb
df bebf
eecc fbc
fdd bec
ccc dbd
ebb dddd
ef bebbbb
ebe ecec
dbc eebd
eebe bba
beed eec
bc dbbef
ebf febb
ccc bbbc
dbbbb bbebb
ebc eced
bbf dbbc
bdc bedc
bbee bebd
ded fbc
bbdc ebd
da bbc
bbebc bec
ba edc
bbcc fee
eecc dec
beed dec
ecc debd
ebbbc dbe
ebb eac
eeee bbbc
fdc bbc
ef bdbf
ecc bdbd
ba bda
ea beee
bbec beee
bbfc bbbb
dc bdf
dc eeebc
bbd bcf
ec bbeecc
ef bcbbc
ebe bdbc
dee bebd
dbb eddd
bbbd bbbf
bb ebe</w>
bd ecccc
bcc bcbf
bcc bedd
dbbbb bbf
eebc bfc
ecbc dbd
bbbec bec
dc fbbbb
ebf beebb
edc dedc
a b</w>
edc bccc
febb bbbe
f deba
ed ecebe
ebcc dbd
bbed bbee
ecbd dee
edc ecdc
bbbd bbcc
bcbc bfc
fec fed
bcbe bbbbc
dbb bdebe
ecbc bfc
bbef df
dd eef
dd dedc
bcc fef
ded dbf
def dcc
bbebe bbebb
beec becc
ed beff
bcc ecec
ebcc bbee
bbd beebe
bebe bccc
bbbf eec
debc a
dc ecdf
ebe bfcc
ebc bbbcc
bbf ac
ebf ebec
eeebb beee
dc bebcc
bef debb
bebc fee
bcbc cccc
fec bbec
eebc dcc
deec dec
fbd bfc
ef eedc
ebe beebc
edc ffc
fcc bebc
ee dbbebe
bf efcc
ebcc efc
da df
ecc dbec
dbb ddbd
fcc cccc
becc dbe
ecbd eec
ebc ebfc
dbd bbdd
dcbc dee
ebec bbec
edc febb
ebec bfc
ecbc ded
bbdc dbc
bf eebbbb
ed bebbee
dd bcbf
ebc bded
dd bded
bbc beef
bdc bbbf
bebbed cc
ebe befc
eccc a
fdd eec
bbf bcbf
becc bebc
ebbee fee
ebc ecdd
ea dbd
bbbbc dee
bfbc ccc
bbbb fed
bbee fbe
bbbd fee
bcbc ebf
bdc eedc
bdee dee
dc bdbe
bbbb def
fc bcebb
bbee bbef
eeee bbebb
bbdc bbbc
bbc ecbe
bfc debb
bbebe beee
bbf eebd
ba dcc
beec debb
eebc bbec
eeec ecc
bdee dbc
ec dbbbf
ebc eef
ebd bbef
a beed
edc eedd
ebc eddc
df ffc
fcc bbd
ecf eccc
ecee bbd
bbbe eeebb
bbee beebe
ebc bebec
df dbbc
dbe beed
bdf ebbc
ed febf
bbf debe
edc dbbc
ba bbcc
dbb ebbbd
bbebe fc
eebf ebe
bedd dd
bec bcbe
dbc def
fbd bebc
bcf def
ed bbebbc
ebb ddcc
bbbd bbbbbbbb
ded ebf
bf bebbf
dbe bbbbc
fee fbc
fbe dbbc
bf eefc
bcdd dd
ef febc
bbbe bbdd
bcbc beec
bbbf fbc
bf bdef
dbe bced
bdc eeee
fbf ebe
bbc dbcc
bedc dec
ec bc</w>
ff beec
fec ddc
bedc dd
ebc eebbc
bec eeed
ebd cccc
bbd beef
efc ebf
bcee bef
bdbc dbc
becc eebc
eedbf cc
ecec dbc
ecc eebe
ea ebd
fee dec
ebd ebbcc
bbebb bef
ecee ef
dbb ebbbc
efc bcbc
bbebb bebbbb
ebcc ded
dbf bbbc
ccc fbc
fbd fec
fbbbf cc
ba da
ddc fbc
debb dec
bbbb beebe
fc eef
ecc bdcc
eec dbbd
ebbc bbbbc
bbcc fec
bbdc bdc
bea a
bf ebbbf
bdbc bbf
dc bcdf
bbc febe
ccc bbbe
bbebb bdc
dbf fcc
eeef a
bf e</w>
ebec bbbd
eecc eecc
debe ebe
bec bcbf
ded bbbc
eeee bdc
ebdc dee
ef bbeec
dbe fbf
bbec fec
bbbf ebd
ec dbbed
dc debf
df bced
bbbf dee
ed bedbb
dc eedf
fee bfc
bef bbed
bebf ebe
bedc dee
df fef
ff fdd
dbd ebbc
debd dd
edcc fc
ed beebf
ebb bebbbd
ee dd</w>
ebc bcfc
dbd bebd
bbec dcc
bbdc bbbe
bdee bbf
ebbee dbe
fbc beec
eebe ac
a bdbd
ef dccc
ff debb
fbbc bbc
ef ecbf
bfc bbcc
bbbbc ebd
bcec bbf
edbc dbe
bf fccc
bf bcdf
ebc fa
ff ebcc
bcc eedd
dbf dec
bbbf bdc
becc bbf
becc dbc
bd dbbbbc
eec eeed
ffc dd
efc ba
bedc ebe
bcbf bbc
dee ea
bebd ded
df debe
bd db</w>
dcc fbd
efc def
bc bbebdc
bebd bbbd
fed ded
eebd bbf
ebb ecbbd
bbec bcbc
eeee eeebb
beed fc
bbd ecec
fbe bbdc
bbbbc bebc
eebc fec
bd bbefc
bbbb ebbebb
fee ddc
bcbe bbebc
ecf ebcc
bf feec
bec fbbc
fee dbf
bdf ddc
ebbc ba
bd bd</w>
ef bcfc
bf bddd
edcc ecc
bbbc dbbc
edbc a
dec dbf
eebd ff
beed dbc
e ba</w>
ecee bbbe
ef fbcc
bbd bcdc
bbd bbeec
bbf fdd
bbbc bebbbb
ccc bcbc
beee bbbd
bced bec
bf eea
bebf ff
febe ebe
fc beebc
fee bcbc
ecbe efc
debc dec
ed ecbbd
bbbe debe
bbbc cccc
fbc ba
eeebe bbee
bcbeee cc
ebc beebc
beee bbcc
bbebb dee
dc ecbbc
dc ebccc
ebbc eebd
dbd beec
bbbbc bbec
bbbbc bbcc
bcbd eec
bba dd
ebb efbf
fbd ebf
da dbe
dbbd bbbd
ebd fbbc
bdc debe
ecbc bbec
bfbc bbf
bf bdbe
ebe eebbbb
ecc eddd
bfc bebd
bcbd bcc
ecf dbf
fc febc
bbbf bef
bf ecbec
ebc dbb
ebd ecdc
fbc bbbd
bbc debd
ef bfcc
ebe bbeec
bbd ecbe
bcec bebc
a ffc
ebe bded
ea dcc
ed ecdf
ebe ecbf
dec bbcc
ecf ac
bcc eeebb
dbe bcee
ea eeee
dec ebec
ded bbbd
fee bebc
eccc dbc
eebd dee
febb ccc
bcc eebe
bebe bbed
bfc def
debb ebf
febb bbf
ed eedbc
ecbc dcc
deec bbc
beebe ef
edc eeed
fed dbd
bccc dee
bdbd bbc
eeebe fee
bf bac
ebcc bebc
beebe eeee
dc bbbdc
bbbe bba
ff bbdc
fef fc
fbd bbbc
ebbbc ccc
ebe ecebb
ebd bebbc
efc dbf
ebb bb</w>
bbbb bedc
ebe bcef
edc dbec
fbe ebec
a dbbbb
dc eedbe
eec bcbf
ba dec
dbc dbbc
ebbc bbed
bcf debb
fdc dbe
bebf bebe
ff bbed
bfc becc
ded ba
ebe bcebc
bec dbbbb
bbd febc
bbbbc df
bcf bbed
ebd edbd
bbd bbbcc
bccc df
ebb ecbcc
ebb beccc
beee bbec
fcc eebc
ebe eebeee
ebd dedc
bebbbb bebbbb
ebb fbef
dd febe
bcc dbec
bef ebec
da ba
bdcc eec
ebe eea
dbb bdef
bebc bbebb
bcee ebf
bdec eec
bbc dbfc
bbd eef
dbb eddc
fbc debb
bbc bebec
ebd fef
bf ecdf
dc beeec
ecc eced
dbb ebecc
ded def
fbd bbbe
ecee bbbc
fc eedd
ebd dbcc
dbe bcbe
bdc bbdd
fcc dcc
debe ef
fec fee
ebc ecbf
bbf bbdc
dbc beed
ebbc dbf
ddc bbbe
bebf bbbe
bd ffcc
ebe b</w>
ebd bcdc
ff cccc
efc debb
a bbebc
bbec debb
deec dee
ed ebbbbc
ef edbd
ff dbbc
dec bbed
eecc dee
da bea
ecbe ac
bba bbbe
dc bfed
bec ecec
bcc eebf
ebc dbdc
bef eebc
bdbe ebbc
dc bceec
bbd edbd
ccc ddc
ecbe ebcc
debc bbbb
a bbdd
ed ebbbbbb
dc eebec
ebf ac
bdc dbbc
dbd dbbbb
bbbd bcbc
efc efc
beebe bbc
bdee bbbe
ebe edbd
eeed df
edbc dbc
ecc dbcc
bbebb dbc
a bced
f ef</w>
fbe ac
febb df
eeec bbbe
ef beebc
ebe febc
bbee becc
bdec fc
a bcee
dd e</w>
bec beebc
dec eebc
beee beef
dc ecbec
ebd febe
ebd bdcc
bdee eec
cccccccc cccc
bbd fbbbb
bebd bebd
febb eec
ebb bebbec
ecc bbebe
dcc eedc
bcc bbbcc
dcc bcbc
becc ded
fed bbbb
bdee bbbc
bbd cccc
dbe ebcc
dbe ecbc
bebc efc
fbc bbcc
ebec edc
becc bebe
fbd bef
eebe ebcc
bba ba
be dc</w>
fc eebf
ebd bbebc
bbd befc
bf debf
ecc beebb
dbe eecc
bbec edc
eeec ff
ecec bbbb
ebbee ff
fee bbbf
ecec bdc
ebbbc bbbc
a fbbc
be de</w>
fc bded
ebd eebf
eec edcc
dbd bbcc
eebe efc
debc ded
dbbbe bbbb
dd bcebb
fc ebfc
ebec fec
bebbc bec
be bf</w>
ef eea
ebe bebbee
eec febc
dbe bedc
bbbd ddc
eebc eebc
dbbc bebe
bbef ccc
ed ecccc
eec ecdc
ebec ebf
bdf dbf
bbf fef
dbd bbebb
bcbe debe
bcee bcbc
bfc beed
da ccc
ecf ba
dc beebd
bbbbc bdc
fc bfcc
eec fef
dec beee
ebdc bcc
bdee bdc
dbb eded
beebb ebc
ecf ea
bdbc ff
bbd bdbbbb
bcec bcbc
febb bec
ecec dcc
ebbee ebf
efbf beee
dc dbbbc
bbd bcbbc
ebec bcbc
becc bbbe
dee ac
dbd bbed
dbbc ff
eefee cc
bf dbbbc
ef ebfc
bef beef
bbcc ebbc
fbe ecbc
eeee dbe
bbbbc eec
bdbe bbebb
bf bbccc
ebc bfcc
dbc eecc
bebe bebbbb
eef bbed
bbef bbbe
fbbed cc
ef fbbbb
dd fa
ecc ecbe
ded debb
da bbbb
dec fed
dbd fcc
bef bccc
bbbd edc
ebdc ff
bdbc bebe
dd eced
ded bbee
ebbc fcc
bbef bcc
eebd bdc
bbdd bdc
ef bdebb
dd bcbe
ebd eedd
dbb ecebe
fbc dbf
beebb beee
dc bebbd
bbc bdbf
ebf bbed
dec ebcc
bcec ff
bf bbebf
bbec bebd
eef def
bbef bbee
deec a
ebb dcbc
eec bcbe
eec fa
dbc cccc
dbd fbd
fdd a
ecee bbee
bdbc bdc
dbc bbbf
bebc bbcc
efc fed
fec dbf
dec debc
fbe def
edbc edc
ed bedec
bbc bcef
ebf fed
bbbd dcc
bcbd ff
debd df
ed fbbbc
edbc bcc
fc beef
dbb ebbbf
ddc fcc
eecc bbf
dc dbbee
bebc beee
bdee bbee
ebe bebec
bec fef
eebe bbed
ecbd edc
ecee eec
dbb ecef
ec ec</w>
dc defc
dee def
ebcc eecc
bcee fbc
ba dbf
ebb dba
dc eea
dd eddc
bec dbcc
bbbc fcc
bbbc bebf
dec fbd
dec bcec
bbec beed
ddc fec
bdf bbbd
bbc eedd
eebe bbbbc
ecf bbbd
bb ebd</w>
bbf ecbc
bbbc bbbcc
ccc bebe
bbcc dcc
bec bdbd
bf bedf
eccc ff
ed bbbfc
bbbb bced
ef bdec
bdc bccc
ba bcbc
bbebc bbbe
bedc ecc
dc ecfc
bec bcdc
ebbc fbd
eef debb
bf ecfc
bdc fbf
bbdc dbd
dac ea
a cccc
dc eeecc
dbe bdbd
bdf ded
bdc bbebb
bfc ebcc
beec bef
bcec bbd
bcc bcbe
dbc ea
bfc ebec
eeee ecc
beebb ebf
ecdc dd
bdbe dcc
a eeec
bf bceec
bdf ba
beee fbc
bcee bbebb
ef bbebd
fec ebf
beec fbc
ed fdec
dec eecc
bcbd ccc
a eeebb
ed dedcc
efc eecc
eebc bbbd
dbf bbee
beee bbbf
beec dcc
fbd dcc
bedc bcc
ebb bedee
ef bcdd
beee dee
beee dcc
debe ecc
ed eebdc
bbec bbed
eeee bbd
bcec ebd
bbfc bec
ed bbba
dbe bbdd
bebd fbc
debc ff
eeec bbf
bedc ff
bedd bec
bf bdbbc
ebb fdee
ebcc dcc
ecbc bbee
fed ebc
f bbeba
ebe eeed
bebc eecc
ecec eec
bcdc dee
ef dbdc
bbbc bbdd
bcbe ea
ed eeebd
dbe febb
bebc bbed
ded ebbc
bcbd bbf
bec beebe
becc ebbc
bccc dcc
dbbbb bbbbc
eedc ebc
eeebe bbbe
bf fbbbe
ebf bbebe
bcbc edc
eced bbc
bd bbebec
ebe bdbf
ebe eebebe
bfc eebc
bebf df
bdbd bbd
eedc edc
eeebb bbf
febe bebe
bc dbbfc
ec dbbdc
debe bdc
eeec ebd
bdf bbcc
bcbbbb bbbe
bebbbe bbbe
ee dbbfc
ed eceec
dc bfdc
beebb bbbc
ebb eca
ef bdbc
dee cccc
eccc bdc
eeec bbd
bfc bbebb
dee fec
dbc bbbbc
fed bbf
debc dbe
bdbd df
ed bb</w>
bbec ba
fdc fec
bbee ddc
debb ebbc
beec fec
bbfc dbe
bdebb bbbb
bedebe cc
ebe eebbee
bbc befc
bcc deec
efc bbbd
eebc eecc
ebbee ccc
ebcc ebbc
bcbd ebc
fbbc fc
ebf eebf
edc fdd
fee bbebb
bbbc ddc
fee bbbd
eeee ebc
becc bbd
febb dd
dc bcbcc
ef bcebc
bcc eef
edc bcec
beee dbd
bbcc ded
ebcc fec
fbbc bbbb
a eebd
dfc eec
dc bfbf
ebe bcfc
eeec dcc
eeebb bbee
bbbc beed
dec dbec
bcee ddc
bc ee</w>
ee dbbef
fc dbbd
ebf bbbbc
ebf def
bfc beebb
ebe ebfc
dbb ebbbbc
dbd fec
ebec bef
ebbbc bebe
bfbc ff
ef bddc
ebe ebbbbbb
fc bcef
bbbc fbf
bbebe dd
bf febf
dbf beec
bbd fbec
edc ac
dc ecebc
dbb ebbed
bcbe def
fdc bcc
bf dedc
bbec ebec
ed f</w>
ecc da
dbd dbbc
eeee dbc
becc fbc
eccc ded
ebdc bbbb
bbdc bbf
a dbec
fc bcbbc
ecc bbbbc
debc bbf
eedc bbc
eebeee cc
eec beebe
bbfc bbf
fa dd
bdbe ba
ebb fbfc
ef dbbf
ebd eebe
df ecbd
dfc dbc
eccc dbe
bcee dbf
eeef eeee
df eebd
ff ffc
dbd debe
efc fcc
fbd ded
beea cc
df bbdd
bebe eebc
ebec bbcc
bbebe ccc
ed eeeec
ebe bbbbbbbb
bebe debb
bebc dcc
bebd beec
cccccccc ccc
dd beef
bfc bbbf
bef def
bc debfc
ef bcbec
ebe bddc
efc eebc
bcbc bcbd
ecec ded
ebd bcebb
ebd febc
bcc bdcc
bdc deec
dee fbd
dee dbbc
dee bced
bfc beee
ecebb bbbb
ebe ebbebe
bbc fbbbb
eec bdcc
bdc dfc
ff bebf
bfc bbed
bbec bbcc
fbf bbbe
ecee dec
edbbc dbf
a eebf
ebc fecc
bcbc fee
ac dbf
bc ec</w>
ee bbeba
bcc bbfc
bbd bded
eec dbdc
debe bbf
bbef bebe
ed ebdcc
ebc bbebd
bcc edcc
ba ded
ccc ebf
eba bbbb
eddd dd
ebe bdebb
ebcc ebcc
a bedc
fc bbbec
df bedc
df edcc
dbd b</w>
debe bbbc
dbbd bec
bbd bdbf
bbd bddc
ddc ebf
ac dbc
bbdc ecc
decc bec
bd eb</w>
bf ecebc
bbc fbec
bbbd dbf
eccc eccc
bbebe bebc
dbe eebd
bcbd dbc
bd bc</w>
dd febc
ebd bebbbb
df bcf
bccc edc
fdc ebd
ee dbbebc
dbe fed
dbe dbec
fec ebbc
fcc bbbe
eedc ebd
fbbebb cc
ed eebbbe
fc fbec
bbdd dbc
bcec bef
bebbc bbbe
bd debdc
bbebb ba
bcec bdc
ee dc</w>
ec dbfcc
bec bebbbb
edc bbdc
eeee bbef
bf bcbbd
ebb ecdbe
ea dec
eeee fc
bba bbbc
edc ecec
ebdc bdc
eeef beee
bd be</w>
bd bbfcc
ec ee</w>
bf fdbc
bcc decc
bbd eccc
debc ecc
debc ebd
dd bbfc
bbc febc
eec bbfc
eec fbbc
dcc eebd
bcbe dbbc
dbec ebc
bcee ba
bbec efc
ebe bcdd
ebf dbbc
bbbec bbbe
ee fcccc
dc fbbf
bbcc bccc
dfc ebc
dbec ff
beed ebc
fdd fc
ec bd</w>
fbc eebc
fdc ecc
bdbe ded
ed eedee
dc bac
edc fbe
fcc bef
eebe ebec
bbdd ef
ebbee bef
dc bdbbc
bcc bcdc
ebf beef
bbbd b</w>
debb debb
ebe eebbbe
dd bcf
dd bbebc
eec bbef
dbbbb bec
eeec ded
dc eac
dc dbfc
bbbc fbe
dbb dcbd
bbed bef
bbdd ebc
ecee ebd
ee dbbbec
ebcc bef
f df</w>
ed fdbd
bbbb dbbbe
bbc ecbf
ecdc fc
ecc dccc
ebbc becc
bebf ccc
bb ebc</w>
bbc bbeec
dbd def
beed bcc
bdbe debb
ac fa
ffc ff
bc bbeccc
ebb beedc
bbbb eebbbb
bbbc debe
bcbc dcc
bcee ded
fdc ded
bdec dbe
ef bcebe
bbec eebc
beec ba
bbbc def
a debc
fc beebe
bcc dbcc
fbc eecc
bcbf bbbb
ebf bcec
ff bcbd
fbc bebd
bbed bfc
beec bedc
a beef
bbc decc
bcc ecbd
dbb bac
fec debb
bbbf ba
eebd dec
a eccc
ec dbbebb
bf edbc
bf eded
bbd eedd
bdc bdbd
bebe bcbd
ebbc ebcc
fee beef
dbf bebc
befc df
dd beebe
ebc bdbf
fbc becc
ed debdc
ebb eceec
dc edbc
eec beef
edc fbf
bfc fbd
fcc becc
bf eeebc
bbbb eecc
bbebb bcbc
fec bbee
ec fedcc
dc bfbd
bbbb da
bbed ecc
bdf bbec
bd bbea
fc dbbbb
eec bbebc
ff ecbc
eebd bbd
bcbcbcbcbcbcbcbc bcbcbcbcbcbcbcbc
ff bcec
bbcc efc
ac bbbe
bebd bef
eebd bbbe
eeebe bef
eec bcee
df bcbf
bfc fed
dbf dcc
fec bedc
ecbe debb
dfc bbf
beebb eeee
a bcf
bbc beebc
ba eba
bbdd dee
dc fdee
ccc bbee
ccc bef
ecbd dbe
ecbd dbc
bdbc ecc
ed ebbee
ed efbf
ebd b</w>
eec fecc
fbc bbbf
bbebb bbebe
ebcc bbec
beed ef
ebf beebe
ff ebec
ddc bebe
fc eeebb
fc fa
bbbc fed
dec bcbd
bf bbbdc
dc bca
ebd eeed
bdc ebdc
ebbc bbebe
ed fdcc
ebe bcbec
bbc eebbc
ff dfc
bbee bebf
eecc bbd
eef bbdc
ff febb
bbbc bbbec
bfc ddc
a bcebb
bbbb bebec
eec bbbec
df bdcc
fcc fdc
ed bbdcc
ebe bebcc
bcec bbec
ee defcc
ebc bbeec
bbbc bcbbbb
dcc beee
eebc bef
ebc bcebc
eec fdd
fcc fee
bebbbb bbbd
bf bcbcc
ed fdbb
dc bbccc
bbf dbbbb
bdc eeed
beec bcbc
bebbbb bebe
ebe bebbd
bbc edbd
fbc bbed
bbebb ecc
a ebdc
bf dced
ebc ecebb
bcc fbbc
eec dbbbb
dbe bebbc
bbbc ea
bebc ebec
bdc dbec
fbd fee
bcf dfc
bbbb eeec
ef bbecc
ef fbec
bbc bdcc
bcee bbed
bbbbbbbb bbbbbbc
febb bebe
bcfcc cc
ebd bbfc
a febe
ebc bcebe
df bbef
df bdbd
ff da
dee dbec
bc dbba
bf beff
ebe eebbc
ebc dccc
bbf bbfc
dbe bcebb
bdc debc
dbc ecbc
dbb dcdc
bbebb bbcc
bbbf dbd
dbbd bbbe
fed ddc
ed bebfc
ebb dded
bec eeebb
beee bbef
ed bbbbcc
dbb ecbec
fbe debe
eebe dbf
eebf fc
eedd fc
bc dbbebc
ef eebbc
bbf dfc
bbf bcec
dbb edbbc
bebd ebbc
edbc dee
bbd bdebb
edc da
ea bbbd
bebf bcc
efc bbec
beebb fc
bdbd dbe
bdee dec
dc dfcc
bbbb bddd
bebc ebcc
eebd bebe
ecbf dd
ebb dbbcc
dbb bda
bbed ebbc
bced ccc
ebbbbbb bbbe
bbbc bbebc
efc bbee
fbe cccc
bcbd dbd
dedc eec
ecee fcc
dbb ddcc
fbe dfc
bcbe bbdc
bdf ea
ee dbba
df debc
ebf ecbc
dbf bef
bd eeeecc
df cccc
fee bbec
becc efc
beec bbee
eef ebec
dbbbb dbd
bdee dcc
fec dfc
bcf bbbbc
ed ebeebb
dbe eeee
dbc eeec
bebc fcc
bebc ecbc
fee ebbc
ddc bbee
beec edc
ef eced
bbd bdbc
bdc ecbc
dbc ebcc
bc dd</w>
ed ecdbe
ebb bedbd
ebe dbbbe
bbc bded
bcc bbebc
bbf fbbc
ebbee bbec
ef fbbf
ebe eced
bf eddd
bf ebbbc
eebc fcc
ebdc dec
eeebe eeebe
bbbb eebf
ebc bedbe
bbc ebfc
bbd bebbd
efc bebd
debe bbee
bccc ff
bebf dd
ec beeecc
bebc bedc
bcbc ebbc
be ebb</w>
bbd bebec
bbebb dbd
ebb bbdcc
bebe fbd
becc bfc
dbec dec
ecdd dd
bcc bbbec
ebf eef
bdc febb
bebc bbbf
efc bedc
becc bbbc
eedd a
ebb efdc
deec ded
fdd ff
bdbe bbed
bcbd bebe
ffc fc
edbc bbbe
df beebb
beec bebd
bccc dbe
bccc bcbc
dcec dec
dd bba
ecc fef
dc eebcc
df ebdc
eecc ded
bcf dbbc
bced dec
bebbbf cc
bbc eced
bbd fa
dbc bbdc
eeee bbbf
bcbe ac
eebd dbd
ed fbfc
ebb fdbd
bbbb bbbdc
ebf bbef
beee eec
eebd fbc
bc dbbbec
ecc ecbf
bbee febb
ecc fbbc
ea fbc
bd dbccc
bf beecc
ef ebbcc
ebe bebbf
beec ebbc
bcc dbbbb
eeee bebf
beed ded
bd dbbebb
ebb fdbb
fc dccc
ecc efcc
ddc bbbd
eeec dbd
ecbcbc cc
bf eebcc
bebe eeebb
eebc debb
dbec a
ecec a
bbbb bedd
bbc bbebd
bbc bcdd
bbd bcdd
edc febc
bbbc ebcc
debe dbc
ecbe eccc
deec ef
bd deccc
bf ebecc
bcc b</w>
fee bbcc
ac dec
bbbc ecbc
bbbc bbef
dee beebb
bbdd ebd
ecee bbcc
ebb bbebec
df fbbc
bbee ded
fee beebe
bbdd fc
bbebc ccc
bdbd bbbd
bdbc bbbd
ebc fbec
bbbe bcbf
ddc bfc
bbbbc dbd
eecc dcc
bbdc bbdc
ecbe bbed
deec dbe
ecee fbc
bc ebac
bf acc
bf fbebe
ebb ddbd
dc fbdc
bbee bbebc
bbbf ebbc
bcbd bdc
fdc ebe
bebbbb bbf
ebb ecdf
ef bebcc
ebc febd
bec bbbcc
df eeee
fee bbef
fcc dbd
dbec fc
dbb dced
bdbd bdc
bbd eebbc
dbb ecbbbb
bbdd eec
fdebe cc
bbbe debc
fee bbebe
fee fbf
dbf dbf
def dbd
ebdc dbc
eebbcc cc
dd bebbc
bec ebfc
ecc eeebb
bcc bcbbc
dbbbb a
decc ef
ecbd a
edcc eec
ebb dcdd
dd eddd
bbd eced
bef ecbc
eeee eebf
bdec dec
ebb acc
ebe dccc
bec beef
bebe ded
ebcc bbbd
ecbe bbbf
dbbbb dbe
bcec dbd
fc bbbcc
fc dbdc
bbbe bcee
ba ebbc
bebe bebbc
dbb ebbee
eebc bebd
ecc bbef
ff eccc
fbf ebf
eedc dec
edbc bbf
eebcbc cc
ebb dcbf
ebe fbcc
bbbe ac
bbee bba
bccc dbc
bdbd dee
ec dbbef
ebe fbec
dd dcdd
ec db</w>
ebe dbbf
efc debc
beec bbcc
bdec bcc
bf c</w>
ed fbebe
edc dbcc
beec bbbd
def eec
bf fbdc
dbd dbbd
bef bcec
fbd fbd
fc bcdd
edc bcee
ebec ba
fbbbb bbc
ebe bbecc
dd fecc
bbf da
dee ecbc
bbec beebb
bbfc a
bfbc dbe
bd dd</w>
ed ebbebe
dc efdc
bbbb bdebb
ebd dbdc
df bbbbc
bbbc eebd
fed bfc
eecc fec
eebe dbbc
eea a
bd dac
bf bebbbc
fc bcfc
df beed
bbf bebbc
bbebb bebd
becc ebf
ecbd ef
ed eedcc
ecc bcbe
bbbe bcbbbb
beee bebf
fcc ebbc
ebe ebbcc
ebd eeebb
bcc da
eec bcebb
eecc ebbc
eef dbbc
edbc fbc
ed fbef
ebd bcbe
bcc ecbf
bbbe bced
ff bbebe
bbbc bcebb
bbbbc bbbf
ebb febbc
bbdd bbdd
fee edc
bf ecebe
dc bedee
ebc bcbbbb
bcc febe
bbf bcebb
ff bebd
bbbc bcbbc
ea bbec
fee beebb
dbec bbbb
bcbd bcbd
dbb efcc
ea da
fee bebf
fec bebd
ecbd bbbb
eeed bec
ecc bddc
bf eac
dc deecc
bdc ffc
bbee fbf
bef dbbc
efc bbcc
fec fcc
edcc edc
ebbbc dee
ebb dcec
bbbe eebd
ebf bbdc
bdc bedd
eec bfcc
bbbe ebbebb
dbe debc
dbc bedc
ded bbed
eecc fcc
ecdc dcc
ee de</w>
beee bfc
bcee bbbd
dbbd ef
bcdc dd
bdee bbd
ebc bcef
ebc feec
fc beecc
bcc bcf
ebf dfc
bbbc bcec
fbd bbbd
fef bbc
ebc efcc
bebc eebd
bcbc ba
bbebe bbebe
ebf febe
bdf debb
dee ebcc
bbee bebbbb
bbebb debb
beebb ccc
bf beeec
dbd eebc
fbc ebec
bbeec bec
bc dbbbcc
bf bedbe
ddc fee
bbdc bebe
bcba cc
ecc bbfc
dee beed
dcc bccc
bebc beed
efc dfc
fdc dbc
ecc bcbf
dbb bfbd
bef becc
ea ac
bbbf bbec
bbbbc ebbc
eef ebcc
ebd ecec
eeec bebe
f a</w>
ec debfc
ded fec
ddc bbbc
debd dbe
bedd df
dd bcef
ebc bebcc
bbbe bbfc
beee eeebb
bcee fec
fbf dbe
fc bba
dee fbe
dbb ecebc
ea edc
ecbc ebbc
ebbbc bbd
bbbb bcf
ef dedc
bbf beef
bef beebe
bebd bfc
fbd ba
def fbc
febb dbe
dbcc bbc
febe ff
bcbbbd cc
ec dbbebe
dc bebbf
ccc bbcc
dec decc
bef bcbd
beec beee
eeba cc
eeebe ebf
eeef ef
bec febc
ecc febe
dcc becc
bbebe dbe
ebbbc bcc
bebc fed
ebcc fcc
ebc dbbbe
bbf eebf
dbc fdc
eebc efc
eeebe bbbb
bec befc
bbf beed
ebf eecc
ea dbf
a bcbe
bf dbfc
ef fbbd
dbb dded
dcc bbbd
dcc bbec
def ebd
bbdc bbbd
dbec bcc
beebb bbebb
a dbbd
dc beedc
ef bfbf
ebc ebbcc
debb ded
bbed fbc
bedc bbbb
eedc dbe
dc ebbebb
dcc bbcc
bbdc dec
debc bcc
bccc bdc
bcee becc
fc eced
beec eecc
bedc ebd
ebbbc ebd
ec fcccc
bbf ffc
ebec becc
dbec dbc
fef fee
ebc bddc
bbc ecebb
fc fbcc
eeee df
eeec dbbc
bdf ac
ebb defc
ef eedd
ebe bddd
dd dbbbe
bef dfc
ebdc edbbec
bdee bebe
bf eebbbe
ebc bdbc
bec bcf
bbf bcee
bbf bced
bbbc bdbd
ccc fec
dbd becc
dcc dbf
debe ebd
eeec fec
bd dbbed
fbd efc
bbbe bebbbe
bfc bccc
ddc eecc
def dec
edbd dee
bdbe dbf
bceebc cc
ebc bddd
bec ebbcc
bbf bba
edc bced
dbc fbf
bef ac
ecf debb
ecf bbbf
dc debbc
edc bbebb
ec bbebdc
bec dbbd
eebc becc
eef da
dbec ebd
bcec bebe
eeebe beebe
a dea
dbe fdd
ebf eebd
dbc bdbd
bbee eecc
bebf bbbc
bcbf dd
bdec bbbb
ecc bcf
bbf bbebc
dbe dbbbb
bbbbc ff
bbebd bbbb
bebec bbc
bec fdd
bdc ac
ebbc beebb
bbed beec
bcee bbcc
ecee ff
bebbd bbbb
ed dbccc
bcc beef
bbbe ecbc
bbf febe
edc fecc
ebe eedd
ebe eddc
bcc febc
ba fcc
debe bbd
beee bba
ecdc eec
bef bbbbc
bebd bbec
eebbc bbc
bbfc dee
bbf bbbec
bbee eebc
bbebb fbc
fbe bbebc
bbd ebfc
bbee efc
bbebe bbbd
deec dbc
bf dbbee
bbc dedc
bec b</w>
fcc bbbc
dfc bbbb
bbd beebc
dec ecbc
ded bcbc
bcbd bbbc
febb dbc
ed eebbbc
bbbe bdbd
ba debb
dbb ecdf
bdec a
eeeeeeee eeeeeeee
ec bbeccc
ef e</w>
dd bfcc
bef eebf
fbc ebcc
fbe bbfc
fed bebc
bcbe ebcc
febb ebc
ecf ebec
bdec dbc
dd bbbec
fbe debc
fdc bdc
bebf bbee
eeef ebe
bec eebf
ebbc ddc
bebd ebf
dbbc bbbd
dc bcbbd
bcc ecbe
ba fbd
beee edc
eebc ebcc
bd bbbecc
bf bdbbbb
eebe eccc
debe edc
dfc dec
bbc dbbbe
fc edcc
fc bbecc
bfc eecc
bef da
bcbc bbbbc
bedc dbe
bcbbbb bbbbc
bebe dbf
ecbc beec
bbbcc bbbcc
dd ecdd
ebd bbbec
ccc efc
ccc fee
dbd da
ded deec
eeee eebe
fdc fbc
bcdbf cc
a bebbc
bc bbebfc
bf bebbee
dd ecbf
fc bea
ecc bcdd
dee bbbf
bebe ebcc
bebe bbdc
dbb bdebc
bef ebcc
bbed ebf
bf ddcc
bf bebdc
dd fbec
bec bcbbc
ebd beebe
bcc bebbc
bebc fbd
eebe bbdc
fc ecbf
bebe bcebb
dcc ebbc
ecbd dec
bbbcc bbbe
ecee bcbc
ebd ecbe
dbc bccc
dbf fbd
eedc ef
beef bbbb
ebe bbebf
ecc ebfc
bbee ebec
bbee fbd
bcec bbbe
bdf bbbf
a beebe
bbee eeebb
efc ddc
bcbd bbbe
bc defcc
dc bebbbe
bec bba
bbf bcf
dbb edbc
bef bbdc
ea ded
bbcc beee
fec def
fed fbc
bbebe bbd
eeec becc
bbc dbdc
bdc bbbbc
eeef fee
ee bbb</w>
ed eebbf
ebe ecbbc
ea ddc
eedc ff
eebbbd cc
bf ebbbbbb
dbe bbef
dec bccc
dcc def
debb bbebb
fed ba
bbebe ebc
ed ecdee
bebe ddc
debb bbec
bbed bbebb
debe dee
dbbd fc
bdee dbd
ebb beba
bbbb dbec
dd fdf
bbc dbbf
ccc bebc
fcc fbd
dbbc bdc
beebb ff
bf d</w>
bf dcdc
ebe dbdc
bbc fa
bcc bcebb
bcf eccc
dedc df
a eebe
ee dbbbcc
bbbb cccc
ebd bddd
bcc c</w>
edc edbd
bfc fbf
dcec ded
bdbc ded
ecc bcebb
bcc befc
bbbd bcbd
efc ebcc
ebb bebfc
dc ebbed
bec beecc
bbec bedc
bcbe bbbec
eeec bcbc
dbcc eec
eebbed cc
ebc b</w>
ebd fa
ebbc eecc
ea bcec
eebf ebf
ecec dbd
bdbc ebf
ebc eddd
dbe bbebc
bbebb fee
def bfc
eedc dbc
bdee bebc
bec ecdc
bbee bccc
febb ebf
eebf ff
bcc eced
dbe bebf
bebe dbbc
dbb dcdd
bbbd beec
fbc beee
bbbf bcbc
eeee eec
dbe cccc
da bda
eedc dee
bd befcc
ef ecebb
ecc fa
debb bfc
bbed edc
eecc eebc
da dee
fbf bbbc
bdee ebd
dc bbbbbbbb
fc febe
ecc bded
bebe bbef
dbb ecfc
bcf debe
febb fee
eec befc
ebc dbbf
bdc decc
bebe ebec
bcbf ff
fbbbb bbbe
ef bddd
fc bdbf
bebd debb
fdc efc
a bbba
bf efbf
ed fbbee
ebf fdd
bcbf bec
bdf beee
bbd ecebb
dbb bfed
bced eec
bedd eec
beef ff
dc fdbc
dc beccc
bbbb eebe
bbee ebcc
fbf bef
bcec bbbc
bd bebecc
bbbb ebdc
ef c</w>
ebe dedc
dd befc
edc eced
dbb bfdc
fbc ea
bcbc beee
fec eecc
eef bba
eebc ba
ecbe dbbc
eeebe ff
ed beebbc
bbbb ecbd
ecbe def
eebd ebbc
eebd bebc
bf eebec
bf ebbbd
ebb bebbebe
ef bcbbbb
dbc bbdd
bedd a
bebbbb bbbbc
eebbbb bbbe
bd ebfcc
ebb beebbc
dc beff
bbc bcebe
bec dbdc
bcee debb
bebbbb bbee
bfbc bbbe
ebc fbbbb
dee bbdc
bebe febb
dcc beec
bbbd fbd
ebcc ebec
fc b</w>
bbd bcef
bbcc bbbbc
beebb eec
beed bebc
eeec edc
ecbd bcc
bcbf df
ecee dbf
ed befcc
dbe dfc
fbc ddc
fcc eedc
bddd dbd
bbbb ecebb
bdc bebf
dbc fbe
bebe bcec
dec bced
eebf ccc
bdbc bebc
ed ffcc
bbec fed
fec bbcc
beec ebf
dbbd ebe
bcbf a
dd efcc
bbc bbbbbbc
fdd ccc
fbbc a
ebc bdec
bcc edbd
bbd edcc
bbd bebbbe
bebe efc
dbec ebe
bcee fcc
bedc edc
bbdd bbbe
ef dbbbe
ef bebec
bbc ebbcc
ebd beef
eec beebc
bdbd bec
ebd eddc
bbcc becc
dbbbb dbc
eeec bebc
dbcc dd
bcdc fc
bdbc bbee
eded ccc
ebc fbcc
ebc bebbd
dbb edebb
dec beebb
bebd becc
beed ff
f ebb</w>
ec ebac
bbc bfcc
bcbe debc
eebd bbbc
debd bec
bcdc df
bbbf dec
ac ecc
dbec ded
eeebb ebf
ebbee bbebe
ed dac
ebd bcf
ddc bef
eccc dbd
bcee beee
ecbd bdc
bbbb fef
bbd ecbf
bbbd debe
ecbe ea
bebbbb ebe
ec de</w>
bbbd dbbc
bbbf bbcc
bebd eebc
debd ccc
bac a
fda cc
bbed debb
ebfc df
ed bebbbd
ed bbfcc
bbbd bbdc
bbec fbd
beee dec
dbf ded
ebdc fbc
beebb beebb
eeec eecc
febe ccc
ef bdef
bec fbec
bbd fbbd
ecbe bbbbc
ddcc ccc
ec eeeecc
dbe bdcc
dcc eccc
bbbd dbbd
bbbf ecc
fcc beec
ac ac
bebd fec
eebf eeee
dc eeccc
dcc fdc
ddc efc
debc bebc
bbbcc bcc
eced df
ebb ececc
dc eeeec
ef ecbbc
bfc fbe
ecbc ecbc
fbf bdc
bf ebccc
ebc dcdc
bbd c</w>
dbb ebccc
ddc fed
bedc ded
bddbd cc
bbbe beed
dbd efc
bbec dbf
fbc fdc
becc fed
bbfc bcc
ef ecf
fc dbbf
ebec beec
eecc ebcc
ef dced
ebf eccc
bdc eedd
bbbc bebbc
dee eeee
da bec
dbbbb bcc
edbc dec
ed dbbbd
dd fbcc
ebd bebec
ea bfc
eebc ecbc
eebf bbc
eedebb cc
bbbb beef
fc bddc
ebbc bcbd
ebec ebcc
bc ed</w>
bf beebd
bf fbbbc
dc bbedc
bbbbbbbb bbd
fef ebe
ebd befc
bbf bedc
bbbf fee
eecc efc
fbf ebc
fdc edc
bf ebbebe
ebb dbbbd
dc bebdc
eec ecec
ddc bcbc
bcbe bbebe
bccc dec
bcec dcc
ecdc edc
bbbb febe
bbebb bfc
beec fee
bcbd bbd
edbc bbd
a bbbec
bf ebbee
dc fbbbe
bbc bea
ebd bcbf
eec bded
debc ebe
debc eebc
da ef
bbfc ff
ecbf ecc
bf bbedc
bf bbbfc
febb bbbc
fc dcdc
dbd ea
dbd bbdc
da ebe
beed bbbe
bdbd dbc
bdee bbec
ba ddc
dbb bfbbbb
ded efc
dc febf
ecc eef
debb bbcc
bcf bbef
fbf bebe
a dbcc
bf ecbbbb
dc eebbbb
bbc bdbc
bec bded
bec bebec
ebd bba
ac bdc
bbebe bdc
debc dbc
bced dbc
dd ebfc
dd bbebd
fc fecc
ba bbbbc
bbee fcc
ecbc fcc
dfc bdc
bbdd bbf
bcebb bbbe
ebbbc df
ee bbebfc
ebb fbeee
edc bebf
dcc ebcc
ea bbebb
bebc bbbbc
fee fbe
deec ebc
eedc bcc
eecc bbbc
bccc bbbc
da ff
bfcc ccc
dbbbc bbbb
ebb debec
dbe eccc
ecbc bef
fdc bfc
bdbd a
ecbf ccc
bebe fec
bbec fcc
def bbbe
eebe debb
bbebc bbbc
beed dbd
ebbbc eec
bbbb bbeec
edc beebb
ba eeee
fbd ebbc
bba bbd
eedc bdc
ec dbbfc
ebb fbbbd
bec bbecc
ebec fee
eecc bebc
bcbf ccc
eedd ecc
ed ebbef
fc ecbe
ebd eebbc
ded debe
bbdc ebf
deec bcc
ffc ef
bbdd ccc
bcbd dec
ebbbc bbee
bf fbbee
ebe ecdd
df bcdc
bbebe bef
ed beddc
dbf bbcc
def bbd
bba dbe
bd dbbdc
bf debbc
bbef bdc
fbf dee
ebd bfcc
eec bcdd
bbbe eebbbb
bebe fbe
ded beee
eccc fcc
ecec bbbe
febe ef
ebccc ccc
a bbfc
bd bbb</w>
ebb dfcc
dbb bfebb
bcbc fcc
dbbd bbf
bcebb bec
fbbc bbf
edbd fc
fbc dfc
eebc bbcc
bbbcc bbbc
fbbc df
bbba bbbb
ebc bea
bbc ecdc
ded fee
ebdc bbf
bbdc edc
fbf fee
bdbc dec
ebbee bec
bbbf beee
eec dccc
df ecbf
bbebe ff
eef eccc
bccc bbf
eeebb fee
edcc dd
bded dd
bceebecbbec bbdbbc
bf eebbee
debe ff
deec ff
ecec edc
ebbbc dbc
ebb bebbbf
dc eedee
dbb bdbec
dbbbb ebe
bded dee
bebc dbf
fbc fbe
ecee bbec
ecdd ecc
ebbc fed
bbbbc bef
dbbd bbbc
edbc bdc
edbc ff
bf eebbf
bf fdee
ebb dddc
bbbe bedc
bebd ba
debc bebe
fbf bfc
ebfc bbc
debd dee
febe bbc
beef bbc
dccc dd
bf fbef
dc bdbbbb
bbbe eebe
ebf bced
ebec ea
bbef ebc
dbbbb bebe
decc eecc
ffc bbc
bfbc dbc
ec ed</w>
ebb fdec
ebb fbebc
bbd bea
bbee dbbc
bbbd efc
bbbd eebc
bebc ea
bcbd ebd
ef bdee
bec bdcc
ba bbed
eeee fef
ecbc ebf
febb bcc
ecbd ebd
ecec ebd
eeea cc
fbf dbc
fdebc cc
dc ebbbd
ebec debb
bccc ebd
bbebc df
bbbec dee
fef bcc
ffc dbe
bdbc bef
dc bedbc
bebc debe
bbbbbbbb bbbbbbbc
dbbd bcc
decc ecc
eedd edc
bfbc dee
ebe bdec
ded bbcc
ebec fbd
beebb bcc
bebf bef
beebe bbf
ecba cc
a eda
eec bcbbc
eec bcef
bfc dbec
beee fcc
ebdc bebe
bbef fee
bbfc ef
ebbee bcc
be bbe</w>
be bbbac
ded bcec
bcbc fec
ebdc dbd
fbf fbc
ecf dfc
febe beee
ecee ebbc
eebecc cc
bbee bebbc
ef bebbbe
df ecdc
bdc dbbbb
dbb bdfc
dec debe
fbe da
bcbf bbf
ffc bec
fa ccc
dcbc dbe
fc fccc
eec bba
ee dbbebd
bf eca
ebb ecdee
dc ecccc
dd bdbf
ecc bebbc
eec bcf
bbee bcec
eebc fbd
def ebf
eeec bfc
eeec ebbc
eeed dbc
bf ebbed
bbbe eecc
bbbc febb
bbee bcebb
bbee eeebe
dcc ba
dbf fee
dbbc ded
bcdc bec
eec eba
bbfc ebe
bbbcc bec
ecec bbf
ebd bbebd
fbe dbec
ffc bcc
bdbe ddc
dc ecbcc
def edc
bdee edc
ec bbcccc
dc bbebf
dd dbbf
ebc eba
ccc bbec
dbbc dec
bced fc
beef ebe
bbbb fdc
fec bbbd
debb fbc
bbed ba
eebc beee
bdbc fbc
febc df
dbe defc
ebdc dcc
decc edc
bedd edc
bbc c</w>
dec dfc
bebc febb
ecbc becc
bbdd ff
eebf beee
ecec bbd
fa df
ec eebccc
ebb fdcc
ebc ebbebb
bbbe fbbbb
bebc bcbd
ebcc bcbc
dbf bcbc
dbbd ff
beef fee
a deec
ebd bddc
bbbe fed
bbbc eeee
bebe bbebc
bfc ea
dbd bcbd
debc bdc
df bcebb
ebf cccc
febe eeee
ef fecc
bebe bba
bfc dfc
beebb dbe
bdcc fc
ed bebbcc
ebd bcdd
bbcc bbebb
eeee dcc
eedd ccc
bdf ebcc
fbe ebdc
fbd ddc
beebb bef
dbbd bdc
ecdc ebc
bdf bbebb
a ecbe
a bcdc
bbbb bdbc
eec bebbbb
dbb ebbebe
eccc bbf
a eef
bbbf bbbbc
bbdd bbbc
beef beee
eeebe bbf
cccccccc ccccc
f dbac
bbbb debc
bbd bfcc
ebf bedc
bfc deec
bbec bbbbc
bebd bcbc
bbbec bbbc
eeed dbe
eeef ff
bdec ef
bbbe bbbcc
ebec fcc
becc eebd
fbbef cc
dbbd ebd
ffc dee
ebe bac
dec bbebb
dec bedd
bcbe bbef
edbd bbc
bdc fdd
dfc dcc
decc fc
be bbd</w>
bbc bcfc
bbbe fbbc
ff bcdc
bbee fec
dbd eecc
fbe eccc
dbf bbbd
ecbd ebe
a bdcc
f bbbac
bc de</w>
bcc bcef
bbbe def
edc bdbd
bebc bedd
eccc ddc
edcc ebc
ebbbbbb bbbc
bfbc bbbc
bbbb bcebe
bbf bebbbb
ebbc bebf
dbd eebd
fbc eebd
dbbd eec
ebbee bdc
ecdebb cc
dbe bcdc
bebe eeebe
bbebb eeee
fed bbd
ebfc fc
ebb bbea
ebe efcc
ebf eeebb
ebcc ddc
def bef
bbebc fc
bbbb bebbbc
ebf beed
dbc bcec
dbc bebf
ebbc debe
debb eebc
beec ddc
ed beded
bbbb bebbd
bebe bbbec
fbe bdcc
eebe ebbebb
edbc dbd
ef bbebf
ebc bbecc
bbf debc
ff dbec
bbebb dbbbb
fbd bbee
fed ecc
bdf def
dced dee
ef fdbe
ebe fbbf
df bcef
dec eedc
bc dc</w>
bf bbebbc
dbe bcbf
beec debc
ac ded
fbd becc
fed bebe
ebe bca
bcc bba
eec eebf
bdc fef
bef beed
eebe ebeebe
ecbd fbc
fecc ccc
bbbb bcdc
bbd e</w>
bbec bbdc
fbe bba
eef bbbbc
bf dba
ed fcdc
ef d</w>
bfc bcbd
bbcc ba
fee fef
fcc ebcc
eef dfc
ecbe ebec
eeed dee
dc bb</w>
dbe da
bfc debc
ebbc bccc
ea bbbf
bbec ebcc
fee becc
bcbc eebc
ffc a
bcbbbb bbbd
ecc befc
bbd bbbdc
df dbec
ebf debe
bbcc ebec
beec efc
ecbc fec
bbdd bcc
dccc dcc
bc ecbccc
bf bbba
bbf eecc
ea bda
fcc eebd
fdc eecc
bcec bfc
febb bbee
ecbf bbc
bdf ebec
ebb ebdcc
ebe bbbdc
dd fbbbb
fc ecebb
eec bebcc
edc bcdc
bbec bbbf
edbd ebc
dc ebbee
ebe bfbf
dd bcbbc
bec febe
edc eebf
dbc dbbbb
efc fbd
fdc fee
d ebf</w>
bc dbbebd
bdc bcec
dbc b</w>
edbd ccc
dcbc ff
bec bbeec
df bbebe
eeec fbc
ecdd ccc
ebbbc ff
bd dbbbf
bbc bdebb
bec bfcc
bec bebcc
ecc dbdc
dcc eeee
ac bbbc
eebe ded
fbf bbee
dbcc fc
ef eddc
ba fec
dbd eeee
ebb dbecc
ef fccc
ecc bbbec
dbbd ccc
edbd a
bdee ff
ecbecc cc
ed eebbee
ebbc bbdc
fbd dbf
febb eeee
bcebb bbbc
fbbbb bbf
ee ecbccc
bec ecebb
dbd bbbf
fee ded
beec dfc
fed fec
beed becc
beef bbbe
ed ebeebe
dc eca
bec eebbc
df bcbe
bbed bebd
bdbd bbbe
ecdc dee
ebbbbbb bbc
ecc bbebc
bdc beebb
dec bbdc
bbef beee
bdbe bbbf
bd bbbebbbb
fc eebbc
dbd ebec
fbd eebc
ebc ecbbc
ebc bcbec
fbc def
bbdd ddc
bedc fec
f bbe</w>
be dbac
ed febbc
bbbb bdcc
dd bdbc
dbc eedc
bef debc
ebcc beee
ecbc beee
ebdc bbd
bbdd bebe
bc deba
bf ecbcc
df ecbe
bcf bbdc
bdec ded
ebe fdf
ecc bfcc
bc fedcc
dc eebbd
ebd fecc
eccc fbc
bf eceec
dc dba
bbbb dfc
df bedd
dbc dfc
ecec ff
bfbc fbc
ebb bebbcc
bec ecbe
bdc bbef
ebbc fbe
bcbc bbebb
ecec ebe
ebc edbf
fc fdf
ded eecc
deec eecc
fdd bbc
bdf bbed
bbd bcebe
ebf eeebe
ebbc ecbc
debb ba
beec eebc
eeec ba
bedc bdc
ecee bebe
bdee fbc
be bbc</w>
ee debfc
ebbc beed
fbe dbbbb
debb bcbc
da bbbe
bdbe ea
eebebd cc
bedebc cc
fc efcc
eec dbbbe
dbc debc
bbbd ebec
ded dbec
dbf bbec
da ecc
febc ccc
ecef ccc
dd eded
dbe ecbe
ebf bcebb
bbcc fcc
f bbd</w>
ee deba
dc ebbbf
bbcc fbd
bbcc eecc
eeee bba
bbebc ef
bebbbb bcc
ebbcc ccc
bcbbebb cc
a eedc
ed fbebc
ebc debf
bec eced
ebd dbbbe
df fa
dbe deec
debb bef
ebbebb bbbe
ed dcccc
bbbb dbbf
bec bbebd
ebd bded
dbb eca
ea eba
ebcc eebc
dbf fec
bbed becc
ddbd dbd
ecc febd
edc bbebe
bbbd beebb
bbec def
beec fed
da bcc
eeed bcc
ecee bebc
ebbbbbb bbebb
bbc bbecc
bbf eeebb
edc fef
bbbc bedc
ebdc bbbe
ebb bedec
ef ecdd
ef efcc
ebe ebbbf
dbe bbbec
edc bbdd
ebec bebd
bcec fbc
beed bebe
bdbe efc
bbbb bdbbc
ebbc fbf
fec debc
fcc ddc
bcbe dfc
bcbe dbec
beebb fee
dbbd bebe
bedd dec
bcdc eec
ebd eef
bedc dbc
bdbe debe
a ecbd
bf defc
bf beebf
ebc ecf
edc bbbf
ff eebc
beee fbe
ecbc ddc
ecdc dbc
bdbc fee
ef febd
ebc eefc
bbebc eec
ecec bcbc
edbc bebe
ebb bbbbbbbbbbbb
fc feec
bebe ecebc
ea bebc
eeee bcbc
debe bebc
beed bbf
ed bbbbbbc
bbbb beebc
ecc fedc
dcc debb
ebec efc
bbebc bebe
decc dec
eebf fee
ef bca
ebe ecf
ebc bebbbe
bec eef
bfc dbbc
dbb bfbbc
bbbd becc
dbdc dd
ff beebb
bef eecc
bbcc eebc
decc df
bcbf dbe
beef bbf
ecee ebf
bbc feec
ecc dcdc
ebbc dbbc
dbf ea
edbd df
a eeef
dee ebec
bfc bedc
fbc bbebb
ecbc bbbd
bcbf bcc
bcbbc bbbc
ebf debc
bdc bced
beee becc
fec eebc
fdc bbf
ecebb bbc
bddc dd
bf eebbd
bfc eebd
beebb bbd
bc eacc
ebc fedc
bec fa
dbe eeebb
ded fcc
ded bebd
beee dbbc
fec ea
ac ebd
bbdc bebc
bbef bef
bbebc bebc
eeec ea
eebf bebe
dd bebbbb
eec febe
bdc bbebe
beee eebe
bbcc ebcc
dbbbb ccc
bdbd fc
ebbee bbbc
bdc eccc
dec eccc
dddd dbd
dc acc
ef beff
eec beecc
bdc b</w>
ebbc ea
efc bcbd
beec bbed
fed bef
beee bbbbc
bbef dee
dbcc df
edbc dcc
bbbb bcbbbc
efc ea
bcf bbbec
bbebc bcc
bdee ddc
dddd ddc
ed fefc
ef dcdc
bbbe dbec
dbc febb
dbb bddf
becc bbee
beed bbd
bfcc fc
ec ecbccc
ecc bddd
bbec eecc
ebc eeebe
eec bbbcc
df bebbc
ba bebd
dee debc
eeee febe
fed ebe
bbeec bbc
bf fedc
dec dbbc
dbcc bec
eced bcc
bdee bfc
ecc beebe
bbee beef
bbbd fec
bbebe bcbc
bccc fbc
bccc fcc
bced a
eebf bbbb
ebb ecccc
fc bdec
bbbc b</w>
debe eec
da eca
fdc dcc
eba bbc
ef beecc
bebe beef
ded eebc
fdc bbbb
bbfc dd
efcc ccc
ebb debcc
dbd beed
eccc bfc
bebf ebc
febe bbbb
a bbbcc
bd bbac
bcc dedc
ebec bbebb
ecbd ff
ecee ba
bfcc eec
bded df
feec df
ebbbc dbd
dcec dbe
ef ecef
bec bea
edc ecdd
dee bcdc
dec bbbf
bbbbbbbb dbbbb
fdd dbc
ecee bfc
bcbecc cc
bf fbfc
ef eebbbb
ef edbf
ecc eebbc
bcc ecdc
eebc eebd
becc fcc
fbd debb
bbdc fec
bcbe bbfc
bcbd bbbd
bdee bbcc
bebbebe cc
dbb dcbc
efc bbebd
ebcc beec
eefbd cc
fc eebe
fc ebbcc
dee bbbbc
ac ebf
def bbbc
bebec bbbb
ec dbbbec
ded debc
fbc bedc
ac bbd
fbd fcc
bbebe ebf
eebf bbee
edcc ebd
bf beccc
dc bfbc
ef beba
bec eebe
bbf dbec
fee eeebe
eeec bbbd
eeebb ff
dd beebc
bcec ebf
bba bbf
bebf bdc
dc dbbcc
ebc eebbbb
dbb bfbc
ddc bebc
ac dbd
ecbc bbcc
bbdc bfc
dbbc bef
febb beee
beebe ccc
be bbbb</w>
fdc ebf
bbebc a
beed bfc
bebf ebf
bdee ba
ebe bcbbd
bbc bddd
bbd eebbbb
ecbc debb
eecc bbbe
fdc fed
eebf bbf
ecec bbbc
bf ebbbbc
ff bbbbc
fee fcc
dfc ded
eedc dcc
fbbc bec
eebbc bbbb
ebbbc bbbd
ebc bedf
beee eeef
fee bccc
bbed dcc
dfc ecc
dbbbb bdc
bbbb bcbbd
bbf bcef
bbee bcbd
fec da
becc dcc
becc cccc
beed bdc
fa ff
a ecbf
dee bbebe
dbc beebb
debc bbbe
debd eec
bea dd
bdee bef
dcec eec
ed bebbec
ef bebbf
bbc edcc
bbc bbccc
dbe b</w>
bebe ecbc
beee beec
ebcc bbcc
becc bbec
bccc dbd
ecbd dbd
bced bcc
bdbe bbbbc
ebc fbbd
eebc dbf
def ddc
bbef bbbc
bcbd bef
bbebc bbf
eedc fbc
fdd dec
dc eeebd
bbc fbcc
fc bbebd
bec ecbf
ba fbe
bbdc fbc
eeec ebe
ecec fbc
bd bbebcc
dbe bcf
bbcc bbbf
fed bbbe
ec dd</w>
ed eeff
ff bcf
bbebb bbed
fcc bcbc
beec dbf
fbd bbec
debc edc
ebb dbbbbc
dd bbbcc
ebc beecc
bebe bedc
bbbbbbbb bebbbb
bdbd bbbc
ebb fba
fc eeebc
eec eeebb
dbe bbfc
ff bdcc
bebe eebe
bebc bbebe
ebec ebec
def bbec
bbef ebf
bdec ebd
bf fdbd
ef feec
fc fbbbb
bbd ebbcc
df edbd
ded cccc
eecc bfc
bebbc bbbc
bdee bbbd
ebb fbbcc
dc dbecc
bbd bcbbd
bbf bbdd
dbb ecbbd
eebf ecc
bdee ebbc
bebbbe bbee
bbc bcbcc
fc c</w>
bbf ecbd
dbc dbec
bef dbec
bebc bcec
bbebb edc
ecf ebdc
ecee bbbd
ed beba
bbbb bded
ac fee
deec dbd
eedd eec
a eeebe
ef ebbebb
dee bcebb
bebe fdc
dbb dcbf
efc beee
da dbc
bedc bebc
bbbec dbe
eddc ecc
bbf bcbe
fec fbd
eecc ebf
bcee ebcc
ecf bbed
bbee bbdc
dec eebd
bbcc beec
eac ea
bcbbbf cc
dd eebbc
bbc bebcc
ebd eced
bbcc bbed
def dbf
bcf bbfc
bcee bebd
dee fdc
bcbc debb
ef bcdf
df dbcc
ebf bcbf
eebc beec
eecc cccc
febb bef
bedd ccc
fc bbeec
eec bedbe
ff bced
bbbc bcbe
ebc bdebb
bbbe bcbbc
bfc bbbbc
fbe bdbd
decc dd
bfbd df
fc bcebc
bbbe ebbbbbb
bf eedf
ef bdbbc
ebc fdf
bec bcef
efc ebec
beee bebd
bbbf fbd
ecbc cccc
ecdc dec
ef fbef
bcc debd
eec eebbc
dbe ecbd
ff bcbf
ff fa
ded bedc
beed dcc
bbbec bcc
a bcbbc
bd fbecc
bbbb eccc
ebe dbbbc
ebe ebbee
ebe bceec
ba fbf
dbc ecbd
fbc bcec
fcc ea
becc ebcc
ebdc ebf
bccc cccccc
edbd ebd
edbd dbd
bdbe ebec
bf dded
bec feec
ba beebb
bbbd bebf
beee ddc
bebc bebf
fef bbf
bf eebebe
ebb bbefc
ef bac
bbc dbbbc
bbbc eeec
dbc bced
bebe bcbe
dcc bedc
eebd ded
bcbd ecc
eced dbe
bdec ecc
bbbb eebbc
bbbb bbccc
df fdf
bbbc bbfc
dee eccc
bbee ac
dbb ebbdc
bef debe
ebe debbc
eec eef
dec dedc
efc eedc
dbbc dbf
bcf bba
dfc bbd
ecf beee
bcebb ccc
ecdd edc
bfc ecbc
efc beed
bbcc fed
def fcc
bbebc ebc
eebbebb cc
ebb bbbecc
ff beef
bebe fbf
bbec debe
bbebb febb
bbef ba
ebbcc fee
bdbbbb bbbd
bfbc bebc
bbbb eeed
dd bdebb
bbc ebbebb
bbbe febe
bbec fbe
bbebb dec
fec decc
bbef dbc
bcee dbec
dbcc bcc
bebbbb bec
ed bbefc
ebb dea
bbc eeebc
bbbe bbeec
bbf bdbd
ccc beec
dcc ebec
bcec debb
debd a
bedd fc
ec dbbebc
bbbb bcef
eec fedc
bbd ebbebb
eebe eba
ecbe bbdc
ecbe dbec
dfc fbc
bebbc df
dcbd df
bd dcccc
ebe fbbbe
eec bddc
bcbc bebd
fec ebcc
def ba
bcf dbec
dbbbb bbee
ecf debc
bec fecc
dee bbebc
bbbf debb
bbed fee
eecc dbd
bbebe bbec
bcf ebdc
dfc ebd
beebb df
eeebb bef
ecec bfc
eec ecdd
bebc bbdc
fcc bedc
eebe ebdc
decc a
bf fdcc
dc fdcc
bbc bcebc
bcc dbbd
bcc beebe
bbbe fef
edc fbbc
ebcc fbd
fbe ecbd
ddc dbf
fed ebd
dfc dbd
deec fc
bbbb ffc
eec edbd
ff fbbc
ebbc debc
bbebe ba
bbebe bbcc
febe bbee
eeef bebe
edbc bbbc
bbf cccc
bbee ecbc
dbb ecdbe
bef cccc
dbbc dbbc
da dbd
bbbec df
bdbe bbdc
ebb bbdbd
ebc bbbbbbbb
fc eefc
ecc beef
bdc eeebb
dbb edebe
dcc bebd
ddc fbd
fed bbbc
bbebe df
eced dbc
ed fea
ef bfed
bbc bebbbe
bcc bded
bcbc bcec
bbbf dbf
fed edc
edcc bec
bbebbc bbbb
ed dbbdd
dc bfebb
ebc dced
dbb edebc
ebbc bbef
ded ebec
bba df
ed fbeee
ebb ffcc
bec bebbd
ba b</w>
bebc beebb
bbebb beec
bbebe beebb
bcbd ebf
bcdc dbe
bdbc bfc
bdbf fc
dd ecebb
bbc bddc
dcc ea
fbc bccc
bcbc bbed
bebf ebd
fdd dee
ebbbc ecc
bfbc bebe
bbbbebb bbbbbbbb
bbd ecdc
bbbc ac
dcc eeec
edbd ecc
edbd dbe
be bbbbbbbbbbbbbbbb
ef debf
ef bcbbd
bbc bebbd
ebd ebfc
dbb bfdd
debe dbd
da ea
bced ded
edcc dbc
ebb fbbec
ebb fbbebb
bec fbbbb
bcc fbec
bbbe eebf
bbf fa
debb fee
bbbbc ebf
ecbe bbbec
ecf def
ef dcbd
ebe fbbd
bbc eefc
bbbc bcbf
efc deec
ecbc fee
dbbc bbee
fdc bebe
bebbbb bbd
bdcc dd
ebbbbc bbbb
bd bbbccc
bbbc eecc
da ebc
bebbc bbf
febe fee
bbecc ccc
ebe eebbf
dbb edbbbb
bebc debc
fbc debc
bbbbc dbbbb
bebd efc
dfc bef
bbbec bbf
bdbc bbec
fc bebcc
bbebe eeee
eef debc
ecbe debe
fbf ecc
febb ecc
ebb bebbbbc
ef bbccc
bbc eeebe
bbc bbbdc
bbc bfbf
fc defc
bbbe bbebd
dee bbef
ded beed
bdbd bebe
ebe bbccc
ebbc def
ebbc bbebc
fbd beec
beef bebe
ef febf
ebe bdbbc
bfc ac
ea bbcc
efc ecbc
ecf bbebb
ecdc df
ebc beebd
bbc bedbe
eec eebe
bbd feec
bbd eeebc
fee beec
eebc ddc
becc bef
becc bedc
bbdc ded
eebd ebf
bbdd dbbbb
fef beee
ebbebb ebbebb
ef ddcc
fbc fbf
fcc bbee
eebc ebec
bcec edc
beed ecc
bdbc dcc
cccccccc cccccc
ed bbbbebb
ed fded
bdc dbcc
dec fdc
dbd debc
fee fbd
debb fec
bebd bbebb
dbbc bebc
eeec bbee
eeec bbec
decc ff
eac ba
f bbc</w>
bf fdbb
bdc eebf
dbb ecbcc
ebbc fdc
bbbbc bbed
dbc ac
ebcc fdc
bccc bbbe
bbfc ebc
eeebb ccc
dd bebec
bcbc dbf
dbbc ebf
bcf debc
bbbec ebc
eedc ebe
bdec ff
a bded
bbbb bdbf
fc bcebe
dbc bbef
dcc bbed
bbbd bbebe
beebe ebf
fbbc ff
bdc bcee
fee fec
bbbf edc
eeee fbe
eebc fed
fbd ea
eced dee
ed fba
ef ebbbf
bec bcebc
ebd bcfc
bcc dccc
bbd bdbbc
bbbbc bfc
dbec ecc
febb fbc
fdd edc
ecec ecec
bcbf dee
beef bbee
eeef bbee
bf eeff
ef bebbd
ebd dbbf
dbe ebdc
dbe bebbbb
def bbee
eeed bdc
bcdebb cc
ef bceec
bcc bcdd
bebe ac
ebbc bedc
dbd fed
ded dfc
fcc ffc
bba fc
febe fc
eedd df
bdec ebc
ef bdf
dd bea
ebd dccc
dbc fdd
ebcc eebd
eebe bbebc
bcec fec
beebe bef
dcbc dec
ecbebd cc
ebb bbfcc
dc eeedc
ef bebbee
ebe beebf
eec eddc
becc eedc
bcbd bcbc
bcdc debe
ebd bbbcc
fbc ecbc
ebec ddc
dbf fdc
bbeec bbbb
bdbc edc
ebb bebbed
ebd bebbd
ebf bebbc
bbbc eeebb
a e</w>
ebe edbf
ecc fbcc
ebbc bbdd
ecf bbdc
bcc ebfc
eec bebec
bef ebdc
efc dbec
debd fc
edbd dbc
bdee bcbc
bebbef cc
ef bda
ef eebbee
bebe eebf
fbc ffc
bbcc bebd
ebec beee
becc dbd
beed beec
beef ccc
bd dedcc
ed be</w>
dd fbbd
bbd fdf
bba bec
bfbc bfc
a fbbbb
bf bbbbcc
ed fbbbd
ba beec
dee febb
efc da
ebec eecc
ddc debb
bdbd ccc
bbebd df
bdbc fec
bf bedbc
eec dcdc
bbed fec
eebc fee
dbbc ecc
bcee ea
bcee ecbc
bded ccc
dced df
bfed df
ec dc</w>
ec fbdcc
ed fbbcc
ebb bedcc
ef bcbcc
ebe beebd
ebc eebec
bbc eba
dbe beebe
dee bedc
bbec bebbc
ebdc ebbc
ecec bebc
bcdc dbc
fa fc
bdbe bbebe
fbbebe cc
bbd eba
fbe bbbec
deec ecc
deec bdc
dc debcc
ebe bebdc
bbf bbbbbbbb
bebe bced
fbc bebf
ac bfc
eebc bbebb
dbcc ff
bbc bedf
dec debd
debb bebd
beec bbebb
eebc eccc
bbfc bbbc
ecbd ded
dedc bec
ecee ded
ed bbdbd
eec feec
dbb dddc
fbe bbdd
eebc bbed
def bebc
bdf debe
ec dbba
ebc ecebc
ebd fbec
ebf bdcc
beee febb
fee cccc
bbbf fec
ac bef
ac fbc
becc bebd
fbd bbcc
ecdc dbe
ebc eebcc
bcc bbccc
bbd eebec
dbbc bbec
bba bbbd
edbd bec
ebbbc bdc
ebc eeebc
ebd bcbbc
dbf ddc
bbbbc ecc
fbd bebd
eccc bebe
beed debb
eeec bef
bdbd bbf
febe bcc
bbd bbecc
bbd eefc
bbd beebd
ecbc bbed
eef dbec
beebb bbcc
bba bcc
dcdc dcc
ebc eeef
ff bbfc
fbc bcbd
dedc dd
febe bbf
bcdc dec
ebbee df
bc bbeba
ed bbbbbd
bbbb ecbe
ef bdebe
dee bdcc
bbcc ddc
ebec fed
eeec debb
a febc
bc bbbbbbbbbbbbbbbb
bd dbbebe
bbbb bcdd
bbc fbbd
fc bebec
dbb efbf
ea bcbc
ebec bbed
ebdc ded
eebd bbbd
bccc ded
bcec bbee
beed edc
dbcc ebe
dc eebbf
dc ebbdc
ef dded
bbd fbcc
bbd bdbbd
dbd ecbc
dbd dddd
bcbc efc
bdf dfc
a ecec
a bebbbb
ed fddc
ecc bcef
edc eddc
dbc eedd
ebbc bebbc
ebcc becc
ebdc bbbd
fed fee
bcee fee
beebb bbbd
bded bec
bdee ebf
a fba
bbbb bbba
bdc da
dcc fdd
ebec bbbbc
ebcc fee
beebb dd
eced bec
a fbec
bbbb debd
dee bdbd
dbc bbebe
fcc bbec
beebb ebbc
ecbd bebe
bdbe dbbc
ecebb ccc
eddd ccc
a eeed
ef dbbbc
eec efcc
ff debe
dbb ebbef
dbb ebbdd
fbe bfcc
ecbc efc
fbf eec
bdbc beee
bcfbd cc
bf eedbe
ed bbebec
dc fdbb
bbbb ebbcc
bec bdbf
bcc bcbbbb
bcc bdbf
bcc bddc
bbbe ecbe
bef eebd
eebe ebbebe
bcf da
bcec ebbc
dddddddd dddddddd
ed eb</w>
bbc bcbec
ded decc
fbc debe
fbc cccc
bcbc bbbf
dbf efc
debb dcc
bbbf bebd
beec fbd
eef eba
dbec bebe
bbbec fc
ebbee ba
be ef</w>
ef eefc
bef eeebe
bebd eecc
bccc bebc
bbebc ebe
ecbf edc
ecee ac
eced dec
a bac
ef fbbbe
ebf bbfc
edc efcc
ff eecc
dee deec
dbb eceec
fbc bbbbc
ebec eebc
bcbc becc
fed becc
bbdc dcc
abd ac
bebbebc cc
bcc eddc
ccc ba
bebe bebbbe
ebdc bfc
bcbd bbee
bcec fee
bedd bbc
a bcef
ec bbb</w>
df deec
df eedc
bbbe dbbd
ebf eeef
dbb bd</w>
bef bced
bbec bbebe
bbdc bbee
ecbf dbe
d ba</w>
ebc ebecc
bbc eebbbb
ebd beebc
edc bdcc
ded dbbc
fbc febb
fbc eedc
eeee bbbd
bdec ebe
bfec dec
a d</w>
a fdf
ef bcecc
dd eeef
fc debf
eec bea
bbbe bcf
bbf beebe
ebf ecbd
ff febe
dbc eebe
bef bbebc
fcc fdd
eeee cccc
dd dbbbc
bec fedc
df febe
bbec ddc
bbdc fee
debc bbbc
bbef bbebb
bbc fdf
eec ebfc
bbd bebcc
df bbfc
fbe bdbf
bbed bbcc
bd feecc
dc ebbbc
ebe beff
bec bdebb
bfc bcbf
fcc dbf
fcc dfc
ecf dbbc
eced ecc
fbbbb bbbc
ed bedbf
ebe c</w>
bbbe beef
dec ea
bbec eedc
dbf ebbc
fed beec
da bdc
dbcc dee
fc ecdd
bbbe ecebb
ff bedc
bef bedc
debc ebbc
bcbd bebc
bebf dbe
bebf bebc
ebb fea
bcc bcbcc
df ecec
bcbc ddc
bbbf dcc
eeee eebeee
ecbc fbd
febb bbebb
bebf ecc
fdd dbe
eec fbec
bbbbc bcbbbb
fa bba
dd fdbe
bbbe bdcc
ff beed
dbc fef
dbd d</w>
ded ebcc
debe bbbd
ebe fecc
bbbe fdc
efc bbed
bcbe bbeec
ebbbd dbe
a ecdc
ec eecccc
ebe e</w>
df dbbbb
dbc eeed
dcc ecdc
ea ebbc
fed dbf
eecc becc
bbebc dee
a edcc
ebd bdbc
bbd bcfc
ddc bbed
bbef eec
bebbc ebc
febc fc
bf beedc
ed bc</w>
bbbb fdd
bbc ecbbc
bec edcc
bec edbd
bec beebd
ebd bdbf
dbc dbbd
ea fbe
fec bccc
eebd bbee
bcbd bfc
bbbb dbbbc
dbc bcbf
efc dbbc
efc decc
beee bbdc
eeee bbcc
bbdd bdbd
bcec deec
fbbc bcc
dc ebdcc
ebe fbbee
eec b</w>
ccc eccc
ebbc bbbec
bef bcebb
bcbd fbc
ebb bbebcc
dd edbf
ecc eeef
edc dccc
bebd dcc
bbbec bbee
bedd dbe
eebbbf cc
bf ecbbd
ebd d</w>
dbd deec
def bcbc
eecc fbd
bcee fbd
bebf beee
be deac
ec deac
dc bebbee
ebe ebbef
bbd beeec
bbbe ebdc
bbf dbbd
bbf bcbbc
edc ebfc
bbbc bced
ebec dbf
beed bbec
ecbd dcc
bdee becc
a c</w>
a befc
ebb deecc
dc ffcc
ef bedf
bbbe b</w>
dbd bbbbc
bcec becc
ecbd bbf
ed dbdcc
fc e</w>
dec da
bbef fbc
fdd ecc
bac da
bd ee</w>
bd bebccc
ef bbbdc
dbe eeec
ded fbd
ddc def
bbbf fcc
bbdc bbec
debe bcbc
bcbe dbbbb
eebd bfc
bfbc ecc
ef bdebc
bbc bdbbbb
fc dced
fbe dbcc
debc eecc
ebbbc bebc
f deac
dc dcccc
dd debf
fc dbbbe
bec bcbbbb
bcc bebbbb
efc bccc
fed debb
bfbc ebd
bfbc ebf
ed eebebe
ebe bcbcc
fc edbd
bcc ecebb
ff beebe
debe bfc
eebd fec
bbbbbbbb bcbbbb
beed bbbc
fef dbe
bdbe ac
dd bbeec
ebc dbbbc
bbc bca
bebc bccc
beee bccc
fcc eccc
def bebe
bceecc cc
fc bebbbb
ba febb
fee bebd
eeee dee
eebc ebdc
eecc fdc
bbdc bef
eef ebdc
eedc fec
ebbbc ebbc
dcbd dee
bd bbeecc
dc bedbb
ef eeff
dd ebbcc
bbd bedbe
dbc bcdc
dcc eedd
ded ea
debe ebf
bebf eec
ffc dec
ecee becc
bdf dbbc
edbc bbee
fc bfdc
bbbe eebbc
ff ebdc
dbb dcef
ddc bbec
debe dec
ecbe ebdc
eeebb eeebb
edcc dee
bdcc ecc
ebbee bbd
bbc fbbf
bbf dbcc
ebf fbbc
ba becc
bfc eedc
fbc beed
ddc b</w>
dbf becc
eebc bedc
bba bea
dc fdbd
ebe dced
eec ebbcc
bbf eccc
dbe dbbd
ea beec
ebec bedc
eecc eccc
bcf bbebe
dbec dbd
ecdc bec
dc efbf
ebe fdbe
ebe bcbbbe
df bbebc
fec bcbd
fbd bcbc
beebb ebd
bebf bfc
bedd bbbb
ecbbbd cc
bcc fbcc
bebc dbbc
bbed beee
bba ccc
bdcc bec
bdbc bbcc
fdf ccc
a bbeec
ecc bcfc
ba efc
ff dbcc
ebbc bcbe
dbd ebcc
ded bced
ac bebe
fbd dfc
bbdd dec
bf bbbbbbc
ef eddd
ef bbedc
dd bdec
bbc bdef
bbf ebdc
ebbc ebdc
bbebb eebc
bbbf fbf
eeee eef
ac dcc
eebd ebcc
fdd fec
bd defcc
ef bcebd
dd ecef
ebc eded
ecc ecebb
ecc edbf
ebd dddd
ebbc febb
dbd bddd
ded da
bbebb bcebb
bbebb ebbebb
ebec bcbd
bebd fee
dc eebdc
ebe bedbe
ebe beecc
ecc feec
dbc eebf
bfc fef
dbb dcebe
bbef bbd
bbbb bfbf
dd bdbbc
ba bebf
bbee dbec
bbbd bebbbb
bbec dbec
dbf fbf
beebe fee
bedd bdc
febe bbbe
ecee dbbc
edbc bfc
dcbc bdc
dc dea
ebd ecebb
df b</w>
edc dbdc
dee bcbf
dbb bfef
ddc beec
fbd fed
eeebb bec
ec debecc
bbbb bbecc
bbc bebbf
fc bcdf
ecc dbbbb
bcc bebec
ba bccc
ba fa
dee da
beec decc
bebd dbf
bebbc bbee
bfec ff
ebe febd
ebc bfbf
bbc febd
bbc eebec
ebd ecbf
bcc bcccc
beec beed
edec dec
ebe bcebd
ebc bbccc
bbd fecc
bbd eded
bbbe bdebb
dbe fbbc
dbb eac
debb eecc
ac bcbc
eebc ea
eebf bec
bf dfcc
dc fbebe
bbbb bb</w>
bbbb bcbbbe
ebd bbeec
bbf bbbcc
dbc ebdc
eebe bbdd
bcee def
bedc fbc
bcbebd cc
ee dbac
ef eca
ef ebbebe
dbe dbcc
bdc bcbf
dbb bffc
ded bcbd
eeec beee
bdf da
ed dbbbbc
ed bebecc
dc fdec
dd eeebe
bbc debf
bec bedbe
bbbe ecbd
dee ecbd
dbc deec
bebe beed
bbbd ea
fbf dec
fdc bebc
ebe eddd
fc dbfc
fc bfed
bec dccc
ecc dbbd
df bbbec
df debd
bbbe bcdc
ebbc bcec
efc eebd
bbec bcbd
bbbbc dec
bbfc eec
febc a
bdbe def
bdee bbebb
ebb fbbbf
bbbb eef
df bba
bbbe eeebe
ebf da
dbd dbec
fec beee
fed dfc
bbebc dbe
eeebb bbebb
ecec fcc
bbbb bebbf
bbc beeec
fc bdebb
ebd bea
ebd bcebe
ba bbebe
bbee bced
bfc bbdc
bbec debc
bbbf bbed
becc bbcc
bcbd debb
bddd ddc
bdec bdc
bc bbc</w>
dc eedbc
ef eebeee
ebbc eeee
bcdd ccc
dcbc bbf
a debd
dc deccc
ef dbfc
dd bcebe
ebc bcbcc
bcc bcebe
eec bdbf
df dbbd
bbbe eeec
fec eedc
ecbe debc
fdc fcc
bbbbbbbb bbbbbbbe
deec bebc
bdec bbf
ebbbc bef
ebbbc bbebb
bbbb fa
ef bdfc
bec efcc
dbc bedd
dcc beed
dcc ffc
bbef dbd
eebf bef
bdee fcc
f ebe</w>
ec deba
bf fba
dc beebf
bbbb d</w>
ebc fdbe
bbc fecc
bec fbcc
bcc bbeec
ff bbdd
dbb eddf
dbb ebbbbbe
bbbbc debb
bccc ddc
bcee ac
edbd edc
dcbbd fdd
dc fbef
bbbb ecbf
ef ecbec
ebe eefee
ebc bbbdc
ebf bcf
bdc debd
bbef bfc
ecf dbec
bbbb bbebbc
bbbb ebbbbc
ef acc
bebe febe
dbd eeec
ebcc eedc
eebe bbbec
bccc bbcc
bebf bbd
bbbb dbcc
ecc eefc
bcc fa
fbc bbdc
bbbbc ba
fef bbee
eebf bbbe
edec bdc
bf fdec
ed eeebf
ebe feec
ebe beeec
bec ecbbc
dbe debd
fec dbec
eeed eec
bdec bbd
bdec beec
ebbbd bbbe
bbbb ebfc
bbc bcbbd
bec dbbf
ecc bbbcc
ff debc
dcc ecbc
bbec ecbc
bba dbc
dd febd
bbf ecbf
dbb ebbebc
bebc eedd
fee dbbc
bccc bbd
bdbd eec
bbbec a
ebbbc bfc
bf dddd
ef fbebe
dd bdbbbb
ebc fbdc
bbc bdbbc
fc ecbbc
ea fbd
ea def
bbec bebf
bbcc bbdc
bbdd ded
eeec ddc
eac dbf
dcbc dbc
a dbbf
dd feec
ebf ffc
debb beee
becc bcbc
eebe edcc
bdbc bebd
bdee dbf
bdec bebe
ebbbc dec
ed eebef
bbf fbbbb
ebf dbbbb
bdc bcdc
bef bcbf
ea fbf
bbed bcbc
bbbbc fbc
becc beec
debe ba
dbcc ebd
ebe febf
dd ecee
bcc bfcc
bbf deec
bbbd bbeec
ac edc
eebd dcc
eeec dbf
bbbbbd bbbd
ed db</w>
ebb beea
ebc ecbec
bbc eeef
ebd eeebe
bdc dedc
dbb ebeebb
ea debb
bbbbc beee
fbd eecc
bbebe dbc
dbbc bcbc
ecec bebe
bded dbe
ebbee dbc
a bedd
bcc bddd
bbbd def
ac bebc
bbfc bbbe
dbbd bbee
edbd eec
bdf bbdc
fbbebc cc
ed bbea
dc fbfc
ef beeec
bec bcdd
bcc dbdc
bbd fdbe
ff bcee
dee bebf
debb efc
bcec fcc
eba ba
bbfc bef
dbbbe bbbe
bbf eef
bbbc dbec
ea beebb
bbcc dbf
eebc fdc
dbbc beee
bcebb fc
dc bedec
dd eefc
ebc ebccc
bbd eeebe
dee eebd
dec beebc
bbbd fbe
ddc ebbc
fec fdc
fed efc
bbbec eec
dbbd bdbd
ef ecbcc
bbc edbf
df decc
dbe bedd
bfc bebbc
becc eccc
eeec fee
edbc fcc
ebc bcecc
bcbd edc
fbf bebc
bcec def
a bcdd
ecc fbec
bbbe da
ff ecbd
bfc fdc
dbb ebbec
fec beed
debb dbf
beec deec
bcbd fee
bf eeecc
ebb dbbdd
ebe fbebe
ebe bdbec
ebbc bdbd
ebbc bcebb
fec deec
bcbe deec
fbf bbd
febb bdc
bf dbecc
bf ecdbe
bf febbc
dc bbdcc
dd bcfc
bbc bebbbc
fc eea
ff eebf
dee dfc
dee bcee
dec ebdc
bbebb bebf
ecbc ba
bdec bbbe
bdec dbd
ec dbbebd
dc bebbbc
bbbb bfbbbb
ef bfbd
dd ecf
ecc bba
ebd bebcc
efc eccc
ebcc debb
fcc def
eef debe
ecbe dfc
eeebb bbbc
fef ebf
edbc ded
ef beebf
eec bcfc
edc ecbf
beee eccc
ecdc bcc
ef beebd
ebe eac
eec bebbd
df fbcc
bbee beed
dcc dfc
efc bbdc
beec ea
bebd bbed
bbebe fee
bcf bbebc
eeec debc
bcdc ecc
ebc fbbf
edc eeebb
bfc debe
bfc bcec
ebbc eedc
efc fbe
fbf fbf
beebb bebc
eeec bbcc
dbcc dbe
dddd ccc
dcbc dbd
bbc ebbbbbb
df eced
ebf ebdc
dcc dccc
beee bbed
bedc eecc
fef bec
ed dbbed
ebd efcc
edc febe
bbbd eebd
fbc ebdc
ebec bccc
eebc bbbf
dbbbb dee
add a
f ebd</w>
bd fbccc
ebb bedebb
ebc bebbf
ebc bdbbc
bcc eebbc
bbd ecbbc
df eebf
bdc ecec
ba def
dee fbbc
efc dedc
bcbd ded
beebb ecc
bf eebeee
dc bedcc
bbbb eeebe
ebe bdef
bfc ebdc
bbebe bbbf
eebd fbd
bedc bebe
beef bef
ecee bef
eddc edbbc
bf ebeebe
dc bedbd
dbe ecbf
bbee dbbbb
beec fcc
bebd bbcc
eba bba
bcdebe cc
ebe bebbbc
ebe bfebb
bbd edbf
bdc dbbf
edc fa
ba bcbd
bebc ddc
da eec
ebfc bcc
bebbc bebe
bcbbbb bbebb
dcee ddc
ee bf</w>
ef ebccc
ebe ecbec
bbbc bcee
dee bbdd
ebcc fed
bbbbc bebbbb
bcdc dcc
dced bbc
bbbc debc
dee debe
bebd beee
bebf fee
ecebe bdbbbe
eebbee bbee
ecbbed cc
ec dbbeec
dc fbbbc
dc fcdc
bbbb bbbebbbb
ebc bfdc
bec bcbec
ebd bebbbe
beebb bbbf
febb febb
bdbc ebbc
befc fc
bcef fc
ebbbc bbec
a fbcc
be bbeac
ed ebfcc
bbc dccc
df bdbf
bdc bdcc
bced ff
bdf bbef
ebbbbbb bbbd
ecdebc cc
a decc
dc bbbfc
bcc beebc
bbf ecbe
dbe eedc
fbc dbbc
dbf ac
dbbd bebc
eedd dbc
ecee ebcc
bfbc ebbc
dc bbba
bbbb bea
ef bedbe
dec eeec
ebec def
eeee fbf
fdd fbc
bbc bac
fc ecf
ecc bbeec
eec dbbf
bbbc eeed
bbee fbbc
dbb ebbbbd
dbb bfbec
dbd fdc
bedc eebc
eebf edc
ffc ded
a eebbc
bbbb bcbec
dd bb</w>
ebc eedbe
fc bddd
dbe fef
dbe ecdc
bbee bbbec
bebd ebcc
eecc bebe
febb ebd
ecbd bbbe
eeef bbf
dc ebbbbc
bbbb bbebf
ef ecfc
ebe eeebc
ecc bedf
df bcdd
fed def
eecc ecbc
da bbf
febc bec
bfcc ff
bd dbbef
bbc d</w>
fc ebecc
eec eced
edc bbfc
bbcc debb
beed ebd
eeed dec
bdbe bbdd
edbc ebbc
dcbd ccc
dc ecbbbb
ebc bdee
ebc fccc
bdc dbdc
dbc eccc
bebc eedc
bbebb eeebb
bbbf bebf
beec bbdc
ecbd bfc
eebf bcc
ebe bbebbc
bbd bfbf
bbbe beebc
ebf fa
dee bbfc
bebe debc
ea bbed
bebc dfc
ddc beee
ebb bbbccc
ebe bedf
ebe bdbbbb
dd eba
dd bebbd
fc ecfc
fec dedc
beec ebcc
dbbbb bbcc
dbec bdc
bdbc debb
febc bbc
bcc fecc
eec fbcc
dee dbcc
efc fef
efc bedd
fbf fcc
ecee beee
bdbc bbed
edec dbc
a eced
bd dc</w>
ebe ecebe
eec ecbe
bbd bbbbbbc
dbb aa
dbd dfc
bbebb ded
beec bedd
becc debb
bbebe ebd
dbbc bfc
bbbb eba
bbbb ecbbbb
ef fdbc
bbf eebe
ebf bbebc
dbb dcbbc
bebc def
bcbc debe
bbef ecc
bebf edc
decc eebc
bdcc df
bdf debc
bcef ccc
bf bbcbbc
dc debec
bec bcebe
bec ebecc
bbbc bba
dcc bcec
bbbf ded
becc ecbc
eebd debb
bdbd bcc
ebbbc fbc
ebd debf
ebf bcee
bbbc fbbc
ebbc bbfc
eecc bbec
dbdc eec
ed bd</w>
ebb fcdc
bec dbbbe
fbe deec
dbbc bbcc
fdc dbd
ecbd bbd
bced ebc
fef bef
beebe ff
edcc df
bcdc ff
ebbee bbbd
dced ccc
dc bbebbc
bbc ebecc
ebd bedbe
dee fbf
dbf debb
fcc bbcc
def ded
da edc
beed bef
beed efc
eedc bbf
eeed dbd
bdbe dbbbb
f ebc</w>
dc ebbef
eec debf
dee bebbc
dbb f</w>
bbec eebd
eecc bbbd
eebe dbcc
beebb edc
eedd ebc
dcbc ded
edee ddc
ed bbebcc
bbc ecf
dbe febe
bcbc def
fcc ba
fcc bebd
fdd dbd
bbeec df
bfbc bdc
ebd fbcc
bcc bcfc
dbe ffc
decc bbc
bd ec</w>
ed bbbecc
ed fdbf
bbbb fbec
ebe ecef
dd bdef
fc eba
fc eddc
fc beebd
bbbe bebec
dbb dcec
bbebb ea
debc dbd
bcbd dcc
defc df
dcbc ecc
ef fbdc
ef ebeebe
ebd febd
bcc efcc
bbbd eeee
ddc eebc
bebd debe
bebd bedc
ebdc fec
debd dbd
eedd bec
befc bec
eeef bef
ec eacc
ebe bfebe
edc eef
edc fbec
bfc ffc
bbbf beebb
bebd fbd
da bbd
edec dcc
fc bebbd
ebd feec
edc bcbe
ba fef
bbee debc
bbed ebec
fcc bccc
ebdc bbbc
bcbd beee
bcee fbe
bdbd ff
eeebb bcc
bedbb dd
ec dbbbcc
bbbb bbdbbbb
bdc fbbc
bbee dbbd
beec dbbc
bcee ebec
fdc dfc
bcbf fbc
bcef bebe
ecdd ebc
ecdd bccffc
bdec bef
bfbd bec
dbe bba
dec bebbc
bebd ebec
ecbc debe
dcdc dd
edbc bbec
dcbc dcc
bbbb fbbf
ebe dbbee
ebd fbbbb
bbf bdbf
dbb edbec
bbec bccc
eccc fec
ecbc dbf
eecc eebd
bcec dbec
eeec ebcc
bcbbc bcc
bfcc df
bf bbbbebb
dc fbbee
ecc eded
bdc ecbd
dbb bfec
bebc bebbc
beec ebec
fbd beee
bcec bbcc
ecbf a
ee debccc
bf beba
bbbc bbbbbbc
dbb ecdee
ea bbebe
eeec eebc
bebf dbc
eedc ded
ef dbbee
ebe bfef
ebc debbc
ebc bdef
dbb edef
bef bba
eccc bbbe
eccc efc
fed ebf
bcf dbbbb
bccc ebf
febb bbd
ecdc ebd
ed beefc
dd bedf
dee ebdc
bfc bbfc
fbc bbef
fee ac
ecbc bbebb
bbebe ecc
debc fec
fbf ebbc
bbbbbbbb bbbf
fef dbc
be a</w>
ed feecc
bbbb bddc
bbbb fbbbe
bbc bbebf
fc bdbc
eec ecbbc
bbbc bedd
dbb ecebd
beee febe
debb bbed
fed bcbc
bbdd bbee
dbec bbbe
bcee dbbc
beed ba
bbbec bebe
eeef ccc
eec debbc
dee beebe
bbebb beebe
eef bbfc
bcec ddc
bedc becc
ecec bbec
bcebb bcc
a ebfc
bf dea
ef eded
ebc c</w>
ebc bceec
ebc eebbd
bbc bbebbc
ebd bcef
ebbc dbbbb
fee febe
fcc beee
eebc dfc
bbdd ecc
bbdd edc
bcbd bbec
bbebc dd
deec fec
bebf fbc
bdf bbbbc
bebbbe bebe
edbc bbbd
ebb fefc
bbf bdcc
ff dccc
bbbd bdbbbb
eebc dbbc
bebd bdbd
debc bbd
eebd ddc
ffc dbc
fbbc bbbe
dee bcf
ddc bbcc
ac fec
beed ebe
eba bbbe
bedc bbbe
bedc bfc
eeebb bbd
edcc a
eebeee beee
ee deac
bf dbbcc
ef bfdc
ecc ebbcc
ebbc dfc
efc bbbf
debb bbbf
bbed dbf
becc ebec
ecbc ebcc
eebd bbec
da dcc
dbbbb ebd
fef bebe
bebbbb dbe
fbbc dbe
ed fbbec
bbf bcdc
bbbc fdc
bef bebbc
efc fdc
eeee bbec
eccc bccc
dbbbb bebc
edcc bbc
bdbbc dbf
ed beebcc
ebc ecfc
eec febd
dec bcdc
fbe bbbcc
dbec bbf
bba ff
ecec bbcc
beebc ccc
edbc bebc
dcec ff
eec ecbf
dee bcbe
fee dbec
bbbbc beebb
bbdc beee
bbbec bbec
ecf bbfc
bcfc df
dcbc bebe
bf efdc
bbc bcbbbc
fc febd
ecc bdbf
bbd ebbbbbb
bdc febe
edc beebe
ea fcc
beec def
becc fdc
debd bebc
bcebb bbf
bebbee bbee
a bfcc
bf fbeee
bbbb deec
ebe debf
ebc ecef
bbebb ebec
eccc bebc
bccc bebe
eeebb dd
eddc dd
ebbbd bbf
bcbbed cc
ecc bcebe
ebf bcdc
bbbc dfc
bbbc fef
bbee bbdd
ebdc efc
fed da
debe dcc
bedd dbd
bebbc bcc
dedc dec
beef fc
bcbbc bbbe
bfbc fec
ed bebbebb
ed dbbbf
ebe ecee
edc bded
ebbc ffc
becc fbd
ebdc bebc
bccc fec
bbebc ff
bdbd ded
bbbec bebc
bdbe ebcc
bfbc bef
bbcccc ccc
a beebc
ebe ecebc
ebc bcbbd
ebd ecbbc
ebf bcbe
edc bbef
edc feec
eccc ebf
eccc bbee
bbebe bbbbc
eef bbdd
decc ebd
debd ff
bfcbbef bedd
fc fedc
bbd bcebc
bbf febc
bfc eeec
becc fee
bccc bef
dbbbb df
bcec ebcc
befc dee
edee dbd
ebb dbbebb
ebe bdee
ebc bac
bbc fdbe
ccc beee
dbc dbcc
bfc bebf
eef dbcc
bbebc bbee
bba bebe
ecec ddc
bcebb eec
bcdc bcc
bbbb ebbbf
bbd bb</w>
bbd fbbf
bdc bcbe
bbbc eebe
dbb eda
bcbc fbd
eeee bebc
eeee fbc
decc fec
fef dee
edcc fbc
ebd bcbbbb
bbbf ea
bebd debc
fbf ba
ebfc bec
bcebb df
dbdc df
ebbee dee
bb ba</w>
bf bebfc
ebb bebbef
ebe eeff
fc bcbec
dec bebf
beee eebf
ddc dfc
beebb bdc
bcec bbbd
fef bdc
bdbc ba
bcef dd
bfbc bbee
bbbbebb bbbe
bc bbbb</w>
ebd ecdd
bbf eeec
dcc eebf
bbebb bbbec
bebd ddc
eccc eecc
dbbc fbc
eebd eebc
dbec bebc
bebbc dee
bcbbc bcbbc
bdbbbb bbbe
bd dbba
bbbb febc
ef ecee
ef efbf
ebd e</w>
ebd bdebb
fcc ebec
ac beec
ecbc ebec
bbebe bfc
fbf bcbc
eeed ff
befc a
dcdcdcdc dcdcdcdc
f bbeac
bc bbd</w>
ebc ecee
ebc ecebe
bbd febd
bbf dbbf
bbf bfcc
ccc fbd
ebbc eeec
bbbd febb
bcec efc
beed fbc
bbfc dbc
eedd bbc
bbecc eec
dced bcc
ed febcc
dc eedcc
edc bcbf
dbb dcebb
fbe decc
bbed dbbbb
eebc febb
eebc eba
fed eecc
debe bbcc
da ac
bcee bbbf
fdd efc
bfcc bec
bbbbebb bbebb
ffff ffff
bf eeccc
ed beea
fc fbbd
bbbc ebdc
ea efc
fee efc
ddc bccc
bbdc ebec
bbdd dcc
bebec bcc
fecc efebbc
dcec ecc
fbbbf bbebf
fceebc bfdbbbb
df bded
ccc eecc
dbb edec
debb bbbbc
eccc bbbb
eebe debc
bcec bbebb
eedd ff
ed bedebb
ebe eefc
ebe fccc
ebc beeec
bdc dbbd
bbec bedd
dbf def
bbdc bebd
eedc eecc
eedd fbc
a bbebd
f bbbbbbbbbbbb
fc bdef
bcc bbbbbbbb
eec bcebe
df ecdd
dbe beef
dec bbbbc
bbbd fcc
debb ebcc
bbed def
ac bbee
beebb bbebe
deec dcc
bcbf bbbc
bedd ecc
bebbbe bbebb
ebc bca
bbbe dbbbe
dbc bbebc
eeee edc
fdc ddc
bba dee
debd ded
bf fdbf
bbc fbbbe
eec bddd
bbd bcbec
bbee eebbbb
beee bcbd
da dec
eeed bbbc
eeebe eeebb
bded dec
bbd eeef
ebf dbec
bebe bdcc
bcbc bebf
eeee ebd
ac def
bcbe bbdd
ecec bef
bcebb bebc
a bdef
bbbb edbd
bbbb bcbcc
ebe bdebe
bec bcfc
bec eeebc
ebbc bced
efc ffc
fbe b</w>
ddc ba
bbbf beec
debe beee
ecbe dbcc
fbf edc
bcbf bbbe
fa bca
bcebe ccc
ebbbc edc
eec bbeec
ebf bbdd
bdc beef
ded bbebb
eeee bfc
ecbc eebc
fdc ebbc
edcc dcc
febc ff
bddd dbc
bf ebeebb
ed beac
ef bebdc
eec bbecc
dbe eebbc
dee beecc
dbd ebdc
dbd cccc
eef deec
bbbcc fc
ecdc bbc
ebbbd a
bf ecccc
ed dd</w>
bbbb fbbd
bbd ecdd
ebf eebe
bebe dbbbb
dbbc ebbc
debe ebbc
dedc ecc
febe febe
bdbc fbd
bdec bebc
ebe dcbd
ebc eea
bbc e</w>
bbbc fbbbb
dbb bfa
bcbc beed
ddc eebd
bebd eebd
fed bbec
eecc bbee
bdbd ebd
bbbec dd
dbbd ebc
edbd fbc
bfbc dec
ed dbbebe
bdc eebe
beec eebd
bbfc fbc
bcdd df
be dbb</w>
bf eeebf
bbbb eedc
ebe bcecc
fc bedf
dbb ebbbec
fed bbcc
bcee bbbbc
bebbc dd
bdee bbed
ebb dac
bbbb bcebc
ef eebbbe
fc bedbe
bbf befc
dbe bded
dbb edfc
dbd fbe
dbd fbf
fee febb
ebec bbbf
bbebc bbbd
bcbf ecc
fbbc bbbc
dedbbc dbfc
bf bb</w>
ebb dbccc
ef dcdd
ef fbbee
ccc ebbc
dbc debd
dbd bcec
eebc bedd
ecbe bbebe
bcbe dbcc
dfc bfc
beebe beebe
ebb fdbf
ef fbeee
bec bedf
dbe bcef
ba eca
dbf fdd
fbd ebcc
fbd def
beebb bbec
fef eeee
bbebd bbbe
edbc ebf
ebc bfbd
fc bcbcc
bec eba
bdc bbfc
bef eeebb
fee eeef
debc bfc
bedc bbf
bbeec dee
bbbb befc
bbbb bbbfc
bcc fdf
eec bbebd
bef ecbd
bbbd da
efc debe
bbebb bbebc
bcbc ebcc
beec dedc
ecbc fed
ebfc ff
fef bbbe
bebbbb a
eeebe ccc
ebbee ebd
bf ececc
ef ecdf
ebe ebbbbc
dd dcbd
df beef
bef bbfc
bcbc ebec
ddc bcbd
debc ebf
dfc ebf
bcec beee
fbcc fc
bdbbbb bbbc
ef ebecc
ecc e</w>
bbf bfbf
edc bbbbc
dbd bebf
bbbd fed
fee debb
fee bcbd
bbef ebd
bcbe da
fbf bbcc
beebb fbc
fdc eebc
ebfc dee
bdbc bbbbc
bbba a
ebbee bbbf
dcbbdfdd eecfdc
dc f</w>
bbc bbbbcc
bbbe bcebc
bbbc bcdc
eebd fcc
dbcc dbc
bced beec
bebbc dbe
ebbebb bbebb
bbd eddc
ccc fdd
fee eebf
debb ebec
deec ebd
debd dec
bbbcc bbcc
edbc fec
ef fdee
bcc bbecc
ff ecdc
bbed eebc
ecbe edcc
dfc fee
bccc bbee
cccc dd
ef ecebc
ef bdbec
ebe bfdc
bec bddc
ebbc bcbf
dcc dbbc
ddc becc
eeee febb
bbdc bbcc
beebb eeebb
ebc dbbee
bec bebbbe
ff b</w>
beee ac
fbd fdc
bbebe eec
dbec fec
fbf bbbd
beebb dbc
bba bbee
bebbc a
bdbc fcc
beebc bbc
ecddbccffc ecebebdbbbe
ec bbebfc
bf ecdee
ebe bbbbebb
bcc ebbcc
bbd eddd
bbd bebbf
bbf fdf
ba bcbf
bebe eecc
ebbc fbbc
dec fbe
eeee bccc
dbbbb bbbf
eddc fc
ebc bcebd
bbd bedf
edc dbbd
beee ebcc
fee def
ddc bebd
ebdc bbec
bdee ded
bdee beec
bc bbbac
ed fbecc
ecc fccc
ccc becc
dbbbb bbdd
bcee bbebc
eba dd
bbbcc eec
ffc bdc
bbebd dd
edcc ff
bdf dbec
bea bbc
ebbee bebc
bedbbbb cc
dc bbbbcc
ef eebebe
ebe bdbe
ebe dcdc
bcc eefc
bbd bdec
bbf bcbbbb
ebf bbbec
bbbc dbbd
bebe fef
eeec fcc
bebbc eec
ebe ebecc
ebe fbdc
bec febd
bbbe cccc
dbb acc
dbd debd
debb ea
eebc debc
becc bbbd
ecbe bbef
bcec bbed
ecbd fcc
bf bebbec
ed defcc
ef eebcc
fc bdfc
ebd eddd
ebd fbbd
bebe eebd
bfc fbbc
dbb bfebe
bbec febb
bbbbc ebec
bbebe beebe
ebbbd df
dcbd ff
ecbbebb cc
bbbb dbbee
ebe eeebf
dd dced
edc befc
dbd beebb
ded fed
bbcc ea
bbcc eebd
becc edbd
bbdc ddc
fdd bdc
ecdc bdc
bcbbc bec
ebe bbedc
ebe ecbbbb
ebc e</w>
ebd fdf
bef eccc
bbcc bcbd
fee dfc
fec bbbf
ecbe bbebc
eeed dcc
bcdc bcdc
eefc df
a bcebe
ebe d</w>
eec bfdc
ebf eeec
dbc eef
bbbd bbef
efc fbf
ded bccc
beee fbf
bbcc eeee
bbdc bbebb
debe fbc
edcc bcc
bcef df
ebbee bbef
dc debdc
bbbb eced
ef defc
ebe eebcc
ebe bcdf
bbd eea
dbe fa
ebf bdbd
bef eeef
bbec bcec
ecbc bebd
bbdc bcbc
da da
bedc bbbc
fdd bcc
bdcc bcc
ef beccc
ebf befc
ff bdbd
dbc bbfc
bbbd bbbec
efc febb
eecc bcbc
ecbd bebc
bf debcc
dc eebbbe
ebe bbba
bbd efcc
ebbc bcee
eecc ddc
debc fbc
fbf dcc
dbcc ebc
bded bbc
eebbbb bbc
bfbd ccc
dc ebbec
bbbb bebcc
ef dba
ebe edbc
ebc bdebe
ecc bcbbc
bbbe bbecc
bdc bcebb
ff eef
dee b</w>
ccc fed
bbec bbdd
fee eebc
ebec fbe
beec eedc
ebbbc beee
dcec dbd
a ecebb
bbee fdc
bebe bcdc
fcc debb
ecbc def
fbbc dee
bbeec dec
ebe fbeee
dd ebecc
bbbe ffc
dcc bcbd
ebcc bccc
fbe eba
deec becc
bbfc ecc
dbbf df
ebbee ea
a dccc
ee fedcc
ba bdbf
dbc bcebb
bbbf febb
eebe dbbbb
ecf debe
bedd dee
beef bec
edbd bdc
bdee debb
ebbbd bec
dcec dcc
bfec dbc
bf eebdc
ef eebbf
eec c</w>
eec ecebb
bbf eedc
dbe befc
edc bcdd
ebbc dbec
bebc bced
dbf bebd
bbbbc bebd
eebc ecdc
eccc bef
dfc bbbc
decc ebc
bcdc bbc
ed eebeee
dc ebbebe
bbbb ecec
dbb ebebbbb
efc ac
bbec bbbec
fbe ecdc
eebc bbdc
bcf bbdd
eebd bef
eeec ebf
eeebb beebb
beef dd
fc bfbf
bdc fbec
bfc febb
bbbf becc
bbbf bebbbb
eccc bbd
eef b</w>
bbef dec
beed fec
bbbcc dd
fdd ebc
fdd ded
bbebd bbee
bcebe bbc
ebb eb</w>
ebd dcdc
dbd ac
efc bebf
beee debb
ebec ecbc
ebec debc
ddc dcdc
dbf bccc
beed bbbd
decc eedc
beebe bcc
edcc dec
febe ebf
eeebe ea
bdec dcc
bd de</w>
bbbb bdbbd
ecc bedbe
dee bba
bebe bcbf
eecc ebdc
beebb bbbbc
bbbcc a
fdd ddc
eebf df
bdcc ff
ecee bbebb
edbc fbd
bc ebb</w>
ec bbeba
bf bedbb
ebd edbf
edc eebe
dbb dcbec
dbd bccc
bbec ea
fed ebbc
dbbc bbed
ecbd bbee
ecf bbbbc
ecec beec
befc ff
eac da
dded ccc
ebb beebec
ecc eedf
bdc fa
dee dccc
bbbd bbebd
ddc bbdd
eccc bcbc
deec bbbc
beed bbee
decc bcc
debd bbc
ecec bbee
dedc ded
dbbf dbe
ecbf df
bdbe debc
bdec fbc
edbc bef
dbc bebbc
beee fbd
ebcc bebd
debb bcbd
eac a
bf bbefc
df dccc
bbbe bcebe
edc eebbc
edc fedc
ff eeef
dbc da
dbc ffc
bbebb fec
debb fbd
eef bbebc
ecbe dbbbb
bcee debc
beed eecc
eedd bcc
bdbc ddc
bdbc dbf
bdf dbbbb
bdee fec
ebbebb bebe
bcfc dee
ebbbbbb bbbbc
dcbc bef
ebe eebef
ecc beebc
ccc bbbd
dbbc bebd
bcf deec
bcf bbeec
fdc fdc
eedc ebcc
fbbc fbc
bfec ded
a bdebb
ef fdec
ebe bcbbf
dd bcbbbb
bcbc fed
bcf ebfc
bedc dbd
bced bbbb
beef ebf
ecee bbed
ecebb bbbc
ebb beded
bcc feec
bdc eced
bbec fbf
beee dbf
ddc eccc
fcc febb
bbbcc dbe
dcbc ebd
dbc eeebb
ac bba
eecc bef
debe bbec
dbbd bbdd
ecbd bbbc
bbbcc bbf
eeed ecc
bcdc ded
dbbf dd
bfcc a
dcbc bbbc
fc eded
bbbe bebbd
ba bbef
ff bcbe
ff bcebb
beee fef
becc beee
fed fcc
bbebc bbd
dbdc dbd
ef beedc
ebc dbfc
eec eefc
df febc
efc ebdc
fbc bced
fbe ecbe
dbf beee
dbbc eebc
bcec bebd
febb dbd
bedd ded
bdbc beec
ebbebb bbc
bf debec
ebb fded
ef debbc
ebe bfbd
ebbc eccc
dcc edcc
bebc ebdc
ebcc bbed
ddc ebec
debb beec
eecc ebec
dbdc bec
eeebe eeef
bfcc fec
bbbdc bbbb
cccccccccccccccc cccccccccccccccc
a bbac
ebb bedbf
bbd fbbbe
ff bcef
bbee fef
bcbc eeee
eebd efc
eebd bebd
fdc fbd
edbf fc
bbcbd dee
bf bedee
dc eeff
ebc bcdbe
fc eeef
dbb ececc
bbebb bbef
bbebb bcbbbb
debb becc
bbbf ebec
fed bbee
ffc bbf
bdf ebdc
bded a
bbbbbd dbd
bfcbbefbedd dcbbdfddeecfdc
be ebe</w>
ecc eedbe
bbbe eba
ebf bba
bebe bea
dec beecc
beed bebd
bbbcc df
ffc eec
bdbe bbef
befc bbc
ebbcc bbc
eded dee
bec e</w>
bdc bded
ba bbdc
dbc ecdc
dec bbdd
bef eef
fbc eccc
bbbbc bbebe
def fee
bbdc beec
dbbc fee
ecec becc
eedd dbe
bdcc bbc
ecee fbd
ebe ecdf
ba dbbbb
ea fec
bbec bced
beee bebbbb
bbebb bebbc
bbbf bbef
bebf dee
eba bea
eeebb dbe
ebc ebbbf
bcc eddd
bebe bbfc
bef bbdd
ea bbef
ded ebdc
bbcc fbe
eebc ecbd
dbbbe dbe
bddd dddd
ebbee dcc
bfbc bbec
bc bf</w>
fc ebccc
fc eebcc
eec bcebc
dbc decc
bbee eebe
bbebb bebbbe
ac bbec
bbbbc bccc
dfc fcc
bbbbbbc bbbbbbbb
bbbb ecbbc
ef ebbef
ebe ebbed
dd bcebc
eec bebbbe
ccc dbf
eebd bcbc
ebbee fbe
bd beeecc
ebc fbbbe
fc deecc
bdc eef
bbbc beebe
dbc bcee
dbc bcdd
bebe bcee
dbb ecbbbe
bebc cccc
eebc cccc
def ebbc
ebdc ebec
eecc bbcc
dbec bef
ecec ebbc
eeebe beebb
edee edc
bf ffcc
ebe ebbbd
fc fbbf
bec bfed
eec bdebb
df eeec
ebf bebbbb
ff bebbc
ccc bbed
dbb dcebc
ea bcbd
bebc bbef
fed bedc
dbbc ba
eebd dbf
dbbbb bbec
febb edc
bbbec bbbd
eeed edc
ebbee bcbc
bd bbebdc
bf ddbd
fc beeec
bcc ecdd
dbb eddbe
dbd bedc
beee ecbc
eebc eedc
dbec bbd
dbec bfc
dbbf bbc
bdcc dee
ebbebb bbbc
eded bbc
eded dbc
ebe bdebc
bebe bcbbc
bebc fbe
bebc bbdd
bbfc bbd
ecbd ddc
dbbbe bbc
febc dd
bcbbbb bec
ef bdbe
ebc bfed
ebc eedf
bbbe eccc
bbf beebc
bdc bebbc
bbbc eebf
beec bcbd
ecbe bbdd
bccc bfc
eded dbe
ebbbc ebf
bf fbbec
ebe ebccc
eec eeebe
df bddc
dcc bcdc
ded ecbc
bbebb ebbbbbb
debb ecbc
bbbbc bcbd
eecc edcc
bbdc ebbc
fdc eebd
bbebc ebd
eedc ebbc
ebfc a
bdbc ebec
bcef dbe
bebec bec
eebeee eeee
bd ed</w>
ed bbeecc
ef eefee
bbd ecf
bbd bbebf
bebe fbbc
dbb ebebbc
fee fdc
fee fa
fbe ecbf
fec bedd
bcec ba
bedc ebbc
bcebb ebbc
bdbc efc
ecdd dee
aa a
eec bcbec
bfc bedd
bef eeec
dcc debe
bbec deec
febb dee
bbfc ebd
bbecc bec
bcbbbb bcc
bf f</w>
dc ebbbbbb
dd bceec
eec eebcc
df e</w>
fee bbed
ebcc ebdc
fcc bbbd
eccc fbd
ecdc ded
dbbf ff
bdbc eebc
ebbbc bbbbc
edee bfc
bf eebef
bf fbbbd
ebe eebec
dd bedbe
bdc beebe
bbee bebbbe
dbd bced
dcc fbf
bbec dbbc
bcbe bbbcc
bcebb dbe
beef eeee
dbbf a
ecebb bbbe
ebb febcc
edc febd
dee bded
bbee eebf
bebc bbebc
eef bfcc
bcf bfcc
beebb ba
bdbd ebc
bc bbe</w>
ef ecbbbb
dd ecebe
ecc ebccc
dec fbf
dcc fbe
bbcc fdc
dbf bbebb
bbbf efc
bbef bbbd
dbec beec
deec ebbc
eedc fcc
bdec fec
ebbbc fee
ef bddf
ebe dbfc
edc bebbc
bcbc dfc
bba bdc
bdbc bbebb
eced bdc
bea dbe
fbec df
eebbbb bbee
ebbee ebc
bf bbdcc
bbbb c</w>
fc fbdc
bebc bcee
bbec bbebc
da fbc
dbec dcc
bebf bbebb
decc ded
fef fef
beebe bec
bcebb a
beef df
edbf ccc
ef dcec
dd beecc
fbe bfbf
ecbe bbfc
bbebd bec
ebbbc ded
bbbbbd bbbbbbbb
ee bbe</w>
ebb f</w>
ebc eac
bbc efcc
ebd bedf
bdc febc
bebe bdbd
dbb efdc
dbd febb
dcc eeed
ebcc dbf
bebd fcc
ebdc eecc
bbdc efc
bbdd ebf
dbec eecc
fdc bef
dbcc a
bced bbf
ecee ecbc
bcbbc bcbc
bfbc efc
fc beedc
ecc ddcc
edc bfcc
ea bebd
fbe dbbd
bbebe dee
bbebe bebd
bbdc debb
ecec ebcc
fa bbc
bdcc a
ecef dd
bfbc ded
ee bbbac
ebb bbac
ebb fddc
bbd bdebe
ba dba
ff fdf
bbbc bebec
fec ebec
fec dbbc
def bbcc
eba ccc
bfbd a
ef eac
ef bcbbf
bcc edbf
eec bac
df bcebe
dbe beebc
edc dcdc
bbee ebbebb
dbb ebeebe
bbbd bddd
bcbe eccc
bcbd ddc
bcec ebec
bbfc dec
bedc ebf
eeebb bbbf
bcdc a
bdee beee
bf bebbcc
ed dbbebb
fc d</w>
bbd ebbbd
bebc fdc
fbe edcc
fbe bded
fec ecbc
bebbbb bbec
edbd bbbb
dbbbe bebe
bdbf df
bcbbebe cc
f dbb</w>
ebe ecfc
dd ecbbc
eec beccc
ba bdbd
bbbc da
bbbc eedc
dee bbecc
dbb bc</w>
ac bbbd
bbbbbbbb bbcc
febb ebbc
bebf bbbd
eeed bbbb
eeed ded
eced ebc
dd fbbf
ebc defc
fc bbccc
eec beebd
ba bfa
bbee febe
bef bdbd
bebc eeee
bba bbebb
eeec bebd
bbbec bbebb
bedd dbc
bdebb bbbe
ec bbbfcc
bebc ecbd
fbc bcbf
dbf bbed
dbbbb ebc
deec eebc
dbbd b</w>
ecf decc
dccc ecc
ececc ccc
bcdebc cc
ef dddd
ebe eebbd
bbc ecdd
bbd bbccc
dbe bbebd
ba debe
ff bbebc
dcc b</w>
beec bbbf
def dbbc
dbec ebbc
bcebc ccc
beecc ccc
bbbedfc fceebcbfdbbbb
bf fbebc
dc fddc
dd bdbbd
fc bceec
eec bedf
df fbec
bef bcf
fec bcec
def def
eccc becc
bbfc bfc
beebe bbebb
fa bbf
bdcc bdc
eddd ecc
dcbc fee
ebb bd</w>
dd bebcc
bec beeec
bbd bdbe
bebe bbdd
dcc deec
ebdc bbee
eebd bbcc
fa bcc
bdbc bbbf
bdee ebcc
dc dbccc
ebc bcdf
bbc ebbbf
bec fdf
bec eefc
bbbe bedd
dbe febc
ea bebf
fed debc
ecbe da
bcbe bba
beef bcc
ed ee</w>
dc fded
ebd c</w>
dbe edbd
ba eea
bbbd bbebc
bcbc ecbc
bbed beed
bbebe bebbbb
bedc debb
bced bbec
ecec fec
edbc ddc
eded df
fc bbedc
ecc c</w>
ecc b</w>
dbe eebbbb
bdc ecdc
dee beebc
dec bcee
dcc decc
fee eeebb
ac bac
bbebe ebbc
bced bef
bdbc fed
ebbbc bbbf
ee ebb</w>
ef fbbbc
fc bca
fc bdebc
bec bbbdc
eec ddcc
bbf debd
efc bbebb
efc debd
ded eccc
ded bbdc
eebc debe
bbef bbbf
dbbbb bcbc
bbebc dbc
cccc bcc
fef ba
fbbbb bbbd
eeebc ccc
dc fefc
ebe bcdbe
dd bfbf
bbd bebbbc
ff befc
bbee eba
bfc bbdd
dcc debc
bebc bcebb
ebec dbbc
fec bebf
eebc dbec
eebc bebf
bfed ccc
bbbb bfcc
bbbb eebbbe
ebc bebbbc
ebc eeecc
fc eeebe
dbe decc
dee bcdd
dbb ebebd
ea eea
bebc bcdc
bbec bcebb
fbf beee
deec edc
bcbf bebe
ecdc fbc
ebecc ccc
ebbbc bbcc
fdbb ccc
bbbb bedbe
ebe efbf
bec bfdc
bbbe fdd
dbe bcebe
ebf dbcc
ba dbbc
ebbc eebf
beec dbec
def fec
dbbbb bbed
fbf dbd
ecf bbef
fecc a
edee dec
ed feccc
ef bcdbe
bbc bdec
ecc bdec
bcc beeec
eec defc
df eef
df ecef
bbf b</w>
ba bbba
ff bba
ded b</w>
fbc fbbc
becc bedd
beebe bbbc
ecee fee
ecee dbec
eced a
dbbbd bbbd
bf fbbdc
dc fbebc
bbd bdef
df eddc
dbe ecec
dbe bcdd
dbc febc
bebe cccc
bbbbc bbdc
bdf eccc
edbc efc
ebb bebecc
ebe ddcc
dbc fbbc
bbee def
ea febb
ebcc bedc
fec debe
bbed ddc
ac efc
bcee bbdc
bbbec ebbc
bbbcc bcbc
dced dec
bf dac
ef bbbfc
bbbe fa
dbe eebe
ff eebd
dee dbbd
dcc bedd
fbc bbfc
fbe bbeec
fec ffc
becc debc
bbebc bcbc
ecbf bcc
bdf bbdd
ed dbbdc
dd ebccc
ebc bedbc
bbbd bebbc
ded eebd
bebd ea
dbbc edc
dfc edc
eba df
eebf bdc
dedc a
dedc edc
bddd ccc
cccccccc ccccccc
dc dedcc
ef fedc
ef eebbd
ecc bbecc
ba bcebb
bbee eebd
dec b</w>
bbbd fbf
ded beebb
bbec bbef
eeee eea
eebc def
bebd bbbbc
eecc fed
bcee deec
bbbbbbbb bbbbebb
ecbf ff
bdbbc bbbb
ed bebbbf
ed fdebb
dd bbecc
bbc bdee
ebd eebbbb
dbe bbeec
ebf febc
fee da
ecbd ebbc
bbebd bebe
ebbbd dbd
bf fefc
ebc ddcc
bbf bebec
ebf bedd
bfc bbebe
dbb ebba
dec bcebb
fbc bedd
fec ac
eebc bbbbc
eedc dbd
ecf dbcc
eeebb eeebe
fef fbc
fbbc bbd
eedd bdc
fecc fc
bdec bbbc
ebc dcbd
ecc fdbe
bcc dbbf
dbc bbbec
bbee bcbe
dbbbb bdbd
dbec bbec
bcec dbf
bbebc beec
eced dcc
bdbbbb bbc
a bcfc
bc dbac
ee debecc
bf fbbcc
dd eebec
dbe bdbf
dee bbeec
bebc fbf
beee cccc
fee bbdc
bbed debe
becc ea
becc fdd
eccc beec
bcec debc
bba dbd
febb bbbd
bd bbbbbbbbbbbb
bf dddc
ebc bbebf
df bfcc
bbbe befc
bbf fbcc
ba eeebb
dec ffc
bbebb fbd
dfc bbec
dbbbb fc
eeec fed
bbfc bbec
bced dbd
bbbcc ff
dedc eecc
ecee ea
bebbd bbc
ed fac
eec e</w>
df ecebb
df bcfc
bdc bcdd
dbc ecbe
ebbc ac
bef eebe
bcbc beebb
fbd debe
ecbc bbbf
dfc bbee
bedc bebd
debd bbd
bcebe bbbb
bfbc fee
be df</w>
dd fedc
ebd bdec
bcc febd
dbe bdebb
dcc ac
bcbc eebd
fbe dbbf
eebc beed
dbbc debb
bcbd bdbd
fbec bbc
eebbbb bbebb
eeecc ccc
fdbb fc
bdbbbd cc
bdc bcef
ba ebec
ba fed
ddc beed
eebd fdc
beebb beebe
eebf eec
bebbc fc
dedc dee
ecdc dbd
beebc bec
ebbebb bbee
ebbec bbbe
bd dbbebc
dc ebbebc
dd bbbbbbbb
eec eeccc
dec ac
bef bea
dcc ebdc
efc beebb
eeee ebbc
fef ecc
ecebe ccc
ebbbd bebe
dcbd dbd
bfbc dbd
ec fbfcc
ed bebbed
bbbb bebbebb
bbbe eef
bcbc bbdc
beec beebb
eeee eba
bebd bbbf
fbd febb
fbf ebd
eeec eedc
ebfc bbf
dccc bcc
bebbbe bbf
edbc beee
bfbc edc
bf bbfcc
ebc ebbed
df eebe
bdc bbebc
bbee fed
ea beebe
efc bbbbc
fbc febc
def bbbd
bbdd bbebb
fbf bbbf
bebbc dbc
edbd ded
bdbc debe
bd debfc
bec c</w>
bbbe bdbf
dee fed
dee bbbec
ebbc bebbbb
bef bcbe
bbcc bedc
fec bbed
dbcc dbd
ecec bbbd
dbbbe bbf
bdebb bbc
bceebd cc
bd dbbfc
ebe eca
ebc bbedc
dec befc
bcbc dbbc
bbef bbec
eeec beec
eeed fc
eeed bbf
edbf ecc
ebbbc bbed
ebc dcdd
ebc bdfc
bbc ecebc
ebd dbbbc
bbbe bebcc
bdc bcf
dbb bfebc
bef bcee
efc bcec
dbf fed
dbf debe
ecbc beed
eebe bbfc
eef bbbec
debd bbbb
debd bcc
dbcc bdc
edee bbcc
fdecc cc
ebe bdf
ebe bbbfc
eec bcbbbb
bbee bcee
dec eedd
bbbbbbbb bbf
fdd bfc
a ecef
ef edbbc
ebd dbbee
ebd beebd
bbee da
dbb be</w>
bbed beebb
bcbd ba
deec bfc
febb bbec
dbcc ecc
ecbf fcc
bcbbc fc
ebb beddc
ebe bfbbc
ebd fdbe
ebf dbbd
ebf bbbcc
ded eedc
ebdc ebcc
eebe da
bcbd beec
bbebc bbec
bdbd dcc
ebfc dbe
ecbf dbc
eebbbb bbbc
dd bcbec
bdc fecc
dbd bdcc
bcbc bcbf
ddc fdc
bbbbc bbbcc
bbef bebc
bbdd bebc
bedc bbd
decc dee
febe df
bcdc ebc
dbbf bbbb
eced bbf
ecebb bec
edbc fee
dcbc edc
a fbbf
be ebc</w>
dcc bbdc
bbbd ac
debc debb
bcec eebc
bcebb bebe
dccc dccc
eced fc
febd df
dcbc bebc
ed febec
dc bbcbd
dc ebbfc
dd defc
bbc ecbec
bec debf
edc eddd
dbb efdd
ebbc bedd
fbc ac
beee bebbbe
bbebb bbdc
eccc fdc
eebe bbbcc
bccc fee
bebf ba
eba bbbc
eeed ebc
bebbc bbd
ecdd dbc
eebbbe bbee
bedbb ccc
bbbbbd bbbe
dc febbc
bbbb fbcc
ecc ebecc
ecc ecfc
edc ecbe
bef deec
bbbd beed
bbbd eeebb
efc eeec
fbc deec
eeee dbd
eebe debe
debc ecbc
beebe fc
bedd bebc
eebbc bbbe
dcec dbc
fdbbd cc
a edbd
dc bbbbbbc
dd bbbdc
ebd eebec
dbe bddc
ebf bcef
edc bddd
dee bea
ea ebec
fcc ecbc
eebd becc
dfc bbbe
eeed bbbe
bdec bfc
dcec beec
bbdbd dbd
bd dbbbec
bd dbbbcc
bf eeeec
ebb dbbbf
dc bebbec
bbc eea
bec ebbebb
bdc dcdc
bbee bbeec
dcc c</w>
fbc fdd
dbbc bbdc
ecbf bbf
bdee efc
bfcbbefbedddcbbdfddeecfdc ecddbccffcecebebdbbbe
ed ecced
bbbb ebbbd
bbc beebd
bbd beecc
bbbc bcf
dee fdd
ea bccc
ded fdc
bbebb bbdd
ebcc def
fbe ebfc
ebdc ddc
fed fbd
eebd ecbc
fef bbbb
dedc ff
dbbf fc
bcbbc bbf
fdebd cc
ebb bbb</w>
ef bcccc
bcbc bcbbbb
bbed dbec
bbef ebbc
da eba
fef dcc
beebe bdc
fbcc ff
dcee dec
ebe bbbbbbc
dd fccc
fee bcec
fec bbdc
bbbf fbe
fed ea
dfc beec
dbcc bbbc
eeebb df
ffc dcc
bdbf ccc
bcfc dbe
ecebc ccc
eedbe ccc
bbcbbbb bbbc
dd fbdc
bcc eeef
bebe bcf
bfc eccc
dbb edbbd
bbbd bedc
bebc ac
becc ebdc
fed decc
deec bedc
bcbf bfc
ecdc ff
bded ff
bf bbea
ebe bebbebb
dd eea
bbc ecef
eec eddd
bbd bfbd
bebe eccc
bef bbbec
bbbd bcbbbb
bbcc eedc
bbebb ebcc
bbed fbd
fcc edcc
ecbc eecc
bbebe bebf
bcbe ebdc
bbfc bebc
bedd ff
bebbbb bbbf
bdbe bbebc
bcdd ddc
bdee bebd
dddd bebeecebc
dcbc bbbe
f bbbb</w>
bf eedbc
ed bbac
ecc bcebc
bbd ecebe
bbf bcebe
bdc bddd
ea fa
beec bccc
eeee bea
eecc fdd
debc bebd
bcbe debd
fdc bbbe
cccc fc
fbbc dbc
ecee bbdc
a dbbbe
ec dbac
ebd eba
ebd eefc
eec dbbbc
ebf edcc
bebe bbbbbbbb
bfc beebc
ded eeec
fbe debd
fcc fecc
fdc dbf
fdc becc
eddc edc
a bbbbbbbb
ecc ecef
bbee ebdc
bbee bedc
ebec ebdc
eebc ac
debe becc
bcbe bbebd
beed bedc
bdbd dec
ebfc dbc
dbcc dec
eebbc bbf
ebbebb bbf
bceeefc feccefebbc
a bddc
bbbe bbbbebb
bbee bdbd
fed ebcc
eebd ba
deec debb
febb bebc
bbfc ebf
bebbbb bebc
ed debfc
bbd bcbcc
edc bcebb
dee dbbbb
bebe ecbe
bbcc dbbc
bcbc fbf
beec da
fbd fbf
fed bebd
bcf dbbd
dfc bebc
beed ddc
eeebb ba
bbbcc ebc
bedd ebc
fbbc eec
fecc df
dc ebbbec
ecc bebec
ecc ecdf
bbd ecef
dbe edcc
ded bbdd
bbebb bcbd
eccc bbbc
eecc ea
eecc eedc
ebfc bbbb
ecdc ddc
ecbf fbc
bfec bdc
bf eefee
dd ecbec
ebc febf
bbc eddc
fc bebbf
ecc eac
bbf eeebe
bbcc fbf
fbe bbebd
bbebe dbd
beebb dee
dbcc bbbb
bdec bbec
bfec bebc
dd bcbbd
bbc beecc
ecc bbebd
eec dcbd
bbd bca
ebf ecbe
bebe def
bfc bbebc
bfc bced
bcbc bdbd
ecbc fdc
ebdc edbbebb
bcec debe
ecbd bef
bebbc ebd
edbd ff
bea bbbb
ebbee bbed
bceec df
bf deecc
bf beebbc
ebe ebbbc
fc dcbd
ba eebc
dbd eccc
bbcc eeec
fee bcbf
dbf bbbf
fcc eedd
bcf dbbf
beed debc
bebbbb beee
edbd bebe
dbbbe bec
dbbbe bbbc
bcbbc df
eeef bbbe
fbec bec
ecdee ccc
a bcebc
ebb ebfcc
ef eebec
bcc eded
bbd dcbd
bbd dcdd
bef b</w>
bbbd ebcc
fee bbbbc
bbebb eebd
eeee ddc
bced bebc
fdd ebd
beebe eeebe
bebbbb ccc
beebc bbbb
eebbef cc
ebb beefc
dd bfed
fc edbf
bbee bbfc
becc edcc
bbebe fbc
eebe dbec
bbdd b</w>
bbbec dbc
aa aa
a fbbd
ef bbebbc
ebe fbef
bbc ecebe
fc bcbbd
bbd ecbec
bbd bbbbbd
bbf fbbf
bbee eccc
dec febb
beee eebc
bbcc beebb
bbcc bbbcc
ebec bbdc
ddc dddd
dbbc dcc
bcdc bdc
fa dbe
bded dbc
ecdd df
dc bbcbbc
dd bfdc
bbbe bdbbbb
edc dbbbb
dbb eb</w>
dbb ebbfc
ebbc ecbd
ea ebcc
fec ebdc
becc bbed
bbdd ba
beebb eeebe
deec bbf
decc bdc
eeebb eeef
edec dbd
bbbbbbbbbbbbbbbb bbbbbbbbbbbb
a bbecc
ee ef</w>
ef edbc
ecc eebcc
bbbe dbcc
bfc da
efc ecbd
bbcc def
fbd debc
bbdd fbc
bbdd dddd
debd dbc
febe bef
bdbc eebd
bceebecbbecbbdbbc bbdbf
ef bedbc
dd bdee
bec bdec
edc bddc
fed fed
eeebb dbc
ecec ebf
ebb bc</w>
ebe bda
ebc fdbc
bbc dbbee
dbb ebdcc
bbebb dbf
fbe bdebb
debb fcc
dfc ebbc
dbec bbbc
bcbd ebbc
beed ebcc
bedd fec
bdbc def
febc dbc
bea bba
a bebec
dc bebfc
ef bcff
ebc bedee
bbbe deec
bbf bbebd
dbe bcbec
bdc ebfc
bebe bbbcc
dbd bddc
bef bcdc
bef bdcc
dcc bebf
debb eebd
fed bbbd
eef bbbcc
bbef bcbc
febb ba
eeec fbd
eba ff
febe dbc
edbd bcc
dccc df
bdbf bbbb
a bddd
ef edef
bec eebbbb
ebd fedc
eec fbbbb
bbbe bebbbc
bdc ecbe
bebe bcbbbb
ebec bcec
bbed debc
bebd beebb
dbbc bbbbc
bbdd bbec
fdc beec
dbbd ba
ecee eccc
ed bebccc
dc ebbdd
bbd bbcbbbb
edc beef
bbee cccc
ea fef
fbc dbec
def fbd
bcbe bbecc
fbf fbd
bcee bbfc
bbebc ecc
bedc fcc
dbbd ebf
bcebb ebc
efcc eec
edee fcc
ed fbbbf
fc bffc
bbd bbcbbc
dec ecbd
dcc dcdc
bbebb becc
bcbc eeec
dbf fbe
bedc bbbd
bedc beec
bbbec ff
decc eccc
eedc bebc
fdd eecc
bcbf ebc
ffc ecc
beebc df
ebbcc eec
bebec dbc
bf eeebd
bcc eeebe
df eedd
dbe eebf
dbe bcbbc
bbbc beef
dee debd
bbee fbbbb
dbb ecdbc
ebbc beebe
ebcc ea
bbed bbbf
eeee eebbee
bbbec bbd
ecf deec
eeebb beebe
dccc fc
bd dbbebd
ef dbecc
ebe bfed
bbf bbeec
dee ecdc
bbcc ebdc
ebcc ba
bbbbc fee
bebd dbbc
bbdc ba
bedc efc
bedc bbec
bcbf ebd
eeed bebc
bec eebcc
ff eeebe
bbbc ecbd
dcc eddc
ded bdbd
beee bea
ebcc bcbd
ecbc dfc
bbdc eecc
bccc debe
dbec efc
bfcc bbc
bcef bbc
ecdd eec
bfbd bbf
dbe bebec
dbb dceec
dec bbebc
dec ecdc
dbf ebec
bbbbc bbbbbbc
bcee dfc
bebf fcc
ecf bbdd
bcfc fc
dd dbbee
ebc efdc
ecc ecbbc
ebd bbecc
bcc fbbbb
bbbe febc
ebf ecdc
edc bebcc
bbed fcc
eebe ebbef
bcee bbebe
fdc bbd
fdc def
beed ebbc
ecf da
bedd ebd
bc deac
ed ed</w>
bbbb ebbebe
ef bbba
ebe fbbbc
dd eedf
ebc ebbbbc
ecc bea
bcc bedf
df dbbf
bbf eebbc
ff deec
bbbc febe
dbb edeec
dbb dca
dec bbebe
dec bdbd
bebc eccc
ecbe bbeec
bebf bbcc
bbfc bdc
dbdc dbe
ecee debb
dcdd ccc
deba cc
dc bbefc
dc eebbbc
ebe dcbf
fc ecef
bec bddd
ecc eeebe
ebd bcebc
df bbeec
dee eebbbb
dec dbcc
dbd fdd
dcc ecbd
bebc eeec
fbe ecebb
ddc ebcc
bbbbc beec
beebb dbd
decc eebd
eeed ddc
ffc fbc
ebb febec
dc eedbd
bbbb dbdc
dcc bced
efc febc
bbbf eebc
bbbf bbebe
bbed ea
fcc debc
eecc ecdc
eebe dfc
eebe edbd
ffc bfc
ecee beec
bdbf a
ddbd dbe
ebe fdbc
dd ebbebb
bbc bdebe
fc bbbdc
ecc fdf
ebf eedc
bbbc bcbbbc
dbb edee
bbbf bcbf
eebe def
bcbd bbcc
fbf bbec
bcee eccc
bdec ddc
bebbbe bbc
ebc bdbbbb
fc ecebc
bcc ebecc
df ebfc
dbe ecebb
bbbd bcebb
bbed ebcc
eebe dbbd
debc bbee
bcdc dbd
bded ded
bcecc ccc
a bcbbbb
ebe ecbcc
dd bdebe
ebc bebdc
ecc bcbec
ecc ecebc
eec dbfc
bbf fbec
dbe bbbcc
bdc edcc
bebc bdbd
fbc fef
fbe ebbebb
bbed bbdd
ac ddc
bebd fed
def beec
da bfc
fdc eedc
eeed bbd
eedd ebd
dbdc ff
ee bbd</w>
bec dbbbc
bcc bcebc
bcc eeebc
ebf bfcc
edc b</w>
bbbc dbbbe
dcc ecec
fcc febc
ac eac
dbbc fec
eebe b</w>
bcbe bbbbbbbb
da ebd
fdc bcbc
decc becc
eeebb bbec
beebe beebb
dccc dee
bfec bfc
dcee bbec
ef ecccc
ecc bebbbb
eec ebecc
dbe bfcc
bebe eeec
dbec bbee
bebbc bebc
beda cc
bf bebbbd
ef bebbbc
ebe bcccc
dd beeec
fc bac
bbd ebbbf
edc eefc
bbbc ecbe
dec febc
bbbd debc
ebec bbebe
ac ebbc
eedc bbbe
fbbc ebc
fbbd bbc
edec bbf
ebb be</w>
dc fdbf
ef dcbc
ebe edbbc
dd ecfc
df fbbbb
df bddd
dbe dbbbe
dcc bbdd
ebcc eccc
bebd febb
eecc beec
bcf dbcc
bcf bbbcc
bcf ebbcc
bbbec ebd
eebf ebc
bdec becc
bebbee bbbe
bfbc fcc
a edbf
bf bebbebb
bbbb bcfc
bcc bbebd
dbe bcebc
ba bcec
bfc fbec
bbbf bbbbbbbb
bbed fbe
def bccc
ebdc fcc
eebe bbeec
bcbd bbebb
fbf efc
bebbc bbec
edcc dbd
bdcc ebc
ecbf ebc
ecbf bec
ecee ebec
ef bdeec
bcc bdebb
eec eea
bbd bfdc
bbd ebbed
bbbc befc
bebe beebc
dbb efbd
beee ded
dbbc bbebb
eef dbbd
bbef bbef
fdc ffc
eeec efc
edbd bbbe
bdbf bec
fbcc df
bca a
bedee ccc
dbbbd dbd
ebb dbbed
ef bbbbbbbb
bbc bfed
bbd ebecc
df beebe
bbf bcfc
dcc bbebb
dcc bbbf
ea dbec
fbc eeee
bebd dbbbb
becc bccc
bbfc ded
eeebb fc
bded dbd
edbc debb
bf bbebec
ef eeebf
dd eeebc
bef bbbcc
bbcc febb
dbf ecbc
debc bbec
eebd eecc
dfc bcbc
bedc fee
eedc bfc
eedc ddc
ecf bbebe
beef ba
dbbf ccc
fa ba
ecdd fc
eebbc bec
efcc df
ebbee dbd
ebbbd dee
bbbbebb bbbc
bedbbd cc
dd fdbc
bbd ecebc
bbd bceec
dbb fcbf
dec eeee
ebec eebd
bbed bbbbc
bebd bbdc
bebd beed
fbd ecbc
eccc bbec
bcec eecc
ecbd debb
bced bdc
bebbc ff
bdcc edc
ebbee bbcc
bd ebac
ed beeccc
ebb fbccc
ef eeebc
ef ebba
ebe efef
ebd ddcc
bbbe bea
bbbe bbbbbbc
ecbc bebf
eef dbbbb
bcbf eec
bebbc dec
fbbc bdc
eedd dee
ebbee ebbc
bedebd cc
bf ebdcc
ebb debdc
ebe fedc
bcc fbbd
bbbe bebbf
bbbd bccc
bbcc beed
ebec debe
ebcc bbebb
ac beee
def ea
ecbe edbd
bbebc ebbc
dbbd bef
bcebb dee
bbebd bebc
bdbf bbc
bbd bdee
df dbdc
fbc eeec
dbf eebc
bbed fed
eebe bbebf
dbbbb b</w>
dbcc bbf
bdbe bbbec
ebbee ecc
ddbd ccc
bbbccc ccc
ed ec</w>
ed dbbef
dd eac
ebc ecbcc
bbc bcccc
fc bfbd
bcc fdbe
eec ebccc
edc bcef
ebcc debc
ebdc debb
decc efc
bdf decc
ed de</w>
ed bedbbc
bbd dcdc
bbd eebbd
df bcbbc
df fecc
fbc beebb
fbd bedc
dbbc eebd
bbef beebb
bcbe dbbd
dbec ebec
bdbd bbee
eedc efc
dbcc edc
ecec ba
eddc dee
edbc bbed
ec ebb</w>
ebb fdebb
bbbe bcef
ff ecbf
bfc eeee
bbbd eecc
bcbc fbe
bcbc debc
ddc eeee
bbbbc bbbec
bbdd bef
bcee bbef
bba bbbf
ecbd ebf
eebf dd
ecec dbf
befc dbe
ebbcc bec
bddd bbbb
bdec edc
bf fea
ed fbccc
ecc eeccc
ebd bdbbc
bbf eeed
bbf dbbbe
ebf fbbbb
fcc ebdc
bbdc fbd
debc becc
bcee da
bedd bcc
bcebb bbebb
edcc dbe
edbd dec
ecdc a
bfbc bbbf
bbc bcbbbe
bec bedbc
eec bdbbc
bbd bbba
bbbe bded
dbc bcbe
bebe eef
dcc febb
fcc eeec
eccc bcec
bbebe edc
dbbbb ba
bba bbcc
debd bdc
bdcc ebd
ebbcc fc
edbc bbcc
dcbd dbe
bfbc ba
edec bbbc
bf eebbbc
ebe bbbbcc
bbc eedbe
bbbe bbebf
bebe ebbebb
bbec ebdc
bbec dfc
dbf bbdc
debb fed
debb bbdc
eebc fbf
eced ded
ebc bebbee
bec ecfc
ecc cccccc
eec eeef
eec dfcc
ebf edbd
dec ecec
bbebb efc
debb bbdd
eef decc
fdc bbbc
bced ef
bbeec a
bdbc eeee
bea ba
bdee ea
bdebb ccc
eedee ccc
ebe dded
eec bfed
bbd bfed
bbf ebfc
fee ebcc
bcbc eecc
beec ecbc
debe bef
eef dccc
debc efc
bbbec dec
eebf ebd
ffc dbd
beef bbbc
bbeec bebc
ecbf ebd
bf fded
dc eeebf
ebc eebbbe
ebc ecdbe
bbc eddd
bcc dbbbe
bcc bedbe
eec bcbcc
bbd bda
bbf bdef
dcc dedc
bbcc bebf
bcbc bcbe
debb bbebe
bbbf def
fef bfc
bcebb bcebb
fbbc edc
dccc ff
fa bbbb
bea ff
bcdd dbd
febd bec
ebbbc bebd
fbbdd cc
bc dbb</w>
dd ecdf
bbc eeeec
ecc ecf
ecc bebcc
bbd bbedc
df fbbd
bbbe debd
bbf edbd
bdc bddc
bdc efcc
dbc beebe
bebe ebdc
bebe fed
bebe fdd
bebe eeef
becc eedd
debc eebd
bccc beec
bdbd bebc
bebbc ebbc
ecee fec
bdbc dbbbb
bd dbfcc
ed fdbbc
ebe bcdee
ebf bebbbe
dee bcbec
beee fec
ebec beed
bbfc bbee
decc dbe
eedc bbbc
bcbf ebf
dcbd a
fdbb a
dc dac
dc eebef
ef eceec
ebe eedbe
ebc ebbbd
ebc bedbb
fc bcbbbb
dee febc
bbbd dddd
ebec beebb
ebec febb
bcbc bcbbc
ebcc edcc
debb febb
ac fcc
bebd deec
bcbd bbed
bebbc bbbd
fbbc bbee
bded eec
bdec ebf
feec a
bfbf ccc
fdbbf cc
df bbbcc
ff bdbf
bebc bcbe
bebc bebbbb
fbc da
bbbbc dcc
debc bef
bccc bbec
fbf eeee
bcec ecbc
eeebb eebf
bdbc bbdc
ebbbc beec
fdbb dd
a dbdc
ed dbfcc
dc bd</w>
ebc bcbbbe
bbc dcdc
df c</w>
dbd bedd
fee bdcc
bbebb eeebe
ddc fdd
becc ba
eef efef
bcbd def
bcec fed
bced dcc
bebbc bfc
ecee bbbf
ecee def
dc bc</w>
ef eedf
ebe eded
bec eddc
ebd eeef
bbbe bfcc
dbe eced
ccc eebc
bbbd bedd
fee eebe
bbebb fbe
eccc beee
ecbc bbbbc
debc eedc
bedc bedc
dbbd bbec
bbebd bbf
ebbbc dcc
ebc edbbc
fc bcecc
bec bcbcc
bcc bebcc
dbc bbbcc
bcbc ea
ebcc eeee
fec febb
eccc bbcc
bbdd bfc
bebf dec
ecf bbebc
edcc fcc
bfbc fbd
bbbcbbbc bbbcbbbc
ebc ecdf
fc fdbe
bec beccc
ebd beecc
bebe eba
ddc eeec
dbf ebcc
bbdd bbcc
bced bfc
eedd dec
bdec debb
bdbbbb bdbbbb
bfbd ff
a bcbec
ef ebbbbc
bbc bcdf
bbc bfdc
fc ecbec
ebd bbbdc
ebd dcdd
df eeed
dbb ebebf
beee eba
ebec ac
ebec dfc
fbd bbed
dbbbb bef
bebf eeee
debd ecc
febe ecc
bd bacc
bec ecebc
ebd eebcc
bcc bdef
dbe bebbd
fbc bcf
beec debe
fbd fbe
eecc beee
dbbc efc
ecbe deec
bbbbbbbb ebbbbbb
bebf bbbf
bedc debc
bedd becc
bcebb ff
dbbbe bbee
eced edc
bdbf dd
ebeebb eeee
a ecdd
a ebba
ed bbbccc
ebb fbbed
ebe dcec
bec fbbd
eec bebdc
bbf ebbcc
dbb ecbdc
dbd dbcc
bef befc
ddc ecbc
ebdc eebc
ebdc bebd
bcbd fec
beed dfc
bdbe b</w>
bdbe dbec
ebbebe bbbb
bebbdd cc
ed fbbebb
dd beebd
fc bdbbc
ebd bcbec
bbee fa
bebe ecbd
bbbd bbfc
eccc ebbc
bccc becc
dbbbb ebbc
bcec dedc
bbebc bebd
bba bbbbc
bbbec fbc
dbbd bfc
ebfc bbbc
ffc bbbc
bcdd dee
fdf ff
dced dbe
bfbc fed
a eac
ebb dbbebe
ebb bedbbbb
ebd ebecc
bcc dcdc
eec eedbe
edc ddcc
debe bccc
bdbd ef
dbcc bbbe
beebe eeebb
bcbf bebc
bec debbc
bbf ecebb
bbf bdebb
dbe dbbf
dbc eced
dbc bded
bbebb dcc
fdc ea
bedc bbee
eedc bbbb
beebe bbebe
bdf bbfc
bbccc bcc
bdec bcbc
be ebd</w>
bd eebccc
bf bedbd
bf bedec
ebe bcbbbc
bec bac
bbbe fbec
bdc edbd
ff bded
ebcc ecbc
dbf dfc
dbf febb
bbbf bbdc
ac debb
dbbc beec
beebb febb
bcbf ef
bebbbb ebf
eedd ddc
eddd dee
eded bbcdbf
edee bcbc
bbbb bdebe
ebe defc
bec bcecc
df ecdf
dbe eeed
dbe bea
bdc bfcc
dbc ecec
dbc febe
bbee dfc
dec bcbe
fbc bcdc
becc febb
fbd bbbf
bbdd bebd
bedc fed
decc bebc
befc ded
edbc ecbc
dc dbbbd
ebc bffc
fc dfcc
eec bdbc
eec deecc
df fdbe
bebe eebbbb
dbd eedc
dcc cccccc
fbe ebeebe
ebdc bef
dbbc ebec
eebe ebbbf
bcbe b</w>
deec dfc
dbbd bebd
ecee bbbbc
ebb deccc
ef ebbbbbb
ebc beccc
bcc eebec
bbbe bcbec
bdc dccc
bebe debe
dcc ecdd
bbbd dbec
def ac
eecc bccc
deec bbec
deec eedc
debd ebd
eeebb ea
bcebb dec
ffc fec
bebbbb bbebe
bbeec ded
dd eebbbb
bbc bceec
df edbf
bbbd bba
fee bba
fbf bbebb
bcec fbd
bbebc debb
bebf ebbc
eebf ea
fbbc bef
dbdc dee
eced dbd
bdf bbebe
bbebf bbbb
ebe bedbc
dd dba
bbc eded
bcc bcbec
bbd fedc
ba fdc
dec dccc
bbcc debe
ebcc fbe
eebf fbc
ecec debb
bcbf bef
eeef ebf
bcef a
bfbc eebc
bf fddc
ed fdef
ef fdbd
ebc dcbf
fc ddcc
eec bbbdc
bbf bebbbe
bbf fbbd
bdc bbbec
bbbf dbbbb
eeee eebebe
bbdc eebc
bbef ea
bbebc bbebb
bced efc
fdd dcc
ebbbc ba
ebbbd bbbc
bfbc beec
edee fbc
ec eebdcc
ebb fbbbbc
ebc dddd
fc debbc
ebd ebbebb
ebd debbc
eec bedbc
df fccc
dbc bcf
bbee bbebd
dbb ecbbf
bbbf bccc
eeee ac
def efc
bbdd dbf
bbdd debb
bbbec bef
ecf efcc
eeebb bbebe
fef bbbc
eebf bebc
edcc ded
a fecc
ebe beba
bec ecbec
ecc efdc
bbd edebb
bbf ebbebb
dbe eef
eeee bbbbc
ecbc debc
da ddc
deec efc
bdbd ba
bcebb bbec
ebbbc debb
bcbbbe bbbb
bbcbbbb bbbbc
ee bbeac
ebb befcc
bbc ebbbbc
bbc bcecc
fc dbbbc
ecc bdef
bbd fdbc
dbe bebcc
bdc bdbf
bebe fa
dbb fcdc
bebd dfc
dbbc ddc
debe bbebb
eebd beec
decc ebbc
bbbcc bebe
bebec bbbc
ebe bdfc
fc bebdc
bec eeebe
ecc bbccc
ebd bfdc
bbd bbebbc
bbf bded
bdc c</w>
ded bedd
ebcc eeec
becc dbf
eef debd
da ebf
bcbd dbf
febb dec
bebf bbec
bebf bcbc
bced bebe
fdd ebf
febe dd
eac df
bcbbd bbbb
bfbc bbbd
a eebbbb
ed bebbdc
ef ebbbd
ebc ebbebe
bbf bea
fbe ebbebe
fcc ac
fbd ebec
bbdc bbed
ecbe dccc
bbebc eebc
deec beec
beed bbcc
debd edc
bcebb bbee
dbbbe bbbd
ecee efc
befc dec
ecdecc cc
bd bcbccc
ed dbbfc
ebd eded
ebd ecbbd
eec fccc
ba ebcc
dbd bbcdbf
bebc bbfc
ded dedc
fec bbebb
eebe ebbbbbb
debc fee
bcbbc dbe
bddc bec
bfbc bbcc
eebbee beee
bbbb beebd
bbbb fbbbc
bbc bdf
ecc bceec
bcc bea
bdc ecbf
ea dca
bbec bbfc
ebcc bbbf
fbe dccc
debc bcbc
eebd ea
bccc efc
fdc ebcc
bedc dcc
cccc dee
debd bebe
eebf bbbc
fbbc dd
ebbcc ecc
bddc bddc
dcbc bbee
ebb fac
ef dea
ef fdcc
dd eebcc
ebc ecdee
bbc bbedc
eec bdec
ff bcdd
ff bcfc
ccc ebec
dbb edbcc
bbec eeec
bbebb fbbbb
fed eebc
bbebc bfc
febb bfc
dbbd beee
ebfc dec
dbdc a
fbcc a
eea beee
bbbb beeec
ebe dcef
ebe bbcbbbb
ebe bbcbd
ebc bcbbf
ebd bdbbbb
bbd bcebd
fee ecbc
bbbbc ded
bbebe ea
debc fed
da bbbc
fdc debb
deec ddc
bebf beebb
fbbc ecc
edbd bbcdbf
dbdc dbc
bdbc becc
bcbbc dee
fbcc bec
bfbd eec
bedbb bec
ee bbc</w>
dc beded
ebe beccc
dd edbbc
ebc bbebbc
ebc ebbbbbb
bcc ecf
bcc ecee
df eeebb
ff dbbbb
fcc bbbf
ebdc fbd
eecc bebd
debe ea
dbec fbc
fbf dbf
beed fee
bba bbec
bebf dbd
bbfc bcbc
bdbd ddc
bedc eedc
decc dbc
febe dcc
bcbbbb ccc
edee bbbd
bf ebfcc
ebb fbecc
ebb bebbebc
ef bdbbbb
ebc debec
ebc bdebc
bbc bb</w>
bbc fedc
fc bcebd
df ecf
edc eded
bbbc bcdd
bced ecc
ecec eccc
bebbc bdc
fbbc ebd
fbec a
fbbd bec
bbbbcc ccc
edec ded
bbbb bebbee
dd bca
ebc d</w>
bcc ecbbc
df befc
df bdef
bbbe dbbf
bebe b</w>
dbb dcfc
fbd bbebb
fbd ffc
debc bbbd
fbf bccc
bbbec bdc
bbbcc bbbd
fdd becc
beef dbe
bdbe dfc
bdee bbdc
dcbc ddc
dd eedbe
ebc edbc
bec dbfc
ff fbcc
dbb efebb
dcc bcdd
bcbc ac
bebd ecbc
ebdc eebd
debc ebcc
bbef bbcc
bcbf dbc
bedd ef
fbbc dec
ebbebb a
febd ccc
bfec bbf
bebba cc
a eedd
bcc fbbf
dbe bddd
ebf ebfc
dbb efebe
ea dba
bebc deec
bebc debd
bbed deec
fbd dbbc
dbec becc
bcbd fcc
bcee debe
bbbec beec
eebf eebf
bdbc dbbc
bbba bba
bfbd dee
edef ccc
edee ba
d ea</w>
ec bf</w>
bf fbbbf
ebb bebbbbbbbb
ef ecebe
dd bbccc
dd fdee
fc bebbbe
ecc edbc
eec d</w>
eec eeebc
ebf eeed
bef eba
ebec eedc
bcbc bbdd
fec eebd
fec fa
bbed b</w>
bbed dbbc
eccc fed
ecbe decc
bbfc dbd
bcbf bbee
bdbe da
bdf bba
bbbbbd dbbbb
ef bbea
ebe efebe
fc dcbf
fc eeeec
bbd bfebb
ebf eba
edc e</w>
bbbc fdd
dbd dbdc
bbbd bcec
fbc ecdc
ebec bedd
debb ddc
ecbc eebd
bbdd ebbc
dbec fee
bcbd efc
bdbd bef
ecbd efc
bebbbb bbcc
fbbc bfc
ecbf dcc
ecdf ccc
bbbbbbbbbbbb bbbbc
ef bbcbbc
ebd bceec
eec eeecc
df beebc
bdc dbbbe
ff edcc
dec bded
dec bcdd
bbed bedc
beec bbbbc
fbd bbdc
debe debb
dfc ddc
beebb bfc
deec ba
bced bbbe
ecdc fcc
bdcc dbc
dcdd ddc
ebe bbcbbc
fc bbebf
ecc ecebe
dbe bbecc
fec eccc
beec febb
ecbc bedc
bcbe bfcc
dfc def
bccc ebbc
eeec bbbbc
ecdc bbbe
ebbee bfc
ebbed ccc
dcbc ebf
edee fee
bd bbeccc
dbe ebfc
bbbc ebbebb
bef bcef
beee beed
eccc fee
fdc bbee
eeebb dbd
bcdc ddc
eddc bec
a ecf
bbc ecee
fc dbecc
ecc ecee
dbb ecff
bbec dbbbb
dbf bcbd
ebdc beee
ebdc bbcc
ecbe dbbd
fdc bbbd
bebf bebf
bdbd edc
bedc ebcc
bced ddc
eebbbb bebe
ebbed dee
ddbd dee
ed beebec
ef ecbbd
dd bebbbe
ebc eeccc
ebc bfbbc
ebf bcbbc
ff dbbd
ff febc
dbb ebedc
ebbc da
beee ebec
beec bebbc
eebc fbe
ecbc fbe
eedc bbee
ffc bef
ecdd dbe
bdee fbd
bebbd ccc
eebbbb bbbd
ecbbc dee
ebbbc bbebe
edee bebc
a bebbbe
bd deba
dd bcdf
ebd fbdc
df bcebc
bbf eba
bfc befc
dcc eebe
fec debd
bbbf ddc
bbbf bebbc
eebc fdd
ebdc fee
eef bbebf
fbf ea
bdbd ebf
bced bbbc
eeed bbcc
fbbc bebe
ebbcc bbbb
bdec bbbd
edec edc
fcccc ccc
a eddc
dc ebeebb
ef ebbdc
dd dfcc
bbee debe
dbb ebeed
ebbc bbbcc
fbc ecbd
bcbc bbebe
def becc
bbdc dbf
bbef fbd
bbdd beee
dbec fed
beebb ea
eedc eebc
febe bdc
dcec ddc
bf fbbebb
ef bcedc
ebe bedee
dd acc
ebd bcbbd
dee decc
dee bbbcc
bbee bcbbc
bfc bcf
ebbc eedd
fbc bcebb
debc debe
bbef efc
dbbbb bebbbb
bcbd bebd
bebf fbd
decc ebcc
bcbbbb bbcc
eebbc bcc
eea ccc
dcbd bec
bbbbbbc bbbc
a fea
ebc beff
ebc bcdee
bbc ecbbbb
dbe fbbbb
dbc bcbbc
bbec bebbbb
fbc bcee
fcc bedd
fbd eebd
bbdc becc
debc ebec
eeec eeee
bea bbf
bbdbd bbbd
dc beddc
bbbe ebfc
bbbe ebbebe
ebbc bcbbc
bbcc bcec
bbed eecc
debe ecbc
bcbe ebbebb
dbec debb
deec bbbb
bced edc
bced def
fdd bbf
bdbe bbfc
dcbc efc
bfec dcc
dcee dbf
eccecc eccecc
a ecbbc
a beac
dc fbbcc
ef dbbcc
dd eeeec
bec fbdc
bcc bdbc
bcc ecef
bbbe eedc
dbe bcfc
ebf deec
beee bcec
bbbbc bcbbc
eebc bbebe
eecc bedf
bedc eebd
fdd bebc
beebe ecc
eedd fcc
ecbf bbbb
bdec bbee
ebbbd bbbd
ebbec dec
dc eb</w>
ef eda
ebe bdbbd
ebc eebbf
fc ecbcc
ff eedc
dee d</w>
bef dbbd
dcc fef
bcbc bebbc
ebdc dbf
dfc bbbd
ebfc eec
dbcc bebe
bbbcc dbc
bbebd bbc
eedd dbd
bea ccc
bddd df
efcc a
bdec ebbc
edbc ebcc
dcec bdc
ebe ecbbd
ebd dced
bcc e</w>
bbd ecfc
ff c</w>
bbbc ffc
bbbc bbeec
bfc debd
dbd ecbd
ded beebc
fec bbbbc
ac becc
febb ea
bdbd dbbbb
decc ecbc
dccc ddc
debf ccc
eebbc dbe
fbbbb bebe
ed bedebe
dc bebbbd
fc beccc
fc dded
ecc eeebc
ebd bcebd
bcc eba
dee bcfc
dbb efef
ebbc edcc
ebcc fbf
bbbbc dbbc
eebc debd
bebd def
eebd bbebb
da bbbd
eeec bbebb
fdd bbbb
febe bec
eedd dcc
fa bdc
bdbc b</w>
ecdd bec
bebbbc bbbb
bbc eebbd
bcc bfbf
df bcbec
edc bcf
bbbc deec
bfc bbbec
bfc dedc
dec fef
bebc bcbf
ebcc ffc
fec fecc
fcc fbf
beebb debb
bbebc edc
beed dbf
febb bbcc
dbcc ebf
bced debb
bdbe dbbd
bdef ccc
fdbbbb cc
dd ecebc
ebc dfcc
ebd ecbec
eec bbccc
bbbc bdcc
bef dbbbb
dcc bbef
bebc bbbec
fcc bbed
bbbbc dbf
bbbbc bcebb
bebd bbdd
ebdc becc
fed debe
dbbc fbd
bbbbbbbb bbcbbbb
bbebc ded
bebf becc
ecbd fbd
fdd fee
fbbc ebf
edbd bbf
dbbf bbf
ebbec bbf
dcee beec
ed bebbbbc
dc be</w>
ebe fdee
bbc bfebb
bcc eebbbb
bbd eebcc
bbd bebdc
bbbe dbbbc
dee bddc
dec bcbf
fbe ebbcc
ddc debe
fec bdbd
debb dbbbb
bbbf fed
bbebe bbed
eef dbdc
bedc bcbc
dccc edc
ecbf bdc
eeef beef
eddd edc
ebbec dbc
a dddd
dc ebfcc
ecc debf
bbd ecbbbb
bbee bcbf
bfc ecbd
ebbc eeed
bef bcbbc
ebcc ac
fcc decc
bbbbc bbdd
dbec dbec
deec deec
bcbbbb bcbc
bddd bdc
ef dfcc
bec eedbe
ecc eebbbb
bcc d</w>
bcc dbbbc
bbbe ebbbf
dbe eddc
ebf bcebe
ba bbdd
ff bfcc
dee bcbbc
bbee bbbcc
bbcc bbebe
ecec fbd
eeebe bbebe
edbc beec
dcbc beee
eebebe bebe
bf bebbbf
dd bfbd
ebd bebbf
eec dced
df bebbbb
bef dbcc
bbec fdc
fbc eeed
bbcc eeed
bbbbc bebbc
eebe ebeebb
eebe ebeef
ecbe bfcc
eebd eebd
dfc fec
febb dcc
eeec bbdc
dedc eebc
fbbd bbbb
bddbe bbee
bf bedcc
ebb bebccc
ef bbbbcc
ebc bcccc
bec bdbbc
bec ecbcc
ecc ecbec
df bcdf
bbf edcc
bbf eebbbb
dbe fdf
bbbc dbcc
efc dbcc
bbec beebc
fcc bcec
fed bbbf
eebe bfbf
beebb eebf
febb bcbc
ecf bbbec
dedc ef
bdcc dbd
fbbbb a
eea ff
bedecc cc
abca bdbf
eaea eaea
ebc bdbe
bbc bedee
bec dcdc
bbd eedbe
bbbe eebbbe
bdc ecebb
dee bcebc
dbc beef
ea beef
ded d</w>
bbebb fbf
fec bcdc
eccc ebcc
fed cccc
eecc fee
debc beec
ebfc fbc
bced dbf
ecec ecbc
fa fee
ecee dbcc
febc eec
eddd dbd
bbbbbbbc bbbb
bd dbb</w>
bbc bfef
bec bbccc
ecc eba
bbd bdfc
ebf ecbf
bdc bbbcc
bbcc ecbc
becc ddc
debe ebcc
beed bcbc
eeec eebcbedf
ebbcc df
ebbbd bbee
dcbc bfc
edee dbf
a eefc
bf bbebcc
ef eebef
ebe bfbc
bbc debbc
fc dcdd
bcc ecfc
eec bfbf
bbd dced
bdc febd
bbbc beebc
dee fef
ccc eeee
dbc befc
bebe ebbbbbb
ebbc bcf
beee bcdc
bbcc bcbf
ebec bebbc
bbbf bcbd
bbdc eebd
bcee ecbd
bdbd fbc
bdbc eecc
bebec df
dcec bef
eebbebe cc
ebe dcdd
ecc bdebb
bbd bac
bbd bcdf
ff bcbbc
ebec fdc
fec dbcc
da bebe
fbf ddc
bedc ba
cccc dcc
febe dbe
dccc eec
dccc ded
eeef ba
fbbd a
edec fbc
ef bcbbbe
dd bcbcc
fc eddd
fc bedbc
ebd bdef
ebbc fbec
ecbc eccc
dbbc becc
dfc bebe
bccc eccc
bbebc dec
decc ecdc
eeebb bbbd
eeebb bbcc
ecec ef
ffc bbbb
dedc dbe
eeebe beef
ecbbc bbc
bedbe ccc
bcbccc ccc
bf bbbecc
dc fbbec
ecc fbdc
bbd fdee
bbbe ecbf
bbee ecbd
dbd bcee
dcc bdbd
bbec fbbc
bbebb ecbc
ddc eedc
ecbe bba
bccc eecc
dbec ddc
fdc bebd
bedd fbc
ffc becc
bbecc a
bdcc bdcc
bfec bebe
ebb bebbdc
dd fbbbe
dd eeecc
bbc ebbed
ebd bbbbbbbb
eec bfbd
bbd ecee
bebe bebbee
bfc bcee
ebbc edbd
bebc beebe
dbf bcec
bbed eebd
bbbbc eebc
eef ebfc
bccc bbbd
fbf fec
fdc ba
fdd ea
bdbc bbdd
bcbbbb bbf
fbbbb bbbf
fdbe ccc
ebbbc fec
ebd bfbf
ff decc
dbc bba
ebbc decc
dec bbfc
ded bcdc
beee efc
bcbc bcdc
ebcc eedd
bbed dfc
fcc beed
fcc bebf
fcc ecdc
eeee beec
bebd bcbd
fbd bcbd
bbebc ebf
eba bec
ecbd bbbd
dbdc bdc
bfcc edc
eddc eec
dba a
dc bbcbbbb
ebe dcebc
bbc eeecc
bec beedc
bbd ebbbbc
dee dced
bbee bded
ebbc bcdc
ded ac
beee eebebe
bbebb dbbc
dbec ebf
bcec dfc
deec debc
eedc ebf
fdd bebe
bcbf bdc
bdee fee
bddd dbe
dbbbd dbbbd
fbba cc
efcbbebd eecbf
bfcbbefbedddcbbdfddeecfdcecddbccffcecebebdbbbe ddddbebeecebc
a bcac
bbc bcebd
ecc dbbbe
ebd fccc
bcc bca
dee febe
bfc febc
ebec eccc
ebcc beed
debb debe
bbed bbdc
eecc ba
bcf debd
beebb bebf
beebb bebbbb
decc edcc
bbbcc beecc
dbbf bbbe
bded fc
bebec bbbe
edbc bebd
dcbc bbec
ebb db</w>
bbbb e</w>
bbc bfbd
ebd bebbee
edc ecebb
bfc bcebb
ebbc deec
ebbc fef
bbebb eebbbb
debb bebbc
eeee dbf
fed fdc
bccc beee
beed def
bfcc ebc
bea df
eebbc dbc
bdee def
bedf ccc
ebbbd ccc
eedebd cc
ef eeccc
ef fba
bec ebbbf
ebd eeebc
eec bedcc
edc bedbe
ff bedd
dbb dcdf
ebcc bbebe
ebcc bcec
fbe c</w>
bbed bcec
eecc eddc
bcbbc a
fbec ff
bebbd a
edbc eebc
edbc becc
ecebc ddbd
bedbb fc
bd debbcc
ed fdfc
dc bbebec
ebc bbbfc
ebc eeeec
bbc bdbe
bbd eeeec
dbe e</w>
dec bbef
fbc bbebe
beee da
ebec deec
bcbc bbbcc
debc bedc
bbef dbf
bbdd fee
beebb bcbc
debd bbf
eebf bfc
beebe ba
eeed bebe
bebbd bec
eebbee eeee
bbbbbd bbbc
a feec
ebb bbebbbbbb
ef bcdbc
ebe bcff
dd bddf
ecc fbbd
dbb eddee
bebc fbbc
fec bebbc
bbbf bcebb
beec bbebe
ecbc fbf
ebdc ebdc
eebd debe
eba bebe
beef dbc
eeef eeef
edbc dbf
bcbbebc cc
eedbbbb cc
ebb bbebdc
fc bdf
eec fbdc
ff fbbbb
bbbd d</w>
fec eeec
bbbf debe
becc ecdc
da ded
bba bca
bced bbee
eeed bfc
bbebd a
edbd dcc
ecdd ddc
bfbc debb
eebeee bbee
efed ccc
ecdebd cc
bbbb ebbed
ebe edebb
ecc bdbc
ecc dced
df ecbec
ebf debd
dee bebcc
ebbc debd
ea bbdc
efc fecc
fec beebb
eef bfbf
bcf efcc
dfc ba
eeed ba
bdbf dbe
ecdd dcc
bdec ba
bcfc ff
ebbbf bbf
eebbbe bbbe
acc ccc
bb ebf</w>
dc fba
ef bcdee
ebc dcec
ebc beedc
ebd eedbe
bcc ddcc
bbd bcbbbe
dee bcef
dbc ecbf
bef bebbbb
fee bcee
eebc febc
becc bbebb
becc beed
eef e</w>
bbef dcc
bbef eeee
fdc bbec
eedc bbec
ebfc bdc
ecf dbbbb
ecf dbbd
bcbf dec
bdcc dcc
bdee bbbf
bdee dbec
ed beeecc
bbbb eeebc
ebe bdeec
bbc ecfc
bec d</w>
bcc bbbdc
eec ecbcc
bbbc eccc
bbee bdcc
bfc eeebb
ebbc ecbe
ea bbbbc
bbcc ac
bcbc febb
ebcc bbdc
bbfc bbebb
dedc eedc
eeebe eebf
bdbf bdc
fbbbe bbbb
bd bebdcc
ebb fbbef
ebb fbbebe
ef ebbed
ef debcc
dd bdfc
bbc bfbbc
ecc bfdc
ebd eebbd
bcc ecebe
bcc fedc
eec ebbebb
bbd fbdc
dbc edbd
bfc bdbd
ebec dbec
ebec fbf
bba beee
bbfc fee
bedc bef
ffc bebc
bbebd dbe
ebbcc dbe
bdee bbbbc
ecbbc fc
dcbc beec
acc ac
edee bbec
bbbb fdf
ebe bebbbd
ebc bedbd
bbc fccc
df d</w>
bbbc bbebd
dbb ecccc
dbbbb ebf
bcdc edc
bdf dbbd
ecebb bbf
bddc dbc
dd fdcc
ecc beecc
bbd bbdbbbb
ba beed
bbee bbbbbbbb
dec dbdc
dec bdcc
ded debd
fcc fa
fbd eedc
def bbed
bbebc fbc
deec bbbd
bdbd bcbc
bcebb bbbd
fbbbb bbebb
bedf fc
dcbc fbc
eebebe beee
bfec bbbc
ee decccc
bf fdbbc
ed dc</w>
dc bedbf
bbc bbba
df fbbf
dbe dccc
ff bbbec
dee bebbbb
dee bbebd
dee bdebb
bfc fdd
dbd bded
ea becc
ea eca
bebc dbec
efc eeee
eebd fee
eeebb ebd
febe bbbc
febe fbc
fbbc bbec
bac bbf
bbc dddd
bbc eebcc
fc ebbebb
fc dcec
bec fbbf
ecc ecccc
bbbe bbebbc
ff fbec
dbb ecbbbc
ebbc fdd
dbd bcdd
ded fbe
ebec bebf
fec fbe
eecc dbf
eef bfef
dfc becc
bba bebc
eeebb fbc
eebf ebbc
bedd bbf
eced eec
dcbc bbcc
ebbec bbec
ef ebbee
ef dddc
bbc ddcc
bbc bdbec
ebd ebccc
bdc eebbc
bfc ebfc
beee bebbc
eecc bcec
debc eccc
eedc eccc
ebfc ebf
bcebb dd
dccc dec
eeef bbbb
bfbc bbebb
bfec ba
eebbebc cc
ef edfc
ebe bcbebe
bbc bcdbe
fc eeecc
bec dced
eec bebbf
dbe dbdc
edc debf
ff dbbf
ded dbcc
ded beecc
bebd debd
bbdc bcbd
beebb bebd
bbfc beec
decc decc
eedc fbd
ecec def
bebbc bebbc
edcc bdc
efcc edc
ebbbbbb bebbbb
ebbbc fbd
dcbd eec
ebeebe eeee
ef ebeebb
ebe bcdbc
bbc bbbfc
bbc bebbee
bec ecdd
bec bdef
bec bbbbcc
bcc debf
bbd eeecc
dee fa
dbc bdcc
bbee bea
ebbc b</w>
ebbc ecdc
dbd ffc
efc fbbc
beee dbbbb
fee bedc
bcbc dbbbb
ac eeee
eebc bbdd
debc dcc
fdc ebec
deec fbc
beed ebf
bebf fec
eeebe ba
eded a
efbd ccc
dc ebba
ebe ebbdc
dd fdbd
ebc bcbbbc
bec bcbbd
bbbe bcbbbe
bbee bcbbbb
dbd bbef
efc bebbc
ebcc bbef
ebcc fdd
fbe bbecc
ddc c</w>
ddc ea
fbf becc
bbfc debb
ecbd beee
ecbd beec
eeebb beef
beebe bebf
febe ba
ecebb a
bcebe bbbc
dcbc def
bfec fec
ebbec bebe
ecda cc
ebb bedbbc
bbbb bdbe
bbbb bfebb
ef bcbbbc
edc ebbcc
ff eba
dec fdd
bbcc bbdd
fec fef
debb dbbc
bbed bcbd
bbbbc becc
ecbc eeee
ecbe bbbcc
ecbe dbbf
beed dbbc
febb bbbf
bdbf bcc
fdee ccc
edec ebd
dbccc ccc
bf eeba
ebb beebcc
ef aa
ebe beedc
dd eeccc
ebc ecbbbb
bbd bcbbbc
bbbe bebbee
bbf eeef
bebe dfc
dbb ebedd
dbd eeed
bbbd dbbbe
bebc decc
bbebb fcc
beec bcec
deec ea
bcebb bfc
dedc dbc
bdbc ea
eebbc fc
bddc eec
bdec fee
bbeba cc
eedbb ccc
bd bbcccc
bbbb bcbbf
dd eebbd
ecc fdbc
ebd dddc
edc eebcc
ff e</w>
bbbc fbec
bebe fbbbb
dcc dbcc
bbbd dfc
efc bcdc
beee bcbf
bcbc eeed
ebcc eeed
fbe ecbbc
dbbc debe
bedd ddc
bebbc bcbc
bebbbb ebbc
febc dbe
bcbec dee
bfbc dbf
bccbcc bccbcc
bf beea
bf eefbe
bec eea
ecc ecdee
eec dcdd
ff eeebb
bebe da
bef bdbf
fbe bddc
bbbf fdc
ac bbcc
eebc eeee
fed dbec
eef dbbf
bcf decc
bba ea
bedc ebec
dbbd fbc
dbbd bbcc
ecbd fec
eeebb bdc
dcec fee
eeda cc
dd bdbe
ebc fdbd
bcc eedbe
ebf bea
edc c</w>
dee eedc
dee beef
bcbc bcbcc
ebcc bbbbc
dbf bbbbc
bbed bbebe
bbebc bbbbc
eebf fcc
ecee bebd
dbbbc bbbc
bdee ecbc
efcc fc
edbf a
eeebc bbf
babca bdbf
ed bedef
ebb dbbdc
ef deecc
ef ececc
dd bac
bec bbebf
bec bebbf
ecc eebec
bbd bbbbebb
dbe ecdd
bdc befc
edc ebecc
bfc eeed
dbd beebe
bbebb bbbcc
fbe ecec
eebc edcc
fed dbbc
eebe bfcc
bdf deec
beebc bbf
dbbbc ccc
ebbbd dbc
dcbd dec
fbbcc fee
bcdbb ccc
ef bdbbd
ebe bcbbee
bec bbedc
ecc dcdd
bbd bedbc
bbbe eeed
dbe eeebe
dbe fbec
bdc d</w>
edc eeef
bebe bcebc
ebbc beef
ebbc bded
dbd decc
dbd fef
bbec ffc
ddc dbbc
debb debc
debb bedc
bbbbc b</w>
ebdc beec
eecc ac
bdbd bfc
bced ebd
fdd eebc
febc dec
eebbc bbbc
fecc ff
ddbd dbc
ed bbb</w>
ebe ecdbe
fc eebbbb
ebd beeec
bcc ebccc
eec debcc
bdc fbcc
edc bba
bef bdebb
ea dbbc
ea eeebe
bebc dbbbb
ded bbbf
beee ebbebb
bcbc bedc
eeee bbdc
deec bebd
eeec bbbf
bbbec ded
dbbd fee
ecf dccc
bcbf dcc
bdcc dec
bea bbbe
ebbcc ebc
bdbbbb dbbbb
dcbd dbc
ebbebe bebe
bbbbbbbbbbbb bbbd
bc ef</w>
bd cccccc
ebc bbcbbc
fc fdbc
bec bebdc
ebd fdbc
bcc fccc
edc bbebc
fbc decc
beee bedc
bcbc fef
ebcc debe
ddc bdbd
beec debd
fdc debc
eba bcc
bcbbc ff
bdee ac
bdec def
bebbd bbbc
bebebebe bebebebe
ed bbebdc
ebe dcebe
ebe bcedc
ebc eebdc
ecc beccc
ebf fbec
edc fdf
ebbc bba
bbef fec
eebd dbbc
da fcc
dbec eebc
deec fed
eba bbbd
bedd eecc
edcc fec
ecee bbdd
bcbbc bebe
bcbbc bbbbc
fbbd ff
edbc fed
dddd dcc
ebbbc fcc
ddcc ddcc
ebbed df
ebbebe bbee
dc db</w>
bbbb edbf
bbc ebccc
fc ecdf
ebd ecfc
edc eeebe
edc fbcc
ba bbebc
dbb dcee
ea fdc
bbec decc
fbe bdef
bebd b</w>
bccc ccccccc
beebb dec
bdbd bbdd
bcbbbb bebe
bdbf ff
beebc a
fbbbb ccc
bebec dee
bddc dbe
bfdc df
bfc decc
bebc eebf
bbcc bdbd
ddc bedd
bbed da
eebe ebfc
eef ebbebb
bcbd debe
bcee ebdc
eeec eccc
dedc fc
ecebb dbe
bcef dee
bdec fcc
bfbc dcc
bd bf</w>
ed fbbed
dc beebbc
dc bebbcc
bbbb ebbbc
ef edebb
ebe bddf
ebc ececc
bec ebccc
bec defc
ebf bebcc
ebbc dbbd
dbd bcdc
ea beed
beee ebdc
fec bced
eecc ecbd
eebd fed
dfc debb
bebf eebc
eba bbf
fdd fcc
bdee ebec
bca bba
ebbee dbf
ef ebebf
dd efdc
bcc ecbec
bbbc ebbbbbb
beee bcebb
fbe e</w>
fbe bbebf
becc bbdc
eebd eccc
edcc bbf
fa dcc
febc bbf
dcec def
ebbec bef
abf ac
a bebbf
ef fbfc
ebc eceec
fc efdc
ebd ecebe
df eddd
bbbe ebbcc
ebf beebc
bdc bba
ba ecbc
ba fbbbb
bfc bcbe
bfc bdcc
ebbc eeebb
ded bebf
fbc eebf
beec eccc
beec bebf
dfc bbcc
dfc bbed
dbbbb bcbbbb
bbbbbbbb bbec
bcec eedc
fef dec
beebe dbc
bbebd dee
dbbf dbc
bdf bbebc
bea dbc
eebbbb bbf
febd dd
ebc edebb
bbc bcdee
eec eebbd
df eebbc
bbee bdebb
bfc dbcc
bfc bcdc
dbb efbbc
ea eebc
ea bcbf
fbc ecec
beee bbdd
bbebb fed
bcf bbecc
dbbbb ff
bddc a
bfbf bbf
bfbd fc
bcbbef cc
bd bbd</w>
bcc ecebc
bdc fdf
bdc feec
bbbc debd
bbbc ecebb
bbbc bebbbe
dbd befc
bef bcfc
ea eeef
fbc bebbc
bcbc b</w>
bbbf dbbc
fbd bccc
ecbe debd
febb efc
fa dbc
bdbf bbf
efcc ff
edbc eebd
bfbf ff
fbbbe bbbe
bfbc bebd
bbbb eedd
bcc ebbebb
eec fdf
bbd bedee
bbbe ebbbbc
dbe bebbbe
ebf bcfc
ebf fdf
dee c</w>
bbee bcdc
dec bbbec
ebec ecbd
debc ba
eedc bebe
ecbd def
bcbf fcc
dedc eccc
fbbc ebe
dbbbe dd
bcbbc dbc
fbec fc
ebbbc dbf
dcec deec
ef ecdbe
bbc bbbbebb
bec bdbc
ecc dfcc
ecc eddf
ebd bdebe
df ecbbc
bbbe fecc
ebf bcebc
fbc debd
ebec da
debb beebb
debe fee
eef c</w>
eef ebeebe
fdc beee
eeec bbed
eeec ac
eeec febb
bbbcc dee
bedd bebe
bedd bbbd
eeed bbbd
edcc edcc
beef dee
beebc bbbc
bebbd bbf
dcdc df
eebbee bebe
a bddf
ebb bbeccc
ebe dddd
ebc edebc
ecc dbbf
ecc bcdf
ccc debb
ccc beed
dbd eebe
bebc ffc
efc ecdc
eeee bbed
bbbbc bebf
bbebe dec
eebd ebdc
dfc beed
bdbd dbf
dbbd bbed
fef fcc
bebec dbe
bddd dcc
dcdc ddc
ebb bebba
ef edbec
ebc debcc
ebc bedcc
bbc bcbbf
fc eedf
fc fbfc
ebd bebdc
eec beedc
dee eba
dbd bcbe
bef debd
bebc bbbcc
bebc febc
bbebb bdbd
ebec bbdd
fec fbf
fbd bebf
def beee
ecbc bbdc
eeebe bebf
bfcc bbf
befc dd
eebbc dd
bddd a
dcbc bbbd
dc eebbee
ebe eeccc
ebe bbdcc
bbc fdbc
fc bdebe
ecc ecbcc
ebcc bebf
ddc bbebb
eebc edbd
eecc debb
bbef bbed
bcee bbbec
eeec dfc
dbcc fec
fdd dfc
bedd bbbc
eedd fbd
bdbe bba
ebbcc dee
edbc def
bfbd dbe
bfec fbc
eeddc edbbc
ebe efebb
ebc bcdbc
fc eeccc
bec bceec
eec bcdf
eec eedbc
bbd bdf
ebf fbbf
ccc bcec
bebe bebec
dbb effc
eeec da
bbfc bebe
ebfc dd
bced fbc
bebbbb beebb
eced bbbb
ecdd fcc
bdee dbbc
bddd bbbd
fbbd ccc
dcbd ded
edec bbbe
eebbebb fed
bbfa bba
a bedf
ebb bbeecc
bbc dced
bbc bebdc
fc eebec
ebd fbbf
df ebbcc
df bdebb
dbe fdbe
bdc bcbbc
fee bea
eebe eddc
debe fec
debe dbbc
bbfc bbbd
eeebb bebf
bebbc bbcc
bdcc bbbb
ecee bbebe
febc fbc
bcbbbb bbd
eebbc dee
fbbbb bbd
bbbbbbc bbbbbbc
dac da
bbc ebbbd
bcc bcbbd
ebf dbbf
edc beebc
dbc c</w>
ebbc ecec
fee bcdc
ebcc dfc
fbe ebbbf
ddc deec
ac bebd
ecbc beebb
fed bccc
eecc bedc
fbbc bebc
fa dee
ecee dccc
bddc dee
bdec bbed
bfed dee
a bbccc
a bebcc
dd beccc
ebd defc
bbbe bcfc
ea b</w>
ea eebf
efc bced
ded bcebb
beee eebeee
fee fed
eeee bcbd
ac dfc
def bcec
eecc edbd
debe ddc
fbf bebf
eedc ebec
eeed fbc
bdbe ebdc
befc bebc
bddc dbd
be deb</w>
bbbb eebec
ef ddbd
ebe bffc
ebc bdf
bbf fdbe
ded bebbc
ebec bcbf
bcbc bcee
dbf bebf
deec ebcc
febb fbd
eeec dbec
bdbd b</w>
bbbec ecc
eedc bcbc
bded bdc
befc bbf
bdec beee
bebbd bbbe
edbc bbebb
bfbd bebc
bf dbbbbc
ebb bbbbbbbbbbbbbbbb
bbbb dddd
dd dbfc
ebc bfebb
fc bfebb
bec bbbbbbbb
bec eebbd
eec bcbbd
bbd ebccc
ebf b</w>
edc fdbe
ba bebbc
ccc bcee
dbc fdf
dcc ecbf
fcc fef
bbbbc edc
bbbbc fec
eebe ebbee
bcbe decc
bcbd fbd
bcec bbdc
deec bebe
beed eebc
bebbbb bef
bbeec bebe
dbbbe bbebb
dc fbbbd
dd bedee
ebc bbbbbbc
bbc bedbc
ebd ddbd
df eeef
df dced
bdc beebc
dbc fa
eeee dbbc
becc bcbd
eebe bbecc
debc dbf
bbef fbe
bcbe edcc
fdc decc
bdbd bebd
bcdd dbe
eebbc bebe
bddd dee
bdbbbb bbebb
a acc
ee a</w>
ed bbeccc
dd bcecc
fc bcccc
eec eebbbb
bbd febf
df efcc
bfc dbbbb
debb fbe
beec beebe
ecbc bbebe
eebe bbebd
debe bebd
bbef edc
fbf ded
bbfc bbcc
dbbd bbebb
ebfc ecc
bced fec
bedd eebc
ecee dbbbb
bded bbf
ebbbc ebec
efbf ff
dc dbbdd
ebe bfa
bbc bdebc
fc dbbee
bcc bfed
bcc eedf
dec bcf
dbd c</w>
dcc eef
bebc bcf
beee fbbc
bbed bebf
ac bbed
ecbc ac
da bbee
bcbd ebec
ecbd bbcc
bedd bfc
ffc efc
bfcc fbc
dcec ebd
bbbb bac
ef efdc
ebe dba
ebe bcbdc
ebc eeebd
ecc ececc
bdc bebbbb
ccc fdc
dcc ecbe
efc fa
ded dccc
eebc bebbc
dbbc def
bbdd fec
dbec edc
bcee fed
febb fec
eedc fed
ebfc bfc
eeebb bebc
fdd fed
ecdd fbc
fbcc bbf
a bfbf
f deb</w>
dc ebeebe
ef f</w>
ebe eedf
ebe eeebd
ebe eeba
dbe bcbbbb
ccc ebcc
dcc febe
ea eebd
efc befc
bbdd fbd
beed fbd
bedc eccc
bced ebbc
bcebb dbc
beef beebe
eedd ded
dcec bbf
dcee bfc
dc beba
ef fdbb
dd bbedc
ebc bdbec
bec bfbf
ebd eac
ebf eea
bdc fbbd
ff dbdc
fee eccc
ddc bedc
bbbf fef
dbbc dbbbb
dbec ebcc
dbbd bbbbc
bcbf dbf
bdbe dbcc
bded bcc
fbbbb bbee
bbcbbc bbbb
ec bbebecc
ebe acc
ebd eea
ebd dcbd
ebf bfbf
ba eebd
bbbc bbbbcc
ccc def
ebbc bebec
beee eea
bcbc bced
fcc dedc
bbebe bccc
bbdd bbed
bccc ebcc
dbec bebd
eedc becc
eebf dbc
edcc bfc
bdcc dbe
bdf debd
bcdd bbc
eca a
bfec bef
ebbec bebc
ec ef</w>
ec bbbac
ef edebc
ebc ecbbd
eec dbbee
df bebec
ff bbbcc
dbd bebbc
bbbf da
bbdc bbbbc
bbef bebf
bbbbbbbb bbbbbbd
deec fee
cccc bccc
ecbd bebd
eeebb dbf
ecebb fc
bcef bcc
ebbcc a
bcbbd bbc
f dbe</w>
dd bdebc
ebc edbec
df eba
bbbe bbbdc
bbf bbecc
dbb ecdec
ebbc ecbf
dec eeed
dbd bbebe
bbcc ffc
bbcc bcbbc
bbebb bbfc
bcbc bbebc
ac fbd
eebc bdbd
bbdc beed
debc debc
bcbe dbbf
fbf fef
ecbd debe
eebf dbe
bcef bbf
bdec efc
dcbd fc
ebb ecced
dc bbbbebb
dc fbeee
ef ecbdc
ebc fdee
bbc fbdc
eec bdef
eec bedbd
bbd bbbbcc
ba bbbec
ff bea
dcc bcee
bbec beebe
beee bbebc
bbebb bbbbbbc
ddc bcdc
debb bcec
debb eedc
bbbf eeee
eebc beebb
ecbc eeec
eecc bbed
ecbe edbf
bccc fbd
eeec def
eba bda
bdbd fee
ffc bebe
bdf bbbec
eddc dbc
fbec bcc
bebbd bebe
fbbf bbf
bfed bec
bfbc becc
dcbc bbed
bbbb febd
ebe fdcc
ebe bfbbbb
ebe dcebb
bbbe fbcc
ebf bded
bef dbbf
bbbd bbbcc
bebc ecdc
bbec eeebb
fbc eedd
bbebb beed
ddc fbe
dfc ebec
dbec bedc
fdc bedc
bebbbb bcbbbb
dedc efc
beef ecc
dbdc fc
ecee fbe
ecebb bebe
ecdd dec
bdee bbebe
ebbbd fc
bfbc ebec
bf eeedc
ef ebdcc
ef bcbdc
ebc dddc
bec bca
eec efdc
bbd bffc
dbe bceec
dbc bdbf
dbb efa
ebbc bbebd
ded dbbbb
bbec ac
beee debc
bcbc bbfc
eeee bebbee
eddd a
ebbbc debe
dc fac
ebe dbbcc
bbc eedf
ebd bdfc
ebf bebec
bbbc fa
bbee b</w>
dbd bba
dbf fef
bbbf ebcc
bbbf fbbc
bebd bbebe
eef bbeec
bebbc ecc
bcbbc bbbd
dbbbc dbbbc
eddc df
dcbc fec
ebbec bbbc
a fdbe
ef eddf
ebc bcff
bbc bdfc
bec bdebc
bbd bbbfc
dbe ecbec
ebf bdbf
bbee dbcc
dbb add
efc bbbcc
beee bcbe
fec febc
debb def
bbbf ac
bbbf bbbec
bebd bebf
dbec bbbd
bebbc bbebb
ffc fee
edcc fbd
bbecc edc
ecbf dee
edbc debe
eefc a
ebbee fbc
fbbbe bbf
bfbc eecc
eebebe bbee
ec febbcc
ef eeecc
dd bda
dd bfdd
bbd eebbf
bbbe ecec
bbbe bcdd
ebf ebbcc
ebbc dbcc
ea bced
bbcc b</w>
ac bccc
bbbbc bbebc
eebc bbfc
bebd bcec
becc bcec
bbef fbf
dbbbb bbebe
bba bef
eeec ecbc
cccc ecc
dedc bcc
dbdc dec
bdcc fec
ebbee dec
bbbb eeef
ebc beebf
ba bebbbb
ff fccc
dbd edbd
bebc eebbc
eeee bebbbb
eeee fa
bbef bbebe
dbbd fbd
ecbd fee
fdd fbd
febe edc
ecdc bbf
fa bda
bdbc fbe
bbccc fc
eddc dcc
efcc bec
fecc eec
dded dee
bedbb a
bf fdebb
dc bbfcc
dc bbdbd
bbbb bebbbd
bec ecf
bbbe fbbbe
ff bcebc
bbee ecebb
bbee beebc
bef bded
bebc befc
efc eeed
ac beed
bbbbc fbd
eebc eedd
eccc dbf
bbdd efc
bccc ba
dbec bcbc
bba ebf
bdbd ecc
bcbf bbec
bbebd bbbc
bcebe bcc
eded bcc
bfbd bbbc
bedbb bcc
edec fcc
bd fbdcc
ed fbbdc
ebe edbec
dd bdf
ebc bcedc
ebd dfcc
bbd edebe
bbd bcdbc
df bca
bdc fbbbb
bbee ebbbbbb
bebe bebcc
ebbc fbbbb
dbd bcbf
ebdc bbed
ecbe ebbebb
dbbbb bfc
bbebc bef
eedc bbd
eebf bbbd
eebf eeebe
bcdc bbf
bbeec bcc
bfcc ecc
edbc eecc
ed debbcc
ebb bebbbec
dc fea
dd bebbf
ebc bfdd
ebd ecebc
eec ecbec
dee bedd
dbc ecdd
bfc bcef
dec bebcc
dcc bbbbc
ddc eeed
debb bebf
def bcbd
bbdc fed
bbef fcc
bcf b</w>
eebd bbed
bdbd bcbd
dbbbe a
febc edc
bdbf dbd
eebbbb a
edbc eeee
ecef bcc
bdbbc bbc
dcbc eebc
dded df
ebbec bbebb
bedbbf cc
bf bebecc
bbbb fdbe
bbbb ebebbbb
dd eceec
ebc dbbcc
bbd bcecc
df dcdc
dbe eba
ebf fbcc
dee befc
dbc d</w>
bebe bedd
ebbc bdcc
ded bcee
fee eba
beec bbdd
ecbe b</w>
bcf bfbf
bbdd bbdc
bccc def
fbf fbe
decc dcc
bbbcc bdc
eebf bbcc
ffc bcbc
debf fc
bdebb bbbd
febd a
dcbc bebd
dc dd</w>
ef fea
ebc fbfc
ebd ebbed
df fdbc
dbe edbf
ff bddc
ccc bebd
ea eeebb
fee debc
bbed eeed
beec ebdc
ac fed
eecc beed
beebb eebc
bbebd bbbd
ecbf dbd
eced ddc
bcdd a
edbc ebec
ebbbd ff
edec bcbc
edec dbf
ec bbc</w>
ebe dfcc
fc eedbe
fc fbbbc
ecc fbbf
eec bdebe
dbe bbbdc
bbbc febc
bbbc bdbbbb
bfc bbbcc
dec dbbd
dcc bcbf
dcc bdcc
efc bfcc
beee fa
beee eebbee
eccc bbed
bccc eebc
dbbbb bdbbbb
fbf febb
bbbbbbbb bdbbbb
deec bbbe
bbbec ebf
eedc ecbc
ffc ba
bebbbb dbc
beef beef
eeef eeebe
bcbbbb bbec
bcebe bec
fdf a
ebb dbbef
dc eebebe
dd bcebd
fc ecee
ff eebe
bbbc bcebe
dbb efed
fbc fa
beee ebbebe
bbebb debe
bcbc bbef
bbbf febe
eeee fcc
def fdc
dfc efc
da bfa
eeec debe
bbbec bcbc
dbbbe bebc
bdbe eccc
ecdd bdc
bebec bbf
eddc fbc
ebbee ddc
ebbbc fbe
ebb fdbbc
ebe ecdee
dd dd</w>
bec ebbbbbb
ebd ecf
bbbe bfbf
ea cccc
debb b</w>
fbd da
fbd febc
eebe dccc
debc fcc
febb fcc
bedc dfc
dbbd edc
bcebb edc
edcc bbbe
fbbc dbd
bcdc bbbb
bbeec dbe
bcdd dbc
fbec bbf
dbbee dbe
ebccc eec
bbebbc bbc
ed bebbebe
ef fbebc
ebe ecbbbe
ebd dded
bbd fbebe
df feec
dbc dbdc
dec dbbbb
dcc d</w>
bbbd bcbbc
ded bbbbc
fbc befc
beee bdcc
ebec decc
ddc decc
debb fbf
def cccc
debc ecdc
bccc fed
deec decc
debd bbbe
bbbcc bbee
beebe edc
bcbf edc
eedd fec
ecbf ebf
ecebb bbec
eddd df
eded bec
bfebb a
edec bfc
bcda cc
bd fcccc
ec bbefcc
ef bbdcc
ebc dded
bbc beff
bcc beecc
bdc bcebe
ba dea
ebbc febe
bef ebfc
bbec eccc
fbc bbdd
beee fdc
ebcc ecec
bebd fdc
fed bcbd
bbebe becc
dbbc eeec
dbec eedc
edbd bbbc
bcdc ebd
dbdc dcc
bddc df
bdebb bbbc
edbc bbbf
ebeebb a
ebe debcc
ebe fdbd
bbd bfbbbb
dbe ebbcc
ba bcbe
ff bdef
bebe bbebd
ebbc febc
bbbd fbbbb
bbec bcbe
bcbc eccc
bcbc fdc
debc fbe
debd debb
dbcc bfc
ecec eecc
bcbf fbd
eeed ebd
bebbc ebf
ffc def
bbecc ecc
eced ff
bdbf dee
bcdd dec
ebbee beec
ecbbbb bbbe
dcec edc
ed beebdc
dd debbc
bec edbf
ecc bcbcc
ebd dbfc
bcc bebbf
bcc bbbbcc
bbbe fbbd
bbf bcbec
bebe ebbebe
ebbc befc
bbbd bebec
bebc edbd
fbc bcef
bbebb eebf
ebcc bdbd
ddc dccc
eebc eeec
beebb bbed
deec bedd
febb dbf
bdbd bbec
bedc fbd
eedd eecc
eeef beebe
bebbbe bbbc
eded dbd
a efa
ebe ecccc
ebc ebbbec
fc fbbbe
ebd bbebf
bcc bcdf
bbbe bddc
bef eedc
dcc debd
ea debe
ded bbebc
fbc bbebc
fee beed
bcbc bcebb
dbbc eeee
bbbec bfc
dedc fec
edbd ddc
bea dee
befc bbbb
ecbbc bec
bfbc bbed
bfec beec
bd ebb</w>
ebc bfef
bcc ecdf
bbd bdebc
bbd dcbf
bbd bdbec
ba beebe
bbee bcf
beee bdbd
beee ebeebe
ac ebec
becc debe
fed eedc
bbdc fcc
bcbe ebbcc
bbdd bddd
beebb fbd
fef dbf
ecec bebd
dbbf bbbc
dbbbc bbbe
fbbf bebbeccc
ebbed dbe
dcbc dbf
dcbc debb
dfcc ccc
edee ebbc
ebbbcdc debe
f dbd</w>
bd dbbbdc
dc bbbbbd
ebe bb</w>
ebd efdc
eec ecfc
ba eeec
dcc dbec
ded befc
bbcc bced
debb bcebb
bbbf dfc
bcbe ebfc
ecf ebfc
bdbc ecbc
fbbbb fc
bbebf bbf
bebbf bbbb
dcbc ebbc
bbbedfcfceebcbfdbbbb efcbbebdeecbf
bbd bebbee
bbd fbbbc
bbd bedbb
df bbebd
bdc ebecc
edc eedbe
ba bced
bbee deec
dbb ecbebe
bbec eeee
bbcc eccc
fee bdbd
ebcc febb
ebcc bced
bebd eccc
fed bcec
eebd ac
bcbd dbbc
dbbd ebbc
dbbd bbdc
bebbc bef
edcc eecc
ecdd a
fbbbb ff
ebbebb beebb
fbec bbbb
fbcc bcc
eddd dbc
ebbee bbbbc
eebebe eeee
ebe beea
bec eebec
ecc eebbd
ecc bedee
ebd bcbcc
bbbe eea
ebf beff
bdc eded
bebe dbec
bebe befc
dbb dcecc
dcc eced
ded fbf
ded dbbd
bbec dedc
beee bbbec
bbebb bcec
ddc bbdc
becc eeec
bbebe beec
debe bbed
eef ebbbf
da dbf
bcbd eebc
bbbcc bebc
ecec efc
bebbbb bdc
ecdd bbc
fbcc fbc
dcee bcbc
bf debdc
bf fbecc
bf fac
ef ebbfc
ebe bbea
fc febf
fc bedcc
bec fdbe
bec fccc
bec bcebd
bcc bfdc
edc bbbec
bbee ebbebe
bfc bcbbc
fbc bbbec
ebec eeee
ebec bbbec
ebcc edbd
dbf dbbc
bbbbc bbcbbbb
fed beee
bcbe dbbbe
dfc fbd
bbdd bcbc
da fee
bcbd eeee
bcee bba
bedc ddc
ecbd eebc
bcbf dbd
bcdc beec
bbeec bbbc
dbbf dbd
bdf dbcc
fbec dbc
dcdc dbc
bdbbd bbbb
bd debecc
dc bbea
ebe eceec
dd bebdc
ebc bbbbcc
fc f</w>
ecc fbbbb
ebf decc
bbee eeef
dbb dcbcc
dec beebd
ea bdbf
bbec eedd
bbebb bcbbc
bbef bebd
eebd beee
beed debe
eeec eeec
eedc fdc
febc bbbb
febc bcc
febc bdc
bdbe bbbcc
ecebb bcc
beebc dbe
bdec bebd
eddd fbc
bcbcc bbbb
bfec bbbe
bbbebbbb bbbe
ebc ecccc
eec bdfc
bbd beff
bbf bcebc
ea ecbc
ea dea
bbebb bccc
debb eeee
eebc eebf
becc decc
debd eecc
bebbc fbc
beebc bbbe
bcef dbc
fecc dbc
ebbed bbbb
dcee bebc
ebe eeecc
bbc eeebd
fc bcff
bec bebbbc
bbd bcdbe
bbbc c</w>
bbbc ebfc
bef bebec
efc eedd
bbec bbbcc
bbec bcbf
debb fdc
debb bdbd
bbbf fbbbb
becc ac
da dca
dbbbb fbc
dbec ba
fbf beec
fbf fdc
beebb eebe
deec bcbc
eeec decc
fef fec
beebe dbe
eebbc df
ecbbc dbe
dcbc eeee
bcbbbc bbbb
bfec dbd
ebbec ebd
dabca bdbf
f dbc</w>
bf febcc
ed fedcc
ebb fbbdc
ebc dcef
ecc bcecc
ecc bcccc
bebe dbcc
bbbd bcee
bbcc bbef
fbe bdbc
ddc debc
eccc ecbc
ebdc bcbc
ffc fcc
fbbc ebbc
bbeec bbbe
bdf b</w>
bddc bdc
edbf edc
bc a</w>
bf be</w>
ef ebbbc
ebe fdbb
dd dbbcc
dd febf
ebc fbbbc
bbc febf
bbc fbbbc
ecc eeecc
ebd edbbc
eec eac
bbd eebbbe
bbf decc
bbee ebeebe
fec bcbf
ebdc fed
dfc bbbf
bbdd dbbc
bcec bbbf
beed bbebb
dbcc dcc
eeed bcbc
beef beebb
bdbf bbbe
ecbbc bbbb
fbbd bbf
a bbebf
a ebbebb
ef bbefc
ebe fba
ebe bddbe
ebc ebbdc
bbc bda
bbc eebbf
bbc fdee
fc beff
bec bebbee
bbee eebbbe
bfc bfcc
bef dbdc
bef eea
bbdc ebcc
ecbe dbbbe
dbec bbcc
bbebc bdc
cccc eec
dbcc ded
edbd bebc
eddc dbe
fbec dec
dbfc df
ebccc edc
ebbec bdc
dc beefc
ebc bddf
fc ecebe
fc eebbd
fc bfdd
bec eeef
bbbe bddd
bbf ecdc
ba bedc
dbc dbbbe
dbc bddd
dec eced
dbd bcebb
bbbd eeec
fee bced
bbbbc efc
becc bbbf
fbd b</w>
ecbc bdcc
bcf bbebd
dbbbb bbdc
eba dee
fef bebc
beebe eebf
bac fa
bdf ebfc
bded bbbb
bdec bbcc
ecef dbe
ebbee dbbc
ecdf ecc
ecbbbb bbbc
dcee ded
bbfef ebfc
bf befcc
dc dbdcc
ebd eedf
eec bebbbc
df bebcc
bbf bedd
ccc ffc
bbee bbecc
ebbc eebe
ebbc bcebe
dcc edbd
bbbd debd
fee debe
bbebb bba
ebec bdbd
ebec fbbc
ddc ecdc
ecbc eedc
ebdc fdc
bbbbbbbb bcc
bbfc ba
ecec bbdc
bbebd ff
bcdc bebe
fa bbbe
fbbbb fbbbb
dcdc dbd
edbc eccc
edee ac
bcbcbcbc bcbc
a ebbcc
a bebbd
ebe ececc
ebe bfdd
dd bcdbe
dd fdbb
bec deecc
ecc ebbebb
ecc ecdbe
ebf fbbd
ebf bebbf
dee dbdc
dbc dedc
bbcc bbbec
ebec bbef
ddc d</w>
bbed dbbd
fbd ac
def ebcc
def bbdc
eecc bbbf
beebb fec
febb debb
bdbd bbed
bedc debe
debd bbbc
beebc bcc
ecdd bcc
ecfc df
fedc df
ddbd bdc
ebe bbcbf
bbc fbebe
bec dbbee
bec eeecc
ecc bebbd
ff ebfc
bbee bcebc
dec c</w>
ea febe
ebec bced
ddc bddd
bebd dbec
dbbc bbbf
eebd edcc
febb beebb
bebf fbf
bbfc ebbc
fef bbcc
bbbcc bbec
ffc beec
bebbbb bcbc
fbec dee
ed dbba
ebb bebbdd
dc fbecc
ef fbbcc
dd dcbf
ecc fdcc
ebf eebbc
bbbc bbccc
bebe dbbd
dbb ebcebb
dbd febe
bef ebbcc
beee dbcc
beee bebbee
fee eef
fbe d</w>
fbe bfef
debe ded
bcec dbbc
bbebc bbcc
eeec edcc
eba bca
bbfc fec
beebe ebc
bbecc bbbb
fa bea
ecee da
eced bbbc
ebbbbbe bbbb
dbdbbc dbfc
a bdbbc
a beeec
dc feecc
ef debec
ebe eddf
fc bdee
ecc eea
ecc bca
ebd ecef
ebd bedee
df bbecc
bebe edbd
beec eedd
bbebe eeebb
eedc edcc
bbbcc fbc
beebe bebc
bebbc ded
bfcc bcc
bfcc bfc
bddc bcc
fecc edc
ebbbf bbbb
bfebb bbbe
bf eedee
ed bacc
ebe bdebd
dd dbbdd
ebc efbd
fc bbbfc
ebd ecbcc
bbd bfbbc
bbf ecec
ff edbd
ebbc eebbc
bef ecbf
ea eccc
bbbd fdc
fbc beef
bbcc eeebb
bbebb bcbe
ebcc bedd
dbf eecc
bebd eedc
fbd bdbd
ecbc dbbc
fed debd
eecc bedd
eebe dbbbe
bedc bcbd
fdd fdc
dbbbe ccc
beebc eec
bcef bec
feec dbe
ebbbc eebc
dced ded
dcbd bdc
efbf ccc
bf bbbccc
ebe dcfc
ebe dcbec
dd bffc
ebc bbba
ecc bdebe
bcc bdbbc
bdc eeebe
dee dcdc
dec beef
dbd e</w>
bef eeed
ea bfa
fee ebeebe
fcc eddc
debe eebc
dbbbb debb
ecbd dbf
ecbd fdc
dbcc efc
bbbcc bfc
beebe bbbd
eeed dbbc
bea bbee
bdebb df
eded dec
ebbbf bbbe
bbdbbbb bbbd
dcee def
ecbbebc cc
a fdee
ed deba
ebe dcbbc
dd ebbbd
ebc dcebe
ebc dcfc
bbc ecbcc
fc edbbc
fc dcef
bec dbecc
bbd edbbc
ff bcebe
bbbc bded
bebe eebbbe
beee bbbcc
fee eecc
fec befc
ac bbbf
ecbc ecbe
beed beed
fef fbf
bbeec eec
ebecc eec
bebbee bbbb
edebb ccc
edec ff
ebbec beec
efef efef
dcee bbed
ef ecebd
ebe bcdec
dd f</w>
bbc edbbc
bbc bffc
bec bedbb
ecc dddc
dee edcc
dbc e</w>
dcc e</w>
bbebe bcebb
debe efc
debe fcc
bccc dbf
bbbbbbbb bbee
febb ded
eba dbe
bbfc bbbf
ebfc bbbe
bebbbb dbbbb
bcdc bcbc
fa dbd
bcbbc bbcc
bcef ff
eddd ddc
bedf a
bbdcc ccc
eebba cc
bcbcbcbcbcbcbcbcbcbcbcbcbcbcbcbc bcbcbcbcbcbcbcbcbcbcbcbcbcbcbcbc
ecc dbfc
ebf eedd
ff bca
bbbc eef
bbbc ecbf
bbbc eebbc
bbec bcee
bbebb b</w>
eeee ebbebe
bbdc b</w>
dfc bebd
bbebc dbd
eeec dedc
bebf fdc
bebf febb
bbbec bbbec
bdee da
bfbd fbc
a bdbc
bf fbbed
ebb dedcc
ef edbcc
ebe edef
ebe edebc
ebc eedbc
bec ecebe
bcc bcecc
eec ecebc
eec beeec
bbd eceec
bbf bca
bdc eeef
bbbc bdebb
ebbc bcbbbb
bbbd deec
fee fdd
eeee bebd
becc def
becc ffc
bbdc def
bbdc dbbc
bbef bbbbc
bbdd eebc
bbbbbbbb bbbcc
dbbd efc
fbbc bcbc
bcdc bef
bbeec dbc
bbecc dec
bddc ddc
ebbec bbee
ee ebd</w>
bd dbbeec
ebc bbdcc
fc dea
fc ececc
ebd eeecc
bbd bcbbf
edc dbbf
edc eedf
ba beef
bbbc eebbbb
dbc dccc
dbb ecdbd
bbec bdbd
fbc febe
becc ecbd
eccc ebec
debc ddc
bbdd eeee
fef ea
ecec bbed
bebbc dbd
dbdc ded
a bcbbd
ed dbbbec
ed bedebc
ebb beac
ebe eefbe
dd ebbbf
fc acc
dbe d</w>
edc bcebe
ba febe
bbbc bbbdc
bbbc bbcbbbb
dee dbbf
dbc fbec
bbebb ac
fcc eebf
beec fdc
bbbbc debe
becc eeee
fbd beed
fed beed
debc ea
bcbe edbd
bbebc eebd
ecbd bcbc
dbcc bbee
ecf bbbcc
bcebb bcbc
eeed dbf
beef fbc
fbbc fec
eebbc bbbd
bebec a
dddd cccc
ed bedbec
ed debecc
ebb bedebe
bbbb ebecc
ebe bebbec
bec ddcc
ebd edbc
ebd ebbbf
ebd fbbbe
eec fbbd
df bceec
bbbe bdbbc
ebf efcc
ba bbbbbbbb
bbbc bcbec
dbb ecded
dec bbecc
bef beebc
bef bcdd
fee ebec
dfc dbf
dfc deec
bbdd ebec
bcec decc
bbfc dcc
bbbec dbd
dbbd ecc
ecbd becc
debd eebc
fbbc bbbd
fbbc efc
fbbc fbd
febc dee
fbbf ff
dcdd dbd
ebb ee</w>
ef bb</w>
bec eded
eec bceec
eec dcec
edc edbf
edc bedf
bbbc ecec
dbb fcfc
efc bdbd
bbcc dbbbb
fee bcebb
ddc bced
dbf bdbd
fcc deec
eeee eefee
bbbbc fbe
bbef beec
eebd ebbcc
bbbec debb
dbbd bddd
bebbbb fc
eedd ebbc
fa ecc
bcbbbb dbd
ecdd dbd
ecbbc bbf
ebbee bba
bda a
edec bebe
eedbbd cc
ef eedbe
ebe bcebf
bcc eebcc
bbbe edbd
ebf bebbd
bdc bbeec
edc bcbbc
bebe eebbee
bef bedd
bef bbecc
fbc bdbd
ac eebc
fed ecbc
bcbd bbbf
bbebc bbbf
deec fbd
bedc bbcc
bcbf fee
bdbc bbebe
bdec debe
ecbec dbe
ebbbc efc
dc bbbecc
ef bedee
ef ecbbf
ebe fbfc
dd deecc
dd ecccc
bec ecef
bcc bdebe
df dbbbe
bbbe eced
bdc dddd
edc bdbf
ba ffc
bebe bcbec
bbbd eedc
bebc fef
bebc fdd
bbec da
fec bdcc
debb bced
eebe efebe
debe eecc
eebd bbdc
dbec def
dbec beed
eba ebf
bdcc bbf
bdbe debd
bdec fbd
dcdc dec
dced dbc
bfbc ebcc
ed fda
dc dbbbbc
ef eefbe
ebc eddf
ebc ebbebc
bec edbbc
eec bbedc
bebc bcdd
bcbc deec
bbed bdbd
becc eddc
debc bbcc
dbbbb bebd
bcbd bbbbc
bba bcbc
bebf eebf
bedc decc
ecf debd
bced ebf
eeed becc
bdbe bbeec
bcef bfc
bebcc bbc
ddbd ded
dcee ba
be dbc</w>
bf dbbebb
ebe bedbb
ebc fbebe
bec efdc
bbd bddbe
dbe ebbebb
bdc bdebb
ccc ea
dbc edcc
bfc eebf
dcc da
bbec debd
bbebb eecc
fbe edbf
fbd decc
def debb
ecbe bbebd
bcee bbecc
eeec ebdc
bedc ecbc
ecbd ecbc
ffc dbf
dbdc bbbb
ecee bbebc
bfed bbc
bbcbbc bbc
a dedc
a eeebc
a fbbbe
bd fedcc
bbbb ecebe
bec ebbed
bcc bceec
eec dded
df debf
df febd
bbbe decc
edc ecef
bebe bcebe
ded ecdc
fec bcf
eeee bebbbe
eccc beed
eebe deec
bccc bcbd
fbf bbef
bebf beec
ecbf ddc
bcef fbc
ebbcc bbbe
efcc ecc
fbcc dee
feec dec
bfec becc
edee becc
bbbbbbbe bbbbbbbb
bbbb bbedc
dd deccc
fc bfef
ebf eebbee
edc bbbcc
dcc bcf
bcbc eedc
ac debe
bebd ebdc
bbdc beebb
eebd def
dfc dbec
bcbd fdc
bcec eeee
bbebd dbd
dbdc bcc
eced fbc
ebbcc dbd
bbebf ccc
fdf fc
ecbec dee
eebec bbc
ebbbd bbd
fdbc df
eebbebbfed edcfcc
dd bdbec
dd dcccc
ebc dba
bec ecbbbb
dbe fbcc
ebf eddc
dee bdbf
bbee eebbc
bfc beef
ebbc ebfc
efc bdcc
beee eef
ebcc decc
dbf eccc
bbebe bbef
eebe efbf
beed eedc
bdec ebec
ebbbf bbc
bfbd dbc
eebbbe bbbb
ed bbbebbbb
ebe bebbebe
ebc fdcc
ecc dddd
eec dddc
bbf febd
ebf bcbec
ff bbeec
bbbc edbd
bbbc eedd
bbee bcef
bebe ecebb
bfc eedd
dbb ecedc
dec beebe
beee eecc
bbcc bedd
bbed ecbc
fcc febe
dbbc ea
eebd bedc
febb fbf
bbfc ebec
bdbd debb
ecbd ba
ecf b</w>
bced dbec
ecec debe
ffc ddc
edcc ddc
befc bcc
eddd dcc
bebbd bbbd
feec dbc
dbbbd dbbbb
ed dbbebc
ebb feccc
ebb dbbbec
dd fdec
ebd bdbbd
df bedf
edc fccc
ff d</w>
ff eeec
bbbc bcef
ebbc bbbbbbbb
bef bfbf
ea fed
ded bded
fbe edbd
eebe edbf
febb beebe
decc cccc
fbbc fcc
bcdc ef
ecdc efc
bbebf bbc
bcebe fc
bca bbc
bdbbbb bbbbc
bbdbbcc bdbf
a fccc
a bcdf
bf beebec
ebe efdc
bec bbcbbc
ecc bac
ecc bdee
bbd bebbbd
bdc eddc
ff debd
ff fecc
bbbc bcbcc
ccc ac
bbee fdd
bbee eea
fbe efcc
bbed bced
bebd eeec
bebd bebbc
eecc bbdc
beebb ebcc
bcec eeec
beed deec
dbbd beec
bcbf ba
dbbf dee
bddc bbbb
bfbc bbbbc
eebbbe bebe
a ecee
a bcbcc
bf bbac
bf fdef
ed ebac
dc bebbebb
ecc beeec
ecc efdd
ebd bca
bdc ecebe
edc eac
bbbc bebbbc
ebbc bbeec
bbec befc
fbe dbbbe
dbf ecbd
ebdc ea
fed bebf
bbebe dcc
bcf eba
bcbd b</w>
eebf ba
ecec dfc
bcebb ded
dedc bebc
eedd fdc
eeebe bbc
eeebe bbebb
bdcc bbbe
ecbf fbd
bfcc bbbb
bcdd eec
bcdd ff
eddd dbe
fdf df
edbc ba
bfbd bcc
a ecdf
ee ebe</w>
bf deccc
ebd ebbbd
ba cccc
bbee bebbf
dbb ecbbec
dbd ecdc
bbbd bcbf
debb ecbd
def fbf
eebd ecbd
dbcc fbc
bcebb bdc
bbebd eec
edcc bebe
dccc bdc
dccc dbc
bdbc ebcc
bcbbc bebc
fbcc eec
bbbbcc bbbb
bbbbbd bbebb
bd eacc
ef fdbf
ebe eeeec
fc debcc
ecc bebbf
bbf edbf
ebf ecebb
bbbc bcebc
dbc ebfc
dbc bbeec
bbee bebcc
bef bebbbe
efc fdd
bbec ecbd
ebec bcbe
bcbc eeebb
fec bbef
fcc ecbd
eeee beebf
eccc ecdc
dbbbb eec
fef fbe
ecec ac
bedd ebbc
edbd bfc
eced bfc
bcdd bdc
eebbc bbee
ebbebb beee
bcebe bbbe
edbc bbdc
eedf ccc
bbbbbbc bbbe
a dbbbc
be bbeb</w>
bf bbdbf
bbbb bca
dd ebbed
ebd bbccc
bbbc dbdc
dee ecbe
bebe eefc
ebbc beebc
dbd eedd
bbbd fbbc
bbec b</w>
bbec beecc
def ecbc
dbcc ddc
ecf e</w>
beef bbebe
bdcc fbc
bded bef
ebbcc bbf
feec bec
dcbd fee
edee ded
bf eb</w>
ed deac
ebc bda
fc bcbbf
bec bdebe
ebd bfbd
eec bdebc
df fbdc
ebf bcbbbb
ebf fdbe
bdc bebec
edc dbbbe
ccc ecbc
dbd eef
bbbd ecbc
ebec dbbbb
ebec bbebc
fbe bbccc
bbbf bbebc
fbd dbec
eecc eedd
bbdc eeee
eebe decc
eef ebbef
bbef ded
dfc fed
bcbd fbf
eedc beec
fef bcbc
dbbf bec
bfcc dbc
fbbbb bbbbc
bcfc dd
bcebc df
ebbbc ebcc
beff ff
bbbbbd dbe
ebe bbbebbbb
ebd bdbec
edc dced
dee eebbc
dbb fcbd
dbd eebf
efc edcc
fbc fbec
dbf debc
bbbf fa
def bced
eef ebbebe
bdbd beee
eebf fef
ecec debc
bcbf bbcc
bedd debb
eeed bbee
bbeec debb
dbdc eecc
bdcc ded
bdf bbbcc
bea bea
dcec bbec
ef bcfbc
ebe dddc
ebd bfed
bbbe fbbf
bdc bdef
edc beecc
ba fbbc
bbbc bdbf
fbc fecc
bbebb bedc
fbe eced
ddc bcec
ebdc debe
bbdc fdc
dfc dfc
bbebc fec
deec bbcc
deec ecbc
bbfc dbf
decc bbf
beebe df
bedd bebd
eeed fec
bcdc efc
febc bebc
bfcc dec
bddc dec
bdebb dbe
eea bbf
dddd dbc
ecbec bec
dcbc fcc
ebbec dbd
a bbbdc
ee df</w>
dc aa
ebe dcbc
dd ecbcc
dd ecdee
bbc bcff
ecc d</w>
ecc bfbf
ecc febf
bbd bddf
edc dfcc
edc eeccc
ebbc bcdd
bebc beebc
fee eebeee
bcbc bbbec
bbebe bebbc
da bef
beebb bebbbe
bcec eebd
bcec bbebc
eeec debd
bebf ea
dbcc eecc
bced ba
bcebb eebc
bebbbb ebc
ecebb bebc
eefc ff
ebbbbbb bbf
ebbbc ddc
eebdc eebceba
bf fbccc
fc ebbbf
ebbc bdbf
dcc dbbbb
debb eccc
fbd febe
def bebd
fed bbdc
dbbc beed
eebe c</w>
eef dedc
bbdd dbbd
bcbd dbbbb
bcec ea
deec bef
bebf bebd
eedc ea
bced fee
eeebb bfc
ecec eebc
bbecc bbc
bdbc debc
bcbbbb bbee
bddd ded
bcbec bec
bbbb bdef
bbbb edebb
ef dac
ef ecdbc
ebe bdbcc
ebc dcebc
ecc bdfc
bcc bdec
df acc
dbe c</w>
dbe beecc
ba bac
bbbc ebbcc
ccc c</w>
dbb ecbef
dbb abf
dbd bdbf
beee fbbbb
bbcc bcee
beec fbe
def bbbf
ecbc ea
eebe ebbcc
bcbe eba
eebd bcbd
febb fbe
bbbec beebb
dbcc bbbd
ffc bbec
beef bdc
edbd bbbd
edbd fcc
bcdc fec
bded bebc
bcccc bccc
bfec bebd
a bceec
bf ecced
ef fcdc
ebf bebbee
edc bebec
bbbc bebcc
ebbc ecebb
beee bced
bcbc dbec
ddc dbec
ecbc bbef
eef bac
eef ebbcc
deec da
bbfc fcc
bcebb debb
bebbbb dd
beef bebc
febc ded
bded dcc
bcdd ded
bfbc def
ebbebe beee
bedbb bdc
ddbd ddc
ebeebb bbbe
ebeebb bebe
ececbd cc
ed fbbef
dc fdef
bbbb decc
ebc eebbbc
df bfbf
bbf bebbd
bbf ebbbf
dbe eedd
ff beebc
bfc beebe
ac bea
fbd beebb
eebe dbdc
bccc ebec
beed dced
bba bda
debd bbbd
fef bebf
eebf fec
ecec fee
dbbbe bcc
fa bef
bdbc dbbd
bcbbc bbebb
bfcc efc
bded efc
bcbbbb bebc
ecdd ebd
ecbbc bcc
bca ba
ebbbd bdc
bfbd bebe
eebbee bbbe
eddee ccc
bbdedc fbebcc
bf eefbc
ebe eda
dd beff
ebc fdbb
ebc fcdc
bec bcdf
bbd bfef
bfc eeebc
dbd bbebc
fbc bcfc
bcbc bbbbbbbb
ddc bbbf
fec bbdd
eeee bbebf
eccc eebc
ebdc ba
bbdc ea
fbf ebcc
bcee bbdd
fdc bbcc
bba fbc
febb ebcc
febb bebf
bbbec bbcc
ecbd bbec
ebfc bef
bbbcc bbbbc
bcebb bbbbc
fbbc fee
bdbe bbebd
befc dbc
bbbdc bbc
bdee dfc
bfed ff
dcbc ba
feba cc
ebc bdbbd
bec bfdd
bec bedcc
bbf fbbbe
ebf bbebd
ebf bddc
ebbc bebbbe
dbd bdbbbb
beee bbfc
bcbc ffc
fec bbfc
bbed beebc
eef bbebd
beed fed
beed da
febb bbbbc
febb eeebe
bbbcc bef
bcdc fee
febc bbec
efcc fbc
eebbd ccc
dcef ccc
ec eeedcc
fc dba
bec bdfc
eec dcbf
df dedc
dbe fbbd
ebf ecec
dee eeccc
dbc bddc
bfc bcfc
efc dbbd
beee dbec
bbbf bcf
fcc eeed
fbd bcec
fbd eeec
bbdc bccc
bcbe debf
bcee bbebd
fdd dbf
bac bcbbbb
bdbe deec
bbebf bbbc
eea bebe
ecef dbc
ebbbd bbebb
bfed a
dcec bebc
ebbec ff
ed fcccc
dc ee</w>
ebe bbebec
ebc ffcc
ebc bbbbebb
ebc edec
bbc eebbbe
fc bfec
bec eddd
ebd bbedc
ebd ecbbbb
bbd fccc
bbd bfdd
bdc e</w>
ba dfc
dbc eeeec
dec bcebc
bef bbeec
eeee eebef
dbbc bcbd
eebe efef
bccc bbbbc
dbec dbf
beed beee
beed fcc
febb ebec
fdd ba
ecec decc
ffc bbbe
bded bebe
dbbbc bbc
fbbbb bcc
bdee fbe
bdebb bec
edbf fcc
feec dd
ebbebe bbbe
dcec fec
dcec eedc
ec bbd</w>
ec bbe</w>
ef bfbc
ef bbcbd
eec bbebf
eec bcecc
bbd bbdcc
bbd bbdbd
df bea
ff bbecc
dee eeebb
dbc bcebe
bbee bebbee
dbb ebfcc
dbb fcef
dec d</w>
dec fbbc
eebc fbbc
debe ebdc
eebd ebec
bcec fbe
deec dbf
bedc bbed
ebfc edc
beebe beef
bcbf bcbc
ffc ebbc
eedd bbf
fa ebf
eded ded
bbba ba
ebbee bebd
a febd
ebb ebac
ef bcebf
bbc beccc
fc bddf
bec bfbd
ebd bcdbe
bcc bebbd
eec eeebd
df eeebe
ff fbbf
dbc beebc
dbb becbbc
dbb fcbbc
bebc dbdc
efc bbdd
bbcc dfc
fee bcf
ddc fbf
bbbf bbfc
fbd ebdc
ecbc bbdd
dbbc eedc
eebe e</w>
eebe ebebf
bbebc fee
dbcc eebd
bcebb fbc
ecee ebdc
ecee bbeec
eeef bcc
ebbbc bbdc
ecdbe ccc
ddbd bbbd
eebeee bebe
bebbebb bbbb
f bbf</w>
bd bbbb</w>
ed fdebc
dd dbccc
ebc edef
bec dfcc
ecc beebd
bbf bcdd
bbf eebbee
edc bbeec
dbc bebec
bfc ecec
dbb fcdd
efc bcbf
ebcc ecbd
eebc bbef
eebc eddc
eecc debc
bbebe bba
beed bbed
ebfc ded
bced beee
beebe bbbf
bedd bbbe
bedd dcc
bedd fcc
ffc ebf
dedc dbd
beef ea
eedd bbbb
ecebb bbbd
efcc bcc
bfbf bbbb
ebbbc becc
ecdf dcc
bfed dbe
dcec debb
bfec debb
dcee fbc
ef eeeec
dd db</w>
ebc ebbef
ebc eedee
ebc edebe
ebc bedec
ecc bebdc
ebd beff
dec bebec
bef decc
bcbc befc
fbe eddc
ddc ffc
bebd bebbbb
def da
dbbc eecc
dbbc bedc
debe dbf
bcec bbbbc
eeec ebec
ecf c</w>
edbf df
ebccc dcc
efbf a
eebbdd cc
bd bbeba
ebb fdfc
ef bedcc
dd ebbbbbb
bec fbbbe
dbe ecbbc
ff bbebd
dee ecbf
bfc fbcc
bef bbebf
bebc bcbbc
efc bbebe
ddc ebdc
bbbf bba
ac ecbc
bbdc bedc
dbbc bbdd
ecbe bbecc
bcf dccc
da debb
eeec fdc
bbbec bbbbc
bbbcc dbd
eeed debb
ecdc fec
bdebb bebe
edbf bcc
bcbec df
fdebf cc
bf bbdbd
bf dbbbf
ed febdc
eec bca
bdc ebbcc
bbbc bfbf
bbbc bcbbd
dbc bcbbbb
dec e</w>
dbf bdcc
bbbf bcbe
eccc bbbd
bcbd fed
bcee bbeec
beebb bbbbbbbb
bdbd bddd
decc bebe
eedc eedc
fef efc
fef ddc
eebf fbf
bebbbb ff
edbd ebbc
edbd fbd
bcdc bebc
bbccc bbcc
dcbd ebdebbcc
bfbc eebd
a ecebc
bc ebe</w>
bf eebbebb
dc bebbed
dc febcc
ebe bcbebc
ebe eebbebb
dd bbebf
ebc eca
ba debc
ccc dccc
dbc bbebd
bebe eebebe
bfc bdbf
bebc eeebb
fbc bcbe
eccc fdd
bbfc bbed
bedc ebdc
ebfc dcc
bced debe
bbbcc ecc
eebf bebf
ecec deec
bbccc bbc
dcdc dee
eea fee
edbc ecbe
bedbe bbbb
ebbee bbebc
bedebf cc
ebc bbebec
ebc fdec
ebc efdd
bec bffc
eec eedcc
ff bfbf
ff bcdf
bbbc bddd
bfc bba
bef bcebc
bbebb bbebd
fbe ebbef
fcc bbdc
fed eccc
bcee debd
eeec bbdd
eeebb eec
fef dbd
eebf eeef
bcdd edc
eddc dec
ebbec bbbd
efbd fbc
ebe ecbbf
ebe eebbebe
bbbe beebd
ebf bdebb
ff dedc
dec bdebb
bbcc bbebc
bbcc eebf
bbbf eebd
bbbbc eeee
fed bbed
dbbc bccc
debe fbd
debc dfc
febb eebc
bbfc bebd
bbbec bbed
decc bedc
ecbd eecc
bcebb dbd
bcebb bebd
bebbc edc
bcdc fbc
fa ea
ecebb df
befc bef
bdec eebc
fbcc bbc
fbbd fbc
ebecc edc
ebbbd bebc
bfebb bbf
ebbec ebbc
bf bd</w>
ed bebbdd
ebb febdc
ebd bdbe
ebd bdee
bcc bebbbc
bbd eedf
bdc eefc
bbbc bbecc
bbbc bebbd
bfc fa
bfc fbbbb
dec eebbc
dcc ddcc
bcbc beebc
debb bcbf
fcc bcbd
bbbbc bdbd
ecbc fdd
eebe bfef
fbf ebec
beebb bbef
dbcc ef
edbd bbee
bcdc ebf
febc dbd
eebbbb dbe
bca bdbf
beecc edc
bf dbbbd
bbbb bedf
ebe bebbcc
fc bfbbc
bec bbebbc
bec ebbbbc
bec debcc
df ddcc
dbc feec
bbee bcebe
ea dfc
bbbd fdd
bbbd febe
beee ebbbbbb
fee bcbe
ebcc bcee
fbe dbdc
dbf bced
fec bcbe
debb bccc
debb beed
fcc bcf
ac dac
fed dedc
eecc def
dbec fbd
eeec eebd
bebf dcc
bbfc bbbbc
fbec dbe
fedc a
bcbcc bcc
bcbbbc bcbbbc
abd ba
ed eeeecc
ed dbbebd
ebb dbbebc
bbc beedc
fc dddd
ecc bddf
eec bbbbcc
bbd bbcbd
dee bcecc
dbc eebbc
bebe edcc
dec bbbcc
bef ecdc
bbbd ebdc
efc bcf
ded bdcc
ebec dedc
bcbc fbbc
ddc ecbd
bbbbc beed
fed deec
ecbe ebbcc
bccc cccccccc
febb bbed
eba bbee
ecbf bbbe
edbf dbe
eded dcc
ebbec bfc
a bfdc
a fda
ef eebdc
ef fded
ebe edbbbb
dd bfef
bbc bdbbd
ebd bac
bcc fbdc
bbd fbef
ebf bbeec
bbbc bbcbbc
ccc eedc
bebc da
bbcc ecec
bbed fdc
fcc dbbc
bebd bbef
becc bbebe
becc dfc
eccc ba
eecc dfc
debe bcec
debc def
bcf debf
fbf cccc
bcee dbcc
bbfc edc
bbfc def
ebfc bebc
ecf bbeec
ffc dfc
bebbbb bbed
ecdc eccc
bea ea
eeef bdc
bcbbbb dbe
bcef ecc
eddd fc
eea bbee
ebb feecc
ebc dea
ebc bcbebe
bbc bedbb
bcc dbfc
bbd fdbb
bdc bedbe
edc bcfc
dbb ebcbf
dbb ebced
dec dcdc
bbbd bcbe
beee eebbbe
bbcc bdcc
fbe bddd
debb bcbe
bbdc bbdd
debc fbd
eebd bbbf
fbf febe
fdc deec
fdc fdd
ecf bba
eebf dcc
eebf fbd
bcebb ef
eeed bef
ecbbc df
edbf edbf
ecbec df
ebbbc fed
bebbebd cc
ebdcedbbec beebf
be dbd</w>
bf beefc
ed fdebe
ebc bebbec
bcc bebbbe
ff bdebb
bbbc dbbf
dee bebec
dbb ecbebc
fec fdd
dbbc fed
dbbc fbf
debe bbbf
ecbe dbdc
bbdd bcbd
deec dedc
eeec fa
bced bbbd
bcbf bbbd
bbeec bbec
ecbf ebbc
bded bbec
befc bfc
eefc bec
bfec bcbc
ebbec ded
bcdbbbb cc
a eddd
a ecebe
bc bbeac
dc bebecc
bbbb ecdc
bbbb eebbd
ef ffcc
ebc acc
bbc eceec
ebd ebbbbbb
ebd ecdf
bbf ebbbbbb
dbc eeebc
ebec bcbbc
fec ecbd
fcc fbbc
beec ac
beec eeec
bebd da
bebd fdd
eccc edcc
deec ebf
bbfc becc
eeebb ebbc
bcebb bbbf
eeed efc
edbd bbd
febc ecc
befc eec
bfbc ea
bcbbdd cc
bd dbbccc
bf eedcc
fc fdcc
ebd bebbbc
bbbe beeec
bbf bebcc
dbe bcdf
ebf fecc
bdc bcbbbb
bdc fdbe
ba eebf
ff ddcc
dee ecebb
dec fecc
fee bcbbc
ebcc beef
ddc debd
eeee eeebf
bebd bedd
ecbc febb
bbebe bbbbbbbb
bbef fa
dbbbb bbbbbbc
bcbd ea
decc fed
fef eec
bcbf bbbf
edbd bef
bcdc bbbe
ebbcc dbc
ebccc ecc
ebbbbbb ebbbbbb
dcbd bebe
bedbb ecc
ebeebb bbee
edec bbbd
bbbb ecbec
ef bbcbf
bbc defc
bbd ecdf
bbd eca
ebf dbbbe
bdc ecdd
edc bdef
ba d</w>
ff ecbe
bbbc dbbbc
bbbc bddc
dee ebfc
ccc bced
dbb fcdf
efc feec
ded dbdc
bbec dbcc
fee ffc
ebcc ecdc
bbed bbebc
fcc fedc
eeee eebbbe
eecc decc
bbdd bbbbc
dbbbb dbf
beebb fbe
bcec fdc
bdbd bbebb
bedc ea
decc fbc
beebe bbec
bebbc debb
dedc ebbc
bfec bbbd
bc ebc</w>
ef beea
ebe eebdc
ebd eebbf
eec bfdd
dbe bdef
bdc bbecc
ebec ffc
ddc edbbc
eeee bbbec
bbbbc ea
bbdc fbe
eebd debc
dbbbb beee
deec eccc
febe beebe
ecee b</w>
febc bfc
bcbbc dbd
bbbdc bbbd
eea bba
ebbee eec
dbbcc ccc
a eebec
be dbe</w>
bd bccccc
bf eedbd
dd dcec
bbc ecdbe
ebd bedbc
ebd fdcc
bcc bedee
df dcef
edc ecfc
bbbc bbbbbbbc
bebe bbecc
bef bfcc
dcc eddd
ddc dedc
dbf cccc
fcc bcbf
beec dbcc
eeee dec
bebd fbbc
eef d</w>
eef dbbbe
eebd eedc
dfc debc
dbec ebdc
bedc fdc
eedc debb
bebbbb fbc
eebbc ff
bebbd bbee
eea df
ebbbf ff
dac ba
edec bebc
ebebd ccc
ed bebdcc
ef beebbc
ebd ebbebe
bcc fdee
ebf bcdd
dbc eeef
bebe bbeec
bebe bdbf
bef bebcc
bbec bba
bbbf bcec
fcc bbebb
fcc bbfc
fcc edbd
bbbbc def
bbbbc fbbc
fed d</w>
bbef beebe
bcbd becc
deec bbee
fef ded
eebf bcbc
bebbbb dbd
ecdc bfc
bcef bbbe
fecc ecc
fbbf a
bebbf bbbe
ebbbd debb
dcbc fbd
dcbf ccc
ef bcbebe
ebe bebbbf
ebc eebbee
fc ebbed
ebd bcecc
ebf febd
bdc bbebd
bdc ecef
bebe ecbf
dec bba
dec bcebe
fec bfcc
bbed febb
eef bfebe
bccc fdc
dbec ecbc
fbf bcbd
bbbbbbbb bbdd
ecec beee
beebe ebbc
dedc ebcc
beef bbef
bcbbc eec
bdbe eba
ebbcc edc
ebbebb bec
bbccc bbbb
bdebb bcc
fbbd bbbe
bfbf bbbc
bedbe dbc
dced bec
ebbbd bbec
bfbc beee
bfbc ecbc
ecced ccc
bf fbbef
ed fbbbbc
ebe dbecc
ebe bdecc
ebc dbecc
ebc bfebe
bbc efbf
bbd ebbebe
bbd eeebd
ba bbfc
ba bbbcc
ba eeed
dee e</w>
dee bcebe
dbb abd
ebbc bcef
bebc bcfc
bbcc dbcc
bbebb bcbf
ddc bcdd
fec edcc
eebc decc
debc ecbd
bcf e</w>
da dba
fbf debb
fbf bbed
bebbc bbbbc
edbd debe
bdf dbbf
ecdd ded
bbbdc dbe
ebbebb bbbd
bdec fed
feec ff
eded bdc
ecef df
bfbd ded
be bbbd</w>
ee dbb</w>
bf eedec
ef bcbbee
dd fbbbc
dd bfebb
ebc eedcc
bbc edebb
ba bcee
ba bcbbc
dbb ebcbbc
dbb ecbbbd
dec bdbf
bef bbebd
ded bebcc
fbc dbcc
fec eedd
fbd bbbbc
fbd eccc
eecc bcbd
eebd fbe
eebd fbbc
eedc dbf
bcebb becc
bdcc bfc
bcdd bbbb
eddc bcc
bebbd eec
ebbbc dbbc
dcbd bcc
dcbd dcc
eedf a
bdbbd bbbd
ee bbbbbbbbbbbb
bf dbccc
bbbb ebbee
ebe ecebd
dd fbebe
ebc bcbdc
fc bcdbe
fc bdbec
fc edfc
bbd ecbcc
bbd fdbd
bdc bea
dee fbbbb
dbc bebbbb
ebbc dbbbe
dec bea
dbd bebec
bef ecebb
bebc eeed
fec bcee
beec beebc
eeee eebc
ebdc ecbc
bbdc eeec
dbbbb dbbc
dbec bbed
fdc febb
bba eba
dbbd d</w>
bcebb ebf
beef bbbf
dccc bec
bbecc bcc
ecbf bfc
bdbe bbbbbbbb
dbbbc dbe
bdee ebdc
beecc eec
a beba
bf bedbf
bbbb bbebec
ebe dca
ecc defc
bcc dbbee
bbd eac
bbd edef
dbc dbbf
dbc bcef
dbc bcfc
bbee bedd
bef ecbe
dcc beebb
bbbd bced
efc dbdc
eeee becc
ac eeec
eebc bbbec
eccc bced
bbebe fbd
bbdd beec
bba bfc
ecf dbbf
eebf bbebb
ecec bbebb
bcbf efc
beef fcc
dccc bbc
edbc ebdc
eebbbe beee
eccedc dee
a eded
ebb dbdcc
bbbb debf
bbbb bcebd
bec bbbfc
bbbe eeef
dbe bdbc
bbbc bdbbc
bbee ebbcc
dbb fced
dec bfcc
bbec fef
fbc feec
bbbf beebe
eeee ebbef
eebc febe
bbebe bcbd
dbbc eeed
debc bbed
beed ea
bebf efc
bcebb bbcc
bcdc fcc
eeebe fef
ebbbc bbef
ebbbd ebd
bfec fed
a efcc
a ecbec
bf bbbebbbb
bbbb bfbbc
ef bcdec
ebe debec
ebe bedbd
ebe eddbe
ebe dceec
bdc ddcc
dee fdf
bbee befc
ebbc bdebb
dec eeebc
bbec bcbbc
bbebb bdbbbb
fbe bdbbc
ddc eedd
becc fbf
fbd cccc
eecc fbf
bccc bebd
beebb ebec
bbebc bbebc
bebf bbebe
decc bfc
debd fee
bcebb ecc
bcebb fec
bebbbb ba
bbebd ccc
edcc bbec
dccc dbe
bcbbbb bbbf
ebbebb bebc
bbebbc bbbe
a ecfc
a bcba
dc bbded
ebe bbbbbd
ebe fea
dd dbecc
dd bcbbf
ebc dcbc
ebc bebbebb
fc dddc
fc edebc
ebd bdebc
bcc bac
bbbe dbdc
edc bea
ba bcf
bebe bfcc
bbbbc febb
eccc bcee
dbbc ebcc
debe bbdc
dfc bcbd
bccc eeee
bcec eccc
febb bebd
febb fef
bebf dbf
dbbd fec
decc dbd
eedc ebdc
fdd bef
eebf bbbf
bedd ebcc
dbbf bbbd
bbecc bebc
bddc dcc
bdec deec
febd ff
eded bbf
bfbd dbd
ebb bedebc
dc bbebcc
dc befcc
dc dbbdc
dd debcc
fc bdecc
ecc bcdee
df bedbe
bbf debf
ebf fccc
bdc bedf
edc efdc
dee ffc
bbee eeec
bbee bebbd
dec bcbbc
bbcc bcbe
bbed ac
def bbebb
eecc ffc
eecc ecdd
beebb eeef
bbfc efc
ecec ebec
bdcc fcc
ebbcc ff
bebec fbc
bcebe dbe
bcbbd bbbe
bda bba
efbd ff
a debf
ebb bedef
ebc fbebc
bec fdbc
ecc bcdbe
bbd eebbbc
ebf eefc
edc d</w>
edc beebd
bbbc eeebc
bebe bcfc
bfc bebcc
bbbd beebe
beee bcee
ebec bcee
fbe bac
debb bbbbbbbb
ebdc debc
fed b</w>
dbbc b</w>
debe bcbd
bcec da
bedc eeec
dbcc fee
bdbc eebe
febc bbbe
dbbbc bbbd
eebbbb ccc
bfec bbec
bfec fee
ef bbfcc
ef febbc
bbc eac
dbe bebbbc
edc defc
bebe ffc
bebe bbebf
dec bcfc
dbd fbbc
efc bbebc
bbcc fdd
eebc ecdd
eccc def
eebd febb
bccc ecbc
beebb eebd
bdbd fbd
ecf dbdc
fef ebbc
bbeec ff
ecee bbef
bcbbc dd
bcdbbd cc
a ebecc
a bdebe
ed fbbebe
bbbb bbdbd
ef bebfc
ebe eebbbc
ebe aa
ebc bebfc
ebc ecdec
bbc ecdf
ebd eebbbe
ebd beccc
bcc bdee
eec deccc
dbe beebd
bdc eba
edc bdebb
edc ecdf
ba eef
bbee dbbbe
bbbd bddc
bbebb bbbbebb
bcbc febe
fbe efbf
debb dfc
eebc ffc
dbec eeec
fbf bbbbc
bbbec ebec
beef bebf
eeebe eebeee
febc ebf
ebbcc bcc
bbbdc bbf
ecbbc bbbe
eea bea
fbbd fc
ebbbc eeee
fbbebd cc
bceeefcfeccefebbc ecebcddbd
a eebcc
bd ecbccc
dc fbccc
ebe bbefc
ebc bddbe
bbc dcbf
ecc bfed
eec fdbc
dbe ecf
ba dca
ff ecef
dee bbedc
ccc eebd
bebe bebbd
bef e</w>
bebc febe
efc bbef
dbf eebd
fec dbdc
bbbf ecbc
beec bbebc
beec bcdc
ac eecc
eebc da
fbd deec
da dea
fbf bebd
beed decc
eebf dbd
ecec fed
beef dcc
ecbf dec
bdbc ac
bdf eba
eebbc bdc
bddc ded
bdec ebcc
febd dbe
bceec dec
ebbbbc bbbe
edec bbec
ee ebc</w>
ebb eebccc
bbbb eefc
bbbb bcbbbd
dd bedbc
bec febf
eec eebec
bbd edbec
edc bfdc
ba eda
ff edbf
bebe bdebb
ea deec
bebc bcebe
fbc bfcc
ebcc dbbc
debb ebdc
debb bedd
eef bbecc
bcbe bbebf
bcbd debc
dbbf bfc
bded ecc
bcbbbb bebbbb
fbbbb bbec
fdf bbf
ebccc fc
dcec bfc
bfef ccc
ed cccccc
dd ececc
fc eceec
bbf dbbbc
bdc eddd
ba dbec
dbc eeebe
bebe bcef
bebe eebbc
efc beebe
bbec bbecc
beee bebbf
fbe dced
fcc fbe
beec bcebb
eebc fef
def ebec
fed ac
bcf dbbbc
bcbd bbdc
fdc ecbc
bbfc eebc
bedc bedd
debd fec
eeed fee
edcc ebcc
bcdc bfc
ecdc fbd
ecee debe
eced bbbe
eeef ea
bcebe bbf
bdec dbf
ecbbbb bbc
ebbed bec
dcbd ddc
dddc ddc
bbbbbd bbbbc
a beecc
bf dbbdd
ed eacc
ebe ddbd
ebc deecc
ebc dcecc
bbc fbfc
ecc edef
bcc beccc
bbd bcbdc
dbe bcbbd
ebf eebbbb
ff eea
bbbc fbbd
bbbc bedbe
dee ecec
ccc bbbbc
dbc eefc
dbb ecebf
dec febe
ded bddd
bcbc bedd
fcc bcfc
eebe ebba
eebd fdd
dfc ebcc
da fbd
beed bbdc
decc fcc
ecf bbecc
bbbcc bbebb
bebbc beee
beef eec
fbbbb fbc
ecef dcc
f dee</w>
bf bebbebe
dd bcdee
bbc ecdee
ebd beedc
dbe eeebc
ebf fbbbe
edc bcebc
dee eebf
dee eced
dbd ecbe
ea bdbd
bbec eebbc
bbec bedbe
bbcc fef
bbcc eedd
fee bbdd
ddc ac
ddc febb
fcc efcc
beec fbf
bbbbc bbef
eebc ecbe
becc febc
def eccc
bcee ecbe
beebb beec
bba fee
eedc eebd
bebbc ebec
febe eeebe
eeef df
beebc edc
bdee eccc
bebec bebc
ebbbc ecbc
ecebe bcc
bebbee bbf
dcbc debe
a fbef
bf bbdbbbb
dc bbbccc
ecc eedcc
ebd eeccc
eec edbf
bbd bedbd
bbd edebc
bbd edfc
ba dbbd
dbc bebbd
bbee ecbe
bebe bebbf
dec eef
dec eebf
bef bcbec
bbec bebcc
fcc bced
becc dedc
cccc df
bfcc fed
bea bebe
bcdd dcc
bcfc bec
bca bea
bffc df
fdbb bec
efef ff
bcdebd cc
ee bbbb</w>
bf beded
ebb dbba
ebb bbbdcc
dc febec
bbbb feec
ef eedbc
bcc eeecc
bbd ecbbd
bbf bebbf
ebf febf
ccc eeec
bbbd fef
bebc ecbe
fbc ecbe
fcc eddd
eeee eeff
eeee ebeef
ac bcec
bbbbc bcbe
eebd bdbd
eebd edbd
bbdd ebcc
fbf ac
ecdc bbee
ecee dfc
bdbc dfc
fbbbb bec
bdee bbebc
eddc ff
bfec ebd
bfec ebbc
edee eccc
edee ecbc
ebb fdef
bbbb eea
ecc ffcc
eec bedee
df eea
ebf e</w>
dee dbbbe
bfc bbecc
bfc bcdd
bef bcebe
bbbd bdebb
ded febb
fee b</w>
bbebb fbbc
bbed bedd
fcc ecec
eebc dbbbb
bebd ecbd
bebd bebcc
def b</w>
ebdc dfc
bcf dbdc
bcbd eeebb
fdc eeec
eba ea
bcbf fec
bbeec bdc
fecc fbc
dbfc ff
beebd ccc
fedc dd
ebbbd bcc
dcbc fed
ebb bebbfc
dc bbdbf
dc fdebb
ebe beebbc
ebc efbf
bbc dba
ebd ecdbe
bbd beebf
bbbe ecbbbb
dbe bbedc
ebf ebbebb
ebf ecbbc
dee eeec
bebe deec
dbb becbf
dbb ecbbee
dec edcc
bef edcc
fbc dedc
bbcc bcbbbb
bbebb eebe
fbe debf
fcc eeee
beec ffc
eeee ebbebb
bbebe eeebe
bbdc bdbd
eef dcdc
debc ebdc
bbdd becc
bebf fdd
bedc dbf
bedc beed
dbcc dbcc
eeebb bbef
eeed beec
eedd ebcc
eeef eebf
ecdd ff
eddc a
fecc dec
eebbbb beee
edbc dfc
ebbbc eebd
bbcbd dbe
bd bbe</w>
ebb bbcccc
ebe ecbbbc
fc ecccc
fc bda
ebd febf
eec ecf
eec bcdbe
ebbc bbecc
dbd bbfc
bef eebbc
ea bbebc
ea fbbc
efc dccc
ded ecbd
ded fdd
bbebb beef
bcbc bebcc
fec ecdc
debb beebe
bbed bcebb
bbed ffc
fcc bfcc
bebd fbf
dbbbb beebb
bbbbbbbb dbe
debd bef
bbbcc bccc
ecec dedc
edcc efc
ecee debc
eced bbee
bea bbbc
ecebb bbee
ebbcc dd
edbf ebd
dba bea
ebbbc bbebc
dcec eecc
bbbbebb bbbd
dacc abdbf
bd bbebbcc
[...]
