{"<unk>":0,"<pad>":1,"a":2,"b":3,"c":4,"d":5,"e":6,"f":7,"b</w>":8,"e</w>":9,"a</w>":10,"c</w>":11,"d</w>":12,"f</w>":13,"bb":14,"be":15,"bc":16,"ee":17,"cc":18,"bd":19,"ec":20,"bf":21,"ed":22,"ebb":23,"dc":24,"bbbb":25,"ef":26,"ebe":27,"dd":28,"ebc":29,"bbc":30,"fc":31,"bec":32,"ecc":33,"ebd":34,"bcc":35,"eec":36,"bbd":37,"df":38,"bbbe":39,"bbf":40,"dbe":41,"ebf":42,"bdc":43,"edc":44,"ba":45,"ff":46,"bbbc":47,"dee":48,"ccc":49,"dbc":50,"bbee":51,"bebe":52,"bfc":53,"ebbc":54,"dbb":55,"dec":56,"dbd":57,"bef":58,"dcc":59,"ea":60,"bbbd":61,"bebc":62,"efc":63,"ded":64,"bbec":65,"fbc":66,"beee":67,"bbcc":68,"fee":69,"bbebb":70,"ebec":71,"bcbc":72,"ebcc":73,"fbe":74,"ddc":75,"dbf":76,"fec":77,"debb":78,"bbbf":79,"bbed":80,"fcc":81,"beec":82,"eeee":83,"ac":84,"bbbbc":85,"eebc":86,"bebd":87,"becc":88,"fbd":89,"def":90,"eccc":91,"ecbc":92,"ebdc":93,"fed":94,"eecc":95,"bbebe":96,"bbdc":97,"dbbc":98,"eebe":99,"debe":100,"eef":101,"debc":102,"ecbe":103,"bbef":104,"bcbe":105,"bcf":106,"eebd":107,"dfc":108,"bbdd":109,"bccc":110,"da":111,"dbbbb":112,"dbec":113,"bcbd":114,"bcee":115,"fbf":116,"beebb":117,"fdc":118,"bbbbbbbb":119,"bcec":120,"bbebc":121,"deec":122,"beed":123,"bba":124,"febb":125,"eeec":126,"bebf":127,"eba":128,"bbfc":129,"bdbd":130,"bedc":131,"cccc":132,"bbbec":133,"dbbd":134,"decc":135,"eedc":136,"ecbd":137,"ebfc":138,"debd":139,"dbcc":140,"ecf":141,"bced":142,"eeebb":143,"fef":144,"bbbcc":145,"fdd":146,"eebf":147,"ecec":148,"beebe":149,"bcbf":150,"bedd":151,"eeed":152,"bcebb":153,"bebbc":154,"ffc":155,"bebbbb":156,"dedc":157,"bbebd":158,"febe":159,"beef":160,"edcc":161,"fbbc":162,"edbd":163,"bcdc":164,"eedd":165,"bbeec":166,"ecdc":167,"dbdc":168,"dccc":169,"dbbf":170,"eeebe":171,"dbbbe":172,"bbecc":173,"fa":174,"bdcc":175,"ecbf":176,"ecee":177,"bdbc":178,"febc":179,"bac":180,"bcbbc":181,"eced":182,"bdbe":183,"bdf":184,"bfcc":185,"bea":186,"bded":187,"ecebb":188,"befc":189,"eeef":190,"bcbbbb":191,"bdbf":192,"beebc":193,"bcef":194,"bcdd":195,"dbbbc":196,"ecdd":197,"debf":198,"eebbc":199,"eac":200,"bb</w>":201,"ebbcc":202,"fbbbb":203,"bbbdc":204,"bbebf":205,"bbccc":206,"ebbebb":207,"bdee":208,"bebec":209,"bddd":210,"eddc":211,"fbec":212,"bcebe":213,"bddc":214,"efcc":215,"fecc":216,"bebbbe":217,"bdec":218,"fbcc":219,"dbbee":220,"bcfc":221,"bdebb":222,"eddd":223,"bcebc":224,"dbfc":225,"fdf":226,"bebbd":227,"eebbbb":228,"dcdc":229,"ecbbc":230,"bbedc":231,"bebcc":232,"edbf":233,"eea":234,"fbbd":235,"ebecc":236,"edbc":237,"febd":238,"debbc":239,"ebccc":240,"feec":241,"dddd":242,"bfbf":243,"bca":244,"bedf":245,"bedbe":246,"eefc":247,"defc":248,"beecc":249,"bcbec":250,"bbebbc":251,"dba":252,"eded":253,"fbbf":254,"bbba":255,"ecef":256,"fdbe":257,"ebbbbbb":258,"bebbf":259,"ebbee":260,"bdbbc":261,"bbbfc":262,"ecbec":263,"ebbbc":264,"beebd":265,"bdef":266,"bdbbbb":267,"eeebc":268,"ebbbf":269,"ecebc":270,"beeec":271,"dced":272,"fccc":273,"bcbbd":274,"ecfc":275,"ecebe":276,"ecdf":277,"fbbbe":278,"ddcc":279,"fedc":280,"eebec":281,"bcbcc":282,"ebbbd":283,"eebcc":284,"bcdf":285,"bebbee":286,"bfdc":287,"bceec":288,"dea":289,"deecc":290,"bebbbc":291,"dbbcc":292,"eedbe":293,"bfed":294,"fbdc":295,"ecbbbb":296,"ebbed":297,"dcbd":298,"eedf":299,"bfbd":300,"eca":301,"ebbbbc":302,"ecccc":303,"fdbc":304,"bfbc":305,"be</w>":306,"ebbebe":307,"eebbd":308,"beff":309,"eebbbe":310,"febf":311,"bd</w>":312,"ecbcc":313,"debcc":314,"debec":315,"bda":316,"bebdc":317,"bc</w>":318,"bdebe":319,"dcdd":320,"bedbc":321,"edbbc":322,"dcbc":323,"eebbf":324,"beccc":325,"eeecc":326,"efbf":327,"dcec":328,"acc":329,"beebf":330,"bcebd":331,"bcecc":332,"dfcc":333,"ecbbd":334,"dbecc":335,"fbbbc":336,"dcbf":337,"bdfc":338,"eebbee":339,"ebbef":340,"bbbbbbc":341,"bdebc":342,"bcbbbe":343,"eceec":344,"dded":345,"fbebe":346,"bbefc":347,"bedee":348,"fdee":349,"beedc":350,"bbea":351,"eeccc":352,"eb</w>":353,"bbbbcc":354,"efdc":355,"bfebb":356,"bcbbf":357,"bbebec":358,"bdbbd":359,"bbcbbc":360,"fbef":361,"ececc":362,"bcdbe":363,"bfef":364,"ecdbe":365,"ebdcc":366,"fbbee":367,"bdbec":368,"ebbdc":369,"ebeebe":370,"bfbbc":371,"eeeec":372,"bddf":373,"bedbb":374,"ecdee":375,"dac":376,"bffc":377,"bcccc":378,"fdcc":379,"eeebd":380,"edef":381,"ffcc":382,"edebb":383,"bcbbbc":384,"fdbd":385,"eebebe":386,"eddf":387,"bbdcc":388,"dddc":389,"bbbbebb":390,"ddbd":391,"fbfc":392,"bfec":393,"eebdc":394,"fdbb":395,"ebeebb":396,"eedbc":397,"bfdd":398,"eeff":399,"edec":400,"deccc":401,"dcef":402,"bfebe":403,"fdec":404,"bedbd":405,"bcdee":406,"edbec":407,"bbebcc":408,"edebc":409,"eebeee":410,"bfa":411,"eedee":412,"ebbec":413,"dbbbbc":414,"bcff":415,"debdc":416,"efef":417,"dbbbd":418,"bedcc":419,"edebe":420,"bbcbbbb":421,"bcdbc":422,"eda":423,"fba":424,"bebbebb":425,"fcdc":426,"eebbbc":427,"ecebd":428,"bebbbd":429,"ebbebc":430,"bdeec":431,"eeebf":432,"bfbbbb":433,"bedec":434,"bebbec":435,"ebbdd":436,"bbfcc":437,"edfc":438,"beba":439,"fbebc":440,"bbcbd":441,"dcebe":442,"febbc":443,"efdd":444,"eebef":445,"ebba":446,"bebfc":447,"bcbdc":448,"dcfc":449,"ebbbec":450,"dcebc":451,"bbac":452,"efbd":453,"fbeee":454,"eddee":455,"beebbc":456,"bbbbbd":457,"ee</w>":458,"aa":459,"ebebf":460,"bcbebe":461,"dcbbc":462,"ebbfc":463,"bcedc":464,"eddbe":465,"ecdbc":466,"eedcc":467,"bbbecc":468,"ecdec":469,"bebbcc":470,"bdbcc":471,"bbcbf":472,"fbbbd":473,"ec</w>":474,"dcebb":475,"bddbe":476,"ebfcc":477,"edbcc":478,"dedcc":479,"bfebc":480,"fefc":481,"edee":482,"ecbbf":483,"dbbdd":484,"ed</w>":485,"ebbbbbe":486,"ecbbbe":487,"efebe":488,"edbbbb":489,"fbbcc":490,"ecbdc":491,"db</w>":492,"ebebbc":493,"fbbec":494,"bbdbd":495,"dcbec":496,"dbccc":497,"fea":498,"eeedc":499,"fddc":500,"bcbbee":501,"dceec":502,"fdbf":503,"bdebd":504,"eefee":505,"ebac":506,"befcc":507,"ebbbbd":508,"ecff":509,"bdecc":510,"dcccc":511,"edeec":512,"fcbf":513,"bcdec":514,"ebebbbb":515,"efbbc":516,"dca":517,"eedbd":518,"fded":519,"bbbccc":520,"bfbec":521,"efebb":522,"bcdbd":523,"edbbd":524,"effc":525,"bbcebb":526,"dcecc":527,"ebebd":528,"bcebf":529,"bcbebc":530,"bbbebbbb":531,"efa":532,"bbdbbbb":533,"dbbebb":534,"bcbef":535,"efed":536,"fbecc":537,"dcdf":538,"eeba":539,"dbbbf":540,"bedbf":541,"bebecc":542,"bcfbc":543,"dcee":544,"ddbf":545,"dbbed":546,"fbbbf":547,"ebeef":548,"bcbbbd":549,"bebbbf":550,"beded":551,"ecbbbc":552,"bdbbbe":553,"beea":554,"ecded":555,"ebedc":556,"fcdd":557,"ecedc":558,"beddc":559,"bddee":560,"ebced":561,"bebbed":562,"bbb</w>":563,"ebcbf":564,"bcbfc":565,"fcfc":566,"bbdbbc":567,"bbbbbf":568,"eedec":569,"fbbebb":570,"ebcbbc":571,"bdbbf":572,"becbbc":573,"ebbbcc":574,"ebedd":575,"ebeed":576,"bbebdc":577,"bbdbf":578,"bf</w>":579,"ecdbd":580,"eebebc":581,"dd</w>":582,"bbbbbbbe":583,"dcbcc":584,"ebbeec":585,"eebbec":586,"fbccc":587,"bcbbec":588,"bedebb":589,"becbf":590,"eefbe":591,"bbeecc":592,"bcded":593,"bbced":594,"dbbdc":595,"ecdcc":596,"bdff":597,"ecced":598,"bcdcc":599,"ebcebb":600,"febcc":601,"bcebbc":602,"eebbebb":603,"fac":604,"feecc":605,"bfbcc":606,"dda":607,"bddbc":608,"ddef":609,"fcbbc":610,"ecbebe":611,"bdbdc":612,"ebea":613,"eeebbc":614,"beefc":615,"ddbbc":616,"bebccc":617,"bfdf":618,"dcebd":619,"ecbef":620,"bcbbcc":621,"bbbbbbd":622,"eebbbd":623,"dbbebe":624,"edecc":625,"ddebc":626,"bbeccc":627,"ebbbbf":628,"bddbd":629,"bbbbbbbc":630,"bcba":631,"fcdf":632,"febec":633,"bebbebe":634,"fdebb":635,"bbbbebe":636,"fbbed":637,"bebbbbc":638,"eefbc":639,"ebcebc":640,"fcef":641,"ebbdf":642,"eebfc":643,"edebd":644,"ecbebc":645,"becbec":646,"beebec":647,"fcbd":648,"eeddc":649,"ebcdc":650,"dbdcc":651,"eebcbc":652,"ebbebd":653,"eddbc":654,"bbcbec":655,"ebcbd":656,"ebcbec":657,"bcfee":658,"ecbfc":659,"ebbdbe":660,"dbbef":661,"bbded":662,"fdef":663,"bbcebe":664,"ddebe":665,"bfbbf":666,"ddfc":667,"bcbeee":668,"ecebf":669,"ebcef":670,"bbcef":671,"ecbbec":672,"edccc":673,"ecbbee":674,"dddf":675,"dcdbe":676,"ebbbbbc":677,"abf":678,"debfc":679,"de</w>":680,"cccccccc":681,"eebbcc":682,"bdedc":683,"ddeec":684,"eeea":685,"bcfec":686,"dcbbbb":687,"beac":688,"bfecc":689,"beebcc":690,"dcbbd":691,"fced":692,"bdbbbc":693,"bbbbbbbbbbbb":694,"ddebb":695,"eedbf":696,"ddbec":697,"dbba":698,"bcced":699,"dc</w>":700,"bcbbebb":701,"dbbfc":702,"bcfbe":703,"bccbbc":704,"ecfbc":705,"ecbeec":706,"bdccc":707,"bbdebb":708,"aed":709,"ecebbc":710,"dfdc":711,"feccc":712,"bcfcc":713,"ebebec":714,"eecbf":715,"ecbcbc":716,"bcefc":717,"bbcdc":718,"bdbebe":719,"bcbeec":720,"ebbecc":721,"efdf":722,"ebefc":723,"ebebbbe":724,"eddec":725,"bbcfc":726,"ebbbebe":727,"dbbbec":728,"ebcdd":729,"ebceec":730,"ebb</w>":731,"efbcc":732,"bfff":733,"bedbbc":734,"bbcccc":735,"defcc":736,"eeded":737,"efbec":738,"ebcbbbb":739,"bceebc":740,"bbcdd":741,"bfbbd":742,"bfdbe":743,"ebcfc":744,"bfebd":745,"bfbbbe":746,"fcccc":747,"abd":748,"edbdc":749,"eecdc":750,"fdbbc":751,"bbcbcc":752,"adc":753,"fbbef":754,"ecba":755,"eebeec":756,"eecbec":757,"ecbbbd":758,"bbbcbbbb":759,"edbbf":760,"bebbef":761,"ebebcc":762,"ddecc":763,"fbbdc":764,"bcdebb":765,"bcdbf":766,"beeecc":767,"dcdee":768,"efbbbb":769,"ebcdf":770,"bcbbed":771,"abbc":772,"bebbdc":773,"bcbebd":774,"bcbccc":775,"eebbed":776,"edff":777,"add":778,"ebcebe":779,"fbbbbc":780,"eecdf":781,"eeeecc":782,"fcbec":783,"edbbbe":784,"deba":785,"bedef":786,"fda":787,"aef":788,"ecfec":789,"bacc":790,"bddec":791,"eedbb":792,"bbebfc":793,"ddbbbb":794,"bfeec":795,"bbddc":796,"bbbbbbbbbbbbbbbb":797,"bcdbb":798,"bbeba":799,"becebb":800,"bcfbd":801,"becdc":802,"afc":803,"bcbbbf":804,"eacc":805,"fdfc":806,"bcbbbbc":807,"efebc":808,"dbfcc":809,"bbcebc":810,"bdbbbd":811,"bbcbbd":812,"ebbff":813,"bdbbee":814,"eebbbf":815,"ecceec":816,"bcddc":817,"fedcc":818,"ebddd":819,"fbbebe":820,"aebe":821,"dbedc":822,"bedebe":823,"ecfee":824,"bccccc":825,"dffc":826,"abbbb":827,"eebbebe":828,"bbbeebb":829,"bcebec":830,"eebccc":831,"ecbecc":832,"eefcc":833,"ebded":834,"bcbecc":835,"bccbf":836,"bdebf":837,"dcedc":838,"dfed":839,"bbdebe":840,"bbfbf":841,"ecddc":842,"ecdebb":843,"ebbbbee":844,"cccccc":845,"bbdef":846,"bbbebbc":847,"fdebe":848,"deedc":849,"eebebd":850,"ebeebc":851,"efdbe":852,"dbbebc":853,"bccbcc":854,"ebebebe":855,"bebbebc":856,"eecdd":857,"aebb":858,"eecbbc":859,"febdc":860,"bbbbbec":861,"eebecc":862,"dfdd":863,"ecbbcc":864,"bdbef":865,"dcff":866,"bbdbbd":867,"efecc":868,"eddbd":869,"efff":870,"ecefc":871,"eedebb":872,"bedbbbb":873,"ededc":874,"ebdbf":875,"ecbeee":876,"fcebe":877,"efbbf":878,"dfbf":879,"ecfcc":880,"eefec":881,"ecbccc":882,"bdbebc":883,"bcea":884,"dddbe":885,"fdebc":886,"fcbcc":887,"ecbebd":888,"bedebc":889,"bbdbec":890,"ef</w>":891,"eefbd":892,"eccbec":893,"dcbdc":894,"ecdbf":895,"edded":896,"dcdbc":897,"bdfbc":898,"fcebb":899,"bbbdcc":900,"ddbcc":901,"eeefc":902,"ebebbf":903,"bceebe":904,"bcebcc":905,"dbbebd":906,"bbcbbbe":907,"ebcbcc":908,"dbbbcc":909,"eccecc":910,"ecfbe":911,"bbbbbbf":912,"bdded":913,"fca":914,"bdbfc":915,"bbceec":916,"bddcc":917,"ecbbed":918,"ebbebf":919,"bbbbed":920,"ddebd":921,"bcfed":922,"fcebc":923,"bbbebf":924,"fbdcc":925,"dcdec":926,"bebbdd":927,"bbbbbcc":928,"bcecbc":929,"bedbec":930,"ebbdbc":931,"bebba":932,"bbbbdd":933,"fcdbe":934,"ecbbebb":935,"bceeee":936,"bcdef":937,"beced":938,"eebbef":939,"ecdef":940,"eeebcc":941,"eccef":942,"bceecc":943,"eeebec":944,"bbcbbf":945,"bcecbe":946,"ebbbdc":947,"bbca":948,"debbcc":949,"ebbccc":950,"bebbbec":951,"becebc":952,"eceebc":953,"becdd":954,"becebe":955,"eeac":956,"fbbdd":957,"efccc":958,"dbac":959,"bfccc":960,"bcdebe":961,"bceebd":962,"dbedd":963,"bbd</w>":964,"ecebcc":965,"beeccc":966,"becbbbb":967,"bceef":968,"bbbeebe":969,"bfbdc":970,"ebddc":971,"bbcdf":972,"bbcbbbc":973,"eeecbc":974,"bfebf":975,"ecebec":976,"bbbbbbbd":977,"eddcc":978,"bdba":979,"becef":980,"bfbbbc":981,"ffdc":982,"bbdebc":983,"bcac":984,"fbbfc":985,"ebebbee":986,"bbcdbe":987,"dbbeec":988,"bbbebbbe":989,"bbda":990,"beda":991,"bedfc":992,"deedd":993,"edbebe":994,"bfbebe":995,"eedbbc":996,"becccc":997,"deac":998,"dcbbf":999,"becdf":1000,"eccebc":1001,"bccebe":1002,"eecccc":1003,"bbdfc":1004,"edbbbc":1005,"bccef":1006,"ebbedc":1007,"bbbbebc":1008,"becbd":1009,"ebbbbbd":1010,"bfedc":1011,"fdbec":1012,"dcdcc":1013,"bbcebd":1014,"ebbdee":1015,"bcbbdc":1016,"eebbbbc":1017,"becfc":1018,"bfdbc":1019,"edbef":1020,"bbbbef":1021,"ebedf":1022,"eedef":1023,"ebbbef":1024,"beebdc":1025,"ebdef":1026,"eccdc":1027,"bdbbec":1028,"bdebbc":1029,"ebca":1030,"bbc</w>":1031,"bebbfc":1032,"dddbd":1033,"ecfbd":1034,"eccfc":1035,"bebdcc":1036,"dfa":1037,"fdbbbb":1038,"bbebbcc":1039,"bbbba":1040,"bccfc":1041,"eecef":1042,"ecfed":1043,"dddbc":1044,"fbbebc":1045,"bcdbbc":1046,"eceecc":1047,"ddedc":1048,"bbe</w>":1049,"dfef":1050,"ebbbebc":1051,"debecc":1052,"ddbbd":1053,"ebcebd":1054,"bccbec":1055,"bccbd":1056,"eccbf":1057,"bccdc":1058,"bbbfcc":1059,"dbeed":1060,"fbba":1061,"dbebf":1062,"bcceec":1063,"bbebbbbbb":1064,"ebebbd":1065,"ececbc":1066,"dfbd":1067,"eebbdc":1068,"edbbec":1069,"ebcecc":1070,"bccebb":1071,"bcbbebe":1072,"bbbcbbc":1073,"ffbf":1074,"bbfbbbb":1075,"ecea":1076,"ddbdc":1077,"ebbbeee":1078,"dcdbd":1079,"bccebc":1080,"ebddf":1081,"eecbd":1082,"ebdbd":1083,"ecdebc":1084,"bbfef":1085,"edbbee":1086,"ebeecc":1087,"bfdee":1088,"ebdbec":1089,"edbebc":1090,"bccdd":1091,"ebdbbc":1092,"bfbbee":1093,"ebedbe":1094,"ebebeee":1095,"bbfbbc":1096,"bbdeec":1097,"eeecbe":1098,"bbbb</w>":1099,"ebe</w>":1100,"fceec":1101,"ecdeec":1102,"ffdd":1103,"bedbbd":1104,"beceec":1105,"ebdebb":1106,"eedbec":1107,"bbbac":1108,"eccbbc":1109,"fcdee":1110,"bbbbdc":1111,"bbedcc":1112,"dfbbc":1113,"ffef":1114,"edebf":1115,"fbbbec":1116,"bdfee":1117,"ecbbbf":1118,"bcdebc":1119,"bedeec":1120,"ecdbb":1121,"eccdd":1122,"ebbbbebb":1123,"fdbcc":1124,"eebba":1125,"bcbbdd":1126,"beca":1127,"ebdeec":1128,"ebbebbc":1129,"bbbbfc":1130,"ebeeec":1131,"bdddc":1132,"fdbbd":1133,"bfbef":1134,"bdbeee":1135,"ebdebc":1136,"bcbbef":1137,"efeec":1138,"ebeff":1139,"dbebbc":1140,"fbfcc":1141,"eccccc":1142,"bbdbbbe":1143,"bccbbbb":1144,"dddee":1145,"efbbbe":1146,"edced":1147,"bcdfc":1148,"eccebb":1149,"ecdbec":1150,"bbfebb":1151,"ebebbbc":1152,"dbebd":1153,"eccbd":1154,"ebeebf":1155,"efbdc":1156,"eeeccc":1157,"dcbbbe":1158,"dcded":1159,"edbfc":1160,"fffc":1161,"bebebbbb":1162,"ddccc":1163,"dfebc":1164,"ebd</w>":1165,"eeceec":1166,"dbbbdc":1167,"becbcc":1168,"bebbbbbbbb":1169,"ecca":1170,"bcdbbbb":1171,"bbbdbbbb":1172,"ebc</w>":1173,"fdeec":1174,"debccc":1175,"ebbdec":1176,"ecdfc":1177,"eccedc":1178,"eeda":1179,"ebda":1180,"ebdbbbb":1181,"ebeccc":1182,"dbddd":1183,"ebebdc":1184,"dbb</w>":1185,"becdbe":1186,"ebcbbd":1187,"efbbee":1188,"bdfbe":1189,"bbffc":1190,"edddc":1191,"efbebe":1192,"bedbcc":1193,"ecdbbc":1194,"ebeeeee":1195,"efebf":1196,"ebdfc":1197,"ebcccc":1198,"bebbbcc":1199,"bdbcbc":1200,"efbbd":1201,"ecdebe":1202,"ebcdbe":1203,"ebbdbd":1204,"ebbfee":1205,"eeca":1206,"bffbc":1207,"dcebf":1208,"fdecc":1209,"bfbfc":1210,"ecbbdc":1211,"bceccc":1212,"ebcbbbe":1213,"bdfec":1214,"efdbc":1215,"bbfdc":1216,"edbeec":1217,"edfbc":1218,"baa":1219,"ebbbbec":1220,"bebbeec":1221,"ebeebd":1222,"eebbebc":1223,"ebebef":1224,"bbfa":1225,"ecbbbbc":1226,"dbefc":1227,"efdee":1228,"edceec":1229,"bcca":1230,"bdefc":1231,"ffa":1232,"bddebb":1233,"eedebc":1234,"bdbeec":1235,"efebd":1236,"ebbeeee":1237,"bbcdee":1238,"eebdcc":1239,"fbebf":1240,"bdbbcc":1241,"fcbbbb":1242,"fdebd":1243,"bbcbdc":1244,"ddff":1245,"bbcdbc":1246,"eccebe":1247,"edba":1248,"bedebd":1249,"ebbba":1250,"eccdf":1251,"ebbfbc":1252,"fcff":1253,"eedebe":1254,"bcebdc":1255,"bbeebbbb":1256,"becdee":1257,"efbef":1258,"bcbcbcbc":1259,"bebbebd":1260,"ececcc":1261,"ecac":1262,"edbbbd":1263,"ebbbfc":1264,"eceeec":1265,"decdc":1266,"ebcbbf":1267,"bcbbebc":1268,"fbbbcc":1269,"bcdbec":1270,"eceeee":1271,"beeba":1272,"eddef":1273,"bddbf":1274,"bbcbebe":1275,"bbdbcc":1276,"eefed":1277,"bbbbcbbbb":1278,"eebbdd":1279,"bbbcbbbc":1280,"dbbecc":1281,"ecda":1282,"ebcdee":1283,"adf":1284,"ecdecc":1285,"beb</w>":1286,"bbdbbf":1287,"eceef":1288,"edebbc":1289,"effee":1290,"dbbccc":1291,"feba":1292,"bbbbdbe":1293,"eceebd":1294,"eedbbbb":1295,"bbbcbf":1296,"dddec":1297,"bcbbfc":1298,"befbf":1299,"ebfbf":1300,"edfee":1301,"eddbf":1302,"bcda":1303,"bbdebd":1304,"df</w>":1305,"eecebc":1306,"ebedbc":1307,"ececbe":1308,"bbbbbebe":1309,"eceedc":1310,"edcdc":1311,"ecfdc":1312,"dddcc":1313,"bdbebd":1314,"bbebecc":1315,"fb</w>":1316,"edcef":1317,"fcecc":1318,"bbcecc":1319,"febfc":1320,"bdbbebb":1321,"eeebdc":1322,"bcdeec":1323,"aebc":1324,"bbbebec":1325,"dfbec":1326,"bbbbbbebb":1327,"ffff":1328,"bdfbd":1329,"bdfcc":1330,"eddebb":1331,"bdcdc":1332,"eecfc":1333,"bdeebc":1334,"fdbbf":1335,"beedcc":1336,"febbcc":1337,"bbbedc":1338,"bbeebf":1339,"eedfc":1340,"edbeee":1341,"ebdebe":1342,"abec":1343,"dfebe":1344,"dfecc":1345,"bbcff":1346,"eecbcc":1347,"eecebb":1348,"eebeebe":1349,"fcbbf":1350,"deebf":1351,"bebebf":1352,"bebebbc":1353,"eeced":1354,"bedecc":1355,"fcdbc":1356,"eccbcc":1357,"edcbec":1358,"bdcdd":1359,"ecebdc":1360,"dcbbbc":1361,"dbebbbb":1362,"edcdd":1363,"bebfcc":1364,"dfbcc":1365,"bbdbbbc":1366,"bbeeebe":1367,"bdcbf":1368,"ebcdbc":1369,"dbebec":1370,"dcfbc":1371,"eecbbbb":1372,"bcbbbec":1373,"fdccc":1374,"dfebb":1375,"eedeec":1376,"eeeeeeee":1377,"bbeeebb":1378,"ebcdec":1379,"eceebe":1380,"eebbfc":1381,"bdbbed":1382,"ddddc":1383,"eecdec":1384,"bbfed":1385,"bdced":1386,"bbfebe":1387,"efbbbc":1388,"bcbbbbbbbb":1389,"abcc":1390,"bbbedd":1391,"dacc":1392,"dfdf":1393,"ebcff":1394,"bbfdd":1395,"bbbebebe":1396,"ecbbdd":1397,"becbbd":1398,"dbeebb":1399,"bfdbd":1400,"dbcdc":1401,"fcbbd":1402,"bebbecc":1403,"ebcedc":1404,"becebd":1405,"bbbcebb":1406,"efbeee":1407,"edefc":1408,"eccebd":1409,"dbeebe":1410,"bfdec":1411,"edfec":1412,"bffee":1413,"dbea":1414,"bddbb":1415,"fbbeec":1416,"bdcef":1417,"dcbebe":1418,"fcebd":1419,"dcbfc":1420,"dcddc":1421,"eecdee":1422,"bdcebe":1423,"bedbbbe":1424,"ebbbbcc":1425,"bedbbf":1426,"bdea":1427,"bbefcc":1428,"bbcdbf":1429,"eecebe":1430,"bfbebc":1431,"bcdbbd":1432,"bcbdcc":1433,"dbeef":1434,"bdcbbc":1435,"bdebec":1436,"eebbbec":1437,"eeeba":1438,"bbfbbf":1439,"ecfbf":1440,"bcbbbcc":1441,"dcfec":1442,"ebbfbe":1443,"bbeac":1444,"bbcbbee":1445,"bcbba":1446,"ebcbbbc":1447,"bdbecc":1448,"bbbbbbee":1449,"bbbeef":1450,"eecdbe":1451,"ebfef":1452,"dcbef":1453,"fefcc":1454,"edcdf":1455,"bbdbbbd":1456,"bccdf":1457,"ecbbebe":1458,"bbbbbbbbc":1459,"dbcdd":1460,"eedbcc":1461,"bbbeed":1462,"bbbebbbc":1463,"ffbbc":1464,"ebefee":1465,"beebfc":1466,"fdbdc":1467,"eecebd":1468,"fe</w>":1469,"bfdcc":1470,"fcbdc":1471,"ebbbcbc":1472,"bbbea":1473,"ecbbebc":1474,"bebebebe":1475,"bccecc":1476,"dbbebf":1477,"fcdec":1478,"deddd":1479,"bccebd":1480,"becdbc":1481,"edcebc":1482,"eedbbd":1483,"ecdedc":1484,"bbbbebd":1485,"fbeef":1486,"ebbbbbf":1487,"fbbebd":1488,"bfba":1489,"bececc":1490,"adbe":1491,"bcdebd":1492,"dbcbbc":1493,"edbecc":1494,"edbbcc":1495,"bbdbdc":1496,"aff":1497,"bddef":1498,"bebeebe":1499,"decccc":1500,"deebbc":1501,"bdbcbe":1502,"ecdebd":1503,"bdbbbf":1504,"dcefc":1505,"edbbebb":1506,"ecfebb":1507,"edcbf":1508,"eecdbc":1509,"fbebbc":1510,"ebcbdc":1511,"ececbd":1512,"ebfbbc":1513,"becdec":1514,"dfdbe":1515,"bbbebbf":1516,"bbbddd":1517,"bbdff":1518,"edbcbc":1519,"fbbecc":1520,"efedc":1521,"bbeebbc":1522,"bebeebb":1523,"bfbeee":1524,"bcb</w>":1525,"bfebbc":1526,"becbbbe":1527,"efdcc":1528,"bddbbbb":1529,"bbebccc":1530,"dbedbe":1531,"ebbded":1532,"bcdbcc":1533,"aba":1534,"ecbbef":1535,"bdbcf":1536,"ebcbebe":1537,"ebdebd":1538,"dfccc":1539,"befdc":1540,"bcedcc":1541,"bffbe":1542,"bddebe":1543,"edcebe":1544,"aecc":1545,"ecbdbd":1546,"ddded":1547,"beebbcc":1548,"ebbdcc":1549,"abbf":1550,"becbbf":1551,"dcbbee":1552,"bdeebe":1553,"abbd":1554,"dcbebc":1555,"ddbbf":1556,"bedccc":1557,"becff":1558,"edfbe":1559,"bbbebbee":1560,"bfbbec":1561,"bbbeebc":1562,"bbcbbbd":1563,"bbbebbd":1564,"edcfc":1565,"ebffc":1566,"bddbbc":1567,"bdac":1568,"bdcfc":1569,"bffcc":1570,"fdbbbe":1571,"befef":1572,"becbbbc":1573,"dbced":1574,"ebcbebc":1575,"decdd":1576,"ececf":1577,"eecbbd":1578,"ebfdc":1579,"bdebcc":1580,"ebddbe":1581,"bfbbbd":1582,"bccbbd":1583,"bbcdbd":1584,"bdbcbd":1585,"eddebe":1586,"ebfa":1587,"ebfebe":1588,"ebbdebb":1589,"bdbbdd":1590,"bbcbebc":1591,"ebbfec":1592,"bdbbbbc":1593,"ebbbbbbc":1594,"edbbed":1595,"ebbeebc":1596,"bbbefc":1597,"bcdecc":1598,"ecbbfc":1599,"bdceec":1600,"bdcebc":1601,"edbebd":1602,"bdbcee":1603,"befdd":1604,"ebbbebd":1605,"bdcbec":1606,"dbcbf":1607,"dcfcc":1608,"bbcdec":1609,"fbeebe":1610,"dcfee":1611,"eececc":1612,"eeedcc":1613,"bdfed":1614,"ebbeebe":1615,"dbbedc":1616,"dbcfc":1617,"ecbdcc":1618,"ffebe":1619,"bccdbe":1620,"ccccccc":1621,"bbdbebe":1622,"accc":1623,"effbc":1624,"efdbd":1625,"edcecc":1626,"bebbebf":1627,"ecbedc":1628,"bdeef":1629,"bbbcebe":1630,"dbbbbbbbb":1631,"ebdecc":1632,"aeec":1633,"ebbcbbbb":1634,"bedbdc":1635,"dbcbbbb":1636,"bfbcbc":1637,"ebbcbbc":1638,"deefc":1639,"fc</w>":1640,"eedebd":1641,"ffccc":1642,"bdbbdc":1643,"edfcc":1644,"bbdecc":1645,"ddfbc":1646,"deddc":1647,"becbbec":1648,"ebbea":1649,"dfeec":1650,"dfebd":1651,"befebe":1652,"efbfc":1653,"dbddc":1654,"ecdbcc":1655,"bdeeee":1656,"fdedc":1657,"ebfbbbb":1658,"aebd":1659,"dfbbbb":1660,"efba":1661,"ebebebc":1662,"deeccc":1663,"efdec":1664,"ebcded":1665,"bccbbf":1666,"ecdbbbb":1667,"bdeecc":1668,"befbbc":1669,"eebbbcc":1670,"abbbe":1671,"bfbbcc":1672,"bccff":1673,"ebbbeebb":1674,"edeebc":1675,"fbac":1676,"eebbeec":1677,"ddbbbe":1678,"bcbfcc":1679,"dfff":1680,"bbfbec":1681,"dfdbc":1682,"ebedee":1683,"dfedc":1684,"bbcebf":1685,"bbfebc":1686,"bfcbf":1687,"eecff":1688,"bedbbbc":1689,"dbeebc":1690,"eceedd":1691,"ebeedc":1692,"bbdbbee":1693,"fbedc":1694,"bcffc":1695,"eccdec":1696,"ebbefc":1697,"ebddee":1698,"deb</w>":1699,"bdecbc":1700,"ebbbeec":1701,"dccccc":1702,"eedccc":1703,"dbcef":1704,"bccdee":1705,"ebbbbed":1706,"bbdccc":1707,"eebeef":1708,"eeb</w>":1709,"beeeebe":1710,"eedecc":1711,"bdbeed":1712,"fbebbbb":1713,"bbcbef":1714,"bbcbfc":1715,"eefbf":1716,"eecded":1717,"bdfdc":1718,"becbdc":1719,"dfbdc":1720,"fcbbbc":1721,"babbbb":1722,"eccbbbb":1723,"bccbbbc":1724,"bbeebbee":1725,"bccbdc":1726,"ecbbbec":1727,"bdeebd":1728,"bdecbe":1729,"fd</w>":1730,"dcebbc":1731,"dbbdcc":1732,"dcbbbd":1733,"bbbedbe":1734,"bbcbbec":1735,"bee</w>":1736,"eebbecc":1737,"eceeed":1738,"edea":1739,"bdbcec":1740,"debdcc":1741,"eebfcc":1742,"edfbd":1743,"bccedc":1744,"edbcec":1745,"fdebf":1746,"efebbc":1747,"bcbbebd":1748,"ebbbcbe":1749,"dbbebbc":1750,"edebcc":1751,"dbcebe":1752,"edebec":1753,"befa":1754,"fddcc":1755,"bbddcc":1756,"bcfdc":1757,"ddebf":1758,"bdcbbbb":1759,"bdfbf":1760,"bbcfbc":1761,"eeeeebe":1762,"bbbcbec":1763,"dbbbfc":1764,"bdbdcc":1765,"ebdbbd":1766,"bbcedc":1767,"eebebf":1768,"bbfff":1769,"bbbebcc":1770,"ebbebec":1771,"bebbbdc":1772,"eebbebd":1773,"bbcbcbc":1774,"dbbba":1775,"dbd</w>":1776,"dcbbec":1777,"bbbbccc":1778,"dccdd":1779,"eccff":1780,"dfbbd":1781,"ebdbcc":1782,"fbbebf":1783,"fbefc":1784,"edca":1785,"beffc":1786,"bcebbcc":1787,"bdbeebb":1788,"eefebe":1789,"ebbbecc":1790,"dbebcc":1791,"dccdc":1792,"eddebc":1793,"dbdbf":1794,"ddbebe":1795,"ecdbbd":1796,"bbbbeec":1797,"bddebc":1798,"eefef":1799,"fdbbbc":1800,"bcebfc":1801,"becbebc":1802,"ddbbbc":1803,"feac":1804,"ebbbbebe":1805,"dbeecc":1806,"eaa":1807,"dbedf":1808,"ebcbbee":1809,"bbfbbbe":1810,"ebcebbc":1811,"bbcebbc":1812,"bffec":1813,"decbec":1814,"bfefc":1815,"ebcbfc":1816,"bfdbf":1817,"fbbccc":1818,"ddbbbd":1819,"ebcebf":1820,"bffbd":1821,"ebdccc":1822,"bdeeec":1823,"bcdedc":1824,"deea":1825,"deeebe":1826,"bbeebbbe":1827,"eebebbbb":1828,"bebebbbe":1829,"edbeed":1830,"bdbccc":1831,"bcbbeec":1832,"ebdff":1833,"ebbdbf":1834,"facc":1835,"bbacc":1836,"ebddbc":1837,"dfbbf":1838,"dbc</w>":1839,"eecbdc":1840,"eefa":1841,"dbe</w>":1842,"bcfdd":1843,"fcded":1844,"bccdbc":1845,"beeebbbb":1846,"bcbedc":1847,"ebeba":1848,"ebcdbd":1849,"ebddec":1850,"fcfbc":1851,"efbebc":1852,"bbbcbbbe":1853,"edcbbc":1854,"bdca":1855,"edeecc":1856,"ecbedd":1857,"bccbbbe":1858,"eddeec":1859,"bededc":1860,"bddfc":1861,"dbbbbcc":1862,"febccc":1863,"fcdcc":1864,"feebf":1865,"eccdbe":1866,"bbbdbbc":1867,"dcbeec":1868,"bebeef":1869,"dcbcbc":1870,"bebbccc":1871,"bbbbbebc":1872,"deebec":1873,"fcbef":1874,"bbdbebc":1875,"adbc":1876,"ebbfbd":1877,"fcdbd":1878,"edfed":1879,"decbbc":1880,"bbdedc":1881,"fbedd":1882,"bebbedc":1883,"bbbbdbc":1884,"ebcfbc":1885,"ebbfcc":1886,"ddcdd":1887,"fcbfc":1888,"bcfbf":1889,"febecc":1890,"ecbfcc":1891,"deedbe":1892,"bdfebb":1893,"bbfdf":1894,"eceeebb":1895,"ebdedc":1896,"abbbc":1897,"ebfdd":1898,"bcdbbbe":1899,"fbbbdc":1900,"ba</w>":1901,"eddfc":1902,"ebbebcc":1903,"bbbbbdc":1904,"eccbdc":1905,"bbcbbcc":1906,"ebebfc":1907,"efeeee":1908,"bebac":1909,"edeeee":1910,"bdda":1911,"bdbebf":1912,"fcebf":1913,"bdbedc":1914,"bcbedd":1915,"fcbbbe":1916,"bbbcdd":1917,"bbbbdbd":1918,"eebea":1919,"bedbbee":1920,"bcdbbf":1921,"bbfbcc":1922,"dcba":1923,"eddbec":1924,"bec</w>":1925,"bed</w>":1926,"bfbbebb":1927,"bfbbbf":1928,"dbeccc":1929,"ebebbbd":1930,"bbecbbc":1931,"becbebe":1932,"edcdec":1933,"fbea":1934,"bbdebf":1935,"bebbebbc":1936,"bbeedd":1937,"ebebbebb":1938,"ffdf":1939,"bbeedc":1940,"bfded":1941,"becded":1942,"eddbbc":1943,"eedbdc":1944,"bcdbdc":1945,"efea":1946,"bcbbecc":1947,"ecbba":1948,"bedebf":1949,"bbfdbe":1950,"abba":1951,"beebecc":1952,"eebeebb":1953,"ecedcc":1954,"edbcf":1955,"effcc":1956,"ebcbef":1957,"bbbbbbec":1958,"ecbbecc":1959,"edbedc":1960,"eedbbbe":1961,"ebcfec":1962,"ebdbbbe":1963,"efbbec":1964,"eeebbcc":1965,"dbcbec":1966,"bddbbd":1967,"eecbebc":1968,"bcccccc":1969,"eecbbbc":1970,"edda":1971,"ffbcc":1972,"bbeea":1973,"dcbeee":1974,"ebeebbc":1975,"ebddbd":1976,"fcbebc":1977,"bcbebbc":1978,"ecdbdc":1979,"ebdbbf":1980,"dffbc":1981,"deebcc":1982,"edbbbf":1983,"ebefbc":1984,"edecbc":1985,"dfdbd":1986,"ebebbec":1987,"bbeeef":1988,"dceebc":1989,"bcbebbbb":1990,"cccdd":1991,"abdc":1992,"ebdbdc":1993,"ecbbbcc":1994,"bbbebbebb":1995,"ecdccc":1996,"befbbbb":1997,"dbceec":1998,"dfdcc":1999,"dcfbd":2000,"eedbbf":2001,"eebbebf":2002,"bdbbebe":2003,"ebedbd":2004,"edbdcc":2005,"bfea":2006,"bdb</w>":2007,"fcedc":2008,"ebbfebb":2009,"ebedec":2010,"bbbcbbd":2011,"eccdee":2012,"bddbec":2013,"eccbbd":2014,"bbbd</w>":2015,"beefcc":2016,"becdbd":2017,"feeebe":2018,"bbbfbbbb":2019,"bfcbbc":2020,"fdbfc":2021,"adee":2022,"eebebbc":2023,"ecebbcc":2024,"edbcee":2025,"ebbbcf":2026,"eecdbd":2027,"ebebcbc":2028,"bbbcef":2029,"dbcebc":2030,"dceecc":2031,"eecbbf":2032,"dfdee":2033,"dbebbd":2034,"eddbb":2035,"ebdbebe":2036,"edac":2037,"bcc</w>":2038,"ebebbcc":2039,"bddeec":2040,"beeebf":2041,"ebedcc":2042,"ebcdcc":2043,"becebbc":2044,"ebbddc":2045,"cccdc":2046,"dbebbbe":2047,"aebf":2048,"efcdf":2049,"bebcbbc":2050,"bbbcebc":2051,"bcbebf":2052,"bbbbbbcc":2053,"efcbf":2054,"fbcbf":2055,"ddbfc":2056,"fbebcc":2057,"dcdbf":2058,"bbbbebf":2059,"ebf</w>":2060,"fdbbee":2061,"bdcebb":2062,"bbfbbd":2063,"eccdbc":2064,"becbfc":2065,"ebcbbec":2066,"decbf":2067,"bbbcbcc":2068,"dbdbbc":2069,"eecbbbe":2070,"bbbbdf":2071,"edcedc":2072,"dcebec":2073,"bcfef":2074,"ebcbbbd":2075,"bbf</w>":2076,"ecebfc":2077,"edbcbd":2078,"bcdccc":2079,"ebbbcbd":2080,"edbcbe":2081,"bbbcfc":2082,"fbbbbbbbb":2083,"ebbecbc":2084,"eccfec":2085,"bbdfbc":2086,"babbc":2087,"edbeebb":2088,"bfcfc":2089,"efddc":2090,"eccded":2091,"ecbbeec":2092,"feedd":2093,"ebbcbf":2094,"beddcc":2095,"ebcbcbc":2096,"bdbbef":2097,"bcfbbc":2098,"edbbdc":2099,"ebbeef":2100,"bbbcdc":2101,"eecdcc":2102,"eceebf":2103,"badd":2104,"edcdee":2105,"dbebbf":2106,"ebdbebc":2107,"bbbbff":2108,"ecb</w>":2109,"bebea":2110,"fbebec":2111,"bdcdf":2112,"bebebec":2113,"eeebfc":2114,"efbcbc":2115,"bccdec":2116,"fcbbec":2117,"bedbfc":2118,"babf":2119,"ebbbebf":2120,"ecbbebd":2121,"bebedc":2122,"effbe":2123,"feedc":2124,"dedbbc":2125,"dbedee":2126,"dbeeec":2127,"bbbbdee":2128,"bbbdbf":2129,"ebbeecc":2130,"bbbbebbc":2131,"ecbebbc":2132,"ccccc":2133,"bbccbbc":2134,"becfbc":2135,"ffbbf":2136,"edbccc":2137,"dccfc":2138,"dbca":2139,"bebbba":2140,"efdbf":2141,"fbbedc":2142,"bbbbbef":2143,"bbebbbbc":2144,"eadd":2145,"ebceebc":2146,"edcebd":2147,"bdebdc":2148,"bbbbbcbc":2149,"dcceec":2150,"eefdd":2151,"bcbbccc":2152,"bbbbbbbf":2153,"ebbeebd":2154,"bbfbbbc":2155,"eededc":2156,"becebf":2157,"edcbcc":2158,"becbef":2159,"bbdbbec":2160,"dcfed":2161,"bdcebd":2162,"bedebbc":2163,"ebbbbbbbbbb":2164,"dcdebb":2165,"decdf":2166,"deedf":2167,"dbeebd":2168,"eccbbf":2169,"bebedd":2170,"bcefcc":2171,"cccfc":2172,"bdcbcc":2173,"bfddc":2174,"ecedbd":2175,"ebbfed":2176,"bbdbef":2177,"eebebbbe":2178,"bbdbfc":2179,"bbeebbf":2180,"fecdd":2181,"dbcdbc":2182,"bbbc</w>":2183,"dcbbcc":2184,"beeebeee":2185,"efbbbd":2186,"ebbbcee":2187,"bdcdbe":2188,"decfc":2189,"dee</w>":2190,"ebbeeebb":2191,"bebcbec":2192,"bccebf":2193,"bebefc":2194,"edfdc":2195,"ecceecc":2196,"feeef":2197,"dbcdf":2198,"bceba":2199,"aea":2200,"bcdebf":2201,"bcebecc":2202,"adbd":2203,"bdfdd":2204,"bbbbecc":2205,"bebcbf":2206,"eed</w>":2207,"fbebbbe":2208,"bdbced":2209,"ebdded":2210,"bbdebbc":2211,"edcff":2212,"fbcbbc":2213,"bbbbcbbc":2214,"dcbecc":2215,"becbbee":2216,"eeddcc":2217,"eefbbc":2218,"decdee":2219,"ebbbbdc":2220,"bbbbba":2221,"efbbcc":2222,"beeebbc":2223,"efefc":2224,"ebbbebbbb":2225,"ebcefc":2226,"bdeccc":2227,"ecbeecc":2228,"dfebf":2229,"ffed":2230,"dcbebd":2231,"fdebbc":2232,"bfbeec":2233,"fbbbfc":2234,"ecffc":2235,"decebc":2236,"ebbbcec":2237,"ebbcebc":2238,"bebcbbbb":2239,"bcbefc":2240,"aedc":2241,"bccbebe":2242,"abbee":2243,"bbeb</w>":2244,"bedefc":2245,"bebbbfc":2246,"ffdbe":2247,"ded</w>":2248,"ebfbec":2249,"bdeedc":2250,"ebbfbf":2251,"dcebcc":2252,"efded":2253,"bceedd":2254,"ebeea":2255,"dfbbbe":2256,"dcfbe":2257,"fdba":2258,"dbdbbbb":2259,"dbcccc":2260,"bbbdbbbd":2261,"ffebc":2262,"beeebbbe":2263,"bfac":2264,"dec</w>":2265,"beebccc":2266,"ebbdbbc":2267,"bdcdee":2268,"fbcfc":2269,"beacc":2270,"bdcecc":2271,"bbcbbebb":2272,"becedc":2273,"ebdbbbc":2274,"eecbfc":2275,"eddecc":2276,"eec</w>":2277,"bccbfc":2278,"bdfef":2279,"bbcded":2280,"fbebbf":2281,"bcdbbbc":2282,"ddfec":2283,"bebebbee":2284,"dbbfcc":2285,"ddbbee":2286,"fbcef":2287,"ecbeebc":2288,"ffbec":2289,"eecedc":2290,"edeebd":2291,"ebbbccc":2292,"bdecf":2293,"bebebbf":2294,"bfbcf":2295,"bedba":2296,"eefdc":2297,"ddbef":2298,"fecccc":2299,"ebbcebe":2300,"bccdbd":2301,"abef":2302,"becbeec":2303,"bdcbdc":2304,"bbdba":2305,"effec":2306,"fcfee":2307,"ebcbeec":2308,"eeeebeee":2309,"eedbbbc":2310,"bbebbbbbe":2311,"ebbdbbbb":2312,"bfdebb":2313,"becdcc":2314,"bbbe</w>":2315,"ddcdc":2316,"ebcdebb":2317,"bbdbbcc":2318,"edcdbe":2319,"bfbecc":2320,"dbcdee":2321,"dbddbd":2322,"ebfbbf":2323,"cccbbc":2324,"edeeec":2325,"bdecbd":2326,"fcbcbc":2327,"ebbbeebe":2328,"dcbbed":2329,"bfbbed":2330,"ebacc":2331,"bdffc":2332,"ffecc":2333,"bdbebbc":2334,"bebebcc":2335,"edbced":2336,"fcbeec":2337,"eecfec":2338,"edbbbbc":2339,"bbcba":2340,"eee</w>":2341,"ebcfee":2342,"cccecc":2343,"deebbbb":2344,"bbbca":2345,"fbeff":2346,"bddebd":2347,"bbbcbbf":2348,"dbcbcc":2349,"dfbfc":2350,"ebfff":2351,"bbbeebd":2352,"ebbcdd":2353,"edbbdd":2354,"cccbcc":2355,"ebfbcc":2356,"afbc":2357,"beeebbee":2358,"ebcba":2359,"bdbbfc":2360,"edeef":2361,"ebecbbc":2362,"ebbdbb":2363,"becbbbd":2364,"bbecbbbb":2365,"ebcbebd":2366,"bbecbf":2367,"edbbebe":2368,"dbedbc":2369,"fbbba":2370,"bbdbbebb":2371,"dbeff":2372,"dbebdc":2373,"ebbcfc":2374,"eebebbee":2375,"ddfcc":2376,"ecceebc":2377,"bcbbbdc":2378,"dccef":2379,"bfcef":2380,"ddefc":2381,"debfcc":2382,"bcfebe":2383,"bffbf":2384,"ddbebc":2385,"eebbbdc":2386,"edbdbd":2387,"abebe":2388,"dbebbbc":2389,"ecdbbbe":2390,"befdf":2391,"fecdf":2392,"ebfebc":2393,"deeef":2394,"bdbbebc":2395,"ebbcbec":2396,"dcdef":2397,"edeccc":2398,"bcbcbbc":2399,"eccbbbe":2400,"ecdbbf":2401,"bcbeebe":2402,"eebbedc":2403,"dcea":2404,"fcfcc":2405,"bfbebd":2406,"ebcbecc":2407,"bdbedd":2408,"ebcbbcc":2409,"befbbf":2410,"bfeebc":2411,"bce</w>":2412,"ebbbbdd":2413,"ebbbbef":2414,"edcded":2415,"eecbebe":2416,"fbbebbc":2417,"eccbebc":2418,"fdefc":2419,"bcbebec":2420,"dbbefc":2421,"afee":2422,"bbcbeee":2423,"beeac":2424,"decbcc":2425,"bebbbbcc":2426,"bbbebebc":2427,"bfeeee":2428,"ebbac":2429,"bbecbec":2430,"ddfee":2431,"bcebccc":2432,"bdbcebb":2433,"bdecec":2434,"bbbcccc":2435,"dbcbbd":2436,"ebbbedc":2437,"bbbdbbd":2438,"ecbefc":2439,"bccfbc":2440,"bbcfee":2441,"edbebf":2442,"bbbbbfc":2443,"ebdbfc":2444,"bbebbebe":2445,"bbbbfbc":2446,"ebcfbe":2447,"bdfbbc":2448,"bcd</w>":2449,"ebfdf":2450,"bbbeeec":2451,"deeecc":2452,"bdbcbf":2453,"ebbdebe":2454,"dbcdbe":2455,"bdcccc":2456,"fcbbee":2457,"fecdc":2458,"bbcdcc":2459,"eceba":2460,"bdeeebb":2461,"bbbebbbd":2462,"ecc</w>":2463,"cccbf":2464,"dbdef":2465,"bdcff":2466,"befbcc":2467,"befbec":2468,"edcccc":2469,"bdcbbd":2470,"eccefc":2471,"fcebbc":2472,"dfdec":2473,"eecbecc":2474,"eccdcc":2475,"baebe":2476,"bcfebc":2477,"bcdbbee":2478,"abfc":2479,"bbeedbe":2480,"bdeebf":2481,"bebeebc":2482,"edfbf":2483,"dffcc":2484,"dbbebec":2485,"eddebd":2486,"bdbebbbb":2487,"ebbecbe":2488,"bbfebd":2489,"decdec":2490,"deeebc":2491,"ebbbeed":2492,"bbeebec":2493,"eddbbbb":2494,"dceebd":2495,"eecbeec":2496,"befebc":2497,"eccfbc":2498,"bddbcc":2499,"bcfa":2500,"bcbbebf":2501,"edeedc":2502,"bdbba":2503,"eecebbc":2504,"bbebdcc":2505,"ff</w>":2506,"bffdc":2507,"eecbbec":2508,"fcfec":2509,"dbcebd":2510,"cccef":2511,"edebdc":2512,"eccbfc":2513,"dcfdc":2514,"ebbdebc":2515,"dbfdd":2516,"ffbbbb":2517,"fdfcc":2518,"ecfdd":2519,"eebac":2520,"bebebbbc":2521,"bbfebf":2522,"decef":2523,"ebebbbf":2524,"fbedf":2525,"dcbcee":2526,"dbcecc":2527,"efcdd":2528,"bbfccc":2529,"beeea":2530,"bdeeed":2531,"bdbbbec":2532,"bccbbee":2533,"decdbe":2534,"eecfbc":2535,"ebebebd":2536,"eecba":2537,"fcbebe":2538,"bbdddd":2539,"bebb</w>":2540,"ebebeebb":2541,"eecbef":2542,"eecdebb":2543,"bbdfee":2544,"bbbeebf":2545,"bdbcdc":2546,"bbcbbbbc":2547,"bfebcc":2548,"feddd":2549,"bcbac":2550,"bbeebebe":2551,"ebbbcebb":2552,"bbcfec":2553,"ebdfbc":2554,"bfebec":2555,"bccbef":2556,"effbd":2557,"edfebb":2558,"beeebebe":2559,"eebbccc":2560,"eceeebe":2561,"bfcdd":2562,"dbbbdbd":2563,"eeefcc":2564,"bbbdbbbe":2565,"becfec":2566,"bbccbbbb":2567,"bbccccc":2568,"eebefc":2569,"decebe":2570,"dbdebe":2571,"becbcbc":2572,"bbfbebe":2573,"bfbccc":2574,"bfcdf":2575,"beeeef":2576,"bbcbeec":2577,"bccdcc":2578,"bdfebe":2579,"eebedd":2580,"eccebf":2581,"adcc":2582,"badc":2583,"fbeebc":2584,"eeeeef":2585,"dbebebe":2586,"dbffc":2587,"bbeefc":2588,"ecefcc":2589,"ebbdef":2590,"eccebbc":2591,"ebbeeebe":2592,"bfdef":2593,"efcdc":2594,"bbecccc":2595,"fbeccc":2596,"bccbebc":2597,"dbdfc":2598,"bfecbc":2599,"abca":2600,"dbddf":2601,"bbbedf":2602,"bbbbdbbbb":2603,"eebeebf":2604,"ebbbebbc":2605,"bbdbeee":2606,"ebdebf":2607,"bfcebe":2608,"eddbbd":2609,"ece</w>":2610,"bdcdbc":2611,"ebbebdc":2612,"bcddcc":2613,"bccded":2614,"dcbeed":2615,"efbbebb":2616,"bbbeff":2617,"bdecee":2618,"bccbcbc":2619,"bfbcbe":2620,"bddecc":2621,"eedbfc":2622,"ebcfcc":2623,"ecdeecc":2624,"feea":2625,"deedee":2626,"eefbbbb":2627,"bfbcee":2628,"befdbe":2629,"efbeec":2630,"edbedd":2631,"ebfccc":2632,"eadc":2633,"eccbbbc":2634,"befccc":2635,"bbbdebe":2636,"ebdebbc":2637,"bfcdc":2638,"deceec":2639,"ebbeebf":2640,"ecddcc":2641,"bbbfbbc":2642,"deddf":2643,"fbebbee":2644,"dbda":2645,"ebceecc":2646,"dbbbecc":2647,"bdbeebe":2648,"deedbc":2649,"eebedc":2650,"bcbcbbbb":2651,"eccbebe":2652,"bbeddd":2653,"debbbbbb":2654,"bbecebe":2655,"ecfbbc":2656,"eeffc":2657,"baef":2658,"dbddbe":2659,"ebbbbebc":2660,"bccfec":2661,"bbbfbf":2662,"eebeebc":2663,"efcef":2664,"feebbc":2665,"ebbbdbd":2666,"bbfeec":2667,"becbecc":2668,"fbcdf":2669,"cccccccccccccccc":2670,"bdd</w>":2671,"bdedbd":2672,"fdbbcc":2673,"bbfbbee":2674,"bebcebc":2675,"ebddcc":2676,"bbdbebd":2677,"deedcc":2678,"bbbceec":2679,"bdbbbbbbbb":2680,"eaebe":2681,"bbbda":2682,"bbbcdbe":2683,"bcbbbbcc":2684,"bbebebbbb":2685,"bfcbec":2686,"ecdefc":2687,"bcfccc":2688,"eccfcc":2689,"bceedc":2690,"ecdebf":2691,"eebcbbc":2692,"eddbcc":2693,"ebbcef":2694,"ffebf":2695,"bbeeebc":2696,"ebbfdc":2697,"bdcedc":2698,"bcbeef":2699,"bbbeccc":2700,"ebebecc":2701,"eebbbbbbbb":2702,"bcfbec":2703,"eeebecc":2704,"bbbcbbbd":2705,"deca":2706,"ebbeeec":2707,"ddfbd":2708,"bbfdbc":2709,"fbbdcc":2710,"ecebccc":2711,"bfca":2712,"ecdebbc":2713,"bbdbcbc":2714,"bdcdbd":2715,"eeeea":2716,"fbcbec":2717,"ebeded":2718,"ecebecc":2719,"bbbced":2720,"fcdbf":2721,"ecbeccc":2722,"ffdcc":2723,"bbbebbec":2724,"dbeedc":2725,"eccdbd":2726,"dbbea":2727,"bedbbcc":2728,"baba":2729,"bfbbbbc":2730,"bebcef":2731,"eebebcc":2732,"ebcddc":2733,"bbbcebd":2734,"beecbec":2735,"eecbcbc":2736,"eebebbf":2737,"bebcebe":2738,"ecfef":2739,"edbebbc":2740,"dedbec":2741,"bbcbebd":2742,"bccbbcc":2743,"ecbea":2744,"efcfc":2745,"bbbedbc":2746,"eedba":2747,"ebcebcc":2748,"dceeec":2749,"bafc":2750,"ebfebf":2751,"ebddebb":2752,"ecbeebe":2753,"ddebbc":2754,"bdcdec":2755,"ebdbbee":2756,"bcbedbe":2757,"bbfbfc":2758,"ffdbc":2759,"bedbecc":2760,"ebdbbbd":2761,"dddbf":2762,"dccbbc":2763,"ebbdfc":2764,"dcecbc":2765,"dcdebe":2766,"eddedc":2767,"bbdbeec":2768,"ebbbbbec":2769,"bebcfc":2770,"bdbeef":2771,"eedbbee":2772,"efcbbc":2773,"fecbec":2774,"deebbf":2775,"ddba":2776,"bebbea":2777,"edbbebc":2778,"abea":2779,"edbbef":2780,"bbccebe":2781,"bbdeebc":2782,"eeeebbbb":2783,"ebcebec":2784,"beebbbbbb":2785,"bcdbfc":2786,"eccbecc":2787,"bbbebdc":2788,"bbdbbed":2789,"bcbbedc":2790,"ebcbeee":2791,"dcdfc":2792,"efcbec":2793,"eeeebf":2794,"edfef":2795,"dedbf":2796,"dbebbee":2797,"bcfdf":2798,"bbceebc":2799,"eecfee":2800,"bbbcbebe":2801,"bccbbec":2802,"dccebe":2803,"dccbec":2804,"ddbbec":2805,"deebdc":2806,"eecbbbd":2807,"bbfecc":2808,"fccef":2809,"edcdbc":2810,"fceebc":2811,"eeeebbee":2812,"ebcecbc":2813,"ebebbebe":2814,"ecdbbbc":2815,"dbedbd":2816,"dcbccc":2817,"dcbcbd":2818,"fecbbc":2819,"ddbeee":2820,"ffbbd":2821,"dccecc":2822,"eecebf":2823,"efca":2824,"fbeebf":2825,"eecbbee":2826,"eefdf":2827,"bbbcdf":2828,"bbffbc":2829,"bcbebbbe":2830,"bfcbbbb":2831,"edbcebb":2832,"dddebb":2833,"eefccc":2834,"edecbd":2835,"ebcdbf":2836,"ffbdc":2837,"ecbbccc":2838,"bbcbbed":2839,"ecfccc":2840,"becfee":2841,"fecbf":2842,"aca":2843,"fccccc":2844,"bbfdee":2845,"fdbecc":2846,"ebcfed":2847,"eeceecc":2848,"ecdbfc":2849,"edcbbbb":2850,"bcbebcc":2851,"ebbbced":2852,"fcbbbd":2853,"ebdeebc":2854,"edeebe":2855,"dceeee":2856,"ecbebcc":2857,"bebcbebc":2858,"bcbea":2859,"dceccc":2860,"ecbbedc":2861,"eaef":2862,"bbbebeee":2863,"bdfa":2864,"fbedbe":2865,"deebbd":2866,"bdedcc":2867,"ecbebf":2868,"dbdbec":2869,"fccfc":2870,"ecbedbe":2871,"dbdbbd":2872,"bbcdebb":2873,"bbbbbeee":2874,"ebebeec":2875,"eedebf":2876,"bbbdbbee":2877,"ebbeedc":2878,"ebbeccc":2879,"becdebb":2880,"bbbbbebbbb":2881,"adec":2882,"edcbdc":2883,"ebbfef":2884,"dcbbebb":2885,"bbbbbbed":2886,"ffebd":2887,"bfbcec":2888,"edbcdc":2889,"bbccef":2890,"bbbebef":2891,"eecbebd":2892,"bffed":2893,"edfdd":2894,"bcbeebc":2895,"dcbcec":2896,"bbcebec":2897,"bdfebc":2898,"bbcbbbf":2899,"eeeebebe":2900,"bbbeecc":2901,"eeebccc":2902,"eebeecc":2903,"fbbbbcc":2904,"fcba":2905,"febdcc":2906,"fbebbbc":2907,"eefbeee":2908,"efbbbf":2909,"eaea":2910,"dedccc":2911,"ebdfec":2912,"eedbecc":2913,"becba":2914,"eebbebbc":2915,"ddeecc":2916,"ebbfebe":2917,"bbfbef":2918,"bccebbc":2919,"fcdef":2920,"ebbbbfc":2921,"decdbc":2922,"eeceebc":2923,"fdac":2924,"ecfa":2925,"bbcefc":2926,"fcbbcc":2927,"dcac":2928,"edbbfc":2929,"deddbe":2930,"bbfbdc":2931,"ecd</w>":2932,"ebbdbec":2933,"eecddc":2934,"bcfbcc":2935,"bfbebf":2936,"dbddee":2937,"fbcdd":2938,"bbdfbd":2939,"dececc":2940,"ebbbba":2941,"ebefcc":2942,"efac":2943,"dfddc":2944,"dfbebe":2945,"fcefc":2946,"bdbbbcc":2947,"dfbbbc":2948,"becbbcc":2949,"ebefbe":2950,"ecbebbbb":2951,"efbbed":2952,"ebdbef":2953,"bfbcbd":2954,"deddee":2955,"ebcbbed":2956,"edcfec":2957,"ebebbed":2958,"bcbbebbc":2959,"bdbbebd":2960,"ebfbbbe":2961,"edecec":2962,"bedebcc":2963,"bcfdbe":2964,"edffc":2965,"eefbcc":2966,"bbdfec":2967,"bedebec":2968,"bcfbbbb":2969,"edb</w>":2970,"ebcfbd":2971,"fbebdc":2972,"beceebc":2973,"bbbcbcbc":2974,"dbcbbf":2975,"fbb</w>":2976,"bbdebec":2977,"ebbbcdc":2978,"beecbbc":2979,"bccbbbd":2980,"dbcff":2981,"ddeebc":2982,"ebbecbd":2983,"ebceebd":2984,"fdea":2985,"ebfbebe":2986,"fbbefc":2987,"feeccc":2988,"bcfbbf":2989,"dbebebc":2990,"dbcbbbe":2991,"ebbbeef":2992,"eeacc":2993,"ebbca":2994,"bddbdc":2995,"ebcbbebb":2996,"fcbecc":2997,"decbbbb":2998,"ebeeebc":2999,"dbbebcc":3000,"bcdebbc":3001,"becbebd":3002,"bbecdd":3003,"ebedebb":3004,"effbf":3005,"eabf":3006,"dccbf":3007,"ecbac":3008,"ecbeedc":3009,"ebbcdc":3010,"bccefc":3011,"bbebbbf":3012,"ecbbbdc":3013,"ddbcbc":3014,"dbfdc":3015,"becefc":3016,"ebbdbbd":3017,"bdecdc":3018,"fcddc":3019,"ecfecc":3020,"bebbefc":3021,"debac":3022,"eedebbc":3023,"eefbbf":3024,"bbecebc":3025,"bbebfcc":3026,"ebbbcbf":3027,"acba":3028,"bdeedd":3029,"dccebc":3030,"defdd":3031,"bbdbbbbc":3032,"eebebec":3033,"dbbb</w>":3034,"bdeced":3035,"bebbebec":3036,"ebbcbbbe":3037,"fdebec":3038,"eecbbcc":3039,"fbcbbbb":3040,"edbeebc":3041,"bfcbcc":3042,"ebfecc":3043,"eebeff":3044,"abbbd":3045,"ebbbebbbe":3046,"ebfbef":3047,"eebeccc":3048,"ebbfbbc":3049,"fcfbd":3050,"eecefc":3051,"ebeddc":3052,"bbcbecc":3053,"fcdebb":3054,"bdecbf":3055,"bbbcbbee":3056,"eefbebe":3057,"bddbbbe":3058,"bdcbbf":3059,"fbcccc":3060,"bbdefc":3061,"eebbba":3062,"feddf":3063,"eeeeccc":3064,"dcdeec":3065,"bfcebc":3066,"eeeac":3067,"dcdbbc":3068,"dcbbbf":3069,"dcbbdc":3070,"dbfbf":3071,"fcebec":3072,"becebec":3073,"ecbedbc":3074,"fbbea":3075,"befbbbe":3076,"dcced":3077,"bbedbbc":3078,"edceecc":3079,"efecbc":3080,"bedea":3081,"ffdee":3082,"bcdefc":3083,"ebdbbec":3084,"bebbdcc":3085,"bbeebeee":3086,"bbbcdee":3087,"efebcc":3088,"bbbddbd":3089,"ebdefc":3090,"bcfecc":3091,"bebceec":3092,"dddddddd":3093,"ebdba":3094,"abeee":3095,"bbccbf":3096,"dceedc":3097,"edcbbd":3098,"fdebcc":3099,"efbebd":3100,"ddbeec":3101,"ebefbd":3102,"dcbedc":3103,"bcbedf":3104,"bcbbbfc":3105,"bdbdbdbd":3106,"bbdbbbf":3107,"dbeebf":3108,"beecccc":3109,"ebeebcc":3110,"ebbcbcc":3111,"dcdebc":3112,"bbbedee":3113,"ebbceec":3114,"bfdbbc":3115,"ecbebec":3116,"dbbbccc":3117,"bebca":3118,"ebdbebd":3119,"dfbbee":3120,"dbedec":3121,"bceebbc":3122,"eedefc":3123,"bebebeee":3124,"ebebccc":3125,"ebffee":3126,"bffebb":3127,"efdef":3128,"fbca":3129,"dccdcc":3130,"edceebc":3131,"bcbcccc":3132,"efdebb":3133,"bcbebbf":3134,"eccbbee":3135,"dbdebc":3136,"bbbbbebd":3137,"bbcfbd":3138,"bbecdf":3139,"bebeccc":3140,"ddbecc":3141,"ebebeebe":3142,"efbecc":3143,"ddbebd":3144,"eecfbd":3145,"deeed":3146,"bbccbec":3147,"bbcfcc":3148,"fbebbd":3149,"bdddcc":3150,"eccebcc":3151,"eccfed":3152,"ebbbbbcc":3153,"ebdddc":3154,"eecdbf":3155,"eeeebbbe":3156,"ebeefc":3157,"fffbc":3158,"ebefec":3159,"ebebbbbc":3160,"bceac":3161,"bebcbbbe":3162,"ebdfee":3163,"bbbcdbc":3164,"bbfbbbd":3165,"bedeecc":3166,"ebcea":3167,"bdcbbbe":3168,"eecfed":3169,"efbccc":3170,"ebedbf":3171,"deda":3172,"bdebfc":3173,"dccbcc":3174,"bcbbba":3175,"ebbda":3176,"ddbbcc":3177,"befbbee":3178,"fbeed":3179,"eecebcc":3180,"bfcdbe":3181,"bddbbf":3182,"dbbecbc":3183,"ecdbbee":3184,"ebdbeec":3185,"bddedc":3186,"deebbbe":3187,"befebf":3188,"fffee":3189,"becbeee":3190,"bdbfcc":3191,"aac":3192,"ebdbecc":3193,"ebcdebe":3194,"bdbbeec":3195,"bbbcbebc":3196,"eecbedc":3197,"ebbcbbd":3198,"bedfcc":3199,"ecdfcc":3200,"fbeecc":3201,"bfbbdc":3202,"bebebbd":3203,"bbbdbec":3204,"ecfbcc":3205,"bbbbbbebe":3206,"edbefc":3207,"fdeecc":3208,"dbddbc":3209,"eefbbee":3210,"ddebec":3211,"ecdbecc":3212,"ebbbedd":3213,"abbec":3214,"edbeebe":3215,"debbbbc":3216,"eefbec":3217,"ddebcc":3218,"fbcdc":3219,"edecbe":3220,"fbcebc":3221,"befbebe":3222,"ea</w>":3223,"bbbdef":3224,"bbeebcc":3225,"eabbc":3226,"edbcbf":3227,"edcbebc":3228,"dccdf":3229,"bfcff":3230,"ebbcdf":3231,"dedfc":3232,"becbbebb":3233,"bbbebbcc":3234,"ebfdbe":3235,"ddfdc":3236,"edcebb":3237,"bfbbef":3238,"edfbbc":3239,"feebbee":3240,"fccbec":3241,"bfbeebb":3242,"bbbddbe":3243,"beecdf":3244,"ebccbbc":3245,"bbbcbbec":3246,"edddcc":3247,"ebdeecc":3248,"deddbc":3249,"bbfbebc":3250,"bccbccc":3251,"bbebbbbebb":3252,"ebeeeebb":3253,"dcbcbe":3254,"eedeecc":3255,"bdcebf":3256,"fcbebd":3257,"ecfedc":3258,"dedef":3259,"deacc":3260,"ebeebec":3261,"ecfbec":3262,"bcfeec":3263,"bfcdee":3264,"fbbfcc":3265,"bccfee":3266,"dbdeec":3267,"bfbbebe":3268,"eccbbec":3269,"ffbef":3270,"eefbef":3271,"bccfcc":3272,"ebbcdbe":3273,"ebebebf":3274,"bbdbecc":3275,"fbeebb":3276,"ddcfc":3277,"afcc":3278,"dffec":3279,"bcbcfc":3280,"bfeecc":3281,"abebc":3282,"bbbddc":3283,"bde</w>":3284,"bbccfc":3285,"ffbbbe":3286,"bebbebcc":3287,"ecbcbbc":3288,"bbdbbdd":3289,"eebcbec":3290,"dffbd":3291,"efbcec":3292,"ecceebd":3293,"beeeeeee":3294,"bdeebbc":3295,"ebebcec":3296,"deebbee":3297,"bcfebd":3298,"dbedcc":3299,"dbdbdc":3300,"dbdccc":3301,"efebec":3302,"bbbcbdc":3303,"bebebdc":3304,"bcbcbf":3305,"ecfebc":3306,"bbbcbbbbc":3307,"ecceccc":3308,"bbbcbbebb":3309,"bbecfc":3310,"dbded":3311,"eccbeec":3312,"bceebf":3313,"eccbef":3314,"dcfbf":3315,"fbedbc":3316,"ddbbed":3317,"bcbeccc":3318,"eebebdc":3319,"deeebd":3320,"bbbbbcbbbb":3321,"dfbef":3322,"ebcbedc":3323,"fbcebe":3324,"edcefc":3325,"dbfbbc":3326,"efbbef":3327,"effdc":3328,"dcecbe":3329,"bcceebc":3330,"ebbcebd":3331,"ebbcbbf":3332,"eefbbbe":3333,"bbbbbeebb":3334,"ecccccc":3335,"ddea":3336,"efeebc":3337,"ffbbee":3338,"eebbbfc":3339,"eefebf":3340,"bcacc":3341,"bbbdbbf":3342,"bffef":3343,"bcfedc":3344,"bcceecc":3345,"bccbeee":3346,"fcceec":3347,"bbbebcbc":3348,"ebcbbbf":3349,"bebcdd":3350,"ebcdebc":3351,"edeeebb":3352,"fcbbed":3353,"fcebcc":3354,"becebcc":3355,"ebcbcec":3356,"eccbcbc":3357,"ebeecbc":3358,"fbddd":3359,"bbdbdbd":3360,"bbdbbdc":3361,"bbbcebf":3362,"edcbbf":3363,"dbcbdc":3364,"deeeec":3365,"dcca":3366,"dbcebb":3367,"decded":3368,"deced":3369,"becbbed":3370,"bbbddf":3371,"dcfdd":3372,"bebbbecc":3373,"ebecbbbb":3374,"ffdbd":3375,"ecbeebd":3376,"decebd":3377,"bebcdf":3378,"abbcc":3379,"dbfef":3380,"dbcdbd":3381,"feeff":3382,"bdecebb":3383,"bcbeed":3384,"bbecef":3385,"bfcbbf":3386,"ecbbebf":3387,"afec":3388,"dcebdc":3389,"bebedbe":3390,"eecdebc":3391,"dbbeecc":3392,"ecceedc":3393,"eceeccc":3394,"ecdebcc":3395,"eebbea":3396,"edcebf":3397,"dcbbdd":3398,"ebbbcbbbb":3399,"feebeee":3400,"feebbf":3401,"eccecbc":3402,"beecbf":3403,"bcbb</w>":3404,"ebeeebe":3405,"badf":3406,"bbbeebbc":3407,"eecbeee":3408,"edcdbd":3409,"bdc</w>":3410,"edbbbec":3411,"ddbbdd":3412,"edcdcc":3413,"dbbac":3414,"feefc":3415,"fbcff":3416,"eefebc":3417,"ddbdbd":3418,"becfcc":3419,"ebbecec":3420,"ecbedcc":3421,"bfdbbbb":3422,"bccebec":3423,"eccbebd":3424,"fecef":3425,"bbdfbe":3426,"eebbbbcc":3427,"bebeebf":3428,"ebdbcbc":3429,"ebbbcbbc":3430,"bbdfcc":3431,"edbeef":3432,"dbebef":3433,"fbdbf":3434,"decbdc":3435,"bcfebf":3436,"dbfa":3437,"bcbebbbc":3438,"bbbdbbbc":3439,"dbcbbbc":3440,"ddfed":3441,"bcdba":3442,"ebebcbd":3443,"bbbedbd":3444,"bbccebc":3445,"bbecdee":3446,"bebebef":3447,"ebbeeef":3448,"edfebe":3449,"bbcbccc":3450,"ebeeeebe":3451,"bbee</w>":3452,"bcbeeec":3453,"edbeecc":3454,"fbcbcc":3455,"ddddcc":3456,"bbeeccc":3457,"fbddf":3458,"bbbbbbdd":3459,"bfdebe":3460,"bfdfc":3461,"bbeebbebb":3462,"dcdbec":3463,"eedbbcc":3464,"fbdef":3465,"beeefc":3466,"ebbdeec":3467,"edeeed":3468,"ededcc":3469,"ebebcee":3470,"ebecbec":3471,"bbccbcc":3472,"dddef":3473,"decbbd":3474,"bfeebd":3475,"dcdecc":3476,"bebcccc":3477,"dbebbec":3478,"beccbec":3479,"bbedbbbb":3480,"eecdfc":3481,"eeeebbc":3482,"feedf":3483,"dedbcc":3484,"dbebbbd":3485,"ffedc":3486,"bdbebec":3487,"babbbe":3488,"ebedbbc":3489,"ebbbdbc":3490,"fbcbbf":3491,"ddcef":3492,"fbeebd":3493,"eccebec":3494,"dcecec":3495,"daa":3496,"bbeca":3497,"bddccc":3498,"bebbfcc":3499,"eddbdc":3500,"dbdbcc":3501,"bbbdfc":3502,"beeebbf":3503,"ebcdef":3504,"bfceec":3505,"bdbefc":3506,"bcbcdd":3507,"eabbbb":3508,"bbebbbbbc":3509,"ebccfc":3510,"bfeef":3511,"decdcc":3512,"bdebbcc":3513,"bbbebbbbc":3514,"befbef":3515,"dbcbebe":3516,"bebcbcc":3517,"bebdbbc":3518,"fbceec":3519,"dcffc":3520,"feebbbb":3521,"effef":3522,"bbeebbbc":3523,"bbeebbd":3524,"efbcbd":3525,"ebcbcbd":3526,"ecbebdc":3527,"ebbcccc":3528,"dceeed":3529,"ebccebe":3530,"bcbeecc":3531,"bbccdd":3532,"beebdcc":3533,"cccbec":3534,"efdbbc":3535,"eafc":3536,"bffdd":3537,"edecdc":3538,"ebbcbbbc":3539,"bcbebbd":3540,"efbcee":3541,"bebeecc":3542,"ebebbef":3543,"bbbebbbf":3544,"bcbcbcc":3545,"ebefbf":3546,"dfefc":3547,"eebcfc":3548,"bbfdbd":3549,"becdbf":3550,"ddcbbc":3551,"efbebf":3552,"bbbebfc":3553,"dbcdec":3554,"bdcded":3555,"ffeec":3556,"dccdee":3557,"eebeedc":3558,"bbbbdebb":3559,"bdcfbc":3560,"feebebe":3561,"bbbbedc":3562,"bbecdbe":3563,"dfbebc":3564,"ebcbccc":3565,"ebbfdd":3566,"ececccc":3567,"eddccc":3568,"dcbced":3569,"ddfbe":3570,"efbbebe":3571,"bcbedee":3572,"dddbbc":3573,"becfed":3574,"bbbeba":3575,"edbba":3576,"ededbd":3577,"bfda":3578,"eccdebb":3579,"fecbcc":3580,"eeecccc":3581,"bbcfbe":3582,"ebcdfc":3583,"dcdcdcdc":3584,"afbd":3585,"bbcceec":3586,"dddebe":3587,"abcbc":3588,"fecfc":3589,"ebebbdc":3590,"ecbbbbbbbb":3591,"bcdfcc":3592,"eccddc":3593,"ebcbbbbc":3594,"ebbfebc":3595,"edcfbc":3596,"bbfba":3597,"befbbd":3598,"dfba":3599,"bfeccc":3600,"efbcf":3601,"ebddbf":3602,"aded":3603,"deebbbc":3604,"deedbd":3605,"bbecbcc":3606,"ffbebe":3607,"abda":3608,"bfbeed":3609,"ebbffc":3610,"ebbfbbbb":3611,"bbebac":3612,"bfdbb":3613,"fbbebec":3614,"dcdbb":3615,"edcbfc":3616,"bdcbbbc":3617,"eecfcc":3618,"ddeeee":3619,"bcbbdcc":3620,"ebfbbee":3621,"edecf":3622,"bebdbbbb":3623,"ebdfcc":3624,"feebcc":3625,"eefdbe":3626,"bbebebbc":3627,"edeedd":3628,"bbbdebc":3629,"aebbc":3630,"bddebf":3631,"fffcc":3632,"bddbbbc":3633,"bfbcbf":3634,"dcbcf":3635,"bbecbbd":3636,"dfded":3637,"efbeebb":3638,"edcfcc":3639,"dcbbbbc":3640,"bdcfec":3641,"fcdbec":3642,"fcbeee":3643,"ebdebcc":3644,"ebbdebd":3645,"bdbbecc":3646,"bbabbbb":3647,"becfbe":3648,"ebfeec":3649,"bbebbbbf":3650,"becceec":3651,"bbcddc":3652,"dceebe":3653,"bcbebbee":3654,"bdeba":3655,"beceecc":3656,"ebfbbd":3657,"dddbbbb":3658,"ebfbbbc":3659,"bcdebec":3660,"ebefebb":3661,"ebfbdc":3662,"edd</w>":3663,"bebebebc":3664,"bbbbcbbbc":3665,"eefecc":3666,"dccedc":3667,"bbbefbc":3668,"ccceec":3669,"ebbeebbbb":3670,"dcbdbd":3671,"dccebd":3672,"dedeec":3673,"bceefc":3674,"debb</w>":3675,"dcfebb":3676,"dbebfc":3677,"eebcbbbb":3678,"dbefbc":3679,"dcbebf":3680,"ebccebc":3681,"dfdbf":3682,"bcdbbcc":3683,"eceebbc":3684,"ebbbbebd":3685,"bfecbe":3686,"abbbf":3687,"dbebcbc":3688,"edcebbc":3689,"dedebc":3690,"beeedd":3691,"ebfebd":3692,"decbbf":3693,"dcecbd":3694,"eccfbd":3695,"aefc":3696,"fbeeec":3697,"dcda":3698,"eedea":3699,"ffbbbc":3700,"abbebb":3701,"ffbfc":3702,"ecfeec":3703,"eccfee":3704,"befebd":3705,"dcbedd":3706,"addc":3707,"babec":3708,"dfebbc":3709,"feb</w>":3710,"beeeccc":3711,"dfbbcc":3712,"deddec":3713,"feebbbe":3714,"babcc":3715,"ebebcbe":3716,"beecdd":3717,"bdcbfc":3718,"eedebcc":3719,"dbbcbbbb":3720,"beccbbc":3721,"bbfbbbf":3722,"dbcedc":3723,"bbebbbec":3724,"efcdee":3725,"ebccef":3726,"dbdebd":3727,"bef</w>":3728,"bebddd":3729,"adbf":3730,"bbfebbc":3731,"ebceedc":3732,"bdeeebe":3733,"fbbbecc":3734,"bceedbe":3735,"bbbbdec":3736,"ecbeef":3737,"bceebec":3738,"edfa":3739,"bbcbcbd":3740,"ebcebdc":3741,"fbebfc":3742,"befeec":3743,"bbbbebec":3744,"bcdeecc":3745,"ccccccccc":3746,"bdcdcc":3747,"eebbdcc":3748,"ebdfbd":3749,"bbcbbdc":3750,"ebcbbdc":3751,"bbebbbbd":3752,"bbebbbebe":3753,"bebcbbd":3754,"ecbcfc":3755,"bbfedc":3756,"babba":3757,"dfbcbc":3758,"ecbebbbe":3759,"bdcbebe":3760,"dcbeebb":3761,"bbeceec":3762,"bbbbcbbbe":3763,"deeff":3764,"bccbecc":3765,"ebceccc":3766,"bedbbbbc":3767,"effed":3768,"becfbd":3769,"eebebbbc":3770,"ebbecf":3771,"ebceeec":3772,"ebfed":3773,"ebcbeed":3774,"ecbcccc":3775,"bccbeec":3776,"eeccccc":3777,"ecbeed":3778,"bebcebd":3779,"bcfbbd":3780,"fcfed":3781,"bfdebc":3782,"debbdd":3783,"fccbbc":3784,"bbffee":3785,"bcecccc":3786,"eebeebd":3787,"deedec":3788,"ebfdbc":3789,"bcfbbbe":3790,"ebbbdbe":3791,"deeddc":3792,"bebdbec":3793,"bbeedf":3794,"eadf":3795,"bcfdbc":3796,"ecdea":3797,"befecc":3798,"ebbdecc":3799,"efcbcc":3800,"ebbeeed":3801,"ebcceec":3802,"bbbcff":3803,"dcbbef":3804,"bbbbcbbbbc":3805,"ebccdd":3806,"ebccbec":3807,"dceef":3808,"bbdbcbd":3809,"dbbcbbc":3810,"edcbeec":3811,"eeecbbc":3812,"badbe":3813,"acea":3814,"bcbedbc":3815,"babbf":3816,"aeeee":3817,"befdbc":3818,"bbed</w>":3819,"edbebbbb":3820,"ecdba":3821,"dbf</w>":3822,"eccbbcc":3823,"bbecbbbe":3824,"ada":3825,"fcbbbf":3826,"bdbbbdc":3827,"effebb":3828,"bbbbbeec":3829,"befbdc":3830,"bcbcbec":3831,"edcbecc":3832,"fbdbbc":3833,"bbbbbbdc":3834,"ebdebec":3835,"bbdea":3836,"eceac":3837,"bebedf":3838,"befbbbc":3839,"bbbddbc":3840,"edcdebb":3841,"fcbccc":3842,"ebbdbcc":3843,"dedebe":3844,"deebbec":3845,"ebbedbd":3846,"bebeff":3847,"bdfdf":3848,"edeebf":3849,"ebddebe":3850,"dbbbbbbc":3851,"ecbedf":3852,"bbebbef":3853,"bdecdd":3854,"bbbbdbf":3855,"bcecbbc":3856,"decff":3857,"bcbcef":3858,"eccfdc":3859,"bebcbbbc":3860,"becddc":3861,"ebcbcee":3862,"edbbebd":3863,"fccdf":3864,"fcbeed":3865,"edfebc":3866,"ebbedcc":3867,"ebdbeee":3868,"ecfdf":3869,"ecacc":3870,"bfbedc":3871,"ebcdbbc":3872,"dcbcdc":3873,"fdbccc":3874,"eeeebbf":3875,"becbedc":3876,"bebedbc":3877,"bccddc":3878,"bdcefc":3879,"eebcdd":3880,"eecea":3881,"bbeeebf":3882,"beebbebe":3883,"bbbbfee":3884,"bcbeebd":3885,"fceecc":3886,"edbebec":3887,"efbbdc":3888,"bfbced":3889,"eebebbd":3890,"ebbecebb":3891,"edbea":3892,"eeeefee":3893,"eecdef":3894,"febfcc":3895,"ecbcdd":3896,"ebbbdcc":3897,"eecebec":3898,"edbbecc":3899,"bebebbebb":3900,"ebbcdbc":3901,"eddbbf":3902,"ecbebbd":3903,"ecdebec":3904,"bbbcdbd":3905,"bbbbbbbbbbc":3906,"bcfbdc":3907,"eebcebc":3908,"bdbddd":3909,"bbedbec":3910,"eccbedc":3911,"ebeeecc":3912,"bebcdbe":3913,"ebbfa":3914,"fcbcec":3915,"bbedbf":3916,"feca":3917,"bcdbecc":3918,"ebbcdee":3919,"beeebcc":3920,"ebbb</w>":3921,"bbec</w>":3922,"bbbfbbf":3923,"bebeebd":3924,"bbceebd":3925,"bbbbbbbbcc":3926,"bbbdbcc":3927,"dccdbe":3928,"dcecdc":3929,"dffdc":3930,"babbd":3931,"bfcbbd":3932,"fbe</w>":3933,"ebbcecc":3934,"eedfcc":3935,"dceedd":3936,"dbdbbbe":3937,"bbfbbec":3938,"befdee":3939,"ebfedc":3940,"beccccc":3941,"efbeebe":3942,"fcdeec":3943,"ebfbeee":3944,"ebdbbcc":3945,"ecbcbec":3946,"bcfdee":3947,"ecbbbfc":3948,"dbdecc":3949,"bceebbbb":3950,"ebbeebbc":3951,"dbebbcc":3952,"bbbbbbbbbbbc":3953,"afbe":3954,"ecbbebbc":3955,"edbfcc":3956,"bbcdef":3957,"bccfbd":3958,"dccff":3959,"efcff":3960,"fcbcbd":3961,"ebfbfc":3962,"eebeeec":3963,"ecdeccc":3964,"bbbeedc":3965,"bfecbd":3966,"dffee":3967,"bcecbec":3968,"bebcdee":3969,"efbeed":3970,"decbeec":3971,"ecfebe":3972,"bdcbbee":3973,"fccdd":3974,"bbebebbbe":3975,"dbcfbc":3976,"bbbbbcbd":3977,"ebecebc":3978,"fbbebcc":3979,"bebcbbf":3980,"bbbcecc":3981,"bebcdc":3982,"fcecbc":3983,"bcbcebe":3984,"bbcea":3985,"decdbd":3986,"fedccc":3987,"bffbbc":3988,"bccba":3989,"befbeee":3990,"bdebbebb":3991,"dbbecbe":3992,"bbbcbbcc":3993,"efdfc":3994,"ebdecbc":3995,"ddceec":3996,"dccdbc":3997,"bceeccc":3998,"bbcdebe":3999,"bbbdbebe":4000,"bdfdbe":4001,"dbbbddd":4002,"ecceeec":4003,"bbbfbbbe":4004,"ebeca":4005,"eebcccc":4006,"bbbddee":4007,"bfbbfc":4008,"bfbcebb":4009,"bdeeef":4010,"becbeed":4011,"bebcbebe":4012,"edbcdd":4013,"ddac":4014,"ebfdee":4015,"edbebcc":4016,"dbbebdc":4017,"edcbebe":4018,"ebdea":4019,"bccccccc":4020,"ebcfdc":4021,"dbfdf":4022,"bcfbfc":4023,"ebcfebb":4024,"eddbbbe":4025,"eccea":4026,"dbdbbf":4027,"bbcfed":4028,"bdefcc":4029,"efda":4030,"bbcebcc":4031,"dcecee":4032,"bcbebdc":4033,"edbcbbc":4034,"ecdedcc":4035,"bbeddf":4036,"dccbbbb":4037,"fbeba":4038,"ebdfed":4039,"feefee":4040,"fbdbec":4041,"dedbbbb":4042,"bccebcc":4043,"dcfef":4044,"eeebeebe":4045,"bbbdeec":4046,"edcbbee":4047,"fbcdbe":4048,"edcbbbe":4049,"ebbcbebe":4050,"ebbeedd":4051,"fcdfc":4052,"dbcbbee":4053,"ddeccc":4054,"ebbbebec":4055,"ecbbdcc":4056,"ddcebe":4057,"bdfbec":4058,"dbacc":4059,"bbecbbf":4060,"dcbbebe":4061,"bcecdee":4062,"bfffc":4063,"eececbc":4064,"bfeebe":4065,"ddeebd":4066,"cccebe":4067,"eecdbbc":4068,"fcfbe":4069,"ebffbc":4070,"fcbbebb":4071,"beecbbbb":4072,"bbceeec":4073,"fcbedc":4074,"beccef":4075,"bbfdec":4076,"efcdbe":4077,"bbecbebe":4078,"bccfed":4079,"bfeebf":4080,"baff":4081,"bcbeff":4082,"bebe</w>":4083,"fecdee":4084,"bcdebcc":4085,"bbedebe":4086,"ebbbeebc":4087,"eccbbbd":4088,"ebcbebf":4089,"dcdccc":4090,"efeccc":4091,"dbdbbbd":4092,"fcea":4093,"bfebdc":4094,"becdef":4095,"ddbbebb":4096,"bdbcbbbb":4097,"ebbcbbee":4098,"efbbbbc":4099,"ebbecdc":4100,"edbbbcc":4101,"bfbbebc":4102,"bccdbf":4103,"eeceebd":4104,"fcdebc":4105,"dbdff":4106,"ddcddc":4107,"bdbcbbc":4108,"bcfbbbc":4109,"bdcbbbd":4110,"dddfc":4111,"bedebdc":4112,"efbeef":4113,"ebbbdebb":4114,"dedded":4115,"bdbebbbe":4116,"fecdec":4117,"eddebf":4118,"ebecbcc":4119,"edeced":4120,"ebdeebd":4121,"bebcecc":4122,"fbedee":4123,"edbcfc":4124,"dcbcbf":4125,"beeb</w>":4126,"eefbbd":4127,"ddbcbd":4128,"bbfbcbc":4129,"ebddebc":4130,"edcbbbc":4131,"fbcdee":4132,"bebbbccc":4133,"edcfed":4134,"ddcecc":4135,"bbcbcee":4136,"dcdbcc":4137,"ebbcbdc":4138,"eefbdc":4139,"bfbebbc":4140,"bbfbbebb":4141,"dfac":4142,"bbeddbe":4143,"ddbbdc":4144,"ecbbbbcc":4145,"ebbdbbbe":4146,"bedac":4147,"eebb</w>":4148,"dfbbec":4149,"ebbebfc":4150,"feebec":4151,"bdfbbbb":4152,"eebca":4153,"eebedbc":4154,"bcbcbbbc":4155,"edcebec":4156,"bebbeecc":4157,"dcdbbbb":4158,"bbfbbcc":4159,"dbbecbd":4160,"bdbedbe":4161,"bbdeebd":4162,"bdbea":4163,"bbcdbbc":4164,"dcdedc":4165,"bbeedbc":4166,"bbbfa":4167,"bbddbbbb":4168,"bbbbbbbbbbbe":4169,"ebbcebbc":4170,"ecfbdc":4171,"bbdeecc":4172,"bbceecc":4173,"bccbebd":4174,"fcac":4175,"eefdee":4176,"bbdebcc":4177,"edbcebc":4178,"dcdebd":4179,"ebbbcdd":4180,"bbebba":4181,"eccbccc":4182,"bfcdbc":4183,"debbebe":4184,"bbeeebd":4185,"beccebc":4186,"eecbbed":4187,"dcedcc":4188,"eebcef":4189,"ddcbec":4190,"fcfbf":4191,"eefdbc":4192,"bfdbec":4193,"beffcc":4194,"fecff":4195,"bbeeff":4196,"efcdec":4197,"debbbec":4198,"bfbba":4199,"bbbedec":4200,"ecfbbbb":4201,"bbbfef":4202,"bcecdd":4203,"bbebeebe":4204,"efcebc":4205,"bbcbeed":4206,"bfcbbbc":4207,"eccdebc":4208,"eecdecc":4209,"bcdea":4210,"bbbdebd":4211,"ebecdd":4212,"bffebe":4213,"bddbbee":4214,"bceeebe":4215,"ebbbea":4216,"bceea":4217,"dbeba":4218,"eefba":4219,"bbcecbc":4220,"edceebd":4221,"bceedf":4222,"eeebbbbbb":4223,"dddddd":4224,"ebbbcebe":4225,"dbebeee":4226,"dbebeec":4227,"bfcccc":4228,"bfbbdd":4229,"dcb</w>":4230,"bbbfebe":4231,"eccbeee":4232,"ebfbebc":4233,"ecdbbcc":4234,"edcfee":4235,"bfbdbd":4236,"bececbc":4237,"ebbcff":4238,"eecfdc":4239,"ebbbebbd":4240,"edbcef":4241,"ddcbcc":4242,"ebbecbf":4243,"efcbbbb":4244,"efcebe":4245,"ecfebd":4246,"bbbffc":4247,"bdcbebc":4248,"dbcded":4249,"edcebcc":4250,"bceeebc":4251,"bcbbefc":4252,"dbfbbbb":4253,"bbcca":4254,"bdfccc":4255,"ebecfc":4256,"bbdfed":4257,"bbecbbbc":4258,"ebbbded":4259,"babca":4260,"efeecc":4261,"fbdfc":4262,"babbbc":4263,"bbbfbec":4264,"eccedcc":4265,"dbcebf":4266,"feeeeee":4267,"beebbbbc":4268,"bebbac":4269,"ecbeeec":4270,"beeca":4271,"ddcdf":4272,"fbda":4273,"ebbbefc":4274,"eccdbf":4275,"eebbefc":4276,"deebebc":4277,"bbeda":4278,"ebbeba":4279,"beecef":4280,"ffdec":4281,"efceec":4282,"bcbddd":4283,"bcbbebec":4284,"bbdb</w>":4285,"edebfc":4286,"dccbdc":4287,"edbebbd":4288,"fcca":4289,"bbfdbf":4290,"ebbebbcc":4291,"beecdec":4292,"bbdcbbc":4293,"beeebec":4294,"fdbbbbc":4295,"fdeccc":4296,"dceebf":4297,"dbcbef":4298,"eadbe":4299,"fdcdf":4300,"deddbd":4301,"bfbeebe":4302,"feedbe":4303,"ebccbbbb":4304,"bbecebd":4305,"bebeeeee":4306,"bbdeeec":4307,"dddbb":4308,"fecdbe":4309,"ebebeef":4310,"ebbcbbbd":4311,"eeceedc":4312,"eebbfcc":4313,"edeebbc":4314,"ebecdf":4315,"dbcdcc":4316,"cccebc":4317,"bdebecc":4318,"ebbecee":4319,"eebedbe":4320,"bbceeee":4321,"ebeac":4322,"ecbebbf":4323,"eebeea":4324,"bbcbcec":4325,"fbefcc":4326,"ede</w>":4327,"edfbec":4328,"bbcbebf":4329,"ebeeebd":4330,"fbcbfc":4331,"bbaa":4332,"eebeba":4333,"ecbcebc":4334,"eebcdf":4335,"cccdf":4336,"fbcbbd":4337,"edcbebd":4338,"bfeeec":4339,"ddeeec":4340,"ecbedbd":4341,"bebeeec":4342,"ddb</w>":4343,"bbebbebc":4344,"cccbbbb":4345,"bbbcbef":4346,"bccbbed":4347,"ecebdcc":4348,"bdcbef":4349,"beccfc":4350,"edc</w>":4351,"bbebbbbee":4352,"bfbdcc":4353,"bcbebbec":4354,"bfcebd":4355,"bbbebeebb":4356,"bfbbbec":4357,"bbccbbcc":4358,"bbfbeee":4359,"eecdeec":4360,"bbbedebb":4361,"bbdcbbbb":4362,"ebbbdf":4363,"dbcbbbd":4364,"bedbccc":4365,"fbd</w>":4366,"dddebc":4367,"dbfbec":4368,"becca":4369,"beecdee":4370,"ddcebc":4371,"bccdebb":4372,"bebddf":4373,"fbcebd":4374,"fdebdc":4375,"ebefdc":4376,"dbbbdbbbb":4377,"dccdec":4378,"bbcfbf":4379,"bcecdf":4380,"bbcbbebe":4381,"dcccccc":4382,"bbcbeebb":4383,"eefebd":4384,"bbbcbfc":4385,"bcbcebc":4386,"bbffcc":4387,"ebebedc":4388,"ebefef":4389,"eccdecc":4390,"bbbcebbc":4391,"ebeeebf":4392,"bbecbbec":4393,"ebbbdbf":4394,"bbcbbef":4395,"bbeddee":4396,"dbbbdbc":4397,"deffc":4398,"fbebbcc":4399,"dbdded":4400,"defccc":4401,"eebceec":4402,"eeccfc":4403,"ffdbf":4404,"edbbeec":4405,"ebebeed":4406,"bbeebdc":4407,"dceced":4408,"bfcecc":4409,"bbdbeed":4410,"bcbeedc":4411,"dbcbebc":4412,"dbddec":4413,"eebcbcc":4414,"eaccc":4415,"dcbdcc":4416,"ebedebe":4417,"ddbeed":4418,"bcbca":4419,"ebcfbf":4420,"dedbdc":4421,"eecbcbd":4422,"ffddc":4423,"ebceeee":4424,"bbdfbf":4425,"eebedf":4426,"eecbeed":4427,"eedebec":4428,"becdebc":4429,"dcdbbd":4430,"decbebc":4431,"deebebe":4432,"bbebebebe":4433,"ebbbbeec":4434,"ebefebe":4435,"ddecbc":4436,"bbebb</w>":4437,"def</w>":4438,"bbbbbbbbbbbbbbbbbbbbbbbbbbbbbbbb":4439,"bfbeef":4440,"eccebdc":4441,"ebbeebbee":4442,"ebccccc":4443,"eccba":4444,"efcccc":4445,"ebeeccc":4446,"dbcbcbc":4447,"bbbebbed":4448,"fbc</w>":4449,"fbeedc":4450,"bceebcc":4451,"fcdbbc":4452,"bdbac":4453,"bcbedec":4454,"ddfbf":4455,"ebcecbd":4456,"eaba":4457,"edfecc":4458,"eecceec":4459,"dfbbbd":4460,"bbecdec":4461,"bdbebcc":4462,"ddfdd":4463,"bbdbeebb":4464,"feeebf":4465,"bfcbbbe":4466,"bbccebd":4467,"ebcbbebe":4468,"ebebebbbb":4469,"deeedc":4470,"ecbbba":4471,"fbebecc":4472,"bbdeeee":4473,"bbbbded":4474,"acda":4475,"defa":4476,"bceeeec":4477,"dbdbebe":4478,"ebdbbed":4479,"bbbbbbbbbbbbc":4480,"ddda":4481,"ecfdbe":4482,"ffba":4483,"bbffbd":4484,"efdbec":4485,"eefeec":4486,"efbced":4487,"efdebe":4488,"eebebbebb":4489,"bbbdbdc":4490,"ececbbc":4491,"edcddc":4492,"ddbccc":4493,"edfbcc":4494,"bdfbcc":4495,"dbeded":4496,"fccbf":4497,"fccff":4498,"eebcecc":4499,"ebbbdee":4500,"bceedee":4501,"ebbcbebc":4502,"fccebc":4503,"fbbeecc":4504,"befbfc":4505,"fedbec":4506,"edbcebe":4507,"bbbebebd":4508,"efebdc":4509,"eeecbec":4510,"bcfbebe":4511,"ccca":4512,"ebbcdec":4513,"eecbccc":4514,"bdcfee":4515,"bbbebebbbb":4516,"ebcbced":4517,"befbebc":4518,"bebc</w>":4519,"bebd</w>":4520,"beecbcc":4521,"befba":4522,"bfeeebb":4523,"bbbbfbe":4524,"fbcfbc":4525,"eeeeebf":4526,"bcbcbcbcbcbcbcbc":4527,"ecccecc":4528,"ebedebc":4529,"bbeedee":4530,"effdd":4531,"bfcdec":4532,"ecbedee":4533,"eceedbe":4534,"fcbbdc":4535,"eaff":4536,"defdc":4537,"ebbdbbf":4538,"bcffcc":4539,"bbbbbbbec":4540,"debba":4541,"bbeebbec":4542,"bebeba":4543,"ddcdbe":4544,"bcfdbd":4545,"bfbebbbb":4546,"ddca":4547,"ebbcedc":4548,"efeef":4549,"becbbbf":4550,"effebe":4551,"ebfba":4552,"bdbeebc":4553,"ebbeced":4554,"ebdbbebb":4555,"feceec":4556,"fbcecc":4557,"bcbcdee":4558,"bebda":4559,"debebbc":4560,"ebbbebbee":4561,"bebcff":4562,"fdcccc":4563,"fbedec":4564,"ebbbebbf":4565,"bebcdec":4566,"bbeeeec":4567,"dbdbbbc":4568,"bebeedc":4569,"dccbbd":4570,"eebcebe":4571,"eeeca":4572,"edecbf":4573,"ddcdee":4574,"bbeebef":4575,"bbccbbbc":4576,"dbcbfc":4577,"bcbcdf":4578,"fbbac":4579,"dbbdbbbb":4580,"bbecdc":4581,"eebbebec":4582,"bfecbf":4583,"eeccbec":4584,"debbbbbe":4585,"debbebc":4586,"babea":4587,"efdebc":4588,"ecbebbbc":4589,"dbebbebb":4590,"ebbcebf":4591,"edbeebd":4592,"ebddef":4593,"bfcbdc":4594,"bbbfff":4595,"dbedbf":4596,"badee":4597,"bbbbfbd":4598,"fbbbccc":4599,"bcbeebf":4600,"dedecc":4601,"cccdee":4602,"ebddbbc":4603,"fbcbbbe":4604,"ebcbeebb":4605,"dbbeccc":4606,"bcfdec":4607,"eceebcc":4608,"bbdbbebe":4609,"efeeebe":4610,"ebebced":4611,"eeeebef":4612,"ebbbcebc":4613,"bfecf":4614,"bbffec":4615,"efeebf":4616,"ebbbcef":4617,"fffbd":4618,"ecbeddc":4619,"ecdebdc":4620,"ebddfc":4621,"bbeeecc":4622,"ebccbcc":4623,"edebbcc":4624,"fbcdec":4625,"bbcdbbbb":4626,"bebebbcc":4627,"ebcca":4628,"bddddd":4629,"feebdc":4630,"dbeebbc":4631,"beeeebf":4632,"bddbfc":4633,"bbecdbc":4634,"fcfdc":4635,"cccdcc":4636,"fee</w>":4637,"fccbcc":4638,"dcdbdc":4639,"efeebd":4640,"beeeecc":4641,"bbdecbc":4642,"ebcac":4643,"eebbebcc":4644,"beeeff":4645,"eefea":4646,"bcebdcc":4647,"bbcbedc":4648,"cccff":4649,"bbbbbbbcc":4650,"bbbebbebe":4651,"bbbfdd":4652,"bcccbcc":4653,"eebcbf":4654,"edcbef":4655,"ebefed":4656,"beccecc":4657,"bbbbcbec":4658,"dbebebd":4659,"bdfbbf":4660,"bbdbebf":4661,"edcecbc":4662,"bbbefee":4663,"bdcebec":4664,"ebebcebb":4665,"eecda":4666,"ebbbcfc":4667,"ddcdcc":4668,"dbddcc":4669,"bbdfebb":4670,"ebbdedc":4671,"efcdbc":4672,"bcfbbee":4673,"becdbec":4674,"eeebdcc":4675,"eecdebe":4676,"eecbbdc":4677,"efbcbe":4678,"ebedef":4679,"dedbeec":4680,"bcbbfcc":4681,"bfcfbc":4682,"eebcbbf":4683,"eeccecc":4684,"bbbbbebf":4685,"beeebbbc":4686,"becbeebb":4687,"dbefcc":4688,"eeccbbc":4689,"ddbcee":4690,"deddcc":4691,"becea":4692,"ebbbfcc":4693,"bbccdf":4694,"eceeecc":4695,"bebbeccc":4696,"dcecbf":4697,"bcceebd":4698,"bbbfbbbc":4699,"fecebc":4700,"bbbbbdbd":4701,"bdbbbbcc":4702,"eefbbbc":4703,"deebef":4704,"ecccfc":4705,"dcbded":4706,"ebebba":4707,"acbbc":4708,"bffa":4709,"decbbbe":4710,"eeccebc":4711,"debbfc":4712,"bbbbbcbe":4713,"ebbfbec":4714,"edceedc":4715,"edfdf":4716,"eef</w>":4717,"ebedfc":4718,"beeefee":4719,"becbcec":4720,"bbbbbbebc":4721,"bfcebf":4722,"ebdbedc":4723,"baccc":4724,"bdbebbd":4725,"ebbbbbbcc":4726,"bdacc":4727,"bdcebbc":4728,"dcbbfc":4729,"bbebbbbbd":4730,"deeebf":4731,"fecdbc":4732,"fbcdbc":4733,"bebbbbbbc":4734,"bbeebebc":4735,"edeba":4736,"bbccbbbe":4737,"ecccdd":4738,"defbbc":4739,"eceea":4740,"ebcbbdd":4741,"bebfbbc":4742,"ededbf":4743,"bdbbccc":4744,"bbdbedc":4745,"dcbcdd":4746,"ebecbf":4747,"bbedef":4748,"debbdf":4749,"dceeebb":4750,"ebbbddd":4751,"ddbcec":4752,"bebebcbc":4753,"bbdbbbbbbbb":4754,"fbebbec":4755,"dbebecc":4756,"bbbbeebc":4757,"ebcdeec":4758,"fbebbebb":4759,"dcbeef":4760,"edcdebc":4761,"aeba":4762,"ededdc":4763,"dcbbebc":4764,"ebcbedd":4765,"becdeec":4766,"beceebd":4767,"edcea":4768,"becbbbbc":4769,"bccffc":4770,"dbfccc":4771,"fbedcc":4772,"acdf":4773,"acdd":4774,"bbbbdbbc":4775,"dbedebb":4776,"ebccecc":4777,"ecfdbc":4778,"deebcbc":4779,"ececdf":4780,"bbbebeec":4781,"bdcbbec":4782,"ebcdbec":4783,"ffbcbc":4784,"bcceeec":4785,"eeceeec":4786,"decbef":4787,"afbf":4788,"bfbcdc":4789,"edeeebe":4790,"fedbbc":4791,"edecebb":4792,"dbeddc":4793,"bbbebbbbbbbb":4794,"abdbf":4795,"bbeeba":4796,"ebbbbecc":4797,"ecfbbf":4798,"bbeeeeee":4799,"dbfff":4800,"bccbbebb":4801,"ebeeef":4802,"beebfcc":4803,"efecbd":4804,"bbbbdcc":4805,"bbbbbccc":4806,"fccecc":4807,"becbcbd":4808,"bdbedf":4809,"becbbdc":4810,"bbecbebc":4811,"eecbbebb":4812,"bbccbbd":4813,"fed</w>":4814,"efcded":4815,"eecebdc":4816,"ebebebbc":4817,"bdcbeec":4818,"bfcbfc":4819,"dddbbd":4820,"ebccedc":4821,"ddbbbf":4822,"eececcc":4823,"bebdebc":4824,"ebccbf":4825,"bbbcfbc":4826,"fceeec":4827,"bedeccc":4828,"bdcddc":4829,"dbcfee":4830,"eecca":4831,"becbccc":4832,"dbdbdbd":4833,"bbbf</w>":4834,"bbedebc":4835,"bbcbbdd":4836,"bbdbcec":4837,"beeebef":4838,"bdbbedc":4839,"eecdbec":4840,"ebbbebcc":4841,"bcbbbecc":4842,"bddebbc":4843,"ebccebd":4844,"edbedbe":4845,"edceccc":4846,"ebfdec":4847,"ebecebe":4848,"bbbcdec":4849,"beeeba":4850,"beebba":4851,"bdbbebf":4852,"beceedc":4853,"bccdef":4854,"ebbbdbbbb":4855,"dbefee":4856,"bdceebc":4857,"eccecdc":4858,"ddcccc":4859,"bbfdcc":4860,"ddd</w>":4861,"fec</w>":4862,"dfea":4863,"bfcbebc":4864,"bdbb</w>":4865,"edcfbd":4866,"bebdef":4867,"ebbfbcc":4868,"bebebbbd":4869,"bcfdcc":4870,"fcdebe":4871,"bbdfdc":4872,"debbef":4873,"bbbbbecc":4874,"ebbdbdc":4875,"eddefc":4876,"baebc":4877,"efcecc":4878,"dcbeebe":4879,"dbbecec":4880,"edcbbec":4881,"eeeeff":4882,"bbbbbbef":4883,"ddbedc":4884,"ebdbbdc":4885,"bbbbfbf":4886,"bbdbccc":4887,"bbccdbe":4888,"dddecc":4889,"bceeef":4890,"bdcfbd":4891,"dbbbbbbbd":4892,"bccbbbf":4893,"dbfdbe":4894,"dcedbd":4895,"bbbbfec":4896,"eedbccc":4897,"bccbbbbc":4898,"bddefc":4899,"bfdeec":4900,"fbeea":4901,"bbcbcbe":4902,"beeeebc":4903,"bbcfebb":4904,"ddcdbc":4905,"becdbbc":4906,"fbebbbd":4907,"ebbcfbc":4908,"dbbbdcc":4909,"ebbbdec":4910,"edceeec":4911,"beecfc":4912,"ddcdbd":4913,"bcbbbccc":4914,"bdceecc":4915,"becdfc":4916,"bbbedcc":4917,"bebdfc":4918,"beecdbe":4919,"feda":4920,"bbbacc":4921,"bbfbbef":4922,"bbccecc":4923,"fecded":4924,"dbbcccc":4925,"ebecef":4926,"ebdbbbf":4927,"edcbcbc":4928,"befdbd":4929,"befdec":4930,"edcdbf":4931,"eebcbedf":4932,"bbcdebc":4933,"ebebbebc":4934,"ebeebdc":4935,"bbfefc":4936,"ebbbddc":4937,"bbbbbebbc":4938,"bdbebbbc":4939,"defdf":4940,"edfeec":4941,"bebebbec":4942,"feddc":4943,"bfecec":4944,"edefcc":4945,"ebbbcbec":4946,"ecbedec":4947,"beeddf":4948,"beecebc":4949,"deeba":4950,"dddbec":4951,"bcbbea":4952,"eecdedc":4953,"eedeccc":4954,"edfbbbb":4955,"deeebbc":4956,"bdfdbc":4957,"ecbcbcc":4958,"ebbeea":4959,"eebcebd":4960,"fdcef":4961,"eebbbecc":4962,"fbcbbbc":4963,"ecbcecc":4964,"bbeeebbc":4965,"ebfebbc":4966,"bdcdbf":4967,"bdbeebd":4968,"beebbbbbe":4969,"bddba":4970,"eecbcec":4971,"bcfbebc":4972,"beceeec":4973,"bbececc":4974,"bbebbbbbbbbbb":4975,"bdbebbf":4976,"dcbcebb":4977,"dddeec":4978,"eddbbee":4979,"ddebdc":4980,"dbebbed":4981,"eebbac":4982,"ebedbbbb":4983,"dedbbd":4984,"eceedcc":4985,"efeeef":4986,"eecbedd":4987,"bcbebfc":4988,"eeebeeeee":4989,"dedebd":4990,"efbedc":4991,"bbecff":4992,"eddeecc":4993,"becdebe":4994,"ebccdf":4995,"bebdbf":4996,"fbeebbc":4997,"eebcdbe":4998,"bdfebf":4999,"ebebdbd":5000,"ddeedc":5001,"bbbdccc":5002,"fbcbebe":5003,"aebec":5004,"bbbbcbbd":5005,"bcbedbd":5006,"deebfc":5007,"bbbdff":5008,"da</w>":5009,"bdfecc":5010,"bbbcbeee":5011,"bdcbcbc":5012,"eceefc":5013,"bbfbeec":5014,"bebcdbc":5015,"bdcfcc":5016,"bbbebecc":5017,"bbbbea":5018,"cccccccccc":5019,"fbedbd":5020,"bdbeecc":5021,"dcfebe":5022,"bcbbbbbbc":5023,"ebbbbbdc":5024,"dbefbd":5025,"eebdbbc":5026,"ebebcf":5027,"ebbecbbc":5028,"bebefee":5029,"dccdbd":5030,"efbcbf":5031,"bceeecc":5032,"eeebba":5033,"bfdbbd":5034,"edecbbc":5035,"fbebbbf":5036,"dcfbbc":5037,"fceccc":5038,"bbbcba":5039,"bcbdbbc":5040,"bbefbbc":5041,"ecffcc":5042,"fcda":5043,"eddbbbc":5044,"ebbfbbd":5045,"dcfebc":5046,"beeceec":5047,"fdbdcc":5048,"dbbbded":5049,"bbbbfebb":5050,"ddcdec":5051,"bbfdebb":5052,"bbffbf":5053,"bdbeccc":5054,"ebecccc":5055,"fdb</w>":5056,"bdcbebd":5057,"ebeeeef":5058,"bebeebbc":5059,"adebb":5060,"ebfeeee":5061,"eebddd":5062,"bbbbefc":5063,"dbcbbec":5064,"edcdfc":5065,"bedb</w>":5066,"edecdd":5067,"dcecf":5068,"ebbfecc":5069,"bebbebdc":5070,"bdfebd":5071,"ebbbbebf":5072,"eedebdc":5073,"bbbdbbebb":5074,"ecbcbf":5075,"efeeebb":5076,"bcfbef":5077,"dcbcef":5078,"dbbcdd":5079,"eefdcc":5080,"bfcbef":5081,"bcccfc":5082,"dbcfec":5083,"bbbbbcbbc":5084,"dedff":5085,"ebebbdd":5086,"edcbedc":5087,"bbdbcee":5088,"ebbcdbd":5089,"ebfbcbc":5090,"bebbbbbbbe":5091,"feebef":5092,"dedbebc":5093,"dcbdee":5094,"ecbcdf":5095,"fbdccc":5096,"ebffcc":5097,"bbdcdd":5098,"ecbebbee":5099,"dbefec":5100,"bbbbcbcc":5101,"bdbcdd":5102,"afed":5103,"deefbc":5104,"effa":5105,"ebecebd":5106,"ebebbbec":5107,"dedbbec":5108,"becebdc":5109,"abbed":5110,"dbfbcc":5111,"fbfbbc":5112,"eabcc":5113,"fbdff":5114,"dcecdd":5115,"ebcbcdc":5116,"ebcdecc":5117,"dbbedbd":5118,"edbeeec":5119,"ebcbbef":5120,"ebfdcc":5121,"bbbfdf":5122,"ebedbec":5123,"bdfeec":5124,"ebbfbbf":5125,"ebecdbe":5126,"eebcbbd":5127,"bcfebbc":5128,"ebfdbd":5129,"bebedee":5130,"abeec":5131,"bbccbbf":5132,"beeedbc":5133,"bdcdebb":5134,"bebebeebb":5135,"eddebbc":5136,"bcccbbc":5137,"bebebfc":5138,"eccdfc":5139,"dcc</w>":5140,"ecf</w>":5141,"bcf</w>":5142,"bceebbf":5143,"bcbebbebb":5144,"eceedf":5145,"ebdeedc":5146,"edcbbbd":5147,"edcdecc":5148,"fbebccc":5149,"ebeeeec":5150,"effbbc":5151,"ebfbbbd":5152,"eccbcec":5153,"ebecdbc":5154,"eecfbe":5155,"fcbbbbc":5156,"eadee":5157,"ebbeebbbe":5158,"debbbf":5159,"ebbbfbf":5160,"bbbbeeee":5161,"bbbbbcebb":5162,"edbcbbbb":5163,"bbdbbef":5164,"bdcba":5165,"bbabbc":5166,"bcbebbcc":5167,"ffbbec":5168,"fceebd":5169,"eccbbed":5170,"eedac":5171,"beecbebc":5172,"dbbbbbbbe":5173,"ecbbefc":5174,"bbeebbbd":5175,"eebedcc":5176,"efbbdd":5177,"dcbddc":5178,"ebbcbbec":5179,"ebecdee":5180,"bcbcbebc":5181,"bccfdc":5182,"beeebbebb":5183,"ebbbedbe":5184,"bcbedcc":5185,"beeddd":5186,"ebcdebd":5187,"dfbecc":5188,"eebebbebe":5189,"ededbc":5190,"bbeefee":5191,"beedbbc":5192,"bfbcef":5193,"bcbceec":5194,"eceedbc":5195,"ebbfebd":5196,"bcbcbbbe":5197,"fceedc":5198,"ebeda":5199,"dbbbbbbbbbbbb":5200,"fbcfec":5201,"bcdbbbd":5202,"beeebbd":5203,"dedbbf":5204,"eebcdbc":5205,"ebfbbcc":5206,"bcdbbbbc":5207,"bfcdbd":5208,"ecbcbbbb":5209,"bdfbbd":5210,"dddbcc":5211,"ebdfdc":5212,"beeedbe":5213,"eddbfc":5214,"bdebccc":5215,"dbbbdebb":5216,"dcbddd":5217,"befbbec":5218,"bdfdee":5219,"decbbbc":5220,"bdcbecc":5221,"eeccef":5222,"ecbefcc":5223,"dbfebe":5224,"ebcecdc":5225,"dcbebbc":5226,"edeefc":5227,"ebbfbbbe":5228,"befdcc":5229,"eabec":5230,"ffefc":5231,"dfcdf":5232,"defbf":5233,"ebdeeec":5234,"efbba":5235,"ddbddd":5236,"cccdbe":5237,"ddcbf":5238,"fcbeebb":5239,"bbebbbcc":5240,"fffbf":5241,"eebefcc":5242,"ffcdf":5243,"bbcfdc":5244,"ebbedbc":5245,"badbc":5246,"ebeecbd":5247,"bbbdbebc":5248,"bbbbcbf":5249,"bdcfed":5250,"bcbcdbe":5251,"ebdebdc":5252,"ebdeccc":5253,"beedbec":5254,"ebecbbbe":5255,"ebbdbbbc":5256,"decbbec":5257,"ecbcef":5258,"eceeebc":5259,"fffec":5260,"beccbcc":5261,"bbbfbcc":5262,"ebebcbf":5263,"eabbf":5264,"bcfefc":5265,"befbbebb":5266,"dfcfc":5267,"ebebbfc":5268,"fbdeec":5269,"ebdbcec":5270,"fccfec":5271,"eebcedc":5272,"dbdddc":5273,"bdbeeec":5274,"eabbbe":5275,"fbcbdc":5276,"decbebe":5277,"edeeef":5278,"debbccc":5279,"debbbbd":5280,"eebcbbbe":5281,"bcdac":5282,"ffbeee":5283,"bbedfc":5284,"dbfebc":5285,"ececbcc":5286,"ebecbbd":5287,"bebdeec":5288,"ffbbcc":5289,"bdbbdcc":5290,"decedc":5291,"eeecdf":5292,"dbfecc":5293,"ebbbbccc":5294,"dbbd</w>":5295,"eebeebbc":5296,"ebdfebb":5297,"edfebd":5298,"eeccedc":5299,"deebeec":5300,"ecbbfcc":5301,"bceedbc":5302,"befebbc":5303,"ebebcdc":5304,"babebe":5305,"bcbcbbf":5306,"ebdbcbd":5307,"fdddd":5308,"abebd":5309,"acfc":5310,"babdc":5311,"bcecdbe":5312,"fedbf":5313,"dcbdbc":5314,"debbdbe":5315,"fbdebc":5316,"dbbbbbbd":5317,"efffc":5318,"fecbbbb":5319,"beccedc":5320,"decbfc":5321,"fecbbf":5322,"ebebdcc":5323,"bcbc</w>":5324,"dbfbbf":5325,"debbbbf":5326,"fbcbebc":5327,"bcbbebcc":5328,"bcbcbbd":5329,"bbbbbbbbbbbd":5330,"edbedf":5331,"ffbebc":5332,"bcecfc":5333,"dccbbf":5334,"efcbbf":5335,"bcfbbec":5336,"beeedf":5337,"ebdbeed":5338,"feedbc":5339,"ddbbbbc":5340,"bfdbcc":5341,"ecbeebf":5342,"eedcccc":5343,"bbbcbbbf":5344,"aeebc":5345,"efeeec":5346,"efbbfc":5347,"dbbbdbf":5348,"efcbdc":5349,"eebebbbd":5350,"deecdf":5351,"bfeedc":5352,"bbbbfcc":5353,"bffbbbb":5354,"ebbbebbbc":5355,"dbbbdee":5356,"dccded":5357,"ebeceec":5358,"bebddbe":5359,"bceddd":5360,"eedbbbd":5361,"bbebbfc":5362,"eefbfc":5363,"eefdbd":5364,"deebbcc":5365,"eccfdd":5366,"beeebdc":5367,"cccedc":5368,"bbbbbba":5369,"bccbedc":5370,"dbbbbbbbc":5371,"eddebcc":5372,"bfbcbbc":5373,"bfedcc":5374,"deebbbd":5375,"beccebe":5376,"dcdddd":5377,"ecbeff":5378,"edecee":5379,"edfbbd":5380,"fcbebf":5381,"ebecbbbc":5382,"beebbbebe":5383,"edeea":5384,"fdcdd":5385,"eccbeed":5386,"bdbbba":5387,"bfeeebe":5388,"beeedc":5389,"ebcda":5390,"dbbecbf":5391,"efbdbd":5392,"fecbdc":5393,"bfbfcc":5394,"eebebbcc":5395,"bbbfbbd":5396,"bbbbebcc":5397,"faa":5398,"ebcbcbe":5399,"beecdbc":5400,"bceebbbe":5401,"bccea":5402,"bbdcebe":5403,"bcceeee":5404,"ecbceec":5405,"ebbeddc":5406,"eeebbebe":5407,"ecbcebe":5408,"bbbbbbbbbbbbbbbbbbbb":5409,"feeba":5410,"befedc":5411,"deedbf":5412,"bbbeeeee":5413,"feeecc":5414,"efbbebc":5415,"bfbbbcc":5416,"bebefbc":5417,"bedcccc":5418,"bbfbbed":5419,"bbcac":5420,"dbcebbc":5421,"edbeccc":5422,"febba":5423,"bbdcbec":5424,"bbbbb</w>":5425,"efbcebb":5426,"bcccbccc":5427,"edbebbbe":5428,"bebcbbee":5429,"bebcedc":5430,"ebbbebdc":5431,"bbbfdbe":5432,"bdbcfc":5433,"bbdddbd":5434,"eebda":5435,"ecbca":5436,"bffebc":5437,"bbbfebc":5438,"bbbbfbbbb":5439,"ebbbdbbc":5440,"ebbcbfc":5441,"ecfbfc":5442,"bcfdbf":5443,"bbddbbc":5444,"febbbbc":5445,"bbfbbbbc":5446,"dffbf":5447,"bbeebeebb":5448,"ebdfbe":5449,"dfcdd":5450,"dadd":5451,"dccfec":5452,"debbbcc":5453,"dbdedc":5454,"fcebdc":5455,"eebdbec":5456,"fbcebf":5457,"bcbebbbd":5458,"bcdbccc":5459,"bebdbbbe":5460,"feeebc":5461,"ddcff":5462,"eebdebc":5463,"bfbefc":5464,"debbeec":5465,"feebbd":5466,"bcccdd":5467,"fdddf":5468,"bbedbbd":5469,"bfedbd":5470,"ecfbbd":5471,"bdfbdc":5472,"bffbbd":5473,"bdbedee":5474,"febbbbbb":5475,"debcdf":5476,"ecceedd":5477,"bbbecbbc":5478,"bbefa":5479,"efcbbd":5480,"eeccdd":5481,"efcbebc":5482,"ececbec":5483,"eccecbd":5484,"bbeddbc":5485,"eefbebc":5486,"bbeebfc":5487,"bcbdbbbb":5488,"eebebbbf":5489,"bbbbcebe":5490,"ebdbdbd":5491,"fccedc":5492,"ededdd":5493,"defbcc":5494,"bbedeec":5495,"dcbefc":5496,"ebfbbec":5497,"edebecc":5498,"eeeeba":5499,"eedbbbbc":5500,"eebddf":5501,"befbcbc":5502,"bbccbdc":5503,"bbefbbbb":5504,"fcfef":5505,"efdeec":5506,"ecccebc":5507,"bdeac":5508,"ddcbbbb":5509,"defdbe":5510,"bbccff":5511,"efbcdc":5512,"bbfea":5513,"bdeebec":5514,"bdbebdc":5515,"beebeebe":5516,"debedd":5517,"fbbebdc":5518,"bcdebdc":5519,"bceeeecc":5520,"dbdbebc":5521,"bbccdee":5522,"edbeedc":5523,"eecbeebb":5524,"eccac":5525,"bbbddbbbb":5526,"dcebfc":5527,"dcfa":5528,"bddeecc":5529,"eebdfc":5530,"bbbecbbbb":5531,"eeecdd":5532,"dfebcc":5533,"beecded":5534,"bfbdbf":5535,"ecfebf":5536,"efcebd":5537,"eecbbbf":5538,"bbbccbbc":5539,"ddcbdc":5540,"bbffbe":5541,"ebbbeebd":5542,"bfcbbec":5543,"efbdcc":5544,"decbecc":5545,"bbebcbbbb":5546,"bfecdc":5547,"fbffc":5548,"dfbeee":5549,"bfcded":5550,"ebcffc":5551,"ebdcbbc":5552,"bcceedc":5553,"ebecbdc":5554,"ecccbbc":5555,"bccbcec":5556,"debcbec":5557,"bdeea":5558,"eccbedd":5559,"bdbebbee":5560,"dffbe":5561,"bebcebbc":5562,"befeeee":5563,"fbddbe":5564,"ebbecdd":5565,"fbdbbbb":5566,"bebfbbbb":5567,"bccbbdc":5568,"ebdbbdd":5569,"acbec":5570,"eebbeecc":5571,"ebffec":5572,"bbbcbbed":5573,"ebccdbe":5574,"ecbcdee":5575,"eebebbec":5576,"fbfef":5577,"dbcbeee":5578,"bebcded":5579,"debebbbb":5580,"dbbdbbc":5581,"bebdebe":5582,"bfbdbc":5583,"ebecbbf":5584,"babbee":5585,"bbbedbf":5586,"bbebebbee":5587,"dbbcbec":5588,"ebececc":5589,"ececdd":5590,"dfcbbc":5591,"afdc":5592,"fcbcf":5593,"ebecdec":5594,"ebcbdbd":5595,"dbdfbc":5596,"bccfbe":5597,"eeffcc":5598,"bcbefcc":5599,"befea":5600,"abecc":5601,"bbccdbc":5602,"bebbcbbbb":5603,"ddcded":5604,"bcbeebbc":5605,"fceeee":5606,"ddcebd":5607,"bbbfbebe":5608,"ecdac":5609,"babbbd":5610,"bdfbbbe":5611,"bbbbcbbbd":5612,"eebcdc":5613,"bcebbbbbb":5614,"bbebbdd":5615,"ebcbcf":5616,"ecfbbbc":5617,"ffac":5618,"bccecbc":5619,"dbbbddc":5620,"baecc":5621,"dbdebf":5622,"ecdbccc":5623,"debbbbbc":5624,"bccbcbd":5625,"bbbbcbbf":5626,"bcccecc":5627,"cccdbc":5628,"ffebbc":5629,"bbeefbc":5630,"bcbcecc":5631,"decfbc":5632,"defbec":5633,"bdeefc":5634,"befdbf":5635,"bbdac":5636,"cccbdc":5637,"ebbfeec":5638,"fccebe":5639,"ebdcebe":5640,"baebf":5641,"ecbcdbe":5642,"fbfa":5643,"fbedebb":5644,"fdcbec":5645,"ecfdcc":5646,"bdcbeee":5647,"bccbcee":5648,"ebddeec":5649,"bebdbbd":5650,"ebcecec":5651,"fbdebe":5652,"dcfecc":5653,"bebcbfc":5654,"ffded":5655,"bedcbec":5656,"bbbeea":5657,"bbdcef":5658,"ebceebe":5659,"ebdbebf":5660,"fecdcc":5661,"bccbeed":5662,"ecbddd":5663,"bebbcbbc":5664,"fcbced":5665,"efcbbbc":5666,"ffea":5667,"ddcbbd":5668,"decebbc":5669,"bcebfcc":5670,"ecfbbbe":5671,"befbbbd":5672,"eebcbdc":5673,"bfcbeec":5674,"bebcbdc":5675,"dbfdee":5676,"bebddee":5677,"fedef":5678,"bebdbebe":5679,"beccdf":5680,"dceddc":5681,"bfeeef":5682,"dcd</w>":5683,"ebbeebeee":5684,"eecbbbbc":5685,"edcdef":5686,"bfeeed":5687,"bdfdbd":5688,"decfec":5689,"eebcbbbc":5690,"debe</w>":5691,"edbebdc":5692,"bbebcbbc":5693,"ebddecc":5694,"dcbba":5695,"ebceebf":5696,"eebe</w>":5697,"fcbcee":5698,"eccdef":5699,"edeebcc":5700,"eeccbbbb":5701,"decebf":5702,"adef":5703,"bbebbbebc":5704,"ddfebb":5705,"beecbbd":5706,"acef":5707,"dabca":5708,"edbbbdc":5709,"abbbbc":5710,"bfbedd":5711,"ecbcbbf":5712,"edbac":5713,"ecbebfc":5714,"dbdbbee":5715,"bbecbdc":5716,"baea":5717,"eefebbc":5718,"bebebbebe":5719,"dccfbc":5720,"bbedbbbe":5721,"bbcdfc":5722,"bbecded":5723,"edbbedc":5724,"ebbfdf":5725,"bbcbdbd":5726,"fcbbfc":5727,"ebcbcebb":5728,"ecceddc":5729,"bccfbf":5730,"afa":5731,"dffed":5732,"deebeee":5733,"eccbcbd":5734,"fcfebb":5735,"ebbefcc":5736,"beecbbbc":5737,"bdbedbc":5738,"ebbdccc":5739,"ecbcebd":5740,"bdbcebe":5741,"bbeebbebe":5742,"ebfefc":5743,"edcebdc":5744,"fbcbef":5745,"bbfded":5746,"eccfebb":5747,"eebcdee":5748,"abcbd":5749,"dbbeced":5750,"ebceedd":5751,"bbefdd":5752,"bdbcef":5753,"edeeebc":5754,"eebcff":5755,"bbedccc":5756,"ebbedbf":5757,"eccedbd":5758,"dbfba":5759,"dbedef":5760,"dbcfcc":5761,"abccc":5762,"febac":5763,"ecdcccc":5764,"eebcdec":5765,"eecac":5766,"fdd</w>":5767,"ebbcbcbc":5768,"eddbecc":5769,"ebdda":5770,"ebcbebbc":5771,"eeeeeeebe":5772,"beccdd":5773,"bddbbcc":5774,"eefdec":5775,"eeeebeebe":5776,"dcbbbec":5777,"ebdbccc":5778,"eecbebf":5779,"becbebf":5780,"bebeea":5781,"ecbb</w>":5782,"beebbef":5783,"dcbfcc":5784,"eeccbcc":5785,"ebfea":5786,"bfdebd":5787,"bcbeba":5788,"fcbcbf":5789,"bdecbec":5790,"dbebccc":5791,"beecebe":5792,"bbbcfee":5793,"bbbefbd":5794,"ebdbbbbc":5795,"edcba":5796,"ddbedd":5797,"fbedbf":5798,"eeecbcc":5799,"eccdebe":5800,"bbfbebd":5801,"bbebbbbbbc":5802,"efcbfc":5803,"ebcfdd":5804,"bebbb</w>":5805,"dbbecebb":5806,"bcbebecc":5807,"ebccbdc":5808,"fedbcc":5809,"ebddbbbb":5810,"bcbbcbbc":5811,"bebebbbf":5812,"fdcfc":5813,"ebceeed":5814,"bbeebbcc":5815,"bceebdc":5816,"dbdbef":5817,"bdbdbbbb":5818,"ecccbcc":5819,"bfebfc":5820,"bbfcbbc":5821,"eccceec":5822,"bcbcdbc":5823,"bceeefc":5824,"ebbcbef":5825,"fececc":5826,"eebebfc":5827,"bbbcbbbbbbbb":5828,"bbebbdbe":5829,"eeeedd":5830,"cccdec":5831,"bbbdebf":5832,"eebbbccc":5833,"ebddbec":5834,"fcdecc":5835,"ecccedc":5836,"ebcedcc":5837,"dbbebfc":5838,"eeeebcc":5839,"eefedc":5840,"bbbccbbbb":5841,"bfbded":5842,"eeeb</w>":5843,"bdfedc":5844,"dfdebb":5845,"bffdf":5846,"ecfdee":5847,"beecff":5848,"ddffc":5849,"ebcdedc":5850,"bbbcbebd":5851,"ebbbbebbc":5852,"ebbeebebe":5853,"debc</w>":5854,"eceebbbb":5855,"dcbdbf":5856,"dccebf":5857,"dcbeebc":5858,"bbeedbd":5859,"bbbeebec":5860,"bbbeded":5861,"ecbbebec":5862,"bcbddf":5863,"fbacc":5864,"bdbcbec":5865,"bcecdec":5866,"eecdebd":5867,"bbdebdc":5868,"ecccbec":5869,"bdfdec":5870,"fbfccc":5871,"bdeebbbb":5872,"eceedee":5873,"bebfa":5874,"fbcedc":5875,"bbbcbeec":5876,"ebcbbfc":5877,"bcbcff":5878,"eccdedc":5879,"eccbbdc":5880,"bbccedc":5881,"bebdbebc":5882,"dccfcc":5883,"eeecbbbb":5884,"ebcbbebc":5885,"efcfec":5886,"dbcbeec":5887,"ecfdec":5888,"ecebfcc":5889,"ddedcc":5890,"bbcbced":5891,"debd</w>":5892,"eccecec":5893,"bdbeff":5894,"acdee":5895,"ebfbbbf":5896,"dbbcef":5897,"edfdbe":5898,"edbedbc":5899,"dcfbec":5900,"dcefcc":5901,"ebbbedf":5902,"bbbdbbec":5903,"ebccff":5904,"eccccccc":5905,"fbdbcc":5906,"bddebec":5907,"fbddee":5908,"bba</w>":5909,"bbbcedc":5910,"feddee":5911,"bbcbbebc":5912,"bebdbbf":5913,"eebedee":5914,"ebccdee":5915,"fbcded":5916,"fdceec":5917,"becbedd":5918,"bfdbbf":5919,"bbbcded":5920,"bbbebebf":5921,"fccdec":5922,"bdcbbcc":5923,"beccbbbb":5924,"dbbbbdd":5925,"afebb":5926,"bbbbcdd":5927,"bbcbebbc":5928,"bebcebf":5929,"bcecbcc":5930,"dfbccc":5931,"bfcdcc":5932,"edeebbbb":5933,"dbeea":5934,"bbedbcc":5935,"bbedbbf":5936,"bbbefec":5937,"bbcbcbf":5938,"bbcbbbbbbbb":5939,"ebbdbbee":5940,"feedcc":5941,"beccebd":5942,"eebc</w>":5943,"bdbbebbc":5944,"ebefdd":5945,"efcdcc":5946,"efdbcc":5947,"bbecbeec":5948,"ecbebbcc":5949,"efdbb":5950,"bbeedec":5951,"edbbccc":5952,"dbfbbd":5953,"dcddcc":5954,"bbeebbbf":5955,"fcffc":5956,"bdceebd":5957,"bbcdbec":5958,"dcbbbcc":5959,"bfbcbbbb":5960,"bceddee":5961,"dbeeebc":5962,"dbcddc":5963,"edcbeee":5964,"fcbbef":5965,"fbfff":5966,"eeccdf":5967,"ebbebbbbbb":5968,"bceebbd":5969,"ebdeeee":5970,"eecbbdd":5971,"edfedc":5972,"dceddd":5973,"fbeefc":5974,"ebbcbbebb":5975,"bbecdbd":5976,"bdeeccc":5977,"bbcbbfc":5978,"dedddc":5979,"ebebea":5980,"fecfec":5981,"eddea":5982,"eeceeee":5983,"dbcba":5984,"dcbdec":5985,"ebfbbebb":5986,"eebfa":5987,"eceebdc":5988,"ebcdbbbb":5989,"ebbeddd":5990,"ebdcdd":5991,"ebbebecc":5992,"bdbcbbd":5993,"bcecded":5994,"deecbec":5995,"bfcbcbc":5996,"bbeddec":5997,"efbebbc":5998,"bbbbbbbbbbbbbbbbbbbbbbbb":5999,"eeebebeee":6000,"dfbebd":6001,"dbebcbd":6002,"bebcbcbc":6003,"bebcbbec":6004,"dbcdebb":6005,"efeebe":6006,"bedbdcc":6007,"ebdcfc":6008,"ebffbd":6009,"ffbbbd":6010,"bbbebccc":6011,"ebccbbd":6012,"eecfebb":6013,"bfcebbc":6014,"ebbfdbe":6015,"dbbdddd":6016,"dfdef":6017,"dbbecf":6018,"bbbcdebb":6019,"dbbcebe":6020,"bceebbec":6021,"bfbebec":6022,"dbbc</w>":6023,"ececebc":6024,"bebedec":6025,"bbdcfc":6026,"ecceeee":6027,"ececfc":6028,"dfecbc":6029,"bcbedbf":6030,"bceedec":6031,"ebbdebf":6032,"fecbbd":6033,"bbebebbf":6034,"ecbeebbc":6035,"fecebe":6036,"bbeeedc":6037,"dcfeec":6038,"ebdcebc":6039,"ebbbac":6040,"ddbced":6041,"bcecebc":6042,"bceceec":6043,"dce</w>":6044,"bddfcc":6045,"dcbcbbc":6046,"bbceedc":6047,"dbeefc":6048,"cccbccc":6049,"bdbebbbd":6050,"becfbf":6051,"ebdfbf":6052,"eebedbd":6053,"fffbe":6054,"ffeeee":6055,"bcfba":6056,"deeded":6057,"dbcbebd":6058,"bbedefc":6059,"edebccc":6060,"bbeebcbc":6061,"fde</w>":6062,"bbefebe":6063,"fbf</w>":6064,"bbbefbe":6065,"fccbbf":6066,"bfcbebe":6067,"dbcefc":6068,"beebebbbb":6069,"ebbe</w>":6070,"bbeacc":6071,"eddfcc":6072,"bdfdcc":6073,"fdca":6074,"ebaa":6075,"beeebeebb":6076,"bccdebe":6077,"bcbdef":6078,"befefc":6079,"dbbebbbbbb":6080,"ebbecbbbb":6081,"bfdecc":6082,"dfeccc":6083,"fbcbcbc":6084,"dbbdbbd":6085,"cccbbf":6086,"bbebebec":6087,"bcecebe":6088,"bfbcfc":6089,"bcdeccc":6090,"bbbbca":6091,"dbcbbcc":6092,"befbbcc":6093,"eceebec":6094,"cccebd":6095,"edecebc":6096,"acca":6097,"beebac":6098,"bbbbbdbbbb":6099,"dbceebc":6100,"fefa":6101,"bcfbbcc":6102,"edecfc":6103,"bbbdba":6104,"dbbbdbbc":6105,"ecbcbbd":6106,"ebccbbbe":6107,"beeda":6108,"bebebebd":6109,"bfbbeec":6110,"dbdba":6111,"dbcbbed":6112,"fdedcc":6113,"ddbebf":6114,"eebbebdc":6115,"eebd</w>":6116,"ebecff":6117,"beecbbf":6118,"ecbedbf":6119,"eccdeec":6120,"bbbcdcc":6121,"fcbbdd":6122,"bbcbbbec":6123,"eabbee":6124,"bcdbbdd":6125,"debbebd":6126,"bbecbbee":6127,"bdbeedc":6128,"ebbcded":6129,"feddec":6130,"bbbfbbbf":6131,"dfbbed":6132,"dbcfbd":6133,"bdeedbe":6134,"fcbedd":6135,"bebcbbbd":6136,"dddebd":6137,"ebbbebbebb":6138,"bbbbebbbbbb":6139,"ddcedc":6140,"bffbec":6141,"ecbdbbc":6142,"ddbeebb":6143,"bcdcccc":6144,"bcbbac":6145,"bebedbd":6146,"bbdbebbbb":6147,"beecebd":6148,"bebcfbc":6149,"bddbbbd":6150,"bbdeedc":6151,"bfcfee":6152,"dbbebbebb":6153,"bfb</w>":6154,"beecbbbe":6155,"bebebbbbc":6156,"febbebe":6157,"bbebebbbc":6158,"feddbe":6159,"deefcc":6160,"bcfbbbd":6161,"fedff":6162,"beec</w>":6163,"dbbecdc":6164,"bbecbef":6165,"bceebbbc":6166,"bbcbcebb":6167,"dfbcec":6168,"dfebec":6169,"bcbeded":6170,"debceec":6171,"ebcfef":6172,"bcfded":6173,"eabba":6174,"dbbecee":6175,"bddbecc":6176,"bfbeebc":6177,"dffdd":6178,"dbcdbf":6179,"ecbcdec":6180,"bbefef":6181,"bcbd</w>":6182,"edeeecc":6183,"debcef":6184,"becfdc":6185,"edfccc":6186,"eebdecc":6187,"bffbcc":6188,"ebbecebc":6189,"ebcbcbf":6190,"bbdceec":6191,"becdecc":6192,"fbcefc":6193,"debcbbc":6194,"beed</w>":6195,"bbbbcef":6196,"edcfdc":6197,"bcedbbc":6198,"ebdac":6199,"eefbbebb":6200,"bdfbfc":6201,"fbfbbbb":6202,"eefbbec":6203,"dbbe</w>":6204,"bbdca":6205,"bdcebcc":6206,"dfbbbf":6207,"ebfbecc":6208,"edeebec":6209,"bcbe</w>":6210,"baeec":6211,"bebcfec":6212,"fdbfcc":6213,"edebbebb":6214,"beee</w>":6215,"bbbedfc":6216,"ebbbeff":6217,"bfeebbc":6218,"dddccc":6219,"fccfcc":6220,"ebcbbbec":6221,"bcbbcbbbb":6222,"ebbecbec":6223,"eeccebe":6224,"bdcbbed":6225,"defef":6226,"bfbbebd":6227,"bcbcebd":6228,"acbcc":6229,"bebdbcc":6230,"bfbcebe":6231,"bceb</w>":6232,"edcdebe":6233,"ebbbbba":6234,"dbbcbbd":6235,"febbef":6236,"eddebec":6237,"bceebbee":6238,"bbbdded":6239,"eeebbeeee":6240,"dccddc":6241,"feebbbc":6242,"ddecbd":6243,"deebbed":6244,"efcdbd":6245,"bcbbbbbbbc":6246,"eccffc":6247,"dfbcbd":6248,"bbfbebf":6249,"eedbbdd":6250,"ebcfbbc":6251,"befbbbf":6252,"bbbeeebc":6253,"edcbbcc":6254,"ecceeed":6255,"ebccdec":6256,"bebdebd":6257,"eeccebd":6258,"dbbbdbe":6259,"feacc":6260,"bebebecc":6261,"dbecbbc":6262,"bbebea":6263,"bcfddc":6264,"acebe":6265,"ecbebbec":6266,"ebbeefc":6267,"dceeef":6268,"fbbeccc":6269,"eefbbcc":6270,"bedceec":6271,"ebcfebc":6272,"bbddbbd":6273,"bdbbbfc":6274,"ebcedbd":6275,"dbfebd":6276,"bdbca":6277,"ebcdbcc":6278,"bddea":6279,"fefef":6280,"beeebeebe":6281,"ffbccc":6282,"bdecbbc":6283,"ebbbca":6284,"ebbeebbf":6285,"deebecc":6286,"bcecef":6287,"eccdbbc":6288,"decbcbc":6289,"fedfc":6290,"eedbbbf":6291,"bdceeec":6292,"bfcbbee":6293,"eebdbbbb":6294,"bbbdbdbd":6295,"dcecebb":6296,"dccbbbe":6297,"eeebbbbc":6298,"fccfbc":6299,"ebbecebe":6300,"deebbebb":6301,"ebefbbc":6302,"fccebd":6303,"dedbef":6304,"dbbeba":6305,"bfecebb":6306,"bcbebbed":6307,"ddeeed":6308,"bebbbbbbbbbbbb":6309,"ecbbbecc":6310,"edecbec":6311,"bcceccc":6312,"eececbd":6313,"bfcfec":6314,"bbbddec":6315,"dedbbbe":6316,"bebffc":6317,"bbebeef":6318,"debeccc":6319,"dccbebe":6320,"fbdbbf":6321,"ebcecbe":6322,"bebdccc":6323,"fefff":6324,"debebec":6325,"ecbbebcc":6326,"ebcbeebe":6327,"feedee":6328,"dfeecc":6329,"bcccef":6330,"dbedbbc":6331,"ebccbbf":6332,"bbbfccc":6333,"eebcbebc":6334,"bbbcfec":6335,"fdcff":6336,"dbddebb":6337,"ebbcbeee":6338,"edbebbf":6339,"bbbbcbbbbbbbb":6340,"bbebbebf":6341,"bcdbbebb":6342,"fccdee":6343,"bbdcbbd":6344,"ddbdcc":6345,"decdebb":6346,"ebbbeeec":6347,"bebebeec":6348,"bfecee":6349,"bdbceec":6350,"bccdfc":6351,"bbdda":6352,"dbfca":6353,"badbd":6354,"dbfbbbe":6355,"ebccdbc":6356,"fcdedc":6357,"eebcebbc":6358,"fbeeecc":6359,"bfbcebc":6360,"bbefff":6361,"fbcdbd":6362,"bccdbbc":6363,"ecfbebc":6364,"bbecbfc":6365,"ecccef":6366,"dcecef":6367,"dfbeec":6368,"bbefbbf":6369,"eddba":6370,"dceeebe":6371,"bbecebbc":6372,"fbcbbee":6373,"bbecebf":6374,"fbcebbc":6375,"defff":6376,"ebeeedc":6377,"fecbebc":6378,"bbebbccc":6379,"bbbedbbbb":6380,"bcccbec":6381,"eefdbf":6382,"dbecbec":6383,"edeeccc":6384,"beccff":6385,"bbecbbbd":6386,"bdfbbbc":6387,"edebbbc":6388,"bbdbbebc":6389,"bccceec":6390,"eebdeec":6391,"fcfbbc":6392,"fdebfc":6393,"bcbcbebe":6394,"ddcbbf":6395,"eccbcee":6396,"ebebebbbe":6397,"edcbeed":6398,"eafee":6399,"ebedbcc":6400,"ebdceec":6401,"eebebecc":6402,"dbbca":6403,"dbebcec":6404,"bdbcccc":6405,"bfeba":6406,"ebdbeebb":6407,"ebdca":6408,"bfeced":6409,"ebddebd":6410,"bbbbbbfc":6411,"bbdeeebb":6412,"feddbc":6413,"bbbbcfc":6414,"bbdcdf":6415,"dcfdf":6416,"ebffbf":6417,"bedcbbc":6418,"eefbbbd":6419,"edccccc":6420,"bdcdef":6421,"bffbbf":6422,"bceddf":6423,"dbdbfc":6424,"dcdbbf":6425,"bfbea":6426,"ebbd</w>":6427,"efbded":6428,"bcbdbec":6429,"bbbeefc":6430,"acbbbb":6431,"ebefa":6432,"bcbdfc":6433,"fecbfc":6434,"bbdcebc":6435,"dafc":6436,"eebcbebe":6437,"bbbfbbee":6438,"beeebbebe":6439,"bcebbbbc":6440,"ebfdbf":6441,"baebd":6442,"bbccbebe":6443,"bdbcbcc":6444,"bbebbeec":6445,"ecbbea":6446,"bbfbecc":6447,"ecbebbbd":6448,"edcdeec":6449,"decddc":6450,"bedcdf":6451,"beefa":6452,"bbdbebbc":6453,"debea":6454,"bbbbcdbe":6455,"ecbcdbc":6456,"bdcbeed":6457,"bcfbecc":6458,"bebddbc":6459,"edbcccc":6460,"bebdecc":6461,"dbbbdec":6462,"bbdcdbe":6463,"dbbcfc":6464,"ebbfebf":6465,"bebbbbbbbc":6466,"edfbbf":6467,"debbdee":6468,"ecececc":6469,"bcdedcc":6470,"becfebb":6471,"ffdef":6472,"eefbbbf":6473,"bbceeed":6474,"fccdbe":6475,"eebebbef":6476,"bcdbbed":6477,"dbfdbc":6478,"dcfbcc":6479,"bcdb</w>":6480,"bbbbddc":6481,"bddebcc":6482,"bbdbba":6483,"bebdbbbc":6484,"bbbbeeebb":6485,"ebbbeecc":6486,"dfcdee":6487,"becbbdd":6488,"efdbbd":6489,"bdbedbd":6490,"bbbebebbc":6491,"beccdec":6492,"ecbdebc":6493,"bbceeebb":6494,"bfcbbef":6495,"ddfef":6496,"ebbcbbcc":6497,"dbbebbcc":6498,"bfeedd":6499,"bbdbedd":6500,"bfcbbbd":6501,"bbebbbeebb":6502,"eaebf":6503,"dfca":6504,"efcfbc":6505,"bebebebf":6506,"dbfeec":6507,"becbbebe":6508,"bbdfbbc":6509,"bebcbef":6510,"bedcef":6511,"fbfdf":6512,"bbedff":6513,"bbdcdee":6514,"ecbcedc":6515,"eeebfcc":6516,"bbebbebbc":6517,"bccbebf":6518,"ebcfebe":6519,"bcbedebb":6520,"bbecfbc":6521,"bbdbbfc":6522,"babeee":6523,"becbebbc":6524,"ececdbe":6525,"ecbebecc":6526,"dceded":6527,"bbbbdbbd":6528,"decbbee":6529,"dbfbdc":6530,"fefccc":6531,"eedbbebb":6532,"eebfef":6533,"bfbdee":6534,"efcbeec":6535,"dededc":6536,"dddcdc":6537,"eebdedc":6538,"bbdbced":6539,"bbcebdc":6540,"becbbef":6541,"ecfdbd":6542,"bebebeebe":6543,"bceedcc":6544,"aebcc":6545,"ebeecbe":6546,"bbbceebc":6547,"bdbcdbe":6548,"ebcdbbd":6549,"efbbbec":6550,"bebcbeec":6551,"eedcfc":6552,"fffdc":6553,"deefee":6554,"bbebbebd":6555,"eadbc":6556,"eebdccc":6557,"efcbef":6558,"bbcbcf":6559,"ebedbbd":6560,"bfcfcc":6561,"eefbbef":6562,"bbbefebb":6563,"bccbeebb":6564,"ebebcbbc":6565,"fbddbc":6566,"bbbbbbcbbbb":6567,"ebfbebd":6568,"fecebd":6569,"abcec":6570,"ecfeecc":6571,"fbbcccc":6572,"ddbcdc":6573,"bdbcdf":6574,"bbbcebec":6575,"fbdebd":6576,"bececcc":6577,"ebfbebf":6578,"dbbcdf":6579,"fbebbebe":6580,"edbbebf":6581,"dceebbc":6582,"bbcfbbc":6583,"babef":6584,"eebcfbc":6585,"ebfded":6586,"bbcccccc":6587,"bbfebec":6588,"dbecdf":6589,"bbdbcbe":6590,"bbcdeec":6591,"debbecc":6592,"bbdeebe":6593,"fbeded":6594,"dcbcfc":6595,"dbebbbf":6596,"dbbcdee":6597,"debbdbc":6598,"edfbdc":6599,"ddecdc":6600,"bbbdbef":6601,"bbcbbbcc":6602,"bbbebbebc":6603,"ecbdfc":6604,"bbeedcc":6605,"dbbbbdbbbb":6606,"bfcefc":6607,"ebdedcc":6608,"fedbdc":6609,"bcbda":6610,"eabdc":6611,"beedccc":6612,"becda":6613,"edecef":6614,"dcbcebe":6615,"eccbbbf":6616,"ebeeba":6617,"bbcbebbbb":6618,"ebbcdcc":6619,"becbbebc":6620,"bebedcc":6621,"fbebbef":6622,"eedbbed":6623,"bbebbff":6624,"ebebedd":6625,"fecdbd":6626,"dbeebec":6627,"ecdbdcc":6628,"eecdbcc":6629,"bcdbbbf":6630,"efdbbbb":6631,"becbced":6632,"ebbbeebf":6633,"ebccbbbc":6634,"becac":6635,"ecbcbbbe":6636,"bbbbcbcbc":6637,"bccac":6638,"bbfeebc":6639,"ebbc</w>":6640,"abebf":6641,"eccfbf":6642,"bcbddee":6643,"bfcba":6644,"ebbbcbbbe":6645,"ddecec":6646,"fccbdc":6647,"bbbbbeed":6648,"ebddbbd":6649,"becbcee":6650,"bbbbbcec":6651,"bbccbcbc":6652,"ebbbdef":6653,"bfcedc":6654,"bdfbebe":6655,"eedca":6656,"bdbedec":6657,"bfedbf":6658,"defbbf":6659,"debefc":6660,"bedbfcc":6661,"bbbbbcbf":6662,"bbcbcbbc":6663,"ebdecbd":6664,"efcfee":6665,"bbeddbd":6666,"dbbcdbe":6667,"eaebc":6668,"edbedee":6669,"bbebbbeee":6670,"bedca":6671,"dcfebd":6672,"fecbebe":6673,"ecfebbc":6674,"eeeddd":6675,"eefddc":6676,"debbff":6677,"bfbdebb":6678,"beecbeec":6679,"efeba":6680,"deeefc":6681,"ebbecef":6682,"dbbbfcc":6683,"ebebbbcc":6684,"eedbdcc":6685,"bceeff":6686,"bededcc":6687,"deebcec":6688,"bbdbcebb":6689,"eabebe":6690,"fcbbebe":6691,"bdeedf":6692,"bbbebbdc":6693,"fbcfcc":6694,"ebbfedc":6695,"ebcbcdd":6696,"ecfefc":6697,"dbbcbcc":6698,"bbdddbe":6699,"bbbebbef":6700,"bafee":6701,"dcedbf":6702,"ecdbbbd":6703,"ebedeec":6704,"bebdff":6705,"dcdbbbe":6706,"eebdef":6707,"fbeddc":6708,"bbdbbbec":6709,"ebdcebd":6710,"ebdcedc":6711,"eededcc":6712,"eccbced":6713,"beceeee":6714,"ebbbbbfc":6715,"fbcdcc":6716,"bbccbbee":6717,"debebcc":6718,"dbeac":6719,"bcfea":6720,"debbbebe":6721,"bbebbdf":6722,"beecbdc":6723,"ebbebccc":6724,"fbcfee":6725,"ebdcef":6726,"bbedbbbc":6727,"bbbfdbc":6728,"dabba":6729,"ebeecdc":6730,"dbdbeee":6731,"debbbbbd":6732,"fcbcdc":6733,"bedd</w>":6734,"bbdeeed":6735,"ddedbd":6736,"bebddec":6737,"ddeedd":6738,"bbfbccc":6739,"fcecbd":6740,"bbbbecbc":6741,"bbffdc":6742,"dfcef":6743,"bbecbcbc":6744,"bbcfef":6745,"becffc":6746,"eeceedd":6747,"ebdbedd":6748,"dcbebec":6749,"dcebbcc":6750,"dcbbeec":6751,"beebbbbee":6752,"bbffebb":6753,"fddef":6754,"dceefc":6755,"adba":6756,"bccbbef":6757,"dbdfee":6758,"cccbbbc":6759,"eabef":6760,"edbcdf":6761,"bbccebf":6762,"fccdbc":6763,"bfebbcc":6764,"edebbbf":6765,"bbedbebe":6766,"ececdec":6767,"edeedbe":6768,"dbdbcbc":6769,"eeccdbc":6770,"eeebebebe":6771,"bebbcccc":6772,"eccbbebb":6773,"bbccdec":6774,"beccbdc":6775,"ecfbecc":6776,"dbbedcc":6777,"beebea":6778,"bbbdbeee":6779,"bbbebcbd":6780,"ecbcff":6781,"bbcda":6782,"bbceebe":6783,"bfebbebb":6784,"bbbdfbc":6785,"bbbbdebe":6786,"eccfbe":6787,"eecffc":6788,"bcfbccc":6789,"ebbdebbc":6790,"bebceebc":6791,"dcbdef":6792,"bbcbedd":6793,"eabea":6794,"fcceecc":6795,"eeecdec":6796,"dedbebe":6797,"ebbeded":6798,"eedcdd":6799,"dbfebf":6800,"dbbbdf":6801,"dbbbdbbd":6802,"bcbcdec":6803,"bcbeddc":6804,"bbbebbbec":6805,"ebbbbedc":6806,"bfbddc":6807,"befbebf":6808,"bbfddc":6809,"eebddbe":6810,"ebbcefc":6811,"befbeec":6812,"eecbebbc":6813,"ebecbebe":6814,"bdeebcc":6815,"dbbcebd":6816,"fccbfc":6817,"fbddec":6818,"bceeebd":6819,"ececdee":6820,"edecbcc":6821,"bbbbcbebe":6822,"eeebeef":6823,"dccbbbc":6824,"eeecef":6825,"bceebecbbec":6826,"beebebebe":6827,"bcfbbbf":6828,"bbbbcebc":6829,"eddeccc":6830,"bebcdebb":6831,"beccbecc":6832,"bcbffc":6833,"eedcbec":6834,"fffef":6835,"bebcdbd":6836,"ecbeded":6837,"acbbf":6838,"ecbcbdc":6839,"beebbbbf":6840,"bdbcdee":6841,"bfdbbbe":6842,"eccbebf":6843,"bbbbeebd":6844,"debcdd":6845,"bbecbbebb":6846,"bcbebccc":6847,"eabeee":6848,"bbedebd":6849,"dcbbebd":6850,"fbdbdc":6851,"bdccccc":6852,"ebdcbec":6853,"dbbcbbbc":6854,"dbceeee":6855,"fccefc":6856,"ebccebf":6857,"acff":6858,"eeebbef":6859,"bdbcebc":6860,"bdbeebf":6861,"bbeffc":6862,"bddbbdd":6863,"eccbcdc":6864,"fccded":6865,"eebcded":6866,"bdbcbbbc":6867,"bbabba":6868,"dcbebbbb":6869,"bceca":6870,"bccdebc":6871,"eeebbbbbe":6872,"ebccfbc":6873,"bfbcdd":6874,"bebcbebd":6875,"beecbfc":6876,"eccdbec":6877,"dcceecc":6878,"eecbced":6879,"dfbbebb":6880,"bcbcbdc":6881,"eabbd":6882,"befded":6883,"bcbbeecc":6884,"eefbbebe":6885,"eefbecc":6886,"fdc</w>":6887,"dcbeecc":6888,"bbccdbd":6889,"bbcb</w>":6890,"ebecfbc":6891,"beecbebe":6892,"dbcfed":6893,"bbbdbebd":6894,"ebccbebe":6895,"bbbdbbed":6896,"bebbeba":6897,"fbdbbd":6898,"dbbcbbbe":6899,"dfcbec":6900,"feeebd":6901,"bcccebc":6902,"fecbbbe":6903,"dfeebc":6904,"bebfef":6905,"bbbbbbbbbbebb":6906,"ddbbebe":6907,"bbcffc":6908,"defebc":6909,"eeecfc":6910,"eabca":6911,"ecccebe":6912,"fecbbbc":6913,"bfbbecc":6914,"ebbcdebb":6915,"eeccbdc":6916,"dbbceec":6917,"edcedcc":6918,"bbccbfc":6919,"bcbdebe":6920,"ffbbbf":6921,"beeddbe":6922,"edfdbc":6923,"ddbddc":6924,"fccbbbb":6925,"acebc":6926,"ddbbef":6927,"fcfdd":6928,"bffdbe":6929,"dccfee":6930,"bedebfc":6931,"ebbdcdc":6932,"eeecdbc":6933,"eebebccc":6934,"edbedcc":6935,"babfc":6936,"fccfed":6937,"bccca":6938,"bbbdbbdd":6939,"eebcebf":6940,"eefded":6941,"edcecbd":6942,"ebbcbebd":6943,"bcceeed":6944,"eeecdbe":6945,"fcbbebc":6946,"bbeebbed":6947,"edcbbed":6948,"cccded":6949,"eedbbdc":6950,"dfbcee":6951,"dccefc":6952,"edbcecc":6953,"bafbc":6954,"decefc":6955,"fecbeec":6956,"ebbdced":6957,"ebdbbebe":6958,"dbbbb</w>":6959,"edebbbd":6960,"bbdbddd":6961,"decfee":6962,"dccbef":6963,"eebbeccc":6964,"ebeebbebb":6965,"ebffdc":6966,"dfcdbe":6967,"efbcef":6968,"bfbdf":6969,"bbeebeec":6970,"eceedbd":6971,"bbbdbbbbc":6972,"bbbddebb":6973,"bbbcbbdc":6974,"bfbebbbe":6975,"cccdbd":6976,"fbfbbf":6977,"beebebbbe":6978,"dcbedbe":6979,"ecdbbbbc":6980,"dcbdebb":6981,"bbebbbbbf":6982,"debedf":6983,"bdbddbd":6984,"baac":6985,"dbffbc":6986,"ebbcfee":6987,"eeeebec":6988,"bcfebec":6989,"eeeda":6990,"bcecbbbb":6991,"beccfec":6992,"eebddbc":6993,"fddbec":6994,"bfbcbec":6995,"bbebebcc":6996,"debebbbe":6997,"edeac":6998,"ebdbced":6999,"bbbcbeebb":7000,"dcbbecc":7001,"decdef":7002,"dccbfc":7003,"edeedf":7004,"bfbdec":7005,"eeedbbc":7006,"dbfdbd":7007,"bbbdbfc":7008,"edbcbec":7009,"befddc":7010,"dbecdd":7011,"fcdbcc":7012,"beeddee":7013,"cccbbd":7014,"beccdbe":7015,"beececc":7016,"fcdebd":7017,"bbbdebbc":7018,"bbddebe":7019,"bfbebcc":7020,"bdeeecc":7021,"decceec":7022,"bceebebc":7023,"bccfebb":7024,"eeecbdc":7025,"ebdcdf":7026,"eeecbbbc":7027,"bcbeefc":7028,"bcbddbe":7029,"ebbfbbbc":7030,"afef":7031,"eeec</w>":7032,"ebfebcc":7033,"beeebcbc":7034,"bebbbbbbebb":7035,"bcbbcccc":7036,"dbbcebc":7037,"bcbbbbbcbbbb":7038,"deecdd":7039,"ecdcecc":7040,"edbcebd":7041,"ebbecfc":7042,"dccfed":7043,"bebdbdc":7044,"bbeeea":7045,"beeeebd":7046,"bbbeddc":7047,"ecbcbbbc":7048,"eceeddc":7049,"bebddbd":7050,"dbecef":7051,"bbdcbcc":7052,"debddd":7053,"bbcecbd":7054,"edeebbd":7055,"eefbccc":7056,"ecbebccc":7057,"fbdecc":7058,"ecccebd":7059,"bdfefc":7060,"bcbbb</w>":7061,"fbfdd":7062,"decba":7063,"fecfbc":7064,"eebfebe":7065,"dcebecc":7066,"bebbbebbbb":7067,"ebbfbebe":7068,"edbddd":7069,"bbdfdd":7070,"bbfeeee":7071,"edcffc":7072,"bbfcfc":7073,"eecbbebe":7074,"dabbc":7075,"fecbef":7076,"ebecbebc":7077,"abeebb":7078,"dbfbbbc":7079,"bbccbebc":7080,"bfbbbbbbbb":7081,"bdeeebc":7082,"bebbebfc":7083,"dceba":7084,"eebcbbee":7085,"acdbe":7086,"bcccbbbb":7087,"eabbbc":7088,"edbebbbc":7089,"ebecdbd":7090,"bfecbbc":7091,"cccfcc":7092,"dedbfc":7093,"ebfdebb":7094,"ebdcecc":7095,"ecbdecc":7096,"abbdc":7097,"dcbedf":7098,"bbbfbfc":7099,"bdbcbbbe":7100,"edececc":7101,"bbccfbc":7102,"bcbbbbbbbbbbbb":7103,"edfbbbe":7104,"bdecdee":7105,"dbefdc":7106,"bbdbcbf":7107,"bdcfdc":7108,"ecbe</w>":7109,"dbfedc":7110,"dfcebe":7111,"adbbc":7112,"bdbdbbc":7113,"bdecdf":7114,"ebcbebbbb":7115,"efcbbbe":7116,"dbefbe":7117,"bbedbbed":7118,"eddbbcc":7119,"bdcbcbd":7120,"aceec":7121,"fbdfbc":7122,"bedddd":7123,"fcbebbc":7124,"beebebbee":7125,"eeeebbbc":7126,"ecbdbec":7127,"bbccbef":7128,"fcbefc":7129,"dedbbbc":7130,"dcbea":7131,"dbebeebb":7132,"bbebbbbec":7133,"bbfbeebb":7134,"beebebeee":7135,"bccbbdd":7136,"dbdbbec":7137,"bbdfef":7138,"ecfbef":7139,"bcbebbbf":7140,"defdee":7141,"bdcea":7142,"edcbcbd":7143,"bacba":7144,"bbcbcbbbb":7145,"abbef":7146,"ecbcbebc":7147,"abbebe":7148,"edacc":7149,"beeddec":7150,"fbeebcc":7151,"ecfbebe":7152,"fbbb</w>":7153,"eeeebeebb":7154,"ebcbdcc":7155,"bbef</w>":7156,"beecbbec":7157,"bbfbcbd":7158,"eedcdf":7159,"bcfeecc":7160,"bbceccc":7161,"debbbebc":7162,"ebceeebb":7163,"ebbcfec":7164,"dbfda":7165,"fccbebe":7166,"bbbedbbc":7167,"eebedec":7168,"efb</w>":7169,"fcecec":7170,"fbcfed":7171,"bbccbbbd":7172,"bbbbbcee":7173,"ebdffc":7174,"ebbceebc":7175,"eefefc":7176,"beccdee":7177,"bebacc":7178,"eecfbf":7179,"eebeddc":7180,"bbbebcebb":7181,"ecfbbec":7182,"eeeeebeebe":7183,"defdbc":7184,"bedcdd":7185,"efdebd":7186,"bdcbbdc":7187,"fbcbbec":7188,"bbbfebf":7189,"bfecdd":7190,"eeeeea":7191,"bbdbbebd":7192,"fecbcbc":7193,"fbbcbbc":7194,"debbedc":7195,"bbbeebcc":7196,"bbbbcbbebb":7197,"bbbfbbebb":7198,"bfecef":7199,"efedcc":7200,"decdeec":7201,"fbebbed":7202,"deebcbd":7203,"eedcecc":7204,"fcbdbd":7205,"bedcebc":7206,"ebedbb":7207,"defecc":7208,"dfdfc":7209,"ecedccc":7210,"dbedebe":7211,"afdd":7212,"babbebb":7213,"ebecbbee":7214,"ebdbcee":7215,"eceebbf":7216,"dbcbcbd":7217,"bbbdecc":7218,"eedb</w>":7219,"ebbfbdc":7220,"dcbcebc":7221,"ebfbeec":7222,"eedddd":7223,"dfda":7224,"eeeebeef":7225,"debbbbee":7226,"deebccc":7227,"deeeecc":7228,"edcdedc":7229,"ebedecc":7230,"fdebbcc":7231,"ebbcbeec":7232,"bbccfee":7233,"eecbcdc":7234,"befbeebb":7235,"ebdcdbe":7236,"bbbcbcbd":7237,"fefdd":7238,"bbbefcc":7239,"fffed":7240,"bccfdd":7241,"dbdbbdd":7242,"dcbdf":7243,"dfbbdc":7244,"bebdedc":7245,"debcebc":7246,"fecbecc":7247,"fdcbbc":7248,"dcceebc":7249,"efecdc":7250,"defebe":7251,"ebffebb":7252,"ebecded":7253,"bdebdcc":7254,"bebcbecc":7255,"bcbebbbbc":7256,"edfdee":7257,"ecbcbebe":7258,"ecbdccc":7259,"fceeed":7260,"bccbbebe":7261,"eecbdbd":7262,"bccbced":7263,"efbefc":7264,"bdbebbec":7265,"bdbcebd":7266,"bdcfbe":7267,"babebc":7268,"eceebbd":7269,"bbbdbcbc":7270,"dbbecbbc":7271,"ecbbbccc":7272,"eeecebc":7273,"fbdbfc":7274,"eeccdec":7275,"eaecc":7276,"bebfbec":7277,"debcccc":7278,"bcecdbc":7279,"bcccccccc":7280,"ebbcebec":7281,"bfdccc":7282,"bbceebf":7283,"beedbbbb":7284,"bceedbd":7285,"bcdbbdc":7286,"fdcdec":7287,"efcebf":7288,"bcbeebec":7289,"debcfc":7290,"bbefdbe":7291,"dcbcccc":7292,"ebeffc":7293,"ebbcbbbf":7294,"becdebd":7295,"ebbfbbee":7296,"febea":7297,"dccbebc":7298,"becdedc":7299,"fdcdee":7300,"ecbebbebb":7301,"dcfedc":7302,"dccbbee":7303,"eebdebd":7304,"edcfebb":7305,"bbbbcbbee":7306,"bbedbebc":7307,"bcfbeee":7308,"edcbedd":7309,"bbcdbbd":7310,"bbcbcdc":7311,"ebbfccc":7312,"dbebbdc":7313,"defbbbb":7314,"bccebdc":7315,"fedded":7316,"bffebd":7317,"fcbdcc":7318,"deebebd":7319,"dbbbfbf":7320,"defbdc":7321,"edbceec":7322,"dbcebec":7323,"ecfddc":7324,"ebbdbfc":7325,"fcecdc":7326,"bfcdbf":7327,"efbedd":7328,"eccbbdd":7329,"befbbef":7330,"dbeceec":7331,"bfdbdc":7332,"bacea":7333,"bcdbdcc":7334,"bbdecbd":7335,"bbbeeeebb":7336,"edceedd":7337,"ebffbe":7338,"bbedbdc":7339,"efcbcbc":7340,"dbceebd":7341,"dcdebf":7342,"bdbebbcc":7343,"bbdffc":7344,"efcbebe":7345,"bcdbbebe":7346,"dbddbf":7347,"bbbbac":7348,"ddeebf":7349,"dbcbbebb":7350,"babbbf":7351,"debbbdc":7352,"bbebebeee":7353,"bbfcdf":7354,"ecbcfbc":7355,"bdfbbee":7356,"bbbefbf":7357,"beceedd":7358,"bebfebe":7359,"ddbcdd":7360,"bbbbfbbc":7361,"fdeba":7362,"ebfbeebb":7363,"ebbbcdbe":7364,"bedcfc":7365,"ecfbbcc":7366,"fbdbebe":7367,"eeccdbe":7368,"eeeceec":7369,"ebbfdbc":7370,"eaeec":7371,"deccccc":7372,"bedefcc":7373,"babda":7374,"dbcbecc":7375,"beebeeeee":7376,"deeeebc":7377,"eccfecc":7378,"eeed</w>":7379,"eeebac":7380,"beecdbd":7381,"bbdeebf":7382,"ffbbef":7383,"eccca":7384,"eebdbcc":7385,"bceebebe":7386,"bbbebcec":7387,"dbbcbbf":7388,"eebdebe":7389,"edceeee":7390,"decbbbd":7391,"eccecdd":7392,"decbeed":7393,"efbea":7394,"dfcbcc":7395,"bbbcdbbbb":7396,"dbcdebe":7397,"bffecc":7398,"eeebea":7399,"effdf":7400,"bbbcbccc":7401,"dceeebc":7402,"dfdebe":7403,"ebccbfc":7404,"bbddbbbd":7405,"ebecbbec":7406,"bbedded":7407,"bfbebbd":7408,"debca":7409,"eeebbbebe":7410,"bececbd":7411,"bcbcbbec":7412,"bdf</w>":7413,"bcbcbef":7414,"bbbfbbbd":7415,"ebfbccc":7416,"deedebb":7417,"ebcbeef":7418,"bebfbbf":7419,"ebbeac":7420,"fbfbcc":7421,"beebebbc":7422,"edecbbbb":7423,"dcbebcc":7424,"beeebebc":7425,"ebeedcc":7426,"ebeecec":7427,"bbbfebd":7428,"dcfdbe":7429,"ebcdbb":7430,"beecbecc":7431,"eeccff":7432,"eeedccc":7433,"dbbda":7434,"bbbcbecc":7435,"ebcbefc":7436,"dddbdc":7437,"ecccdf":7438,"ddfbbc":7439,"feeea":7440,"ebedebd":7441,"edcbccc":7442,"bcbfbbc":7443,"debbdbd":7444,"ecfded":7445,"efcebbc":7446,"defdcc":7447,"bbedbbec":7448,"dcecdee":7449,"decfcc":7450,"ebcbcbbc":7451,"eceb</w>":7452,"bfeddc":7453,"ebecdcc":7454,"bcbcbccc":7455,"bbfcbbbb":7456,"bedebbcc":7457,"ebcbbbcc":7458,"bbebbbef":7459,"ebfeebc":7460,"ecccdee":7461,"ffbecc":7462,"bbefbec":7463,"fbddbd":7464,"ddeebe":7465,"ebbeedbe":7466,"bbddbec":7467,"bbcbba":7468,"dfdbbc":7469,"bbeefbe":7470,"efcedc":7471,"ebebcbbbb":7472,"dbfbfc":7473,"beaa":7474,"bceeedc":7475,"dbecdee":7476,"bcfac":7477,"bcedbec":7478,"bdbcdbc":7479,"bbdd</w>":7480,"bdfbef":7481,"dcecebe":7482,"dbbecdd":7483,"beeeea":7484,"bcececc":7485,"bbebcbec":7486,"bbccbbec":7487,"bebbbdcc":7488,"bbbbcdbc":7489,"ebecebbc":7490,"ecbeba":7491,"ecdefcc":7492,"bebdded":7493,"deeceec":7494,"debcdee":7495,"ebbbedbc":7496,"fefdf":7497,"ebcbba":7498,"fecfed":7499,"bedeba":7500,"fecba":7501,"bcfbbebb":7502,"beeeebbc":7503,"bbdfebe":7504,"decdbf":7505,"fbfbec":7506,"ecccdcc":7507,"ebbbcbbf":7508,"efcbecc":7509,"fbcfbd":7510,"ebbdddd":7511,"ebdbbef":7512,"feebcbc":7513,"dbdebbc":7514,"beeeeeebe":7515,"dcfbbd":7516,"ecbcded":7517,"debeef":7518,"debedbe":7519,"ddeeebb":7520,"eebceebc":7521,"eeeeeeef":7522,"eebebba":7523,"bceebfc":7524,"bbdcff":7525,"bbbbbebbbe":7526,"edbbbbbbbb":7527,"fedeec":7528,"dcecdf":7529,"ebdecdc":7530,"ebefbbbb":7531,"bbfdbbc":7532,"bbbbcbbec":7533,"bbebebbebb":7534,"bcecbeec":7535,"edbca":7536,"edebbed":7537,"bcdbbef":7538,"bbdddf":7539,"bbbcfbd":7540,"ebccbbee":7541,"fdefcc":7542,"ebfddc":7543,"bebdbbee":7544,"bdceeee":7545,"fecefc":7546,"bbcbbcbbcbbc":7547,"efecbf":7548,"eceeedc":7549,"dbdbeec":7550,"febbfc":7551,"ebffef":7552,"dcbcdf":7553,"bbdbdcc":7554,"ecfbbee":7555,"ecdbbdd":7556,"eccfebc":7557,"ecbddf":7558,"eceddd":7559,"dbecdbe":7560,"bceddbe":7561,"dbbcdbc":7562,"ecbdeec":7563,"bbbbbbebd":7564,"bebbebbcc":7565,"bfbca":7566,"bbbfbebc":7567,"fbbbdcc":7568,"efbcbbc":7569,"fbdedc":7570,"edefdc":7571,"debbebbc":7572,"fbbebfc":7573,"bbfcbec":7574,"dedbecc":7575,"fdcebc":7576,"eccdebd":7577,"fbcba":7578,"eebdbbf":7579,"fbebbbbc":7580,"ebbbedbb":7581,"bcbcbbbd":7582,"decbebd":7583,"feeeec":7584,"ebdfdd":7585,"befbebd":7586,"abcbf":7587,"dbcdef":7588,"fccebf":7589,"dbbbbbbf":7590,"bbbebcbe":7591,"bbbfeec":7592,"bdbcbbf":7593,"aeecc":7594,"feebebc":7595,"ebbdcbd":7596,"feedbd":7597,"eebcdbd":7598,"decbedc":7599,"edeca":7600,"bbcfdd":7601,"dbfbebe":7602,"eedbbebe":7603,"fbcbeec":7604,"efdecc":7605,"febbff":7606,"bdcbbebb":7607,"debebebe":7608,"bdbebfc":7609,"ebbcbbed":7610,"cccbfc":7611,"fbfebe":7612,"beeebbbd":7613,"befbbed":7614,"fccbbd":7615,"dbbedbf":7616,"dcbcbec":7617,"bceebeec":7618,"becceecc":7619,"bcbcdbd":7620,"babbec":7621,"fccbebc":7622,"bbdcebd":7623,"beedeec":7624,"fbcdebb":7625,"dadf":7626,"beebbbec":7627,"fcccccc":7628,"fceef":7629,"befdebb":7630,"bcbcbbee":7631,"bfbebbf":7632,"deecbbc":7633,"edecebe":7634,"dcfccc":7635,"bceeebbc":7636,"ebceef":7637,"efbbbcc":7638,"bdfbebc":7639,"eeeebdc":7640,"ecbddee":7641,"bccbdbd":7642,"beccbebc":7643,"efecec":7644,"bbbfdee":7645,"eeeebbebe":7646,"bdeebbf":7647,"bbefdf":7648,"ebebbebd":7649,"beccbbf":7650,"bbdcdbc":7651,"fcbcbe":7652,"ebbefbf":7653,"bbbcefc":7654,"eeeeeeebb":7655,"feddcc":7656,"bbbbcdf":7657,"edcecdc":7658,"dbbeddd":7659,"ffbbebb":7660,"efecbe":7661,"ecfbccc":7662,"febbbbf":7663,"edbedbd":7664,"ebdcccc":7665,"bffccc":7666,"ebccefc":7667,"ecbcdcc":7668,"cccbbbe":7669,"dedfbc":7670,"ebecbbbd":7671,"ebebfcc":7672,"eedceec":7673,"eebcbfc":7674,"eebcbbec":7675,"eeeddf":7676,"ebeeebbbb":7677,"edbedbb":7678,"bbbcdbf":7679,"dcbcbbbb":7680,"dedbbcdbf":7681,"bbbecbec":7682,"efbbeec":7683,"ddc</w>":7684,"eeeebbebb":7685,"dbbcdbd":7686,"bbbbfed":7687,"bbbcbbebe":7688,"bfbdef":7689,"bbdbcbbbb":7690,"ecbcbbee":7691,"eedcebc":7692,"edbeff":7693,"ebbeebbebb":7694,"feefbc":7695,"dbebeed":7696,"fbdbbbe":7697,"ecbbeecc":7698,"bccecec":7699,"dcecbbc":7700,"edcdebd":7701,"dbbbdebe":7702,"dbeca":7703,"bbedbbbd":7704,"ddecbe":7705,"bbdeef":7706,"bbbfbdc":7707,"eebeac":7708,"bbbbdef":7709,"ddeef":7710,"bbceef":7711,"bcbcded":7712,"bccbedd":7713,"baedc":7714,"befbbebe":7715,"bbdbcf":7716,"bfe</w>":7717,"bbdecec":7718,"dbbebbbd":7719,"eececdc":7720,"bbefbbbe":7721,"fbedbbc":7722,"bfeebbbb":7723,"beebeef":7724,"ebcebfc":7725,"eccbdcc":7726,"dcbdbe":7727,"bbcecec":7728,"bbefbbee":7729,"bdfebbc":7730,"bbcfebe":7731,"fecedc":7732,"bbbbcbebc":7733,"eebeebcc":7734,"bebebccc":7735,"fecbbec":7736,"dcbfed":7737,"ab</w>":7738,"eebcdcc":7739,"dadbe":7740,"bbdcbdc":7741,"fecfee":7742,"eeccfbc":7743,"bdeedbc":7744,"bbccebbc":7745,"fbbbfcc":7746,"ebecbfc":7747,"ecceebf":7748,"debeebc":7749,"ddbcbf":7750,"bbedbbee":7751,"bbcdbcc":7752,"bbffef":7753,"dbdbebd":7754,"eeee</w>":7755,"bffeec":7756,"ebeecbf":7757,"eeebebbee":7758,"aecbc":7759,"ebeedbd":7760,"fecddc":7761,"daba":7762,"febbbbbe":7763,"fddeec":7764,"bbfdef":7765,"bbffed":7766,"deecdec":7767,"becbbbec":7768,"bccbcbf":7769,"bbddef":7770,"bbdcbbbc":7771,"beebbbbbc":7772,"bbecdebb":7773,"dccccccc":7774,"bcbcbbcc":7775,"efcba":7776,"ddbded":7777,"dbebbebe":7778,"bdbcff":7779,"dbebced":7780,"dedebf":7781,"dbefbf":7782,"ebdbebbc":7783,"bbdcccc":7784,"eeececc":7785,"ebceced":7786,"bfefcc":7787,"fcbcebb":7788,"aeea":7789,"bbfac":7790,"ecfebcc":7791,"bbbfbef":7792,"bbbbbeebe":7793,"bcfdef":7794,"bddb</w>":7795,"dedebbc":7796,"bbbdbbcc":7797,"dbbcff":7798,"ebbbb</w>":7799,"bfcbbcc":7800,"bbeedbf":7801,"bebbedcc":7802,"fbdbebc":7803,"bdbcdbd":7804,"bcbcebf":7805,"feeddc":7806,"bccfef":7807,"bcfebcc":7808,"dbbddbd":7809,"bbebbbdc":7810,"ebebefc":7811,"ecccdec":7812,"bbdbeef":7813,"bcbeeecc":7814,"dcbeebd":7815,"dceedbe":7816,"bbfbbebe":7817,"ecbcbbec":7818,"dcfbbbb":7819,"bbdbbeec":7820,"beecdebb":7821,"eeebbbeee":7822,"bebfff":7823,"eedd</w>":7824,"bbbdbbbbbbbb":7825,"dddedc":7826,"eeecdee":7827,"bbebe</w>":7828,"edbbebbc":7829,"ebbcba":7830,"efeedc":7831,"fbebbdc":7832,"bbfca":7833,"bedcdee":7834,"eedbfcc":7835,"eadbd":7836,"ebdfbbc":7837,"efeeed":7838,"dbbebbbc":7839,"fcbded":7840,"becbcbf":7841,"ddbcbe":7842,"edccecc":7843,"febbdf":7844,"becbcebb":7845,"dfcff":7846,"fbeebec":7847,"fbdfec":7848,"dbbbba":7849,"ebfbcbd":7850,"bbdbbbcc":7851,"becfbbc":7852,"bfcdebb":7853,"beeebbec":7854,"ecdbbbf":7855,"ebeeea":7856,"edbebbee":7857,"debebdc":7858,"fbcbbbd":7859,"eecdbbd":7860,"bddbbbbc":7861,"dcdbbbc":7862,"bebfbbbe":7863,"becbcbe":7864,"bbebbdee":7865,"bede</w>":7866,"bbbbebbebb":7867,"ecbbac":7868,"edfebf":7869,"bbfebcc":7870,"ebebeebc":7871,"dceedf":7872,"effebc":7873,"bceebef":7874,"ebbeefee":7875,"ebebcebe":7876,"badec":7877,"eccbdbd":7878,"eba</w>":7879,"bfeefc":7880,"ecbeebcc":7881,"dcecbec":7882,"bdbd</w>":7883,"ebbbebbbd":7884,"ebecbcbc":7885,"efbebbbb":7886,"ebbeeebf":7887,"bcecff":7888,"bbdbeebe":7889,"bdfddc":7890,"efbcfc":7891,"ebddedc":7892,"bbeebebd":7893,"badcc":7894,"bbeebbbbc":7895,"efcefc":7896,"ecbffc":7897,"aeca":7898,"bfcbeed":7899,"bceefbc":7900,"ececdbc":7901,"ebeecebb":7902,"dfffc":7903,"bbbbbedc":7904,"beccbbbe":7905,"eecceecc":7906,"edcdbbc":7907,"bcceedd":7908,"dfbced":7909,"ebbecbcc":7910,"cccfbc":7911,"bbccdcc":7912,"eceebbbe":7913,"bdbcbdc":7914,"bebcbeee":7915,"ebcbded":7916,"ebbddcc":7917,"dcbceec":7918,"bbcbeef":7919,"ebccebcc":7920,"bebfbebe":7921,"bbebbbebbbb":7922,"ebdfebe":7923,"bebcfee":7924,"bdecccc":7925,"ecfeccc":7926,"dcbebbd":7927,"dbefebb":7928,"ffdebb":7929,"ecbda":7930,"ebbcfbd":7931,"bbcbeebe":7932,"ececbdc":7933,"bfbdbe":7934,"eebddee":7935,"ebecedc":7936,"dcebccc":7937,"eecfef":7938,"ebceebbc":7939,"bcceeebb":7940,"bebefcc":7941,"dabea":7942,"bcecbcbc":7943,"ddfebe":7944,"bcfbbed":7945,"bfbcbbf":7946,"bfbac":7947,"bebdbbbd":7948,"ecbcdbd":7949,"bceeebf":7950,"deeca":7951,"bcccdee":7952,"bedcdec":7953,"bfeea":7954,"fcbeebc":7955,"ecceebe":7956,"bbbffbc":7957,"ebbcbbbbc":7958,"beeddbc":7959,"eceebbee":7960,"edebbbbc":7961,"ebebded":7962,"bbbcdbbc":7963,"bbdddbc":7964,"ebdebbcc":7965,"ddcfbc":7966,"cccbcbc":7967,"bcfdebb":7968,"ebdbcdc":7969,"bbabbbe":7970,"bdfbbbd":7971,"fceedd":7972,"eadcc":7973,"ecbeac":7974,"ffbeec":7975,"fcfebc":7976,"bbdfbbbb":7977,"dcbeeec":7978,"bebcbbebb":7979,"adfc":7980,"ebccdbd":7981,"ffbbed":7982,"dbbbebbbb":7983,"bfdebf":7984,"ebcecdd":7985,"bfcebec":7986,"feedbf":7987,"abfa":7988,"efcbbec":7989,"bbdcbbbe":7990,"bcecbbd":7991,"edecdf":7992,"dbbebecc":7993,"dbebbbbc":7994,"efdccc":7995,"ebebebbee":7996,"bccbcbe":7997,"ebdb</w>":7998,"bbbddcc":7999,"bebcba":8000,"ebcfa":8001,"becceebc":8002,"bdbbefc":8003,"ecbc</w>":8004,"bbccfec":8005,"bdeebbbe":8006,"bfbcccc":8007,"becdbbbb":8008,"adebe":8009,"edbcdee":8010,"ebcbcfc":8011,"eebdbdc":8012,"ebcbebec":8013,"eeceeed":8014,"bbeebbef":8015,"bbbdedc":8016,"efbdbf":8017,"eefac":8018,"ebbfbef":8019,"efcdef":8020,"bfecbec":8021,"bbdbcdc":8022,"eccdbcc":8023,"dbddbbbb":8024,"dedba":8025,"ebccdcc":8026,"fccdcc":8027,"ebebdbc":8028,"bbebefc":8029,"deddebb":8030,"eeecbbbe":8031,"feebfc":8032,"ebdcdee":8033,"edbeebf":8034,"dbebcee":8035,"ebcecbf":8036,"becbbfc":8037,"ebfac":8038,"bcbdeec":8039,"bdeedee":8040,"bffbbbe":8041,"effbcc":8042,"ecdbbed":8043,"ffebec":8044,"bdeebdc":8045,"dbbcbebe":8046,"bbcecbe":8047,"bbadd":8048,"bcbebbebc":8049,"ecfdbf":8050,"debcdec":8051,"ffcccc":8052,"ebebcef":8053,"dfbebf":8054,"ebfbbed":8055,"feedec":8056,"bfebbbf":8057,"bbebbdbc":8058,"ebefebc":8059,"debcbbbb":8060,"bbeeddc":8061,"bbeedebb":8062,"efbfbeee":8063,"bfbcdf":8064,"bcbcbfc":8065,"ecbcbfc":8066,"ececbbbb":8067,"bebcefc":8068,"bbbbcdee":8069,"bedcecc":8070,"bcbbbbbbbe":8071,"bbecbebd":8072,"dacea":8073,"bbbcbeed":8074,"edbbbfc":8075,"edeedbc":8076,"bccbbbcc":8077,"ecfba":8078,"ffcdd":8079,"bbcdebd":8080,"dbbeddc":8081,"bedc</w>":8082,"bfbddd":8083,"bbecfec":8084,"ebccfec":8085,"dbdfbd":8086,"bebcbbcc":8087,"bcdddd":8088,"ececeec":8089,"beeedee":8090,"ebeb</w>":8091,"edbcdbe":8092,"bdbebbebb":8093,"cccddc":8094,"ebceddc":8095,"ebdeedd":8096,"ecbdedc":8097,"bcbcfbc":8098,"bcceebe":8099,"bbbdddc":8100,"bccdbec":8101,"dbbbdef":8102,"eebdff":8103,"dcdefc":8104,"beceeed":8105,"bbbbceec":8106,"decbbed":8107,"bbddbdc":8108,"eeccdee":8109,"debebbf":8110,"bbaba":8111,"bdfdbf":8112,"ebdfef":8113,"edccfc":8114,"ebebcebc":8115,"efcdebb":8116,"bbecedc":8117,"eeefa":8118,"dcbcdee":8119,"efcdbf":8120,"deddbf":8121,"beeebbbf":8122,"eeecff":8123,"ecceddd":8124,"fdda":8125,"dbbeded":8126,"beeebbcc":8127,"bbdcdbd":8128,"becbeebc":8129,"efeea":8130,"fcebfc":8131,"bcecbbf":8132,"edebbbbbb":8133,"ebebbeec":8134,"beccbebe":8135,"dcecfc":8136,"bdfba":8137,"edecbbd":8138,"befeebc":8139,"dedbbee":8140,"eeecbbf":8141,"bdeceec":8142,"fcdbbd":8143,"bbdfebc":8144,"bcbccccc":8145,"fcbfcc":8146,"dde</w>":8147,"beeedbd":8148,"febbeec":8149,"eeebefee":8150,"beccdbc":8151,"bdffcc":8152,"ecccbdc":8153,"bdeeeec":8154,"debbebf":8155,"ebcfecc":8156,"edceeed":8157,"eecceebc":8158,"fbdbbbc":8159,"eeebebbbe":8160,"eceeeec":8161,"bcceebf":8162,"edfbbbc":8163,"bbebcbbbe":8164,"ebcdbdc":8165,"bebf</w>":8166,"beeedcc":8167,"edecccc":8168,"ffbcbd":8169,"eeebbbbf":8170,"ebdbdcc":8171,"fcceebc":8172,"bbdedbd":8173,"bceebcbc":8174,"ebeeeed":8175,"edbcdbc":8176,"bbbdfee":8177,"beddbec":8178,"bbecbbcc":8179,"efedbd":8180,"bebebbed":8181,"ebbecbbd":8182,"dcecebc":8183,"ececa":8184,"deefec":8185,"beeeeec":8186,"dbfbeec":8187,"ddfa":8188,"bebebebbbb":8189,"bfceebc":8190,"bfbbccc":8191,"bbbdbbbf":8192,"bcfdfc":8193,"bdbddbe":8194,"bcbbebdc":8195,"deddef":8196,"bbdbdbbbb":8197,"befbccc":8198,"debbdec":8199,"ebddbcc":8200,"bbecdcc":8201,"bfbceec":8202,"ebeeebeee":8203,"bfcbebd":8204,"ebbbcbbbc":8205,"ffebcc":8206,"ecceced":8207,"ecfac":8208,"bfcbecc":8209,"fbedef":8210,"fedbbbb":8211,"eccbbebe":8212,"bccdeec":8213,"dbbbbbbebb":8214,"fef</w>":8215,"bbdecbe":8216,"eceeef":8217,"ebdeebe":8218,"daccc":8219,"ddeced":8220,"febbccc":8221,"bdbeebbc":8222,"fbdebf":8223,"dbfdec":8224,"bdbeba":8225,"bdbedcc":8226,"fceebf":8227,"bbfecbc":8228,"dbeebcc":8229,"ebcbfcc":8230,"dabbbb":8231,"eceebbbc":8232,"ddbcebb":8233,"eccecbe":8234,"ebdedbd":8235,"ebdfebc":8236,"eedcbbc":8237,"efebfc":8238,"bdcdfc":8239,"beeefbc":8240,"ebebebec":8241,"ebcbeebc":8242,"bcbdccc":8243,"bdcceec":8244,"bcecbbec":8245,"bdecfc":8246,"deeea":8247,"dcdbbee":8248,"bdfded":8249,"efcfed":8250,"ebbcbecc":8251,"ebecbef":8252,"bcbdff":8253,"ebebcdd":8254,"bbcbebec":8255,"bdcbedc":8256,"dbbdbec":8257,"abcee":8258,"ebecebf":8259,"bbfbcbf":8260,"bbbebbdd":8261,"babbcc":8262,"babcbc":8263,"debddf":8264,"bcbeea":8265,"bbabbbc":8266,"eefeecc":8267,"fbbedcc":8268,"bdcdebe":8269,"bcecbebc":8270,"ebdeebf":8271,"ebbbcccc":8272,"bdbcbebe":8273,"dbcbeed":8274,"dbbdbbbd":8275,"eedcedc":8276,"dcbfdc":8277,"fbceebc":8278,"beecbcbc":8279,"abeed":8280,"bccdecc":8281,"ebdbcebb":8282,"bbdbded":8283,"deecdee":8284,"fbbeba":8285,"ebbceebd":8286,"dbceecc":8287,"bfecdf":8288,"fcbeef":8289,"bfdbbbc":8290,"bbecfee":8291,"effbbbb":8292,"ebbeeff":8293,"bfbdbbc":8294,"bccdbcc":8295,"dbeeebd":8296,"ebffed":8297,"eeeeecc":8298,"bcccdf":8299,"decbbcc":8300,"ddcfec":8301,"bebbbebbbe":8302,"ebbbebbec":8303,"ffcff":8304,"decdebc":8305,"ebbcdbf":8306,"ebccbebc":8307,"ebcceecc":8308,"edcbbdc":8309,"abdbd":8310,"debebbbc":8311,"bbecbeee":8312,"edcdbec":8313,"ebbbeccc":8314,"bbffdd":8315,"bccbbfc":8316,"bcee</w>":8317,"ebeeebbee":8318,"dbdbbed":8319,"cccccccccccc":8320,"ebdcff":8321,"bdbeded":8322,"bbefccc":8323,"bfbbebf":8324,"efbfcc":8325,"ebecfec":8326,"bbecbecc":8327,"bcccebe":8328,"eecdbdc":8329,"eaeeee":8330,"eedda":8331,"dbeeecc":8332,"becbdbd":8333,"beeebeef":8334,"ebbdba":8335,"bbdbcbbc":8336,"ececdcc":8337,"dceea":8338,"beecdcc":8339,"dceeecc":8340,"becfef":8341,"bbeebecc":8342,"fedebc":8343,"dcbbbdc":8344,"eadec":8345,"ebbeeccc":8346,"eefdef":8347,"becbcdc":8348,"bcbcdcc":8349,"eebebbbbc":8350,"bdceedc":8351,"bbebd</w>":8352,"eccbbbbc":8353,"dcbfbf":8354,"ffdbbc":8355,"dcbbccc":8356,"bceeddc":8357,"fccbef":8358,"bebdbebd":8359,"dbeecbc":8360,"dcfbbf":8361,"bbbbbced":8362,"bbedbfc":8363,"bbbbbbbbbbbbbbc":8364,"bcdbbfc":8365,"beecfec":8366,"ecdbbdc":8367,"eebeefc":8368,"fffdd":8369,"fbeecbc":8370,"bbbebeebe":8371,"beebbebc":8372,"eddedcc":8373,"dffebb":8374,"bdeebbbc":8375,"ebeeebbbe":8376,"deceebc":8377,"bdcdebc":8378,"deceecc":8379,"bbfbcec":8380,"bbbfdbd":8381,"bcbdebc":8382,"eeeefc":8383,"feffc":8384,"efbcbec":8385,"bbedbef":8386,"edcceec":8387,"fbbbbbbc":8388,"edbb</w>":8389,"bfdedc":8390,"bbdeccc":8391,"bfcdef":8392,"eebdbbbe":8393,"beebbebf":8394,"efdbbf":8395,"fefbbc":8396,"bbbfba":8397,"dbecebc":8398,"dbffcc":8399,"decfed":8400,"fbedfc":8401,"edbcbcc":8402,"edf</w>":8403,"edcbcec":8404,"deeac":8405,"fbeac":8406,"fbdded":8407,"ecdbfcc":8408,"efdbdc":8409,"dbccbbc":8410,"dcbdbbc":8411,"bbbccccc":8412,"bcccdcc":8413,"bebceecc":8414,"fdcdbe":8415,"fdcfec":8416,"bcbcbcbd":8417,"bffbebe":8418,"dbfdcc":8419,"fdcbcc":8420,"ebdeeed":8421,"ebccebbc":8422,"ebfebec":8423,"beecbef":8424,"bbecba":8425,"deedef":8426,"fbbcbbbb":8427,"dbbbbdbe":8428,"dceebec":8429,"bdcfbf":8430,"bfbbbdc":8431,"edbedec":8432,"dbcdbbc":8433,"bbdcbbf":8434,"bbeebeebe":8435,"debcebe":8436,"bebbbbbebbbb":8437,"bfbedf":8438,"dbbebbbf":8439,"bbefbebe":8440,"edbdbbc":8441,"abced":8442,"ddbbebc":8443,"beecba":8444,"dbfbef":8445,"feddbd":8446,"eecfa":8447,"bccbcdc":8448,"eefbbed":8449,"bbecefc":8450,"bfcfbd":8451,"dbfbbee":8452,"bccbdcc":8453,"bbdbefc":8454,"ebfdef":8455,"bbbebcee":8456,"dedbbbd":8457,"eeddfc":8458,"bebedebb":8459,"acccc":8460,"eebcbbbd":8461,"beedebc":8462,"ddbbfc":8463,"decbcec":8464,"eceeebd":8465,"adbbbb":8466,"eedbbbec":8467,"eecbcbe":8468,"edcac":8469,"bbddfc":8470,"bececec":8471,"deedbbc":8472,"decebec":8473,"bbbbeebbbb":8474,"bdcdeec":8475,"bbbcfcc":8476,"bbebbba":8477,"debcdbe":8478,"eebdfbc":8479,"ebbcfcc":8480,"eeebbbbee":8481,"becbeebe":8482,"bebbbbbbf":8483,"eaebd":8484,"efbeebc":8485,"efbdebb":8486,"becdbcc":8487,"bdbbebec":8488,"fffebb":8489,"ecee</w>":8490,"befbeef":8491,"eebebbed":8492,"ebebdbf":8493,"ebebddc":8494,"efceecc":8495,"fdcecc":8496,"bebeeebc":8497,"ddcebf":8498,"eeeedbe":8499,"bbebbbbebe":8500,"bbefbcc":8501,"bbbedebe":8502,"ecccdbe":8503,"cccebf":8504,"bdcbbdd":8505,"dffef":8506,"bedebecc":8507,"dfceec":8508,"affc":8509,"ecec</w>":8510,"beccfbc":8511,"ecedbbc":8512,"dbdfec":8513,"bbedecc":8514,"ebccded":8515,"bcecbef":8516,"dcbcbcc":8517,"dbecfc":8518,"ebeebbebe":8519,"ecccdbc":8520,"beebbeeee":8521,"dbdfcc":8522,"eeecbbd":8523,"decbeee":8524,"ffbbdc":8525,"ddbeef":8526,"beccebbc":8527,"bcdcdee":8528,"edcecec":8529,"ecfbbbd":8530,"ebbecdf":8531,"bbfbbdc":8532,"dbbecef":8533,"bdbcbbbd":8534,"beebbbeee":8535,"ebabbbb":8536,"bccdbbbb":8537,"beccbbd":8538,"ebdcbbbb":8539,"dceac":8540,"efbdec":8541,"dfecbd":8542,"bdeebbee":8543,"ecfea":8544,"ddeddc":8545,"dbbecebe":8546,"edbbdcc":8547,"ebfbbebe":8548,"edeeebd":8549,"ddcfcc":8550,"eefdebb":8551,"ebeebfc":8552,"abbdd":8553,"fbdbef":8554,"ebbfbfc":8555,"dbebedc":8556,"beccded":8557,"edeebdc":8558,"ebedbbbe":8559,"ebccbbec":8560,"bdcdbbc":8561,"bbbcbbdd":8562,"bcbcfee":8563,"dbcbbbf":8564,"beedfc":8565,"fddff":8566,"bebcdcc":8567,"fbcbbcc":8568,"ecccff":8569,"bebfdf":8570,"ddfebc":8571,"efbbebd":8572,"bbbbcbbcc":8573,"befcdf":8574,"ebdbbfc":8575,"bebfccc":8576,"dedceec":8577,"ecebbbbbb":8578,"bdcbccc":8579,"eccbeebb":8580,"eceedec":8581,"eebeeecc":8582,"fbcdbf":8583,"ddcbbbe":8584,"eebdbbd":8585,"eebeebec":8586,"dbdbbcc":8587,"ebbeca":8588,"effbec":8589,"ddbba":8590,"befebec":8591,"bcbdbcc":8592,"dbcea":8593,"eeecdcc":8594,"feebbbd":8595,"beecbedc":8596,"ecbdbbbb":8597,"bbfdebe":8598,"eedbbfc":8599,"beecbebd":8600,"ecbd</w>":8601,"edeebbbe":8602,"ddbcf":8603,"eebcfec":8604,"fbddcc":8605,"ebeeebbc":8606,"efbcdd":8607,"bbfdfc":8608,"beccbbbc":8609,"dbedbec":8610,"dedfec":8611,"ebbdcbc":8612,"ebbbedee":8613,"eecbcee":8614,"fbbcfc":8615,"bbdbdbf":8616,"ebfbbef":8617,"debcecc":8618,"bdbdbbbd":8619,"befdef":8620,"edfdec":8621,"eecbbfc":8622,"edebbdc":8623,"bcccff":8624,"ebbfdee":8625,"bccbbebc":8626,"bbecbbed":8627,"ebbcebcc":8628,"feebeef":8629,"eecfebc":8630,"dcdbfc":8631,"ebeebbbbbb":8632,"ddfecc":8633,"bebcbbed":8634,"ecbedebb":8635,"bdeb</w>":8636,"bbebbfbc":8637,"dcbca":8638,"bdcbbbf":8639,"ebecbbcc":8640,"bccbbbec":8641,"bebbcbec":8642,"bbddebc":8643,"ebbecdbe":8644,"ebfeebf":8645,"bdbcecc":8646,"deebced":8647,"decfbd":8648,"deecccc":8649,"bebbbfcc":8650,"eecedcc":8651,"bcbedef":8652,"dbbbbbbbbc":8653,"decebcc":8654,"bcbfbbbb":8655,"efbddc":8656,"efcbebd":8657,"eeeebbef":8658,"feebbebe":8659,"dfcccc":8660,"ecdbbebb":8661,"bcdebfc":8662,"bfecfc":8663,"badbf":8664,"bcbddbc":8665,"dfbcf":8666,"bbebbecc":8667,"bccecbd":8668,"fddfc":8669,"ebdcdbc":8670,"bbbddbf":8671,"fedbbf":8672,"debcded":8673,"bffebf":8674,"ddeddd":8675,"bcbbeccc":8676,"eecbeebe":8677,"ebdbbebc":8678,"bbcbcef":8679,"dbbebbed":8680,"dbbbbbec":8681,"ebebdebb":8682,"edeceec":8683,"bcceef":8684,"dfedcc":8685,"ddcbbbc":8686,"efbcebc":8687,"cccbebe":8688,"ecbeefc":8689,"fecdebb":8690,"bdbbfcc":8691,"edbbba":8692,"eedbba":8693,"bbceedd":8694,"edeeeec":8695,"ebfbbbbc":8696,"edcfbe":8697,"edebdcc":8698,"ebbddbd":8699,"fecdbf":8700,"bdfbbcc":8701,"bdfbbec":8702,"bbebc</w>":8703,"bdcdbec":8704,"febebebe":8705,"ebbbcbebe":8706,"eebcbccc":8707,"ccccccccccc":8708,"bbbcbebf":8709,"ffcfc":8710,"eeaa":8711,"eecbcbf":8712,"bbdbddc":8713,"dfcebc":8714,"deccbec":8715,"bbdbebec":8716,"bfcbeee":8717,"eebceecc":8718,"bcbdbbf":8719,"ebbdded":8720,"bbcbdbf":8721,"dbbebbbbc":8722,"ddbeebe":8723,"bcccdbe":8724,"dfbcbf":8725,"bdceeed":8726,"eeeeebc":8727,"ecdcfc":8728,"edeedee":8729,"eebffc":8730,"bebbbbbbbd":8731,"feebbbf":8732,"debcbbf":8733,"bfbcbcc":8734,"eaac":8735,"bedcff":8736,"efcfcc":8737,"fbcbebd":8738,"ebbbbbbbbbe":8739,"feebbebb":8740,"bfbcbbd":8741,"bdecdbe":8742,"bcbddbd":8743,"bbcbefc":8744,"eecbbef":8745,"bcedccc":8746,"dccbcbc":8747,"ebebebbf":8748,"edcfdd":8749,"bebceebd":8750,"fbcbecc":8751,"bdecdec":8752,"bfecebc":8753,"eeeebebf":8754,"bcdbba":8755,"bfcbbed":8756,"debcff":8757,"bcbedebe":8758,"efbcebe":8759,"bfeddd":8760,"eeecded":8761,"bceeded":8762,"fbfbbbe":8763,"ebcecebb":8764,"bcecbbbc":8765,"bddac":8766,"aeeebb":8767,"bada":8768,"febbbec":8769,"eccda":8770,"bcecbdc":8771,"bbdeedd":8772,"bdbc</w>":8773,"ebbfdbb":8774,"ddbebbc":8775,"bbeebebf":8776,"dbbbbdbd":8777,"bbebeccc":8778,"ebbeebbec":8779,"bdbddf":8780,"edfdcc":8781,"bfedbc":8782,"ebdecec":8783,"bcbdbbbe":8784,"befbecc":8785,"bbccbccc":8786,"bcbeac":8787,"bbcfebc":8788,"beeebbef":8789,"fecdfc":8790,"ebebebcc":8791,"ebdcbcc":8792,"bbfeebd":8793,"beecfbc":8794,"beecbbee":8795,"decdecc":8796,"eedc</w>":8797,"dfbedc":8798,"bcdbbbec":8799,"ebeeebebe":8800,"beebbbbebb":8801,"eedbbef":8802,"dbefed":8803,"deefbd":8804,"bfcebcc":8805,"dccfbd":8806,"ddcfee":8807,"bdebbbbbb":8808,"bbdfa":8809,"bbbecbbbe":8810,"edfdbd":8811,"efceebc":8812,"bbfbbfc":8813,"ecbebbed":8814,"bffdbc":8815,"ebbeceec":8816,"dddcdd":8817,"dbebebf":8818,"beebbfc":8819,"bbdbdbc":8820,"dbceeec":8821,"dbbdcbd":8822,"bbcdecc":8823,"ebebcfc":8824,"bebeeeebb":8825,"eeeeeebf":8826,"bbcfbec":8827,"dbddbbc":8828,"eeeebbbf":8829,"debcebd":8830,"bebbcbbbe":8831,"eddebdc":8832,"beedef":8833,"afbbc":8834,"eecbeef":8835,"ebcbbebd":8836,"dfbdcc":8837,"fbbebbcc":8838,"dceebcc":8839,"dbcbbbbc":8840,"abbebc":8841,"bceedbf":8842,"bbccded":8843,"bbdfbec":8844,"ebfbcec":8845,"bdbbea":8846,"dbebdbd":8847,"ffbebf":8848,"beceeebb":8849,"eccfef":8850,"ebfecbc":8851,"feeebbc":8852,"bbbcbcbbbb":8853,"eebcbef":8854,"eccceccc":8855,"ebfbeebe":8856,"bbbcbebbbb":8857,"eefcccc":8858,"dfeebd":8859,"bcbcedc":8860,"ebcbcebe":8861,"becbebbbb":8862,"bbddeec":8863,"ebbbbebec":8864,"ebfbeef":8865,"ebbbcbcc":8866,"ebbbeedc":8867,"dfbbef":8868,"beeebfc":8869,"eeccbbf":8870,"bbddbbbe":8871,"ebdbebbbb":8872,"bceebbebb":8873,"beecebbc":8874,"dbbecbec":8875,"fcbcef":8876,"efbbecc":8877,"ebbdcbf":8878,"ececded":8879,"beeacc":8880,"eebbeba":8881,"efbdbc":8882,"baded":8883,"ebbdcec":8884,"eccefcc":8885,"cccbbee":8886,"febbdd":8887,"dcdeecc":8888,"dbdbbebb":8889,"dbbcbdc":8890,"dfbdbd":8891,"ebdcdec":8892,"beedbcc":8893,"feebbcc":8894,"aeeec":8895,"bebdebbc":8896,"bdbedebb":8897,"bbbbcbdc":8898,"bedcbcc":8899,"fccebbc":8900,"afebe":8901,"edbbcdbf":8902,"dbdb</w>":8903,"bebcbbbf":8904,"eecbbebc":8905,"befebcc":8906,"aeebd":8907,"bbfcbbf":8908,"ecfedcc":8909,"bbbeeebd":8910,"bfdced":8911,"bbbceebd":8912,"bbecebec":8913,"acdbf":8914,"eecbdcc":8915,"eedefcc":8916,"ebebcbec":8917,"eecfdd":8918,"dfdebc":8919,"bebdfbc":8920,"dbecbbbb":8921,"bcbdbebe":8922,"dcbac":8923,"dbcecbc":8924,"bcbebbebe":8925,"edcfbf":8926,"bfcfed":8927,"feebbef":8928,"bcfcccc":8929,"bbbebba":8930,"bbbcfbe":8931,"dbcbbdc":8932,"ffdfc":8933,"bbbcddc":8934,"ebffebe":8935,"edfdbb":8936,"bbbcbbbcc":8937,"bbdddee":8938,"baeba":8939,"dbdeebc":8940,"bddebdc":8941,"edebbee":8942,"bfcbbbf":8943,"ebbdefc":8944,"bebcbedc":8945,"dcdfcc":8946,"bcdcdd":8947,"bbcbdcc":8948,"edcda":8949,"dbccccc":8950,"dbddebe":8951,"bcbedbbc":8952,"ecceeebb":8953,"ffbcec":8954,"eeccdcc":8955,"edcbcee":8956,"bbeebebbbb":8957,"beccefc":8958,"ebedccc":8959,"eccbcbf":8960,"ffecbc":8961,"fcfa":8962,"feebeebe":8963,"bbcbded":8964,"bcbacc":8965,"eeeebbd":8966,"febbbebe":8967,"bfeded":8968,"dbcbccc":8969,"ebdbcbf":8970,"bcbcbeec":8971,"dcfbdc":8972,"ebcbbeec":8973,"ecccded":8974,"bbbcdef":8975,"debbded":8976,"eeeedf":8977,"eefbbdc":8978,"bdfea":8979,"bdeebbd":8980,"bcec</w>":8981,"ebbbcbbd":8982,"dbbbda":8983,"bebcebec":8984,"fbcebec":8985,"ecdcdd":8986,"bbbbdbbbe":8987,"cccbef":8988,"eefebec":8989,"eecfecc":8990,"bbbcfbf":8991,"bbedbeec":8992,"debcbcc":8993,"ebcdccc":8994,"bebcfed":8995,"fecebbc":8996,"dbcebcc":8997,"bbbdbeec":8998,"bdeedec":8999,"aeebf":9000,"ffda":9001,"dbcfdc":9002,"bbeebba":9003,"bbcbeebc":9004,"dfcbbf":9005,"bbecbeed":9006,"beeebebf":9007,"bddbccc":9008,"bffbdc":9009,"fcbbbec":9010,"fcbeebe":9011,"debbbbebb":9012,"ebcbcebc":9013,"ecbeeccc":9014,"efeced":9015,"efebbcc":9016,"dbebcebb":9017,"bceeba":9018,"dcedbc":9019,"ebdcbdc":9020,"bbbbeeec":9021,"fbceecc":9022,"bbbbcebd":9023,"bfc</w>":9024,"dcfdee":9025,"bfcbbebb":9026,"edeedcc":9027,"bcfdbbc":9028,"fcbcfc":9029,"bbbdb</w>":9030,"eebddec":9031,"bfeeebc":9032,"efcbbee":9033,"bceddec":9034,"bbbbda":9035,"feeedc":9036,"fccdbd":9037,"eefebcc":9038,"fdf</w>":9039,"fcdbdc":9040,"dcceedc":9041,"ffbbebe":9042,"ebbcbbebe":9043,"deebbbf":9044,"ebcebbcc":9045,"dbfbebc":9046,"ebbfdbd":9047,"bddbbebb":9048,"dbbbac":9049,"ddcbebe":9050,"bfbeff":9051,"eccbbfc":9052,"dfbbdd":9053,"cccfec":9054,"ebebebbd":9055,"fcfbec":9056,"dbecdec":9057,"bbecbedc":9058,"becdbbd":9059,"bbffbbc":9060,"efcbbbd":9061,"ddbcef":9062,"ebcfbec":9063,"bbecbeebb":9064,"ecbeeecc":9065,"ebebbecc":9066,"bcccedc":9067,"ecbcbccc":9068,"bccedcc":9069,"bcebac":9070,"dcebbebb":9071,"dcceebd":9072,"deecded":9073,"bdbebbed":9074,"eeebeebf":9075,"dcbcbbd":9076,"dbebcbe":9077,"bbbcfed":9078,"ebdbcbe":9079,"bcbcebbc":9080,"eceefcc":9081,"ecbbeccc":9082,"eccbbef":9083,"dcbfbd":9084,"befac":9085,"edebeebb":9086,"bbcbbeec":9087,"becbeef":9088,"bbeeeecc":9089,"dfcdec":9090,"bdbdbbd":9091,"beddeec":9092,"fdcded":9093,"deeecbc":9094,"bbbbbddd":9095,"fbecccc":9096,"bfbcff":9097,"edfbfc":9098,"bbceebbc":9099,"bccfbbc":9100,"dcbedee":9101,"eebacc":9102,"bbdcdec":9103,"edbcbbbe":9104,"ebbdcdd":9105,"bbbbeebe":9106,"ebfdbbc":9107,"dbbedbbc":9108,"fecbedc":9109,"edfbebe":9110,"ebebbbbbbbb":9111,"bbebebbebe":9112,"bebbbbbebe":9113,"eafbc":9114,"ebdfa":9115,"bccbcbbc":9116,"befecbc":9117,"fcdccc":9118,"adbec":9119,"bccb</w>":9120,"debbdebb":9121,"deedbec":9122,"bebdbfc":9123,"bbcfbbbb":9124,"efcdfc":9125,"ffffc":9126,"dcecdec":9127,"ebcbedbe":9128,"efcbedc":9129,"bbccbeee":9130,"beccbfc":9131,"bbbeac":9132,"bbfdbbbb":9133,"ddfbec":9134,"bbdcbbdc":9135,"bcecdbd":9136,"ebcfebd":9137,"bbcebfc":9138,"bfebecc":9139,"bbedfbc":9140,"fdcebe":9141,"feffee":9142,"beccebf":9143,"bfeebcc":9144,"bbffebe":9145,"bebcebcc":9146,"fccfee":9147,"dccbeee":9148,"ebdbbbec":9149,"bebebcbd":9150,"ebbeebef":9151,"efeebbc":9152,"dccebbc":9153,"eeccbbd":9154,"bbebbbcbc":9155,"debeebe":9156,"fbfdbe":9157,"bbeceebc":9158,"eecdbbbb":9159,"eeeedbc":9160,"efcddc":9161,"befdbbc":9162,"fedbfc":9163,"bedda":9164,"fbcbbbf":9165,"eecfbbc":9166,"debebbd":9167,"bdcffc":9168,"bbeefebb":9169,"dccbccc":9170,"ebcbcef":9171,"bdcbdbd":9172,"eeccfec":9173,"eeecebd":9174,"efecf":9175,"bdcecbc":9176,"dbbecebc":9177,"debeecc":9178,"ddbfcc":9179,"becbcf":9180,"edefbf":9181,"efe</w>":9182,"bbbbbebec":9183,"dbbdcdc":9184,"fccbbbe":9185,"eedcdbe":9186,"edecdbe":9187,"bddd</w>":9188,"bbeeded":9189,"ebbbbdcc":9190,"dbbcbbbd":9191,"befbcec":9192,"eceefbc":9193,"bebeebcc":9194,"ebbdbbcc":9195,"acdec":9196,"fbfebf":9197,"eebcbebd":9198,"bcdd</w>":9199,"eccecbf":9200,"ecbdbcc":9201,"ebbbedbd":9202,"dfcdbc":9203,"aeccc":9204,"bdbe</w>":9205,"bbdbcdd":9206,"bbeefbd":9207,"dbbbfbd":9208,"edcfebc":9209,"dbecebe":9210,"bceebbcc":9211,"ebcdbbbe":9212,"edebbebe":9213,"bbbbeebf":9214,"ffbebd":9215,"deebeed":9216,"acdbc":9217,"bbdeced":9218,"ffeccc":9219,"bbebbdbd":9220,"eeebbebf":9221,"daebe":9222,"eccdccc":9223,"fcbcdd":9224,"bbedebf":9225,"edbebfc":9226,"dcbebbf":9227,"fedddc":9228,"deecdbe":9229,"ecbddbe":9230,"fccfdc":9231,"eedcebd":9232,"eebddbd":9233,"becfebc":9234,"bbbcebcc":9235,"eeebebef":9236,"eccbcf":9237,"bdcebdc":9238,"bbdcbebe":9239,"bedcebd":9240,"abcebb":9241,"bedcebe":9242,"dcefdc":9243,"fccbecc":9244,"bbcecbf":9245,"eccfbbc":9246,"bbebbbbcc":9247,"ecbddbc":9248,"bbddbbdd":9249,"bbbcbbebc":9250,"feebebf":9251,"fbdebbc":9252,"bbfcdbe":9253,"bbfbcebb":9254,"ddcbbbd":9255,"bcbdbcbd":9256,"bbbbeecc":9257,"efbebec":9258,"dbbdced":9259,"bbbbcdbd":9260,"ebbbcdee":9261,"dfebdc":9262,"bdeeeecc":9263,"ebbbcebd":9264,"bbebbbebd":9265,"fecebf":9266,"bfbeecc":9267,"edcedbd":9268,"acfa":9269,"bfd</w>":9270,"bdcfebb":9271,"ebcbdbf":9272,"edcbced":9273,"efbebcc":9274,"debedbc":9275,"dbffbd":9276,"ebbeebcc":9277,"fcdbbbb":9278,"becbefc":9279,"febeebe":9280,"abcf":9281,"bbbcbbbec":9282,"eada":9283,"eecbbbec":9284,"dfbeed":9285,"fecbbee":9286,"bbdcbbbd":9287,"fcbcbbc":9288,"dccbbbd":9289,"befbcbd":9290,"beecbbbd":9291,"bbebebebc":9292,"bbebdbbbb":9293,"eeebebeebe":9294,"bbbebeed":9295,"dbbecbbbb":9296,"feebeebb":9297,"beebb</w>":9298,"dffbbc":9299,"eebbcccc":9300,"eebdbebe":9301,"becbbbcc":9302,"ddecbf":9303,"debddbe":9304,"dcbeedc":9305,"bbbbcebbc":9306,"ebdcedbbec":9307,"bebfbcc":9308,"bbdcecc":9309,"feebbec":9310,"ecbebbbf":9311,"bfbeeec":9312,"dbecff":9313,"feefbe":9314,"bbebcccc":9315,"dddbbbe":9316,"dbbefcc":9317,"bbbbcbbbf":9318,"fceeebb":9319,"bfbebbbc":9320,"eabbbd":9321,"dbbddcc":9322,"baebbc":9323,"bbdebfc":9324,"bebeded":9325,"bedcdbe":9326,"efbfbf":9327,"dbecdbc":9328,"ebdbeebe":9329,"bbeeefc":9330,"ebfeecc":9331,"ebcbdbc":9332,"ebcfeec":9333,"dbddbbd":9334,"dccbecc":9335,"bbccefc":9336,"bbbbfef":9337,"febbdbe":9338,"fcecbf":9339,"beefbbc":9340,"dfeeee":9341,"bbbeecbc":9342,"efeedd":9343,"bebcecbc":9344,"eeeeeeeeeeeeeeee":9345,"ebcbddc":9346,"bbfbeed":9347,"bfcbeebb":9348,"eefdbbc":9349,"fcbbbcc":9350,"fceced":9351,"dcbebbbe":9352,"eeecdbd":9353,"bccbebbc":9354,"bfdbfc":9355,"eccfebe":9356,"dedbcbc":9357,"eeedbec":9358,"fcbba":9359,"bbedebbc":9360,"ffcbbc":9361,"eebfbbc":9362,"bcceced":9363,"bbbebcbbbb":9364,"bedddf":9365,"bccbcebb":9366,"dbcfbe":9367,"bfecebe":9368,"bbbebcbf":9369,"ddbefc":9370,"bbfbcf":9371,"deebeebb":9372,"bbeebbebc":9373,"ebcbddd":9374,"ecdebfc":9375,"bebebebbc":9376,"bdcac":9377,"beeeedc":9378,"ebcbebcc":9379,"bbbbcccc":9380,"bbfbba":9381,"bbfbebbc":9382,"fecbebd":9383,"adebc":9384,"ebbfebbc":9385,"beecedc":9386,"febbebf":9387,"eebcebcc":9388,"debbfbc":9389,"dbbdebe":9390,"bcdbfcc":9391,"ecdb</w>":9392,"dbebbdd":9393,"bbbcea":9394,"bebcfcc":9395,"bbdbdebb":9396,"fcedcc":9397,"dbcfbf":9398,"aebdc":9399,"dcdebbc":9400,"bbbcbbef":9401,"fdebecc":9402,"bdeedbd":9403,"becbdcc":9404,"ebbceecc":9405,"ddcefc":9406,"bbbfbbec":9407,"bfdcdc":9408,"eccbcbe":9409,"eedcef":9410,"becfdd":9411,"ddcbfc":9412,"dccdef":9413,"bceebbbd":9414,"bbdeebbc":9415,"ebecba":9416,"bebdebf":9417,"bceebbed":9418,"bbcedbd":9419,"debebbee":9420,"ebedbbf":9421,"eebcfcc":9422,"debbbbec":9423,"ddecdd":9424,"becbba":9425,"eadbf":9426,"bdecbcc":9427,"bedcded":9428,"dfcbbbb":9429,"becbcbbc":9430,"bbbebdbd":9431,"dbddef":9432,"beeeeeebb":9433,"ecfcccc":9434,"dccbbec":9435,"ebecbecc":9436,"bebefbe":9437,"bcbbbbbbbbc":9438,"eede</w>":9439,"edbbbbcc":9440,"ebeeced":9441,"ddbbbec":9442,"ebbbcbbee":9443,"bbebbbfc":9444,"dbedebc":9445,"eeeeeec":9446,"bebdbef":9447,"ebbacc":9448,"ebbbeebbc":9449,"ebdbcf":9450,"fcfebe":9451,"bbbebbfc":9452,"fbdefc":9453,"bceebccc":9454,"bdbebecc":9455,"bebebbdc":9456,"ecbcebf":9457,"bbebbfee":9458,"eeefef":9459,"eceeeecc":9460,"edcfecc":9461,"dbbdded":9462,"ebcb</w>":9463,"bebebbef":9464,"dccfdc":9465,"bcbebbdc":9466,"ddcfed":9467,"bbbedef":9468,"edeebbf":9469,"ecbcbeec":9470,"abeef":9471,"fbdfee":9472,"bddeccc":9473,"dbebebbc":9474,"dbdbcbd":9475,"fefebe":9476,"eeeeeebe":9477,"fbfbef":9478,"deccef":9479,"ecfebec":9480,"dbbdef":9481,"edfbef":9482,"fbedebc":9483,"bfbebbee":9484,"bccda":9485,"bfeac":9486,"febebbc":9487,"ecddecc":9488,"eeccded":9489,"ebbfbeee":9490,"ebddbdc":9491,"dfbbbbc":9492,"fcbeecc":9493,"eebeeccc":9494,"ecbcebbc":9495,"bbbbbdebb":9496,"dfbeebb":9497,"deeebcc":9498,"eabbec":9499,"bcccbcbc":9500,"febbebc":9501,"bbfbbbec":9502,"efcbbcc":9503,"dbfbcbc":9504,"bcbeebcc":9505,"eefda":9506,"bbbbbbbdc":9507,"eecbfcc":9508,"bccecbe":9509,"edcdbcc":9510,"defdec":9511,"ebdeeebb":9512,"bebefbd":9513,"bddddbd":9514,"edfbbee":9515,"bdcbeebb":9516,"bbbfecc":9517,"bebeddc":9518,"bfacc":9519,"bdeca":9520,"bbbbbeef":9521,"ebdbebec":9522,"cccbebc":9523,"bcbfa":9524,"eeccebbc":9525,"deecef":9526,"bbfcef":9527,"ecbddec":9528,"edbcfbc":9529,"bccbcf":9530,"eddbccc":9531,"bcbdbbd":9532,"eecbcebb":9533,"eabfc":9534,"ebeebbcc":9535,"bbeefcc":9536,"bbbfebbc":9537,"bbfda":9538,"beedded":9539,"eeecfec":9540,"bbbcbcebb":9541,"eebebbdc":9542,"eedcdec":9543,"bdeedcc":9544,"bdbcdec":9545,"eebfff":9546,"eeecdbbc":9547,"bbeecbec":9548,"befbeebe":9549,"deffbc":9550,"bdeddd":9551,"bebebcec":9552,"bbbdfbd":9553,"bebddebb":9554,"ebcbcbbbb":9555,"bfdbbee":9556,"bfeebbbe":9557,"dcebbed":9558,"dbedbbbb":9559,"bebeebec":9560,"bbbcbdbd":9561,"befbbbbc":9562,"ecdcdcc":9563,"dcbbedc":9564,"ecbbebdc":9565,"bfbebdc":9566,"bdeebebc":9567,"ebbececc":9568,"bafcc":9569,"debeebd":9570,"eddddd":9571,"bbcbbebd":9572,"bbbfdec":9573,"bebfdd":9574,"eccbddc":9575,"ebfcdf":9576,"edbefcc":9577,"fddccc":9578,"fcbdbf":9579,"beccfed":9580,"beeebba":9581,"fdcbdc":9582,"edccebc":9583,"bfbedbe":9584,"bbbfbbcc":9585,"eceebcbc":9586,"bbbbbcf":9587,"ebeeedd":9588,"bbdbebbd":9589,"fbfbbbc":9590,"dbcbdbd":9591,"bcbbbdcc":9592,"eebedbf":9593,"dbbebbee":9594,"dedefc":9595,"bbceced":9596,"ebecfee":9597,"beecbbcc":9598,"debbbfc":9599,"effbbf":9600,"beeceecc":9601,"defdbd":9602,"bdbedbf":9603,"bbfbeef":9604,"ebccbef":9605,"eebbb</w>":9606,"eecbcf":9607,"dbecebd":9608,"bdbefcc":9609,"fcfbcc":9610,"becebbcc":9611,"bebedbf":9612,"dbecbcc":9613,"dceebbbb":9614,"bbfeebf":9615,"abedc":9616,"bbcbcdd":9617,"beeedec":9618,"bfbeebd":9619,"ebbbeba":9620,"ebcdbbf":9621,"dbcbedc":9622,"fcceedc":9623,"adca":9624,"bbbedebc":9625,"edcbbdd":9626,"cccbbcc":9627,"fedbbd":9628,"bcbdbbbc":9629,"bbeeeebc":9630,"fcbbecc":9631,"bebcea":9632,"bcbdbdc":9633,"eeecbecc":9634,"febeff":9635,"ecbedbbc":9636,"eeefeeee":9637,"bbbbcff":9638,"bebefec":9639,"feefbf":9640,"bcecebd":9641,"febbdbc":9642,"ecdbbebe":9643,"fbedebe":9644,"bcedeec":9645,"bbbbbedd":9646,"bbbeeecc":9647,"ecdbbef":9648,"dfbcbe":9649,"bebeeeebe":9650,"ebefbcc":9651,"bebfbbee":9652,"edbeebbc":9653,"fbdfbd":9654,"bcbfbec":9655,"bbdecebb":9656,"ecbcbef":9657,"bbeddebb":9658,"eceeff":9659,"edcbdbd":9660,"dbdefc":9661,"edbcbbf":9662,"ddcbef":9663,"bbedbbebb":9664,"bdfdebb":9665,"fbcbeee":9666,"bbcdbbbe":9667,"eebbedcc":9668,"bcccebd":9669,"ebfdfc":9670,"ecbdebd":9671,"febb</w>":9672,"efecebb":9673,"bebdeebc":9674,"eecdccc":9675,"bbddebd":9676,"abcbe":9677,"dcecded":9678,"bebdbeec":9679,"dccdbf":9680,"fecfcc":9681,"bfdebbc":9682,"debdbec":9683,"aeef":9684,"bcbfdd":9685,"bbbccbbbc":9686,"edbcedc":9687,"bbbebedc":9688,"ffcbec":9689,"eceedbf":9690,"dbeeeee":9691,"beebbccc":9692,"fa</w>":9693,"dabda":9694,"bfebbbbbb":9695,"ebcfbbbb":9696,"bceebecc":9697,"edffcc":9698,"bfcfbf":9699,"fdcebd":9700,"feceecc":9701,"dadee":9702,"eebbbdcc":9703,"bafbd":9704,"bcccdbc":9705,"eecbefc":9706,"febbbcc":9707,"ebfeccc":9708,"bbfcdee":9709,"fadd":9710,"bbbebebbbe":9711,"bfceecc":9712,"fbcea":9713,"ebfbbdc":9714,"deecdbc":9715,"bcbcbbbbc":9716,"fdcdbc":9717,"ebefbec":9718,"deccecc":9719,"bebcfbd":9720,"ecdcebc":9721,"bdbddee":9722,"bdfbeee":9723,"edcbbebb":9724,"bebcdbf":9725,"ddcbbee":9726,"debedee":9727,"bcebbbec":9728,"abeebe":9729,"cccefc":9730,"dbbbfed":9731,"befdfc":9732,"bfbbedc":9733,"bfddcc":9734,"feefef":9735,"ebccbbbd":9736,"edbdfc":9737,"dcfdbc":9738,"eeebeeeebe":9739,"dcbeccc":9740,"dbefdd":9741,"bbbebced":9742,"ecdddd":9743,"ebedbdc":9744,"eeefbeee":9745,"bfefbf":9746,"bbebedd":9747,"bebbbbbbee":9748,"febeef":9749,"eecbded":9750,"ebfeebd":9751,"eecbeebc":9752,"bbbbbbbbbbbbbbbc":9753,"ebebbebf":9754,"dbbdfc":9755,"eedcbcc":9756,"bbfbbebc":9757,"bcbfdf":9758,"bebcbcbd":9759,"bfebbee":9760,"efbddd":9761,"dccbbcc":9762,"dbebbebc":9763,"baca":9764,"ebcbebbd":9765,"bbbeebbebb":9766,"badebb":9767,"acbdc":9768,"efcdebc":9769,"dbebcdc":9770,"fbcddc":9771,"bebefebb":9772,"ebfeef":9773,"bebebba":9774,"eceebbcc":9775,"ebcefcc":9776,"baeeee":9777,"bdbdbdc":9778,"bdbbbecc":9779,"bfbdbbbb":9780,"bebdbbec":9781,"dbbbbbcc":9782,"edeebbbc":9783,"bcfbbbbc":9784,"bebfbbbc":9785,"edcbbbf":9786,"fbcebcc":9787,"bbbbbbeec":9788,"dbbecfc":9789,"dbccbec":9790,"dceedee":9791,"dbedfc":9792,"bbebebbbd":9793,"bbbbbebbd":9794,"eebcdebb":9795,"bcccbdc":9796,"dbccdd":9797,"bdbcbebc":9798,"edbcdec":9799,"beecfee":9800,"effbbd":9801,"ecbeebec":9802,"dbecded":9803,"bccbeef":9804,"ebbcddc":9805,"ebbbceec":9806,"eebcbecc":9807,"bbbbbbbbbbd":9808,"ebdbddd":9809,"eeccfcc":9810,"eccbcdd":9811,"bbbcdebe":9812,"bbbcbcec":9813,"bbbddbbc":9814,"ecdcedc":9815,"eddac":9816,"edebbef":9817,"dbbbdebc":9818,"bcfeccc":9819,"bddbbed":9820,"bbfbced":9821,"eedcdbc":9822,"eebcbbcc":9823,"bffdee":9824,"eebcefc":9825,"bbeeeeebb":9826,"decbcbd":9827,"bcdefcc":9828,"bcbfff":9829,"bbbefbbc":9830,"bbbcbcbbc":9831,"dbbbfdc":9832,"febcdf":9833,"bdfbbbf":9834,"beebbff":9835,"faccc":9836,"ecbfecc":9837,"bbbbebdc":9838,"fbeda":9839,"ebffdd":9840,"bbeeeeebe":9841,"bfebbbd":9842,"bbcecebb":9843,"bbeeebcc":9844,"ddefcc":9845,"bdbcded":9846,"bdcbcec":9847,"dececbc":9848,"bbebeebc":9849,"fdcefc":9850,"eebcecbc":9851,"ecbdef":9852,"fdacc":9853,"debeedc":9854,"bdbda":9855,"beceebf":9856,"dcbeff":9857,"bdcbbbbc":9858,"bfcddc":9859,"bcbcba":9860,"bdbcebf":9861,"ebdbeef":9862,"deeebec":9863,"eabcec":9864,"eeddecc":9865,"dbcbbdd":9866,"eaddc":9867,"bbebedbe":9868,"dbcbcec":9869,"bfccccc":9870,"bbeefbf":9871,"ebeecbbc":9872,"bbfbebbbb":9873,"ebeeddc":9874,"edccedc":9875,"ddfdf":9876,"bbbdbcbd":9877,"dedbbed":9878,"bceedebb":9879,"eeedbcc":9880,"bcbebbbec":9881,"fbebbebc":9882,"edbcbbd":9883,"ebebdec":9884,"ebbcbcbd":9885,"ebdbefc":9886,"bbbcbebbc":9887,"dbbebbebe":9888,"bebedbbc":9889,"fbdba":9890,"ecbfccc":9891,"bbfffc":9892,"acecc":9893,"beedff":9894,"ebfeeebe":9895,"fbcbbed":9896,"bbebebbd":9897,"eebedbbc":9898,"ddccccc":9899,"bbeefec":9900,"ebfcbbc":9901,"ebccebec":9902,"bbfcbcc":9903,"bbbbfdc":9904,"efdbbbe":9905,"dceeccc":9906,"bdcdecc":9907,"bbbcfebb":9908,"bdbdbec":9909,"efbdef":9910,"eecbcdd":9911,"ecfbbbf":9912,"fcb</w>":9913,"deefbe":9914,"bbeeebec":9915,"dbebbef":9916,"bffbbbc":9917,"fbcdfc":9918,"efdced":9919,"eebdebbc":9920,"defbfc":9921,"eebdbebc":9922,"bdebfcc":9923,"bfeca":9924,"bffbef":9925,"eefbba":9926,"dedfee":9927,"acac":9928,"bbbbecbd":9929,"dbbdbbbe":9930,"bbecbbbbc":9931,"ebbbcdf":9932,"beeddbd":9933,"bbbceecc":9934,"decbced":9935,"ebcccccc":9936,"deccdf":9937,"bdcfdd":9938,"bbbcecbc":9939,"debcdbc":9940,"efdedc":9941,"bbcbcebe":9942,"bbecfbd":9943,"eeefebe":9944,"dbcceec":9945,"ebdecbe":9946,"ebdeebbc":9947,"deeeeee":9948,"ffca":9949,"bbecfed":9950,"bcbcfec":9951,"ebbfbbbd":9952,"bebebcebb":9953,"bfcbedc":9954,"dabec":9955,"bbdbeebc":9956,"ebcbdec":9957,"edecdee":9958,"bccfebe":9959,"dcceccc":9960,"ebecdebb":9961,"ecdceec":9962,"bbbabbbb":9963,"fdcedc":9964,"ebbbebbebe":9965,"fccfbd":9966,"bcfbbef":9967,"eedcff":9968,"ebbeebec":9969,"bbfeecc":9970,"dbdbbdc":9971,"ebdbddc":9972,"bdbeddc":9973,"eaedc":9974,"febebeee":9975,"dcccdd":9976,"dbdbecc":9977,"ebfcfc":9978,"bafec":9979,"bbcfa":9980,"befeebf":9981,"eeecbebc":9982,"bbfcebe":9983,"edbebbbd":9984,"bdeddee":9985,"ebdcfbc":9986,"dfbcdc":9987,"dbbedebb":9988,"bbddccc":9989,"ebbdfcc":9990,"bced</w>":9991,"bdccfc":9992,"abebbc":9993,"decbbebb":9994,"bcbbebfc":9995,"ebcdcdc":9996,"ebbbebbbf":9997,"ecbdbdc":9998,"ecebac":9999,"dcbbbbbbbb":10000,"dddbbf":10001,"fecdef":10002,"fbfbfc":10003,"eced</w>":10004,"bfeebbee":10005,"beedbbbe":10006,"eeecbfc":10007,"bccecbf":10008,"daef":10009,"dbccfc":10010,"eeeddbc":10011,"eecbcbbc":10012,"dbfdbf":10013,"ecbbcccc":10014,"ebcdebf":10015,"bbbbdebc":10016,"eebdbbbc":10017,"ebcceebc":10018,"dfcecc":10019,"fbfdbc":10020,"dccbeec":10021,"acbbbe":10022,"ecde</w>":10023,"dbbedbc":10024,"bcbedebc":10025,"eaded":10026,"efcfbd":10027,"eedebbcc":10028,"fbbbbbbbe":10029,"bceebecbbecbbdbbc":10030,"beedbebc":10031,"bfbcdbe":10032,"ebcfbcc":10033,"deebbdc":10034,"ddcbcbc":10035,"eeeffee":10036,"dcfbbbe":10037,"bebebeef":10038,"ebbfbebc":10039,"bbbfbeee":10040,"becb</w>":10041,"bdcbced":10042,"dbbecdf":10043,"fedecc":10044,"bceefcc":10045,"bebbbbbbbbc":10046,"ebceddd":10047,"fedbebc":10048,"ebdbcdd":10049,"bceebeee":10050,"ebbbcdbc":10051,"eeeceecc":10052,"bbbbdbec":10053,"dbbdcdd":10054,"bbbbecebb":10055,"decdbec":10056,"dbbbbebe":10057,"eeceebf":10058,"bdcbedd":10059,"bbbceeee":10060,"ddceecc":10061,"dedbbcc":10062,"fbcdef":10063,"beecebf":10064,"dbbdbbf":10065,"babbbbc":10066,"bebecbbc":10067,"bcecbbbe":10068,"fbebbfc":10069,"eefbbbbc":10070,"daecc":10071,"efbebbbe":10072,"bbdcedc":10073,"bcbcbeee":10074,"dcbebdc":10075,"dbeeccc":10076,"bbeebccc":10077,"bbbccbbbe":10078,"bdfebec":10079,"ffeebc":10080,"fbcfdc":10081,"bfbcbbbe":10082,"ecdbbfc":10083,"efc</w>":10084,"babbed":10085,"bcbfccc":10086,"bbbccbcc":10087,"fbeeccc":10088,"bdcbebf":10089,"eeddedc":10090,"ececebd":10091,"bcbfbbf":10092,"eefdfc":10093,"dbdda":10094,"bfeebec":10095,"deddeec":10096,"ebbdebec":10097,"bbcdbdc":10098,"efcebcc":10099,"bdbbb</w>":10100,"bbcdedc":10101,"ebfbedc":10102,"bcfdebe":10103,"eceddf":10104,"bdeebebe":10105,"fcbea":10106,"dcfebf":10107,"ebededc":10108,"bfbbbfc":10109,"ebcbbecc":10110,"bececdc":10111,"decbeebb":10112,"beccebcc":10113,"eedebfc":10114,"dedbcec":10115,"bdeeebd":10116,"dbedefc":10117,"febeccc":10118,"eebbbbbbbe":10119,"eddbbbd":10120,"dbbebccc":10121,"decdfc":10122,"ebfbeed":10123,"febbbbbc":10124,"edcbeebb":10125,"beecbeee":10126,"edbeddc":10127,"fedbebe":10128,"ebbbbbbbbc":10129,"dceeeec":10130,"ebfeeebb":10131,"bbecfcc":10132,"ecbcfcc":10133,"bccfebc":10134,"baddc":10135,"eabbebb":10136,"dbfbbbd":10137,"eebbebfc":10138,"bcdcdf":10139,"bbbffee":10140,"bceefec":10141,"bbadbe":10142,"bbfcff":10143,"bfebbebe":10144,"dcbb</w>":10145,"bfebbed":10146,"decdebe":10147,"bebdfec":10148,"bbeedbbc":10149,"bebfbef":10150,"eebfccc":10151,"bbccfcc":10152,"eeecbebe":10153,"ebbbebfc":10154,"fcdbbf":10155,"bccbded":10156,"fbebdcc":10157,"dcbbebf":10158,"ebdeddc":10159,"ececbbd":10160,"ecbfdd":10161,"dcbdbbbb":10162,"efecbbc":10163,"acbbd":10164,"eeebeff":10165,"eebeded":10166,"ebbdddc":10167,"bbccbecc":10168,"bccedbd":10169,"bebdba":10170,"bbbbcbef":10171,"abbba":10172,"ededccc":10173,"bfebccc":10174,"eebedebb":10175,"ececbbbe":10176,"ebeefcc":10177,"eecbcef":10178,"fbcbedc":10179,"eebbcbbc":10180,"bbebcdf":10181,"bffbbee":10182,"ebecbeec":10183,"dbfded":10184,"eceebccc":10185,"bbeebcebb":10186,"bddbdcc":10187,"dbeda":10188,"bbebebef":10189,"bbbccbec":10190,"ebbbcbbbd":10191,"fbdbbbd":10192,"ddbdbc":10193,"eeceba":10194,"bbbbdfc":10195,"bcbcbbebb":10196,"abbbec":10197,"efcbeed":10198,"bbbbfebe":10199,"ebcbea":10200,"bbcdbbf":10201,"ecfdfc":10202,"defebf":10203,"ebdbba":10204,"fcfeec":10205,"debbeebc":10206,"ebdcdbd":10207,"ecbdebe":10208,"edcbebf":10209,"dedcdf":10210,"bbbbbdbc":10211,"febbeeee":10212,"bbfdebc":10213,"bebcbbbbc":10214,"effccc":10215,"beefebe":10216,"bcdc</w>":10217,"fcfdf":10218,"bbebebdc":10219,"bbebeff":10220,"beefff":10221,"bbeeecbc":10222,"fccbbbc":10223,"ebbcbeebb":10224,"becbded":10225,"ebdbded":10226,"eefeccc":10227,"bbdbcef":10228,"dbecccc":10229,"fbfbebe":10230,"cccfee":10231,"edbddee":10232,"ecfdebb":10233,"bbfbcee":10234,"efcecbc":10235,"becceebd":10236,"ddebfc":10237,"bbdedcc":10238,"ddbdbf":10239,"bbbfbcbc":10240,"edbdecc":10241,"bfbcdee":10242,"edceebf":10243,"dedbeee":10244,"bfcdbec":10245,"befda":10246,"fbbca":10247,"dcbcff":10248,"deceedc":10249,"dbcbbef":10250,"bfcfbe":10251,"fbfebc":10252,"bbebceec":10253,"eeeebcbc":10254,"beebbbeebb":10255,"ebbcdebe":10256,"becfbec":10257,"fccbcbc":10258,"bebbbbebe":10259,"bfcdeec":10260,"bdeeff":10261,"becebfc":10262,"dbcdfc":10263,"fbffee":10264,"bbcbfcc":10265,"bbdbfcc":10266,"bdeebbec":10267,"dbffec":10268,"debcbebe":10269,"dbbdccc":10270,"ecbeea":10271,"bbbccbbbcc":10272,"ececbbf":10273,"eccbded":10274,"defeec":10275,"bdceccc":10276,"edcbcdc":10277,"dbfea":10278,"eebeebbebb":10279,"defddc":10280,"ebbdbbbd":10281,"bebeecebc":10282,"bdcbbef":10283,"fdcfbc":10284,"bbebca":10285,"bbccbbbbc":10286,"eccbcebb":10287,"bccbefc":10288,"bebcbeed":10289,"bddbbdc":10290,"bebcfebb":10291,"eeeacc":10292,"beebebbf":10293,"febeeeee":10294,"bcfbbdc":10295,"ebbcfed":10296,"bebdbecc":10297,"ebbbcff":10298,"dfbcebb":10299,"dbebdcc":10300,"eeecbcbc":10301,"bccecdc":10302,"ecbcfec":10303,"dfdbec":10304,"bbbdbbdc":10305,"efcea":10306,"feccccc":10307,"bdceedd":10308,"bbecebcc":10309,"fdebccc":10310,"dbdeecc":10311,"eeecfbc":10312,"eeebebbbb":10313,"becbeecc":10314,"ecebbbbc":10315,"bfeebbf":10316,"eeebebbf":10317,"bbdbea":10318,"defbbbe":10319,"bebcbedd":10320,"bfbcbbbc":10321,"dcecccc":10322,"abbfc":10323,"ebeebbbf":10324,"ebdbbebd":10325,"bbccebec":10326,"ebcebbebb":10327,"edceced":10328,"bbbddbbd":10329,"bfcdbbc":10330,"dcceeee":10331,"ecbdff":10332,"bdcdbbbb":10333,"dbcdebc":10334,"bbddbbf":10335,"bbdbebbbe":10336,"bbccbeec":10337,"fbebba":10338,"bcbddec":10339,"debdccc":10340,"dcedbbc":10341,"bbecbbbf":10342,"decceecc":10343,"befbbdc":10344,"debeff":10345,"edbebbcc":10346,"ffcef":10347,"bbbbbcdc":10348,"ffcdbe":10349,"ebcbdebb":10350,"eccbebbc":10351,"fbbbbbbf":10352,"bbcceebc":10353,"bebfebf":10354,"aeebe":10355,"deecff":10356,"edbcff":10357,"ebbcbccc":10358,"debddee":10359,"bbcebbcc":10360,"bbeebcec":10361,"bbebcef":10362,"bdbebbbf":10363,"daff":10364,"eebfebf":10365,"fcceebd":10366,"ebbcecbc":10367,"bfcdebc":10368,"ececdbd":10369,"bbddff":10370,"fbbefcc":10371,"bfcbcbd":10372,"adbbd":10373,"dccebcc":10374,"bdfac":10375,"bebbe</w>":10376,"dcbedbc":10377,"ebcbebbbe":10378,"bfcbccc":10379,"bdfdef":10380,"eebcba":10381,"dbbbbbebe":10382,"bccbcef":10383,"edcbbebe":10384,"ecbebbbbc":10385,"bdecdbc":10386,"eedcdee":10387,"ebbeebbebe":10388,"ebcecbbc":10389,"bbedba":10390,"eddcecc":10391,"eebecccc":10392,"decbccc":10393,"fbfbdc":10394,"febbfee":10395,"ebcbedf":10396,"fccebcc":10397,"bbbcbedc":10398,"bbecdbf":10399,"bbebbdebb":10400,"ebebfbf":10401,"fbceebd":10402,"becdbdc":10403,"bbdc</w>":10404,"fbdbbee":10405,"fedfec":10406,"dffa":10407,"befbeed":10408,"fcbddc":10409,"efecdd":10410,"bbecbbdc":10411,"ebbecdee":10412,"beeceebc":10413,"defebd":10414,"bcbebbef":10415,"febbbbee":10416,"bbdfbbd":10417,"eabebc":10418,"eebeebdc":10419,"fefbbf":10420,"bcbbbbbbbd":10421,"bfebbbc":10422,"bcebbbbbe":10423,"bdfebcc":10424,"bbdecbf":10425,"fbcfbe":10426,"ebbbbea":10427,"dccebec":10428,"fbbcbec":10429,"dbebcbf":10430,"beeefcc":10431,"dbbbfebb":10432,"fecdebc":10433,"bbabbf":10434,"edbcbdc":10435,"fcfecc":10436,"bceda":10437,"bedbac":10438,"edbcdbd":10439,"dcebbbd":10440,"bbeecbbc":10441,"beecdebc":10442,"fbfdee":10443,"dbcb</w>":10444,"eedcebe":10445,"bccc</w>":10446,"ddbcbbc":10447,"dbbbdbec":10448,"ececedc":10449,"bbbdefc":10450,"fedba":10451,"bdfbbed":10452,"efccccc":10453,"bccdedc":10454,"bbbdbeebb":10455,"dedeecc":10456,"debbbcbc":10457,"bbccba":10458,"fdbac":10459,"bbbdebec":10460,"eeecebe":10461,"bebeeebf":10462,"ecccfcc":10463,"bbecdef":10464,"eebeebeebe":10465,"fbbcbbf":10466,"eecbebbbb":10467,"beefbbbe":10468,"fbbcdf":10469,"eceebebc":10470,"dcebbee":10471,"bdbebbbbc":10472,"ebbccccc":10473,"bfecbcc":10474,"bebeecbc":10475,"ecccdbd":10476,"bcecdcc":10477,"dedbeed":10478,"acbbbc":10479,"bbdbbbdc":10480,"dbbbdfc":10481,"bdeefbc":10482,"ddcbebc":10483,"bebbbac":10484,"ebdcbbbe":10485,"febebbbe":10486,"bcdceec":10487,"ebbfdcc":10488,"beeefbe":10489,"debbbef":10490,"ecccfbc":10491,"fdcbbf":10492,"efbcbbbb":10493,"bcedfc":10494,"bddbbbf":10495,"effdbe":10496,"eccebfc":10497,"bdbcbef":10498,"ebbcbeed":10499,"ebecfcc":10500,"eebcdbf":10501,"eeccbbbe":10502,"bbebcfc":10503,"dcbcdbe":10504,"bfecbbbb":10505,"bdfbbebb":10506,"dbdea":10507,"ebecea":10508,"eeccbbbc":10509,"bedcbbbb":10510,"eddbbdd":10511,"bebeefc":10512,"bebbbbbec":10513,"eebebdcc":10514,"beeebbbbc":10515,"bdbcbbee":10516,"dcecdbe":10517,"ebebddd":10518,"eedcbdc":10519,"bbeddcc":10520,"eeeedcc":10521,"ebbcfbe":10522,"ececbcbc":10523,"dbbbcbbbb":10524,"ecbedef":10525,"bccbba":10526,"dbcdbbbb":10527,"eebcfbd":10528,"bcccbbbc":10529,"bbebcbbf":10530,"edbda":10531,"bfcea":10532,"bdecbbbb":10533,"ecbecccc":10534,"deccedc":10535,"fddbbc":10536,"dceeebd":10537,"edbdccc":10538,"ebbebbbbbe":10539,"efcdeec":10540,"fededc":10541,"eeecedc":10542,"dbccdf":10543,"ebbbbbbbbebb":10544,"ebbfdec":10545,"eecbba":10546,"ebdcbbf":10547,"bcecbebe":10548,"bdeeedc":10549,"bbde</w>":10550,"feefec":10551,"deccfc":10552,"edbddf":10553,"efbca":10554,"beedbdc":10555,"eeeddee":10556,"edbbfcc":10557,"edccdd":10558,"defbbbc":10559,"fccbedc":10560,"ffbcf":10561,"bcdcbec":10562,"dceddee":10563,"ebdbfcc":10564,"bebbdbbbb":10565,"debcbebc":10566,"bbebcbbbc":10567,"abdcc":10568,"dcecbcc":10569,"bbbfbbbbc":10570,"dfcbdc":10571,"bbeebebbc":10572,"bfdba":10573,"fecfbd":10574,"dadbc":10575,"eecbbbcc":10576,"bdbbbebbbb":10577,"ebccbcbc":10578,"beecfed":10579,"bfbbebbc":10580,"eebeeba":10581,"eeecebbc":10582,"ecceef":10583,"deddbec":10584,"fecbbbd":10585,"ecbacc":10586,"bdbddbc":10587,"bdecebc":10588,"ebbebdcc":10589,"bbdecdc":10590,"bceddbc":10591,"fefbcc":10592,"bdbdbbbe":10593,"eeecbccc":10594,"bbbecdee":10595,"dbbdbdc":10596,"ecdebbcc":10597,"ecbdfbc":10598,"effecc":10599,"efd</w>":10600,"fcdcdc":10601,"dedbebd":10602,"edebeebe":10603,"debbba":10604,"ecbcbecc":10605,"dabbbe":10606,"bbbecebc":10607,"dbbbfbbc":10608,"fbffbc":10609,"aecbe":10610,"ececff":10611,"ddbddbd":10612,"ebbcdbbc":10613,"ebccddc":10614,"bbebebeebb":10615,"eeefff":10616,"ebefbbf":10617,"ddbbebd":10618,"bbcdbfc":10619,"fecbbcc":10620,"bebbd</w>":10621,"dceca":10622,"ccccccccccccc":10623,"febebbbb":10624,"edfcdc":10625,"bcccbbf":10626,"bfbcdbc":10627,"bcecbccc":10628,"bebcdebe":10629,"ebbcbbdc":10630,"deeceecc":10631,"dbdebec":10632,"bcccdec":10633,"efecef":10634,"ddfbbbb":10635,"edccbec":10636,"bcbfdbe":10637,"eeceeebb":10638,"ebdfecc":10639,"dbfbbcc":10640,"bebfebc":10641,"eebfbbf":10642,"bbebcebc":10643,"dcacc":10644,"ebefdf":10645,"dbffee":10646,"adbcc":10647,"ecccddc":10648,"beedbecc":10649,"eceddee":10650,"fedfbc":10651,"bbefbef":10652,"ecdcdee":10653,"bbddbbbc":10654,"bbefbbbc":10655,"eeecea":10656,"eebfbbbb":10657,"efbbebf":10658,"ebebac":10659,"fceebbc":10660,"edbeded":10661,"fecebcc":10662,"bdeddf":10663,"fcbebcc":10664,"bebbcbbbc":10665,"bcbbebbcc":10666,"ebbcea":10667,"ecbcecbc":10668,"bbbbcebf":10669,"eeecba":10670,"ecbddbd":10671,"ecddccc":10672,"bbefebc":10673,"beddbbc":10674,"fedbef":10675,"deddebe":10676,"fbfecc":10677,"ffcdee":10678,"edeeff":10679,"deecebc":10680,"bbeebbdc":10681,"bbbddebe":10682,"ebecfbd":10683,"efcbeee":10684,"ecccbbf":10685,"beceebbc":10686,"bcecbfc":10687,"eceebbec":10688,"bbebeebf":10689,"beefbeee":10690,"fedbbbe":10691,"bebcbeebb":10692,"bbebcebe":10693,"bdeebfc":10694,"dcebbbf":10695,"fcecbe":10696,"dfecbe":10697,"eececec":10698,"bececbe":10699,"fbedbec":10700,"eddcccc":10701,"dceebbd":10702,"dbbdbbbc":10703,"edeebbee":10704,"bbdbcebe":10705,"dcdba":10706,"ebccbbcc":10707,"bcccdbd":10708,"dbbbbdbc":10709,"eeebbfee":10710,"eceeebf":10711,"efeddc":10712,"ddcfbd":10713,"dbbcdbf":10714,"bfeceec":10715,"bbbbbeebc":10716,"becbfcc":10717,"beccfcc":10718,"bfebbbbc":10719,"dbbbfbbbb":10720,"dbbbbbdc":10721,"eeddccc":10722,"ebccbeee":10723,"fdcbfc":10724,"bcde</w>":10725,"ebdcebf":10726,"bcbdebd":10727,"bbcecdc":10728,"bbcbbecc":10729,"dcbfbc":10730,"bedcedc":10731,"bbbecdbe":10732,"dcccdcc":10733,"ebdcdcc":10734,"beebbbcc":10735,"beedbbf":10736,"bcdcfc":10737,"bdeebef":10738,"debcbdc":10739,"ebbbbbbbbbc":10740,"eeeefef":10741,"bfbbba":10742,"decca":10743,"ecbcbbcc":10744,"fadf":10745,"becbebec":10746,"eebcbeee":10747,"ddeded":10748,"eccdcdc":10749,"ffdbec":10750,"deecbcc":10751,"edbdebc":10752,"bedebccc":10753,"eccbfcc":10754,"bebefbf":10755,"decbedd":10756,"bbcbcfc":10757,"ebccfcc":10758,"eeccbebc":10759,"eebffee":10760,"bdbeea":10761,"beebbdbe":10762,"bbcbbbbbbc":10763,"ebddbbbe":10764,"ffbcbf":10765,"edfebbc":10766,"ebbbebbcc":10767,"ebecebec":10768,"eccbefc":10769,"bbefdee":10770,"bcecfbc":10771,"eedddf":10772,"bdecded":10773,"dbdbbbf":10774,"dbbbfbc":10775,"ecfbeee":10776,"beefbbbb":10777,"ddbbbcc":10778,"bbddbcc":10779,"ebdeef":10780,"ebbeebbbc":10781,"bbcbddd":10782,"eccfedc":10783,"bebefdc":10784,"edbddbe":10785,"debcedc":10786,"ebbdbecc":10787,"ebbdebcc":10788,"decdbbc":10789,"eeeebba":10790,"dbbbbbbee":10791,"bbbecbbbc":10792,"eccdbdc":10793,"dececcc":10794,"bdbbebcc":10795,"bbbdeebc":10796,"bbebbbbed":10797,"defbbd":10798,"dbbdcbf":10799,"eccfa":10800,"dedfcc":10801,"bcfedcc":10802,"eecbebcc":10803,"bbfbcef":10804,"ebbcbebf":10805,"beecddc":10806,"dfcdcc":10807,"eeeddbe":10808,"edcfef":10809,"ffcbcc":10810,"ebeecdd":10811,"fbddebb":10812,"ecdbbbec":10813,"bfebbef":10814,"edfbebc":10815,"ecbfa":10816,"eccbbbec":10817,"dedebec":10818,"bbefbdc":10819,"dceddf":10820,"bbebedf":10821,"bcbdbbbd":10822,"bcbcfcc":10823,"ebfdebe":10824,"ebfbced":10825,"beecefc":10826,"eedcfbc":10827,"effeec":10828,"eabda":10829,"beccdcc":10830,"bedcfec":10831,"bddcdd":10832,"eeccbfc":10833,"fbddbf":10834,"eeccdbd":10835,"bfdefc":10836,"bbbbbcebe":10837,"debf</w>":10838,"ebbbbbbbbbbbbbb":10839,"bebcbcec":10840,"bbddddc":10841,"ebbecccc":10842,"bbbbbcbbd":10843,"eedeba":10844,"efedbf":10845,"fbeebdc":10846,"efebbebb":10847,"ddfbcc":10848,"bbbefbbbb":10849,"eabbbf":10850,"beebbbef":10851,"bbccbbebb":10852,"bcfbbfc":10853,"beedbbd":10854,"eebfbbee":10855,"bebbbbbcc":10856,"ebbfba":10857,"acded":10858,"eeccefc":10859,"adea":10860,"bcdeba":10861,"eeebbff":10862,"efefcc":10863,"efdcdc":10864,"bbededc":10865,"dbbcbbee":10866,"debdeec":10867,"becbbecc":10868,"bbedbebd":10869,"debceebc":10870,"ecececec":10871,"bdbedebe":10872,"acdcc":10873,"bdbcfbc":10874,"efbeff":10875,"bbccfbd":10876,"bbbbbdbbc":10877,"dbdeebd":10878,"bbefebf":10879,"bbbecdf":10880,"bbbbbebbbc":10881,"bbcbebbbe":10882,"fcfbbbb":10883,"dbcbebf":10884,"eeccebf":10885,"bffedc":10886,"bbbebbbcc":10887,"bfeebbd":10888,"ebcfedc":10889,"ebecebcc":10890,"fdcdcc":10891,"ebceeebe":10892,"ebbcdef":10893,"bbdcebf":10894,"ebbbedec":10895,"dbcbced":10896,"bbbdfec":10897,"bbeffee":10898,"eebfbeee":10899,"bfeedf":10900,"deebbbbc":10901,"bcfdebc":10902,"bbebcbebc":10903,"efbdee":10904,"bbebbeeee":10905,"fbbe</w>":10906,"bdccdd":10907,"dcbddf":10908,"bffdcc":10909,"debbfec":10910,"fbdddc":10911,"bbbecbcc":10912,"ececebe":10913,"bbdeebbbb":10914,"beebbeec":10915,"eebceebd":10916,"dbbeca":10917,"ecefccc":10918,"bebbc</w>":10919,"bbfbcbe":10920,"ecfdbbc":10921,"bcbcbcbcbcbcbcbcbcbcbcbcbcbcbcbc":10922,"bececebb":10923,"feeded":10924,"eebcddc":10925,"bbbbecbe":10926,"dbcfebb":10927,"ddddddc":10928,"beddedc":10929,"dbbdcbc":10930,"bbbbbbbbbebbbb":10931,"bfcdfc":10932,"beccbbee":10933,"edbcbbbc":10934,"ebcedbf":10935,"bdcfef":10936,"debebebc":10937,"ecdcdf":10938,"dbeecbd":10939,"bebebcbe":10940,"febcccc":10941,"bbabbd":10942,"beeffee":10943,"bbedbeee":10944,"dbbdff":10945,"eebfeeee":10946,"becbebcc":10947,"dddddbd":10948,"bebdbcbc":10949,"abcdc":10950,"ebbbbdbd":10951,"ebcbcbec":10952,"dccfdd":10953,"beecdfc":10954,"ebabbc":10955,"ecbfbbc":10956,"ddfbbd":10957,"bbbeeebbbb":10958,"bbbffbd":10959,"fedebe":10960,"bcebbbbbc":10961,"eceebfc":10962,"beccbbec":10963,"ebdeced":10964,"eeecbbbd":10965,"febefee":10966,"edbbbbbbc":10967,"bbebebbec":10968,"debeeec":10969,"ddbdebb":10970,"ebbeebdc":10971,"bbbeeebe":10972,"dedbedc":10973,"dccba":10974,"acfbc":10975,"febefc":10976,"bdbeefc":10977,"bfccfc":10978,"bcbdecc":10979,"bdbcbbec":10980,"ebceebbbb":10981,"deebcdc":10982,"ebecefc":10983,"dbfbbec":10984,"ebdcbbd":10985,"fdcdbd":10986,"deecfc":10987,"edfefc":10988,"ebceefc":10989,"eebbebbcc":10990,"ebfcccc":10991,"eebdded":10992,"dceceec":10993,"edbbefc":10994,"dbebcf":10995,"edccebd":10996,"deedebc":10997,"dbeeeebb":10998,"defedc":10999,"eeccebcc":11000,"dbbcdec":11001,"fdcfed":11002,"ebbbcdbd":11003,"bbbbbdcc":11004,"ecbcddc":11005,"eceeebbc":11006,"ececbbbc":11007,"feebccc":11008,"debbbbcc":11009,"bbcbdebb":11010,"befdbec":11011,"beebeebf":11012,"ebcbeecc":11013,"dbccbcc":11014,"becbbeec":11015,"dbbecbbd":11016,"acebd":11017,"fbedbbbb":11018,"ecbcbeee":11019,"bbbbbdbf":11020,"bbdcfbc":11021,"dbedeec":11022,"beedbebe":11023,"fafc":11024,"dedcccc":11025,"bbebbbeec":11026,"aecbf":11027,"ebbcfbf":11028,"bdbdfc":11029,"bdfbecc":11030,"fccbeec":11031,"edccbbc":11032,"dbdcdd":11033,"eebcbeec":11034,"beebbfee":11035,"fdcfee":11036,"eefbdcc":11037,"eceeba":11038,"bbebebbcc":11039,"bbdcbbee":11040,"cccbbec":11041,"debcbbbe":11042,"deccdd":11043,"efbceec":11044,"eccbbebc":11045,"dbbdbcc":11046,"eceebebe":11047,"deefebb":11048,"fecea":11049,"beebbbbd":11050,"dbceedc":11051,"becccccc":11052,"dccbebd":11053,"bcedbcc":11054,"edbdbec":11055,"dcfdcc":11056,"ebecbebd":11057,"dabcc":11058,"bedcbebc":11059,"adeec":11060,"bdcbcee":11061,"edcecdd":11062,"efcbccc":11063,"defbef":11064,"ecbcbbbd":11065,"ebbcbbef":11066,"bdedbec":11067,"bbeebeef":11068,"fedebd":11069,"bcecebf":11070,"bebfdbe":11071,"eebfecc":11072,"fbbbac":11073,"ebccfbd":11074,"bbeecdf":11075,"ebbbebbed":11076,"ddeebbc":11077,"dbbbddf":11078,"fbcbccc":11079,"bcdcbbc":11080,"beeedbbc":11081,"beccdbd":11082,"bbadf":11083,"ebbdbbbbc":11084,"bdcb</w>":11085,"befdebe":11086,"feecdf":11087,"ecdd</w>":11088,"dbceeed":11089,"fbcdebe":11090,"bbebbeebc":11091,"debbbebd":11092,"bebecbbbb":11093,"acfee":11094,"dbbdeec":11095,"bdcbbebe":11096,"bbbbcbfc":11097,"ebbbbcbbbb":11098,"bbfbdbd":11099,"bbcceecc":11100,"bbdcbebc":11101,"bbebbdbbbb":11102,"bdeeebbc":11103,"bdbbbbbbbd":11104,"ebebbbdc":11105,"fecda":11106,"fbfbbee":11107,"deccdec":11108,"ecdcbec":11109,"bdbbbccc":11110,"eeddeec":11111,"ebbfbbebb":11112,"eeebbbef":11113,"faff":11114,"bdeeba":11115,"ecfbbed":11116,"edbddbc":11117,"bccdebd":11118,"bbcbea":11119,"eeecbbec":11120,"efbbccc":11121,"ddbebbbb":11122,"deeeccc":11123,"bbcbddc":11124,"fdceecc":11125,"efbeecc":11126,"feddbf":11127,"befeecc":11128,"bcbcdebb":11129,"edbcdcc":11130,"bbdebbcc":11131,"beecbbed":11132,"bffbfc":11133,"fbdeebc":11134,"bccbeebe":11135,"bfcecbc":11136,"bbbedbec":11137,"ebfda":11138,"febebbee":11139,"bcdcdbe":11140,"bdfdfc":11141,"eebbcbbbb":11142,"ebebca":11143,"bbcc</w>":11144,"bbcbdbc":11145,"bbbebcbbc":11146,"dbbcbebc":11147,"bbdebbebb":11148,"bbfdbec":11149,"bcbcbbed":11150,"eecfedc":11151,"fccddc":11152,"bcbedbec":11153,"fbbd</w>":11154,"ebedbbbc":11155,"bcfdbec":11156,"ebdcbebe":11157,"ebfbcebb":11158,"ffbeef":11159,"bbbecfc":11160,"bdeebbbd":11161,"beceebe":11162,"efbebbf":11163,"eedcdcc":11164,"fecdecc":11165,"beddccc":11166,"bebbcfc":11167,"aecbd":11168,"eaebbc":11169,"bedddec":11170,"fbcbbebb":11171,"bcbcbebd":11172,"bceebebd":11173,"dfcded":11174,"beebbebd":11175,"bcbecccc":11176,"ebcfbbd":11177,"debbbeee":11178,"befcfc":11179,"bccccccccc":11180,"bceacc":11181,"deefdc":11182,"bdbbac":11183,"bbbbbded":11184,"dbdeeee":11185,"ebecbeee":11186,"ebecbbebb":11187,"fedbbbc":11188,"bcbdebf":11189,"bbabec":11190,"eebfbebe":11191,"ebbbbefc":11192,"bbccbebd":11193,"feefcc":11194,"bcbebbfc":11195,"efbebbd":11196,"babebd":11197,"bffdbd":11198,"dfcebd":11199,"bbbbdbbf":11200,"bbffa":11201,"fbdfcc":11202,"beebbdf":11203,"dbbdebd":11204,"fdddec":11205,"fbebdbd":11206,"bfbcbfc":11207,"dcebbbc":11208,"bcecdebb":11209,"ecdcdec":11210,"eeddbec":11211,"bbfbedc":11212,"febbbeee":11213,"fbdbecc":11214,"bcccded":11215,"bcecdeec":11216,"eeebbccc":11217,"bfbddf":11218,"aeda":11219,"eecfebe":11220,"dbbcded":11221,"eebfbbbe":11222,"ebefbbd":11223,"dbebbfc":11224,"dfcdbd":11225,"dcdbecc":11226,"bbfbbdd":11227,"bebebbebc":11228,"bfbeebf":11229,"ececfbc":11230,"beebeccc":11231,"eebebbebc":11232,"bcbfbcc":11233,"ebccbeec":11234,"dbbbbccc":11235,"dbeecbe":11236,"ebbfbbec":11237,"bcfebdc":11238,"bfbeccc":11239,"effebf":11240,"ebeebbee":11241,"bbffbbbb":11242,"bbeebcbd":11243,"beedbfc":11244,"bbbbbcbbbc":11245,"bbebbedc":11246,"bbcbebcc":11247,"bcdebbcc":11248,"bbdbcbbd":11249,"dbcac":11250,"feeeeebe":11251,"ecddedc":11252,"bbcebbebb":11253,"bbfeeebb":11254,"bbebbdec":11255,"dbebbbec":11256,"fcbbebd":11257,"ffbcdc":11258,"dbbebbdc":11259,"bfcceec":11260,"dbbdbebe":11261,"bececed":11262,"bbbcb</w>":11263,"bbbefdc":11264,"defba":11265,"bbebebcbc":11266,"bfcbbbbc":11267,"bebcdebc":11268,"bbbffec":11269,"efddcc":11270,"dccdebb":11271,"bbdfeec":11272,"efcbcbd":11273,"bebbbb</w>":11274,"ebbdea":11275,"fcc</w>":11276,"bbbefed":11277,"bbefbeee":11278,"efbdf":11279,"bbecdebe":11280,"fcbdec":11281,"deebcebb":11282,"bbbbebbbbbe":11283,"eabcbc":11284,"fbebbbec":11285,"becfebe":11286,"becfa":11287,"bbabcc":11288,"bfeeff":11289,"ebebcbbd":11290,"ebfbcbf":11291,"bbedfec":11292,"dbcbeebb":11293,"dbcfdd":11294,"ffbbbbc":11295,"beecdbf":11296,"eebcfee":11297,"bbccddc":11298,"bbbfedc":11299,"effebd":11300,"deceebd":11301,"bfdded":11302,"ebbbbbecc":11303,"ebceeef":11304,"efcbbebd":11305,"fbcfbf":11306,"eecdbbbe":11307,"fffbbc":11308,"bebebebbbe":11309,"ecbccccc":11310,"bebfecc":11311,"ebbebbebbebb":11312,"dbddebc":11313,"ecbcdebb":11314,"edfded":11315,"fbdfed":11316,"ecccbfc":11317,"eceebbbd":11318,"fefbeee":11319,"ffbced":11320,"beccbcbc":11321,"ebffbbc":11322,"bbbceeec":11323,"bcccfcc":11324,"dbccebe":11325,"ebbeedf":11326,"bebebedc":11327,"fcefcc":11328,"bbeceecc":11329,"bafbf":11330,"beefccc":11331,"ebbbbfcc":11332,"bcecfec":11333,"bebbefcc":11334,"dbbbfdd":11335,"bbceeebc":11336,"becbbebd":11337,"dbdfed":11338,"eacea":11339,"ebdcded":11340,"dfbcef":11341,"dbebebbbb":11342,"febbbef":11343,"bdbcfee":11344,"bebbbbbbbbbbbbbbbb":11345,"ebbccfee":11346,"edfba":11347,"deeda":11348,"bbfbeebe":11349,"bbbbbbbbdbbbb":11350,"deecebd":11351,"bcebbccc":11352,"bbfcebc":11353,"edbbbbbd":11354,"bbdcbfc":11355,"bbddded":11356,"bbebeeeee":11357,"ecfebdc":11358,"acbef":11359,"bbefba":11360,"edbeba":11361,"edfea":11362,"bdeebcbc":11363,"efbebbee":11364,"ddbcebe":11365,"bbdfdf":11366,"edbebbec":11367,"bcbdbebc":11368,"efbcdf":11369,"bbedfee":11370,"eeceebbc":11371,"bebebbbec":11372,"eecccccc":11373,"beefbbee":11374,"bfbcbebc":11375,"bfbcfbc":11376,"decbbbf":11377,"beebbbbbd":11378,"abbbcc":11379,"ebebeebf":11380,"efcebec":11381,"bbdcded":11382,"bcfcdf":11383,"ebbfbbcc":11384,"efeebbbb":11385,"ebebceec":11386,"ffbbfc":11387,"dbcecbd":11388,"bbbebbeec":11389,"bdbdccc":11390,"ebbbcecc":11391,"daeca":11392,"bbabbbd":11393,"beddfc":11394,"bcbbbbbbbbbbbbbbbb":11395,"efceedc":11396,"eebeebbebe":11397,"bedcbdc":11398,"debdbbc":11399,"dbfebbc":11400,"fdcebf":11401,"befdebc":11402,"fbdbbec":11403,"fdcbbbb":11404,"eeebbbbbc":11405,"beadd":11406,"ebcceebd":11407,"feceebc":11408,"ebdbebbd":11409,"acdbd":11410,"deccebc":11411,"eeecbbee":11412,"ecedbcc":11413,"ebefbbbe":11414,"edcbdcc":11415,"beebbdd":11416,"bebbebecc":11417,"bcbedbbbb":11418,"bebfbebc":11419,"bdeeddc":11420,"fceeebc":11421,"bbdeba":11422,"debbfee":11423,"bdeeebf":11424,"dbcdeec":11425,"acebf":11426,"efbdbbc":11427,"beeebebd":11428,"bbdbdbbc":11429,"fcfccc":11430,"ecbebbdc":11431,"bceeea":11432,"bceedbec":11433,"eeeebbbd":11434,"defbcbc":11435,"beebebef":11436,"dbcdbec":11437,"eeefbebe":11438,"afbbbb":11439,"bbbcbbfc":11440,"defbebc":11441,"beefbbf":11442,"bdeebbcc":11443,"efbac":11444,"efdcbd":11445,"ebdbbbcc":11446,"dbbecdbe":11447,"bcfbbbec":11448,"fdddbe":11449,"ecdc</w>":11450,"ebceeebc":11451,"ebdebfc":11452,"ffbdcc":11453,"fbcfebb":11454,"eecfeec":11455,"ddecee":11456,"ebceba":11457,"dabdc":11458,"eccbeebe":11459,"ebedebbc":11460,"eecefcc":11461,"dbbdddc":11462,"defdbf":11463,"bebfbdc":11464,"dcfdbd":11465,"ebbcbcec":11466,"dbbedebe":11467,"deebbef":11468,"dccecbc":11469,"beeeddc":11470,"eefdebc":11471,"edceddc":11472,"dbbeceec":11473,"fbdbcbc":11474,"deffcc":11475,"bdbebbdc":11476,"acbfc":11477,"ecdcdbe":11478,"bfeddf":11479,"efceebd":11480,"deddebc":11481,"ebecddc":11482,"bebbcbbf":11483,"beefbebe":11484,"ebbcbedc":11485,"bbebbfebb":11486,"bbbfdbf":11487,"beccbebd":11488,"bddcccc":11489,"fcbbeec":11490,"eccfebd":11491,"befcccc":11492,"eeecbbcc":11493,"ebbbedcc":11494,"bbbcbcbf":11495,"debda":11496,"bfeebebe":11497,"dbdbeed":11498,"ececbccc":11499,"fbcecbc":11500,"ecfbbdc":11501,"edbe</w>":11502,"fce</w>":11503,"bcbedfc":11504,"efbcbbd":11505,"fbeecbd":11506,"dceeedc":11507,"becbcef":11508,"fffebe":11509,"deebbebe":11510,"fecbccc":11511,"fbdbeec":11512,"bbcbcebc":11513,"bbbeeebf":11514,"eaeba":11515,"ececbfc":11516,"eecedbd":11517,"bbecdebc":11518,"feebeec":11519,"eebcebec":11520,"bbcbcbec":11521,"ecbebdcc":11522,"ececbebc":11523,"ebcfdf":11524,"dbbcbef":11525,"acbebc":11526,"bcecbbee":11527,"eabbcc":11528,"eebcfed":11529,"ebdbdbf":11530,"bcebebbbb":11531,"bbbebbebd":11532,"deebedc":11533,"bebbbebbee":11534,"aeedc":11535,"fccbbee":11536,"bbefdbc":11537,"dcdcccc":11538,"fcebbcc":11539,"bebebeed":11540,"ecccbbbb":11541,"dbbcebf":11542,"dcbcdec":11543,"beebbbbcc":11544,"efbda":11545,"bdecebe":11546,"ddbebec":11547,"eacba":11548,"bbbbbbbbbbbbbbbe":11549,"bbebcbcc":11550,"beeebeec":11551,"fbebbdd":11552,"bebbbbbbd":11553,"beccbef":11554,"edcefcc":11555,"ebbcdebc":11556,"fbbcbcc":11557,"ddfdbe":11558,"ebddccc":11559,"ecdbba":11560,"ddeeef":11561,"dfbbebe":11562,"bbfecbd":11563,"eefeba":11564,"ecbebbbec":11565,"dbbcbbec":11566,"bcfbbebe":11567,"bdcdbcc":11568,"ebecdbf":11569,"febebcc":11570,"bffdbb":11571,"ebbbbebcc":11572,"deefbf":11573,"dbcbedd":11574,"bbbbcdbbbb":11575,"fbcffc":11576,"bbdbbecc":11577,"bfcbbdc":11578,"fbdea":11579,"bcecfee":11580,"effbef":11581,"decda":11582,"ecbedbec":11583,"ebbeeba":11584,"bbcfeec":11585,"dfbedd":11586,"deebebbc":11587,"fccfdd":11588,"fbcbcbd":11589,"beccbbcc":11590,"bcedebc":11591,"ebbceeec":11592,"eecbebec":11593,"dbbebbef":11594,"dedeebc":11595,"dedda":11596,"fccea":11597,"bbebcbebe":11598,"edbdbbbb":11599,"eccedbf":11600,"bdcecbd":11601,"eebddcc":11602,"dcdbbcc":11603,"eecbeecc":11604,"dfdbcc":11605,"bbbcbcbe":11606,"fccbebd":11607,"bcecedc":11608,"ebddbbf":11609,"dfecbf":11610,"fbdbebd":11611,"fcbcebc":11612,"eeeefbe":11613,"bceeebcc":11614,"ecfdebc":11615,"fbbc</w>":11616,"bfecbbd":11617,"eccbeef":11618,"eccecebb":11619,"deedeec":11620,"dbeb</w>":11621,"ecceebbc":11622,"fbecbbc":11623,"ebbffcc":11624,"ebfdebc":11625,"ddbeebc":11626,"febebbf":11627,"bdccbec":11628,"ebebeff":11629,"bdfdebe":11630,"abcbbc":11631,"edfbbbd":11632,"ebee</w>":11633,"fedefc":11634,"ddbdec":11635,"bbbefef":11636,"deddecc":11637,"edbbbbebb":11638,"dcbeebf":11639,"bebcbbdc":11640,"eccdbbd":11641,"bdbcdcc":11642,"fcecebb":11643,"bbeedbec":11644,"dbbedbbbb":11645,"bbbdbecc":11646,"eeeeeebeee":11647,"bceeecbc":11648,"abded":11649,"ecfbdcc":11650,"dfeedc":11651,"ebebcbcc":11652,"fceebe":11653,"ebeebbef":11654,"deedfc":11655,"beeebecc":11656,"ebebbccc":11657,"fffa":11658,"beeeeeef":11659,"ebccfee":11660,"ebcebecc":11661,"bebcbbebe":11662,"eccbddd":11663,"beceef":11664,"eebcbbed":11665,"ecfdef":11666,"bdbcedc":11667,"bcfbdcc":11668,"edfbeee":11669,"dbebeebe":11670,"eecbea":11671,"edbcbebe":11672,"ebbbcbdc":11673,"ecdeac":11674,"bbdbedbe":11675,"bbecddc":11676,"deecbdc":11677,"febca":11678,"efdded":11679,"dbfddc":11680,"dcfdec":11681,"befbcbf":11682,"bbdeeebc":11683,"dbdbbbbc":11684,"bbbdbbebe":11685,"bddedcc":11686,"dfecdc":11687,"decbbdc":11688,"bdbcbfc":11689,"eceddbc":11690,"becfecc":11691,"dbefef":11692,"ebccbecc":11693,"ddecebb":11694,"bbcbcbcc":11695,"decfdc":11696,"fedbecc":11697,"ecbedebe":11698,"bcccbbbe":11699,"eeebbbcc":11700,"bbddbebe":11701,"bbfcbbbc":11702,"bbcfbcc":11703,"bcbbcbbbc":11704,"fbbcff":11705,"babeebb":11706,"eeeefebe":11707,"befeebd":11708,"bbecfbe":11709,"bbcbbccc":11710,"edcdccc":11711,"edbddbd":11712,"bbebbcbbbb":11713,"becbea":11714,"eecebfc":11715,"dbeebdc":11716,"eceeded":11717,"fceefc":11718,"bbcbbbdc":11719,"bbcbebbd":11720,"bcbcbecc":11721,"bcedded":11722,"abebbbb":11723,"bedcdbc":11724,"eccbcef":11725,"fbccccc":11726,"bbbdbbeec":11727,"bbcceebd":11728,"ebbbdbbbe":11729,"cccccccccccccc":11730,"bafbe":11731,"ebbcbebbc":11732,"dccbbed":11733,"dccecdc":11734,"ecfbbebb":11735,"efdbbbc":11736,"ebeedbf":11737,"ebdbeebc":11738,"ffbeebb":11739,"ebbbebbbbc":11740,"bccbdbf":11741,"ebbcfdc":11742,"bdcda":11743,"dedcbec":11744,"bfceebd":11745,"bcbceebc":11746,"dcdeccc":11747,"efeefc":11748,"bbcbfbf":11749,"bccebfc":11750,"deebbebc":11751,"ebccfdc":11752,"bdbebccc":11753,"ebefecc":11754,"bbbbeebbc":11755,"ebeeebbf":11756,"beecbbebb":11757,"bcbbbfcc":11758,"eecb</w>":11759,"ebdecbf":11760,"dfbebbc":11761,"fecdeec":11762,"eeecbef":11763,"ebabba":11764,"bdbebbebe":11765,"ebbcfebb":11766,"efcdbec":11767,"dbffdc":11768,"efbeba":11769,"bcbdbbee":11770,"efebbbf":11771,"bbdeefc":11772,"ebfbebbc":11773,"bbbbbbbbbcbbbb":11774,"aeeef":11775,"ebebdbbc":11776,"bbdeebec":11777,"edfddc":11778,"beeebbed":11779,"edbbdbd":11780,"dcffcc":11781,"eeceddc":11782,"bbbbbbccc":11783,"bcceddc":11784,"bdbeebec":11785,"bddbbebe":11786,"bccbfcc":11787,"bebdbbebb":11788,"ecbcfee":11789,"dcefbf":11790,"bcbebdcc":11791,"deddfc":11792,"beeebccc":11793,"bcbdbef":11794,"bcbdbcbc":11795,"ebbbcbebc":11796,"bfbcbebe":11797,"fcbcebe":11798,"dbbedebc":11799,"efbbbdc":11800,"bccdccc":11801,"bccbcdd":11802,"efcdbbc":11803,"eeedbdc":11804,"eecebbcc":11805,"cccbeec":11806,"bfbcebd":11807,"bbceefc":11808,"bbbebeef":11809,"bbfeccc":11810,"bdecbdc":11811,"bbbbdbbbc":11812,"dfbbfc":11813,"fbdeecc":11814,"bbbeca":11815,"efeebbee":11816,"becedcc":11817,"dbbbfef":11818,"fdddee":11819,"bccfbec":11820,"efbfed":11821,"ffdbcc":11822,"ebbcbdbd":11823,"eebcbbebb":11824,"ebdcfec":11825,"efbcbcc":11826,"ebec</w>":11827,"bdedccc":11828,"debbdcc":11829,"eeefbbee":11830,"edbcded":11831,"bbdcdcc":11832,"bceeebec":11833,"bbbcbced":11834,"bbdfbcc":11835,"babeec":11836,"fbcbcec":11837,"deecbebc":11838,"bebffee":11839,"eceddbe":11840,"eedbac":11841,"bececbf":11842,"bab</w>":11843,"bebeac":11844,"effbbbe":11845,"bebeeecc":11846,"dbbcdbbc":11847,"eeceebe":11848,"eecbddc":11849,"ffbedc":11850,"bbbecbbf":11851,"efdebf":11852,"ebebdbec":11853,"ebceebec":11854,"eecdcdc":11855,"dcabdbf":11856,"ebdcbfc":11857,"bcdcdec":11858,"adda":11859,"dbceebe":11860,"eeeedee":11861,"dfcbef":11862,"beddbbbb":11863,"eccbcfc":11864,"fbcbbbbc":11865,"dbfefc":11866,"ecbddcc":11867,"beecbeed":11868,"ebdd</w>":11869,"bbbefebe":11870,"bbdddbbbb":11871,"bbbffcc":11872,"ddfeec":11873,"dbedbbd":11874,"fedfee":11875,"bbedbbcc":11876,"bbddedc":11877,"fbceedc":11878,"bceefee":11879,"ad</w>":11880,"bbbdea":11881,"ecbdbbf":11882,"ae</w>":11883,"ebfbdcc":11884,"bebebced":11885,"beecebcc":11886,"beccbedc":11887,"ebefdbe":11888,"debedbd":11889,"eceecccc":11890,"bbcedcc":11891,"ffeecc":11892,"bacda":11893,"eececdd":11894,"dbeeeec":11895,"eefdbec":11896,"bbbbbbbbbbf":11897,"ebcbebbf":11898,"fdddbc":11899,"ffbeed":11900,"bebcddc":11901,"ecbcefc":11902,"fcedbd":11903,"eeeecccc":11904,"beccebec":11905,"bceefbd":11906,"fcbebec":11907,"befeeebe":11908,"debeebf":11909,"dceebbf":11910,"defbbee":11911,"ebbeedbc":11912,"aeeed":11913,"bbceeebe":11914,"eecbedbe":11915,"fbcdebc":11916,"bbebbeeebb":11917,"beecfbd":11918,"eeeebbcc":11919,"bcfda":11920,"bebfdbc":11921,"bbbbdbcc":11922,"ebeecf":11923,"dbdd</w>":11924,"befbcebb":11925,"dcbcdbc":11926,"bbfcdd":11927,"edbbea":11928,"bebfbbd":11929,"bdbedbbc":11930,"aecec":11931,"bccdbbd":11932,"bbbeda":11933,"efcdecc":11934,"ccceecc":11935,"ecdcebd":11936,"fbbebecc":11937,"bebfbeee":11938,"dffdf":11939,"dbddddd":11940,"eccfbcc":11941,"dccea":11942,"dcebbdc":11943,"bfbedbc":11944,"ebbeebbd":11945,"debbbbbbc":11946,"dcbcbbf":11947,"bbbeebdc":11948,"eddb</w>":11949,"ebbdeecc":11950,"bbcbedbe":11951,"becfeec":11952,"dbdbddd":11953,"febbfbc":11954,"ebddddd":11955,"bcbdfee":11956,"bcdcdebe":11957,"eceeac":11958,"edeb</w>":11959,"deebdcc":11960,"ecbdded":11961,"aeeebe":11962,"bbccebcc":11963,"bbbbbcdd":11964,"eecdbbf":11965,"ecbbb</w>":11966,"efbdebe":11967,"dbefbbc":11968,"bbbcac":11969,"bbdcfec":11970,"bfeedbe":11971,"dcbedbb":11972,"bbdcbef":11973,"eddbdcc":11974,"fccffc":11975,"ebdfbec":11976,"bdbdbebe":11977,"ebceebcc":11978,"fccdfc":11979,"beecebec":11980,"dbbcbcbc":11981,"ecceefc":11982,"dbfdebb":11983,"bbedbecc":11984,"bbbffbf":11985,"ecdcdbc":11986,"becbdebb":11987,"ffebdc":11988,"ecbdbebe":11989,"bedceecc":11990,"bbbfdebb":11991,"ecbeebdc":11992,"bcbdfbc":11993,"eebebbbec":11994,"bbeecbbbb":11995,"bfbbbbcc":11996,"ebefebd":11997,"decdedc":11998,"debebcbc":11999,"bcecdef":12000,"bdecdbd":12001,"bebbebccc":12002,"dcdebcc":12003,"becbedbe":12004,"ecccbbbe":12005,"eddbbbbc":12006,"febbebd":12007,"befbced":12008,"eafbe":12009,"becceedc":12010,"fcbfdc":12011,"deececc":12012,"fddedc":12013,"feddfc":12014,"bebfbfc":12015,"edbcbfc":12016,"bbeceedc":12017,"beedbbbc":12018,"bcfbbebc":12019,"fcbdebb":12020,"fddfec":12021,"eebdbbbd":12022,"bbbbeeebe":12023,"bbbbbbba":12024,"ebbcbbdd":12025,"bbceebbbb":12026,"bdecff":12027,"eccfbec":12028,"dedebcc":12029,"edbdebd":12030,"dceebdc":12031,"dffebe":12032,"fccebec":12033,"efbcecc":12034,"debebbcc":12035,"bcccbbcc":12036,"ebbbbbbbbbd":12037,"befbbebc":12038,"bbedbcbc":12039,"dddbbbc":12040,"bdceebf":12041,"bdfdbbc":12042,"bfeebeee":12043,"bbabea":12044,"eeecddc":12045,"bbebbebbebb":12046,"bccbebbbb":12047,"fefebf":12048,"bccbcbcc":12049,"efdbfc":12050,"dcfdbb":12051,"bbbbffc":12052,"ebbcdfc":12053,"beebefee":12054,"bedddee":12055,"fbdbbcc":12056,"bbebedbc":12057,"ebebeebd":12058,"decfbe":12059,"eebcea":12060,"bccbbccc":12061,"bbbceeebb":12062,"efceccc":12063,"feebecc":12064,"ecedbec":12065,"bfeeecc":12066,"fedbeec":12067,"beddebc":12068,"bdbcbeee":12069,"bbafc":12070,"bbcdbbbc":12071,"eeccbecc":12072,"ebbbcbbec":12073,"dceedbc":12074,"eecfbec":12075,"ebebebdc":12076,"bebeeebe":12077,"fedebf":12078,"ebfcbec":12079,"ddedbf":12080,"fddebc":12081,"fcdbfc":12082,"fccbbec":12083,"dcfbbbc":12084,"dbbdebc":12085,"dcbebbbc":12086,"bdecebd":12087,"bdecbbd":12088,"bbcfdf":12089,"eecbebbd":12090,"defbbec":12091,"fdcbebc":12092,"bbedebec":12093,"eeceef":12094,"efbeebf":12095,"edeebebe":12096,"dbccebc":12097,"abcef":12098,"dcceeec":12099,"feecccc":12100,"efbdebc":12101,"decea":12102,"bcccebf":12103,"dbecdbd":12104,"edfbbcc":12105,"ebebcbbbe":12106,"bbfcccc":12107,"bdcdebd":12108,"bceebbbf":12109,"fabba":12110,"eecbdbf":12111,"beeefebb":12112,"defcdf":12113,"edbbebec":12114,"befebdc":12115,"defded":12116,"eceedbbc":12117,"bbbbeccc":12118,"ddeba":12119,"dccbeed":12120,"ecbdbbd":12121,"bbfbbbcc":12122,"bcbdded":12123,"bbbdfbe":12124,"acbcbc":12125,"fdcbebe":12126,"bbfebdc":12127,"ecbfedc":12128,"beeeeebe":12129,"eeccbebe":12130,"bfbeedc":12131,"dfdbbbb":12132,"bbefbbebb":12133,"ececbbec":12134,"ebdbcbbc":12135,"ccceccc":12136,"ecbcfbd":12137,"ebbbcbbebb":12138,"bcbdedc":12139,"bbfcbbbe":12140,"bedddbe":12141,"bfecff":12142,"beebbebbc":12143,"bdececc":12144,"dbbedef":12145,"fecdbec":12146,"acbebe":12147,"bebbcebc":12148,"fbcbebf":12149,"dbbecbcc":12150,"eebdebf":12151,"eeecdebb":12152,"bdfda":12153,"edbc</w>":12154,"bbfdbbd":12155,"bbdcfee":12156,"dbbbebbbe":12157,"dbcdbbd":12158,"bbeddbf":12159,"febbecc":12160,"bbbbbcef":12161,"ebdfbcc":12162,"dbbbd</w>":12163,"ecbedfc":12164,"deefbbc":12165,"bbccbbbf":12166,"bbdcbbec":12167,"eefebdc":12168,"dcdea":12169,"deecdbd":12170,"beedbeec":12171,"dbccff":12172,"debeebbc":12173,"bfecdec":12174,"bbdbeebd":12175,"dbcbbebe":12176,"eeccbbee":12177,"ffcdec":12178,"ecdcbcc":12179,"ebebedbe":12180,"bcbcefc":12181,"bcbeda":12182,"ecbdbbbe":12183,"bfdbecc":12184,"bbdbebcc":12185,"dccbedc":12186,"beccbeec":12187,"bcbcbcec":12188,"bbdddec":12189,"fefbec":12190,"bdbcfec":12191,"ebcecf":12192,"fccbbcc":12193,"debdfc":12194,"debebfc":12195,"bbbbbdbbbd":12196,"bbcecbbc":12197,"befeeebb":12198,"bbbbebbbbbbbbbb":12199,"dfedbd":12200,"eebcbedc":12201,"bbebcdbe":12202,"bfbbbbbbc":12203,"bbbbebbcc":12204,"bdceebe":12205,"edcebfc":12206,"bcbfdee":12207,"fbbbbbbbc":12208,"bbdcebbc":12209,"bcbbeba":12210,"dbbedec":12211,"dbbcbfc":12212,"debcebbc":12213,"ebdbcfc":12214,"bdceeebb":12215,"ddcdebb":12216,"dcbddee":12217,"becbdbf":12218,"ecceded":12219,"beeddebb":12220,"bedeac":12221,"beccbbbd":12222,"ebccdebb":12223,"debebbbd":12224,"bbbbebbbbc":12225,"febcfc":12226,"bbcbeeec":12227,"bcccddc":12228,"ebbfea":12229,"cccbeee":12230,"defebbc":12231,"ddebbcc":12232,"edbedbf":12233,"dbbebbdd":12234,"bcccfbc":12235,"bbfceec":12236,"bdbdbbbc":12237,"edceebe":12238,"bebbcbebe":12239,"edeedbd":12240,"ecbbbdcc":12241,"ddeeebe":12242,"bbefbfc":12243,"ddeefc":12244,"eccbedbe":12245,"ffeebf":12246,"bcebbfc":12247,"efbdfc":12248,"ddcdbf":12249,"bebffbc":12250,"ebbbcebbc":12251,"dcfbef":12252,"ebcecebc":12253,"befbedc":12254,"bcccbbd":12255,"bcecebbc":12256,"eeeddec":12257,"bcbebbeec":12258,"bbccbbed":12259,"beef</w>":12260,"bcbcdbf":12261,"bbebeba":12262,"dadbd":12263,"bebbbbdbe":12264,"bdbbcdbf":12265,"ebbdbbdd":12266,"becbcdd":12267,"dbcebdc":12268,"bbbfbebd":12269,"beecea":12270,"eebcebdc":12271,"ddfebd":12272,"edcfbbc":12273,"dbbebbbbd":12274,"beeefbf":12275,"daea":12276,"bebbcdbe":12277,"ebdefcc":12278,"efbeebd":12279,"ebcdbbbc":12280,"bcbedeec":12281,"edbcbbee":12282,"aecdc":12283,"bffdec":12284,"dcebdcc":12285,"dddebf":12286,"ebcbcbcc":12287,"deebcee":12288,"bdbdbcc":12289,"ddbdbbbb":12290,"ebbfbbbf":12291,"ebdecebb":12292,"dfb</w>":12293,"eeedeec":12294,"bbbeb</w>":12295,"dedbcbd":12296,"dfcbbd":12297,"fddecc":12298,"ebfeeef":12299,"dcdcdcc":12300,"ecdbbebc":12301,"ddbbeec":12302,"feceedc":12303,"fcceccc":12304,"beedecc":12305,"dbdecbc":12306,"bebcdbbc":12307,"bbebefee":12308,"ecfdbec":12309,"ecdeba":12310,"bbbeebbbbbb":12311,"ddcbbec":12312,"ddbb</w>":12313,"ebecbbed":12314,"beecbedd":12315,"bbbbbbebbc":12316,"bccbcbbbb":12317,"bebdefc":12318,"afdf":12319,"dfecec":12320,"becbebbd":12321,"bbeedbbbb":12322,"befeccc":12323,"ebcdced":12324,"eebdbfc":12325,"eeecfee":12326,"bdeddbe":12327,"ebcfbdc":12328,"dcdebec":12329,"bbbbcbbed":12330,"bbbbcba":12331,"debceecc":12332,"eebfedc":12333,"eedddbc":12334,"efeddd":12335,"dbdebcc":12336,"eeebbbbebb":12337,"bbbbeef":12338,"bdcbcbf":12339,"ebeceebc":12340,"fcbfed":12341,"ffdebe":12342,"dfcebf":12343,"ebdbdbc":12344,"bdcfbbc":12345,"bcccbebc":12346,"bbbecebe":12347,"bdcdbbd":12348,"ebdbcebe":12349,"bbdbeeec":12350,"bceedef":12351,"eacdbf":12352,"fdeac":12353,"bebbbebebe":12354,"bbebddf":12355,"efbbedc":12356,"ddbea":12357,"eecfbcc":12358,"bbeffbc":12359,"bcecbecc":12360,"bdbbeecc":12361,"beebbecc":12362,"bbcfbbd":12363,"bdcbcdc":12364,"ebdcebbc":12365,"dbccdbc":12366,"dcbbdcc":12367,"bececbbc":12368,"bccecebb":12369,"efcbbed":12370,"beebbbebc":12371,"ebcbbbbbbbb":12372,"ffecbd":12373,"bbecbcbd":12374,"fccdbf":12375,"feddebb":12376,"bfceedc":12377,"bcecbeee":12378,"cccccccccccccccccccccccccccccccc":12379,"bbddbdbd":12380,"fefbbee":12381,"bbbebdcc":12382,"dcedccc":12383,"fecbeee":12384,"ffbeebe":12385,"ecceeef":12386,"ebaba":12387,"eebbbfcc":12388,"bbcbdef":12389,"deedebe":12390,"bcbbbbbbebb":12391,"ebbbddbe":12392,"bbdbcfc":12393,"dbbecdee":12394,"bdeebbebb":12395,"ebbbedebb":12396,"efeebeee":12397,"ecbebbebc":12398,"bbecdbec":12399,"bbeedebc":12400,"fbebdbf":12401,"afba":12402,"ebcecbec":12403,"beecdecc":12404,"beedebd":12405,"fcecf":12406,"bbbebcf":12407,"dcedbcc":12408,"bbefeec":12409,"ebbfcdc":12410,"eadebb":12411,"bbbdbebf":12412,"fefbef":12413,"ecdebecc":12414,"dcbedbd":12415,"dbceccc":12416,"dcceedd":12417,"bebdeecc":12418,"eccbba":12419,"eceacc":12420,"ddddccc":12421,"eeedbbbb":12422,"beefbef":12423,"bbeccccc":12424,"deebdbd":12425,"decebdc":12426,"beededc":12427,"fdfccc":12428,"eccbbbcc":12429,"eceebeee":12430,"bbcbdbbc":12431,"bbdbdbbd":12432,"deebcbf":12433,"bdee</w>":12434,"dcbebbee":12435,"bbcbcbbd":12436,"ffdebc":12437,"bebddcc":12438,"bcbbc</w>":12439,"bbbedbbd":12440,"fbedbcc":12441,"ebcbeebd":12442,"feefbd":12443,"dfcfbc":12444,"dbddbec":12445,"bfbdbec":12446,"bbdfecc":12447,"eebeedcc":12448,"bbbecbbee":12449,"ebcbbbdc":12450,"deceeec":12451,"bbccfed":12452,"edeeddc":12453,"dfeebf":12454,"bebcbebf":12455,"bcbcddc":12456,"dbdfdc":12457,"eeeeeef":12458,"ddecf":12459,"bccbebec":12460,"bdcbdcc":12461,"bfcdebe":12462,"dcfcdc":12463,"bedcbebe":12464,"bbcbedf":12465,"efecbec":12466,"eafcc":12467,"deddbbc":12468,"ebecbcbd":12469,"ebbbbbccc":12470,"babecc":12471,"bbbcdebc":12472,"abdac":12473,"bccbddc":12474,"bafa":12475,"decdebd":12476,"eabbed":12477,"bddbbef":12478,"feefebe":12479,"bebcdef":12480,"eddcedbbc":12481,"eadef":12482,"ebecbbbf":12483,"ebcbfdc":12484,"dbcbcdc":12485,"bbebebbbf":12486,"eeebbbec":12487,"dfdbbd":12488,"bbbeeeebe":12489,"bbecdeec":12490,"edbebecc":12491,"dcfbebe":12492,"bdeedbf":12493,"bbdecbbc":12494,"bbeeac":12495,"ebfecbd":12496,"bcecfcc":12497,"beeffc":12498,"bdbcebbc":12499,"eeeeebd":12500,"eeccfdc":12501,"bdeefcc":12502,"bbcdccc":12503,"bbcfebd":12504,"bfcac":12505,"ecbcbbed":12506,"efeeff":12507,"feddef":12508,"ebebcebd":12509,"ebcfdbe":12510,"dbbdcec":12511,"bcfbba":12512,"eebdfec":12513,"dfcfee":12514,"beeddcc":12515,"bebfebd":12516,"ecdebccc":12517,"decceebc":12518,"fefdbe":12519,"bbbbcfbc":12520,"dfdeec":12521,"efcdedc":12522,"debbdbf":12523,"bcebbeec":12524,"ebceded":12525,"dbbeac":12526,"edbdedc":12527,"bdbcddc":12528,"bdbffc":12529,"edecdbc":12530,"bffebbc":12531,"bbbbbcbbbe":12532,"efecfc":12533,"dfbbebc":12534,"eceeebcc":12535,"bdecbbf":12536,"dcbbdfdd":12537,"dedfbd":12538,"bbbbbbecc":12539,"baefc":12540,"dbbcecc":12541,"eeebbeeebb":12542,"efbedf":12543,"ebebebbbc":12544,"bdbedef":12545,"debcfec":12546,"edcca":12547,"dceeddc":12548,"bebdfee":12549,"bbbbdebd":12550,"ebebeecc":12551,"debbeecc":12552,"eedcfec":12553,"febe</w>":12554,"cccbecc":12555,"dffbcc":12556,"bbbdbebbbb":12557,"fbbcbbbe":12558,"becbcebe":12559,"bdbcbbcc":12560,"deeecbd":12561,"bebddbf":12562,"bbebeebd":12563,"dcebbef":12564,"beeebcbd":12565,"edccfbc":12566,"daedc":12567,"ebbbcbef":12568,"bfebeebe":12569,"bbfbdcc":12570,"dbbefbf":12571,"dfcbbbc":12572,"fefbebe":12573,"dcfbfc":12574,"ebceedbe":12575,"deccff":12576,"bfdddd":12577,"bbbbeeed":12578,"ebedced":12579,"becefcc":12580,"beeeeebf":12581,"ebfffc":12582,"bfceeec":12583,"bdbeac":12584,"dcbedec":12585,"becbcebc":12586,"bbeceebd":12587,"ebecfed":12588,"ebfca":12589,"ebefbbee":12590,"becbeebd":12591,"bebceedc":12592,"deeeebd":12593,"eefdebe":12594,"febbbdc":12595,"fbebfcc":12596,"bebbcbcc":12597,"edbbebcc":12598,"bbdbfbf":12599,"deebbfc":12600,"edddccc":12601,"eabeec":12602,"debcbbbc":12603,"eceddec":12604,"becfbbbb":12605,"dbbbbfc":12606,"ecccbebe":12607,"ecbcbebd":12608,"bbbeceec":12609,"bfbda":12610,"bbebbbcebb":12611,"ecebbccc":12612,"deebbdd":12613,"bbeebeed":12614,"eebbbbbbc":12615,"bbbbbea":12616,"eceebef":12617,"ebdcefc":12618,"ebbeeebc":12619,"bfbcfec":12620,"ebdbbeec":12621,"bebcbccc":12622,"edbcebbc":12623,"ebbbeea":12624,"bbdbcebc":12625,"eebfbcc":12626,"ddecef":12627,"bbbbbb</w>":12628,"becdbbf":12629,"bbfbdbf":12630,"ebecbbbbc":12631,"bcbfbbbe":12632,"becfedc":12633,"ecbfebc":12634,"dcbbbfc":12635,"bbfbcbbc":12636,"bdbdeec":12637,"febeebf":12638,"bbbbfbbbe":12639,"bcbcbbbf":12640,"bbbcdbec":12641,"bfcfbbc":12642,"ebefeec":12643,"decfbf":12644,"ecebebdbbbe":12645,"becbcbec":12646,"edcfa":12647,"debbbbbf":12648,"bbbbfdd":12649,"ebecbedc":12650,"eceebecc":12651,"bbdeeebe":12652,"bbecbbebe":12653,"bebbbebbc":12654,"ddbebbd":12655,"becbcbbbb":12656,"deebebf":12657,"dbbbbdf":12658,"bcdcff":12659,"bbaccc":12660,"dbdceec":12661,"bebdfbd":12662,"bbbcca":12663,"ebbbcfbc":12664,"bddbba":12665,"bbbbbbebf":12666,"bdcecec":12667,"dbbdcebe":12668,"bfbcebf":12669,"ebbceedc":12670,"ebebedf":12671,"bccfecc":12672,"bbdfebd":12673,"edcbeebe":12674,"eaefc":12675,"eebebbdd":12676,"bbbbfa":12677,"dbedbcc":12678,"decbeebc":12679,"dedbbebb":12680,"bbbbbbbbbbbf":12681,"eeddbbc":12682,"bfbcecc":12683,"dbcfef":12684,"dbbdbebc":12685,"bbbbcbcbbbb":12686,"fdcfcc":12687,"bebbcbbee":12688,"ebcbfbf":12689,"fecbcbd":12690,"babcbd":12691,"dcbcbdc":12692,"fcdebf":12693,"beecfcc":12694,"dbceebf":12695,"ebcceedc":12696,"bdbdbbf":12697,"befca":12698,"edbeebcc":12699,"fcdbbbe":12700,"bebbca":12701,"dbfbecc":12702,"ecdcbbc":12703,"bdfdebc":12704,"bbefdbd":12705,"bebfeec":12706,"febcbbc":12707,"bceecccc":12708,"ebcebccc":12709,"bafebb":12710,"ebccbbed":12711,"debdff":12712,"ddbcfc":12713,"bccbcccc":12714,"dbcdbcc":12715,"bbbddef":12716,"bbbecbbebb":12717,"edfbbec":12718,"ebdfebd":12719,"bcecddc":12720,"dabbf":12721,"bcdebecc":12722,"efacc":12723,"fcdefc":12724,"dbbebbbbbe":12725,"ebbbcebf":12726,"bbefecc":12727,"beefebf":12728,"badef":12729,"bbbbcecc":12730,"dfcbfc":12731,"ebfcbcc":12732,"beecdeec":12733,"bbbbbbdbbbb":12734,"bdcdedc":12735,"bbececbc":12736,"efbeeec":12737,"dfeeec":12738,"bedcfbc":12739,"effbebe":12740,"efdcbf":12741,"debdded":12742,"ececfcc":12743,"beeebbdc":12744,"beebcbbc":12745,"bdfeecc":12746,"ebeecef":12747,"dfbba":12748,"ebcecfc":12749,"ecccebf":12750,"bcebbbbf":12751,"eddbbed":12752,"dcbedcc":12753,"ebeeefc":12754,"bbdedbf":12755,"ebbcbbebc":12756,"efcbbdc":12757,"fbfeec":12758,"bdfbbdc":12759,"dcebbbbc":12760,"bbeebced":12761,"beecdef":12762,"fedbcbc":12763,"bebfedc":12764,"efebbebe":12765,"dfbded":12766,"ebeceecc":12767,"edbd</w>":12768,"ebbcebdc":12769,"edccdee":12770,"dddddddddddddddd":12771,"dada":12772,"bceedbbc":12773,"bcbbcbbbe":12774,"ebbceeee":12775,"bffba":12776,"edeeebf":12777,"bdddddc":12778,"bebddebc":12779,"dcbcdbd":12780,"bbbbbcbec":12781,"fcbebbbb":12782,"dccffc":12783,"dba</w>":12784,"fbedeec":12785,"ecbedebc":12786,"effbdc":12787,"debbbbed":12788,"dbbbbbebc":12789,"dbbbbbbdd":12790,"eccebbcc":12791,"dbecbbf":12792,"dcbbebbc":12793,"dbbdbbee":12794,"ebbbcdec":12795,"bfdfcc":12796,"bfecdbe":12797,"eebcbbbf":12798,"ecccfec":12799,"eeddfbc":12800,"edbcebf":12801,"edccbcc":12802,"babccc":12803,"bcbcdef":12804,"dbbbbebd":12805,"eebfbef":12806,"bdccbbc":12807,"bbbbebfc":12808,"bfcbcec":12809,"bbbbcbeee":12810,"ecccbccc":12811,"abedd":12812,"edeebeee":12813,"ebcbcecc":12814,"edcbbef":12815,"ebabbbe":12816,"becfbcc":12817,"eccbedf":12818,"beebbdbc":12819,"ebeeac":12820,"ebcbceec":12821,"bbbcfbbc":12822,"bbfcbef":12823,"ecddbccffc":12824,"bcbbcbcc":12825,"efcda":12826,"bbbbfbec":12827,"ebeecbec":12828,"ebefbebe":12829,"eccbbeec":12830,"dbbdcef":12831,"bbbdfbf":12832,"ebccfed":12833,"bdbcbebd":12834,"bfbcbdc":12835,"edecdec":12836,"ecedfc":12837,"febbfebb":12838,"afebc":12839,"bbdeded":12840,"bdbdff":12841,"bcdcdbc":12842,"bbebcdee":12843,"dbffbf":12844,"debedec":12845,"efeca":12846,"eccfeec":12847,"bbadbc":12848,"bfcbebf":12849,"ebcdebbc":12850,"ecbceebc":12851,"fdceebc":12852,"beebeff":12853,"dbbbffc":12854,"eeccfbd":12855,"fddfbc":12856,"edbdeec":12857,"bbdfdbe":12858,"bebdddc":12859,"beccdebb":12860,"ecccbbee":12861,"deccbbc":12862,"bebbceec":12863,"ebeecee":12864,"ebddebf":12865,"bcebebbc":12866,"edeebef":12867,"ebbcbbbec":12868,"bbebbbebf":12869,"bdecbebe":12870,"eebf</w>":12871,"deedbcc":12872,"dbdfbe":12873,"acedc":12874,"eeccddc":12875,"efecbcc":12876,"ebfebdc":12877,"fcecdd":12878,"bebdbedc":12879,"beebbba":12880,"ecbebbebe":12881,"edbdfbc":12882,"ebed</w>":12883,"bbecbccc":12884,"ebebdef":12885,"ebffa":12886,"bbbdeebd":12887,"eeeefbf":12888,"bcdcdcc":12889,"bfdbbcc":12890,"ebebdbbbb":12891,"deebcf":12892,"bcbfbbbc":12893,"ebcbdef":12894,"bccdbdc":12895,"ffbcee":12896,"bdeedebb":12897,"aaaa":12898,"efbcebd":12899,"bbbccfc":12900,"ebfbbfc":12901,"beddbdc":12902,"ddbdbbc":12903,"dfbbbec":12904,"bfececc":12905,"ebeeddd":12906,"efcdebe":12907,"bcecbbcc":12908,"bcdcecc":12909,"edecbdc":12910,"ebbfefc":12911,"fddbdc":12912,"dbbbebbc":12913,"febd</w>":12914,"bbbbecbf":12915,"bccbddd":12916,"dedcdec":12917,"bbbbeba":12918,"bcbcebec":12919,"bdfbbef":12920,"ebdbea":12921,"fecdbbc":12922,"dbebefc":12923,"dbdfbf":12924,"bbdcddc":12925,"ebebeeec":12926,"acbbee":12927,"bceffc":12928,"bbbbbbbebbbb":12929,"edceeebb":12930,"dbbbbbbec":12931,"fefbdc":12932,"bcefbebe":12933,"defbebe":12934,"dbbfbbc":12935,"ebdecdd":12936,"eafbf":12937,"edbcfcc":12938,"becdccc":12939,"dbcffc":12940,"bebdebcc":12941,"beccfee":12942,"becbebbbe":12943,"dbbdcbbc":12944,"bbbbcdebb":12945,"eebdddc":12946,"ebefebf":12947,"decbebf":12948,"defbbcc":12949,"ebdcebec":12950,"eeefbbf":12951,"edbcbbbd":12952,"abac":12953,"eecfebd":12954,"eddcdd":12955,"eedeac":12956,"bccfa":12957,"bebbcdee":12958,"eebbeebbee":12959,"beecbeebb":12960,"acbba":12961,"bcecbbed":12962,"bbbebeebc":12963,"ecbcba":12964,"ebdcbbbd":12965,"eeeddbd":12966,"ebbebbbbc":12967,"bedceebc":12968,"bdedbbc":12969,"ebcbbccc":12970,"ecbcebcc":12971,"fecbeed":12972,"bbebcbbee":12973,"eedcded":12974,"ebbfdbf":12975,"dbebedd":12976,"edccdbc":12977,"bdecbebc":12978,"bedcbbf":12979,"edccdf":12980,"ebdfeec":12981,"bbdebbbbbb":12982,"bfecdbc":12983,"dbeffc":12984,"fbcbbdc":12985,"eeecdebc":12986,"bbccdbf":12987,"dbecbdc":12988,"bfcbbefbedd":12989,"becedbd":12990,"bcbddcc":12991,"bcbdbbec":12992,"ebbbda":12993,"bbbcfdc":12994,"bfcfdc":12995,"fcbddd":12996,"eecbbecc":12997,"bebefebe":12998,"fbcbeed":12999,"bbedddc":13000,"fddddc":13001,"bcebbbcc":13002,"bebbeebbee":13003,"edbeefc":13004,"dbbebbec":13005,"bcbcfbd":13006,"bcebbbebc":13007,"eeddebc":13008,"ebfbcf":13009,"bdccdf":13010,"bdecbeec":13011,"daebc":13012,"ecfbbbbc":13013,"dcbcded":13014,"efecee":13015,"fcecbbc":13016,"bdeebecc":13017,"bbbbdeec":13018,"cccbbbd":13019,"fbebbbcc":13020,"bbebbded":13021,"edcbcbf":13022,"afbec":13023,"cccba":13024,"eabeebb":13025,"eebdfcc":13026,"bbbbbfbf":13027,"becbcfc":13028,"ebdfbbbb":13029,"bbebbebec":13030,"bebdbbcc":13031,"bddefcc":13032,"ebefccc":13033,"bbdbcbec":13034,"dfbdbf":13035,"bbbeecebb":13036,"bbfeebe":13037,"fecdedc":13038,"fdcddc":13039,"bbebebbbbc":13040,"ececddc":13041,"bdbcba":13042,"bdfbccc":13043,"edcdbdc":13044,"bebdbbed":13045,"dbbbbbbcc":13046,"eecdebbc":13047,"dbbebeebb":13048,"dbbebbebc":13049,"bbfcfbc":13050,"fbfbebc":13051,"ecbdddc":13052,"ebbbcbeee":13053,"bbebbbbebc":13054,"eeebbdd":13055,"fcbcbec":13056,"fbbcdbe":13057,"ebeeeebc":13058,"bbfecbe":13059,"bfebeebb":13060,"dbbecebd":13061,"bbecbebbc":13062,"bebdbeee":13063,"fbffcc":13064,"dcbbba":13065,"acfec":13066,"bdeeded":13067,"dcecbbbb":13068,"bccbbeec":13069,"bbfecbf":13070,"fbddfc":13071,"feedbbc":13072,"ecbcdbf":13073,"dbececc":13074,"bdbcdebb":13075,"bfcfef":13076,"eecceccc":13077,"bbba</w>":13078,"efeac":13079,"ebcbcbbd":13080,"bccbcebe":13081,"fdddbd":13082,"bdecbbbe":13083,"acbeec":13084,"ebdcbebc":13085,"ececbebe":13086,"bbddbbee":13087,"bbadee":13088,"bebbbba":13089,"eeefbef":13090,"eedebccc":13091,"ebebfef":13092,"efcfbe":13093,"bbbbbefc":13094,"eebdbbee":13095,"dbecbebc":13096,"debddbd":13097,"ecdbbbcc":13098,"bbbbbfbbbb":13099,"effdbc":13100,"ebdbebcc":13101,"badbbc":13102,"bbbbbebbf":13103,"ebedbbee":13104,"fceddc":13105,"bcebba":13106,"ebbeebbbd":13107,"becdbbbe":13108,"bbdddcc":13109,"edecdcc":13110,"dcbdccc":13111,"ebdbdebb":13112,"bbbecbebe":13113,"beddecc":13114,"eececed":13115,"dbeeedc":13116,"bbecbbebc":13117,"ebcecee":13118,"efcbbbf":13119,"bbecea":13120,"debcdbd":13121,"bfcca":13122,"dbefebe":13123,"eefbbfc":13124,"bedcbbbe":13125,"bebbcdf":13126,"dbdcdbd":13127,"bbddebf":13128,"bfcffc":13129,"beebbbdc":13130,"eeecebf":13131,"edbebbebb":13132,"ebeeefee":13133,"ecbcdebe":13134,"ebbbbbbbbbbc":13135,"ddbdef":13136,"fcebecc":13137,"bbdeeef":13138,"bbccccccc":13139,"ecbbedcc":13140,"ebedcdc":13141,"bbdeddc":13142,"dcecff":13143,"dbfdef":13144,"bebddebe":13145,"bcbdbeee":13146,"bcedff":13147,"bcbbcbec":13148,"efcac":13149,"eebddebb":13150,"bbbeeebbc":13151,"eebceba":13152,"fabbc":13153,"bcbbedcc":13154,"eccbdbf":13155,"bccefcc":13156,"bbbceeed":13157,"ebbcbcee":13158,"bbdcbeee":13159,"eeddff":13160,"bcefccc":13161,"bdeebeee":13162,"bdeebeec":13163,"dcfbbee":13164,"ebbcbcebb":13165,"ebdeeebe":13166,"bbecdbbc":13167,"fccdef":13168,"edebfcc":13169,"fcbcdf":13170,"bbbcbcee":13171,"dbddfc":13172,"bbbdeeee":13173,"dfeced":13174,"beccfbd":13175,"bcbddebb":13176,"bfccbec":13177,"befbcf":13178,"babebf":13179,"bbccdebb":13180,"bcbcbeed":13181,"dfdecc":13182,"bbbcfef":13183,"eebdfbd":13184,"efefbf":13185,"decbbbbc":13186,"dccdfc":13187,"efcfbf":13188,"bbaff":13189,"adbbf":13190,"bfbbcbbc":13191,"beebbedc":13192,"bddc</w>":13193,"ebbdbbebb":13194,"bbbbbddc":13195,"eccdbbbb":13196,"bcedbeec":13197,"bbceebec":13198,"bbbdbeed":13199,"bcccbebe":13200,"dbccdbe":13201,"eafbd":13202,"beddff":13203,"bccfbcc":13204,"dbbedbec":13205,"debebeee":13206,"bbfcdbc":13207,"ebebcecc":13208,"ddcdfc":13209,"bbdfbbf":13210,"bbecbebf":13211,"bbecceec":13212,"fccba":13213,"bfbbbbebb":13214,"bbceba":13215,"eebcdbbc":13216,"fbbebccc":13217,"abbeec":13218,"edcbcdd":13219,"bbeefbbc":13220,"bfcebdc":13221,"befbebbc":13222,"ffcdbc":13223,"deeb</w>":13224,"ffffffff":13225,"ecdbbeec":13226,"dcebbbbbb":13227,"fceba":13228,"deccfec":13229,"bcebb</w>":13230,"bbbceebe":13231,"eebcfdc":13232,"ebbeebbbf":13233,"fceebcbfdbbbb":13234,"febc</w>":13235,"bded</w>":13236,"ebdbcef":13237,"bbeedbbd":13238,"debeba":13239,"ecbebbef":13240,"edccdcc":13241,"feebebd":13242,"eefbbdd":13243,"deecdcc":13244,"bcdcbcc":13245,"bbbeecbd":13246,"bbfeeec":13247,"befcbec":13248,"fcbeebd":13249,"ebfbcee":13250,"bbebbbeebe":13251,"dcbcecc":13252,"ecddebc":13253,"eecbcfc":13254,"dfdebd":13255,"dbbeda":13256,"bcbeeccc":13257,"dbbbbbbbf":13258,"bbbdda":13259,"bbeebbbec":13260,"efcbedd":13261,"dbecbbd":13262,"bfbcdec":13263,"dbbeddf":13264,"beecdbbc":13265,"debcbfc":13266,"bbbbfbbd":13267,"effdee":13268,"fcbebbd":13269,"bebbeac":13270,"bfdebec":13271,"dbcbcbf":13272,"dbcda":13273,"feccefebbc":13274,"babbebe":13275,"fbcbced":13276,"bbbbebbbf":13277,"ddbcbbbb":13278,"eccebccc":13279,"dbcca":13280,"efdba":13281,"beebbbbebe":13282,"bbcbdbbbb":13283,"ebde</w>":13284,"ebeecebe":13285,"ebeecbbbb":13286,"edcfebe":13287,"deebded":13288,"bbccbbdc":13289,"ddcbbed":13290,"beccbeee":13291,"bcbebbdd":13292,"fcecfc":13293,"ebcc</w>":13294,"becebecc":13295,"dbbebbbec":13296,"bebcbced":13297,"bea</w>":13298,"bdcdbbf":13299,"ecbcebec":13300,"eebdebcc":13301,"dbeecbf":13302,"bbfcebf":13303,"eceda":13304,"beeceedc":13305,"deccbcc":13306,"bfbcbef":13307,"bfbebfc":13308,"bbbeecbe":13309,"bbbebdebb":13310,"dbcdebd":13311,"eafec":13312,"ddcdef":13313,"ecccbbd":13314,"bfeeccc":13315,"fcdced":13316,"dbebba":13317,"bdcdbdc":13318,"debedcc":13319,"febbbbebb":13320,"eeeceebc":13321,"eceebbebb":13322,"dbebded":13323,"bdecbef":13324,"eeecdbf":13325,"eeedff":13326,"bfeebdc":13327,"eccbcebe":13328,"dedb</w>":13329,"beccfdc":13330,"bceeac":13331,"bbfdbbf":13332,"dbbbfebe":13333,"fbfba":13334,"dfdccc":13335,"beeefebe":13336,"febbbbd":13337,"bdeebbed":13338,"bebedebc":13339,"feedbec":13340,"fbfdec":13341,"ecbdbfc":13342,"bbceeef":13343,"ebbcbced":13344,"eebdbbec":13345,"febcbec":13346,"debbebcc":13347,"bbbbcdec":13348,"dedcecc":13349,"ebbdbccc":13350,"bebefef":13351,"ebecbccc":13352,"bcecba":13353,"bbbdfcc":13354,"bdbeebcc":13355,"dedbccc":13356,"bdecef":13357,"ecbbebfc":13358,"ebcecebe":13359,"dbceedd":13360,"bcddccc":13361,"bcaa":13362,"dbdbedc":13363,"bcbdbfc":13364,"ddcbeee":13365,"beecbbdc":13366,"bcecdbec":13367,"fddbcc":13368,"bcbfef":13369,"bdecdcc":13370,"bbbebebec":13371,"bcbbd</w>":13372,"ebcbdbbc":13373,"ebcbeeec":13374,"bbbebcdc":13375,"ebbcdbbbb":13376,"ebbbedbf":13377,"bebedbbbb":13378,"deccebd":13379,"bdccbcc":13380,"befcbbc":13381,"dcdcdd":13382,"ecddbccffcecebebdbbbe":13383,"ebfbdbd":13384,"fbcac":13385,"fecebec":13386,"ececbecc":13387,"beebebcc":13388,"beebebbbc":13389,"bdbebbdd":13390,"bebcdfc":13391,"bbabbee":13392,"ebbbdbbf":13393,"ebbbebbef":13394,"edceef":13395,"dadcc":13396,"eccbcbbc":13397,"ebdeddd":13398,"bbebeeec":13399,"ecbfdf":13400,"ebebbedc":13401,"bdcfebc":13402,"ecccefc":13403,"beebbfbc":13404,"bbebcbbd":13405,"dbdbccc":13406,"ecbcdef":13407,"eeecebcc":13408,"ebebcdf":13409,"bbfdbcc":13410,"bebebdbd":13411,"edfeecc":13412,"ebebdebe":13413,"ebeeeff":13414,"bebceedd":13415,"eeccbbec":13416,"bbbbecbbbb":13417,"bbeddef":13418,"eeebeeeebb":13419,"dbedebd":13420,"babdbd":13421,"bebdeebd":13422,"beeeebcc":13423,"bbbfdcc":13424,"bcecbbbd":13425,"beedefc":13426,"ebdbedbe":13427,"ecbedbcc":13428,"fdcdfc":13429,"ecdca":13430,"ebebbebbc":13431,"eececbbc":13432,"bbbcdfc":13433,"ebbccbbc":13434,"beceba":13435,"bbfeef":13436,"bfcbcbf":13437,"eebedebc":13438,"ddebecc":13439,"ebdbcbbbb":13440,"dbbf</w>":13441,"bbdcbcbc":13442,"dbbcfbc":13443,"bfecccc":13444,"ebeeeebf":13445,"ebcfbbf":13446,"eecc</w>":13447,"bbecbedd":13448,"bdcca":13449,"bfccbbc":13450,"ebbeedee":13451,"bcbbbb</w>":13452,"ecdbbebd":13453,"ebeebbbbc":13454,"bccbeebc":13455,"dedea":13456,"feeeeef":13457,"ebbeebbef":13458,"feebcbd":13459,"fbeeba":13460,"fbfbcbc":13461,"edfebcc":13462,"dbbbfa":13463,"bdbfa":13464,"ebdfbbd":13465,"bfcbebbc":13466,"decbebbc":13467,"eedcbbf":13468,"eecbcbec":13469,"bbbdbdbbbb":13470,"beebbbbbf":13471,"dedcdd":13472,"fbbeac":13473,
[...]
