#version: 0.2 - Trained by `huggingface/tokenizers`
b b
b e
b c
e e
c c
b d
e c
b f
e d
e bb
d c
bb bb
e f
e be
d d
e bc
bb c
f c
be c
e cc
e bd
bc c
ee c
bb d
d f
bb be
bb f
d be
e bf
bd c
ed c
b a
f f
bb bc
d ee
cc c
d bc
bb ee
be be
bf c
ebb c
d bb
d ec
d bd
be f
d cc
e a
bb bd
be bc
ef c
d ed
bb ec
f bc
be ee
bb cc
f ee
ebe c
bb ebb
bc bc
ebc c
f be
d bf
d dc
f ec
d ebb
bb bf
bb ed
f cc
be ec
ee ee
a c
bbbb c
ee bc
be bd
be cc
f bd
d ef
ecc c
ec bc
ebd c
f ed
ee cc
bb ebe
d bbc
bb dc
ee be
d ebe
ee f
ec be
d ebc
bb ef
bc be
bc f
ee bd
d fc
bb dd
d a
bc cc
d bbbb
d bec
bc bd
f bf
bc ee
be ebb
bbbb bbbb
f dc
bc ec
bb ebc
d eec
be ed
bb a
f ebb
ee ec
be bf
e ba
bb fc
bd bd
be dc
cc cc
d bbd
bb bec
d ecc
ee dc
ec bd
ebf c
d ebd
d bcc
ec f
ee ebb
bc ed
f ef
bb bcc
f dd
ee bf
ec ec
be ebe
bc bf
ee ed
be dd
bc ebb
be bbc
f fc
be bbbb
bb ebd
d edc
ed cc
be ef
f ebe
f bbc
ed bd
ee dd
bc dc
bb eec
ec dc
d bdc
d ccc
d bbf
ee ebe
d bbbe
bb ecc
f a
bd cc
ec bf
ec ee
bd bc
f ebc
ba c
bc bbc
ec ed
bd be
bd f
bd bf
bd ed
be a
be fc
ec ebb
ee ef
bf cc
bc bbbb
be ebc
bc ef
bc dd
d bbbc
ec dd
d ebf
b b</w>
ea c
ee bbc
ebb cc
bb bdc
f bbbb
bb ebf
bb ccc
ebb ebb
bd ee
be bec
bd dd
ed dc
f bec
bc ebe
bd dc
ef cc
f ecc
be bbbe
bd ec
f bcc
d bbee
bd ebb
bc fc
bc ebc
ed dd
d bfc
f df
be bbd
ee bbbb
ec bbc
dc dc
be bcc
ed bf
bb edc
ee a
f bbd
ebe cc
d ebbc
ed bc
f ebd
f eec
ebc cc
dd dd
bc a
bf bf
be df
ee fc
be dbe
d efc
be ecc
bc bec
bb ebbc
d ba
f bbf
bb ba
ed ed
ec ef
f dbe
ebb bbbb
be bbf
ebb ee
bb bfc
bd bbc
ec bec
ebb bc
be ebd
bd ef
ee ebc
bd bbbb
ebb bf
ec ebc
f ccc
be eec
dc ed
bc bbd
ec ebe
ec fc
f bbbe
ec df
dd cc
f edc
ee bec
bc bcc
ebb bd
ee bcc
bc df
be bbee
bf dc
bc eec
d ea
dee cc
be bbbc
dbb cc
ee dbe
bf ed
f bdc
ebb ed
bd a
ec bbbb
ec a
ee df
f dbc
bd ebe
ecc cc
ebb bbc
bf bc
ee bbd
ebb ebe
b e</w>
be ff
ee bbbe
d ebcc
b d</w>
f ebf
d ebec
ec bcc
dc bd
be bdc
b c</w>
bf bd
dc dd
be dbc
ed bbc
dc bc
ee bbf
be ccc
ef bf
ee ecc
dc ec
a cc
be ebf
bc ebd
bc ecc
ef dc
dbe cc
df cc
ec bbd
f bbbc
bd fc
ee bbee
bf ebb
bc bbbe
dd ed
bd ebc
be dee
be edc
bbbb bbc
f dee
f bebe
ec eec
bb ea
bb efc
ee ccc
bf ef
e b</w>
bbbb cc
bc bbf
bd bbd
ebb ef
bb ebec
bc dbe
bf bbc
ec ecc
ebb dc
ec dbe
bd bec
f bef
f bbee
ebd cc
bf fc
bbc bbc
ebe ebe
bd df
ee eec
be dbb
ec dee
dd dc
bc ccc
ee ebd
f dcc
ed ef
d ac
ee bebe
ff cc
ed ebb
f dbd
bc bbbc
bbd cc
ed df
bf ec
bf dd
bbbb ebb
f bfc
bf ebe
ee bdc
f dbb
dd bd
ee ff
ed ec
ee dbc
ebe ebb
d eccc
be dbd
dc ef
f dec
bf a
ed bec
bc dee
bb ebcc
ed ebc
ee beee
dc bf
ee dee
ebb ec
d bbbbc
d ebdc
bc ff
ef ef
dbb bd
be dcc
ed ebe
bbc bbbb
ed a
bc dbc
fc dc
be bbbd
bf bbbb
f ba
ec ebd
ebb ebc
be bbebb
ee ebf
bd eec
ee bbbc
be dec
ed fc
be bbec
ebb dd
bbf cc
be ba
f bebc
bbc bd
f ebbc
ef dd
dc ebe
be bfc
ee bef
bc bdc
ebb a
dc fc
bb ac
dc ebc
f beee
ed dee
ebb bec
ef bd
be ebbc
e e</w>
bbbb bd
a a
bc bebe
ebe bf
dc bbc
bc edc
ed dbe
ec dbc
ee dcc
ebb fc
ebb bbbe
ec dec
ec bbbe
be bbcc
bd bcc
e c</w>
bf ebc
ebf cc
bd dbe
f bbbd
ebe bbc
ed bcc
f efc
ded cc
e d</w>
ed ee
dc ebb
ed bbbb
ec bbf
dbb dd
f bbcc
ebe ef
bbc bf
ec bdc
f bbec
bbbe cc
dc bec
d b</w>
f ea
bbd bd
dbc cc
f ddc
ee edc
dc eec
f dbf
bc bbee
ee fee
bd ebd
ebe bbbb
ebb bbd
dcc cc
bef cc
eba c
bd ecc
ed eec
bc dec
bf bec
ec ff
ee dbd
bbbc cc
bbc ebb
dc a
fc bf
f ded
ef ebe
dc ecc
bbd bbbb
bbc bc
ebe bd
bbbe bbbb
ef fc
bc dbd
dbb ebb
ed bbd
ef bbc
bc ebf
ef ebb
ef a
bc bebc
fbe cc
dc df
ef ed
dbb bf
dc ee
bc bef
bebe cc
be dbf
dbb ed
dd bf
ee ba
f bbbf
be ded
bd bbbe
ec bbbc
be bbbf
ec ded
bc fbc
be ea
ebc ed
ebe dc
be ddc
fc dd
bd dee
bc bbbd
ec edc
bb b</w>
ebc bf
be bbed
bbbb bf
bbc ed
f bbebb
bd bbf
fc fc
ee dec
bb ebdc
bc bfc
ebe ed
ebe dd
ee bebc
b f</w>
ebb bcc
d d</w>
dbb dc
ec dbd
ebc bbc
bbd bbc
bbd bf
fbc cc
bbbb bbbe
ebb eec
ee bbec
be debb
bbee cc
dc bcc
ec dcc
bec bbc
ecc ed
ee fbe
bec bf
f ebcc
ebc ebb
bd ff
f ac
bc bbec
fee cc
bc ded
ee bbebb
bf bcc
dd a
bc dcc
ec bebe
bc ebbc
bd dbc
ee ebbc
bd bdc
dd ef
ebe a
be efc
bf df
bebc cc
ec bef
dc ebd
fc bbc
dbb ebe
ed ecc
dd bbc
bbbb bbd
bb eccc
ee bbbd
ebb bbf
bd dbd
dd ebc
fc df
bbbb bbbc
f ebec
be bbebe
bbbb ebe
bc bbcc
fc ef
ee fbc
be bbbbc
f debb
ed ebd
ebb df
ebc bec
ebc dc
bc ba
ec bebc
f bbed
ee bfc
be ebec
fc bd
ee ddc
dbd cc
ee bcbc
ebc bd
ebb ebd
ed dbc
bbc bec
ebc ef
ec bfc
ebc dd
ed ccc
dbb ef
bec bec
bbc ef
ebb dbe
bf bbf
bbc ebe
f def
ec ebf
df dc
ec bbec
bbd ed
cccc cccc
ec bbee
bf ecc
bc fee
dd ebe
d ebfc
fc ed
ebb bbbc
ee ea
bbc dc
bd edc
bc beee
ee bbcc
d e</w>
ebc ebc
be ebcc
bbc dd
bbbbbbbb bbbb
be ac
a bf
dc dbe
bd bbbc
ee dbf
bc fec
bbd ebb
bcc ed
dbb fc
bec dc
dd fc
dbb a
dd eec
d c</w>
dd df
ec fbc
ec beec
bd ccc
f eccc
eec dc
bbc bcc
bc fbe
ebb ecc
ec ebbc
ebb bebe
a ed
bbc fc
ec bcbc
eec bf
fcc cc
bc bbebb
bbd dc
ef bcc
bc efc
be dbbc
bbc ebc
bd bebe
ed dec
ebe bec
dd bec
ef df
def cc
ebe fc
a dc
ebe bbbe
bf ff
bbcc cc
e bb</w>
bc beec
dd ebb
ee ded
bf dbe
dbb bec
dbb ebc
ef ebc
bf bbbe
bf ebd
ed bdc
bf bbd
dc bbbb
bc fcc
ef bec
bc eebc
ebe bcc
f dbbc
ec ba
dd ecc
a bd
f bbef
eec bec
ec bbbd
ee beec
ed bbf
ebe ebc
bbbc bbbb
be bbef
beee cc
f bbdc
eec df
ef bbbb
dbf cc
bcbc cc
ee bbed
bc debb
be bbdc
dd bbbb
ebc bbbb
ed ff
bc bbed
dc bbd
f bbbbc
fc bec
d eba
eeee cc
bbbbbbbb bbbbbbbb
ec fec
fc a
be def
ba cc
f da
dc dee
bb ebfc
bbc bbd
bd dec
ed bbbe
bf eec
bd bbbd
bc bebd
bec ebb
a dd
ea cc
bb eba
f dfc
bc dbf
ebc fc
ebc eec
bbbe ebb
dbb bcc
dbb ebd
bc fbd
a ef
dbe dc
ec fee
ecc eec
fed cc
ebc df
ee bbbf
bd bbee
f bbebe
be debe
bc bbbf
bccc cc
ebb ff
bc ddc
ee bbebe
a bbc
ebd dd
df ed
dee dc
eebc cc
ebe bebe
bc bbbbc
bc ebec
df fc
ee fcc
bbf bf
ec debb
ec becc
bd ebf
ec ddc
a bbbb
ebb bbee
bcc bcc
bbd ef
a fc
cccc cc
dc edc
ebc ebe
ebd ed
bc becc
ee bebd
bcc bbc
bbd bbd
a ebe
eec dd
be bbebc
f debe
bcc bf
df dd
bbbb bec
ef dbe
f ebdc
bbc bbbe
ed dbd
ee becc
ec bbcc
be dbbbb
ef ff
bd bef
ef ecc
bbd ebe
ec efc
ee debb
dc ff
ec beee
a ebb
ed edc
ec fcc
ef bbf
fc ebe
df bf
ee fec
bbc eec
be debc
ecc ecc
ebd bf
dd dbe
bd fbc
ec dbf
ee dbb
ecbc cc
bd bebc
e f</w>
fc bcc
ee efc
bbd bec
ee fbd
f debc
dc dbc
ed ded
bc dbb
ec bebd
dc bdc
bc ea
fc ebb
bbbd cc
ebe bbf
bbbb bbf
dd bcc
ebc bcc
bd ded
ec fbe
eec bbc
ecc bec
bd bfc
bd dcc
bbbb ed
ebb ebf
dd ebd
bbbe bbc
fc ebc
ec bbed
bc eebe
bc ebcc
fbd cc
be bbdd
dc dec
ebb dbc
bbbe bf
bc fed
bbbb dd
bbc a
ec def
bbbb bcc
ec bbebb
ee bbef
fc dbe
ebb ccc
be dbec
be bba
bec ed
ebb bdc
bec dd
ecc ef
ee ebec
bc ecbc
ee ac
ee ebcc
bc eecc
be bbbec
bbc bbf
debb cc
f bbdd
bc eeee
bc def
bec ebc
dbe bf
bbbb bbbd
bc ecbe
ebe bbee
ec eebc
ebd dc
bec ef
d bac
bb d</w>
bbc bbbc
ed dcc
bf ccc
be eccc
ec ebec
dbe dd
bbc df
bbd ebc
bf ebf
ec ebcc
bec ebe
ef ccc
ff dc
ee ecbc
bf bdc
bd ba
bbd a
bc eebd
ecc dc
f bbfc
dbb eec
bbbb ebc
bc debe
bc eef
be da
bbbe bbbe
dee dd
ee dbbc
df a
be dfc
becc cc
bc ac
ecc ebc
bbd fc
ebb bbbd
ed bbbc
bec bbbb
bf bbbc
bbc dbe
bbc ebd
eecc cc
bf bebe
bcc ef
d eac
bec bd
ee bbbbc
bbbe ebe
ed bef
ebb edc
ebb dee
bcc ebe
f dbec
bf edc
bbbb ef
ed bebe
bec df
bcc dc
dd dbd
be bbfc
bf dbc
ebd ef
ee def
ebb bef
bd bbec
ebc a
bec fc
be ebdc
dc bbf
bc bbdc
ebe df
ec fed
bd ebbc
bebd cc
bb c</w>
bbbb a
f dbbbb
ecc fc
dc dcc
df ef
bec bcc
bbebb cc
ec fbd
dd edc
eec ef
ec eecc
dd bbd
ecc bf
dd dbc
bbbf cc
dbe ed
f bbebc
ebb bebc
bb e</w>
debe cc
bcc fc
df bd
ec ecbc
ebc ebd
bcc bd
bc dbbc
ebc ecc
ebe bbd
f bba
bbebb bbbb
ed bbec
eec bd
bcc bec
ff bf
dd bdc
bcc eec
bbbb dc
ee bbdc
ebb beee
ec ea
ed bbee
ec debc
bcc ebb
bc bbebe
bf dee
bcc ebc
ebd bec
bbf ef
ebd bd
ec deec
ebe dbe
bcc dd
ebd df
ebe beee
ebd ebb
ebe ecc
ff dd
ed bebc
bbf bbbb
ff ef
bbbc bbc
dc dbd
fc eec
bf bbee
bbd eec
bb bac
ed ebf
be dbbd
bb bb</w>
ee ecbe
e be</w>
bec eec
be deec
fc dee
bbed cc
ebd bbc
f bbbec
ee dbec
ecc bd
f dbcc
bbf bbc
ec bbbf
ebb ebbc
dbe bd
f dbbd
bf bef
ebb bbebb
ebd eec
ee bba
ebe eec
bec a
ebe ff
ecc dd
ecc bbc
ebd ebc
ec dbb
bc debc
fc bbbb
bbd bbbe
bc bbdd
df bbc
fbf cc
edc ed
bcc bbbb
ecc ccc
bc bbef
ef bbbe
dd dee
bd fee
ebb dec
ef eec
ebe bbbc
ef bdc
ec dbec
bc dfc
ebe ebf
bd ddc
ff fc
bebe bbbb
eec eec
ed bfc
bbf ebb
df ebc
bd beee
dc ded
dd ccc
ecc a
bbbd bbbb
ecc ebb
dc bbbe
ec dfc
d bb</w>
dbb bdc
ebd a
bec dbe
e bc</w>
e bd</w>
ee eccc
ecc edc
be bbbbbbbb
dbd dd
f deec
ee da
ebd bbbb
bd fbe
ebe ccc
ebe bdc
ed ddc
debc cc
ebc bbd
be dbcc
dbe bbc
ebe eeee
ebb fee
ef ebf
ec debe
bbf dc
fc ff
bc dbbbb
ebb dbd
ef bbd
ef bbee
ef bebe
bf fbc
eec a
ec dbbc
bd bcbc
be bbbcc
ed beec
ec bbdc
ebc ccc
ef dbc
ed fbc
f decc
ebc bbbe
bf bfc
ebb bbec
ebc dbe
ebe ebd
ee bbebc
be bbeec
bd fec
bbf a
ebe bef
bbbb fc
ba a
ef ebd
dc ebf
edc eec
bcc a
bbf fc
bd efc
bd debb
ec bbbbc
ebb eeee
bc eccc
ef dee
f debd
eebd cc
ff a
bbc dee
bd beec
ee debc
bbc dbc
bd bbcc
ed ba
dec dc
ebd fc
fbe bf
dbe fc
bec dee
ebb fbc
ee debe
ebb bfc
bd dbf
bbc bdc
dd ff
ebb ba
ecc ebe
bbee bbbb
be bbebd
bbc bebe
bbbc bbbc
ef bef
ed bbbd
ecc df
be debd
ec ac
eec ebc
bc ebdc
ec eeec
f bbbcc
ec eccc
be eba
ec eef
bbd bbf
ee bbdd
bbd bcc
ed def
ebc bbf
bbbb bebe
ee fed
ed ebbc
d f</w>
ec eeee
ff ff
ec decc
bbbb dbe
dd dec
be b</w>
dbb ecc
edc ef
ebf bf
ec da
f eba
bc bbebc
a df
ec eebd
dbb ccc
ec ecbe
bbbb bbebb
bbd ebd
ec eedc
bbbc bf
bbc ecc
ee dbbbb
eec fc
edc dc
bef bf
dd dcc
ebc dee
ed fee
bc dbec
ed dbf
bbebe cc
bd bebd
bdc dc
bcbc bcbc
ec fdc
ebe dbc
bd bbebb
f ebfc
bd fcc
df bec
beed cc
bc bbfc
f dbbf
ef fee
ee ebdc
fc ecc
df ecc
f b</w>
bbbb bbbbc
febb cc
bc deec
ed debb
bc da
bd fbd
bbbe dc
ed beee
a ebc
bbbe bec
ee dfc
eec ebb
bd eebc
bbc ff
ebd ebe
fc bbf
eebe ebe
eec bcc
dee bf
be decc
fc dbc
a bec
ecc bcc
bbee bf
ec ebdc
df ebe
bebe bf
eec ed
bebf cc
edc bec
dd ddc
df df
dbc dc
eec dbe
ee bbfc
bdc bf
bbd bbbc
eec bbbb
ee deec
bbee ebe
bd bbed
ec eebe
da cc
ebb bbcc
eeee eeee
f dccc
ed efc
bbbe bebe
edc dd
df bcc
eec dec
dbe bbbb
ebc dec
bdc dd
ebc dbc
bbf ebe
bec bbd
bec ebd
dc bbbc
fc bbd
bbf dd
ed fec
bbbe dd
ebb fbe
a dbe
be bbecc
bbc dbf
bf dbd
ef bbbc
dc fbc
a bcc
ebc ff
bf dec
ec bbdd
bebe bbc
df dbe
bc bbbec
df ebb
bf fee
bbf ed
bdc ed
fc ebd
bbee ebb
eec dee
bdc ef
ebc edc
bd ea
f bbeec
bd dbb
bbef cc
ec fbf
be dbbf
dc bfc
bcbd cc
be dbbbe
ecc ebd
dc bebe
bf bebc
bc bbbbbbbb
bb eac
ebe fee
ef beee
bd becc
dc ddc
bbbb bbee
fef cc
ee bbbec
bbc bbee
bd ebec
fc bdc
ee eba
ebc bbbc
bbbbc bbbb
bbbe ef
bbd bbbd
dbe bec
eec ebe
bbbe ed
ebb bcbc
dbe ebe
ebf ef
edc df
bbbe bbbc
bc dbbd
ec bbebc
ded dd
ebb bbbf
bbf bbf
a ff
be ebfc
bf dcc
ee dbcc
ec bbebe
dbc dd
dc fec
bdc ebe
bcc ecc
eec ebd
f dbdc
dbe ef
dc bef
bcc ebd
bbc bbbd
f bbebd
bc bbbcc
fc dec
dbe ebb
dbe a
bec dbc
bc bba
bcc df
ec febb
bbd bdc
ec dedc
f e</w>
bbbb ebd
dbb ebf
edc ebc
decc cc
bf ba
ed becc
bbbe bbf
bd bcbe
bd def
bebe bebe
ee dbbd
bbbe a
fbe ef
bbd ff
bbc dbd
bbc ebf
eec dbc
ed bbcc
ec debd
bec ecc
f bbecc
bbbc ebb
ebc bdc
ec ecbd
bef dc
edc bf
bd bbbf
bbc dec
ed bbebb
bc debd
bec dec
bebe ebe
ef dcc
bbbd dd
bf beee
bf ebbc
bbebc cc
bbc bef
ded dc
bbc bebc
a ba
ed bcbc
ebd ebd
bebe ebb
ef edc
bf fbe
bec bbbe
bced cc
bd dbbbb
dbe dbe
ebf dc
bd eebe
bd bcf
ec bbef
bbbe bbee
ec bdbd
bec bbf
bec ff
ebb ded
a ecc
ed fbe
bbbe ebc
edc fc
beebb cc
dc efc
edc ebe
be dccc
bc b</w>
df ccc
ebb dcc
bd debe
bd ac
dd bbf
dd ded
a bbf
bf bbec
bc dbcc
bf fcc
ebc bebe
bdc fc
dbd dc
bd ebcc
bd bbbbc
bbbe bbd
f dbbbe
ebf fc
bcc bbd
ed bbed
ed debe
bf bbbd
a bbd
bef ef
ebb bbbbc
ecbe dc
bd bbdd
ebb debb
bbc bfc
bdc ebc
ec bbfc
bdc eec
bec bbbc
bd bcbd
bd dbbc
ebf ebe
ebb eebc
ec ecf
ed bebd
eeed cc
bbbe fc
ebd dbe
ebc bebc
ff ebe
bbbb dbc
a eec
bc decc
ebb fec
ff bbc
dc bbee
bdc bec
bd bcee
dbb edc
ebb bebd
ebb eebe
dee bbc
be dbdc
ebd ecc
fbe ebe
bef dd
bdc bbc
dbc bf
bbd bebe
dec dd
bd eef
dbc fc
dbc ef
ebf a
dc bebc
ed fcc
bbd ecc
bcc dbe
bbbb eec
dee fc
bd fed
bf bcbc
cccc ccc
ebf bbc
fbe dc
ecbd cc
be bbebf
df ff
edc ecc
f c</w>
bbbc ebe
df eec
ec dbbbb
bd bbdc
bec bbec
dbc ed
ee debd
a ccc
eebe ef
df ebd
bd eeee
bbd bbee
dd fbc
f dedc
ebc ded
dd bbbe
ef dbd
ebb ea
ef fbc
bf bbcc
ec dbcc
ebe edc
ebb beebb
bbf bec
ee bbbcc
ebe bebc
ff ccc
ebe dee
eec ecc
ef bfc
bbbb bdc
bd eecc
dbe ebc
bbf ebc
a ebd
dc fee
bbbb ccc
dbc bbc
a bbbe
ed eebc
ec eedd
fbe bbc
dc fcc
ee bbeec
be dbbbc
bcbf cc
dc ebbc
ef ba
bcc ff
df edc
dcc ccc
ef dec
eec ff
bbd ccc
fc bbbc
ebb bbed
bd ecbc
ebd dee
ecc dec
bbee bbc
bcc dee
ebb efc
ebb beec
ebbc bbbb
df bbbb
d eb</w>
df bdc
bcf fc
bef ebe
dbbbb bbbb
df dbc
f bac
dbb ba
bfc bf
ebf bbbb
be e</w>
bd ecbe
bd fdc
bbbe bcc
dbe bcc
bbc bbec
bd eebd
bbee bbee
eec bbd
eec ded
ee dccc
bd beed
ed ea
bbc fbc
eef bf
ee b</w>
ec bbbec
ee decc
eebf cc
dbbd cc
dc bbbd
dee ccc
dbb ebbc
debd cc
bec bdc
ebd bcc
ebe ba
f d</w>
bd fbf
f debf
eef ef
bbdd cc
ee bbecc
eebe bf
bd bcec
ec eeed
bbbe dbe
bbc bcbc
dd ebf
ebb bcbe
edc a
bcf dc
ed ebec
ef ebbc
bbf bcc
bbf ff
bef a
d bd</w>
fbe bbbb
ed fbd
dbc bbbb
ed ebcc
dbc ebe
ecc ff
ee bbebd
dbb bfc
ebb ebec
ecc bbbb
bbbc bec
bbc edc
ed bcec
bbc ebbc
bdbd cc
f bbebf
fc dcc
dd bebe
bcebb cc
ebd bbd
fdd cc
be bbbdc
bf dbf
bbbc bbbe
bf efc
beee ebe
ebb becc
bf fec
bcc bdc
ebc bbee
ebc ebbc
ed debc
dc bbec
ebb bbebe
fc bef
df bbd
bd beebb
dd bbbc
bf fbd
dd bbbd
bd eeec
f eac
ba bbbb
bbf bbbe
dcc dc
bd debc
dec bec
f bbccc
eec bdc
eeee ebe
dbe ecc
a dbc
bcc edc
fc ded
d bc</w>
bcc bbbc
a bbbc
fc fbc
bc bbebd
ec dbbd
f dbbbc
ebb dbf
dbe df
bbc bbcc
dee ebe
ebd ff
bc ebfc
ebc ebf
bebe bbbe
eef ebe
ebd ccc
fc dbd
dcc dd
bec bebc
ed beed
fa cc
bba cc
bbbb bebc
ebc bfc
ecbe dd
dc beec
bcc bbf
ed deec
bd bccc
bbee bbbe
bc dedc
bcf dd
df bbf
ea a
bebe ef
bbbb dbd
edc dec
bcc dbc
ebd dbc
bcbe dc
dee a
be dedc
bd dfc
be bbccc
fbe fc
ebb fbd
bf bbebb
febc cc
bbd edc
bcc bbbe
be bbedc
bbd bebc
d be</w>
eef a
bc bbeec
ebd dec
bbee dc
bbbb bbec
ed fed
ebc dbd
bdc a
dee bec
ed eecc
ddc dd
bef bbc
bf ded
dee dbe
fc bfc
ec eeebb
ef eeee
fbe dd
dbbbb cc
eebe a
ebd edc
ccc dc
febe cc
ef bebc
fc ebf
bf bbbf
ebe bfc
ecc bdc
bbf df
ecbf cc
b a</w>
ed dfc
ebb ebcc
fc bbbe
ed eeee
bd da
bbd ebf
be bac
dc bcbc
bd bedc
ebc fbc
bcf bf
ff df
bd febb
eebe bbbb
ebe bbebb
bbbd bbc
f bbbdc
ebbc bbc
ef ea
ecc dbe
ebb fcc
fee bf
be d</w>
bbbc dd
dbc bec
bbee dd
be debf
beebe cc
ed dbec
bd bebf
be c</w>
bc dbbbe
ef bbec
ebc bef
bbbb df
bcbe dd
fbe a
ec bba
dbd bf
bbf dbe
be bbebbc
ebe bbbd
ebf dd
bbbb bbbf
ec bbecc
eebe ebb
be dbbee
ed da
dec bbc
bec bebe
bec ded
ef fcc
ccc dd
ed bcf
bbee a
edc bbc
eec bebc
eeebb cc
ebe bbec
bd dbbd
ee dbbbe
fc bebc
ee dbdc
eec bbbc
ebd dbd
ebd bdc
beee bbbb
ed dbbc
edbd cc
ebe ebbc
ebd bbf
ed bedc
ec dbdc
dc ba
ee dbbf
ff bcc
bef fc
dee bcc
bd b</w>
ed bbbf
a bba
ec edcc
bc bbecc
bc dbbf
ebc fec
df fbc
bc dbdc
ecc bbd
bbee ef
ecebb cc
ebd bbbe
bb bd</w>
ebe fbc
beee bf
ec dccc
ecc dee
dbe ccc
eec dbd
ed ecbc
ebb febb
df dee
ebb bcf
bdc bbbb
ebe bcbc
beef cc
bbbc dc
ec bbbcc
df dbd
bbd fbc
bbbe bbebb
ed bcbe
bebe dc
bbbc ef
bbbc ebc
a dee
bd bbebe
bf ea
bbbb ebf
bec ebbc
df dcc
bbbb bbcc
eec bbf
ebe dec
f dbfc
bbc bbebb
bccc ccc
fee dc
a bdc
ebe dbd
dbc ebc
fc edc
bec dbd
ebb ddc
bbbc bbd
dbe bbd
ee bbebf
bd dbec
fee ebe
dbc eec
fbe bcc
bd deec
eef dc
ed bcee
bbc ba
bbbc bcc
ebe dcc
edc dee
ed ac
bec bfc
efc df
bbbb ebbc
bbbc fc
ed dbb
ebc dcc
bebe a
eec bbbe
ebc bbec
dd bfc
bbc ded
ebe bbcc
fbc bf
dbe bbbe
bcf ef
ec ebfc
fc bbec
bd bbef
dc fbd
ec eebf
bedd cc
ebd bebe
ebf ebb
efc bf
bbc beee
bcc dec
bdc ebb
ecc dbc
bbbb bef
bbbb ff
edc edc
ef ddc
f dbbee
ecc fec
ed bcbd
dbe bbf
bc c</w>
ed bbdc
bcbe bf
bbbb bcbc
ec b</w>
f bbbbbbbb
dc beee
ebc bbbd
eef dd
bb f</w>
dc eebc
bfc fc
ebd bebc
dec bf
e bf</w>
ed beebb
bbbb ba
fee dd
eec dcc
ef fbe
dbc a
bbf bbd
dc dbf
ec bbeec
ef bcbc
bcbe bbc
dc eecc
ee ebfc
dbe dee
ebb bcbd
dc ebec
ba dd
be bbba
ebc bcbc
bec bef
bc dccc
ebbc bf
bbbb dee
ebb eecc
bec fbc
a ebf
bdc df
bec bbee
bbc bbbbc
bbbb ecc
be dbfc
ebb bebf
ebc eebc
ec bbebd
dcc fc
ba bf
ed bccc
bcc bebe
bcef cc
dbe eec
ebb ecbc
ef dbf
bd ebdc
bbf bbbc
edc ebd
bbec bbc
bec ebf
ea dd
ef bbbd
ecc ded
f bbedc
ed fdc
dcc eec
bfc bbc
dee df
dbe ebd
edc bcc
bbd bef
dbd bbc
bcbe bbbb
ebb eef
eebe bbc
edc ff
ebb eebd
d ee</w>
ebb fed
dbc dbc
ddc dc
fee ef
bb bc</w>
bdc ebd
ec edbd
ccc fc
ee dedc
be debbc
ebb bbbbbbbb
dec df
dec fc
ecc bbf
fec dd
bbd bbec
bbd bfc
a ea
ff bbf
bcebe cc
bbbd bf
dc fed
bdc bcc
dec dee
beee beee
ecc eecc
bebc bbc
bdc dbe
bebe dd
bbee bbf
bc bbccc
bebe bec
eedd cc
bbec bf
bd bced
bcc ebf
f bbbfc
dbc df
bebc bf
bcf bbc
fbe bec
dc bbcc
bd fdd
ef bbcc
ef efc
ebb eeebb
ebb bcee
bd eccc
ebbc ebc
ebd ded
fc fee
eebe bbbe
ee d</w>
ebe ea
be defc
dc debb
a dbd
bc eba
fc bcbc
cc ccc
a bbee
ed eebd
a edc
ebc efc
bf ddc
bebc bec
beee bbbe
bbbd bbbd
ef ded
ebb bbdc
ebf bec
ed decc
bbd ebbc
dc fbe
ebf ff
bbbf bbbb
bf beec
dd fec
dec ebc
ebb bebbbb
bd fef
bd eedc
df bbbe
ecbe ecc
d ed</w>
ecbe bbc
bebe fc
bdc dee
ff dbe
bb eb</w>
f debbc
ee dbbbc
bcbe fc
bdc ecc
bebc bbbb
bec edc
bebe bcc
f dba
bef bbbb
ee c</w>
dd bbee
bebe bbf
bd ecf
d ec</w>
dbc ccc
dbbf cc
bc debf
bf ac
ebc beec
dbd dbd
bfc dc
bea cc
ba bbc
fbe bbf
be bbbfc
ebb fbf
ebc fee
fbe bbbe
be dba
bf bcf
bebe bbee
ebb bcec
eec edc
ebc debb
fec dc
bdc bdc
bcc bfc
ebd bbbc
dd bef
beebc cc
bbd bbcc
ebf bbf
ebb dbbc
bbbb fbc
eeee beee
ff ed
fc ebbc
fc beec
a bef
df ebf
dc bebd
dcc ed
dd fcc
ded bbc
bbebb bbbe
bbbc ccc
eec bfc
bdbf cc
ebb dbbbb
ebb bccc
bbd ba
bd bebbc
bbebb bbc
a fbc
dc ebcc
ff ebc
dd bebc
edc dbe
bc dbbbc
dcc ef
bf debb
ed bced
bcc fbc
dc becc
bec beec
dbd bbbb
eef bbc
ebb beebe
bd ecbd
bd bbfc
bb be</w>
bec bbbd
ebc bebd
bf becc
fec df
ecf fc
ee e</w>
bfc ef
ebc ba
dee bbbb
ed bbbbc
fecc cc
bd debd
bcc dbd
bf bbed
dbe dbc
bf fbf
dee ef
dd efc
eba cc
ed eeec
ecc eebc
ed bbebe
bec dcc
fc fcc
bcc bef
bbbc bbf
bd ffc
bbc fee
ebbc ebe
fbe ff
ee bbbdc
dc bbed
ecc bbbe
beee bbee
dbe ff
dbe bdc
ebf ebc
bbbc a
bebe ebc
debf cc
ed bbdd
dbb efc
ecbe ebc
bcbe bec
bbcc bbc
dd fee
f bbba
ecc fbc
bcf ebe
bbbe ebd
bd bedd
f bbebbc
ee bbedc
bd bcebb
bbbe eec
ccc bcc
fc bbee
eebe bbee
beee bbc
ed eef
dbe bbbc
bc bbbdc
bbd bbebb
ebf bcc
bbbe bebc
ecc bebc
bef df
ed bdbd
bcbe ebe
dbc ebb
bcee dd
bd fbbc
eec fec
ebbc dd
dbc bcc
dee ebc
ebbc fc
bbec bbbb
ef fec
bd bbebc
bf bebd
ccc ecc
df dec
ebbc bec
bd bebbbb
ed bebf
f defc
ec dbbf
ec dbbbe
bcebc cc
a bebe
bbbe bbbd
eec bebe
bbc dcc
ff bec
bc e</w>
edc ded
dbb ebec
ebb bbdd
bd cccc
bf eebc
df fcc
be eac
bbebb ebe
bd bcbf
bef bbf
bf eeee
dbc dee
dbc dbe
ea dc
ed eccc
bfc dd
efc dc
ff ecc
fbc fc
bbec bec
ebb bbef
a fee
bd ecec
dbd ef
ebf df
ebb ac
ebb debe
bcc bbee
dbc bbd
bbbd bbd
bef ebc
bbbb bfc
bd eeebb
dc def
ebb bedc
fbc bbc
bd bba
ec eba
bf fdc
eec ebbc
fbc ef
eebe fc
fbe df
ecf dd
bf ebec
bcf ebc
fbe ebc
bcf a
bec fec
bc d</w>
dec dec
eec ba
ec c</w>
bdc ff
eec bbec
bfc df
ed fbf
bdc bbd
ecc efc
ebb dbb
bebbbb cc
bbebd cc
ecbe fc
bbee dbe
eec becc
bbf ccc
bec bcbc
bd eebf
eec bef
ebb beed
eec beec
bcee dc
f f</w>
bbee bebe
ebe beebb
fdf cc
dbc ebd
bd dbcc
ed cccc
ebc becc
ebf ccc
ebc bbcc
ba dc
ecc dcc
bbf ebd
dec bcc
eec fbc
bbc beec
ed debd
bbc fec
dec ef
ed ebdc
fc bebe
eebe dc
eec debb
ed dbbbb
beee a
ebe bbbf
bd bbbec
fbe ccc
ff bbbb
bbf ebf
df bfc
ed eedc
dbc ecc
bbdd dd
ee bac
bef bcc
ebd bfc
dec dbe
dbf fc
bf ebcc
bc dbbee
fee a
dbd fc
efc dd
beee bebe
ee bbccc
dbf dd
dec ebe
ec eeebe
bbcc ccc
ef beec
ef fbd
dee ecc
ebb ecbe
bbee bec
bc bac
dcc ecc
be bb</w>
ef bbebb
bbd beee
bf def
ebb debc
bbbb dbbbb
ec efcc
bf bccc
bbbd bbbe
dbd a
ba ebe
eef bbbb
dbd ebe
dc ea
bebe bbbc
bef bec
eebe dd
fed dd
bc bbebf
bd bcdc
ebd fbc
bbbbc bbc
bcc bebc
bcf ccc
fc fec
ec e</w>
ed febb
bfc a
eeef cc
bf ecbc
bd eeed
dbc bbf
bbd fee
ebf bbbe
eebe ebc
bef dbe
fbe ebb
bd ecee
bfc ebe
bd febe
bbc bebd
cccccccc cccccccc
ed dbbd
dbb bdbd
bebc ebc
bbc efc
bcc bcbc
fbe bbee
ec deecc
ba ef
bbbe df
bf bcbe
bbf bbee
bbc bbbf
bbecc cc
bbf bebe
dbd df
dbe bebe
bbf ecc
bbbd ebe
ed bedd
ecbe ccc
eec bcbc
bd beebe
bcc dcc
ebb bcebb
bbbd a
ebbc dc
bef ccc
ebbc ef
bbbe ccc
bbd bebd
bd decc
eeebe cc
ebc fcc
ebb bebbc
bcc ded
bbc eebc
fbc df
bcdd cc
beee ef
bbc debb
fc dbf
ebe bebd
ee dbfc
dbd dbe
ea ea
eeee a
f dbbcc
eeee ef
bcbe ef
dd ba
dc fdc
ebd ebf
dec eec
bd d</w>
bbcc bbbb
ecc bbbc
bbebe bbbb
ebb def
bbee fc
ebc fbe
bcc fec
bcbe dbe
eebe ebf
ecdd cc
bcbc bbbb
bec becc
ecc bfc
bbed dd
ecc ebf
bf bbbbc
efc ef
ebd ebbc
bbbe ebf
a bca
ec debf
dbb ea
ebe ded
bbee ebc
a bfc
dee dbc
eef fc
eebe bbf
bec fee
ec ebecc
bdc edc
dbbbe cc
ebb ebdc
ebb eeebe
ecc ebbc
dc bcee
fcc ccc
bcbbbb cc
dc eebd
ebec bbc
debb bbbb
bbbc dbe
bbbe ff
dee bbf
ba ba
dd fbd
bdc dbc
ebb bdbd
bbbc bbbd
ebb bbebc
ebe becc
a bea
ebb eebf
bf bcee
fbbd cc
bbd bcbc
ee dbbee
bf fed
dee dcc
bd edbd
eebe bcc
ecc bebe
bd bbbbbbbb
dc beed
bdc dbd
eec fee
be dbbcc
ded df
dbe edc
ec ebccc
bbc bbed
bec bbcc
dbc ff
ecf ef
ec defc
dee ed
eef ccc
bcbe bbbe
ec debbc
ebc eecc
fc eebc
bec debb
bbec ebe
bbd eebc
bbd beec
ecbe a
ebc ebcc
dec a
bd beef
dbf dc
ee bbbbbbbb
bbbc ed
ee dba
fc efc
ded ccc
bbf eec
ecc dbd
dbe bbee
dee bdc
ea ebe
ebc beee
bbc ebec
bf bcec
ebc ddc
ebd dcc
bbbc bebe
ebb bbbec
ed dbcc
ecc fcc
ebf ebf
bebc ef
bcc bbcc
ac a
beebb bbbb
ebd eebc
ebd bbee
bec ba
bedbe cc
bbbd dc
bbbe dbc
fc bbcc
ecf ccc
bebc ebe
ebc dbf
bf bebf
bbc fcc
ed bbef
ecbe ebe
fbc dc
bf bcbd
bec eebc
ebd debb
ed bebbc
ebb fdc
def dd
a dcc
bbf bfc
bbbe bdc
ff dcc
bbbb beee
df bbbc
bc dbfc
fc ba
bbd bbed
ff dbc
bec efc
ff ebf
be bbea
fbc dd
ed bbebc
ebd bbbd
ec dbbbc
fdbe cc
bbec dd
ec dbfc
ebe beec
dee dee
bd edcc
ff bdc
bd fa
ed fef
ebe bbebe
fbe bbbc
eec ebf
bbbb bbed
bc bbedc
eec bbee
ebd fec
eeee bbee
ef bbbf
bcbe bcc
fbc bec
eebe ecc
df bebe
ebc ecbc
ff bbd
ed dedc
bcf bec
bbbe bbec
dc ecbc
bbbb bebbbb
eec bbbd
bebc fc
ebc ebec
edc dbc
bcf bcc
ec bbccc
ebc fed
ebb dfc
dd ebbc
ee debf
dd dbf
ecbe bcc
ef bbed
bfc bec
bcf bbf
ed ecbd
ed bcebb
bdc dec
eec bebd
bcf df
ec bbedc
ebb eeec
dbd bbd
bbc becc
bbbd bbee
fbe dbe
eeee bebe
eec eecc
efc fc
beec bec
ecbe dbe
ded bec
bf dbbc
dc debe
ef ac
ee bbebbc
bf eef
bef bbbe
a dec
ecc becc
eeee bbbb
dd beee
dc eeec
ee ebccc
dd debb
bcbc bbc
edc fec
ebe fcc
dee bbd
bcc bbec
ccc ef
eedbe cc
eec eebc
ebe fbe
bbf dbc
dc eccc
bfc bbbb
dee ebb
ed eebe
bbbc df
ded bf
bd bbbcc
ac ba
dc dfc
eec ddc
dbe bebc
be debec
febd cc
edc ebb
fc bbbd
bbd fec
fcc ef
bbf bef
bbbc ebd
eef beee
bcbe a
bbbf bf
dbd bec
ec d</w>
dd bbec
ebe eebc
fbbbb cc
bcbe ebc
edc bdc
f dac
bbd fbd
ded dbe
bbf fbc
f dea
fc def
eef df
ebbc bbbe
fc becc
dc bccc
bbbf bbc
ecf a
ff ebd
ed bcdc
bef ebb
bd febc
efc a
fee ccc
ef fbf
dc bbebb
bfc bcc
bbbc eec
dcc bec
fbe bdc
bd bbebd
eeee bf
ecbe bbbb
dbb ebcc
dc bcbd
dcc ebe
bd dbdc
ecf bbc
bcf dbe
dcc ebc
edc bbbb
dec bbbb
bbcc ebe
fec bf
ccc bbc
fc ddc
dec ecc
ebf bebe
bcf bbbb
ded dee
ed fdd
bcc bbbd
ecbe bf
bc bbebbc
fc fbd
bbf bdc
bbd bbbbc
dec dbc
fec bec
bbd ebec
ebbc a
fee bbc
bbf dee
bcc efc
ebe bbed
bbbc bcbc
dbe dbd
ebb bced
ebb eccc
dd eebc
dd eecc
ebc fbd
bbbe beee
f bb</w>
edc eecc
df ddc
ecbe bec
ed ecec
ee debbc
ebc eebd
ba fc
ebf ecc
eea cc
ebc bbebb
ebc bbed
bbcc ef
ee eac
ed bbfc
ec bbbdc
edc bbd
eebe ff
dbc bbbe
ebe debb
ed ffc
dc bcec
ebd bef
dc ac
dc eeee
efc bec
eebe bec
bcc ebbc
bebc bebc
ea ef
bbbd ef
ebb bbfc
ecc bbee
ec bac
bf febb
be bbefc
ed b</w>
be debcc
bc debbc
fbc ccc
fbc bbbb
df bbee
f bbefc
ecbe edc
dcc bbc
eef bcc
ebf fee
eebe ccc
bebe ccc
d ebac
fc ebec
bbbc bbee
f debec
bd eedd
ebb eedc
ebb fef
ebf bef
ee bbba
dbb b</w>
dcc bf
bbcc bec
bbbe bef
a bbec
bd dbbbe
ebb bcdc
ebb febe
bdc bbf
ebb bba
ebb dbec
ebd efc
dbd dee
bebe beee
eeee ccc
f bbea
fcc fc
bbbe ecc
bbbc dee
be bbebec
bd ecbf
bcbe df
bbc fbd
bbbb bebd
a bbbd
ebd bbec
f debcc
a beee
bbebb bf
bbebf cc
bddd cc
dd bcbc
bbd efc
bfc ebc
bcc fee
ebe beebe
eec efc
bd ecdc
ef ecbc
eec dbf
ecc fed
ed beebc
fc debb
be dea
bec ebec
bec bebd
eec fed
ea bf
dcc dcc
bbcc bf
fbe ebf
eef bbf
bbec ebc
dbbbc cc
ebe fec
ebd bebd
ebbc bcc
bbbd dbd
dbf bf
bebbd cc
dbe dec
bbbc dbc
bd eced
ebe ddc
ebbc bbd
eef bebe
bd dbbf
ebb ecbd
ecc ebcc
ebd beec
bebc a
fbe bbd
eec bbcc
ff dee
ebd ddc
ef ebcc
ecbe dbc
bfc dbe
beecc cc
edc eebc
bdc bbbe
dd beec
bc defc
bbec df
ebe ebcc
ee defc
ebb bebbbe
ebe bbbbc
fee bbee
bcf ecc
dddd dddd
ebbc eec
dd becc
dbd ebc
ff fbc
bbbd bec
dc dbbc
dc bedc
ebe fbd
dd bebd
ebb fbbc
ef def
ebf ed
bcbc ccc
ebb beef
dd ebec
dc deec
ebd ba
fbe ed
ebb bcbf
ebe efc
edc bebc
dc eedc
dbb ecbc
dc debc
bbbb bbebe
bf beebb
bedf cc
ebe dbf
dc bbdc
ec dbbee
dc bbbf
beec bbc
bd dedc
dcc bcc
ecf ecc
ebe bccc
fbc a
ef bebd
bcbe bbf
bebc bbbe
bbec fc
ebb dbbd
ef debb
df fec
eebc bbc
dd bbcc
bd ebfc
bef bbee
be deecc
dbc dbd
ecdf cc
bbd bbbf
bebc eec
ebc ea
ded a
ebd becc
bbbd dbe
bcbe bbbc
fbe ecc
fed df
ecf bcc
bef bebe
ebe eeebb
dee bbbe
bec beee
bc bbbfc
fbc ebc
bbed bbc
bf bbdc
bfc ff
bd bbeec
fcc eec
ef becc
ed ecbe
edc dbd
ded fc
eef bbee
ebd eecc
bf bbef
ebc debe
ebd fee
bef ebf
bbebb bbbc
bcf eec
ff fee
dee bbee
ec dbecc
dea cc
a ac
ecf bec
bdbd bdbd
ff dbd
dd ebcc
dcc df
bc bbba
f deecc
ebf dbe
ff bbbe
bc eac
bbf bbbd
bcee bbc
ef bccc
dd fdc
eeee bbbe
ee deecc
ed fbbc
fcc bec
ed beebe
eec bedc
eec fbd
eec ebcc
bbbc bbec
bcf ebd
bd e</w>
bd eebbc
ebb bbbcc
bbee bcc
ed befc
ccc bf
df fbd
fbbf cc
bebe bbd
ecc bcbc
eef bec
fec bbc
e a</w>
efc bbc
ebb da
bdc fbc
dcc a
ef ebec
bbbe bbcc
ebb bedd
ebbc dbe
ef bcec
ebc bbbf
ebe ebec
eebc bec
bbd becc
bcbe ccc
bebc dd
ebbc bbf
ebc debc
edc bbf
ded dbc
ebe bcec
ebe bebf
ebd bcbc
eddd cc
bcc bccc
ddc fc
ed bcbf
bf bbebe
ebbc df
dbe ebf
bbbe dee
bf eecc
bbbb beebb
ebe ecbc
bcbe ecc
bebc df
bec ebcc
bf fef
bbd bbdd
dbd ccc
beec df
bbcc fc
ea bbc
be bbebcc
ebc bedc
bebc dc
bbbc bbbbc
bebe bdc
bfc dee
ff bef
dbd dbc
bbec ef
dbf ef
ded ef
bbbb bcbbbb
eef bef
dbd bdc
ec debcc
ecc eebd
bbbc bdc
fc bbed
bcc beee
fee beee
ecc eccc
bcc eecc
bbbd bbf
bcc eebc
debb bbc
ecc bef
ebbc ebd
dd bbed
dbc bdc
ee bbbfc
ff bbee
ecf ebc
bcc fcc
ecc eedc
bbd bbdc
fc bebd
ebe eebe
bbbc bebc
dd fed
bd c</w>
bcbe eec
bbbb edc
dbe dcc
bbebb bbebb
ecc cccc
bbd bdbd
ebe eeebe
bbc bccc
fc ebcc
ecc bbec
dc fbf
dee eec
bcf edc
a fec
dc fdd
dd ea
df bef
fbd ef
ecf edc
ecbe ebd
beec bf
eef bbbe
ee bbea
bbd fbe
dbd eec
ed eeebb
bec bbebb
dd bdbd
bec bbed
eebe bdc
bbee beee
bbcc ebc
bbc fbe
bec fcc
ecbe dcc
bfc bbf
bbc ddc
dd bbdd
bf dfc
fec ef
a bebc
ba df
dec ebd
ec bbebf
eef ebf
ed beecc
bbbe bcbc
bd ecebb
ed bbbec
bf dbbbb
edc efc
eec debc
bbbd df
fee bbf
eef ebc
dbe bcbc
dc ebdc
dee ebd
bdc ebf
dbbee cc
ecee ccc
ecc ebec
dbc bbbc
fc beee
ebb bcbbbb
a bbcc
bcee bf
bca cc
eec beee
fbc ebe
ff edc
bbbb dec
ba bbbe
dc bbdd
bbbb debb
bbf bebc
dbe bbbd
bec fed
bebbbe cc
ef fdc
bcc ebec
ebb ecec
dbb ac
ed eeed
ecc ecbc
dbc dec
dd fbe
fee fc
dddd cc
bf da
bbec a
ef eebc
bcf ebf
ecc beec
bbbc bbebb
fbc ff
ecc bebd
bec dbf
bf debe
bf fdd
ef bbef
ed beef
ed edcc
bbd fcc
edc ebf
bc bb</w>
ebcc bbc
eec dfc
fbd dd
ebc bcec
fc dbec
ff bebe
ebe dbbc
bbee bbbc
bdc ded
fbc bbf
bbbe ebbc
dec ded
fbd df
bb ee</w>
a fcc
bcbe bbd
ebe bcbd
bebbf cc
dc decc
dcc edc
dbe bef
ebe bcee
bbee ccc
bbec dee
a bcbc
dd def
bebc ccc
df efc
bbcc bcc
ebe bbef
eebbbb cc
bbbe bbbbc
ed dccc
bbf dbd
bbbb bbdd
bf eebd
bbee bbebb
bf beed
ddc ef
dc ecbe
dc ecec
dec bdc
dcc ebd
ba bba
ebc bcbd
fee bebe
dbf bbc
dc dbec
bcbe ed
ebb bcbbc
dbe bbec
bebc bcc
beee eeee
ebc def
ebcc fc
fee ff
becc bec
a bda
a fbd
bcbc fc
ee dbbcc
eec ea
fbe dbc
dbd bcc
dd dbbc
bbbb ebec
bd ebbcc
ef fef
ebc bccc
ecbc bbc
dcc dee
bbbe bbbf
bbee bbd
ed febe
fbc bcc
bc dba
ed ecdc
bef bef
ed dbdc
bbbc ff
bdbe bec
eebe edc
a ded
ebf ebd
ebb eeef
ecc fee
bbcc dd
ef dbbc
ec bbbbbbbb
ef bcee
bcbe dee
dbd ebd
dbc bebe
eebc fc
ef bcbd
bf ecbe
ebbc bbbc
bbc bcbd
bbbd bbbc
dc eeed
ed eedd
bdbe fc
ef bcf
df ba
ef bebf
bbbd fc
ebbc ebb
dec bbd
bbbd ebc
ee ecccc
beebd cc
ded bcc
ecc debb
ef bbebe
bbec dbe
ef beebb
bd dccc
bf bcbf
bdc fec
ebe fbf
bbbe bfc
ec ecccc
dd eeee
bf eccc
bebe ebf
bbbe dbd
ff eec
dc ffc
bbbb fee
bbf fee
ed edbd
ebcc ebc
edc dcc
efc dee
bdc bbbc
dbf a
ed bba
bcbe bbee
ea fc
bbbbc bbbbc
beee fc
bebc ebd
edc fbc
ecc ddc
eec ebec
ebcc ebe
ebb bdbc
bbf ba
edc ebbc
beee dd
bcbc dd
bbc bbdc
bbc def
bec fbe
bebe dbe
ebf bbd
bfc eec
bef bbd
becc eec
bd dbbbc
ed ecf
ea bbbb
fec bcc
bb ebac
ebb deec
bbec bbd
ecc fbd
bebd dd
dbb ecbe
a ebbc
bbec dc
bd bbecc
ff fcc
bcdf cc
bbed bbbb
bec fbd
dbe fbc
bcbc bcc
fee df
f bbebec
bbcc eec
bec eecc
bbec bcc
ea df
dec dcc
ebd fcc
dcdc dcdc
bcee fc
beec dd
bbbe ba
bebc bbd
bbf edc
ebf bbbc
eef dbe
bebe bef
dc bced
bd eba
bbc eebd
bcbc bf
ebb cccc
dee bbbc
d ebb</w>
bbbe fbc
beee ccc
da a
bcbbd cc
bbebb bbf
bebe df
ecf df
bbc ebcc
eec fcc
dc bcbe
ebec bbbb
ded ebc
fbbbe cc
ebf bdc
bebe ecc
bbc eeec
beee bbf
bbbbc bbbc
be dbbbbc
dd debe
dec ed
a bbbf
ebb debd
ebec bec
ebb fdd
bebd bbbb
bef ebd
dec bbf
edc bfc
edc fcc
ecf eec
dd dbbbb
bdc dcc
ba bcc
ded eec
ebb fbbbb
bbee df
fbe ebd
eebe ebd
ee debcc
bbc debe
ebf eec
eecc ccc
bbc dbbc
ebc bbdc
fbd bf
ebe febb
fee bbbb
ff bbbc
ebc eedc
bec bedc
bd debf
ebb ffc
bbec eec
bbebb bebe
be f</w>
ebc dfc
a ddc
ebf bbee
bbc fed
ee dea
bbc ecbc
ecbe bdc
ded dec
ebe bcbe
dc febb
ff bfc
fbc eec
debb dd
fc bbbf
bcc beec
bbbe bbbbbbbb
eebe bbbc
eef ecc
ed d</w>
ebc bbbbc
ba bec
ebe bbdc
bf dbb
dbe bfc
bbbb beec
bc debec
bebe bebc
bcc becc
dee ff
ebcc ef
bbbd dbc
cccccc ccc
bbbb dbf
bef ecc
bdf df
dc bbbbc
eebbd cc
bcee bec
a bbebb
ecbe df
bcf bdc
ac ea
dc bebf
ec dea
dee dbd
fc fed
fbe eec
bbd bcbd
ecbe bbbe
bbc eecc
bcc ddc
bcc fbd
fc ecbc
ebb bbebd
dc bedd
a dbf
ed fa
ebb eebbbb
bef bbbc
bbf bbbf
a efc
bcee dbe
bc dbbcc
dc ecbd
bbbb bbdc
fee bbbe
fcc df
dbc fbc
bef bdc
dc da
ec dba
ebc eccc
bbc ea
bebd bec
bcf bbd
bc deecc
ccc bec
bd eeebe
dee dec
dbc edc
bbebb bec
bbed bf
bcbe ebd
ef fed
dc bdbd
bbf ebbc
bbc bbbbbbbb
ebb febc
dc dbb
f eb</w>
ebd dbf
d bf</w>
bd bbbdc
ccc eec
ebd fbd
df bebc
dbd ed
dc eebe
ebc dbbc
ecbe ef
fbe bfc
fc bccc
bebe bbebb
bbec bbbe
bef eec
fc bcec
fee bcc
ded ebe
bcbc ef
ebf dbc
bcf dee
bebe ff
bc ecccc
fc beed
bcf bbbe
bba bbbb
edc beec
ec eac
eeee fee
edc becc
ecbc dd
bebc bbbc
eebc ebc
bb ed</w>
bbc bcee
ebd ebcc
bcf dbc
ed bcdd
eebc bbbb
bbebb bbd
ebb bdbe
a da
ed bebbbb
bbc bcec
ecc fdc
ebb ecf
df ebbc
bbebb ef
df dbf
bebc bbf
ebc beed
ebd debe
bef dbc
bf bbfc
ebe eecc
bf bedc
ecc bbcc
ebf beee
ed bbebd
bebc dbe
ebc ebdc
dee ddc
ed bebec
ebcc dd
eebc dd
ed eebf
bec ddc
becc ccc
eec dbbc
bf debc
ed dbbf
ba bbd
bbbc dbd
bebe ebd
ebc eeec
ba dbe
ed bbecc
ecbc ccc
ef bbdc
bdc bfc
a eeee
df fdc
bbc beed
df bcbc
bbf bbec
bdbd dd
ebd beee
ebf edc
bbc eeee
bec beed
bbbc bbcc
bdc efc
ec debec
eca cc
dec ff
fc deec
bd ecdd
ebbc dee
eebe bbd
bbbb bcbd
ebd bbcc
ebec ebc
ecc ea
df ded
dcc ff
fdbc cc
eedf cc
dbb bddd
fed ccc
bbbf bbf
beebb ebe
dc eef
fc eecc
efc bcc
bf ecbd
bebd bbc
becc ef
bd eeef
ed febc
ba bbf
df bbcc
bcbe dbc
bb ec</w>
bfc bbd
ec bbebbc
bbbc ebf
dbd bbbe
bf bced
df fee
ebd ebec
ebb fa
dc beebb
bbbf bbbe
ebb eeed
dbe bbcc
ec deccc
bec def
bbee ebf
bebe dbc
ec bbbfc
ebbc dbc
fec fc
ecbe bbd
bc dbecc
eec def
ecc bedc
ecc eeec
ed bea
beee bcc
ebc fdc
eec ecbc
ebb decc
bbc bbebe
bdc bebe
fbe ba
bbf bbcc
dec dbd
dec beec
ef beebe
fc dfc
bbbd bcc
f be</w>
edc debb
bbed df
bcf bbbc
bbbbc bbbe
dc bbef
ef febb
ebcc bec
ef dfc
ebd ea
dee bbec
bf bbebc
dc bcdc
ebb b</w>
ef beed
dcc dbe
fec a
dd ac
dbb ebdc
ebbc bebe
bcf bfc
bcbe bdc
ed bbbcc
ebc bcee
ecc bbbd
bd efcc
bbed bec
febf cc
ebd ecbc
ebbc bdc
eec eebd
bcbc ebe
ebb dbcc
bbd ea
ba bca
ddc ebe
fc bcbd
bbc beebb
ed dbbbe
bcbc bec
dbbc bbbb
bbc fbf
df bbec
bdf dbe
f bbebcc
bbc bebf
eeee bbf
bbed ebe
ed bebcc
dd dfc
ebf dee
ebb edcc
ef eccc
efc ff
ebec bcc
ebc febb
bccc cccc
bbebe bbbe
ed debf
bfc bbbc
ebb edbd
dc ecdc
dd bbebb
ed bfcc
dba cc
bf eebe
fc ac
dcc dbc
ecf ebe
bbbd bebe
ebec a
fbd bec
dd eebd
bbbbbbbb cc
dc ecee
bef beee
ed bcbbc
bef dee
bcc dbf
bd ebbebb
bf eebf
bbbd dee
bbee dbc
ebbc ecc
dbd ff
bf fbbc
bbf bbebb
bcc ebcc
bdf bec
eebc ccc
bbbe edc
fc fbe
ebb bdcc
ba ff
bebc bebe
bf ffc
bebc dee
dc fef
bbbb ded
ebd fed
bf bebbc
ebb eebbc
fc bbebb
ebf fbc
ebb ecebb
dc eedd
fc bedc
fcc dd
ebf bfc
ec dedcc
bbf dec
ee bb</w>
fc ea
edc bebe
ebc bebf
be debdc
bcbe ff
edc fed
ed bcfc
bcc ba
bbc bbef
bf bcebb
ebb ecdc
ebe beef
bf cccc
bdc bbee
bbd eebd
dbe ba
ecbbd cc
dc bcf
eec bbed
dbd bbf
df ac
eebc ef
ebe ac
dcc bbbb
ebbc ebbc
dbd ecc
bbbd ebd
dd eccc
edc bbee
bcee ccc
dd bbdc
bcc fed
fec dec
eec decc
ff ddc
efc dec
eec eedc
bebc ecc
eef bdc
bf ebdc
eebc a
bcec bec
bbbe dec
eec fdc
bbec bbf
fee fee
bbd eecc
ebd eebd
fec dee
dbb ecbd
bbec bebe
dbf df
be be</w>
bdbe a
efc ebc
eef dbc
bdbc bbbb
ebe eebf
bbed a
bebbee cc
fc debc
ddc ecc
fbc dbe
bc debcc
bdf ccc
bcbc bbbc
edc bbbc
bbbf ef
dc bbebe
beff cc
fbc dee
becc ebc
ded ded
bebbbc cc
eebe eec
eebe dbc
dc dccc
ff dec
ed ebfc
ed bcebc
eef bbd
ecf bdc
bf febe
bf bbdd
df bbbd
be bbac
bbc dbbbb
efc dbe
ef eecc
ed eced
bbc bcbe
edc bbbe
edc ebec
eef ba
bbee ebd
bbc bedc
a fbe
eebe dbe
be eb</w>
bf bdbd
bcc bebd
ecf bbbb
bdc bbbd
bdc bebc
dd dbb
bbee ff
bdbe bbbe
ebe fef
beec bbbb
bdbe dbe
ebec fc
ebb bdebb
ef da
bbd ebcc
beec a
debb bec
dd bcee
ec dbbcc
bf dbec
dc edcc
ecbc bec
eec bcbd
bd dbbee
dc bcbf
ebe febe
dbd bbbd
bbbc ebbc
eebe ba
bcec dee
bcc bbed
ecc debc
ecc beee
ecc bccc
eec deec
beec dec
ecf ebd
dd bcbd
dc dbcc
dd b</w>
fbe dee
eeebb bbbb
edc eebd
ef bbbbc
be dac
ebb beebc
ebe beed
bf eeec
dbc ded
bbebb a
ebb eedd
ecbbbb cc
bbc bbdd
ebb bebec
fee bec
dc dbbbb
ef beef
ecc edcc
ea dbe
ed eebbc
ebe eebd
bbbbbbbbbbbbbbbb bbbbbbbb
bbbf bec
ebb dbbbe
bbf bcbc
ccc ebc
ded bbbb
f deccc
bfc dbc
bf beebe
fbc bbd
ff dbf
bdf bbbb
ebcc bbbb
ebb ebfc
ed bcef
ed e</w>
beec dee
bcee bbbb
eebc bcc
ebec df
bbbf a
bf bba
ddc ddc
ebb bcdd
ebf bebc
ebbc ff
dbb bdbc
ecc dbf
dd beed
fbd fc
edc ebcc
fee eeee
bbebb bbee
ee bbefc
ccc df
becc fc
bedbc cc
efc eec
beec ef
ecbe dbd
dc debd
ebe bedc
eeee bbc
bc bbebec
fbd a
ed fbec
dee bebe
fdc df
dd ecbc
bbbe bbed
bbf beee
ebd bbed
bbbe debb
bcee a
ebe eef
dbc bbee
ebbc bbee
ebb bded
eec bccc
ebd debc
bbbe beebb
efc bbbb
eebbf cc
bcee ebc
ecc ebdc
fec dbe
bbf dbf
ddc df
ed bebbd
dd eeec
dbc bbbd
ebb bebbd
dc eebf
dbb bdbbbb
bbec ebd
fc fbf
edc fee
f dbbbbc
dc dedc
ddc eec
fbc bfc
beee bec
ebe debe
bdc bef
f debdc
bbcc bbcc
ebcc eec
bd ebecc
ed c</w>
ddc bec
bbf fbd
dee bebc
ebec dd
dbc dcc
ded dbd
ebe def
bbec bbbc
eebe ea
ecbc fc
ccc dcc
ecee bbc
ebbc bbbd
bcc debb
bbf fcc
bbbf fc
eeec bec
dc b</w>
fbef cc
ddc dbe
dd da
bba a
bbd b</w>
ded bdc
dc eced
bcbc ebc
ed bbeec
dbc bef
ecbc ebc
ebe fdc
eef dee
bf bdcc
dc dbbd
ff fbd
bbbbbbbb bbbc
dbd bebe
bbdd bbbb
bbec dec
eccc ecc
ecee dbe
bbcc a
ecbe eec
ef debe
dd debc
bbebe bbc
bc bbefc
ba bbbc
ebb eba
ebc fbf
dbf bbbb
bcee df
bbd fbf
bbd beebb
ef cccc
bbd fed
bbd beed
fec ff
f bd</w>
bdc fee
becc a
ebb bea
bbbd eec
bbed dbe
dbc bcbc
ccc a
dbc ebf
ebbc dec
bfc dec
ddc bcc
eecc fc
bcec dd
bebe eeee
bcec df
bc dea
ebe eccc
ebbee bbee
bebd df
bcf dbd
ebd def
dbf bec
eebc df
bbd eeec
bcbc a
ecbe bbf
ebb bcebe
eebc eec
dcc dec
bfc ecc
fee dbe
ee debec
eecc eec
bdf bcc
bcbe edc
ebe bced
ebc beebb
bb ebb</w>
dd fdd
dee edc
ebe debc
ebc eeee
ebc cccc
bbee bdc
dec bbbe
ea ba
fc dbbc
fcc a
bbbc ecc
ebb befc
bbbc bfc
bcbe bbec
eebe bbebb
fed bec
ec ebdcc
bf beef
bbdc bbbb
d ef</w>
bbd eeee
ddc a
bbee dee
ebc bbebe
dbe beee
becc bbc
dd fbf
eebc ecc
ebd dbbc
bf bbbec
ebb ecbf
bbbc fbc
bebe eec
ed fbcc
ebd bbebb
dcc bdc
edc bebd
bfc bbbe
ccc ebe
ccc bbbb
bebc ff
ec bbba
dc bdcc
dddd dd
bec bbbf
fbe dec
ef dbec
dbd dec
bbed dee
fcc ff
bcee bcc
eef eec
ed ecbf
ed fecc
bf eeebb
def fc
ccc dee
bbbc bef
ebb ecee
ebbc edc
dbd ded
bcf bebe
ebc ecbd
eec beed
ebe bba
dbe ded
ebf ba
dbc bebc
ef febe
fbd bbc
becc ecc
bbbe bebbbb
bfc ebd
ebe bebbbb
be bc</w>
fbe edc
ebb bdbf
bdbe bcc
ef debc
ddc dee
bbbe bebd
ecbe dee
bf ecf
dd bccc
bf ecbf
bcf bbee
bf bebbbb
ebe bcebb
ddc dcc
eeee ebf
eeee bef
bec ecbc
fcc bbc
bec debc
ddc bbc
ebb bdf
bbf fec
ecc ba
fbebe cc
bd bac
bbbb fbd
def a
ecc decc
ebe fed
eebe df
ef eef
dbe bbebb
ee bbebcc
ebc bced
bebe bbcc
f bbac
bebe edc
dbe ebbc
fbc ebd
bbd ecbc
bcf dec
bbec bbec
ddc ebc
bbee bef
bbbd bdc
ff ba
dee bcbc
ef bcbe
ef eebd
bcbd dd
bbbbc bec
ef fdd
fec eec
bebc dec
beec bcc
bbbe bbebe
bfc bdc
bda cc
bd dbfc
bbec dbc
ac da
ecbe ed
debb a
ef bced
be bd</w>
ebb bbeec
bbbb eebc
dcc cccc
bbd bbbbbbbb
def dc
bcee eec
bcec bbc
ef eeebe
fcc bcc
def ccc
fdcc cc
ebb ebbcc
fbe bbcc
eecc bec
bbd bbebe
ea ccc
ebc deec
eef ebd
ea ff
fc bbdc
beee ff
bbebb bbbbbbbb
ee bbebec
bef ba
bebd a
ecbe bbbc
bcee dee
debb bbbe
dbbd bbbb
fcc bf
bef bfc
fbc ecc
dbd bbbc
ebb bebbf
f bc</w>
bbebb ebc
eeec bbc
bcebd cc
bbef bbbb
ecee ecc
bebe ba
fee ebf
febb bbbb
dbe dbf
fee bdc
ef ebdc
dbe beec
fbbee cc
fbc dec
bcbe ebf
bc ffcc
ebcc bcc
ebb eced
ebcc a
eeec a
ebbc bebc
beee ebf
fbc bbbe
ccc ff
ebe bcf
dbc bfc
ebb bdee
ebc dbec
beec eec
bcebb bbbb
ded ecc
ebc bbdd
ebbc ed
ebe dfc
ebbc ebf
ebc bedd
debb fc
ebb fbec
dc eeebb
dd decc
bbc fdc
ff bcbc
bbcc ebd
bbf dcc
bec beebb
bbcc bbd
ec debdc
bef bebc
ded beec
bdc bbec
fbbbc cc
bbee eec
f ee</w>
bbee ecc
dbbbb bbc
dbc fee
bcbbf cc
bf bcdc
ed bcebe
ba bea
debb ebe
edc ea
ecbe ddc
a fbf
bdbbbb cc
fbe dcc
bfc bfc
bbbc dec
ed beebd
bcee ebe
bbebe bebe
bddd dd
ebd dfc
bbbf ebe
dbe bebd
dbbc bbc
ecee bcc
fbc fbc
bdc eecc
dc dbdc
edc bef
bcbc dee
edc ecbc
be bbeccc
fcc ebc
bdf bbf
bbee bbec
bbee eeee
fbe bbebb
dbf ccc
ecee a
bdbe ebc
bbbbc bcc
f ed</w>
ef eebf
bdbe df
dd bcec
beee fee
ebcc ecc
bec dbec
dbe debb
bdc ebec
ded dcc
dc ecbf
bbd bebf
bbbf ff
bbbb bbbec
eef bbbc
eebc bf
eebc bbf
bbbb bebf
bcbe dec
ebb dbbf
eec eccc
ed ebbcc
eec da
bbed ebc
bcc eebd
bbbe fee
edc fbd
dbd dcc
bbcc df
dc bded
ecec df
ebb bcebc
bbbb dbbc
bbd bedc
ecf bbf
eec debe
debb df
eebc ebe
bbbb bbebc
debb ebc
bccc bcc
ed edbf
bec ea
bcbc df
dbf dbe
dc bcdd
ecf dbe
eeebe ebe
bec deec
edc debc
fbc dbc
dbb eccc
dee ebf
ebcc ebd
fc fdc
dee bef
bbee bebc
dec bebc
dd bbbf
bbc debc
ba ebc
ebbbbbb cc
edc ddc
bbebb bbbd
fec ebc
bbd bcec
ebec bf
ee f</w>
ebcc bf
ed fdf
fbe ea
edc eccc
bbbc beee
bec dfc
beebb a
bec dbbc
ac df
bbbb bbbcc
bd bbedc
ebec ef
ebbc fbc
ed eddc
edc eedc
dbf ff
bd defc
ba ccc
bbcc bbbe
bec bcec
bcc def
bcc eeec
ebb bebcc
bbdc dd
bbc febb
bebe bcbc
bd bbccc
efc ebe
ddc dbd
beebf cc
bbd fdc
beec dbe
bbbb fbe
bec eedc
becc ebe
dbc beee
a bdbf
ebb dedc
bf fa
edc dbf
ebb bebbee
bcc ffc
bfc ebf
bcf dcc
bcbbbe cc
ebb bcef
dc beef
ee ebdcc
eebd dd
dbe fcc
bec bbbbc
bbbb dcc
bbc ac
bef dbd
ed eeebe
eec ebdc
dee ba
eecc ecc
dbc fec
beebb bbbe
ef eeef
bdbe bbd
ed eba
ebb bcfc
bdc ebbc
bebe bbbd
eebc bedf
dc bbfc
beec fc
bfc fbc
eec bbdc
bbbf bbbc
bbee ba
ebb bddd
ef bcbf
bbcc ecc
bebd ebc
dd dbbd
efc ecc
bbcc bbbc
f ec</w>
beee bef
bec bcbd
bbec bebc
eecc ebc
fc eccc
fcc ecc
bb bf</w>
ecbc bcc
bbebe ebe
fc da
ded bbd
bbed ef
eef ea
ecbe dec
bcbbbc cc
bbdc bbc
eec dbec
bbbb bccc
bec bccc
df ea
debb ef
dee bfc
eec eeec
bbf efc
bef dec
dbe ddc
beee ecc
bbbf dd
fed a
bec eeec
bbbd ff
beee ba
eecc a
bbbe beec
bbba cc
ebec ebd
eeee ff
ebb bfcc
ebf dec
bebd ef
ebb bdec
fc eeec
bbec ff
bdbc bbc
ebbc dbd
ebec ebe
ecf dbc
dbbbb bbbd
efc dbc
dd bedc
bdc fbd
ed efcc
bcc bbebb
bec bbdc
ebd bedc
edc bcbc
ed ecee
bbec ecc
bec eebd
bdc eebc
ecbc bf
bbd febb
def df
fec dbc
bbd bccc
bbbb bdbd
ebc ac
eec bedd
eedbc cc
becc edc
eebbbe cc
bbbb fbf
ded ebd
bcee ecc
bec debe
ebcc edc
bbbb fec
eec dedc
ef bedc
ea bcc
bdbe bbbc
eec bbebb
fed dc
bbbd ccc
fdd dd
bdc bcbc
bf ecec
cccccccc cc
bd bb</w>
bbbb becc
beee bbbc
bbcc dbe
fbe bbec
ed ecebb
dbbc dd
dbb ecec
ecbc ecc
bdf ecc
bebd fc
ebb fbcc
bbc bdbd
ed bedbe
bbc bcf
dbd bdbd
dbf bcc
bdbe ebd
ed defc
bcee ef
bf dbbd
ac dd
ded ff
ddc dbc
ba dee
ebf fcc
ebb bdbbbb
bbbd bbebb
fbc bbbc
beee dc
ebec dc
eeebb a
edc eeec
dbb cccc
ebe bbbec
ebe eeef
bf deec
dec bef
bbf bbef
eebc dbe
bcbcbcbc bcbcbcbc
bbbb efc
ed feec
bd bbebf
bf bcef
fc bbbbc
bcc bbbf
bbbe becc
ebb dbdc
ebd bbbf
bbf fbf
bebe fee
dd ebdc
bcbe bfc
ebcc df
beec ebc
bd debbc
fec ded
a eba
dbc bbec
ebbc bbec
eef dcc
bbbbbbbb bbbbc
dbe bbed
bebe bbec
bcbe dbd
ed deecc
bcbe bbebb
ebf dcc
ef ecbd
ebd bbdc
bdc ddc
ebe bebbc
ebd fdc
eec bcec
dd cccc
bcc fdc
bbbb ea
ef eeebb
bbf debb
fbd ff
fbd ccc
beed df
fdbd cc
ebf eeee
bdc dbf
ebe bbebc
fbe bbbd
dee fbc
eccc fc
bccc fc
a bbed
edc bbec
bebe beebb
beee dbc
dbe fee
bbd bbef
beee ebc
bbc bbebc
ddc dec
ecee dcc
be deccc
bbbe dcc
bf eedc
efc ded
ecc ecdc
dbf ebc
ecc bbed
bc bbea
ed dbbee
dbb edbd
a fed
bec ebdc
ee bbac
dbe becc
dbb bdcc
bbee fee
dc bbebc
ebe bbdd
bbf bbbbc
bbee bbbd
dfc fc
ecee fc
ed dbfc
bbc bbbec
ded bebc
bcf bebc
ed ecdd
bbbb bcbbc
dbb bded
dc edbd
fbc fec
dd deec
a ebec
ed bcbbbb
bbd bcee
bdc bebd
bebbbb bbbe
be db</w>
ebe ebdc
bebe dee
ecc bcec
bd dba
dbe fec
ebf ebbc
ed fbbbb
dd d</w>
ebd beed
dc beebe
ebe bdbd
dc bcebb
ecee ebc
bbf beec
bfc bebc
ec ffcc
bdc beec
bbbbbbbbbbbbbbbb bbbbbbbbbbbbbbbb
bbbb fcc
bfc bef
bbebb bcc
fbe bbbf
debb ccc
ebb bedbe
bbc bcbf
ebb bbecc
bbee ebbc
d a</w>
dd dbec
ee deccc
bbc bebbc
bbc dfc
df becc
ebf dbd
bebe ebbc
debb dbe
bbbb bebbc
bef ebbc
bbcc ff
eebc ebd
bf bfcc
ef bba
bbbb bbef
fbebc cc
ebe dbbbb
bbc bbbcc
eebc dbc
eebe dcc
be bbebdc
fbe dbd
bdbe ccc
eeebe eeee
ebec dbe
bcbc bbbe
f db</w>
ea bbbe
fbe ebbc
ebb bcbec
ebe dbec
bcf ebbc
bd ebccc
dd eedc
bdf dbc
bc f</w>
ebec bbbe
ecbe bbee
ebbee bbbe
ebe da
bbbc ba
ed dbbbc
becc bcc
ded bbec
ffc df
dc febc
edc decc
ebec dee
ebec dbc
bdbe ecc
bbd ac
bdc fcc
eebe bbebe
fc eebd
bbbbbbbb bbbe
ef fa
fc debe
bcbc dbe
ebe eeec
ebe ecbd
ded bbf
bdf eec
dc febe
ecbe ff
ed ecbbc
edc dfc
ed edbc
dbd ddc
a beec
ed beeec
bcbe bbcc
bdbbd cc
ebd eeec
ebf bbbd
dd bddd
bbbc bbbf
dc ecf
dc c</w>
dbbbb bbbe
ef bbdd
bcbe dcc
bdbe bbf
bcf bef
beee dbe
bcee bbf
dee beec
dd dbcc
dbf bbf
fc beebb
bebd bf
bdc debb
ee dac
ec befcc
dc bddd
ebb bddc
ebc bcdc
ebf bbcc
fee bef
ee debdc
ebb fbbd
ba bebe
ff fec
dec edc
ebb eea
bebd eec
febb a
ebb fecc
fdd df
bdf ebd
ebe cccc
bbbbc bbd
eebc bbd
ebc decc
dbb bdee
dec bebe
ea dee
bbbb eeee
bbc dbec
fbf ef
dc bddc
debb bbd
ed debbc
ecee df
bf fbbbb
ebc ecec
dec bbbc
bef bbec
bbbb bba
fc ebdc
bbc bced
bdc fed
ebf bcbc
fdc ef
fbc bebe
dfc df
ebb bfbf
dbf ecc
ff bebc
bdc beee
bdbc dd
ebd ebdc
ff beee
beec bebc
bebd dbe
ef fbbc
fc eeee
eecc edc
eeec df
ed eefc
bbbb bcebb
bcbc bebc
eec bbbf
bcc bbbbc
bbbc bbbbbbbb
bef edc
bf bbbcc
eef bfc
ebb fbbf
eec fbe
dbbbb bbbbbbbb
ec f</w>
ec bbefc
bbcc bbf
ed bedf
dbb d</w>
fbc bebc
eebc edc
ebb bbbdc
ecbc ef
ff bbec
eebef cc
ebf fec
bef dcc
ebc ecdc
efc bdc
bf dbcc
ebc bbef
dbd edc
efc ebd
fc fef
ea bbf
eebc bbbe
bbbb febb
fee dbc
bcec dbe
bdf bbd
ccc edc
dee bbbd
eedcc cc
ebb bbebf
ea bec
dc ecdd
bbc bcbbc
beee bbd
bc dbbbbc
dee ebbc
bf edcc
bbbb bcbe
ecc dfc
dbbbb bbd
beed dd
eecc ef
bc dac
dec bfc
ebec bbd
fbd eec
bdf ebf
bdc ba
a def
bbbf df
a debb
fc bcee
ebd eedc
fbd ebc
eebe bbbd
bcbc bbf
fc eedc
dbf ebe
ecc fdd
ac bbc
ebb ecbbc
eccc dd
dcc bbd
bcbc eec
bf eeebe
dc bcef
ebd bcbd
fbc bdc
dc bebbc
bebf bbc
a fa
bc bc</w>
bf febc
ebd febb
dcc ded
bcbc bbd
dc fbbc
bbbf bcc
ebb bbccc
bef bbebb
ba dbc
efc bbf
bebc dbc
ef eeec
dbb bdebb
beebb bebe
bbcc bdc
bf bcbbc
ee dbbbd
dc bdee
fee ebc
bdbe eec
dcc fec
bdf dee
a bebd
bfc dbd
beebb bbc
ebe bdcc
dbe fbd
eecc bbc
ed eeef
bbbd bebc
ee dbbbbc
bf edbd
bcc ea
bc bbebcc
ebb bebdc
bcee dbc
ecec bbc
ebb fbbbe
ef bbebc
ef bdbd
ebb dbbbc
fc bebf
dcc dbd
bbdd dbd
df beee
ec bbfcc
bf ecdc
edc bedc
ecbc bbbb
fc febb
bcc eeee
debb bbf
eebd bec
ccc dbe
dec bbec
fc bbfc
fed bbc
ed debcc
fec bbbb
ebe bbfc
fc bcf
dbc ebbc
dbb ecbf
ebec ecc
ebd eccc
bbf bbed
eebe bbcc
ebc debd
eebd bbc
dfc dd
fee ba
bccc bccc
deec df
dc bdbc
fec bdc
bcc ecbc
bcc bedc
ebec eec
bcee bbbe
bc dbbbd
ac bec
eecc dd
eebe ebbc
edc bbbd
bebe bfc
ddc ff
debe bbc
edc def
bebe fbc
bbdc bec
bdbe dee
bf fbbd
ed eea
ebd bcec
bbee beebb
bbbf bbd
bccc dd
ee ffcc
fdc dd
bcc bcec
df fbf
bbbd dbbbb
eef dbd
bcf bbec
beed bec
bd bbba
ff fbf
ecc ecec
dcc bbf
ebec bbbc
ff efc
dbb bdbf
bbbb b</w>
ecbc eec
a eebc
ecbc df
bcc bcbd
bcc eedc
bef eeee
ecee dbc
bbbb fbbbb
bbbf ebc
eebd ebc
eeec dd
ed febd
ebbc bfc
bbed dbc
eef bebc
bced dd
bbbb ebcc
ba bdc
fcc fec
bedcc cc
ed bebbbe
ebbee beee
ebe bcdc
bbbe eeee
bbbc beec
a fdc
dc dddd
bbebb bbbbc
ef ffc
dee bbcc
df fbe
ebb febd
bf bdbc
bef bcbc
a bbbbc
bebc bdc
ed eddd
fee ecc
ef bcdc
bbed eec
bbc bebbbb
dc befc
bebc edc
ecbe ebf
beebe ebe
bfc bbec
bdf bdc
ebec bbf
bcc bcee
eeebb ebe
ecc ecbd
a becc
debe dd
ecec bec
dc fa
beee bdc
debb bf
bcf efc
fed bf
bcc fbe
bbebb bebc
bdbe bbee
dbf ba
bbc bbfc
ebd bbdd
dc bba
eec beebb
bef ea
beee df
da dd
dbe def
bbebb dd
bbed fc
ebe bcbf
ebc bcbe
beec dbc
bbee fbc
ebec bdc
ef bbfc
bec bebf
eebd a
ac fc
bbf bebd
bfc ded
bcdbc cc
bcc beed
bbf fbe
ed beccc
ebb edbc
dbb bddc
fcc edc
becc df
bbebb fc
dbd bebc
dbbbb bbbc
ecbc dee
bbf ea
eebe bbec
bdbe bdc
bd deecc
ebb beebd
dc ebfc
ded ddc
bebbc bbbb
ef bcebb
ff bbcc
efc bebc
bdee bec
ef bdcc
efc bbd
ecc beed
bbbf bebe
becc dd
bbebe bbee
f bbebdc
fbc bef
ecf bbbc
ecf bfc
ebb feec
ff ea
bbc eeebb
ebf fbd
ccc dbc
ebd bccc
bbbbc ebe
ed ebecc
ebb eddc
debb bbbc
dbbc bec
bbbec bbbb
debc bec
bcbe ebbc
bc befcc
bf befc
ecbd dd
ef deec
ecc ac
bbee dec
bef bbbd
ddc bdc
bf bdbf
bbee bfc
bcbe bbbd
df ebcc
ebf bbec
fc bced
bdf bbbe
bbc eedc
fc bcbf
bcc bbdc
bcc fbf
bebd bbd
bbc ebdc
bbc bcebb
ebd da
ebd fbe
ba bbbd
def dbe
ecc eedd
bbcc dee
fc bbef
bebf bbbb
ed fbbd
ecbc ebe
dbc fcc
bef dbf
ecf bbd
ecf bbbe
ecf ebf
ebb bdbbc
beee bbebb
bdf edc
ebd deec
dbc beec
bebc ded
bbbbc bbf
ecf dcc
ebb bebbbc
eebe bbbf
f dd</w>
ebbc bcbc
fbd dbe
ebd bdbd
bebd bbbe
efc bbbc
ddc bbbb
dee dbf
bbef a
bbc bcbbbb
eccc ebc
ebec dec
fee bbd
eebd fc
ebb ecdd
fbc ebf
bf fdf
bbed bbd
dbd bbee
ecec dd
eebbee cc
ec dac
dbd ebf
bbc eeed
ba bbee
bbdc ebe
ebd bebf
fbc ded
bf bcbbbb
bbbb ebbbbbb
ba ebf
ddc ded
debb eec
bbbbc bbbd
dc d</w>
bbbbbbbb bbbd
bd eac
ebc da
dbe bccc
dee beee
bedc bec
bbbb bdbbbb
bdc becc
bfc bcbc
eebc bbbc
bbf ded
eebc dec
fec dcc
a bccc
ebc bcf
bbbbc dd
bcec dec
bf debd
bfc beec
ed beedc
bbc deec
bf bedd
bebc bbee
bdf dbd
bbbe fbd
dd ffc
ecc edbd
eebc dc
ebc bdbd
dbb ecebb
bebc ebbc
eebd df
bdbc bec
fec bbf
ecec bcc
ecc debe
dbb eced
ecbc dbe
dee fcc
bebd ebe
ebc bcebb
bd dbbcc
ecc febb
bdbe dbc
ebc ffc
ddc ebd
ebdc ebe
dbbbb dd
ecdbc cc
a bcbd
eec ac
bbbe dbf
bebc bfc
eeee dd
bbec ded
ed eeebc
bbdc ef
ecc bedd
bbbe ea
bc eeeecc
bf bded
bec bedd
edc ba
bf eeef
ecc bcbd
eebc bdc
bf eeed
eef dec
eecc bcc
bbbf dbe
bbed ccc
ed bac
eebc dee
fbd bbbb
ed bbbdc
fc bbdd
ff ebbc
dbd fbc
debc df
fbf a
bbebc bbbb
ecf dec
ecc def
beec ded
ec dcccc
dc fecc
eec eeee
fbe debb
dbf bbd
bbcc dbc
eecc bbbb
bf ebfc
ebcc bdc
dcc fbc
bdbc ebe
ebbee bebe
ebc bbfc
eebe bfc
fdc bec
bbee bbebe
ebf ea
ed bbedc
ebc eebf
ccc bccc
bbec bdc
ebcc dbe
bbed bcc
eec debd
ec bbebec
bef efc
df bccc
bcf dbf
ef bebbc
ecbc a
bebd dee
bcec fc
edc ebdc
eec bbbbc
ba ea
ccc dec
ff ded
fa a
ebc eedd
fbe dbf
df fed
dbb ebfc
bebd bbf
ecf dee
ff bbbd
debb bcc
da bca
fbf fc
bbd bebbbb
ecbc bbf
bbed bbbe
f ebac
bc debdc
dc efcc
efc bfc
bcee bdc
be bbb</w>
ac ef
def bcc
dc eddc
ebe bea
ebc eeed
bdee a
ecc eddc
bbee bbcc
dbb ecee
fbf ff
eebf a
bebc bcbc
ec ebfcc
bbef dd
eeec bcc
bbc fbbc
df debb
bbea cc
ec bb</w>
fcc ebe
bebd bebe
ebc bebbc
fc ffc
d ebe</w>
fc decc
eeee bcc
eef edc
ed bebdc
debe bbbb
df eccc
bcee efc
ee be</w>
dbd ba
bcbebe cc
ccc bdc
eeee beebe
ecbe bfc
fee dcc
ebd bbbbc
bdf dcc
bbbc ded
bebf a
eeee eeebe
def bbc
ebd dbbbb
eeee ba
ed fdbe
ebb efcc
ecc bbdc
bf bebec
beec ebe
eccc bcc
ebf bbbf
becc bbbb
ef dbcc
bcee bbbc
ac dee
ecbe ebbc
fec fec
ecbc dec
fcc dec
ed eebcc
ed dbecc
edc beee
bc ebfcc
dc e</w>
bcbd bbbb
ecec ebc
dd bced
edc fdc
bbbc bbed
eebe dbd
ebd decc
ebbc bef
ecee bdc
dc bbbec
eec bebf
beec bbd
bf fbcc
dc bdbf
fec bbd
ebd fbf
dbb bdbe
bbebb dbe
fed ef
ecc dedc
efc dcc
ebcc ff
ee bc</w>
ebdc dd
bebe bbebe
ddc bbd
beed a
dbc bbed
ee bd</w>
bebd bebc
beebb ef
bbef bbc
ddc bf
bdbc fc
fec bfc
ebd dbec
bbbe ebec
dbf dee
bdbc ef
bbbbc bbbbbbbb
bd debec
bebe dec
dd edcc
ebf efc
bebe beec
fba cc
dc ddcc
ff ac
ecee bbbb
fbf ccc
febb ebe
bdee bbbb
eba a
bdee fc
fbc bbee
ecbe bbcc
fef a
bef bbcc
fee bbbc
ecc deec
dee ded
dec becc
bcbc dbc
fbd ebe
eccc edc
eeec bbbb
f bf</w>
bebc bbec
bcec ebc
bec da
ff fbe
bf dbbf
bbee dbd
bbd eedc
bdc bbcc
bbbe ded
d ebd</w>
eebbbc cc
dc bfcc
ccc ebd
bfc fcc
dcc fcc
bf bcfc
df bcbd
dbe eebc
def bec
bdbd bbbb
bf beebc
ebb dccc
ef eebe
bebe bbbf
eec bbdd
dec ebf
fdc fc
eccc bec
dd febb
beec bbbc
dbb ecdc
f de</w>
bb a</w>
ebc eebe
bbc eebe
fed dee
dc beebc
bcbc ecc
ebb bedf
dbbc bbd
ed eebbbb
ebbebb bbbb
ed fedc
bbc fef
bbed bbed
bbbe fec
bbbe bccc
eccc eec
dbbc ef
dc fbec
ecbe bbbd
bcf bbbd
ebb bbebbc
ebc dedc
ecee dee
bedbd cc
ebb ecebc
ecbc ebd
bebe bbbbc
beee beebb
debe bec
ebb edbf
bbbc bebd
eebc ff
dd bbbbc
bdc eebd
bdbe edc
dc bbbcc
bbec bbbd
bcbc ff
bbbe bebf
df def
d ebc</w>
ba eec
bebe ea
bbdc eec
ed bbccc
ebc bbebc
ebbc bbebb
bbec bbee
fed dec
dc feec
fec ecc
bbebe bbf
bcec eec
debb ebd
bdee dbe
ee eb</w>
bdf bfc
ebc edbd
ebb dbbee
df beec
ebe fdd
bebbbb bbc
bbed dec
a febb
ed dfcc
bbec beec
dbf ebd
bdbe bbbd
fed bcc
edc beed
bdf dec
eef ebbc
bbbc dcc
fbd bcc
bcbe ba
bf bcebc
df bcec
ebf fbf
dbd bef
dbbc ebe
bbbb eeebb
bbec bfc
bcee bbee
ff eeee
dbb c</w>
df bbbf
bc dcccc
bf b</w>
bf bbeec
dbc ddc
eecc ebd
df bebd
ebcc dee
bbc bedd
df ebec
ebdc ebc
bd dbbbd
dbe ea
bbbc fee
ebbc ded
dd dccc
ebf bbebb
fef ef
bec fdc
bbee bbbf
bcf ba
bcee dec
bfc dcc
ed ebccc
eec febb
dbb ecf
bced dee
ed ecebc
bec febb
bcc debe
ebcc dbc
bcee bbd
ecc ffc
ebc fdd
fbf bbc
bf bbebd
dd bedd
dbb ebbebb
ed eeecc
ebe fbbc
ebdc fc
bd bbebbc
bf eebbc
ebb fdf
bbed bbf
bbdc a
dc bdec
ebcc dec
df ecbc
efc dbd
eeed dd
ebb ebecc
bf decc
bdbc ebc
dbc bbcc
fbc bcbc
fed ff
bf ecebb
bebe dbd
ebcc bbf
bebf fc
bbbc edc
fec ebe
bec decc
bdc bbed
ea bba
bbbd ba
dbb dddd
eebe dee
dbc ba
bbbd dec
eef bbebb
bccc bbc
acc a
ebcc bbbe
def ef
bcbe ded
ecccc ccc
bbd eeebb
ebec ff
ddc edc
bbbc debb
dbc efc
ed dea
ed bedbc
dbc eebc
fbd dee
eebe bbef
bbbcc bbbb
fcc fcc
ecc eeee
fdc a
ed eebec
ebb debf
ebe fa
ed ebbebb
beec ebd
ccc bbf
fbc edc
fec bebc
ee bbebdc
ed ecfc
fc fbbc
dbe bcbd
dbe bcec
fee dee
fdc ff
fbeee cc
f dedcc
dbe efc
bebe becc
bd dfcc
dbb e</w>
bbcc edc
eeebe beee
bd dbecc
dd bebf
ebb eddd
df fdd
bbbe dfc
dbc dbf
bc deccc
bf fbec
fc bbebe
dbb bdbbc
bbbbc ef
bec bbebe
bec fbf
bebd ebd
ebe deec
bbbbc a
bd dea
beec ff
fbc dbd
ded bef
bccc ecc
bcee bbec
fdc eec
bbdc ebc
debc ef
fbe efc
bbbe dbbbb
bebc bbbd
ecbe dbf
bcbe dbf
bccc ef
dcc ebf
bdbc a
bdbc bbd
bc bd</w>
dec bbee
ccc bbd
bf ecee
ebe dbcc
bbc da
bbbb bcec
dec ddc
debc eec
bc eb</w>
dd bdcc
bbc b</w>
bc dbbdd
bbc eef
eeebb eeee
becc ff
be ed</w>
bbc dbbd
bec bced
be ec</w>
dbb bdec
dcc bebe
dbe bbbf
dbc debb
dc eddd
ecc eeed
dbe dbbc
bfc ebbc
dbc fbd
bebc ebf
ebc edcc
fcc ebd
bc bbac
beee bbebe
bf fbbf
ecbc bbd
edc deec
bbcc bebe
ef dbbbb
ebc dbcc
dbb eba
bbec dbd
fcc bbf
bf eced
ebe bebbbe
ebc dbbbb
bcf ddc
bcec bcc
bbbd ebf
fed fc
dee becc
bf bcebe
bbec bef
bbed efc
beec bbf
eebd bbbb
bbdd bbd
bc be</w>
dd beebb
bbc eccc
eebc ebbc
bd bbbfc
ebc beebe
bbc ecbd
bec bebbc
bbbd bdbd
beee beebe
ebc fef
fbc efc
bcbd df
bf eedd
eebc bebc
bdee ccc
be ee</w>
ee dbbbf
bdc ebcc
ebdc ebd
ebe bcbbc
bbc ffc
ba dbd
dec bcbc
dcc bbbe
ea fee
ac bcc
be bbbbbbbbbbbb
ebc febc
bcf bbcc
ebc bbbec
bbee bcbc
bcf ded
eebd eec
ebc fbbc
bdc eeec
bdbe ff
a bcec
bdc def
bbdc fc
be ebac
edc bbcc
bebd bcc
dec fec
bec bbef
bec bbdd
ebd beebb
bbbc fec
dec ebbc
bbebb eec
ebe eedc
dcc ddc
eccc ef
bcbe debb
ed debec
dd debd
bebc fec
beec bbbe
a bebf
bbbb ddc
df bcee
bfc bebe
ebcc bbd
da fc
ecec fc
dd eeed
bcbc bebe
ecbe bbec
ea bbee
beec ecc
bbef ef
febb ef
fef ff
fdbf cc
ed dba
ebb fdbe
bbbb bbfc
bbbb dbbd
bbbd ded
f bbeccc
dc bcbbc
ed ecbec
dbc bebd
fea cc
ebb e</w>
ebb beff
dd ecbd
bec eccc
ebd debd
dbbc fc
ec bbebcc
ba ecc
ebbc beee
eebc bebe
df bbed
ecf efc
bbc bcdc
bcbe efc
ebb bebbebb
ff def
bfc fee
dec debb
bbbf ccc
bcec ded
bedc a
ebcc bbbc
bd debcc
ebf bebd
fbc fcc
bbebb ebd
ebdc a
fbc fee
bbbf bbee
ecbc dc
bbef bbf
bbbe fbe
ecbc edc
ed fccc
ebbc bbcc
bbbb debe
bcc eccc
eef bbec
ebd dbbd
ebf becc
dbc fed
bdbc eec
bdf bbbc
ebb ecbec
ebd eeee
bbd bbebc
ed eeccc
bec ac
bcec ef
ebdc eec
bbebe bbbc
ebbee bbf
bbd bced
df dfc
bbebb ccc
bf bdee
dc eeef
dc fdf
ebe bedd
bbbe bbdc
efc bef
dbbc a
bcc dfc
bbc bba
eebebe cc
ebe ecbe
bfc fec
ebb bbba
ebc bcbf
bec bbebc
ebd ac
bdc bcbd
bebc bef
fbd bbf
bf eba
ef bded
fc bcdc
bdbe dbd
ebf ded
dbb ebbbbbb
bbbe febb
ba beee
bdf bebe
bfc bbee
ed bebbf
dc dbbf
bbbe bcbd
fed dbe
bbebb ff
ebf dbf
bbef ebe
bbbe efc
bfc ba
dbb ebbcc
eebd ecc
ef dbbd
bbebe a
dee bbed
fc ecbd
efc fec
bcbbbb bbbc
dbfc a
edbc ccc
eecc df
ec bbea
bebe bebd
bbbf bbbf
ecbbbe cc
ebb bac
bbc eebf
becc fec
bdbc ccc
ee dbbdd
ebb ecbbbb
bbd bba
bbec ebbc
bcbc ebd
debe a
dec fbc
ebb eefc
bbd bebbc
becc ebd
eedc dd
ec bebecc
bbbd bbec
ee dbbed
bccc eec
bbbb beed
bbebb beebb
bbef ff
eebd ccc
bedd dd
bbbe eebc
debe ccc
eebd edc
bedc eec
beebe bebe
bcc bebf
bcbc dc
fef ccc
ebb beeec
ebe dbbd
bbc ecec
bbf bebf
bbbe bebbc
fbe ded
bebd ccc
dbec dd
bbbd beee
ebdc edc
bbebb ebf
bebd ecc
bdc beed
dee fee
eef bbcc
eeec dec
dee bcbd
debb dbc
ecbc ff
bf bdec
bbdc df
bbebe ef
eef bbbf
bbd bcbe
bbf eebc
bdbc bcc
dee efc
bbee edc
bbbe dbbc
eec ecbd
bbf becc
bced df
fbc ebbc
bf bbbbbbbb
bbf ebec
dee bcec
debb ff
dbf bdc
bcbbbb bbc
def ff
fbbcc cc
bc fbecc
dbb edcc
dcc eecc
bccc bec
ecdbd cc
bbd fbbc
dbe bcee
dbd beee
bbec ebf
bbbbc ebc
be dedcc
bbbc eebc
bcf ea
bf edbf
ebb d</w>
fc bedd
bfc bbbd
bfc bbef
ebb ecebe
ecc dbbc
eeee ea
dc eeebe
dcc efc
a dbbc
bbbbc fc
bf bea
bbed ff
dc ecebb
bbdc bcc
bbbc bcbd
bcec ebe
beebe bbbb
eec bced
bebc beec
bbebb ebbc
fbf bbbb
ebb beecc
df eecc
bbebe bec
beed bbc
bbd bbfc
dec def
ddc bbf
eef bbbd
dd fef
febb bbc
bbdc dbe
eedc a
dbec bec
bbd ebdc
bbec fbc
ecec ecc
ee dbbebb
bbf fdc
ea ebc
fcc dbe
fcc fbc
bedc df
a beebb
bebc dbd
ed fdbc
fc fdd
bcbd ef
bfc edc
dec fee
dc ecef
bef bbbf
efc fbc
ecf ebbc
dc fbcc
bbc fdd
bebe dcc
fec dbd
ee dedcc
bf bebbbe
bebc fbc
bebc bebd
dd bcdc
ed fbbf
bebe bebf
ecf dbd
bcc dbbc
bdec bec
bcc beebb
ed fbdc
fc dedc
bbbe bbebc
ee dbbdc
bbbb ecbc
bbbe bbef
fbe bbebe
bbdd a
bdbc df
eeec ef
ea dbc
debb dee
bbbbc dbe
dbbbb dbbbb
bedc ef
dc bbeec
dbf dbc
debb ecc
bcbe bbed
ebe bbbcc
bbd eebe
fbe ddc
eeebf cc
bc db</w>
eec dbcc
dcc bfc
bbd bedd
deec bec
ecbd fc
bdbc dbe
ebbc bebd
ecbe ded
edbc df
ebb febf
eebf ef
beee ebd
ecbc dbc
ecbd ebc
ebe eba
efc beec
fcc bbbb
dfc ef
f debfc
ba ebd
ea bea
debb bbbd
fbd dbc
bbbbbbbb bbbbbbbbbbbb
eedbd cc
edc debe
ebb bca
debd dd
bf bcdd
bbbbbbbb bbc
ed bedee
eeee bbbc
dbbc df
bebf ef
a bbef
bc dbbbf
bef ded
fbc fed
dcc bbbc
becc dec
eecc ebe
deec dd
eeebb bbbe
ecc bcee
debb bebe
def ebc
bf ebbcc
dee bbebb
bbed dbd
ed ebbbf
fec bebe
fcc fed
beed ccc
fbe bbef
ec fbecc
bbf bccc
bc dbbebb
bbbb ac
bbbd bbbbc
eef bbef
eef dbf
ed ebbbc
fc bbebc
dbbc ebd
eedc bec
bc dedcc
bbc beef
bbd bbbec
edc bbed
fbd dec
eeec dbc
dd dcdc
ff bccc
bf fdbe
beec bfc
ebdc ef
ebb bbbfc
ebdc bec
bbbb eebd
ebc dbbd
bbbe bbbec
dfc dee
eec bebbc
beebb bbee
bf bbecc
dd ecdc
bbbc ebec
bcc eeed
bbcc cccc
fcc bdc
beec bdc
bc dbbed
ec feecc
bebc eebc
bbebe beee
fbf df
eebebc cc
bbd bcbf
dbe ebec
ebcc ebf
bcbbee cc
dbbc dee
bbebb bbbf
eec ffc
bdee df
bbf ddc
bbec bcbc
fec bbbe
bbebe bcc
edbc bec
bbebb df
bebd dbc
beebe bbbe
dbb bfcc
bbbb bcbf
bcec a
edc ecbd
ba fbc
bef bebf
ea bca
fcc bfc
eef ddc
bdbe dec
bf bddc
ebd bedd
bbbbc bebe
becc bdc
be dd</w>
ecc fbe
bcee bebc
bdee bcc
bbdc bbd
ecf bebc
ec dbbbd
ecc fbf
ebf fdc
dbb bdf
edc bcbd
ebf bebf
dcc fed
bbbd fbc
ccc ded
bbef fc
bbdd bbc
dc eefc
eec eedd
dbf da
ac ebe
eebc fbc
eebd ef
eeec dbe
eec bdbd
bedc dd
fcc eecc
eccc bbc
dfc bec
dbbc dbe
debc dd
ff fef
ba bef
dbd debb
ed bbebf
fdd ef
ebd ecbd
ebec fbc
beef a
edc edcc
fcc dee
fbd bdc
dfc a
eeebe bebe
ecc bbbf
ebd edcc
dbbc bbbc
eeee bec
bbd bcebb
ac bbf
fc ecec
bbed bebe
ecee bec
ebb c</w>
ded bbbe
ee bbeccc
ed bedcc
ebd ffc
dbd bfc
bf dbbbe
ebf ebcc
ea bef
bcbe ddc
bcee becbbec
bf bcbec
ea bdc
fbd dc
bf bdf
fc debd
bbf febb
efc fee
ed ecef
ebe ebbebb
ff fdc
ded bebe
dbd bcbc
bcbd bec
bcbd dee
ebb ebccc
ef eba
dbf bbbe
debb bbee
ecdc ecc
bf bdebb
bbbf dbc
bebbcc cc
eebd dbe
dbd fee
ded edc
bbcc bcbc
debe bcc
bbc beebe
ea bebe
ebcc fbc
bbed ebd
ecbc bdc
dc eebbc
ac ebc
bebd bbbc
bbdc dee
bf ebbebb
beed dbe
dbbd bbd
bdcc ccc
ed ecbcc
ebb ecef
bbee dcc
ed eedf
bcbd fc
bedbf cc
ebb beebf
bcee dcc
bd dbbdd
ef bcef
eec bcdc
fbd ebd
fbf bbf
df da
dbb bdbbd
beec bebe
ebb debbc
dbb bb</w>
bbbc becc
bbebb beee
edbd dd
dc ebbcc
ecc bced
bbbe ddc
dec bbbd
bebd ff
bcbbc bbbb
ebc febe
ebbc efc
ea beee
fcc dbc
beebe a
bbc ecbe
fc eef
beec bbec
fef dd
fc bdbd
dbe fdc
ac bbbb
dbbc bcc
f dc</w>
bf ecdd
bbcc bbee
ebc bcdd
dc bcebe
bbc dbcc
ebbc eebc
dbf fbc
fec ebd
fbd bbd
dec efc
becc becc
bf ecef
ebb fedc
dbd bbec
bbcc ebf
fdd bec
edbc ecc
ef bbbec
bcfbc cc
bbbc bccc
bbbe bcebb
bdc fbe
dbf ebf
ac ff
be debfc
dc eded
ea ebf
eccc ebe
ebbc dcc
ebbc fec
ecec dee
eeebe ef
bebbbe bbbb
bbdd bbbd
edcc ccc
dc bdef
dbec ef
bba bba
dec beed
bbbf bbbd
fed bdc
ed eedbe
dc edbf
dbf dbd
ebc ecbe
bbc debd
ecc bebf
bbbc bbdc
dbe debe
dcc fee
fcc efc
fbf dd
a dba
ebbc debb
ea bbd
bcbc bdc
a fef
df bbebb
bcec bbbb
bbc febe
dee bccc
bec bcee
dbbc eec
ed deccc
fcc ded
beec dbd
beec becc
eef ded
bbef dbe
eccc ebd
ecee bbf
fbe ebcc
beebe eeee
ec dbbbbc
dee eebc
bfc efc
dcc bef
eedc fc
a ebcc
a bbebe
ee ec</w>
ebbc fee
dbf eec
be bbebfc
ebb bdef
ecbc bbbe
ebdc ecc
bcc febb
fed dbc
dd bbebe
eecc dec
bbcc dbd
bcbd bbc
dc bcfc
bbbc beebb
eecc dbc
ecf bef
edc eedd
debb bdc
eeec bdc
bb ef</w>
efc bebe
dbbc ebc
debe fc
bedc ebc
ebbbc bbbe
bbcc fbc
ecec dbe
bccccc ccc
ac dbe
dfc bcc
ecec dec
bcbf fc
bdbe ebf
dc bbebd
dd eedd
bf fecc
df eebc
edc bccc
ba fee
dee bebd
def bbf
bec dedc
bbebb bef
eeebb ef
bbd eeed
dbbd bbc
bbbec bbc
ebec dbd
fbd fbc
bbd ecbd
dc bebbbb
bbbb fbbc
ebec bebe
fec bbbc
bcf bbbf
bcc bbef
edc dedc
ed ebbbd
bec eedd
beebe beee
ecc bbdd
bcc bbdd
bf febd
dc ebecc
ebec ded
bcbd a
eef bbebe
debc ccc
bbbbbbc bbbb
bc bbbbbbbbbbbb
ee fbecc
bf bebcc
eebc ded
dc dbbbe
ebec bebc
eebd dbc
decc eec
bf dccc
bec ffc
ebf debb
debe bbbe
fbd bebe
bcbe bbbbc
dcbc ccc
ef befc
bec eeee
bbcc bebc
ecc dbec
bebd dec
ecee dbd
bdbc bbbc
bbed bbbc
bedc fc
dee eecc
eebc bbee
bcee ff
bebbbb bbbc
a bbdc
bcc ac
bbcc bef
bbed bdc
bf ecbbc
dbf edc
eeec eec
ebb dced
dd edbd
bbbe fbf
eced ccc
ebb dcdc
dc beecc
bbec bbebb
eeec fc
fec fbc
bbed ded
dd bcdd
fec bcbc
bebbbb bbebb
ecc ecdd
dbe bbebe
ea bbbc
ebb eded
a fdd
dc bedf
bbf eeee
dbe bbbbc
bbbd bef
debe df
bbd fdd
dc bea
edc eeee
dfc bbc
ebd bcee
bdbc dee
bcbbcc cc
dd bbef
bbbd bebd
efc ebf
ecee ddc
bcbbbb bcbbbb
ebb ecfc
dd ecec
ecbc bebc
dc bdebb
ba bda
efc bcbc
fec bef
ebb bbedc
ecc bbebb
ed ececc
ebd bbebe
bcc ebdc
debb bebc
f bbb</w>
dbc eeee
dbd bbdd
eec bbebe
fdebb cc
dbe fbe
bcf ebec
ebb fbebe
dd eeebb
eecc ff
dd bddc
edc ffc
ba ac
eecc bdc
dd eebe
ecc bcdc
bbbbc bcbc
dc bbecc
fc bebbc
bbf beebb
beec beec
be bbeba
bbbe bcec
dbe beebb
bbed bebc
da bba
bcbd ebe
ebc bdcc
bbbf bbebb
bbed bbec
bbbb beebe
ef debd
ccc dbd
bbbbc bbee
bdf bbee
bbcc dec
ebcc bebe
bbbbc bbebb
ecbd bec
bcc debc
ecbc bbbc
bcbebc cc
ebe decc
ea eec
eeee beebb
eecc dbe
bbbb bcee
bebd edc
ed fbbbe
efc bbbe
fbc bbec
bbcc bfc
bbcc bbbd
bbd bddd
eeec bbbc
dc bebec
bbbb def
bf dbdc
ebe ecdc
ebc eeebb
df bbdc
bdc fdc
bbbf bfc
ecf ded
dee def
dcc bebc
bbfc bbc
bcf bbebb
ebd bced
bf bebbd
ed eebbd
ebc bebbbb
bbd fef
ebf febb
beee eeebe
ecf ddc
eeed a
bc feecc
ee fbccc
ebb fbbbc
dbf bbbc
bdec df
ac eec
ecbc bebe
bbbe fcc
dbec df
bba bbc
bd ebdcc
ecc eebe
bcc bdbd
bbf bcbd
dbe bbdc
dbc bcbd
ba bfc
dbd bebd
fee ebd
fc dbcc
fc befc
ebbc ebec
bbbd bcbc
bbbd bbdd
efc edc
bdee ebc
ef dbb
bbbf ebf
bcbe ebec
bebf bec
ed eac
ef bea
dcc eebc
bbbd bfc
bccc ebc
eebf ebe
bef beec
beee bcbc
dbbd a
bdee ecc
edbc ebd
ef ecdc
bbee fbe
bef ddc
bcec dbc
ecbd ccc
dec ba
fbf bcc
bdec dee
bbf def
bef bbef
bbbe eeebb
bbdc ff
ef b</w>
eedc df
bc bbb</w>
eebd bcc
dfc dbe
ded becc
bbcc fee
bdbc dbc
bac ba
ee db</w>
bbbf ebd
dec deec
dcc bbee
fed eec
bbfc df
eeed ccc
fc ecdc
fbd ecc
dd dbdc
bbc dbb
bebc ba
bdbe bbec
bbbb bbebd
bcdbd cc
dc febd
bd f</w>
fc bdcc
bbbd ebbc
fbd edc
ebdc df
bdf efc
bcc fdd
debb edc
fcc bebe
dfc ebe
ef bedd
beebe bbee
dbe beed
dbd ebbc
fbc dcc
ebf beebb
bdbc ebd
ed bebbbc
debc ebc
ed fdee
bebd bdc
bf bca
ecc fecc
bebbc bbc
dcec dee
eec fbf
bbbd debb
ecc febc
bbbe ebcc
dbc bbebb
ef decc
ebf beec
eeee bbebe
ecbe bbebb
ec be</w>
dbb ebbbd
dbd dbf
ed acc
becc eecc
bdbe bbcc
ee ebac
beee ea
ebf bccc
ded bbbc
eccc df
bebf ebe
bac ea
ef bbbcc
bbd febe
dbc beed
ebec bbee
bcbc bbec
febb ff
edc bedd
bfbc ccc
bcc bbebe
bbd bbebd
ebdc bbc
bbef bec
bbbbbbbb bbebb
ebbc bbbf
bbdc ebd
ecf bebe
ebf fbe
dbc eebd
bbbd ecc
ded fec
da ba
bbfc bbbb
bbbc bbebe
bbec bebd
ec bebccc
eec fef
dbe ac
bdc ea
eeec ebc
beba cc
ebe bcbbbb
ff fed
bcc ecec
bbbd bbed
bfc dbf
ebcc fec
debc fc
bec ecbd
dbe bced
efc ba
f bbebfc
ee ed</w>
ef edcc
bbf bbebe
ff bbbf
bbee bebd
bbf bcec
bbbc fbd
ebbc beec
bbf fed
dec dbf
dec bebd
ebe ffc
ecbe ba
bcee dbd
eeebe a
bf bebbf
bbee beec
bbbd bbbbbbbb
fdef cc
bcc bced
bcbe bbbf
eced dd
dc bedbe
bbf ebcc
dbc ebec
bbdd dbe
bbbb bebbbe
dec fcc
def ebe
ebc eef
bebc beee
becc dee
be defcc
dbc debe
fbf bec
bc dbbdc
bbf dbbc
bcee ebd
fee eec
bf eddc
fec ba
eccc dee
ebe ecec
ff ebec
eebc ebf
def dee
bcf ebcc
bccc a
bdf ebbc
bbd eebf
bbee ea
bbec beee
def dcc
debc dee
bbbcc bbc
bdbc bbbe
bec bbfc
bbec debb
ebe edcc
dd eebf
febb fc
ecf bbcc
a bcbf
eeee ebeebe
eedc ebc
ebe debd
becc dbe
ebdc dbe
bebc debb
dbbc bbbe
fbc ba
eebe ddc
ef ecbf
fcc cccc
dd fbbc
ebc bcbbc
dbb ecbbc
bebbbd cc
bf e</w>
bbf fef
edc ecdc
bbbc dbbbb
ecbc ded
dbec dee
ecbd df
ebe bfcc
ebcc bfc
bedebb cc
a b</w>
bf bdef
ebc befc
fc bcbe
fbc fbd
bcbc dbd
eeee bdc
bcf ac
eccc dcc
dbec eec
beed bbbb
bbd ffc
bbec ba
decc ccc
ef bcbbc
fc bcebb
bbd d</w>
dbbc dbd
fee ea
fec beec
eccc a
dbec bbc
bba bbbe
dc fedc
ef ecbe
bcbd dbe
eedc ecc
dd c</w>
debc bbc
bc dbbebe
ebb fbdc
fc eeed
bec fbbc
ebf ddc
ebbc ba
eeee bbebb
ecbc fbc
bccc bbbb
bdbd dbd
febe a
ec bbbccc
bbee bbed
dbb eddd
bcbc bef
bd db</w>
bf efcc
bf eea
bbd bdcc
fec efc
ebb dbfc
bdc bbebb
ecbd ecc
edbc a
bebbebb cc
bfc bbcc
eebe dec
bcee bebe
ebf fef
dbf bebe
dbbc ff
fdc dec
efc becc
ded ba
debc a
ebc bbbcc
bef beebb
ded bbcdbf
eeebb bebe
bbbd bbcc
eebd ebd
bced dbe
dc eba
dbb bfbf
ebec ebbc
ecf bbec
ebe bcebe
ebc beef
bbd bcf
bfc fbd
bcbc fbc
eec dbbd
bbd eef
bebd dbd
beed dee
ed bbbbbbbb
dc debf
ebe bcef
fee bebc
ecbd eec
bc dbbef
bf fccc
ebec dcc
ebcc bbee
ee ee</w>
bec bcbe
bdc bbdc
bcbc dec
bf feec
ef febc
dbbc dbc
ee dbbebe
ed dbbcc
dc bcebc
ebe fbbbb
bbbe bcbe
fdc dee
ecbd bbc
ec bbeecc
bbbf bebc
bbbbc dbc
debe ebc
bcec ecc
a eecc
ec fbccc
dc fbbd
df ffc
dbb ecdd
ebbbc dbe
ec defcc
bfc beee
ef ecec
ccc bbbc
bec bcebb
eebc dbd
eebd bbf
eedc eec
eeed df
ec eb</w>
ebb fbbee
f deba
ed bedbd
fec becc
dfc ff
beebb bbf
ec dbbbf
fcc ebf
bebf bbf
debb dbd
edbc eec
ebe eebbbb
ea ecc
ecee edc
ef fdf
bec dbbbb
ccc bbbe
fee dbd
debe bebe
ebe bdbc
bfc becc
eebc dcc
def bdc
bbfc fc
ebb bedbc
ecc bdcc
beed dec
ed ebbed
bbd beebe
dbc becc
eeee eeef
deec dec
ecbc dcc
bbebe bbebb
dc fdbe
ba bbebb
bbbbc bf
bcf bbed
bba dd
bedc bbc
ebbbc bbf
ebbc bbed
fec edc
debb dec
ecc debd
fee ddc
bbbc dbf
beee bebc
bebd ded
def dbc
bbdc bdc
bec bcbf
fbe dbbc
debb ebbc
bcee fbc
bbbbc df
bdf bef
dc bebcc
bcee bfc
bdee bdc
ebd fbbc
ba bebc
bbcc bbec
bbbf bef
eeee beef
febb ccc
be deba
ebe ecbf
bcbc ded
bdbc bbf
ecc bdbd
bbcc dcc
fdc ebc
bdee dbc
bd ecccc
dc fccc
ddc fbc
eeee eeebb
bbebc bec
dbb edbf
ebbee bbebb
bbef df
ebb dddd
bbbb bedc
dbb bdebe
fed dcc
bbdc dbc
ebe bbebd
bebe fcc
fbd bfc
dbbc bbf
bbdd df
ed eca
bcbd eec
edbc bcc
ff cccc
ded bfc
ebec edc
bcf beee
bdf bebc
a eea
ff becc
bcbc bccc
bcdd dd
bdec bbc
ebe befc
ff bbef
bbec fec
eef efc
da df
ecbc dbd
eedd dd
bbbd bbbf
ecbc bfc
fdd eec
febb bbf
ed febf
dc ecebe
fee fbc
bcec beec
ecee ef
ebd bebbc
ff bbed
eccc dec
debe dbe
fbbbd cc
dc fbbbb
dbf bfc
bec beebc
bcc eeebb
fbe bbed
beebb bbbc
bbebc bbc
eeec ecc
fc dbbd
bec debd
dbd beec
eebc bfc
fbd bbbe
def bbbb
fed bbbb
dc bcbbbb
dc bdbe
bbd bcbbbb
efc ebbc
a bfa
ebb fdbc
ef eedc
def ecc
ed beff
ed efdc
bebc becc
bcbc bbcc
fbf bf
bec bbbec
bbf bcbf
bcee edc
febb df
ecee bbee
ec dbbdd
dc eeebc
dc ecdf
bbd cccc
dc bcbec
dee ea
eecc fbc
ecec dcc
ee dd</w>
ebb fccc
ebe bebec
fbe bbbbc
bedc dec
bcc bcbf
dee debb
ebec bbec
bebd bbee
ed ecebe
ef bbeec
ff bbebb
ff beec
bb ebe</w>
bbbe bcee
ccc fbc
eebd ebe
eeebe bbee
bcc fef
dbbc bebe
bbdd dbc
beed eec
bba ba
bbf ac
bced bbc
ed ecbbbb
dbbbb bbebb
ecf bbee
ecec bdc
bf bddd
bec eeed
bbbe debe
ff bcbd
fbd fec
ebd cccc
ecf ebcc
ecee bbd
eedbf cc
ebbc fcc
beebb ebc
edcc ecc
ebbee dbe
bf bcdf
ff ebcc
dbb ebecc
ebbbc bbbc
dd bcbe
bcbeee cc
a dfc
be de</w>
ed bedbb
fc febc
ebf bcbd
da dbe
ecee bbbe
ebbee fee
ebb bedbb
bef debb
bbec fee
fbd bebc
bbdc bbf
a cccc
dc bcdf
ebe beebc
bec bdbd
bebe beebe
bef bbed
ebd bbef
ebec bfc
bbbf bdc
fcc eebc
bdbe bbebb
bdee bbf
ebd fdd
ebf eebc
dee ac
bbee bbbbc
dec bbcc
ded fbc
bbec bbed
dbec dbe
eeebb bbc
bdf ddc
a ecbc
edc febb
bebc bbcc
fbd dbd
df bced
a bcee
ebd ecdc
df debe
bcbc beec
bcf def
bdbc dbd
ec dbbed
dd eef
ebe febc
ebe bded
ea dbd
ebb eac
bbd bbbcc
bbbf eec
bcbc ebf
bbbf fbc
bdee bbbe
ebe eea
ebc bba
ebd febe
dee fec
bbec becc
ded ebf
bf eebbbb
ed beebf
bbc eedd
fc beebc
ba dcc
dbbbb bbf
bbc bebec
fc bfcc
ea dcc
bbdd bec
bdf dbf
a beed
ebbc bbbbc
beec debb
bdbc bdc
ebc ebfc
bbd bdbbbb
bbbd edc
bebc bbebb
efc efc
ebe dbb
bbd bbeec
ccc fcc
bbbd dcc
fec ddc
bbbb fed
ebe eebeee
bbec dcc
bbdd ef
fef df
ecc eebf
ebcc dbd
fbe bbdc
deec eec
ecee bbbc
ec bbac
ebe bbeec
bebc fee
bbec edc
bcbc bbee
ffc dd
dbbbb a
ebc bfcc
bbd bcdc
bbed bbee
ecbd dee
bebbed cc
bf fbbbe
ed bebbee
ebb efbf
dc ecbbc
ecc ecbe
ebd ebbcc
dbe fbf
bbebc bbbe
bf debf
ebbc eebd
eebc eebc
bd ffcc
ef ebfc
fc eedd
ecf ba
ebbee ff
ebe eeed
ebe ecebb
bbd ecec
bbd beef
dec beee
bd bd</w>
dd dedc
bcc bedd
bbd ecbe
dbc def
bbbf dee
eebe bbbbc
bdbe bfc
ebb ecbbd
bbef bbbe
eeec ff
bebf bbbe
ecf dbf
dd bded
fc ebfc
eec ecdc
bf eefc
bebe bccc
da bbc
fbbbf cc
edc dbec
bcbc bbbd
bba bbbc
bf bac
ef dccc
dd bcbf
fee dbf
ebd eedd
ccc bfc
dd ecbe
bebe bebbbb
bbec efc
bbec bbcc
bf ecbec
ebc bded
eec eeed
bbd bded
beebb bec
df dbbc
edc ecec
bef bebd
bcbc cccc
bbed bbbd
bdf ba
ff fdd
bef bbebe
fee dec
debc dec
ded def
bbbbc bdc
ebe bebbee
ebcc eecc
ed bbebbc
ebc eced
ebc dbb
ebc ecdd
bbc decc
bbd edbd
bbd fbbbb
bbbec bec
bbd febc
bf bbebf
efc fed
bdbe ba
ef fbbbb
eebe ebec
eef ac
eec bcee
ded debb
eeec bbbe
edc bcec
ecf eccc
ebd dbcc
bbbd ddc
ebf ebec
fbc beec
eebe bba
ebc fa
ebd edbd
bbbc efc
bbee becc
eebd ff
bcbbc bbc
ebc dbdc
ebf ac
a eca
dc eedbe
bbbb ebbebb
bfc debb
bbebb bdc
fbe ebec
df edcc
bbf bbdc
bbee ddc
beee dee
eebe ebcc
bbbc beed
beee bbbf
bbebb dbc
ecbd edc
a debe
f ef</w>
fc beef
bfc bebd
bbbbc eec
eefee cc
ef bfcc
bcc bcbe
bdc dfc
bebc efc
eebd dee
eeebe fee
be dc</w>
dc eedf
ef eea
dbe ebcc
bced bec
ebf bbed
fbc dbf
bbebb dee
bc bbebdc
ebb bb</w>
ef bcfc
ebe bcebc
ebe eebbee
ded ebbc
fbc bbbd
dcccc ccc
ebd dedc
ba bcbc
ded dbf
fbc debb
eebe ac
ef edbd
bdc bedc
ec ec</w>
ebc eddc
bbc bdcc
bfc ebec
edbc dee
bf ecdf
bcc eedd
bef beef
ec bc</w>
efc dbf
bbebb bebbbb
bbfc bec
dc dbbbc
bcc deec
bcee ebbc
beed dbc
bbbc dbbc
bebc eecc
fec fed
ecbc bbee
eebd bdc
bbf debe
bbbbc dee
dc bebbd
bbc befc
fcc dcc
ebc eebbc
bbed ecc
bbc bcef
edc debd
bbbbc bbec
becc bbbe
ecbc bbec
eeef a
bf bdbbc
edc dbbc
ba bbcc
bbee dbf
fbe def
ebb ddcc
ebe b</w>
dec eecc
dbe febb
ebf eebf
beee ebbc
ecc eddd
dbb ddbd
dec bcec
dbd fec
bcee bef
eeebb beee
ecee eec
bdee dee
ebb ecbcc
ebd b</w>
ff debb
bfc def
dbd fbd
eef def
bebbbe bbbe
dac ea
ed bbbfc
ecec dbc
bebe eebc
dbb ebbbc
bcbc dcc
ecbd a
bdec eec
bfbc bbf
bf dedc
bec bcdc
bdc debe
ed fbbbc
fbe ac
eeec bbf
eeebb bbf
f bbeba
bdc bbdd
dec bbed
deec a
eec beef
bbbc fcc
bcebb bbc
edc eeed
ccc ddc
bbef bbee
bdf bbbd
df bebf
df fef
eebe bbed
ecec a
ebc bcfc
ecc dbcc
fbd dcc
e ba</w>
dd e</w>
ebd fef
ebf fed
dec eebc
dec bedc
bcbc bcbd
fdd a
edcc fc
ed eedbc
da bea
dbd bbed
bbebe fc
debc dbe
efbf beee
bdc fbf
dbc eecc
eef debb
ecbe ac
bccc dee
fcc bebc
eeee dbe
ec dbbdc
ebb dcbd
ebe edbd
bef ebec
bbebb bbec
fbe dfc
bcbe bbebc
eeec dee
ebb bebbbd
beee dcc
ecec bbbb
ffc ff
bdbc bebe
dc beebd
ef bdec
bbbe bbdd
bbbd fee
bebf bebe
bd dbbbbc
ecc beebb
ebf bcec
debc bbbb
bdbd dbe
bdf ded
bea a
ed ecdf
eec bbef
eec beebe
ebbc becc
bebbc bec
be bf</w>
bcf debb
dd bcebb
ebd bdcc
bef eebc
bcbc bfc
bbbf ba
eef ebec
beed bcc
bedd bec
bdbe dcc
bebc ebec
fed ded
bc ee</w>
ecc bbebe
bbdc dbd
ef dbdc
fc eebf
bbd befc
dbb eded
dbbbe bbbb
ed bb</w>
ef fbcc
df febb
dc bbbdc
ff bcec
bbee debb
fdc fec
bbbc cccc
becc eebc
eef bbed
bbdd ebe
dbbbb dbe
ddc fec
eebe efc
bdee eec
dc bfed
bec fef
beee beef
bedc bcc
ecf ea
bf ebbbf
ed ebbbbc
ed ecbbd
becc bebc
bbdc bbbe
deec dee
ed ecccc
ecc eced
bdc debc
bcbc fee
ecbe debb
da ccc
bf dbbbc
ebd febc
ba dbf
bbbd dbf
beee bbec
dd eced
ebc ecbf
ebf bbef
dbb bdef
bbbd beec
bcbe debe
ed dedcc
fc bded
bdc eeee
bebe bbed
bfc eebc
ef eeed
ebd bcdc
eedc edc
bbbe beebe
dbec a
bebf ff
bf bbccc
dc eebec
ef bdbf
bbee bbef
dbf fcc
fdc dbe
bdbe ebbc
cccccccc cccc
dc ecbec
dc bceec
bfc beed
fec bbec
bbbbc bebc
bedc ff
dc beeec
bbf eebd
ebe ebfc
bbd bcbbc
bbf dfc
bbbc bebbbb
ea eeee
ebcc dcc
dbec dec
edcc eec
bbd bdbf
bbf fdd
edbbc dbf
dcbc dee
fbbed cc
fc beebe
bbf ecbc
bcbd ccc
bd bbebec
ebc bebec
dbc dbbc
bdc dbbc
bec beebe
dbd dbbbb
ebcc efc
ebdc dee
ed ebbbbbb
beee bbcc
bccc dcc
ecee ebd
bd bbefc
bbd bdbc
ba edc
beee bbbd
fee bcbc
febb bbbe
fbbc bbc
edbc dbe
bbd eedd
beec fec
bbbbc bbcc
febb eec
bdbd df
bf bedf
bf bceec
ebbc dbf
debc ff
bccc df
a dbbbb
bef def
bedc dee
dbbd bec
ebf def
bef becc
bcee beec
bdf bbec
a bced
ebe ebbebe
dd eddc
fbd ded
ed bedec
bbee efc
bbef bcc
ebbbc ccc
ba bbec
bbcc fec
bc dbbfc
ed eebdc
ebbc ebcc
dec debc
bbdc bbbc
ebbbc bcc
bbbb eebbbb
bdc deec
ebec bcbc
bbee bebbbb
eebc bbec
fbd bbbc
eecc fec
bcbd ebc
beed ebc
ebe bcdd
bcee ddc
bdbe ded
bf fdbc
dec ebec
a eebd
ef bddc
bdc ebdc
fbc bebd
bf ecfc
ebe bdbf
fc fa
ebf bbebe
efc debb
beebb beee
bedc ebd
eeebe bbbe
eebc eecc
bdc eedc
efc bbec
bccc ff
bdbd bbc
ebbee ccc
bec bebbbb
ef bdebb
ebec fec
bbdd fc
ecebb bbbb
edbc dbc
fbc becc
fbbc bbbb
ebe ebbbbbb
dd bbebc
bcc decc
ebdc dbc
ecbe ebcc
bbef bebe
dedc eec
ee dbbef
bec dbcc
bcbe ea
bdbc ff
dbf beec
fbd ebf
bcbd ff
bcc eebf
bfc bbbf
fcc fee
dbbd bbbd
fef fee
bec ecec
bbdd eec
dc ecfc
ef beebc
ecc bbbbc
bbee febb
bcdc dee
dc ebccc
dd fa
da bbbb
bbfc a
fc dbdc
bbc fbec
ebd bebbbb
bbee beebe
dbd bbcc
eba bbbb
bf dced
ebe eebebe
ebd bbebc
dbe eecc
dbe eebd
dee dbbc
bcf dfc
bdbc bbbd
dc bdf
ef dbbf
dd febe
bcc eebe
ea dec
debc ecc
ecbf fc
ebb bebbec
dd bba
ebd eeed
eebc fec
bedc ecc
bf fbebe
bbbc ddc
bbee bebf
dbf bebc
bbef ccc
bb ebd</w>
beee eec
ebc bbebd
bbc fbbbb
ebd eebe
dbe ecbc
ba bbbf
bebd bebd
bbebe ccc
ef bcbec
ebc fecc
bbc ebfc
ebf ecbc
bdc bbbf
bebe debb
bccc ebe
ebd eebf
bcc bcdc
dbb eddc
ebb fbfc
dc eea
df ecbd
ebf beebe
ba dec
eeee ecc
ac dbc
bf bbbdc
ed f</w>
bbbc bbbcc
fbe ecbc
fed dbd
bcec bcbc
eebeee cc
ea fbc
ded bbbd
bbcc ebbc
fcc becc
bdbd bbd
bf bdbe
ebe bdebb
bec eeebb
bd dac
bbbb dbbbe
a ffc
ef bebbbb
ef ebbcc
ebf bbbbc
bcf dbbc
bcec bbec
ed ebbdc
bcc dbec
dbc fdc
ebdc ff
eebd fbc
dfc eec
bcc bbbcc
bbf fbbc
beec dcc
becc bebe
a bbdd
bbbb eeec
ef bcebc
ed eceec
ebc bbeec
bcc bbfc
edc ac
dee fbd
ccc bcbc
fec fee
beec ba
df bcbf
edc bcee
debc ebe
a eeec
ee dc</w>
bcc bbbec
bbbe bcbbbb
dbc bbbf
ebbc fbd
beee fbc
bf eeebc
dc defc
eec edcc
bdec fc
dbf bbee
bbed bfc
eccc dbc
fef fc
dc ecebc
bbc beebc
dbd b</w>
bef ac
fee bbebb
bd bc</w>
ed fdec
bbc bbebd
bbc bbeec
dbb ecef
eebd dec
bcdc dd
ebcc ded
ebcc bbec
fbf ebe
beebb ebf
ef bcdd
bbd fa
bdbc ecc
ebbbc bebe
edc fdd
ebb dba
bbc febc
bbc bdbf
ebf eecc
bbebb ecc
fed ebc
befc df
bb ebc</w>
eec fa
fec dfc
ecbe efc
dbbbb bbbbc
bced ccc
ebbee bbec
bc fcccc
ed eebbbe
ebb beccc
bef bccc
beec bebd
debe bdc
bcec bdc
a eeebb
ebb ddbd
bbbe bba
ba eba
dcc fbd
eccc dbe
beed fc
febe bebe
eec bcbe
ebbc ddc
bebc bbbf
dd febc
becc bbf
bebbbb bebbbb
ec ee</w>
ef bcebe
eec fdd
bebc fcc
fdc ecc
a bdbd
ee fcccc
bd dbccc
ebb fdee
ebf dbbc
ebec bbbd
dbec ebc
bf edbc
bbd eccc
bbbc eebd
dbd bbebb
ea ebd
fee bbcc
fbbc fc
eedd fc
a bbebc
bbbe bcbf
bedebe cc
fee bfc
eec dbdc
eeee fc
fed bbf
eecc eecc
eeed bec
bbbb bdebb
bbc eced
eec bbebc
bbed beec
ecec ded
fbbebb cc
bf bcbcc
dd bbfc
edc da
bbbc fbf
dcc eedc
efc def
ee dbba
ec dbbebb
bf febf
bbd bdebb
bbbc bebf
dec decc
ba da
bcbd dbc
fdc ded
ee dbbebc
bf bcbbd
bef bcec
ebe eebbbe
dbe dbec
ebf febe
edc bbdc
bbee fcc
bebe eeebb
ebcc ebcc
ecf bbbd
bbbb bced
ebc beebc
efc ddc
eeee bebf
ebbbbbe cc
bbf bbfc
beec fbc
becc ded
bfbc ff
bf ecebc
dc bfdc
dd bcf
fc fbec
ed bbdcc
ed eedee
bbc eebbc
eec febc
dbf dec
bebd fbc
ecf ac
a eebf
eeee bbbf
eccc ff
bd bbea
bbebb ba
debb ebf
becc dbc
debd df
bdee bbd
ebb ecdbe
ef bdbc
bbbe eebd
bebe ddc
bdec dbe
ebe eced
bbc dbbbe
ebd bcebb
fee bbef
bcee bcbc
ee dbbbec
bcc bcbbc
edc fbe
dbb ebbbf
fcc bbd
bdee bbee
bd dbbebb
bfc beebb
bebf ccc
ed ebdcc
ebe bebbf
bbc bcdd
efc eebc
bedd df
bdf ea
ebb fbef
bbec beed
dfc ebc
bbbbbbbb bbbbbbc
fdc bcc
a febe
ee dbbfc
dd fecc
ebb ecdf
dc bcbcc
ebe eebbc
dd eddd
ebd bbfc
eec bbfc
eec fecc
ff bbdc
debb debb
bbebe ebc
bdc bccc
bbec ebec
bbec beebb
cccccccc ccc
dc fbbf
ebe dbbbe
bbf dbbbb
beee dbd
eec bbbec
bebc bbed
bbcc bccc
fec dbf
debc ded
bdec dec
bcc dbbbb
bbf febe
bbbc bcec
fbc eebc
fbc eecc
eeee dbc
eedd a
dc eac
ebe bbecc
ebe bcfc
dd beef
bbd fbec
bebd bbbd
dbb ecebe
ebdc bbbb
fc bbbec
dbe bcbe
debe ef
dbec ff
febb bec
dc dbbee
eef ebcc
ebb bedee
dc bbccc
ebe bddc
ecc fef
ac dbf
beebe ef
ed bbba
bbc bded
fc bcdd
df eebd
eebc bef
ebe bebbd
bdc bdbd
bbbc debe
dec fbd
beec bef
eebc bbbd
dc bfbf
bbbc bbdd
efc eecc
dfc dbc
eeec bbd
dbbd ef
ed eeebd
eec bdcc
bdc eeed
bbbc ea
bbbc bcbbbb
bebe bcbd
ebec bef
bedc dbe
eec bcbf
ff bebf
ded bbee
ddc bbbe
eccc eccc
eedc ebd
ded bbed
febb dd
bfc bbed
ebec bbcc
becc bbd
ecbd bcc
eeebb bbee
bc debfc
bd bbfcc
fc bcfc
dec fed
ebbee ebf
bd debdc
ecc bcbf
dec ebcc
ed eeeec
ebc bcebe
dbd fcc
edbc bbbe
dcc beee
eecc dee
dbec bcc
ebe bebcc
dd dcdd
dcc bcbc
fee edc
ddc bbbd
bccc dbe
bbbc bbbec
ccc bebe
dec bcbd
dcc eebd
fec bbee
ebdc bcc
bcbe def
bebf df
dbc bcec
ecbe eccc
bcee ebf
bf eddd
dc dbfc
eec dbbbb
bdbd bbbd
bc dbbebc
dd bcef
fc dbbbb
ebd beebe
ff febb
dcc becc
fee bbbf
bccc edc
ecbcbc cc
dc bdbbc
dbc bbdd
efc fcc
bbebb fbc
bbebb bbebe
bebbbb bbbd
dc bdebe
bbbc fbe
dbd debe
ecbc beec
bcbd bcc
bdf bbcc
bcbbbb bbbe
dc bca
ff dfc
dbd dbbc
eebc fcc
bdec bcc
a fbbc
ed fdcc
ebb eca
ebbc eecc
ebcc bebc
bec bbbcc
fee bbbd
eeee bbef
bcbe ac
deec dbe
eedc bcc
eeef beee
ed debdc
dee cccc
eeee ebc
eeee eebf
ebdc bdc
ec bd</w>
bf eded
bbbc def
dbc cccc
dc eeecc
becc bfc
fdd ff
edcc ebc
ec dbfcc
ed ecdbe
ebec ebf
fbf dbe
bcee ba
eebcbc cc
ec beeecc
df cccc
efc dfc
bbed fbc
deec ef
bf beff
bbf da
ebb eceec
bebbbf cc
fbe bbfc
decc ef
ecee dec
bbd eced
bbd bebec
bebd ebbc
debc bcc
bcec bebc
ebb dded
ebc bcebc
bbf bcebb
debb ded
ebdc dec
bcf eccc
bc dbba
ebe dccc
fc dccc
ebd bcbf
fbc bbcc
fec ebbc
bdc febb
dbd def
fbd bef
bbf bebbc
bbee bba
ded efc
ebd ecec
ff da
ea ac
bebf bcc
ecee fcc
bbc edbd
fc bcef
bbd bddc
fee beebe
bbebb dbd
ecbe bbed
bcbe dbbc
ec bbeccc
ef fbec
fee bbebe
dfc dec
bcee dbf
bc dbbbec
bd eeeecc
ebb bbebec
fc ecbf
ecc bbef
bbdd bdc
dd bebbc
dc bac
df bedc
ff dbbc
bfc fbf
bef ebcc
decc bec
bbbb eebe
dd beebe
df debc
bbf beef
ecbc ebf
beea cc
eeec dcc
eeec ded
ebbbbbb bbbe
f df</w>
bbbc ebcc
dd bbbec
fc eeebb
ed fdbb
dee beed
efc bebd
fbe debe
bdbe bbed
ebe dbbf
bbec eebc
beec bcbc
bbdc bbdc
dbbbb bec
ed ebeebb
bbc ecbf
df bcf
df bbdd
df bdcc
ebf beef
bdc ffc
dbb ecbec
bbbd b</w>
bbebb bbcc
fed ddc
bdee dec
bfc ebcc
bf beecc
ebb dcec
bbbb bbbdc
ebd dbdc
bef bcbd
eccc ded
ccc ebf
eebd bbd
bbc ecebb
ecc bbfc
fbe cccc
bcec ff
ecec eec
dc deecc
bcc bdcc
df bdbd
dbec dbc
bcec dbd
bbbb eebf
ebc ebbcc
bec beef
efc bbee
dbec ebe
bcbd bbf
bcee bbebb
ebb efdc
eecc eebc
bcee ded
bedd a
ed fdbd
bbbe bdbd
beee bfc
eebe dbf
beebb eeee
bedc ded
fbc bbbf
debb bbec
bcec bef
bc bbeccc
dee bced
dbc ea
fee bbec
bbbbc ebd
ecbd dbe
ecdc ebc
dbb ebbbbc
bf fbdc
dc fbdc
edc bbebb
ff ffc
dcc bbec
deec bbc
ecdc fc
dcec dec
df ebdc
dbd eebc
ddc bebe
eef bbdc
fdc bbc
febb ebc
bd be</w>
dc fdee
dbb ebbed
fee beef
fec bebd
bedc ebe
bbcbbc bbcbbc
ecc eeebb
bebc eebd
eccc bdc
bdee bbbc
eec fbbc
bbf beed
bbfc dbe
fdd fc
eeef ef
ea bbbd
ddc fcc
fec eecc
ac dec
beebb bbebb
ed bebfc
bbbb da
bcbd bebe
eeed bbc
ee bbeba
ebd eeebb
ff bebd
dbb bda
dbd bbdc
bbcc ded
febb dbe
dd ecbf
bbf bebbbb
dbc bbbbc
beee bbef
fec debb
fbf bbbe
ebf eef
edc edbd
ff ecbc
dee ecbc
beec ebbc
dbec fc
bedc bbbb
eedc dbe
bc ec</w>
bd eb</w>
ebc bedbe
bec febc
bcbf bbc
a debc
bf dbbee
bf ebecc
bcc b</w>
ebf eebd
dbc eeec
bbee ebcc
bbbf dbd
bcbbbb bbbbc
bf c</w>
bf dcdc
bec dbbd
ecc dccc
bbbe bced
becc efc
ebb beedc
bbbc fed
ebbc bbebe
fbc beee
ecbd bbbb
bf d</w>
dc ebbebb
dbb ddcc
dbb dcbd
bbbd dbbc
bcbc edc
bbbc bcebb
dbb edbbc
eeee bbd
df beed
dbb bac
beee edc
fec bedc
bbebd bbbb
dc bebbbe
ebd bcf
bbee eebc
fee bebf
dbf dcc
bbed bef
eecc bbd
ecbd bdc
bec bcbbc
ea da
fcc bbbe
ed ebbee
dc eebcc
bcc fbbc
ccc bef
fee fbe
dbf bef
debe ecc
eef bba
ebb dcbc
bcc ecbe
bcc bbebc
dbe bbdd
fbd fbd
eedc ef
fc febe
bbee fec
bcec bbf
dd fbec
bebe bba
ec fedcc
ebe bbebf
bec fdd
fcc ebbc
becc fbc
bf beeec
bf ecebe
ed fbebe
bbf bba
dbd efc
bbebe bbebe
debe bbbc
debc ebd
a eccc
ed fbfc
bbee bbebc
beee bebf
bcec bbd
ee defcc
bf acc
ebb fdbb
ecc ecbf
debe bbf
ebbbc ebd
bcc dbcc
bdc dbec
bced dec
eeef eeee
bebe ded
dbf dbf
eeec dbd
bc ebac
dbe bebf
bbee eeebe
dbb dced
dcc fdc
bcbc bbbbc
eef da
be ebb</w>
ebb fdbd
bbbb bebec
bec bcf
df beebb
dee beebb
bfc bbebb
fcc bef
eeec ebd
a bedc
dee dbec
beec bedc
bc dbfcc
ed eedcc
fc bcbbc
eebc ebcc
fbd efc
ecbe bbbf
beed ef
dbb efcc
ebec ba
debe bbd
ebb defc
ebe bcbec
bbbc bbef
debb bbebb
edcc edc
a bcebb
ecc da
dee ebcc
ecbd dbc
fdd ccc
ec dbbef
ebb bedbd
ebe fbcc
df bbef
dbe bcebb
dbd dbbd
dcc bccc
bbdc bbbd
bbbb eecc
fee beebb
fa dd
a ebdc
bbee eecc
bef dbbc
debe dbc
bebbc bbbe
edbc edc
ecc fbbc
bdc decc
debb fbc
bbfc ef
ec bbebdc
bf dbfc
dc dfcc
ddc fed
bbbec bbbe
beef ef
edbd bbc
eeebe beebe
ed eebbf
bdc beebb
ccc bbcc
bfc bcbd
fee ebbc
fbf ebc
fc bba
bbf bbebc
becc ebf
bbdc dec
debd dbe
febe ef
fed bbd
bbdd ebc
bcba cc
ff bbebe
dbd bcbd
dcc bbbd
fbf ebf
dd bfcc
ecc bcf
beed bebc
bbd bebbd
bfc eecc
bbbf bbec
fc bbbcc
fbc ebec
ddc fee
beec bbbd
febb bcc
bf bedbe
bbbb bcf
bec eebf
ff eccc
dbd da
fec fcc
a bcbe
ed fbef
dbe bdbd
dbc bccc
dcc ebbc
bbcc efc
bbebb bebd
eebc bebd
bd dd</w>
ecc bcbe
bbebb bcbc
debb bfc
debe bbee
ecf ebec
ec dbbebe
ebc bddc
bbbe ebbebb
dbc fbe
ddc ebf
eeebe bef
bbd ebfc
dbc ecbc
bbdd dee
deec ded
bdcc eec
bd deccc
bf eebcc
bf bebbbc
dd dbbbe
bec befc
bcc edcc
bbbe debc
dbe fed
bbed ebbc
becc ebbc
eebbcc cc
ed ebbebe
ef bbecc
beec bbee
eebe dbbc
a bcf
bbbb bdbc
bbbc ecbc
bebe fbd
bebe bebbc
ebcc ebbc
dbf ea
fcc fbd
bcee bbbd
bebf ebc
bdf bbbf
ee de</w>
ebb dcdd
dbf fbd
eebe bbdc
eedc dec
bebe fbe
dd dbbf
edc dbcc
bebc fed
bcbd bcbd
a dbec
ebb ececc
ebb bbdcc
df fbbc
dee bbdc
dbb edbc
bef bbbbc
becc bbbc
bbdd bbdd
ecee bcbc
bf bebbee
fc beecc
ebd bcbe
bbf bbbec
ef eced
ebc dccc
ecc bddc
bbd bcdd
ccc bbee
ccc fec
dbb dcdc
dbbc bbbd
bdbe debb
bbf bcf
edc fbf
fcc bbbc
fdc ebe
fbbbb bbc
bc dd</w>
bd bebecc
df bcdc
eedc bbc
ecee bbcc
ec db</w>
bbd eebbc
ba ebbc
dee bbbf
bebe ebcc
bbcc beee
ddc efc
beec eecc
bbfc bcc
bfbc bbbe
ef fbbf
fc edcc
bec bded
ba bbbbc
fdc ebd
bcbf dd
bbf bced
dbe bedc
dbb ecebc
bcbc ebbc
eebd bbbe
eea a
ebbee bef
eeeeeeee eeeeeeee
bbbc bbebc
bebe efc
ecbc ebbc
bdebb bbbb
ecc febe
bbef ebc
dbc fbf
bebc dcc
fcc dbd
bbdd bbbe
bd bbbecc
dc bfbd
dc bedee
dc beedc
ebe bbbbbbbb
bcc ecbd
ebd bbbec
bcc bcebb
bdc ac
dbc ebcc
bbed bbebb
bebd debb
ecc efcc
edc febc
ebec becc
fcc fdc
bebd bbec
ebdc edbbec
dd befc
eec bcebb
bbf ffc
bebe febb
fec ebf
dbbd bbbe
a bebbc
bbbb febe
ef bdef
ecc bcdd
df eeee
dbe bebbc
dec beebb
bdbd bec
ef bbebd
eec bfcc
bbbc eecc
bebd eebc
bebf bbee
bf debbc
bf bebdc
ba ded
bfc bedc
bbdd ebd
eec bcdd
ba fcc
bf ebbed
bbbb dbec
bbc ecdc
df bbbbc
dbe fdd
bbec fbd
bbbb bedd
fee fbf
bbbcc bcc
ebc bcbbbb
ebc febd
ba fbd
dbb ecbbbb
ded bcbc
ddc bbee
eeec dbbc
beee bba
debe ebe
ec debfc
eec befc
bbf eebf
dbe dfc
bdc fdd
def fbc
eecc dcc
fa ccc
ec fcccc
ef bebec
bbc dbdc
bdc ecbc
bef dfc
bcbe bbebe
da ff
bebbbb bebe
ebf dfc
bebc fbd
fed bfc
bccc dec
ecdc dd
bdee dbd
dc edbc
eec ecec
ebf bedc
bebc bedc
eef dbbc
bccc ebd
dbe debc
dbe dbbbb
dbc bbdc
fbe debc
beef bbbb
eeebe eeebe
ebbee bec
dc efdc
ebc ecebb
fc eced
bdc bcec
bbec bedc
bbebb fee
eef bbbbc
decc eecc
ef eebbc
bbee fbd
bbbf ecc
bcee bbed
eeec fec
ecee fbc
bf ddcc
ed fbbee
bcc ecbf
bbbe bebbbe
bebe bbdc
bebc ebcc
ded bcec
debe ebd
bcbe bbdc
ecee ff
ef e</w>
dbe bbef
dcc bbcc
eddd dd
ebb dbbcc
bbc bcebe
eec bded
edc bced
edc fecc
bebe bbef
ded bbcc
ecbe ebec
f ebb</w>
ed efbf
ebc dbbbe
dee eeee
bcf bbbbc
debd bec
bbeec bec
bd ebfcc
bd befcc
bebe ebec
dbb dded
eedc ff
febe ff
dbb ecfc
bebc bbbbc
efc bedc
eeec becc
eeebb ebf
bcbf bbbb
bbc bbecc
bebd bef
da ebe
bcbd bdc
dbcc dd
bddd dbd
bebbd bbbb
bbbe beed
bfc ea
fbc ebcc
bebd beec
def dbd
bf bdbbbb
fc bbecc
bebe dbbc
bfc fbe
ac bdc
eebc debb
dbbbb dbd
fc eebbc
bebc ea
bcbd bbbc
ec eeeecc
ef eedd
ebc fbec
ecc bded
ebd fa
eec bcbbc
edc bbdd
fbd fee
eebe eccc
bcbd bbd
ebbbc bbd
bc defcc
dc debbc
ef ecebb
bcc febe
febb bbbc
ec dbbfc
bf beebd
bf eebbbe
ebf bbdc
ded deec
eeee df
bebd bfc
ecbd dec
ebbbc dee
bbbb fdc
bbc fa
bbbe bbfc
ef bfbf
bbbbc dbd
ec de</w>
ebe bfbf
bbc dedc
bbc dbbf
bbbe ac
def dec
eecc bbf
ffc bec
ebbbc bbee
bf eac
bf bdebe
dbb ebbee
bef beebe
dbf bcbc
ddc bbbc
beec edc
eebbed cc
ebc bcef
fc fbcc
ecc eef
bbbd debe
bbbf dec
bbed debb
bbebe dd
ffc a
eced df
bceebc cc
ebc efcc
bebe eebf
ddc bfc
eeee bcbc
bf bbedc
bf ebbbbbb
ed bbbbcc
bcc beef
fbe da
ddc eecc
bcbd dbd
edbd dee
ebccc ccc
bf fbbbc
ed dbccc
bbbd bbdc
eebc becc
ecbc bef
ebe dbdc
beec fee
beebb fc
ebfc df
bbc bfcc
ebd bcdd
bebe fec
beee eeebb
bccc dbc
bdbd bdc
bbc bcfc
ebbc debe
ea bbec
ac fa
bbbb debc
ebd ecbe
bbd ecbf
dbe eeee
eebc efc
eef eccc
bcee fec
edbd fc
ed beebbc
eec dccc
bebd ba
bdbe dbf
bf eebec
ebe ecbbc
fbc ea
bbbf ebbc
bcee bbcc
eebf ccc
bcbf ff
eedd edc
ecdc edc
ee dbbbcc
bfc fed
bbdd ccc
eeba cc
fdebe cc
ebe bdec
bbbe def
ecbc ecbc
bdf debb
a bbba
ef bebcc
ebe fbec
ecee dbf
bec bdcc
ebd bddc
df bcbe
dbb ebbebe
ddc bef
fbd ebbc
ffc fc
ebb beebbc
bbec bbbbc
eebc bbcc
ecf bbbf
a beef
ee bbb</w>
eecc fcc
bbebe bebc
bcc eced
bebe eeebe
efc ebcc
eec eba
bbf bcbe
ebf eeebe
bdc bced
fee fef
bcf bbef
dd ecdd
ea dbf
ea bcec
bbbbbbbb bbd
bba dbe
ef bebbbe
bbbe eebbbb
fdc dbc
eebf ff
bf ebbee
ebb acc
ebe dedc
ebd bddd
bbee bccc
bbbec dbe
edbc fbc
dc bebbf
ebc bddd
bcc da
eec bcef
beebb ff
eebf fc
bbbb ecbd
bbbb beef
ebec fcc
ebdc bbd
eebe ebbebb
bbfc dee
ebfc fc
bf efbf
ebe eedd
bbbe ecbc
ebf bcebb
dec ecbc
bcf debe
fbf bef
bdbd a
ebb febbc
ebe fbbf
ebc bebcc
fdc bdc
dbcc fc
bcbf df
febc df
ecdd ecc
bf fbef
bbbb fef
bcc bded
ea edc
bbbf bcbc
dbec ded
bcee beee
ebe efcc
bcc eef
eec beebc
ba eeee
dbc dfc
bebe bcebb
bbbd efc
da bec
dc eeccc
ebc b</w>
ebc bdbf
ebf fdd
bbbd eebc
eeec edc
decc edc
bfcc ccc
bd dbbed
dbc febb
bbee ebec
bedc edc
beef ff
bdf beee
becc ebcc
a dca
ebc fbcc
dcc eccc
fed fbc
dbe cccc
ded bebd
ddc bcbc
eeec bebe
bbc bdbc
bbbc bdbd
bbee eeebb
ebbc bcbd
bbcc bbbbc
bccc bdc
bccc bcbc
bcec ebd
beed ff
beed dbd
bbfc bbf
bebbbb bbf
eedebb cc
ef dbbbe
dd efcc
bbee fbf
dbb bfed
dec dbec
fec def
fdc edc
f a</w>
dc bcbbd
bbbb dfc
ecc bcebb
dbe bdcc
dbb bfbd
dcc def
efc debc
bcbe debc
dbbbb ebe
ef ecf
dd bdbf
bec bba
bec ebfc
bbbc bcbbc
efc bbcc
bbec fed
fbc eebd
beec bbcc
bbebc ccc
bcbf bbf
bf ebccc
bf eca
ebc bdec
bfc debc
bfc dfc
becc eebd
dbec ebd
bcee fcc
bbbb bddd
ebbc beebb
bdbd dee
dc eebbbb
dd fdf
dec debe
bebc dbf
dbbbb bcc
bf ebbbd
dc beff
ebc feec
bbbd bcbd
bcbbbd cc
bbbb bbeec
dd ebfc
ebc dbbf
bbbc bebbc
dbb dcdd
ebcc bef
ef bcbbbb
ebc bdbc
bec beecc
eec eebf
bbd beebc
bebe dbf
dcc dbf
ebcc fcc
fbd ba
ecbc fcc
deec dbc
beed ded
eeea cc
bec ecdc
bdc bbbbc
eebd dbd
da bda
beebe bbc
bcdc df
ef bdee
bcbf a
bdf def
eeef fee
ebc bbecc
dee fbe
dcc beec
bbec def
bbed ebf
ecbe dbbc
bcee becc
ebbee bbebe
ed bebbbd
eec bebbbb
efc bbbd
fed edc
fbf fbc
eeec bebc
fbbbb bbbe
bef eebf
bbebc df
fc fdf
bcc c</w>
bbd bcef
bbee bcec
bfc ddc
ded fee
ac ac
debe edc
eeebe ff
dc fdbc
bbc bddd
ebd bba
eccc ddc
ebdc dbd
dedc df
a eef
dbc bdbd
bbee ded
dbb bfdc
bbcc fcc
febb bebe
bf ebbbc
bbc bbbbbbc
ebd beef
bfc dbec
dbb ecdf
bbed ba
