{"<unk>":0,"<pad>":1,"a":2,"b":3,"c":4,"d":5,"e":6,"f":7,"c</w>":8,"e</w>":9,"d</w>":10,"b</w>":11,"a</w>":12,"f</w>":13,"bb":14,"be":15,"bc":16,"ee":17,"cc":18,"bd":19,"ec":20,"bf":21,"ed":22,"ebb":23,"dc":24,"bbbb":25,"ef":26,"ebe":27,"dd":28,"ebc":29,"bbc":30,"fc":31,"bec":32,"ecc":33,"ebd":34,"bcc":35,"eec":36,"bbd":37,"df":38,"bbbe":39,"bbf":40,"dbe":41,"ebf":42,"bdc":43,"edc":44,"ba":45,"ff":46,"bbbc":47,"dee":48,"ccc":49,"dbc":50,"bbee":51,"bebe":52,"bfc":53,"ebbc":54,"dbb":55,"dec":56,"dbd":57,"bef":58,"dcc":59,"ea":60,"bbbd":61,"bebc":62,"efc":63,"ded":64,"bbec":65,"fbc":66,"beee":67,"bbcc":68,"fee":69,"ebec":70,"bbebb":71,"bcbc":72,"ebcc":73,"fbe":74,"dbf":75,"ddc":76,"fec":77,"debb":78,"bbbf":79,"bbed":80,"fcc":81,"beec":82,"eeee":83,"ac":84,"bbbbc":85,"eebc":86,"bebd":87,"becc":88,"fbd":89,"def":90,"eccc":91,"ecbc":92,"ebdc":93,"fed":94,"eecc":95,"bbebe":96,"dbbc":97,"bbdc":98,"eebe":99,"debe":100,"eef":101,"ecbe":102,"debc":103,"bbef":104,"bcbe":105,"bcf":106,"eebd":107,"dfc":108,"bbdd":109,"da":110,"bccc":111,"dbbbb":112,"dbec":113,"bcbd":114,"fbf":115,"bcee":116,"beebb":117,"bbbbbbbb":118,"fdc":119,"bcec":120,"bbebc":121,"deec":122,"beed":123,"bba":124,"febb":125,"eeec":126,"bebf":127,"eba":128,"bbfc":129,"bdbd":130,"bedc":131,"cccc":132,"dbbd":133,"bbbec":134,"decc":135,"eedc":136,"ecbd":137,"ebfc":138,"debd":139,"dbcc":140,"ecf":141,"eeebb":142,"bced":143,"fef":144,"bbbcc":145,"fdd":146,"eebf":147,"ecec":148,"beebe":149,"bcbf":150,"eeed":151,"bedd":152,"bcebb":153,"bebbc":154,"ffc":155,"bebbbb":156,"bbebd":157,"dedc":158,"edcc":159,"beef":160,"febe":161,"fbbc":162,"edbd":163,"eedd":164,"bcdc":165,"bbeec":166,"ecdc":167,"dbdc":168,"dccc":169,"dbbf":170,"eeebe":171,"dbbbe":172,"bbecc":173,"fa":174,"bdcc":175,"ecbf":176,"ecee":177,"bdbc":178,"febc":179,"bac":180,"bcbbc":181,"eced":182,"bdbe":183,"bdf":184,"bdbf":185,"bded":186,"bea":187,"befc":188,"ecebb":189,"eeef":190,"bfcc":191,"bcbbbb":192,"beebc":193,"bcef":194,"bcdd":195,"dbbbc":196,"ecdd":197,"debf":198,"bb</w>":199,"eac":200,"eebbc":201,"ebbcc":202,"bbbdc":203,"fbbbb":204,"bbebf":205,"bbccc":206,"ebbebb":207,"bdee":208,"bebec":209,"bddd":210,"eddc":211,"fbec":212,"bcebe":213,"bddc":214,"efcc":215,"fecc":216,"bebbbe":217,"bdec":218,"fbcc":219,"dbbee":220,"bdebb":221,"bcfc":222,"bcebc":223,"eddd":224,"dbfc":225,"fdf":226,"bebbd":227,"eebbbb":228,"ecbbc":229,"dcdc":230,"bebcc":231,"edbf":232,"bbedc":233,"eea":234,"fbbd":235,"ebecc":236,"debbc":237,"edbc":238,"febd":239,"feec":240,"ebccc":241,"dddd":242,"bca":243,"bfbf":244,"bedf":245,"eefc":246,"bedbe":247,"defc":248,"beecc":249,"bcbec":250,"bbebbc":251,"dba":252,"fbbf":253,"bbba":254,"eded":255,"ecef":256,"fdbe":257,"ebbbbbb":258,"bebbf":259,"ebbee":260,"bbbfc":261,"bdbbc":262,"ecbec":263,"ebbbc":264,"beebd":265,"bdef":266,"eeebc":267,"bdbbbb":268,"ebbbf":269,"ecebc":270,"fccc":271,"beeec":272,"dced":273,"bcbbd":274,"ecebe":275,"ecfc":276,"fbbbe":277,"ecdf":278,"ddcc":279,"fedc":280,"eebec":281,"bcbcc":282,"ebbbd":283,"eebcc":284,"bcdf":285,"bebbee":286,"bfdc":287,"bceec":288,"dea":289,"deecc":290,"bebbbc":291,"dbbcc":292,"eedbe":293,"bfed":294,"fbdc":295,"ebbed":296,"bda":297,"ecbbbb":298,"eca":299,"eedf":300,"fdbc":301,"bdebe":302,"ecccc":303,"ebbbbc":304,"bfbc":305,"eebbd":306,"ebbebe":307,"be</w>":308,"beff":309,"eebbbe":310,"debcc":311,"bd</w>":312,"febf":313,"debec":314,"ecbcc":315,"dcbd":316,"bebdc":317,"bc</w>":318,"bfbd":319,"dcdd":320,"bedbc":321,"edbbc":322,"dcbc":323,"eebbf":324,"beccc":325,"efbf":326,"eeecc":327,"dcec":328,"acc":329,"beebf":330,"bcebd":331,"bcecc":332,"efdc":333,"dbecc":334,"dfcc":335,"ecbbd":336,"fbbbc":337,"bdfc":338,"eebbee":339,"bfebb":340,"bcbbbe":341,"dded":342,"bdebc":343,"bedee":344,"beedc":345,"bbbbbbc":346,"fdee":347,"fbebe":348,"eceec":349,"bbea":350,"bbefc":351,"eeccc":352,"bfef":353,"eb</w>":354,"bbbbcc":355,"bcbbf":356,"bdbbd":357,"ebbef":358,"bbebec":359,"bcdbe":360,"bfbbc":361,"ececc":362,"ebbdc":363,"ecdbe":364,"bdbec":365,"fbef":366,"fbbee":367,"ebdcc":368,"bffc":369,"bbcbbc":370,"ebeebe":371,"bddf":372,"eeeec":373,"bedbb":374,"ecdee":375,"dddc":376,"bcccc":377,"eeebd":378,"fdcc":379,"edef":380,"dac":381,"eebebe":382,"ffcc":383,"edebb":384,"fdbd":385,"bcbbbc":386,"bbdcc":387,"eddf":388,"bfec":389,"bfdd":390,"bbbbebb":391,"fbfc":392,"bfebe":393,"eebdc":394,"fdbb":395,"ddbd":396,"eeff":397,"edec":398,"eedbc":399,"ebeebb":400,"deccc":401,"bedbd":402,"dcef":403,"fdec":404,"bfa":405,"edbec":406,"bcdee":407,"bbebcc":408,"edebc":409,"eebeee":410,"dcbf":411,"eedee":412,"ebbec":413,"dbbbbc":414,"debdc":415,"bcff":416,"efef":417,"dbbbd":418,"bedcc":419,"edebe":420,"bbcbbbb":421,"eda":422,"bcdbc":423,"fcdc":424,"bebbbd":425,"bfbbbb":426,"fba":427,"ecebd":428,"ebbebc":429,"bebbebb":430,"eeebf":431,"bdeec":432,"eebbbc":433,"bedec":434,"edfc":435,"bebbec":436,"ebbdd":437,"bbfcc":438,"beba":439,"fbebc":440,"bbcbd":441,"febbc":442,"efdd":443,"dcebe":444,"bebfc":445,"eebef":446,"bcbdc":447,"ebba":448,"dcfc":449,"bbac":450,"dcebc":451,"fbeee":452,"eddee":453,"ebbbec":454,"efbd":455,"beebbc":456,"ee</w>":457,"bbbbbd":458,"aa":459,"bcbebe":460,"ebebf":461,"dcbbc":462,"bcedc":463,"eddbe":464,"ecdbc":465,"eedcc":466,"ebbfc":467,"ebbbbbe":468,"ecdec":469,"ecbbbe":470,"bebbcc":471,"bdbcc":472,"ec</w>":473,"bfebc":474,"ebfcc":475,"bddbe":476,"fbbbd":477,"ebebbc":478,"edbcc":479,"fefc":480,"dedcc":481,"ed</w>":482,"edee":483,"dcebb":484,"edbbbb":485,"ecbbf":486,"dbbdd":487,"fbbcc":488,"ebeef":489,"bbcbf":490,"ecbdc":491,"fbbec":492,"bbbecc":493,"dcbec":494,"db</w>":495,"fea":496,"bbdbd":497,"dbccc":498,"fddc":499,"eeedc":500,"dceec":501,"fdbf":502,"bcbbee":503,"eefee":504,"bdebd":505,"ebebbbb":506,"ebbbbd":507,"dcccc":508,"befcc":509,"ebac":510,"bdecc":511,"edeec":512,"bcdec":513,"bfbec":514,"ecff":515,"eedbd":516,"bbbccc":517,"bbcebb":518,"dca":519,"fcbf":520,"fded":521,"efebe":522,"dcecc":523,"bbdbbbb":524,"bbcbc":525,"ebebd":526,"bbbebbbb":527,"effc":528,"bcdbd":529,"dbbebb":530,"edbbd":531,"efbbc":532,"bcebf":533,"efebb":534,"efa":535,"bcbebc":536,"fbecc":537,"dcdf":538,"efed":539,"dbbbf":540,"dcee":541,"bcbef":542,"bebecc":543,"bedbf":544,"dbbed":545,"ddbf":546,"eeba":547,"fbbbf":548,"beded":549,"bdbbbe":550,"ecbbbc":551,"bebbbf":552,"ecded":553,"bcfbc":554,"beea":555,"ebced":556,"ebedc":557,"beddc":558,"fcdd":559,"bddee":560,"bcbbbd":561,"ecedc":562,"bbb</w>":563,"ebcbf":564,"bebbed":565,"bbbbbf":566,"bbced":567,"fbbebb":568,"bdbbf":569,"fcfc":570,"eedec":571,"bbebdc":572,"bcbfc":573,"ebeed":574,"ebedd":575,"eebebc":576,"bf</w>":577,"ebbbcc":578,"dd</w>":579,"dbbdc":580,"ecdbd":581,"ebcbbc":582,"bbdbbc":583,"bbdbf":584,"fbccc":585,"bbbbbbbe":586,"ebbeec":587,"eebbec":588,"bedebb":589,"bbeecc":590,"dcbcc":591,"ecdcc":592,"becbbc":593,"ecced":594,"eefbe":595,"becbf":596,"febcc":597,"ebcebb":598,"bdff":599,"fac":600,"bcbbec":601,"feecc":602,"bcded":603,"eebbebb":604,"bfbcc":605,"dda":606,"bcdcc":607,"ecbebe":608,"bcebbc":609,"bddbc":610,"eeebbc":611,"bdbdc":612,"ddef":613,"ebea":614,"beefc":615,"bfdf":616,"bebccc":617,"ecbef":618,"dcebd":619,"fcbbc":620,"dbbebe":621,"edecc":622,"ddbbc":623,"bbbbbbd":624,"bbeccc":625,"eebbbd":626,"ebbbbf":627,"bddbd":628,"ddebc":629,"fcdf":630,"bbbbbbbc":631,"febec":632,"bebbebe":633,"bbbbebe":634,"bcbbcc":635,"fcef":636,"eefbc":637,"bebbbbc":638,"fdebb":639,"edebd":640,"ebbdf":641,"ebcbec":642,"ebcdc":643,"bcba":644,"ecbebc":645,"fbbed":646,"eebfc":647,"beebec":648,"fcbd":649,"eeddc":650,"dbdcc":651,"eebcbc":652,"ebcbd":653,"ebbebd":654,"eddbc":655,"bbcbec":656,"ebcef":657,"ecbfc":658,"ebcdd":659,"edccc":660,"dbbef":661,"becbec":662,"bbcef":663,"ebbdbe":664,"bfbbf":665,"bbcebe":666,"fdef":667,"ecebf":668,"dfdc":669,"ecbbec":670,"bbded":671,"cccccccc":672,"ecbbee":673,"bfecc":674,"bcfee":675,"ddebe":676,"debfc":677,"fced":678,"ebbbbbc":679,"eeea":680,"bbcdc":681,"bdedc":682,"bcbeee":683,"eebbcc":684,"de</w>":685,"ebcebc":686,"beebcc":687,"bbcdd":688,"bbbbbbbbbbbb":689,"beac":690,"abf":691,"dcdbe":692,"bdbbbc":693,"eedbf":694,"bcfec":695,"bbdebb":696,"bcced":697,"dbbfc":698,"becdc":699,"ddfc":700,"dbba":701,"ddeec":702,"dc</w>":703,"dddf":704,"ecfbc":705,"ecbeec":706,"bdccc":707,"feccc":708,"eecdc":709,"bbcbcc":710,"bcfbe":711,"ebbecc":712,"ecebbc":713,"ebbbebe":714,"aed":715,"bbcfc":716,"ecbcbc":717,"eecbf":718,"fcccc":719,"bcbbebb":720,"bbddc":721,"efbcc":722,"bcefc":723,"bedbbc":724,"bbcebc":725,"bdbebe":726,"eddec":727,"ebebec":728,"ddbec":729,"efdf":730,"defcc":731,"ebefc":732,"adc":733,"ebebbbe":734,"bfff":735,"bbcccc":736,"ebb</w>":737,"bcbeec":738,"ddebb":739,"eeded":740,"bfdbe":741,"dbbbec":742,"dbbebc":743,"efebc":744,"bfbbbe":745,"bfebd":746,"edbdc":747,"bfbbd":748,"dcbbbb":749,"bcfcc":750,"efbec":751,"bceebc":752,"ebebcc":753,"fdbbc":754,"ecba":755,"ddecc":756,"abd":757,"fbbef":758,"eecbec":759,"ecbbbd":760,"eebeec":761,"edbbf":762,"ebeebc":763,"bbbcbbbb":764,"bebbef":765,"beeecc":766,"fbbdc":767,"eecdf":768,"efbbbb":769,"dbfcc":770,"bcbccc":771,"eebbed":772,"bcdebb":773,"bebbdc":774,"ddbbbb":775,"ebcbbbb":776,"edff":777,"bcbbed":778,"dcbbd":779,"fbbbbc":780,"fcbec":781,"deba":782,"eeeecc":783,"bbbbbbbbbbbbbbbb":784,"ecfec":785,"fca":786,"bedef":787,"bacc":788,"fda":789,"dcdee":790,"bbebfc":791,"bbcbbd":792,"bddec":793,"edbbbe":794,"bfeec":795,"bdbbbd":796,"bcbebd":797,"becebb":798,"add":799,"eacc":800,"bbeba":801,"fdfc":802,"bcdbf":803,"ebcfc":804,"ebceec":805,"bbbeebb":806,"dbbbcc":807,"dbbebd":808,"bcfbd":809,"aef":810,"dbedc":811,"ecfee":812,"ecceec":813,"fedcc":814,"ebcdf":815,"eebbbf":816,"bdbbee":817,"fbbebe":818,"bedebe":819,"bcbbbf":820,"bccccc":821,"ebbff":822,"bcddc":823,"eebbebe":824,"abbc":825,"ebddd":826,"dfed":827,"deedc":828,"eebccc":829,"ebebebe":830,"bcbbbbc":831,"bcebec":832,"dffc":833,"eefcc":834,"bbfbf":835,"ecdebb":836,"ecbecc":837,"bdebf":838,"ecddc":839,"abbbb":840,"ebbbbee":841,"bccbcc":842,"bbdef":843,"afc":844,"cccccc":845,"dcedc":846,"ebcebe":847,"ebded":848,"bcbecc":849,"eebebd":850,"bccbbc":851,"bbdbbd":852,"aebe":853,"eecdd":854,"bebbebc":855,"fdebe":856,"bccbf":857,"dfdd":858,"bbbbbec":859,"efdbe":860,"febdc":861,"bbcbbbe":862,"eddbd":863,"eebecc":864,"ecbbcc":865,"bedbbbb":866,"efff":867,"bdbef":868,"efecc":869,"bbdebe":870,"ecefc":871,"eedebb":872,"dcff":873,"ecbeee":874,"aebb":875,"ededc":876,"ecfcc":877,"efbbf":878,"fcebe":879,"dfbf":880,"eefec":881,"bbceec":882,"bedebc":883,"eccecc":884,"ebdbf":885,"dddbe":886,"bdfbc":887,"ecdbf":888,"eedbb":889,"ecbccc":890,"bdbebc":891,"ef</w>":892,"fcbcc":893,"eeefc":894,"bbdbec":895,"eefbd":896,"fdebc":897,"dcdbc":898,"edded":899,"bcdbb":900,"ecbebd":901,"dcbdc":902,"bcea":903,"fcebb":904,"bbbdcc":905,"ebebbf":906,"bbbbbbf":907,"ddbcc":908,"ebcbcc":909,"bdded":910,"ecfbe":911,"eecbbc":912,"eccbec":913,"bdbfc":914,"bddcc":915,"bbbbed":916,"ebbebf":917,"ddebd":918,"bbbebbc":919,"fcebc":920,"ecbbed":921,"bceebe":922,"bcebcc":923,"fbdcc":924,"bebbdd":925,"dcdec":926,"ebbdbc":927,"bbbebf":928,"bcfed":929,"bbbbdd":930,"bbca":931,"ecdef":932,"bbbbbcc":933,"ecbbebb":934,"eebbef":935,"fcdbe":936,"ebbccc":937,"bedbec":938,"bebba":939,"beced":940,"ebbbdc":941,"becdd":942,"eccef":943,"eeebec":944,"bcecbc":945,"eeac":946,"eeebcc":947,"bceecc":948,"bebbbec":949,"bbcbbf":950,"debbcc":951,"fbbdd":952,"bceeee":953,"bcdef":954,"becebc":955,"dbebf":956,"bbbbbbbd":957,"bcecbe":958,"ebebbee":959,"eceebc":960,"ebddc":961,"becef":962,"dbac":963,"bbd</w>":964,"bbcbbbc":965,"eddcc":966,"bfccc":967,"beeccc":968,"ecebec":969,"dbedd":970,"bbcdf":971,"bbdebc":972,"bfebf":973,"ecebcc":974,"becebe":975,"efccc":976,"ffdc":977,"eeecbc":978,"bfbdc":979,"bdba":980,"bbda":981,"bceebd":982,"eccdc":983,"fbbfc":984,"dbbeec":985,"bbbbebc":986,"bcdebe":987,"bceef":988,"beda":989,"bbbebbbe":990,"deedd":991,"eedbbc":992,"dfa":993,"bedfc":994,"becccc":995,"bcac":996,"eccebc":997,"bbdfc":998,"ebbbbbd":999,"edbbbc":1000,"becbbbb":1001,"bfbbbc":1002,"bbcdbe":1003,"bbcebd":1004,"eecccc":1005,"bfbebe":1006,"bccef":1007,"deac":1008,"becbd":1009,"eebbbbc":1010,"bbbeebe":1011,"edbef":1012,"ebbedc":1013,"ebbdee":1014,"bccebe":1015,"fdbec":1016,"bfedc":1017,"bbbbef":1018,"edbebe":1019,"becdf":1020,"bccdc":1021,"dddbd":1022,"bebbfc":1023,"bfdbc":1024,"ebdef":1025,"eedef":1026,"ebbbef":1027,"bdbbec":1028,"ebca":1029,"becfc":1030,"beebdc":1031,"dcbbf":1032,"bcbbdc":1033,"ebedf":1034,"ecfed":1035,"bdebbc":1036,"bebdcc":1037,"bbc</w>":1038,"bbbba":1039,"fdbbbb":1040,"eccfc":1041,"dcdcc":1042,"dfef":1043,"becbcc":1044,"bbebbcc":1045,"ecfbd":1046,"ddedc":1047,"eecef":1048,"eceecc":1049,"ddbbd":1050,"eccbf":1051,"dddbc":1052,"bbbfcc":1053,"dbeed":1054,"fbbebc":1055,"ebbbebc":1056,"bbe</w>":1057,"debecc":1058,"bccfc":1059,"dfbd":1060,"ececbc":1061,"ebcebd":1062,"bccbd":1063,"bcdbbc":1064,"ebcecc":1065,"ebebbd":1066,"fbba":1067,"bbebbbbbb":1068,"edbbec":1069,"eecbd":1070,"bccbec":1071,"ffbf":1072,"ddbdc":1073,"bcceec":1074,"bbbbdc":1075,"eebbdc":1076,"ebbbeee":1077,"ecea":1078,"edbbee":1079,"ecdebc":1080,"bccebb":1081,"bcbbebe":1082,"bfdee":1083,"bccebc":1084,"ebdbec":1085,"bbfef":1086,"ebdbd":1087,"ecdeec":1088,"ebedbe":1089,"bccdd":1090,"ebddf":1091,"ebebeee":1092,"ebdebb":1093,"ebeecc":1094,"ffdd":1095,"edbebc":1096,"bbfbbbb":1097,"ffef":1098,"bbbcbbc":1099,"dcdbd":1100,"fceec":1101,"bfbbee":1102,"bbdeec":1103,"bbbac":1104,"edebf":1105,"bedbbd":1106,"bbbb</w>":1107,"eeecbe":1108,"ebe</w>":1109,"beceec":1110,"bedeec":1111,"fcdee":1112,"bbedcc":1113,"ebdbbc":1114,"fbbbec":1115,"eedbec":1116,"eccbd":1117,"fdbcc":1118,"bbfbbc":1119,"ecbbbf":1120,"ebbebbc":1121,"dbebd":1122,"fdbbd":1123,"bfbef":1124,"ebbbbebb":1125,"ebdeec":1126,"eebba":1127,"ebeeec":1128,"beca":1129,"ebeff":1130,"eccdd":1131,"eccbbc":1132,"ebdebc":1133,"ecdbb":1134,"bcdebc":1135,"fcbbbb":1136,"bbdbbbe":1137,"bcbbdd":1138,"dfbbc":1139,"fbfcc":1140,"edced":1141,"bccbbbb":1142,"eccccc":1143,"bcbbef":1144,"efbbbe":1145,"dddee":1146,"bdfee":1147,"ebbdec":1148,"efeec":1149,"ebebbbc":1150,"efbdc":1151,"ecdbec":1152,"bcdfc":1153,"ebeebf":1154,"bdddc":1155,"fffc":1156,"bebebbbb":1157,"eeceec":1158,"edbfc":1159,"bbfebb":1160,"dfebc":1161,"bdbeee":1162,"dcded":1163,"ddccc":1164,"ecca":1165,"bbbdbbbb":1166,"eccebb":1167,"dcbbbe":1168,"ecdfc":1169,"dbb</w>":1170,"dbbbdc":1171,"ebda":1172,"becdbe":1173,"ebc</w>":1174,"ebd</w>":1175,"eeeccc":1176,"eccedc":1177,"bebbbbbbbb":1178,"dbddd":1179,"fdeec":1180,"eeda":1181,"ebdbbbb":1182,"bdfbe":1183,"ebeccc":1184,"ebebdc":1185,"edddc":1186,"debccc":1187,"ebcbbd":1188,"bedbcc":1189,"dbebbc":1190,"ebeeeee":1191,"ebbfee":1192,"efebf":1193,"ecdebe":1194,"bbfdc":1195,"fcff":1196,"bcdbbbb":1197,"ebbdbd":1198,"efbbd":1199,"efbbee":1200,"efbebe":1201,"bffbc":1202,"eeca":1203,"ecdbbc":1204,"bdbcbc":1205,"bebbbcc":1206,"edbeec":1207,"ecbbdc":1208,"ebcccc":1209,"efdbc":1210,"edfbc":1211,"fdecc":1212,"ebcbbbe":1213,"bfbfc":1214,"ebbbbec":1215,"ebcdbe":1216,"ebeebd":1217,"eebbebc":1218,"bebbeec":1219,"bdfec":1220,"bbfa":1221,"ebebef":1222,"bbbbfc":1223,"baa":1224,"efebd":1225,"dcebf":1226,"edceec":1227,"bcca":1228,"bbffc":1229,"bdefc":1230,"bddebb":1231,"ecbbbbc":1232,"ebbeeee":1233,"bceccc":1234,"efdee":1235,"fdebd":1236,"eebdcc":1237,"ffa":1238,"bbcdee":1239,"bdbeec":1240,"eedebc":1241,"bbcdbc":1242,"bdbbcc":1243,"edba":1244,"decdc":1245,"ebdfc":1246,"fbebf":1247,"dbefc":1248,"becdee":1249,"ebbfbc":1250,"eedebe":1251,"ebbbfc":1252,"bddbf":1253,"bbcbdc":1254,"ddff":1255,"ebbba":1256,"eccebe":1257,"bbeebbbb":1258,"bebbebd":1259,"bbcbebe":1260,"bbbcbbbc":1261,"efbef":1262,"edbbbd":1263,"eccdf":1264,"bedebd":1265,"ecac":1266,"eecebc":1267,"bcebdc":1268,"eceeec":1269,"fbbbcc":1270,"ececcc":1271,"beeba":1272,"eceef":1273,"bbdbbf":1274,"eebbdd":1275,"bbdbcc":1276,"eddef":1277,"ebcbbf":1278,"bbbbbebe":1279,"eefed":1280,"edebbc":1281,"df</w>":1282,"eceeee":1283,"ffff":1284,"ecdecc":1285,"bbbbdbe":1286,"dddec":1287,"beb</w>":1288,"dbbecc":1289,"edcef":1290,"ebfbf":1291,"ecda":1292,"feba":1293,"bcbbebc":1294,"adf":1295,"eceebd":1296,"dbbccc":1297,"ececbe":1298,"bbbbbbebb":1299,"bbdebd":1300,"eceedc":1301,"bbbcbf":1302,"bbcecc":1303,"eedbbbb":1304,"eecfc":1305,"edcdc":1306,"befbf":1307,"dddcc":1308,"ebcdee":1309,"edfee":1310,"bcdbec":1311,"eddbf":1312,"bbebecc":1313,"bdbebd":1314,"bdcdc":1315,"bcbcbcbc":1316,"ecfdc":1317,"ebedbc":1318,"bdbbebb":1319,"febfc":1320,"bdfcc":1321,"dfbec":1322,"beedcc":1323,"bcbbfc":1324,"fdbbf":1325,"effee":1326,"eeebdc":1327,"fcecc":1328,"dfecc":1329,"fb</w>":1330,"bbbbbbbbc":1331,"febbcc":1332,"bcdeec":1333,"eddebb":1334,"bcda":1335,"bdfbd":1336,"bbbedc":1337,"edbeee":1338,"aebc":1339,"bbbebec":1340,"eedfc":1341,"eecebb":1342,"bdeebc":1343,"bbcff":1344,"ebdebe":1345,"fcbbf":1346,"eebeebe":1347,"eecbcc":1348,"deebf":1349,"bedecc":1350,"fcdbc":1351,"abec":1352,"eccbcc":1353,"bbeebf":1354,"ecebdc":1355,"dfebe":1356,"bebebf":1357,"eeced":1358,"bebfcc":1359,"edcbec":1360,"ddddc":1361,"dfdf":1362,"dbcdc":1363,"eecdbe":1364,"eebbfc":1365,"bdcbf":1366,"bbdbbbc":1367,"eecbbbb":1368,"eedeec":1369,"bbeeebe":1370,"bdbbed":1371,"eceebe":1372,"dacc":1373,"ebbbbcc":1374,"eeeeeeee":1375,"fdccc":1376,"edefc":1377,"bbbebebe":1378,"edcdd":1379,"dfbcc":1380,"eecdec":1381,"dbebbbb":1382,"ebcdec":1383,"bdcdd":1384,"ebcdbc":1385,"bbfebe":1386,"becbbd":1387,"becebd":1388,"dcbbbc":1389,"fcbbd":1390,"bbfdd":1391,"edfec":1392,"bbbedd":1393,"ebbfbe":1394,"adbe":1395,"bebbecc":1396,"bbcdbf":1397,"bfdbd":1398,"efbbbc":1399,"dcfbc":1400,"abcc":1401,"ebcff":1402,"bfdec":1403,"ecbbdd":1404,"bebebbc":1405,"dfdbe":1406,"bcbbbec":1407,"dfebb":1408,"bffee":1409,"bbfed":1410,"bdced":1411,"fcebd":1412,"bbeeebb":1413,"eecdee":1414,"bdcef":1415,"ebcedc":1416,"bdea":1417,"fbbeec":1418,"bddbb":1419,"bbefcc":1420,"ecfbf":1421,"bedbbf":1422,"dcbfc":1423,"bcbdcc":1424,"bedbbbe":1425,"eccebd":1426,"dcbebe":1427,"bfbebc":1428,"bcbbbbbbbb":1429,"bbeac":1430,"ebefee":1431,"efbeee":1432,"bdbecc":1433,"dcddc":1434,"bbbbbbee":1435,"fefcc":1436,"eebbbec":1437,"bbcbbee":1438,"bdebec":1439,"fcbdc":1440,"eeeba":1441,"ebcbbbc":1442,"bbbbcbbbb":1443,"bbbeef":1444,"bbdbbbd":1445,"dbebec":1446,"eecebe":1447,"bbbeed":1448,"ebbbcbc":1449,"dbeebe":1450,"ebfef":1451,"edcdf":1452,"bbbebbbc":1453,"bcdbbd":1454,"ecbbebc":1455,"deddd":1456,"ebbbbbf":1457,"bbfbbf":1458,"aff":1459,"beebfc":1460,"bfdcc":1461,"eedbcc":1462,"ecbbebe":1463,"dbcdd":1464,"dcfec":1465,"bdcebe":1466,"bccecc":1467,"eecebd":1468,"fdbdc":1469,"dbeef":1470,"dcbef":1471,"bccebd":1472,"bbcbbbd":1473,"fbbebd":1474,"bcbbbcc":1475,"fcdec":1476,"dbeebb":1477,"dbea":1478,"becdbc":1479,"bcbba":1480,"bccdf":1481,"ecfebb":1482,"bbdbdc":1483,"ecdedc":1484,"fe</w>":1485,"bbbbebd":1486,"dbbebf":1487,"edcebc":1488,"decccc":1489,"bfba":1490,"edbecc":1491,"bbbebbf":1492,"bdbcbe":1493,"bddef":1494,"bebebebe":1495,"eedbbd":1496,"bbbea":1497,"fbeef":1498,"bbdff":1499,"bbcdbd":1500,"bbcebf":1501,"eecdbc":1502,"edbbcc":1503,"ecdebd":1504,"bececc":1505,"fbbecc":1506,"bbbcebb":1507,"ebcbdc":1508,"ececbd":1509,"befdc":1510,"edcbf":1511,"bdbbbf":1512,"bbcdec":1513,"edbbebb":1514,"bcdebd":1515,"becdec":1516,"bebeebe":1517,"efdcc":1518,"bbbddd":1519,"bfbeee":1520,"bfebbc":1521,"bbebccc":1522,"bbcbef":1523,"deddc":1524,"bbcbebc":1525,"aba":1526,"edbcbc":1527,"ebdebd":1528,"bebeebb":1529,"efedc":1530,"bffbe":1531,"becbbbe":1532,"bcedcc":1533,"bddbbbb":1534,"dbedbe":1535,"ebfdc":1536,"bdeebe":1537,"bdbcf":1538,"ecbbef":1539,"bbbebbee":1540,"ecbdbd":1541,"becbbf":1542,"becff":1543,"ebbded":1544,"aecc":1545,"edfbe":1546,"bbbeebc":1547,"edcfc":1548,"beebbcc":1549,"dcefc":1550,"edcebe":1551,"bedccc":1552,"bcb</w>":1553,"dfccc":1554,"ebbdcc":1555,"bddebe":1556,"bdac":1557,"ddbbf":1558,"ddded":1559,"abbf":1560,"bfbbec":1561,"bcdbcc":1562,"bffcc":1563,"ebcbebe":1564,"bdcfc":1565,"dbddc":1566,"bdebcc":1567,"bdbbbbc":1568,"bbbebbd":1569,"fdbbbe":1570,"ebffc":1571,"bccbbd":1572,"edbbed":1573,"eddebe":1574,"bfbbbd":1575,"abbd":1576,"befef":1577,"ebbbbbbc":1578,"ecbedc":1579,"bdbbdd":1580,"ebbdebb":1581,"bbcbfc":1582,"bdcebc":1583,"ecbbfc":1584,"bdceec":1585,"becbbbc":1586,"bdbcbd":1587,"bddbbc":1588,"ebfebe":1589,"ebbeebc":1590,"ececf":1591,"edbebd":1592,"eeedcc":1593,"bbbefc":1594,"ebddbe":1595,"ebcbebc":1596,"ffebe":1597,"bbbbdbc":1598,"aeec":1599,"bcdecc":1600,"ebbfec":1601,"ffbbc":1602,"dcbbee":1603,"bdcbec":1604,"bdbcee":1605,"dbbedc":1606,"ebbbebd":1607,"ebbeebe":1608,"deebbc":1609,"bedbdc":1610,"ebdecc":1611,"fbeebe":1612,"befdd":1613,"bdcbbc":1614,"dbcbf":1615,"bbdbebe":1616,"decdd":1617,"bdeef":1618,"dbcfc":1619,"dbcef":1620,"ebfa":1621,"dcbebc":1622,"edfcc":1623,"bbdecc":1624,"bccdbe":1625,"bbbbeec":1626,"deefc":1627,"bdfed":1628,"bfbcbc":1629,"ccccccc":1630,"ebfbbc":1631,"fbedc":1632,"ecbdcc":1633,"bebbebf":1634,"dfff":1635,"edcecc":1636,"fc</w>":1637,"bbbcebe":1638,"dfeec":1639,"ecdbbbb":1640,"bdbbdc":1641,"becbbec":1642,"dbced":1643,"eedebd":1644,"accc":1645,"eebeef":1646,"dfebd":1647,"bdeeee":1648,"bbdbbee":1649,"ddfbc":1650,"fdedc":1651,"ebcded":1652,"ddbbbe":1653,"efdbd":1654,"ebbea":1655,"effbc":1656,"bfbbcc":1657,"ecdbcc":1658,"ebeedc":1659,"ebbbeebb":1660,"bbfbec":1661,"eebbbcc":1662,"ebebebc":1663,"ffccc":1664,"ebedee":1665,"eececc":1666,"efbfc":1667,"bbbbbdc":1668,"bdeecc":1669,"dbeebc":1670,"bbfebc":1671,"aebd":1672,"dcfee":1673,"bbbbccc":1674,"dbcbbc":1675,"abbbe":1676,"edeebc":1677,"eceedd":1678,"fbebbc":1679,"dcfcc":1680,"eebbeec":1681,"bedbbbc":1682,"bcbfcc":1683,"dcebbc":1684,"efba":1685,"bccff":1686,"dfedc":1687,"dccccc":1688,"efdec":1689,"eecff":1690,"bbdccc":1691,"fcbbbc":1692,"ebbbbed":1693,"bdecbc":1694,"ebddee":1695,"eccdec":1696,"bbeebbc":1697,"bccdee":1698,"ebbefc":1699,"ebbbeec":1700,"ebbcbbbb":1701,"dfbbbb":1702,"deb</w>":1703,"dfbdc":1704,"bcffc":1705,"befebe":1706,"dbbbbbbbb":1707,"dfdbc":1708,"fbac":1709,"dbbba":1710,"bfcbf":1711,"ebfbbbb":1712,"bee</w>":1713,"bdecbe":1714,"bdfdc":1715,"bbbebcc":1716,"dbebcc":1717,"bbcbbec":1718,"bdeebd":1719,"bbeebbee":1720,"eecbbd":1721,"eecded":1722,"eedccc":1723,"bdbeed":1724,"edea":1725,"bbcfbc":1726,"eefbf":1727,"eeb</w>":1728,"ecbbbec":1729,"eedecc":1730,"eebfcc":1731,"dbbdcc":1732,"dcbbbd":1733,"deeccc":1734,"dbbebbc":1735,"debdcc":1736,"becbdc":1737,"ebdbcc":1738,"ebeba":1739,"fd</w>":1740,"bdfbf":1741,"fdebf":1742,"eefef":1743,"bbddcc":1744,"eebbecc":1745,"eebebf":1746,"bdbcec":1747,"eceeed":1748,"bbbedbe":1749,"bbcbcbc":1750,"ddebf":1751,"ebbbcbe":1752,"edca":1753,"bcfdc":1754,"edebec":1755,"efebbc":1756,"bbfbcc":1757,"bbfff":1758,"befa":1759,"dbd</w>":1760,"fbebbbb":1761,"edfbd":1762,"dbcbbbb":1763,"edebcc":1764,"dbcebe":1765,"eccff":1766,"eebbebd":1767,"dbbbfc":1768,"ebbebec":1769,"eccbbbb":1770,"bbbcbec":1771,"bbcedc":1772,"edbcec":1773,"bbcebbc":1774,"bdbdcc":1775,"fbbebf":1776,"fcdcc":1777,"ddbebe":1778,"bcebbcc":1779,"ebdbbd":1780,"fddcc":1781,"bebbbdc":1782,"bfdbf":1783,"bbbcbbbe":1784,"bfefc":1785,"beeeebe":1786,"ebbbecc":1787,"bffec":1788,"bccbdc":1789,"ebcbbee":1790,"ebcebbc":1791,"eddebc":1792,"dcbbec":1793,"ebbbbebe":1794,"fcbef":1795,"dfbbd":1796,"bdbeebb":1797,"ddbbbc":1798,"bffbd":1799,"ddbbbd":1800,"bdeeec":1801,"feac":1802,"babbbb":1803,"bbfbbbe":1804,"dccdc":1805,"bddebc":1806,"decbec":1807,"fbbccc":1808,"eecbdc":1809,"eeeeebe":1810,"dbeecc":1811,"adbc":1812,"bccedc":1813,"fcded":1814,"dbc</w>":1815,"bccbbbc":1816,"abbbc":1817,"fcfbc":1818,"bcbbebd":1819,"ecdbbd":1820,"fdbbbc":1821,"ebbdbf":1822,"dbedf":1823,"bbcbbcc":1824,"deeebe":1825,"ebdff":1826,"bcebfc":1827,"ebcebf":1828,"bebebbbe":1829,"eefebe":1830,"ebdccc":1831,"fcdbd":1832,"dccdd":1833,"becbebc":1834,"edbeed":1835,"facc":1836,"bbacc":1837,"bbbbbebc":1838,"ebcbfc":1839,"ecbedd":1840,"dcbeec":1841,"bccbbf":1842,"eddeec":1843,"bdbccc":1844,"bbeebbbe":1845,"bcdedc":1846,"bcfdd":1847,"dfbbf":1848,"eaa":1849,"bebeef":1850,"bbbbdbd":1851,"edcdec":1852,"bccdbc":1853,"ebddbc":1854,"bcbedc":1855,"deea":1856,"bededc":1857,"bddfc":1858,"bebbccc":1859,"fbefc":1860,"ebbfbd":1861,"bfbbebb":1862,"febccc":1863,"bbdedc":1864,"bccbbbe":1865,"bebbedc":1866,"bbdbebc":1867,"dbe</w>":1868,"eefa":1869,"bcbbeec":1870,"ebddec":1871,"bbeedc":1872,"bbbbbbec":1873,"edfed":1874,"ebcdbd":1875,"bdca":1876,"deebec":1877,"edeecc":1878,"ddcdd":1879,"befbbc":1880,"bfded":1881,"deedbe":1882,"fcbfc":1883,"eceeebb":1884,"efeeee":1885,"fbedd":1886,"dbbbbcc":1887,"eebea":1888,"ebdedc":1889,"cccdc":1890,"febecc":1891,"efbebc":1892,"fcebf":1893,"bfbbbf":1894,"ebebfc":1895,"eccbdc":1896,"bbfdf":1897,"ecbfcc":1898,"ba</w>":1899,"eddfc":1900,"ebbebcc":1901,"fcbbbe":1902,"edeeee":1903,"bdda":1904,"bbdebf":1905,"bebac":1906,"dcbcbc":1907,"bdbedc":1908,"ebcfbc":1909,"bcfbf":1910,"ffdf":1911,"bdfebb":1912,"eebebbbb":1913,"ebebbebb":1914,"bbbdbbc":1915,"fbbbdc":1916,"ebbcbbc":1917,"efea":1918,"eccdbe":1919,"ebbfcc":1920,"feebf":1921,"bed</w>":1922,"bbbcdd":1923,"dbcbec":1924,"bbeedd":1925,"bedebf":1926,"beebecc":1927,"eddbec":1928,"bdbebf":1929,"bec</w>":1930,"bcdbbbe":1931,"efbbec":1932,"ebcbef":1933,"bbbbdf":1934,"bcbedd":1935,"fbea":1936,"ecbba":1937,"dbdbf":1938,"bbfdbe":1939,"bebbebbc":1940,"ebebbbd":1941,"ebfdd":1942,"bbbbbbbf":1943,"ecbbecc":1944,"eebeebb":1945,"bedbbee":1946,"edda":1947,"decbbc":1948,"becbebe":1949,"becded":1950,"effcc":1951,"cccdd":1952,"edbcf":1953,"bbeea":1954,"edcbbc":1955,"eecbebc":1956,"eeebbcc":1957,"ebebbec":1958,"bddbbd":1959,"eedbbbe":1960,"fcbebc":1961,"eedbdc":1962,"eecbbbc":1963,"ebddbd":1964,"ebdbdc":1965,"beeebbbb":1966,"eddbbc":1967,"edbdcc":1968,"ebeebbc":1969,"ebdbbf":1970,"edbedc":1971,"ecdbdc":1972,"dcba":1973,"eedbbf":1974,"ffbcc":1975,"beffc":1976,"deebcc":1977,"bdb</w>":1978,"edbbbf":1979,"abba":1980,"ecedcc":1981,"bcbbecc":1982,"bcdbbf":1983,"ebcfec":1984,"dffbc":1985,"bcdbdc":1986,"eccbbd":1987,"bbeeef":1988,"ecebbcc":1989,"ebdbbbe":1990,"bbbd</w>":1991,"ebefbc":1992,"beeebf":1993,"ecdccc":1994,"eccdee":1995,"dbeccc":1996,"eecdbd":1997,"edecbc":1998,"ebbfebb":1999,"dfdee":2000,"ebbbcf":2001,"bdcbbbb":2002,"ebebcbc":2003,"beefcc":2004,"bbbcdc":2005,"ecbbbcc":2006,"dfdbd":2007,"bbdfbc":2008,"bbbebbebb":2009,"edbcbe":2010,"bebedc":2011,"bbbcef":2012,"bbbcebc":2013,"adee":2014,"bdbbebe":2015,"bfea":2016,"bbbbebf":2017,"becebbc":2018,"dfdcc":2019,"bbbbbbcc":2020,"eecbbf":2021,"ebedec":2022,"fdbfc":2023,"bbcbbebb":2024,"bcccccc":2025,"feedc":2026,"abdc":2027,"ebedbd":2028,"dbcebc":2029,"fcedc":2030,"becdbd":2031,"ebbddc":2032,"bbbcbbd":2033,"dbebbd":2034,"eebbebf":2035,"bddbec":2036,"feeebe":2037,"dbceec":2038,"fbebcc":2039,"bddeec":2040,"eefdc":2041,"edbcee":2042,"bbcba":2043,"bbbcbcc":2044,"ebedcc":2045,"edcdee":2046,"edac":2047,"becbfc":2048,"efcdf":2049,"bbbbebbc":2050,"bbbcfc":2051,"eddbb":2052,"ebcdcc":2053,"bebea":2054,"eecbbbe":2055,"ebcbbec":2056,"ddbfc":2057,"bbcded":2058,"ebebbcc":2059,"fbcbf":2060,"dbebbbe":2061,"bcfef":2062,"ecebfc":2063,"fcbbec":2064,"bdbbef":2065,"dcfbd":2066,"eceebf":2067,"beddcc":2068,"ebdbebe":2069,"ebfebb":2070,"efcbf":2071,"bbcbeee":2072,"bccdec":2073,"bdcebb":2074,"eccdbc":2075,"bbbbbef":2076,"bbbbff":2077,"edcedc":2078,"efddc":2079,"fdbbee":2080,"eccfec":2081,"edbcbd":2082,"dbebbf":2083,"bcc</w>":2084,"edbbdc":2085,"bcbebf":2086,"bbbbbcbc":2087,"ecb</w>":2088,"fbbbbbbbb":2089,"dcbeee":2090,"ebcbbbd":2091,"eefdd":2092,"bbf</w>":2093,"dceebc":2094,"bfcfc":2095,"ebdbebc":2096,"decbf":2097,"ebf</w>":2098,"edbeebb":2099,"bbbbba":2100,"feedd":2101,"eecdcc":2102,"effbe":2103,"dbca":2104,"bbfbbd":2105,"dcdbf":2106,"ecbbeec":2107,"efbcbc":2108,"bcbebbc":2109,"dceecc":2110,"eeebfc":2111,"dbedee":2112,"ebbbcbd":2113,"dcebec":2114,"badd":2115,"bebbba":2116,"ebcbcbc":2117,"becbef":2118,"bcdccc":2119,"ebbcbf":2120,"bbbbdee":2121,"ebbeecc":2122,"becfbc":2123,"aebf":2124,"bdcdf":2125,"becbbee":2126,"bbcbbbbc":2127,"bbbbecc":2128,"bedbfc":2129,"ebbbebf":2130,"ebceebc":2131,"ecbbebd":2132,"dccfc":2133,"babf":2134,"edbccc":2135,"bccbebe":2136,"bcefcc":2137,"dbeeec":2138,"ebbecbc":2139,"efdbf":2140,"bdebdc":2141,"bbfbbbc":2142,"edcebd":2143,"bbecbbc":2144,"becebf":2145,"eadd":2146,"efbbbd":2147,"eccded":2148,"fbbedc":2149,"edfdc":2150,"dcceec":2151,"bfcbbc":2152,"deedf":2153,"dbeebd":2154,"edcbcc":2155,"bbdbef":2156,"dbdbbc":2157,"bcbebbbb":2158,"ebbeef":2159,"eebebbc":2160,"edcff":2161,"ebbeebd":2162,"dee</w>":2163,"ebbfed":2164,"dbcdbc":2165,"ddcdc":2166,"feeef":2167,"bbbc</w>":2168,"bdcebd":2169,"ecedbd":2170,"cccfc":2171,"eededc":2172,"bedebbc":2173,"ebbbbbbbbbb":2174,"decdf":2175,"decfc":2176,"eccbbf":2177,"fecdd":2178,"bbdbbec":2179,"bbdbfc":2180,"aea":2181,"ffbbf":2182,"bcebecc":2183,"bbbdbf":2184,"dcfed":2185,"bdcbcc":2186,"decdee":2187,"beeebeee":2188,"ecceecc":2189,"bebcbbc":2190,"bdcdbe":2191,"bebedd":2192,"bbeebbf":2193,"bcbbccc":2194,"bebebec":2195,"eeddcc":2196,"bbecbf":2197,"bdbced":2198,"bccebf":2199,"fbbbfc":2200,"dbcdf":2201,"bebcbf":2202,"bcfbbc":2203,"fbebec":2204,"dcbbcc":2205,"bdfdd":2206,"efbbcc":2207,"efefc":2208,"ebbeeebb":2209,"ebbbcee":2210,"bdeccc":2211,"ebbcebc":2212,"ebdded":2213,"fcfee":2214,"eebebbbe":2215,"eed</w>":2216,"ebeea":2217,"bedefc":2218,"dcdebb":2219,"adbd":2220,"bceba":2221,"fcbcbc":2222,"ccccc":2223,"abbee":2224,"edeebd":2225,"aedc":2226,"ebcefc":2227,"bfddc":2228,"bebcbec":2229,"beeebbbe":2230,"bbbdbbbd":2231,"efded":2232,"ebbbbdc":2233,"ebfbec":2234,"eddecc":2235,"bbdebbc":2236,"dcfbe":2237,"ebfff":2238,"bbbfbbbb":2239,"bfbeec":2240,"ddfec":2241,"decebc":2242,"ebbbebbbb":2243,"bdfef":2244,"bdeedc":2245,"dfbbbe":2246,"ecbeecc":2247,"ded</w>":2248,"ecbebbc":2249,"bebefc":2250,"bdcdee":2251,"ffdbe":2252,"bbeb</w>":2253,"fdebbc":2254,"eedbbbc":2255,"bcbefc":2256,"bdcecc":2257,"bebcbbbb":2258,"becedc":2259,"bebebcc":2260,"fdba":2261,"befbbbb":2262,"eec</w>":2263,"ddbbee":2264,"bebebbf":2265,"bdecf":2266,"dec</w>":2267,"dbcccc":2268,"dbbfcc":2269,"bcdebf":2270,"bfac":2271,"ebcbeec":2272,"dbddbd":2273,"bfcdc":2274,"beacc":2275,"babbc":2276,"fbebbf":2277,"bebbbfc":2278,"ebbfbf":2279,"ebcfee":2280,"fbebbbe":2281,"bedba":2282,"bfbcf":2283,"bebebbee":2284,"ebbbcec":2285,"eecedc":2286,"ebcdebb":2287,"fecdc":2288,"bdcbdc":2289,"bccbfc":2290,"ebdbbbc":2291,"ddbef":2292,"beebccc":2293,"bbdbbcc":2294,"ebfbbf":2295,"ebbdbbc":2296,"bbbbfbc":2297,"eeeebeee":2298,"ffed":2299,"fcebbc":2300,"fcbeec":2301,"abef":2302,"dfebf":2303,"dcbebd":2304,"dcced":2305,"ddfcc":2306,"dedbbc":2307,"bbebbbbbe":2308,"bbbcccc":2309,"eecbfc":2310,"bdbfcc":2311,"ebbdbbbb":2312,"ebbbccc":2313,"bbdba":2314,"bdbebbc":2315,"bbebbbbc":2316,"afbc":2317,"dcebcc":2318,"ffebc":2319,"ddbebc":2320,"edcdbe":2321,"bcdbbbc":2322,"dccef":2323,"bfdebb":2324,"edbced":2325,"bccfbc":2326,"dcbecc":2327,"becbeec":2328,"dbdbbbb":2329,"eefbbc":2330,"ebbbeebe":2331,"bdecbd":2332,"bdbbfc":2333,"bbbe</w>":2334,"becbbbd":2335,"ebcbebd":2336,"bfbecc":2337,"fecdf":2338,"ecffc":2339,"eee</w>":2340,"bfcef":2341,"ebcba":2342,"deebbbb":2343,"edbbbbc":2344,"fecccc":2345,"bddebd":2346,"bccdbd":2347,"bfbbed":2348,"dbedbc":2349,"bffbf":2350,"deeef":2351,"ddefc":2352,"ebacc":2353,"edeeec":2354,"ecceebc":2355,"edbbebe":2356,"becdcc":2357,"fcfcc":2358,"bccbef":2359,"bbbcbbf":2360,"bdffc":2361,"bbcfee":2362,"ebbcebe":2363,"fbeff":2364,"eebbbdc":2365,"dcbbed":2366,"eccbbbe":2367,"beeebbee":2368,"dbeff":2369,"dbebdc":2370,"ebfebc":2371,"bbbca":2372,"bebeebc":2373,"debfcc":2374,"edbbdd":2375,"dbbefc":2376,"ecbeebc":2377,"bcbebec":2378,"bbccbbc":2379,"ddfee":2380,"fbbba":2381,"eccfbc":2382,"bcfebe":2383,"bbbeebd":2384,"bdbedd":2385,"fbbebbc":2386,"eebbedc":2387,"bdbcebb":2388,"bbbeeec":2389,"cccbcc":2390,"fcbbee":2391,"eebebbee":2392,"beeebbc":2393,"edeef":2394,"dbebbbc":2395,"bcbbbdc":2396,"bbdbbebb":2397,"ebfbcc":2398,"bbbebebc":2399,"eccbebc":2400,"befdf":2401,"edbdbd":2402,"bcbeebe":2403,"dbcebb":2404,"bceedd":2405,"bdfbbc":2406,"eecfec":2407,"ebbcdd":2408,"dbcbcc":2409,"deeebc":2410,"ebbcfc":2411,"bbecbbbb":2412,"effec":2413,"bdbbebc":2414,"bfbebd":2415,"cccecc":2416,"dfdec":2417,"ebbcbec":2418,"bdbebbbb":2419,"edbebf":2420,"fdefc":2421,"ecdbbf":2422,"ecdbbbe":2423,"bcebccc":2424,"abebe":2425,"bbbebbbd":2426,"eecbebe":2427,"bbcdcc":2428,"ffbec":2429,"bce</w>":2430,"edcded":2431,"dbbebec":2432,"ebbbbdd":2433,"bdcccc":2434,"bfeebc":2435,"dffcc":2436,"beeac":2437,"bbebbebe":2438,"bdbcbf":2439,"befbbf":2440,"bfeeee":2441,"dbcdee":2442,"dbcdbe":2443,"eadc":2444,"edeccc":2445,"bfcdd":2446,"efcdc":2447,"ffecc":2448,"fbcfc":2449,"bbecbec":2450,"ebbbbef":2451,"afee":2452,"bdecec":2453,"dbdef":2454,"ebfdf":2455,"ebbac":2456,"ebbdebe":2457,"bccbbee":2458,"dbcbbd":2459,"bbbdbbd":2460,"befebc":2461,"bbbbbfc":2462,"bdeeebb":2463,"dcdef":2464,"ebbbedc":2465,"fbcbbc":2466,"bdbba":2467,"eceba":2468,"bffdc":2469,"eecebbc":2470,"fbcef":2471,"eebefc":2472,"fbedf":2473,"ecfdd":2474,"bfebec":2475,"bcfebc":2476,"fbeebc":2477,"bcfa":2478,"becfec":2479,"bcd</w>":2480,"decdec":2481,"eecba":2482,"ecc</w>":2483,"bdcff":2484,"eecbbec":2485,"bfcdf":2486,"edfbf":2487,"bdcbbd":2488,"eccefc":2489,"ebbdbb":2490,"bebbbbcc":2491,"bbebdcc":2492,"ecbefc":2493,"bbeedbe":2494,"eecbecc":2495,"bbfccc":2496,"becbcbc":2497,"bdeebf":2498,"eecbef":2499,"ebbbeed":2500,"eecbeec":2501,"bceedc":2502,"ff</w>":2503,"bbeebebe":2504,"ebebeebb":2505,"fdfcc":2506,"dbcebd":2507,"bddbcc":2508,"edcccc":2509,"ebcbecc":2510,"ebfccc":2511,"ebcbbcc":2512,"badc":2513,"eccdcc":2514,"bbfebd":2515,"decbcc":2516,"eecfbc":2517,"bbcbeec":2518,"eddebd":2519,"bbcfec":2520,"decef":2521,"edebdc":2522,"fcbebe":2523,"eebedc":2524,"eecdebb":2525,"eddbbbb":2526,"beeea":2527,"ebebbbf":2528,"bdbbbec":2529,"fbeccc":2530,"ffbbbb":2531,"bbfebf":2532,"dfbfc":2533,"edeedc":2534,"dbcecc":2535,"bbdddd":2536,"eebac":2537,"befbcc":2538,"ebdbfc":2539,"decdbe":2540,"dbffc":2541,"bfebcc":2542,"bcdbbee":2543,"feea":2544,"dbdfc":2545,"efcdd":2546,"beeebebe":2547,"eebbccc":2548,"dbfdd":2549,"decebe":2550,"eceeebe":2551,"bbccccc":2552,"efbeec":2553,"effbd":2554,"deeecc":2555,"ebbecbe":2556,"bbeebec":2557,"bcbac":2558,"dccecc":2559,"bebb</w>":2560,"efbbebb":2561,"bbdbeee":2562,"bfdef":2563,"ebbdebc":2564,"bbbbdbbbb":2565,"ecefcc":2566,"bfbccc":2567,"bbbdbbbe":2568,"dbda":2569,"baebe":2570,"eefbbbb":2571,"dbdebe":2572,"dcea":2573,"bebebbbc":2574,"befbec":2575,"eebedd":2576,"feddd":2577,"bcbbebf":2578,"bdbcdc":2579,"ebdfbc":2580,"bbbbcbbc":2581,"bccbebc":2582,"bcfccc":2583,"fcfec":2584,"ece</w>":2585,"edfebb":2586,"bfca":2587,"eeefcc":2588,"bfecbc":2589,"bdeeed":2590,"dbcbbf":2591,"bbdfee":2592,"ebfbbbe":2593,"eebeebc":2594,"befdbe":2595,"fbeebb":2596,"bdecee":2597,"bfcebe":2598,"bdfebe":2599,"bbcbebd":2600,"cccccccccccccccc":2601,"eddbbd":2602,"dbbbdbd":2603,"bebcebc":2604,"bbcefc":2605,"bccbcbc":2606,"fbebbee":2607,"ecdeecc":2608,"baef":2609,"bbbedf":2610,"bfbcbe":2611,"bbfbbee":2612,"bbcbbbf":2613,"bbecccc":2614,"bbfbebe":2615,"dbddf":2616,"dbebebe":2617,"bbfecc":2618,"bbbdebe":2619,"edbedd":2620,"ecbeccc":2621,"eecbcbc":2622,"bdbeebe":2623,"bccdcc":2624,"ebbbcebb":2625,"bbbda":2626,"ebbcdc":2627,"befccc":2628,"ebbcef":2629,"bbbeccc":2630,"bbdbebd":2631,"bddecc":2632,"eeebecc":2633,"ebcfcc":2634,"ebbbebbc":2635,"bccded":2636,"bbceebc":2637,"fbcdf":2638,"bcddcc":2639,"beeeef":2640,"bbcdebb":2641,"fcdbf":2642,"ebebebd":2643,"eedbfc":2644,"dbddbe":2645,"eaea":2646,"eeeea":2647,"fdbbcc":2648,"eeeeef":2649,"bcbeef":2650,"ddba":2651,"dcfdc":2652,"ebdebf":2653,"deceec":2654,"bdd</w>":2655,"bbccbbbb":2656,"eccbbbc":2657,"bbebebbbb":2658,"ebbdef":2659,"bbeefc":2660,"ebcfbe":2661,"bccfec":2662,"bcbedbe":2663,"eebeebf":2664,"ecddcc":2665,"bcbcbbbb":2666,"becbecc":2667,"eccbfc":2668,"bbeddd":2669,"eccebf":2670,"bfbbbbc":2671,"efcef":2672,"ebdebbc":2673,"bbbeebf":2674,"abca":2675,"ecdebf":2676,"dbbea":2677,"ebeded":2678,"bbeeebc":2679,"abfc":2680,"deedbc":2681,"eeffc":2682,"eebebbf":2683,"becfee":2684,"ecebecc":2685,"bdcedc":2686,"dbbbecc":2687,"ebbebdc":2688,"ebbeeebe":2689,"eccebbc":2690,"dcbcee":2691,"fccccc":2692,"bcbbbbcc":2693,"dceebd":2694,"ebecbbc":2695,"debbbbbb":2696,"bbbcdbe":2697,"bbbeff":2698,"deebbf":2699,"baba":2700,"ddfbd":2701,"bdcdbc":2702,"ebbbdbd":2703,"bbbcbbbd":2704,"ebbbbebc":2705,"ebebecc":2706,"abea":2707,"ebbeebf":2708,"bfbcee":2709,"fbbdcc":2710,"bbdbcbc":2711,"eedbbee":2712,"bffed":2713,"deedcc":2714,"bdedbd":2715,"eebebcc":2716,"eccbebe":2717,"bdbbbbbbbb":2718,"dcbeed":2719,"bdcdbd":2720,"eecfee":2721,"bedbbcc":2722,"deddf":2723,"dbeedc":2724,"ecebccc":2725,"bbcbbed":2726,"becbbcc":2727,"dbcff":2728,"ecfef":2729,"ecdefc":2730,"deeed":2731,"eefccc":2732,"bcbebbbe":2733,"ecdebbc":2734,"ebceecc":2735,"fceebc":2736,"becdebb":2737,"bbecebe":2738,"bbdeebc":2739,"bbdbeec":2740,"ecbea":2741,"ebcebcc":2742,"deca":2743,"bdbeef":2744,"dbfdc":2745,"eebbbbbbbb":2746,"bbbced":2747,"eedba":2748,"fcefc":2749,"dedccc":2750,"bbfeec":2751,"eccdbd":2752,"dbebbee":2753,"deebdc":2754,"eaebe":2755,"ebcbeee":2756,"bbcebec":2757,"bfbcec":2758,"ebcddc":2759,"ebddcc":2760,"bbbcbebe":2761,"ebbbbbec":2762,"eddbcc":2763,"eccfcc":2764,"ebfebf":2765,"bebcef":2766,"bccbbcc":2767,"aca":2768,"beebbbbbb":2769,"ebdeebc":2770,"ebdbbee":2771,"becba":2772,"bedbecc":2773,"bbbddc":2774,"bbbedbc":2775,"fcbbcc":2776,"ecfccc":2777,"bebcebe":2778,"ebcdbf":2779,"bfbebf":2780,"bbcfcc":2781,"edbbef":2782,"ecbeebe":2783,"fbcdc":2784,"bfbcbd":2785,"beceebc":2786,"ebddebb":2787,"edbebbc":2788,"ebbfdc":2789,"defdd":2790,"adcc":2791,"bbfbfc":2792,"bbbebdc":2793,"ffdcc":2794,"bbbbbeee":2795,"dfbbbc":2796,"bcdbfc":2797,"fcba":2798,"bbdbbed":2799,"ffdbc":2800,"becefc":2801,"ffebf":2802,"bebbea":2803,"fbcdd":2804,"edbbebc":2805,"ebdbbbd":2806,"ecdbbbc":2807,"fdbecc":2808,"bbecdd":2809,"ecdbfc":2810,"ebebeec":2811,"deedee":2812,"bdedcc":2813,"ffbdc":2814,"bdfa":2815,"edfef":2816,"ebebbebe":2817,"fbebbbc":2818,"eecebf":2819,"bbbbbbed":2820,"bcbbedc":2821,"eecbbee":2822,"ebdfec":2823,"eeeebbee":2824,"efbbbf":2825,"bcbebcc":2826,"fbcbec":2827,"eebeecc":2828,"dfbebe":2829,"ebcecbc":2830,"ffbbd":2831,"eddedc":2832,"bcfbec":2833,"bbbebbec":2834,"dcecbc":2835,"bbbbbebbbb":2836,"eecbbbd":2837,"bebcfc":2838,"ebcebec":2839,"edcdbc":2840,"bcfbcc":2841,"ecbbccc":2842,"ebcfed":2843,"ebbdfc":2844,"ddebbc":2845,"eedebf":2846,"dddbf":2847,"ecbebcc":2848,"efbbed":2849,"bfcbec":2850,"bcfbbf":2851,"edecbd":2852,"edbcebb":2853,"bdcdec":2854,"eecbebd":2855,"bcfdf":2856,"ecbbedc":2857,"ebbeeec":2858,"dbdbbd":2859,"bbcbecc":2860,"bbbdbbee":2861,"fbedbe":2862,"eeeebebe":2863,"eeceecc":2864,"efcfc":2865,"beecbec":2866,"ecbedbe":2867,"dedbec":2868,"bfdbbc":2869,"dcdebe":2870,"efac":2871,"eebbebbc":2872,"bfeef":2873,"befbbbe":2874,"adec":2875,"eccbecc":2876,"eeeebbbb":2877,"ddbeee":2878,"dceeec":2879,"eeebccc":2880,"dddebb":2881,"bcbcbbc":2882,"edcfec":2883,"ebefcc":2884,"deebbd":2885,"bccbbec":2886,"cccef":2887,"eedbecc":2888,"eeceebc":2889,"ebefbe":2890,"bbfdbc":2891,"dceccc":2892,"bfcbbbb":2893,"deeebb":2894,"edeebe":2895,"bbbcdf":2896,"dedbf":2897,"bdbbbcc":2898,"acba":2899,"dcdfc":2900,"eecddc":2901,"dbebebc":2902,"bedebec":2903,"febdcc":2904,"edcebb":2905,"fcbbbd":2906,"bbdfec":2907,"fccef":2908,"bbfbef":2909,"bbbcebd":2910,"eefbeee":2911,"bcbea":2912,"bbbfbf":2913,"dbdbec":2914,"ecd</w>":2915,"ddbbec":2916,"ebeeebc":2917,"fbbbbcc":2918,"bcbeebc":2919,"edcbdc":2920,"fdac":2921,"bbdfbd":2922,"deddbe":2923,"bbffbc":2924,"fdea":2925,"fcdef":2926,"eefdf":2927,"ebbcbbbe":2928,"fcbecc":2929,"dcbccc":2930,"bbbfbbc":2931,"ecfa":2932,"ffebd":2933,"edbcdc":2934,"befebb":2935,"bdfebc":2936,"efca":2937,"feeccc":2938,"effbf":2939,"dcbbebb":2940,"bfcbcc":2941,"bbbceec":2942,"dccbec":2943,"fbebdc":2944,"bdbbebd":2945,"eeeebf":2946,"ecbebbbb":2947,"dbbebcc":2948,"dcbcbd":2949,"dccebe":2950,"bddbdc":2951,"ecfbbc":2952,"bcfdbe":2953,"dccebc":2954,"edcbbbb":2955,"decbbbb":2956,"bbccebe":2957,"fecbf":2958,"cccbbc":2959,"fcddc":2960,"dececc":2961,"ebfbebe":2962,"bcfbbbb":2963,"deddee":2964,"edfdd":2965,"bccbbbd":2966,"ecbebf":2967,"bcbbebbc":2968,"fcfbd":2969,"bbfbdc":2970,"bbdbbbbc":2971,"decdbc":2972,"fecbec":2973,"bbdebec":2974,"ebbca":2975,"feebbc":2976,"bbfdee":2977,"bccefc":2978,"ebebbed":2979,"bbbcbcbc":2980,"dbedbd":2981,"ebbbced":2982,"ebbeccc":2983,"ddeebc":2984,"ddeecc":2985,"ebcfbd":2986,"bbbebeee":2987,"fbb</w>":2988,"edceecc":2989,"dfddc":2990,"ecbebec":2991,"edecec":2992,"eedebbc":2993,"ebceebd":2994,"bafc":2995,"ebfecc":2996,"eeacc":2997,"ebcbbebb":2998,"ebcbbed":2999,"bbccef":3000,"eeeac":3001,"edbbfc":3002,"ecbbbdc":3003,"edcbbd":3004,"eebeff":3005,"dbcbbbe":3006,"ebedebb":3007,"edffc":3008,"dcbcec":3009,"ebdbef":3010,"dcac":3011,"dceeee":3012,"efcbec":3013,"eebebec":3014,"bccebbc":3015,"bebcbebc":3016,"eaef":3017,"bbbdef":3018,"ebbbbfc":3019,"eccbbee":3020,"ecbac":3021,"bffebb":3022,"bebbefc":3023,"edb</w>":3024,"bedebcc":3025,"bcdebbc":3026,"fbcccc":3027,"fbcbbbb":3028,"dfbbee":3029,"fbbefc":3030,"ecbeedc":3031,"dccbbc":3032,"eefbcc":3033,"ebffee":3034,"eebeccc":3035,"bebeccc":3036,"debac":3037,"fcebec":3038,"bbbcbbee":3039,"fdebec":3040,"bdeedd":3041,"ebbeedc":3042,"ebbfef":3043,"ebfbef":3044,"eebbba":3045,"dbbb</w>":3046,"dccbf":3047,"bbccbec":3048,"bbbebef":3049,"abbec":3050,"bddbbbe":3051,"ebbbcdc":3052,"ebbfebe":3053,"bdcbbf":3054,"ebbbba":3055,"ebbdbec":3056,"ebdefc":3057,"dbddee":3058,"bebebeee":3059,"eeeeccc":3060,"fbbea":3061,"fccfc":3062,"bbbeecc":3063,"bbbcdee":3064,"bebbebec":3065,"bdecbf":3066,"bcbedf":3067,"bbcfbd":3068,"bbbbbebd":3069,"abbbd":3070,"ebdbbec":3071,"fdebcc":3072,"abeee":3073,"bbebbbf":3074,"bbebfcc":3075,"bdddcc":3076,"ddbcbc":3077,"bbdefc":3078,"bfcebc":3079,"bccfee":3080,"ebebeebe":3081,"eecefc":3082,"bdecdc":3083,"efecbc":3084,"eecdbf":3085,"eccfed":3086,"edbeebc":3087,"fcdebb":3088,"bedea":3089,"becebec":3090,"becbebd":3091,"eecfed":3092,"eabf":3093,"dccdcc":3094,"bbccbf":3095,"fbeebf":3096,"eefbbf":3097,"bbecebc":3098,"dbbbccc":3099,"ebefec":3100,"ebdbebd":3101,"ebbcbcc":3102,"bbbddbd":3103,"dbfbf":3104,"bebbdcc":3105,"dbedec":3106,"bbbcdbc":3107,"bdeced":3108,"ebeddc":3109,"ebbcbbd":3110,"eefbebe":3111,"bddbbf":3112,"ebbecbd":3113,"eccebcc":3114,"ebdbeec":3115,"bebca":3116,"fbebbd":3117,"eecbbcc":3118,"ffdee":3119,"ebdddc":3120,"efebcc":3121,"ecbedbc":3122,"bfcdbe":3123,"beecccc":3124,"edceebc":3125,"bdcbbbe":3126,"ddbeec":3127,"bcdefc":3128,"bbecdf":3129,"ebeebcc":3130,"eedefc":3131,"ebbbebbbe":3132,"ebebbbbc":3133,"feebbee":3134,"bcfecc":3135,"dddddddd":3136,"ebbceec":3137,"ddbecc":3138,"dbdebc":3139,"fffbc":3140,"bbbdbec":3141,"dcdbbc":3142,"dcbedc":3143,"ebefbd":3144,"ddbebd":3145,"ebbfbbc":3146,"efdef":3147,"ebfed":3148,"bcbcccc":3149,"ebbbeef":3150,"ddebec":3151,"dcdeec":3152,"ebdba":3153,"fbeed":3154,"ebbbcbf":3155,"ebeefc":3156,"edcbebc":3157,"dceedc":3158,"dbbecbc":3159,"dcdebc":3160,"bbbbbbebe":3161,"bfbeebb":3162,"bedfcc":3163,"ebedbf":3164,"dcbbdc":3165,"ecdbbee":3166,"dcbbbf":3167,"beecbbc":3168,"bddedc":3169,"dccbcc":3170,"ecfecc":3171,"ebebccc":3172,"fbca":3173,"efbebd":3174,"bcbebbf":3175,"bebcbbbe":3176,"bbecfc":3177,"ebbdbbd":3178,"efdebb":3179,"dffec":3180,"eebcbbc":3181,"ddbbcc":3182,"bdebfc":3183,"befbbee":3184,"bedeecc":3185,"dbcdbd":3186,"ecdfcc":3187,"bbdbbbf":3188,"bebceec":3189,"ebcea":3190,"deda":3191,"ebdbecc":3192,"bbbddbe":3193,"bcbebbbc":3194,"fbeecc":3195,"feddf":3196,"ecfbcc":3197,"befbebe":3198,"ebeeeebb":3199,"deebbbe":3200,"becbeee":3201,"bcbbbfc":3202,"fbcebc":3203,"bbedbbc":3204,"bfbbdc":3205,"bfcff":3206,"bdbbeec":3207,"fcceec":3208,"efbecc":3209,"edecbe":3210,"edcdbd":3211,"dedfc":3212,"eefbbee":3213,"ebdeecc":3214,"bfbbef":3215,"ebcdebe":3216,"ebdfee":3217,"befebf":3218,"bbebbbbbc":3219,"bcfeec":3220,"fffee":3221,"deebbee":3222,"ecdbecc":3223,"deacc":3224,"aac":3225,"ecfbec":3226,"bdbdbdbd":3227,"ffdbd":3228,"ddebcc":3229,"dccdf":3230,"bcbbba":3231,"fdeecc":3232,"ebfdbe":3233,"ffbbbe":3234,"bceac":3235,"bbfbbbd":3236,"bceebbc":3237,"efbccc":3238,"ddfdc":3239,"eeeebbbe":3240,"eedeecc":3241,"edfbbc":3242,"fccbec":3243,"edbeebe":3244,"eecbedc":3245,"eecfbd":3246,"eecebcc":3247,"bbbcbbec":3248,"bcfebd":3249,"bde</w>":3250,"bdeebbc":3251,"ebbbbbcc":3252,"bbeebcc":3253,"edbefc":3254,"cccbf":3255,"dffbd":3256,"fbbfcc":3257,"bebebbd":3258,"eccbcbc":3259,"eefbec":3260,"fecbbc":3261,"ea</w>":3262,"efcbbc":3263,"ebbda":3264,"bdcfbc":3265,"dcca":3266,"efebec":3267,"bbbebbcc":3268,"ebbbedd":3269,"ebbcdbe":3270,"efbcec":3271,"ebcbbbf":3272,"ebeebec":3273,"eebcbec":3274,"bbdbecc":3275,"bcbeccc":3276,"bebcdd":3277,"ebbcbbf":3278,"ebcdebc":3279,"edcbbf":3280,"deddbc":3281,"ebebcec":3282,"ebebebf":3283,"ebdbcbc":3284,"edddcc":3285,"bccbccc":3286,"ddcfc":3287,"edbcbf":3288,"bfbbebe":3289,"ebbcdf":3290,"dbeebf":3291,"bbbedee":3292,"bfeecc":3293,"bbbbbeebb":3294,"ebeecbc":3295,"bcbeecc":3296,"bebcdf":3297,"becebcc":3298,"bffef":3299,"bbdbbdd":3300,"dbdccc":3301,"beecdf":3302,"bbccfc":3303,"eabbc":3304,"bebbebcc":3305,"ebcbedc":3306,"bebcdc":3307,"bbbcbbbbc":3308,"bebebdc":3309,"bfcdee":3310,"ffbef":3311,"dbddbc":3312,"bbecef":3313,"dbfef":3314,"dedef":3315,"bbbbbcbbbb":3316,"eefbef":3317,"dbdbdc":3318,"ecdebcc":3319,"ecceebd":3320,"bbbcbdc":3321,"fcbbed":3322,"bccbeee":3323,"feebeee":3324,"ecceccc":3325,"bcceecc":3326,"bbbdbbf":3327,"bcceebc":3328,"debbbbc":3329,"eccbef":3330,"ebbcebd":3331,"ddbbed":3332,"dbcbdc":3333,"eebbbfc":3334,"ffbbee":3335,"ecfebc":3336,"bccfcc":3337,"ecceedc":3338,"bbdbbdc":3339,"fcbebd":3340,"ebeeebe":3341,"bbbcbebc":3342,"ddfed":3343,"bdc</w>":3344,"bcbeeec":3345,"bbbbedc":3346,"dbedcc":3347,"bbebbbbebb":3348,"ecccccc":3349,"bbdbdbd":3350,"ebeeeebe":3351,"bbcbccc":3352,"fcebcc":3353,"eccbbec":3354,"dcfbf":3355,"deeeec":3356,"bcfedc":3357,"afec":3358,"dcfdd":3359,"ddea":3360,"dfbef":3361,"fbdef":3362,"ecfedc":3363,"ecbeebd":3364,"beecbf":3365,"eefbbbe":3366,"eebbea":3367,"bbdfbe":3368,"dbdeec":3369,"edeeebb":3370,"becbbebb":3371,"ddbdbd":3372,"becbbed":3373,"eebebdc":3374,"bbeebeee":3375,"bbccebc":3376,"bbcfbe":3377,"becfcc":3378,"ecbedcc":3379,"bfcbbf":3380,"bbcddc":3381,"ddbbdd":3382,"bfdfc":3383,"fecef":3384,"abebc":3385,"badf":3386,"decebd":3387,"ecbbebf":3388,"eefebf":3389,"edbeecc":3390,"bbbebcbc":3391,"bdecebb":3392,"edbbbec":3393,"bfdbbbb":3394,"edcefc":3395,"eecdebc":3396,"bbbddf":3397,"feebbf":3398,"eefebc":3399,"dbebcbc":3400,"dcebdc":3401,"deeebd":3402,"bdcebf":3403,"dbbeecc":3404,"eceeccc":3405,"eccebec":3406,"dbcbbbc":3407,"fcbeee":3408,"ebbbcbbbb":3409,"abbcc":3410,"bceebf":3411,"bcacc":3412,"eecbeee":3413,"fbcebe":3414,"ffedc":3415,"bbbbdec":3416,"babbbe":3417,"dcbbdd":3418,"bbbbdebb":3419,"bbfbebc":3420,"dbebbbd":3421,"becfed":3422,"bebbbecc":3423,"effdc":3424,"bccebec":3425,"ebbecec":3426,"dbbac":3427,"edeeed":3428,"eccecbc":3429,"dbcdec":3430,"ddfbe":3431,"feefc":3432,"ddddcc":3433,"bfda":3434,"bbeca":3435,"efeebc":3436,"bcfebf":3437,"eccbeec":3438,"bbbcbbebb":3439,"fbcff":3440,"eccbebd":3441,"becdbf":3442,"bfdebe":3443,"bffdd":3444,"efbbef":3445,"edbeef":3446,"ededcc":3447,"bbdfcc":3448,"edcebf":3449,"bcbb</w>":3450,"ebccbbc":3451,"eecdfc":3452,"fbddd":3453,"ebcbcec":3454,"fcdbec":3455,"ffbebe":3456,"ebedbbc":3457,"bbeebbbc":3458,"bdcded":3459,"fbcbbf":3460,"bbbeebbc":3461,"decded":3462,"fbddf":3463,"bbee</w>":3464,"afcc":3465,"bcbebbd":3466,"ebebcbd":3467,"bebbfcc":3468,"dcdecc":3469,"dccedc":3470,"dbebef":3471,"ebebcee":3472,"bbeeccc":3473,"bbecdee":3474,"abcbc":3475,"dddef":3476,"bebcccc":3477,"dfefc":3478,"bbccbcc":3479,"ebebbef":3480,"eebbbbcc":3481,"bbbebbbbc":3482,"eddccc":3483,"bbfdbd":3484,"bbbbbbdd":3485,"bfeebd":3486,"bbeebbebb":3487,"bfbeed":3488,"ddcef":3489,"dcecbe":3490,"dcecec":3491,"decbdc":3492,"dccebd":3493,"babba":3494,"ebcbcbd":3495,"feebebe":3496,"dbfbbc":3497,"dcdbec":3498,"bcbeed":3499,"ebbbcbbc":3500,"dbebbec":3501,"bebcbcc":3502,"beeeeeee":3503,"ebcdef":3504,"ebccfc":3505,"feeff":3506,"beccbec":3507,"abda":3508,"afbd":3509,"bcbcfc":3510,"eedbbcc":3511,"eecea":3512,"fbedbc":3513,"dbdbcc":3514,"dddbbc":3515,"bbbbebec":3516,"bdebbcc":3517,"effef":3518,"ebcbccc":3519,"ecbcbbc":3520,"dccdee":3521,"bbbebbbf":3522,"bbeebbd":3523,"edfebe":3524,"fbcbcc":3525,"bcdba":3526,"edecdc":3527,"befbef":3528,"eddbdc":3529,"bbbcff":3530,"bdbebec":3531,"eebeedc":3532,"aded":3533,"ebfebd":3534,"ebbeeef":3535,"eccfee":3536,"bbccdd":3537,"efdbbc":3538,"ecbbbbbbbb":3539,"efbcee":3540,"bcbedee":3541,"dbdebd":3542,"dbcbebe":3543,"eebcfc":3544,"efbcbd":3545,"bfecbe":3546,"ebbcbbbc":3547,"bbcbcbd":3548,"bbbdbbbc":3549,"dceeed":3550,"edeedd":3551,"bdbefc":3552,"efbcf":3553,"dfba":3554,"efbebf":3555,"bbbdfc":3556,"ebbcebb":3557,"decbbd":3558,"bbbdebc":3559,"eeecccc":3560,"beebdcc":3561,"dedbcc":3562,"eccdebb":3563,"efbbebe":3564,"bbecdbe":3565,"efbeebb":3566,"bddccc":3567,"bfbcbf":3568,"bdcfec":3569,"ebefbf":3570,"bbbebfc":3571,"ececccc":3572,"ddeeee":3573,"bfeccc":3574,"bebeebf":3575,"bbbedbd":3576,"ffeec":3577,"dcffc":3578,"bbbbfee":3579,"bbffee":3580,"ededbd":3581,"ebccebc":3582,"edcdcc":3583,"efcdee":3584,"bdcbbbc":3585,"dbfa":3586,"edbba":3587,"bcbebbee":3588,"eafc":3589,"bbbbcbbbbc":3590,"beeefc":3591,"bebcebd":3592,"edcfbc":3593,"eccddc":3594,"eecebec":3595,"ebccebe":3596,"ebbbdbc":3597,"bbfba":3598,"edcebbc":3599,"beeedd":3600,"bcbcdd":3601,"bbcbbdc":3602,"bbcdef":3603,"becfbe":3604,"bebedbe":3605,"ebfbbd":3606,"bfceec":3607,"befbbd":3608,"becceec":3609,"bddbbbc":3610,"edecf":3611,"eabbbb":3612,"fecbcc":3613,"bbebac":3614,"ebbdeec":3615,"bbecbbd":3616,"eccfbd":3617,"bebddd":3618,"dbbecbe":3619,"aebbc":3620,"bbecdc":3621,"bdbbecc":3622,"fffcc":3623,"bcdfcc":3624,"bbedbbbb":3625,"becfbd":3626,"dbefbc":3627,"bcbcbcc":3628,"feedf":3629,"fbbebec":3630,"bbcceec":3631,"beceecc":3632,"bbecbcc":3633,"eadf":3634,"decdcc":3635,"ebdfcc":3636,"dcdcdcdc":3637,"bceefc":3638,"beecdd":3639,"bbbeba":3640,"bebcbbd":3641,"bbfedc":3642,"ebfbbbc":3643,"eefdbe":3644,"bebebef":3645,"dcbced":3646,"bdeba":3647,"bbceebd":3648,"bcbcbf":3649,"ebbcccc":3650,"deebbbc":3651,"debb</w>":3652,"bbbefbc":3653,"beeeccc":3654,"daa":3655,"bcbbdcc":3656,"bbebbbbf":3657,"bebedf":3658,"ecfdf":3659,"bbcebcc":3660,"eecfcc":3661,"dcbcbe":3662,"ebecbbbb":3663,"dedebc":3664,"fbbbecc":3665,"ebfbdc":3666,"bebeecc":3667,"bbceeec":3668,"beeebbf":3669,"bbbbcbbbc":3670,"bedbbbbc":3671,"dddebe":3672,"deced":3673,"abbbf":3674,"ebbdebd":3675,"ebecbec":3676,"ebbfdd":3677,"bebdbbbb":3678,"befebd":3679,"decbbf":3680,"edcbfc":3681,"edcfcc":3682,"ecfeec":3683,"dddbbbb":3684,"bdcdcc":3685,"babcc":3686,"dedeec":3687,"ebbfbbbb":3688,"bbeedf":3689,"fbeebd":3690,"eebeebd":3691,"eedebcc":3692,"bbcdebe":3693,"ebfeec":3694,"eeccccc":3695,"bbcdbbc":3696,"ebcbbdc":3697,"fbdbf":3698,"ebefebb":3699,"feebbbb":3700,"ffbbbc":3701,"ebceedc":3702,"becbedc":3703,"bddebf":3704,"ebbffc":3705,"bbeceec":3706,"bbebbbebe":3707,"bef</w>":3708,"ebcdfc":3709,"addc":3710,"ebfbbee":3711,"bbcfed":3712,"eedea":3713,"bbcecbc":3714,"ecbebdc":3715,"deddec":3716,"ebebcbe":3717,"dcfebb":3718,"ffbfc":3719,"fbceec":3720,"debbdd":3721,"fcbbbf":3722,"bccbeec":3723,"bbbebbbbbbbb":3724,"eebebbbc":3725,"eefecc":3726,"edd</w>":3727,"ebcbbbbc":3728,"babec":3729,"ebebbdc":3730,"bfdbb":3731,"dbebfc":3732,"bbbbbeec":3733,"bcdebec":3734,"bebebebc":3735,"bccbecc":3736,"deeff":3737,"ebccef":3738,"bbbddbc":3739,"ccccccccc":3740,"bbbbdbf":3741,"befecc":3742,"bdfdf":3743,"dcbbbbc":3744,"eebbdcc":3745,"bceebec":3746,"abbebb":3747,"ecbedf":3748,"bcfbdc":3749,"acea":3750,"dcbebf":3751,"ecdea":3752,"deedbd":3753,"fcfed":3754,"fbeeec":3755,"bbdbcbd":3756,"ecbebbbe":3757,"bbceecc":3758,"bccddc":3759,"bccfbd":3760,"fcecbc":3761,"ebbbbebd":3762,"dcbedd":3763,"adbf":3764,"edfa":3765,"ebbeebbbb":3766,"befbbbc":3767,"bbfbbbf":3768,"aefc":3769,"bceedbe":3770,"bcdbbcc":3771,"dcecbd":3772,"bbbbbbdc":3773,"feebbbe":3774,"fccdf":3775,"dbcfbc":3776,"befbdc":3777,"dcda":3778,"ecdba":3779,"ebceccc":3780,"bbcea":3781,"bebdbec":3782,"bcfbbd":3783,"bcdeecc":3784,"cccbec":3785,"bdeeebe":3786,"deedec":3787,"dbcedc":3788,"bbebbbec":3789,"bbedbf":3790,"bcbeebd":3791,"effed":3792,"dcbdbd":3793,"bbfebbc":3794,"bbcbbbbbbbb":3795,"ebbfebc":3796,"dcdbb":3797,"feb</w>":3798,"ebddbf":3799,"dbf</w>":3800,"bdbbbdc":3801,"ccceec":3802,"ebdfbd":3803,"dfbebc":3804,"dbded":3805,"dceebe":3806,"ebcdbbc":3807,"ecbeef":3808,"fbebfc":3809,"fcbccc":3810,"bebebbebb":3811,"bbecbbbe":3812,"befeec":3813,"fcbcec":3814,"feebcc":3815,"dedebe":3816,"bcbcef":3817,"ebfdbc":3818,"bcfdee":3819,"bebeff":3820,"bcecccc":3821,"fcbeed":3822,"bcfbbbe":3823,"bbabbbb":3824,"edcbeec":3825,"eceac":3826,"eeeefee":3827,"edcbecc":3828,"ecbcdd":3829,"bebcbbbc":3830,"eebcebc":3831,"bbed</w>":3832,"bbcbcee":3833,"ebdebcc":3834,"bcfdbc":3835,"edbcdd":3836,"eebcbbbb":3837,"bbebbbbd":3838,"ebbbdbe":3839,"ada":3840,"edbebbbb":3841,"bbcbcec":3842,"eccfdc":3843,"ebbecf":3844,"dfebbc":3845,"bbebbef":3846,"dfdbf":3847,"bebcbbf":3848,"ebcbeed":3849,"ebddebe":3850,"befdbc":3851,"bfbbfc":3852,"ebeeecc":3853,"bfbedc":3854,"eccbbcc":3855,"ebfbeee":3856,"edbbebd":3857,"bebcdbe":3858,"ebcebdc":3859,"deeddc":3860,"edbebec":3861,"ebccdd":3862,"eebcdd":3863,"edeebf":3864,"becddc":3865,"beccccc":3866,"eecdbbc":3867,"bfdebc":3868,"eddbbf":3869,"babbd":3870,"bbbcdbd":3871,"bebeebd":3872,"ebceeec":3873,"badbe":3874,"edbbecc":3875,"ecbcccc":3876,"efbbdc":3877,"bdcbfc":3878,"aeeee":3879,"dffdc":3880,"bbcbeed":3881,"dfbcbc":3882,"bbfbbec":3883,"bdbddd":3884,"ebdbeee":3885,"ebfedc":3886,"bbceeee":3887,"becbeed":3888,"bbbcbbcc":3889,"bdcefc":3890,"ecdebec":3891,"ecacc":3892,"decff":3893,"fcdeec":3894,"bdecdd":3895,"ebbcdee":3896,"eebebbd":3897,"bbbbbcbd":3898,"ebdbbcc":3899,"ebecebc":3900,"eccea":3901,"dfded":3902,"dccff":3903,"fdbccc":3904,"eedfcc":3905,"dbbbddd":3906,"fedccc":3907,"bbbfbbf":3908,"beebbebe":3909,"dceef":3910,"fceecc":3911,"efcbcc":3912,"bfecbd":3913,"bebdbbc":3914,"beccef":3915,"bdeeef":3916,"edfebc":3917,"babbf":3918,"dfbbcc":3919,"bcbedbc":3920,"bbec</w>":3921,"bfcbbd":3922,"ecbbebbc":3923,"bbbcebf":3924,"dbdbbbe":3925,"bfbced":3926,"dffee":3927,"ebdebec":3928,"ebbfa":3929,"dcbeebb":3930,"bbbfbbbe":3931,"ebbeeed":3932,"dbebbcc":3933,"ecdeccc":3934,"becdef":3935,"bbeeebf":3936,"bebedbc":3937,"ecbbbfc":3938,"ebbcdbc":3939,"fecfc":3940,"ecbebbd":3941,"bcdbecc":3942,"eecdef":3943,"eccbedc":3944,"ecceeec":3945,"edbea":3946,"beeebcc":3947,"ebcfdc":3948,"eececbc":3949,"ebbdecc":3950,"bbcbbebe":3951,"bdcbebe":3952,"fbeba":3953,"bbfbbcc":3954,"decdbd":3955,"decbeec":3956,"efbeebe":3957,"fcdfc":3958,"bbbdbcc":3959,"fbe</w>":3960,"edcdebb":3961,"bbeddf":3962,"bcfbbbc":3963,"bbbbcbbbe":3964,"dcbbef":3965,"effebb":3966,"ebccbec":3967,"efdfc":3968,"ebdea":3969,"deebbec":3970,"bfbbebc":3971,"dcbcdc":3972,"ebbb</w>":3973,"efbeed":3974,"dccdbe":3975,"feca":3976,"ddac":3977,"dbbebdc":3978,"ebbcbebe":3979,"bcfbfc":3980,"bcbebdc":3981,"edbbbcc":3982,"ebcbcee":3983,"eccbbbd":3984,"bdefcc":3985,"bbedbec":3986,"febfcc":3987,"ebdecbc":3988,"ebbcbdc":3989,"eeceebd":3990,"bcbcebe":3991,"ebbdbcc":3992,"bbdea":3993,"babca":3994,"ddcebe":3995,"fcbcbd":3996,"bbcbeebb":3997,"eddbbbe":3998,"bcbcbec":3999,"dbbcbbbb":4000,"bbcfbf":4001,"dfbbec":4002,"bdfdbe":4003,"fbbebcc":4004,"bbcbebf":4005,"eeeebbf":4006,"bbedebe":4007,"edbebcc":4008,"dddfc":4009,"ebfdee":4010,"ebbedcc":4011,"efeccc":4012,"efcff":4013,"ebecbcc":4014,"ebcfebb":4015,"bccccccc":4016,"bbebebbbe":4017,"eddebf":4018,"bfcbbbc":4019,"ebbedbd":4020,"dcecdc":4021,"ddbbebb":4022,"edbfcc":4023,"dbacc":4024,"bfeebe":4025,"fcac":4026,"dccdbc":4027,"ecfebe":4028,"bbbdbebe":4029,"ebeca":4030,"fbdbec":4031,"ddeebd":4032,"bbbbbbbbcc":4033,"dcecee":4034,"befbeee":4035,"edbcbbc":4036,"befdee":4037,"bccdbf":4038,"bdebbebb":4039,"bfeebf":4040,"bbbddee":4041,"bbeedbc":4042,"ebbcecc":4043,"dbdff":4044,"bffbbc":4045,"bbfbbebb":4046,"bccebcc":4047,"bdfbec":4048,"eebcccc":4049,"bbbeedc":4050,"fcfbe":4051,"ebbbdcc":4052,"baff":4053,"bebcbebe":4054,"bfffc":4055,"bebcdee":4056,"dcfef":4057,"bbbbded":4058,"ebdfed":4059,"bfbebbc":4060,"ebbeebbc":4061,"fcbbebb":4062,"ebffbc":4063,"ebbecebb":4064,"dceedd":4065,"fcbedc":4066,"fccdd":4067,"ebfbfc":4068,"ecdedcc":4069,"bbfdec":4070,"eebb</w>":4071,"fcea":4072,"edcbebe":4073,"ebcbebf":4074,"bedebdc":4075,"bcbeff":4076,"edcfed":4077,"edbcfc":4078,"bccba":4079,"bbcbbef":4080,"bfbcebb":4081,"ebbecdc":4082,"ebebeef":4083,"bfcccc":4084,"bdcbbee":4085,"bbdeebd":4086,"dbeba":4087,"ecbbdcc":4088,"dcbcf":4089,"eecbbed":4090,"dbdbbf":4091,"dfac":4092,"eebcef":4093,"ebeac":4094,"dccbbbb":4095,"ebbcebbc":4096,"dbdecc":4097,"bbbdebd":4098,"ddeccc":4099,"edcbbee":4100,"bceeccc":4101,"ddbbdc":4102,"bccfed":4103,"fecdec":4104,"eecdecc":4105,"ffddc":4106,"efcdec":4107,"eeceedc":4108,"bebcecc":4109,"eefbdc":4110,"bfebdc":4111,"eebca":4112,"bcecbec":4113,"bbbedec":4114,"eecfdc":4115,"bbecbbf":4116,"feefee":4117,"bbdeecc":4118,"ebdeebd":4119,"fecdee":4120,"dbbecbd":4121,"bbecbebe":4122,"dbfdf":4123,"bebe</w>":4124,"bdbea":4125,"efcebc":4126,"eefdbc":4127,"bdbcbbbb":4128,"ebeeebf":4129,"bbeda":4130,"bebbeecc":4131,"fcdebc":4132,"ddcecc":4133,"fbcdbe":4134,"bcdebcc":4135,"bdfccc":4136,"bcbcbbbc":4137,"edcbbbc":4138,"bbbfef":4139,"dcbbebe":4140,"beffcc":4141,"fbcdee":4142,"beccebc":4143,"dedded":4144,"bebbbccc":4145,"eebeeec":4146,"eebedbc":4147,"dcdccc":4148,"ffdec":4149,"edebfc":4150,"edbcebc":4151,"eefbbd":4152,"ecfbdc":4153,"bffebe":4154,"bfbbdd":4155,"dfbbbd":4156,"bebbac":4157,"bbcdbbbb":4158,"efcdbe":4159,"efeecc":4160,"edeced":4161,"bbcbcbe":4162,"edcbbbe":4163,"edcebec":4164,"eefba":4165,"bbeeebd":4166,"bbcbedc":4167,"afbe":4168,"eebedbe":4169,"beeb</w>":4170,"bfbdbd":4171,"bccbebd":4172,"ecfbbbb":4173,"bdcbbbd":4174,"bdcbebc":4175,"dddbb":4176,"bbeeff":4177,"bdbebbbe":4178,"ebefef":4179,"beecbbbb":4180,"bdbedbe":4181,"ebecfc":4182,"ebbbdebb":4183,"efda":4184,"bbdebcc":4185,"beeca":4186,"debbbec":4187,"ddbcee":4188,"ecdbbcc":4189,"bfdbec":4190,"dcedcc":4191,"ecbcbec":4192,"eecbcbd":4193,"bddbbee":4194,"dcbcbf":4195,"ebefebe":4196,"dbdbbbd":4197,"bbbcebbc":4198,"eebeba":4199,"bcecdee":4200,"bccbbed":4201,"eccdebc":4202,"eccbeee":4203,"eccbccc":4204,"eecdeec":4205,"beecdec":4206,"ecfebd":4207,"ddbcbd":4208,"dcdbcc":4209,"ddb</w>":4210,"fbedee":4211,"eeebbbbbb":4212,"edceebd":4213,"efbbbbc":4214,"bedac":4215,"ebbbeebc":4216,"ebebeed":4217,"bfeeec":4218,"dbcded":4219,"bbebba":4220,"ebbeedd":4221,"ecbbbbcc":4222,"bbcbbdd":4223,"ebbbebec":4224,"feebec":4225,"dcdbbbb":4226,"efbeef":4227,"eccedcc":4228,"eadbe":4229,"edeebbc":4230,"ebeeebd":4231,"bbbbbbbbbbbbbbbbbbbbbbbb":4232,"bbbfbec":4233,"ebbdbbbe":4234,"bbfbcbc":4235,"cccebc":4236,"dedbbbb":4237,"fdeccc":4238,"bfcdbc":4239,"bfbeebe":4240,"fbcbbd":4241,"ffdbf":4242,"bdfbbbb":4243,"ebccbbbb":4244,"ebbebfc":4245,"edbcef":4246,"ede</w>":4247,"beecdee":4248,"bceebbbb":4249,"eebcbcc":4250,"ebecdf":4251,"bbbfa":4252,"bfbba":4253,"ddcddc":4254,"ebbbcdd":4255,"ebfbebc":4256,"ebbcff":4257,"dbbbdbc":4258,"eccdbf":4259,"ddbeed":4260,"fbdfc":4261,"edcebcc":4262,"feeeeee":4263,"bbebbbbee":4264,"eebbefc":4265,"cccdf":4266,"beccfc":4267,"bedbccc":4268,"efceec":4269,"beecef":4270,"ecbedbd":4271,"dcdebd":4272,"ebebedc":4273,"eeeebbc":4274,"bcbbebec":4275,"fbda":4276,"edfbec":4277,"deebebe":4278,"fdcdf":4279,"ddecbc":4280,"bbbebbed":4281,"bbfbeee":4282,"ebdbbed":4283,"bbbedebb":4284,"bceea":4285,"ebeeef":4286,"dbcbbee":4287,"ebbcbbee":4288,"ebbbded":4289,"eecbccc":4290,"ebddebc":4291,"bbbebeebb":4292,"efcbbbb":4293,"eebbfcc":4294,"bceeebc":4295,"eccebdc":4296,"fecdbe":4297,"bbfdbf":4298,"ddcdf":4299,"edbebbd":4300,"ddeeec":4301,"dbcbbbd":4302,"ebbbebbd":4303,"dceebf":4304,"dbbbdbbbb":4305,"bbecebd":4306,"fcfbf":4307,"edcfee":4308,"fdbbbbc":4309,"dcdedc":4310,"ddceec":4311,"fbcbfc":4312,"beeebec":4313,"ebedebe":4314,"bdcbef":4315,"fdebdc":4316,"bbccbbcc":4317,"ebcceec":4318,"bdebecc":4319,"edc</w>":4320,"ddcbec":4321,"bbffbd":4322,"deebebc":4323,"ebecdd":4324,"dbcdcc":4325,"deddbd":4326,"ebedef":4327,"bbecbbbc":4328,"eebeea":4329,"ecbcfc":4330,"cccdcc":4331,"eceebbc":4332,"ebbcbbbd":4333,"bccdebb":4334,"bbffcc":4335,"bbbffc":4336,"eeecbec":4337,"dcb</w>":4338,"fbefcc":4339,"ddcdbe":4340,"ddda":4341,"bbaa":4342,"bbdb</w>":4343,"dedbdc":4344,"dceced":4345,"bcbcebc":4346,"edbbeec":4347,"dbcbef":4348,"ecbcebc":4349,"ebefdc":4350,"eefdee":4351,"bfbdcc":4352,"dcdbbd":4353,"fffbd":4354,"bbbbbbbbbbbc":4355,"dbdbebe":4356,"bbddbbbb":4357,"bbecdec":4358,"ecccecc":4359,"eceedbe":4360,"bbcca":4361,"ecbeeec":4362,"efdebe":4363,"dddebc":4364,"bbebebbc":4365,"bcbbefc":4366,"babbbc":4367,"ebbeba":4368,"ebcfbf":4369,"dbfbbbb":4370,"bceedf":4371,"bbdfbf":4372,"bbdbeebb":4373,"efcccc":4374,"bbdfed":4375,"bbdbeed":4376,"fecff":4377,"fbd</w>":4378,"bdcfee":4379,"becca":4380,"ebbbea":4381,"bbbdeec":4382,"bbeddbe":4383,"dbcbcbc":4384,"ccca":4385,"dbcebf":4386,"ebbcdec":4387,"bfcdec":4388,"ddcbcc":4389,"eeccfc":4390,"bcecdd":4391,"bebeeeee":4392,"bcecdf":4393,"bcdea":4394,"ebeeccc":4395,"ebbeebbee":4396,"bebddf":4397,"bcfdbd":4398,"ebddef":4399,"dbfbec":4400,"eebcdf":4401,"bbdeeec":4402,"bcbca":4403,"ecbebbf":4404,"ebbbcebe":4405,"eebceec":4406,"dccdec":4407,"bfcecc":4408,"feedbe":4409,"eedebec":4410,"eecceec":4411,"bdfbcc":4412,"bcbeedc":4413,"ebebced":4414,"ebcbeebb":4415,"bbebb</w>":4416,"ddfdd":4417,"deeedc":4418,"ebedebc":4419,"ebceeee":4420,"ebccccc":4421,"bbeebdc":4422,"decbbbe":4423,"eaba":4424,"fcdbbc":4425,"fcca":4426,"bbbcecc":4427,"ebbbefc":4428,"bbbcbfc":4429,"bcbebbec":4430,"eebebbebb":4431,"fedbec":4432,"ecebdcc":4433,"bfbeef":4434,"bbdcbbbb":4435,"def</w>":4436,"bbdeeee":4437,"ddca":4438,"bbeedee":4439,"ebcbbebe":4440,"dbebeee":4441,"beccbbc":4442,"ddfbf":4443,"eebcecc":4444,"ebddbbc":4445,"bfbbbec":4446,"ebbecbf":4447,"bbbcfbc":4448,"bebeeec":4449,"edfbcc":4450,"ebdbbebb":4451,"dccbdc":4452,"edcbebd":4453,"bfcbbbe":4454,"cccebe":4455,"cccbbbb":4456,"bebcff":4457,"ecbbba":4458,"dcbdcc":4459,"dddddd":4460,"becbbbf":4461,"fbedec":4462,"efdbec":4463,"dbddec":4464,"bbeddee":4465,"fccff":4466,"bceebcc":4467,"eefeec":4468,"edecbf":4469,"edfecc":4470,"bfeeebb":4471,"deffc":4472,"cccdee":4473,"bbbcbef":4474,"ebbecee":4475,"ebbcedc":4476,"dbdded":4477,"bcfbebe":4478,"ebcecbd":4479,"eecbeed":4480,"ebebba":4481,"dbeded":4482,"ebfba":4483,"dbcbebc":4484,"effebe":4485,"fbdbbc":4486,"beccecc":4487,"bbbebebbbb":4488,"bfcebd":4489,"ebebebbbb":4490,"bebc</w>":4491,"fbeedc":4492,"ebbbdbf":4493,"bdbebcc":4494,"efdebc":4495,"ddcdee":4496,"bbbebebd":4497,"ecbedee":4498,"bfecf":4499,"ddbccc":4500,"bfecbf":4501,"bcfbbee":4502,"bfbebbbb":4503,"ebebcebb":4504,"ddcdcc":4505,"eeeeebf":4506,"eeeebef":4507,"bececbc":4508,"fccbbc":4509,"becdebc":4510,"ddcbbc":4511,"ebbbdf":4512,"bbffec":4513,"eccba":4514,"fbebecc":4515,"bdbac":4516,"bbbbfbd":4517,"defa":4518,"eccdecc":4519,"ebefed":4520,"eebedf":4521,"efeef":4522,"dbebbebb":4523,"eebbebcc":4524,"ebcbced":4525,"bebebbcc":4526,"fbbac":4527,"bebeedc":4528,"dbeebbc":4529,"fbcebd":4530,"bbdecbc":4531,"bcfdec":4532,"bbecbbec":4533,"ddcebc":4534,"bbeebef":4535,"bbbdbdc":4536,"ffba":4537,"deebcbc":4538,"efbcbe":4539,"efeebd":4540,"bcbddd":4541,"bbbbcbec":4542,"effdd":4543,"feceec":4544,"bebcdec":4545,"beecbcc":4546,"bbbebbebe":4547,"bfcbdc":4548,"bdacc":4549,"bddbfc":4550,"bbecdbc":4551,"acda":4552,"ecbeed":4553,"debba":4554,"efbced":4555,"bebd</w>":4556,"ebbbbeec":4557,"bbbbeebc":4558,"dcccccc":4559,"bbdbbbbbbbb":4560,"defdc":4561,"bceeeec":4562,"bcecbbc":4563,"efeeebe":4564,"fccbcc":4565,"defccc":4566,"fdcccc":4567,"ebbebbcc":4568,"fbebbcc":4569,"eeccbec":4570,"bbdbbebe":4571,"eaccc":4572,"ebcdeec":4573,"eefebd":4574,"eaff":4575,"fcbbdc":4576,"beeeff":4577,"bbebbbbbbbbbb":4578,"eebbebec":4579,"befba":4580,"bebda":4581,"ecbebbbc":4582,"bceedee":4583,"debbbbbe":4584,"dbbdbbbb":4585,"fccbf":4586,"befbfc":4587,"fbcecc":4588,"dbdbbbc":4589,"ebbbebbf":4590,"fbc</w>":4591,"bbebbebc":4592,"eeecbbc":4593,"bcebdcc":4594,"bbefbbbb":4595,"eceeecc":4596,"bebeba":4597,"feeebf":4598,"febbbbbb":4599,"dbedbf":4600,"feebdc":4601,"efebdc":4602,"dbebeec":4603,"fbbeecc":4604,"fbcdec":4605,"bcbeebf":4606,"bcffcc":4607,"ebccbcc":4608,"ebbeced":4609,"ebcca":4610,"eeeca":4611,"ebbcbebc":4612,"beeeebf":4613,"fbcbbbe":4614,"cccff":4615,"ebebcf":4616,"dbcbfc":4617,"ebbbdee":4618,"ebcdbec":4619,"beeceec":4620,"bcebbbbbb":4621,"dedecc":4622,"ebcbbdd":4623,"ebbced":4624,"ebedfc":4625,"ebbcebf":4626,"ebcbedd":4627,"debbfc":4628,"ebbfbec":4629,"dceeebb":4630,"dddecc":4631,"bbcfdc":4632,"ffbcbc":4633,"bbccebd":4634,"bbfdcc":4635,"becbeebb":4636,"bbccbbd":4637,"ecdebdc":4638,"befbebc":4639,"dedbeec":4640,"bdcbbec":4641,"fbbbccc":4642,"bbeeeec":4643,"fee</w>":4644,"bbeeecc":4645,"dbbbbbbc":4646,"dbcfee":4647,"bcbbfcc":4648,"bfbcdc":4649,"edbcebe":4650,"babea":4651,"debbebe":4652,"edcea":4653,"ecbeddc":4654,"afbf":4655,"bdbbbbcc":4656,"fbedcc":4657,"bfcbfc":4658,"bbbcdec":4659,"edbeebd":4660,"bceeebe":4661,"bbebebebe":4662,"bddddd":4663,"ebddfc":4664,"bbbfebe":4665,"dbebebd":4666,"dbbcbbc":4667,"eceebcc":4668,"fbcfbc":4669,"bdceecc":4670,"dcdbdc":4671,"edcbef":4672,"bcbcdee":4673,"edcecbc":4674,"bebbeccc":4675,"fccebc":4676,"bdfbbf":4677,"bbeebbec":4678,"bbeeeeee":4679,"fbebbebb":4680,"dbfccc":4681,"eceea":4682,"bdbeebc":4683,"bbbbcbcc":4684,"fed</w>":4685,"efeebf":4686,"bdbedf":4687,"ddbcec":4688,"beeefee":4689,"ebccecc":4690,"becdbec":4691,"dbedebb":4692,"bdcebec":4693,"deddcc":4694,"dcecbf":4695,"bbdbebf":4696,"bbbfff":4697,"bbbbbbbec":4698,"eefbbbc":4699,"eebcbf":4700,"eebcbbf":4701,"bbbbbebf":4702,"bcbedec":4703,"ebbdbbf":4704,"eececcc":4705,"edebbcc":4706,"eecda":4707,"bbedebc":4708,"bcceebd":4709,"bbbefee":4710,"edcfbd":4711,"dbddcc":4712,"bbccdf":4713,"dcbded":4714,"ececdf":4715,"ebbbcebc":4716,"bbbbdbbc":4717,"bbdbedc":4718,"ecfbbf":4719,"eecdebe":4720,"debbdf":4721,"eebcebe":4722,"bbbbbbebc":4723,"debbebc":4724,"bcccbcc":4725,"ededbf":4726,"becea":4727,"bcbcdf":4728,"dbfdbe":4729,"dcbcdd":4730,"ecfdbe":4731,"eeebeebe":4732,"becdeec":4733,"edcdebc":4734,"fbcdbc":4735,"dbbeccc":4736,"deeebf":4737,"ebccebd":4738,"fcfdc":4739,"deebef":4740,"bbeebebc":4741,"decbebc":4742,"ddbbbf":4743,"bbcdebc":4744,"baebc":4745,"ebbbbbbcc":4746,"edcddc":4747,"bbebbbbbd":4748,"fecebc":4749,"bbdbcec":4750,"ebecbf":4751,"eef</w>":4752,"ebccbf":4753,"edfdf":4754,"fbeea":4755,"edceccc":4756,"bbbcbeee":4757,"becdfc":4758,"beebba":4759,"becdbbc":4760,"acdf":4761,"bbbbbbbcc":4762,"bdbbedc":4763,"ebecef":4764,"ebbcfbc":4765,"ededdc":4766,"edceedc":4767,"dbfff":4768,"bddefc":4769,"baccc":4770,"bbccbbbe":4771,"becbcec":4772,"bccdef":4773,"bcceeec":4774,"ebbbebcc":4775,"bbdcdd":4776,"bbcfebb":4777,"bebebcbc":4778,"bdbbccc":4779,"efcebe":4780,"ddcdbd":4781,"beebfcc":4782,"bbdfdc":4783,"beecdbe":4784,"bbbbfbe":4785,"beceedc":4786,"beccebe":4787,"dbcbeee":4788,"abdbf":4789,"ebbdedc":4790,"bffa":4791,"edcdbf":4792,"ebbbebbee":4793,"bccffc":4794,"bfcebf":4795,"bcfdcc":4796,"bcbbbecc":4797,"ebbbcef":4798,"dcbeef":4799,"eeebdcc":4800,"eebddd":4801,"dbefcc":4802,"becbbbbc":4803,"bbbbdcc":4804,"bbcac":4805,"befdbd":4806,"edeeebe":4807,"eecebdc":4808,"deeba":4809,"eeccecc":4810,"dbcfec":4811,"beebbbbbe":4812,"efeeef":4813,"bdbebbd":4814,"edeba":4815,"ebbbcfc":4816,"bdcebbc":4817,"bebebbbd":4818,"eebcbedf":4819,"dcbbfc":4820,"beecfc":4821,"bfcfbc":4822,"eecbbdc":4823,"bbbfbbbc":4824,"bbeeba":4825,"ebbbddd":4826,"efbcbf":4827,"bbccecc":4828,"bebdebc":4829,"dddbbd":4830,"efcecc":4831,"bbccbbbc":4832,"fec</w>":4833,"beeebef":4834,"becbcbd":4835,"bbecbebc":4836,"eeccebc":4837,"fceccc":4838,"fccecc":4839,"bbbf</w>":4840,"ecbcbcc":4841,"bbebeebe":4842,"fcda":4843,"dedbbd":4844,"bbedef":4845,"eefea":4846,"ecbedec":4847,"bcbbbccc":4848,"bbdcbbc":4849,"eecdbec":4850,"bbbbbccc":4851,"becbccc":4852,"dfea":4853,"debbef":4854,"deebfc":4855,"eeceeec":4856,"bbfefc":4857,"befdec":4858,"dbeddc":4859,"beeeecc":4860,"bbbfdd":4861,"feda":4862,"beceeec":4863,"bbbdff":4864,"beeeba":4865,"eecca":4866,"bbbebeec":4867,"bbbacc":4868,"ebecebd":4869,"eeeeff":4870,"ebbbfcc":4871,"ebfdec":4872,"bebdef":4873,"ebbbdec":4874,"fceeec":4875,"bbecff":4876,"bdbcbbc":4877,"ebbcdbd":4878,"ebecebe":4879,"ecfdbc":4880,"dbbbbbbbd":4881,"efcdbc":4882,"ddbedc":4883,"bdcfbd":4884,"edefcc":4885,"bccbbebb":4886,"becbbdc":4887,"ebdbedc":4888,"edcbcbc":4889,"edecee":4890,"bbececc":4891,"beceebd":4892,"bdceebc":4893,"ecbcbf":4894,"bbdfebb":4895,"defdf":4896,"fecdbc":4897,"bbdbccc":4898,"bbbbbdbd":4899,"ebcac":4900,"eecbedd":4901,"eedbccc":4902,"beccedc":4903,"eebbbecc":4904,"bbbbfbf":4905,"dedebd":4906,"bceeecc":4907,"becdebe":4908,"ebccedc":4909,"bbbbfec":4910,"eecdedc":4911,"efbedc":4912,"eabcc":4913,"bdbebbbc":4914,"eecbbebb":4915,"feddc":4916,"bbbdccc":4917,"fdddd":4918,"bdcbcbc":4919,"bfecec":4920,"cccccccccc":4921,"bdbb</w>":4922,"bbbbbecc":4923,"beeebbbc":4924,"bbccdbe":4925,"fbebbec":4926,"edecebb":4927,"dbbcdd":4928,"dbbecec":4929,"ecbcecc":4930,"bdfecc":4931,"bebdfc":4932,"ebbfbcc":4933,"bbcbdbd":4934,"edbedbe":4935,"bbcbcf":4936,"dbdbdbd":4937,"dbfbcc":4938,"bdbeebd":4939,"eddefc":4940,"bceeef":4941,"bfdbbd":4942,"acdd":4943,"dedff":4944,"ddcdbc":4945,"badee":4946,"ebffcc":4947,"ebbbdbbbb":4948,"bbbdbbebb":4949,"fbcbbbc":4950,"beeedc":4951,"ebecdc":4952,"eeebba":4953,"edceeec":4954,"dbbcccc":4955,"ebebbbec":4956,"ebeeeef":4957,"bfdeec":4958,"decbef":4959,"bbfbbef":4960,"eebcdbe":4961,"bcbcbcbcbcbcbcbc":4962,"bbbbefc":4963,"edfeec":4964,"bdbbebf":4965,"bfbcef":4966,"fcbbbbc":4967,"bccbbbf":4968,"bbbebecc":4969,"ebbdbdc":4970,"ebdbbbf":4971,"bbffbf":4972,"bebefee":4973,"ddebdc":4974,"bcbebfc":4975,"ebccdf":4976,"beecebc":4977,"bddebbc":4978,"fecded":4979,"aeba":4980,"dbcbbec":4981,"ebbcbbec":4982,"eefdcc":4983,"bbbbbbbbbbbbc":4984,"dbebbed":4985,"bebebbec":4986,"bcbedbd":4987,"eddeecc":4988,"bcbebbebb":4989,"ebfdcc":4990,"efecbd":4991,"ebdbbdc":4992,"bdcddc":4993,"ebebebbc":4994,"ebdfdc":4995,"eecbcec":4996,"ddcccc":4997,"bccfdc":4998,"bbbbea":4999,"efeeebb":5000,"bbfdebb":5001,"fbdff":5002,"fbdccc":5003,"beeddf":5004,"fdbdcc":5005,"ebfeeee":5006,"bdcdbf":5007,"ebebbebc":5008,"fbebbbd":5009,"deefbc":5010,"ecccfc":5011,"bcccfc":5012,"abbed":5013,"edcbbec":5014,"bebebeebb":5015,"beeedbc":5016,"dbefee":5017,"bbdbbef":5018,"beeeebc":5019,"bbcbbebc":5020,"ddcdec":5021,"eceedcc":5022,"bedeccc":5023,"bbbedcc":5024,"bfeedc":5025,"efcded":5026,"eccecdc":5027,"dbfebc":5028,"eccbbed":5029,"bcbbea":5030,"eddbbee":5031,"dbbedbd":5032,"afed":5033,"becebdc":5034,"eebbac":5035,"dbebecc":5036,"dbbbdcc":5037,"bbeefee":5038,"dcbbebc":5039,"ebebbdd":5040,"bbfbbbbc":5041,"bbeebbbd":5042,"dfcfc":5043,"eceefc":5044,"eddbfc":5045,"bbcbbbec":5046,"dedbebc":5047,"bcfbebc":5048,"edecdd":5049,"bbbbbcbbc":5050,"dbbbded":5051,"dcedbd":5052,"fbcfec":5053,"dddeec":5054,"aebec":5055,"edbcbbbb":5056,"bbdbcee":5057,"bdcbebd":5058,"bebbbbbbbe":5059,"bedb</w>":5060,"ebeebdc":5061,"bebedee":5062,"eccbcec":5063,"bddba":5064,"dbefec":5065,"ebfebbc":5066,"edfbbbb":5067,"ddd</w>":5068,"ebdbeed":5069,"dcbeebe":5070,"ebebdbd":5071,"dcbcebb":5072,"eceeebc":5073,"bbfbeec":5074,"bfcbebc":5075,"ecffcc":5076,"bdcbeec":5077,"bbbbbbbbbbbbbbbbbbbbbbbbbbbbbbbb":5078,"bbbbfcc":5079,"bfcbef":5080,"bbebbbcc":5081,"fbebbbf":5082,"debbccc":5083,"ebbbedbe":5084,"bbcbcbf":5085,"ebbbbecc":5086,"bbeeebbc":5087,"da</w>":5088,"dddbec":5089,"eedeccc":5090,"bbcbebbc":5091,"bbcdfc":5092,"dfbecc":5093,"ebfdbd":5094,"bebeebbc":5095,"debbdbe":5096,"bbbbbebbc":5097,"befebbc":5098,"bbccff":5099,"eebcebd":5100,"bfbfcc":5101,"efbba":5102,"bbbbbbef":5103,"fbebccc":5104,"ebedbbbb":5105,"bbcbbbcc":5106,"eebcdbc":5107,"eebedcc":5108,"bebbebdc":5109,"fbedbd":5110,"bdbeccc":5111,"eeebeeeee":5112,"ebecdbe":5113,"bcbcbbbe":5114,"fdb</w>":5115,"eabbbe":5116,"fbeebbc":5117,"ebbbcbec":5118,"ebedbec":5119,"bcfebbc":5120,"bdebccc":5121,"ddeedc":5122,"bdfdbc":5123,"bcf</w>":5124,"ebecbbbe":5125,"ecbebbee":5126,"ebbeebbbe":5127,"ebeda":5128,"bbbcba":5129,"eddbbbc":5130,"beccbcc":5131,"dedbbec":5132,"ffcdf":5133,"dcfebc":5134,"edcdecc":5135,"ebecdee":5136,"ebecdbc":5137,"bdbeecc":5138,"bbdac":5139,"bdcfcc":5140,"eebebbebe":5141,"fceebd":5142,"bbbbbbbbbbbe":5143,"effa":5144,"fcdebe":5145,"bcbcdbe":5146,"ebeeeec":5147,"ebeecbd":5148,"dedbbf":5149,"bdfeec":5150,"dcfebe":5151,"ecbeff":5152,"edecbbc":5153,"edcdfc":5154,"ededbc":5155,"dbdddc":5156,"abeec":5157,"edbeeec":5158,"bcbebbcc":5159,"bdbbdcc":5160,"ebdeeec":5161,"ebfbbbd":5162,"ddbddd":5163,"bbbcbbbf":5164,"dcecf":5165,"dcc</w>":5166,"dbbbbbbbe":5167,"efbbdd":5168,"bcbedcc":5169,"bdbebbf":5170,"bcfbef":5171,"beeedbe":5172,"bceebbf":5173,"deebeec":5174,"dddbcc":5175,"dbfbbf":5176,"fcbeebb":5177,"bebdbf":5178,"bdcdebb":5179,"eedac":5180,"ecbefcc":5181,"dcbddd":5182,"ebbbddc":5183,"ebcbcdc":5184,"ebfbbcc":5185,"feebef":5186,"eedebdc":5187,"ebbfbbd":5188,"babebe":5189,"fffec":5190,"decedc":5191,"ebbeea":5192,"bebdeec":5193,"febba":5194,"ebbfecc":5195,"fdddf":5196,"bdfebd":5197,"ebecccc":5198,"bbbbcbbd":5199,"eebcbbd":5200,"ebcdecc":5201,"dbbbdee":5202,"decbebe":5203,"eadee":5204,"bbbbeeee":5205,"bbcdbec":5206,"fbfef":5207,"dcbddc":5208,"debbbbd":5209,"eddebbc":5210,"eceedf":5211,"bffbbbb":5212,"ebcecec":5213,"decbbbc":5214,"befbbec":5215,"bbbbbba":5216,"fcebdc":5217,"bbcbced":5218,"bdcfed":5219,"ebfbcbc":5220,"fdcef":5221,"fbcbebe":5222,"dfcdf":5223,"ebbbfbf":5224,"dbfecc":5225,"ffbebc":5226,"bdcbeee":5227,"bdbcdd":5228,"ebdebdc":5229,"ffbeee":5230,"beecbebc":5231,"bebddbe":5232,"effbbc":5233,"fceeee":5234,"eeccedc":5235,"eeecdf":5236,"edeefc":5237,"bbbbbcebb":5238,"bcbcbebc":5239,"eecbbbf":5240,"bccbbbbc":5241,"bbbcbbbbbbbb":5242,"befedc":5243,"bfbbbcc":5244,"eefbfc":5245,"ebbfbbf":5246,"eecfbe":5247,"dbbbbbbbbbbbb":5248,"ecf</w>":5249,"ecbbefc":5250,"bbccbbf":5251,"edbedf":5252,"dbbd</w>":5253,"fbcbebc":5254,"eebcedc":5255,"ebbbbbdc":5256,"ecbcef":5257,"ffbbec":5258,"eebefcc":5259,"ebffec":5260,"befdcc":5261,"ebcecdc":5262,"efcbdc":5263,"bfdbcc":5264,"ebcbbef":5265,"dbdedc":5266,"efcebd":5267,"fcfef":5268,"eabbf":5269,"eebcbbbe":5270,"bbbbfebb":5271,"feedbc":5272,"bcecdbe":5273,"bdfbbd":5274,"cccedc":5275,"deebbbd":5276,"eedcccc":5277,"ebbbbebf":5278,"eabec":5279,"dcecdd":5280,"bbcbcbbc":5281,"beeebbd":5282,"bcdbbbbc":5283,"deeebbc":5284,"bfedcc":5285,"bbbbbcbe":5286,"eccdfc":5287,"dbbbbbbd":5288,"beeddd":5289,"eeccef":5290,"bcdac":5291,"decbfc":5292,"ebecbbd":5293,"fbdeec":5294,"bdfebf":5295,"bdcba":5296,"adef":5297,"bbbfdf":5298,"adebb":5299,"fcbcee":5300,"ebdeedc":5301,"fbdebc":5302,"eebebbbd":5303,"bcbcbbf":5304,"fceedc":5305,"dbfebe":5306,"eccfdd":5307,"acbbc":5308,"ebbecbbc":5309,"ecccdd":5310,"dccbbd":5311,"bcbceec":5312,"bfeeebe":5313,"dcbcef":5314,"ebdbcbd":5315,"fbcbdc":5316,"dcbebbc":5317,"bebfbbc":5318,"afa":5319,"bcbc</w>":5320,"bffebc":5321,"ebdfebb":5322,"dccded":5323,"bcbcbbd":5324,"dcfbbc":5325,"bbbfbcc":5326,"ebbbbccc":5327,"befbbebb":5328,"badbc":5329,"efcbbf":5330,"bebcdbc":5331,"efeeec":5332,"dbbbdebb":5333,"beebbbebe":5334,"bbccbdc":5335,"bfbcbbc":5336,"eedbbbd":5337,"dcbdee":5338,"feeebc":5339,"bdbeeec":5340,"dccfec":5341,"bdfdee":5342,"abebd":5343,"bfcdbd":5344,"beebbbbc":5345,"ebebdcc":5346,"dbefbd":5347,"eeccbbc":5348,"edeeef":5349,"bbbdbebc":5350,"eedbbbbc":5351,"bfedbd":5352,"bccea":5353,"bcbbebcc":5354,"ebbbebdc":5355,"bceedbc":5356,"ececbbc":5357,"ebbfbbbe":5358,"efbbebc":5359,"efbdbd":5360,"ebbdbbbc":5361,"fcbebf":5362,"dccdbd":5363,"bbdddbd":5364,"dfbeee":5365,"ecbbfcc":5366,"bfecdc":5367,"edcbedc":5368,"ecbcbbbb":5369,"fcfebb":5370,"bcceeee":5371,"debbbbf":5372,"eebdbec":5373,"cccdbe":5374,"decbbec":5375,"fcbbfc":5376,"fedbbc":5377,"eddebcc":5378,"fecbbbb":5379,"ebebbfc":5380,"fcbcf":5381,"dbcebbc":5382,"dbbecbf":5383,"ebececc":5384,"ebdeccc":5385,"bbfbbed":5386,"eebebbcc":5387,"ebcdebd":5388,"eebdbbc":5389,"dfcdd":5390,"feeba":5391,"bcccbccc":5392,"deecdf":5393,"dcbdbc":5394,"fecbdc":5395,"bccecbc":5396,"bccbedc":5397,"ebeceec":5398,"bceebbbe":5399,"bcdbbbd":5400,"acbec":5401,"eeccdd":5402,"eebeebbc":5403,"edcbbbd":5404,"bebebfc":5405,"ddcff":5406,"debebbc":5407,"edcdef":5408,"bebefbc":5409,"bbdcbec":5410,"bdbedee":5411,"bffbbd":5412,"edeea":5413,"ebdbcec":5414,"bbeebeebb":5415,"bbbfbbd":5416,"bcccdd":5417,"eeffcc":5418,"fdcdd":5419,"bccbcec":5420,"dffbf":5421,"bbbddbbbb":5422,"eefdbd":5423,"bcfbbec":5424,"beedbec":5425,"bdbbba":5426,"fffbf":5427,"eccecec":5428,"dccbbf":5429,"ebecbbbc":5430,"ffefc":5431,"dbbbdbf":5432,"bbbbb</w>":5433,"ecbceec":5434,"aeebc":5435,"ecbcdf":5436,"bccbcbd":5437,"bcceedc":5438,"befeeee":5439,"eceedbc":5440,"bbbbfbbbb":5441,"bbbfebc":5442,"eebdebc":5443,"eeecdd":5444,"edfebd":5445,"ebbcbfc":5446,"bbeddbc":5447,"eefbebc":5448,"bceddd":5449,"bbbbebcc":5450,"babdc":5451,"fccfec":5452,"bedcccc":5453,"edbebbbe":5454,"ebbeebeee":5455,"ebebcdc":5456,"bbbeeeee":5457,"bbbcbeec":5458,"afdc":5459,"dcdddd":5460,"bbebbbbbbc":5461,"efffc":5462,"deebbcc":5463,"dffbe":5464,"ebbfebd":5465,"bfbdbc":5466,"befbcbc":5467,"abbbbc":5468,"bebcbdc":5469,"ededdd":5470,"feeecc":5471,"efbcdc":5472,"bbedeec":5473,"bbcbebbbb":5474,"dcbefc":5475,"bebcedc":5476,"ecbeebf":5477,"beebeebe":5478,"bfcbbec":5479,"bdfbdc":5480,"ebecbbf":5481,"bccbcee":5482,"eeebbebe":5483,"eccecbd":5484,"abecc":5485,"debedd":5486,"ececbec":5487,"dcfa":5488,"beeebdc":5489,"debbbf":5490,"bcfefc":5491,"fedbf":5492,"bccfbe":5493,"bbebbbebc":5494,"bdbebbee":5495,"dbfba":5496,"bbcbbfc":5497,"ebdbbdd":5498,"dcbba":5499,"eecbeebb":5500,"befea":5501,"beeedf":5502,"dadd":5503,"dbedef":5504,"bbebbdd":5505,"bbedfc":5506,"ebebcbf":5507,"ebcbcbe":5508,"beecdbc":5509,"bbeefbc":5510,"ebecbdc":5511,"efbbfc":5512,"becbebf":5513,"eebda":5514,"acfc":5515,"bbfbebd":5516,"bfcded":5517,"bcdbccc":5518,"bccbeed":5519,"bbffbe":5520,"edbeccc":5521,"ebbedbc":5522,"dbbbddc":5523,"fccedc":5524,"beccdf":5525,"bbebbfc":5526,"dbdbebc":5527,"dbbbbbbbc":5528,"ecbcdee":5529,"bbfea":5530,"eebebbec":5531,"bdbebdc":5532,"bddeecc":5533,"ebbbeebd":5534,"dcebfc":5535,"dedddc":5536,"bebbcbbbb":5537,"efbcebb":5538,"ffbbcc":5539,"efcbebc":5540,"bdeebec":5541,"efbdcc":5542,"efcbbd":5543,"eccbeed":5544,"bbbfbebe":5545,"beccdd":5546,"bbebebbee":5547,"fbbebdc":5548,"fbcbef":5549,"ecfbbbc":5550,"ecfbfc":5551,"ebbfeec":5552,"ffea":5553,"bbceeebb":5554,"ebffbd":5555,"cccdbc":5556,"ebdbccc":5557,"bbbbcebe":5558,"edebecc":5559,"ebbeddc":5560,"debbbbbc":5561,"dbbcbec":5562,"bbbecbbbb":5563,"debcbec":5564,"bcbeebbc":5565,"bcbefcc":5566,"bfbefc":5567,"ecbddd":5568,"efdeec":5569,"eccac":5570,"bbeedec":5571,"befbbbd":5572,"ddcbdc":5573,"bfbdbf":5574,"bbeebfc":5575,"bcbebbbd":5576,"dfebcc":5577,"ebfbbec":5578,"fcbced":5579,"bdfbbbe":5580,"bbceedc":5581,"fcbcbf":5582,"bccbbdc":5583,"bccfbf":5584,"bebdbbd":5585,"bbcebdc":5586,"bbcbcebb":5587,"ebdda":5588,"ebdfbe":5589,"babbbd":5590,"defdbe":5591,"ecceedd":5592,"bbccdee":5593,"fcbbef":5594,"bebfbbbb":5595,"edfbbd":5596,"ecbcebe":5597,"dbcfcc":5598,"befdbf":5599,"ecfbbd":5600,"ecfbbbe":5601,"ecfebf":5602,"ebbbdbbc":5603,"beeebbebb":5604,"bdfedc":5605,"ebddeec":5606,"dbcbeec":5607,"bebcded":5608,"bbbbcbbf":5609,"ecfdcc":5610,"ebbbebbbc":5611,"eebebbbf":5612,"fdd</w>":5613,"ebbcbcbc":5614,"fbddbe":5615,"ebdbdbd":5616,"bebdbbbe":5617,"efcbbbc":5618,"ddcbbbb":5619,"deedbf":5620,"bbefa":5621,"bbcbcbbbb":5622,"ecccebc":5623,"ebecdec":5624,"feebbd":5625,"eebdfc":5626,"ebbecdd":5627,"fbcebf":5628,"bffdf":5629,"bbedbbd":5630,"dbdbbee":5631,"ececdd":5632,"eebbeecc":5633,"ecdac":5634,"dbdebf":5635,"bbceeed":5636,"babbee":5637,"bbdcebe":5638,"ebdbebf":5639,"fbcded":5640,"bfbcbbbb":5641,"bbbbebbbbbb":5642,"baebf":5643,"ddcded":5644,"debbeec":5645,"bbbbcbbbd":5646,"dcd</w>":5647,"bbbbbbbbbbbd":5648,"bdeac":5649,"ebcda":5650,"dbebccc":5651,"deebeee":5652,"bedcbec":5653,"bbbbbdbbbb":5654,"bdcbecc":5655,"bfcbcbc":5656,"eebcbbbc":5657,"bbfded":5658,"eebcdec":5659,"fecdcc":5660,"abccc":5661,"ebcbcf":5662,"bbbbcdd":5663,"bcecdec":5664,"bfdebd":5665,"bfcbeec":5666,"edbeedc":5667,"bbcdeec":5668,"bfbedd":5669,"bebcbbee":5670,"bdfdbd":5671,"bbbefbd":5672,"ddffc":5673,"eccedbd":5674,"eebcdc":5675,"ebcbdbd":5676,"dbbecebb":5677,"bebcebbc":5678,"eebddf":5679,"bdbcbec":5680,"fecbbf":5681,"ececbcc":5682,"eccdebe":5683,"dbbeced":5684,"ecbcdbe":5685,"deefcc":5686,"bebdebe":5687,"ebcbcebb":5688,"bddbbcc":5689,"eccfebb":5690,"bdbedbc":5691,"ebcffc":5692,"ddcebd":5693,"ebdcebe":5694,"dbbbbdd":5695,"ecdbccc":5696,"abcbd":5697,"eecac":5698,"bbbedbf":5699,"bebcbfc":5700,"eeeedd":5701,"bbecded":5702,"edeeebc":5703,"bbdcef":5704,"eccbedd":5705,"bbbeea":5706,"bceeeecc":5707,"bfbded":5708,"becbedd":5709,"edcba":5710,"bfeeef":5711,"eccbcbd":5712,"eebcbdc":5713,"bfeeed":5714,"eefdec":5715,"eeccbcc":5716,"bbbfdbe":5717,"bbedccc":5718,"edbac":5719,"eebcdee":5720,"fbdbbbb":5721,"edbbbdc":5722,"fcbbdd":5723,"ffebbc":5724,"dbdfbc":5725,"debcdf":5726,"fbfa":5727,"bbebcbbbb":5728,"ecfdec":5729,"eccdef":5730,"beecded":5731,"ecdcccc":5732,"dcfecc":5733,"eeceeee":5734,"fbedebb":5735,"dbfbbd":5736,"bbccdbc":5737,"eeccbbbb":5738,"bfebfc":5739,"ebccbdc":5740,"dccfbc":5741,"bdbcebe":5742,"ebbeebebe":5743,"ebcbbfc":5744,"eebebfc":5745,"fdcbec":5746,"bbeebbebe":5747,"ebfea":5748,"edbbedc":5749,"ebceebf":5750,"cccbccc":5751,"bbecbdc":5752,"ebccdbe":5753,"bbedbcc":5754,"eecdebd":5755,"ecbbebec":5756,"befefc":5757,"dfbccc":5758,"bcfdbf":5759,"efbebbc":5760,"ecbca":5761,"bebddee":5762,"bcecfc":5763,"edcebdc":5764,"eecbbbbc":5765,"baea":5766,"cccdec":5767,"ffded":5768,"faa":5769,"ebceedd":5770,"fbedbf":5771,"dffed":5772,"dbbebfc":5773,"bebdbbf":5774,"ecfdee":5775,"ffbbbd":5776,"debbbcc":5777,"dabca":5778,"fbffc":5779,"bbdbebbbb":5780,"ecbcbbf":5781,"bbedbbbe":5782,"febac":5783,"bcdebdc":5784,"dcefcc":5785,"efcbfc":5786,"bceebdc":5787,"bebbb</w>":5788,"acef":5789,"defbcc":5790,"dceddc":5791,"ebebea":5792,"ebceeed":5793,"bdeea":5794,"ecceddc":5795,"bbeebbcc":5796,"dbbecee":5797,"fbfff":5798,"eebfa":5799,"bebcbcbc":5800,"ecebfcc":5801,"bbefdd":5802,"eeecbcc":5803,"bbcfbbc":5804,"dfdebb":5805,"bbeacc":5806,"ecbb</w>":5807,"fccebe":5808,"bebdbebe":5809,"ebcbebbc":5810,"fcffc":5811,"debe</w>":5812,"fcdecc":5813,"eeeebcc":5814,"eefedc":5815,"edbebdc":5816,"debebbbb":5817,"dfeccc":5818,"bceeefc":5819,"eebe</w>":5820,"dbdba":5821,"bcbebecc":5822,"cccbdc":5823,"eeeebeebe":5824,"ecbebfc":5825,"feedcc":5826,"ebdbbbbc":5827,"bdfdcc":5828,"bbbcded":5829,"bebfa":5830,"eeeeeeebe":5831,"defbbc":5832,"ebddbbbb":5833,"eeeeba":5834,"edfdbe":5835,"ebbefcc":5836,"eccbbdc":5837,"bfbebec":5838,"beecebe":5839,"ecccbcc":5840,"ebfbbbf":5841,"beccbbbb":5842,"efdbcc":5843,"bceebbbc":5844,"acdee":5845,"ecbeebbc":5846,"fecfec":5847,"ecbcdec":5848,"fccdec":5849,"edeebcc":5850,"eddbecc":5851,"edcbeee":5852,"bcebfcc":5853,"dce</w>":5854,"bcbdbbbb":5855,"ececebc":5856,"ddbced":5857,"edcfdc":5858,"bbbcbbed":5859,"eebedbd":5860,"ebddecc":5861,"ebbcbef":5862,"eceebdc":5863,"dcbbbec":5864,"eecbebf":5865,"beecbbd":5866,"bffbcc":5867,"dcbdbf":5868,"fecbbd":5869,"ebdfbf":5870,"dbbbdbe":5871,"bbebbdbe":5872,"fedef":5873,"eccdedc":5874,"efcdcc":5875,"ebccff":5876,"eebc</w>":5877,"ebdcdd":5878,"bebebbebe":5879,"ddcbbd":5880,"beeda":5881,"dbcbbed":5882,"eebd</w>":5883,"bebdbebc":5884,"beebbef":5885,"bbefbbc":5886,"ddcbf":5887,"bdbcfc":5888,"fecbfc":5889,"ebddbec":5890,"bbbeebec":5891,"dbfdee":5892,"bdbcef":5893,"bbbbcbbbbbbbb":5894,"bddebec":5895,"bebedec":5896,"ddedcc":5897,"ebfefc":5898,"bebebeec":5899,"fbacc":5900,"dcddcc":5901,"ffac":5902,"eceebbbb":5903,"fbfccc":5904,"febbebe":5905,"bdeebbbb":5906,"ebaa":5907,"bdeefc":5908,"fbcbbee":5909,"ecbebbcc":5910,"fefa":5911,"befbbcc":5912,"feebbbc":5913,"eccdeec":5914,"deeded":5915,"decbecc":5916,"bcbcdbc":5917,"fbdebe":5918,"ecccedc":5919,"eeecbbbb":5920,"fbf</w>":5921,"bebcbbec":5922,"bcecebc":5923,"becda":5924,"fffbe":5925,"bfdbbf":5926,"bbeedbd":5927,"bbdeedc":5928,"bdcbbcc":5929,"bbbeded":5930,"debd</w>":5931,"eebbbccc":5932,"dcbfcc":5933,"cccebd":5934,"bfcfcc":5935,"dccfcc":5936,"bfbcfc":5937,"dfbcbd":5938,"dbeeebc":5939,"defbec":5940,"bdbdbbbb":5941,"bfbeebc":5942,"ebbdccc":5943,"efeebe":5944,"bebebbbf":5945,"eecbbdd":5946,"decebf":5947,"fdcfc":5948,"ecccbec":5949,"ddfebb":5950,"beecbbbc":5951,"dbbecdc":5952,"fde</w>":5953,"bba</w>":5954,"ebceebe":5955,"bbceebe":5956,"feddee":5957,"dcbeebc":5958,"bcbcecc":5959,"ebbbedf":5960,"dbbcbbd":5961,"edeebbbb":5962,"ebbebbbbbb":5963,"edfedc":5964,"bbcfef":5965,"bbedbbed":5966,"bbbefec":5967,"bbbebccc":5968,"eccceec":5969,"dbbcef":5970,"dcfbec":5971,"ecbebbbd":5972,"bcfbbbd":5973,"ebbbbebbc":5974,"ebcdedc":5975,"eceedee":5976,"bedbdcc":5977,"ebbecebc":5978,"ecbcebd":5979,"bebebbbbc":5980,"beeebeebb":5981,"debebec":5982,"ebbedbf":5983,"bbbcbebd":5984,"eebcff":5985,"ddbbbbc":5986,"bdceebd":5987,"bdbeedc":5988,"dcbbbcc":5989,"bbecbbbd":5990,"bcbcff":5991,"bbbebebf":5992,"dfdef":5993,"debc</w>":5994,"baeec":5995,"bebeea":5996,"bbdceec":5997,"edbbccc":5998,"ebcbbebc":5999,"ebbcbbebb":6000,"bbecbbee":6001,"feddec":6002,"dcfeec":6003,"fececc":6004,"bbebebbf":6005,"bceceec":6006,"debbebd":6007,"bdeedbe":6008,"eeeb</w>":6009,"bdfbfc":6010,"ebcedbd":6011,"ebbdbbee":6012,"dfbeec":6013,"ebefdd":6014,"bebbbbbbc":6015,"bbeddec":6016,"afebb":6017,"eddfcc":6018,"bbecbeec":6019,"dbfebd":6020,"bdbebbbd":6021,"fedbcc":6022,"edcbeed":6023,"bdfdec":6024,"eefebbc":6025,"bbbcdcc":6026,"fbdbcc":6027,"bcbeba":6028,"bfbcebc":6029,"dfbcec":6030,"ebffbf":6031,"dbdbef":6032,"dbbcebe":6033,"bbbbeeebb":6034,"bbecbfc":6035,"bceebbee":6036,"ffeeee":6037,"dbbc</w>":6038,"dfbbbf":6039,"bcdcccc":6040,"bfb</w>":6041,"bfbbeec":6042,"dbcddc":6043,"eeccebd":6044,"dfbebd":6045,"ebccdee":6046,"bbcbedd":6047,"dfebec":6048,"ebdcebc":6049,"bddbbbd":6050,"dbeea":6051,"bbbcfee":6052,"ebbcded":6053,"dddccc":6054,"ebfbbebb":6055,"fefef":6056,"becfdc":6057,"bbeebbbf":6058,"bcfba":6059,"bceedec":6060,"bfcdcc":6061,"edebccc":6062,"eecfebb":6063,"dbbecf":6064,"bceddee":6065,"edecebc":6066,"becfebb":6067,"bccdebe":6068,"ebccdbc":6069,"bceebbd":6070,"eccffc":6071,"ebcfdd":6072,"fbfbbc":6073,"bfbbebd":6074,"ddbedd":6075,"dbbebbebb":6076,"edeeecc":6077,"ebefbbc":6078,"ebdcfc":6079,"bdbbebbc":6080,"bfeebbc":6081,"ebbfdf":6082,"bbedbbf":6083,"bbdca":6084,"dcbdec":6085,"ebccdec":6086,"dfecbc":6087,"efcdbd":6088,"eeeddd":6089,"ebbebecc":6090,"bfdecc":6091,"bdbcebc":6092,"dbcbbcc":6093,"fbcbcbc":6094,"fedff":6095,"bfecebb":6096,"bebedbd":6097,"ebccbbf":6098,"bebffc":6099,"bbbcedc":6100,"fecebe":6101,"becdecc":6102,"bdcbbed":6103,"eabba":6104,"bbbdba":6105,"dbbdddd":6106,"eebedee":6107,"dbcba":6108,"bbbddec":6109,"eefbbebb":6110,"bcccbbc":6111,"acca":6112,"ebccbbbe":6113,"defef":6114,"bcbeded":6115,"eccccccc":6116,"bbdeeebb":6117,"ebecff":6118,"ddcedc":6119,"bbbcdebb":6120,"dbcefc":6121,"eddea":6122,"edbedbc":6123,"dbceebc":6124,"fbddee":6125,"eebebbef":6126,"bbbccbbbb":6127,"fccfcc":6128,"ecceeee":6129,"fdca":6130,"edeebec":6131,"ebbdebf":6132,"ebefa":6133,"edebbebb":6134,"beecebd":6135,"cccbbf":6136,"fbcedc":6137,"fecbebc":6138,"eebbebdc":6139,"edecfc":6140,"fcfbbc":6141,"dbebcbd":6142,"dbebcec":6143,"feedee":6144,"fdcff":6145,"fbeeecc":6146,"fdedcc":6147,"dbeefc":6148,"bebebecc":6149,"bddfcc":6150,"dbbe</w>":6151,"bbccedc":6152,"eeebebeee":6153,"bddbecc":6154,"ddbebf":6155,"ebbeddd":6156,"dffdd":6157,"bbbedfc":6158,"dbcdbf":6159,"bcdeccc":6160,"bffbec":6161,"fcbbebe":6162,"dbbbdbbc":6163,"bbbbcef":6164,"becbbebe":6165,"becfbf":6166,"bebdebd":6167,"ebedeec":6168,"bbbbca":6169,"bddea":6170,"beecff":6171,"fbcdbd":6172,"dedbef":6173,"bcccecc":6174,"bceebbec":6175,"fdceec":6176,"bbdcebc":6177,"debcef":6178,"fbeefc":6179,"bbbedbbbb":6180,"bebcbbbd":6181,"ecbedbf":6182,"bcbedbf":6183,"bcccef":6184,"dccebf":6185,"bdbca":6186,"bdbcbbd":6187,"bcbd</w>":6188,"decbbee":6189,"cccbbd":6190,"bfecee":6191,"ebedbcc":6192,"bbcda":6193,"bbbbbcec":6194,"decddc":6195,"debceec":6196,"bceb</w>":6197,"ddbdcc":6198,"bbcb</w>":6199,"bcdbbdd":6200,"bbceef":6201,"eeebbeeee":6202,"beccff":6203,"beed</w>":6204,"bbcdbbd":6205,"becbced":6206,"beec</w>":6207,"dbbbdec":6208,"dccbebe":6209,"dbebbbf":6210,"dbcdebb":6211,"dceddd":6212,"ecceeed":6213,"dbedbbc":6214,"bfcebbc":6215,"dbcfbd":6216,"bebcebf":6217,"ebcedcc":6218,"fccebd":6219,"bcbbac":6220,"beeebbebe":6221,"bffbbf":6222,"ecbcbbd":6223,"edcdeec":6224,"bbccbebe":6225,"efdbbbb":6226,"ebcdbcc":6227,"dbbeba":6228,"bbecdbd":6229,"fccbbf":6230,"bfeced":6231,"ebebebbbe":6232,"ebcdbbbb":6233,"bcfddc":6234,"bcecbcc":6235,"bbbdebf":6236,"fedfc":6237,"deebecc":6238,"bfbcebe":6239,"bbecbef":6240,"bbedefc":6241,"beecbbf":6242,"eebdbbbb":6243,"bbddbbd":6244,"bcbe</w>":6245,"ddbeebb":6246,"bbceccc":6247,"eebcebbc":6248,"bdbbbfc":6249,"ebcbeebe":6250,"bbcecbd":6251,"becbebbc":6252,"bbbdbdbd":6253,"beeebeebe":6254,"ebcfef":6255,"fbcefc":6256,"bcbddf":6257,"bfeedd":6258,"eebcbebc":6259,"bdeeccc":6260,"beee</w>":6261,"eedbbbf":6262,"bdcebcc":6263,"ebdcebd":6264,"ebebcbbc":6265,"bbcffc":6266,"badbd":6267,"decbcbc":6268,"dccbbbe":6269,"eafee":6270,"acbcc":6271,"bebbbbbbbbbbbb":6272,"ebcfebc":6273,"bcfbbcc":6274,"ebcbbbec":6275,"bbeebcbc":6276,"bcfded":6277,"eebdeec":6278,"ebcfbbc":6279,"bdceeec":6280,"bdbeff":6281,"abcec":6282,"bdcdef":6283,"bbdcfc":6284,"beebac":6285,"edcbbcc":6286,"bebdbcc":6287,"decfec":6288,"becbbef":6289,"becbbdd":6290,"ebdbeebb":6291,"bbbcfec":6292,"decebbc":6293,"bbebbeec":6294,"ebeeedc":6295,"dccddc":6296,"ecccef":6297,"bcbedebb":6298,"eddebec":6299,"dddebd":6300,"bebcfec":6301,"beecbbbe":6302,"abebf":6303,"bbbbddc":6304,"dfbcee":6305,"bfcbebe":6306,"ebccbbd":6307,"dafc":6308,"ececfc":6309,"ddeeed":6310,"bcbcbebe":6311,"ecbebbec":6312,"eabbee":6313,"beececc":6314,"bbefef":6315,"febbef":6316,"fefff":6317,"fdbfcc":6318,"eddba":6319,"ebbfdbe":6320,"bbbbbbfc":6321,"bbbbdbbd":6322,"bbbdded":6323,"fbbeccc":6324,"dcbcbbc":6325,"edecbec":6326,"dbcbebd":6327,"feacc":6328,"ebbe</w>":6329,"ebbbeff":6330,"ddecbd":6331,"bececcc":6332,"ebddebd":6333,"dbbcfc":6334,"ecbbebcc":6335,"baecc":6336,"ebbcbeee":6337,"eebcbebe":6338,"dfbbed":6339,"ecfefc":6340,"bbcbcdc":6341,"bcbeefc":6342,"ebbbebbebb":6343,"ffdef":6344,"bfcfee":6345,"decdebb":6346,"bbbfccc":6347,"bcecded":6348,"bedca":6349,"ebccbbbc":6350,"bddebcc":6351,"ebfbebd":6352,"fbcfcc":6353,"bbebbebd":6354,"ebdca":6355,"fbcfee":6356,"bbbfbbee":6357,"ecbcdc":6358,"bbefbbf":6359,"bbbefbe":6360,"ecbcedc":6361,"edfccc":6362,"ebbcbbcc":6363,"bbbbdebe":6364,"bcceccc":6365,"eefbbec":6366,"ebddbbd":6367,"ebfbecc":6368,"dbcfed":6369,"bdbceec":6370,"bdfbbbc":6371,"ebbecbec":6372,"ebdeeee":6373,"bbdbbebc":6374,"edeeccc":6375,"becac":6376,"bcecef":6377,"ebdceec":6378,"bbebebbbc":6379,"ebbeebbf":6380,"bbdbced":6381,"dfdfc":6382,"bbebbccc":6383,"bfbdee":6384,"dceeef":6385,"dcfdf":6386,"ebebedd":6387,"bbbebbdc":6388,"efcbef":6389,"dbbca":6390,"bccdfc":6391,"bbcbba":6392,"eebebecc":6393,"ebeecbe":6394,"bfcfec":6395,"ebbbbba":6396,"ebcbcbf":6397,"becbbebc":6398,"ebdac":6399,"bdcbcbd":6400,"bebcbef":6401,"fbdbbf":6402,"bfeba":6403,"efbded":6404,"fcbcdc":6405,"bdbedbd":6406,"ebfded":6407,"dbbebbbbbb":6408,"bbbefebb":6409,"babeee":6410,"bdfbebe":6411,"bfcbbee":6412,"edbebbf":6413,"dcdbbf":6414,"bbbebcbd":6415,"feddbe":6416,"bbebbff":6417,"ebfdbf":6418,"bbefebe":6419,"bbbeefc":6420,"bfcba":6421,"dbbebbcc":6422,"eebdecc":6423,"efdbbd":6424,"bbebea":6425,"deebbed":6426,"fcecbd":6427,"efcfec":6428,"bcbbbbbbbc":6429,"dbfca":6430,"edbcccc":6431,"eeccdf":6432,"ecbbea":6433,"bebebebd":6434,"bbbfbbbf":6435,"ecbbbecc":6436,"ebbbac":6437,"bbceebf":6438,"beccfec":6439,"bdbcccc":6440,"eedbbdd":6441,"ebbecbbbb":6442,"bbdbba":6443,"bbecebbc":6444,"bcbcebd":6445,"debea":6446,"decfbc":6447,"ebbeefc":6448,"bbdbebbc":6449,"beccebd":6450,"eedcdd":6451,"ecbebecc":6452,"bbbdbbec":6453,"eedbbed":6454,"bccceec":6455,"bbbbbeed":6456,"bbebbbeebb":6457,"bbefff":6458,"eebdccc":6459,"bedddd":6460,"bbbeeebc":6461,"debeccc":6462,"eebdedc":6463,"bedceec":6464,"beebebebe":6465,"bccbebf":6466,"bcbcdc":6467,"fefccc":6468,"ebbbeeec":6469,"ebedbbd":6470,"bbcecec":6471,"bbfbebf":6472,"bbbebebbc":6473,"fbeded":6474,"bebdccc":6475,"dbecdd":6476,"bbbdbeee":6477,"ebdcedc":6478,"bbebbebf":6479,"bebdecc":6480,"bdcbeed":6481,"deefee":6482,"eefbbcc":6483,"eeecdec":6484,"deebcbd":6485,"debbdbc":6486,"ecbcff":6487,"bfbdec":6488,"bbdcdf":6489,"bbebeef":6490,"eefbbbf":6491,"bbdbcbe":6492,"bbfeebc":6493,"bdbcbcc":6494,"deeefc":6495,"bbeeedc":6496,"bbbedbbc":6497,"eececbd":6498,"bbfbecc":6499,"bceddf":6500,"fbcebbc":6501,"bfbbbbbbbb":6502,"bbfebec":6503,"deebcec":6504,"debbff":6505,"dbfbdc":6506,"bcbbbbbbc":6507,"defff":6508,"fbbcccc":6509,"bcfbecc":6510,"dbbedcc":6511,"dcceecc":6512,"bcccbec":6513,"ecdbdcc":6514,"bbdfbbc":6515,"dbebcee":6516,"dbdbeee":6517,"bbecebf":6518,"bbbbcebc":6519,"bededcc":6520,"bbbceebc":6521,"bcfea":6522,"bfedbf":6523,"ebbd</w>":6524,"fcbedd":6525,"bfcbbbd":6526,"bfcbbef":6527,"ebbecebe":6528,"eccdbbc":6529,"eeeeea":6530,"dceeebe":6531,"dccefc":6532,"adbbc":6533,"bbbbcfc":6534,"bfbea":6535,"bbedff":6536,"dcecebb":6537,"bbdcbcc":6538,"bbbcbcbd":6539,"bcecebe":6540,"beebebbbb":6541,"eecbced":6542,"bebcbeec":6543,"bbebbebbc":6544,"fbfbbbb":6545,"ebbbeecc":6546,"dfeecc":6547,"bbebebec":6548,"beedbbc":6549,"bbdbbfc":6550,"decdef":6551,"ddcbbf":6552,"eefbbbd":6553,"ddfef":6554,"febbbbc":6555,"bbdcdbe":6556,"eedca":6557,"dbecbec":6558,"bbdebdc":6559,"bbecfbc":6560,"ecececc":6561,"eedbbebb":6562,"bbffdc":6563,"eaebc":6564,"fccdbe":6565,"fccfbc":6566,"bedcdf":6567,"abeebb":6568,"bebcdbd":6569,"edfdbc":6570,"fcfdd":6571,"bcbdef":6572,"bfcedc":6573,"decfee":6574,"dcecef":6575,"befbbbf":6576,"efcfbc":6577,"ecfebbc":6578,"dcfbcc":6579,"bbcfdd":6580,"bebedcc":6581,"fecdbd":6582,"eededcc":6583,"bfbebbbe":6584,"bebcfbc":6585,"bebcbebd":6586,"ddbcdc":6587,"edfbbf":6588,"bebebebf":6589,"ecfdbd":6590,"bccdbbc":6591,"bdecbec":6592,"bccbeebb":6593,"edfbdc":6594,"fcdedc":6595,"bbbebbebc":6596,"eedbbdc":6597,"bbbbecbc":6598,"bbbebbef":6599,"fbebbebe":6600,"bbdda":6601,"bdbcdf":6602,"eeecef":6603,"eadbc":6604,"debbdee":6605,"bbbbcdbe":6606,"dbbbbdbbbb":6607,"bedcef":6608,"dcbbeec":6609,"dbfdbc":6610,"debbecc":6611,"bcbebbed":6612,"ebebbbcc":6613,"bbdeebe":6614,"fbeddc":6615,"eeebfcc":6616,"bcdb</w>":6617,"eecdbcc":6618,"dccbfc":6619,"bbdbedd":6620,"deecbec":6621,"ecbdfc":6622,"bdbcdbe":6623,"ebbcbebd":6624,"ecbeded":6625,"edbcdf":6626,"ebbfebf":6627,"eebfef":6628,"beeeebd":6629,"ecbcdbc":6630,"ecbdebc":6631,"ebeeba":6632,"efcbeec":6633,"fccbbbb":6634,"dfcef":6635,"fdebfc":6636,"baebd":6637,"eabea":6638,"debbbbbd":6639,"fbddbc":6640,"bbbbbbbbbbbbbbbbbbbb":6641,"eedbdcc":6642,"edcdebe":6643,"ebbbca":6644,"debddd":6645,"bfbcdd":6646,"bbbbbbbbbbc":6647,"edbedee":6648,"eeeebbbc":6649,"dbbcdf":6650,"bebfef":6651,"abbef":6652,"bcdbbbf":6653,"befded":6654,"fbcfed":6655,"dccbbbc":6656,"beccdec":6657,"eeccebe":6658,"deecdd":6659,"eeebbbbbe":6660,"eccbcee":6661,"debbbebe":6662,"defebc":6663,"bfebbcc":6664,"deebbebb":6665,"bbeddbd":6666,"edebbbf":6667,"fecbebe":6668,"fccfed":6669,"beedccc":6670,"fbebbef":6671,"ecfbecc":6672,"bbfbccc":6673,"bcdbbebb":6674,"bbbbac":6675,"bbbdbbbbc":6676,"eefbbef":6677,"eefdbf":6678,"edebbbc":6679,"fcbbebc":6680,"dbbcebd":6681,"eedcbec":6682,"bcdedcc":6683,"bbcbeef":6684,"bbdbbbec":6685,"edcbbed":6686,"fbddec":6687,"eeecdbc":6688,"dddcdc":6689,"ffbccc":6690,"bffdbe":6691,"beecbfc":6692,"ebdcef":6693,"ebbbbbfc":6694,"ebdcbec":6695,"bbbbeebd":6696,"ebcdbbd":6697,"bbbebbbec":6698,"dfcdee":6699,"eecbebbc":6700,"beebbbbee":6701,"bfbbecc":6702,"ddecdc":6703,"bbbcebec":6704,"bcceeed":6705,"bbcccccc":6706,"fccbdc":6707,"beecbdc":6708,"bcdbbed":6709,"ecfeecc":6710,"bebceebc":6711,"bbebebeee":6712,"fbfdf":6713,"eebebccc":6714,"bbdbcbf":6715,"dbeebec":6716,"ebccebf":6717,"bcbbeecc":6718,"dbbcdee":6719,"bbebbbbbf":6720,"eecffc":6721,"bdeedf":6722,"bbfddc":6723,"bbecbcbc":6724,"fecbbbe":6725,"bbebebcc":6726,"edbcbec":6727,"bbebbdf":6728,"bebddbc":6729,"beebebbbe":6730,"dbbbfcc":6731,"bbbbbcbf":6732,"bceca":6733,"edcecbd":6734,"bafbc":6735,"befbebf":6736,"eabca":6737,"fccbfc":6738,"eefddc":6739,"bdbedec":6740,"bfbddc":6741,"ebdbedd":6742,"bbbbcbebe":6743,"beccbdc":6744,"bedd</w>":6745,"eccfbe":6746,"bceebebc":6747,"bdeebcc":6748,"bbdcbbd":6749,"ecfbebc":6750,"ecdbbbd":6751,"eccfbf":6752,"ebffdc":6753,"dbbbdf":6754,"edcbcbd":6755,"ebfbebf":6756,"dccfed":6757,"bbbdfbc":6758,"cccded":6759,"bbeffc":6760,"bbddbbc":6761,"dceefc":6762,"eeceedd":6763,"dbfda":6764,"acebe":6765,"eebcfbc":6766,"eebdef":6767,"eeecdbe":6768,"eecbdbd":6769,"bedcdd":6770,"fcceecc":6771,"ecccbbc":6772,"dfcbec":6773,"dbbcdbe":6774,"debcdd":6775,"fffef":6776,"babef":6777,"dbddebb":6778,"edbbebf":6779,"fddef":6780,"ebdecbd":6781,"ebecfbc":6782,"beefa":6783,"edcedcc":6784,"fccdee":6785,"fbdbdc":6786,"dfca":6787,"eeebebebe":6788,"eccbbbf":6789,"ebdedcc":6790,"dbbcbbbc":6791,"eeeebec":6792,"bbdbcebb":6793,"acbbf":6794,"fcecec":6795,"bbedbebe":6796,"eceebec":6797,"ebbc</w>":6798,"dedbbbe":6799,"eebbeccc":6800,"edbedcc":6801,"ebdffc":6802,"dbdbfc":6803,"bfdbbbe":6804,"ebfebcc":6805,"eabef":6806,"bcbeddc":6807,"bceebecbbec":6808,"bfbcbec":6809,"eabdc":6810,"fbddc":6811,"bfbdf":6812,"fcdebd":6813,"bbffebb":6814,"efcfee":6815,"edecef":6816,"ebeebbebb":6817,"fffdc":6818,"dedbebe":6819,"dbdbcbc":6820,"bcbdbec":6821,"bcbddee":6822,"ebbebccc":6823,"efeba":6824,"dbfbbbe":6825,"debbbbee":6826,"ecdcecc":6827,"bfbdebb":6828,"bbbfdbc":6829,"bebbcccc":6830,"eebddbe":6831,"dbdfee":6832,"dededc":6833,"bbccbcbc":6834,"debebcc":6835,"bbcbeebe":6836,"eabebe":6837,"ebccfbc":6838,"bbedebd":6839,"ecbcbdc":6840,"dceebbc":6841,"acebc":6842,"bebdbbbc":6843,"bbdcdee":6844,"bfebbebb":6845,"beeddbe":6846,"dbbdbbd":6847,"bdccccc":6848,"edecbcc":6849,"ebbecef":6850,"bbeedcc":6851,"edeedf":6852,"bcbdfc":6853,"bedbfcc":6854,"ebbbeebf":6855,"bceedcc":6856,"bddbbdd":6857,"efbcef":6858,"eecbcdc":6859,"fbdebd":6860,"fbfbbf":6861,"dfda":6862,"dbbbdbbd":6863,"beecbebe":6864,"ebbdebbc":6865,"dbbbb</w>":6866,"bbbcbecc":6867,"bbebbbeee":6868,"edbddd":6869,"dcebbcc":6870,"eccbced":6871,"bbbeddc":6872,"decbbbd":6873,"bebdff":6874,"bcbbcbbbb":6875,"ebcfebe":6876,"ebbcefc":6877,"eabeee":6878,"fccdbc":6879,"beebea":6880,"bbcecbe":6881,"fceef":6882,"beecbbec":6883,"fefdd":6884,"fcbdbd":6885,"dbefdc":6886,"acbbbb":6887,"dbbcbcc":6888,"fdc</w>":6889,"bfecdd":6890,"bbccbbee":6891,"ebcbcdd":6892,"dcbcebe":6893,"bbcdbcc":6894,"ebbceebc":6895,"dbffbc":6896,"fecebd":6897,"fbdbbd":6898,"decefc":6899,"beccbecc":6900,"bfecef":6901,"ebbfedc":6902,"dbdbbec":6903,"bbccebf":6904,"fddbec":6905,"edbcecc":6906,"efbbbec":6907,"bcfbccc":6908,"bbbcbccc":6909,"bbbebcebb":6910,"bdcfbe":6911,"dbfebf":6912,"acff":6913,"bedebfc":6914,"dceded":6915,"eaebf":6916,"ecccebe":6917,"ebbcdcc":6918,"ebbcfec":6919,"ececdee":6920,"eeebeef":6921,"bebbbebbbb":6922,"bbddbbbd":6923,"edccccc":6924,"dcbdef":6925,"dbecef":6926,"bbabba":6927,"decbeed":6928,"bbbfbbbd":6929,"fedbdc":6930,"edeedbe":6931,"dcedbf":6932,"dbfdbd":6933,"ebcecbe":6934,"bbcdebd":6935,"eccbebf":6936,"bbbcbbdc":6937,"dbedebe":6938,"dccfee":6939,"fccefc":6940,"fbfdd":6941,"adba":6942,"ebbcdebb":6943,"eabbd":6944,"bcbcbdc":6945,"afef":6946,"dfbbebb":6947,"bcecbbbb":6948,"bbcfebe":6949,"deebccc":6950,"becbcee":6951,"dbbceec":6952,"eddeccc":6953,"fccded":6954,"beecdbd":6955,"beecbecc":6956,"eefded":6957,"bbefdbe":6958,"ecccebd":6959,"eceebbf":6960,"fbeebcc":6961,"beebeeeee":6962,"ecdbbbbc":6963,"deeeebc":6964,"bfcefc":6965,"dccbef":6966,"eedcfc":6967,"aebcc":6968,"abbebe":6969,"eeec</w>":6970,"ebbcfee":6971,"dbfeec":6972,"bebbebfc":6973,"ebbbdef":6974,"ecbcbbbe":6975,"ebdcecc":6976,"bccfebb":6977,"feddbc":6978,"ddbbebe":6979,"eeccdec":6980,"bbccdbd":6981,"bcbdbbc":6982,"dcbcfc":6983,"bbbcbeebb":6984,"eeccdbc":6985,"ecfbef":6986,"edceedd":6987,"debbbdc":6988,"eeecbdc":6989,"bbef</w>":6990,"efcbebe":6991,"dbbcebc":6992,"debefc":6993,"bedcebc":6994,"ebbbcbbbe":6995,"bbccfbc":6996,"ececdbe":6997,"bcccccccc":6998,"acdbe":6999,"dfcbcc":7000,"ececdec":7001,"bcbffc":7002,"bdbeebf":7003,"dcbbebd":7004,"ddeedd":7005,"bffecc":7006,"dfeebc":7007,"edcbccc":7008,"bafee":7009,"deebebd":7010,"defbbf":7011,"becdedc":7012,"bbebbbef":7013,"eeebbef":7014,"bbdeeed":7015,"dbbdbbc":7016,"bbbecbbc":7017,"ebecdbd":7018,"fbdfbc":7019,"bbdecbd":7020,"dcbebbbb":7021,"bbbbfbbc":7022,"ebecbebe":7023,"fecbbbc":7024,"bcfbbbf":7025,"bccbbef":7026,"edcdedc":7027,"edebbbd":7028,"beceedd":7029,"beebebeee":7030,"eccbbdd":7031,"bccbbdd":7032,"bffebd":7033,"dcebecc":7034,"ebecded":7035,"bcbda":7036,"eefbbebe":7037,"debcccc":7038,"bbbbbbcbbbb":7039,"bcbbbbbbbbbbbb":7040,"eefbecc":7041,"bfbebcc":7042,"eebcded":7043,"dcdbbbe":7044,"ebecbebc":7045,"eebddbc":7046,"decceec":7047,"bfdccc":7048,"becffc":7049,"ebfdebb":7050,"debebbbe":7051,"fbdbebe":7052,"bcbebbbbc":7053,"dcbcccc":7054,"efbefc":7055,"beceeee":7056,"bbccbebc":7057,"eccdbec":7058,"bebddec":7059,"eceedbd":7060,"bdbcbbbc":7061,"bbedbbbc":7062,"bedcfc":7063,"deeeecc":7064,"eebcbbee":7065,"bceeff":7066,"bebbbbbbbc":7067,"abbdc":7068,"bccac":7069,"bbccbef":7070,"bbedbdc":7071,"bfecbbc":7072,"dbfedc":7073,"eeeceec":7074,"ebbdced":7075,"ddedbd":7076,"bbbefbf":7077,"ecedccc":7078,"ebbdcdc":7079,"dcbeecc":7080,"bbecbbebb":7081,"eeecfc":7082,"fecfbc":7083,"bbedded":7084,"ddbcdd":7085,"fecbcbc":7086,"bebbbbbbebb":7087,"eccecdd":7088,"dbebbebe":7089,"eabbbc":7090,"ebbeded":7091,"afdd":7092,"dcbedf":7093,"bbfeeee":7094,"dbebbbbc":7095,"bbbdbef":7096,"debedf":7097,"bbdfdd":7098,"dcbea":7099,"edceeee":7100,"dfcbbc":7101,"ebdbcee":7102,"bdbcdee":7103,"bcbbcccc":7104,"ddbbef":7105,"bbbdbebd":7106,"efcebf":7107,"eceeddc":7108,"bcbbbbbcbbbb":7109,"ebbecfc":7110,"ddecec":7111,"ecbcbebc":7112,"dcbdebb":7113,"babda":7114,"efcbcbc":7115,"fecbef":7116,"ebbbbedc":7117,"eccbbebb":7118,"edececc":7119,"ebdbbebe":7120,"bccebdc":7121,"debbbebc":7122,"fbbb</w>":7123,"dbceeee":7124,"dbdbbdd":7125,"eecbbebe":7126,"fdebbcc":7127,"dbefbe":7128,"bcfebec":7129,"ebbfbebe":7130,"ddeeebb":7131,"eeccff":7132,"ddbddc":7133,"edcffc":7134,"baac":7135,"eeccbdc":7136,"ddeebe":7137,"eccbcdc":7138,"bbbbcbcbc":7139,"dcbbecc":7140,"fcbebbc":7141,"bbfbeebb":7142,"beecbeec":7143,"bebbeba":7144,"bbbebcec":7145,"dbebeebb":7146,"bbedbebc":7147,"dabba":7148,"bcbdebe":7149,"ebcbdcc":7150,"bbbfbbebb":7151,"bbedbbec":7152,"bbbbbeebe":7153,"efdebd":7154,"cccdbd":7155,"bbbbcbbee":7156,"bdfbbee":7157,"bbccdec":7158,"ebccbebe":7159,"bbbbcbbebb":7160,"ecbdbec":7161,"bccdebc":7162,"ecbcbbbc":7163,"bcbebccc":7164,"ebedecc":7165,"eaeec":7166,"eeeebeebb":7167,"eeccdbe":7168,"bbbbbcee":7169,"bebdedc":7170,"edfbbbe":7171,"efcbbbe":7172,"fbcbbec":7173,"bbccbfc":7174,"bbccbbbd":7175,"bbdbddd":7176,"eeecbbbc":7177,"dcbebec":7178,"bbbbdef":7179,"bfdbdc":7180,"ebeecdc":7181,"ebceeebb":7182,"dfbbdc":7183,"bdcfdc":7184,"bbbfbfc":7185,"ecfded":7186,"deedef":7187,"dccbebc":7188,"bbfcbbc":7189,"bcfbbebb":7190,"ebdbced":7191,"bfbebbd":7192,"edeebbd":7193,"ebcbebbbb":7194,"bbdfef":7195,"ebffebb":7196,"beeeeeebe":7197,"ecfddc":7198,"eeeda":7199,"bcfeecc":7200,"eefbccc":7201,"ebbfbbbc":7202,"dbfbbbc":7203,"bdecdf":7204,"aceec":7205,"ecbcbebe":7206,"bbbefcc":7207,"dbecdf":7208,"bbabbc":7209,"bdebdcc":7210,"ecceebe":7211,"bccbdbd":7212,"bbfbcbd":7213,"dbebbdc":7214,"dbcbcbd":7215,"babfc":7216,"dbdbebd":7217,"feeebd":7218,"fcdbcc":7219,"fcbefc":7220,"ebbcebec":7221,"bbbdbcbc":7222,"bbbdbbdd":7223,"efcedc":7224,"bdeeebc":7225,"efdbb":7226,"bbbfebf":7227,"bcbeebec":7228,"bebfbec":7229,"edeac":7230,"efbea":7231,"dcceebc":7232,"bbbdbfc":7233,"bcccebc":7234,"eebfebe":7235,"befbeec":7236,"beeebcbc":7237,"dbbda":7238,"bdeeecc":7239,"edbcebd":7240,"efecdc":7241,"bbeefbe":7242,"befddc":7243,"bcecdbc":7244,"ecbdccc":7245,"decba":7246,"fbfbcc":7247,"bdecdee":7248,"bbfdef":7249,"befbbef":7250,"bbbeeeebb":7251,"bbdcff":7252,"efb</w>":7253,"eedcdf":7254,"bcbbb</w>":7255,"eebdbcc":7256,"dfcdbe":7257,"dedbecc":7258,"bbccfee":7259,"bdbcdbc":7260,"bacba":7261,"eedb</w>":7262,"bbbfebd":7263,"decdeec":7264,"dccbbee":7265,"fedeec":7266,"bbfcdf":7267,"eeedccc":7268,"fcecdc":7269,"fbdecc":7270,"dddbdc":7271,"bbcdbb":7272,"bebcba":7273,"bdbebbec":7274,"bbbbbbebd":7275,"bcdbdcc":7276,"dcfebd":7277,"bdf</w>":7278,"fcbdcc":7279,"bbbdebbc":7280,"fbdedc":7281,"ebdcdf":7282,"bdfefc":7283,"bccfdd":7284,"debbedc":7285,"fccbebe":7286,"dfcebe":7287,"efbedd":7288,"beebebbee":7289,"dbebeed":7290,"dbdebbc":7291,"fbcdcc":7292,"ebfbeebb":7293,"bdbcebd":7294,"edbebbbc":7295,"debcebc":7296,"edfdee":7297,"bebdbdc":7298,"bfbca":7299,"eccfecc":7300,"bebbcbbc":7301,"dcecdee":7302,"eecfbf":7303,"bbbddebb":7304,"eccfebc":7305,"bbbeebcc":7306,"dbcbbebb":7307,"efdecc":7308,"ebfbeec":7309,"eeeebbebe":7310,"ecbebbebb":7311,"ecbe</w>":7312,"dbbebbbd":7313,"dbddbf":7314,"edacc":7315,"becceecc":7316,"bdbebbcc":7317,"eeebac":7318,"beeeea":7319,"ebfbccc":7320,"dedbbbc":7321,"ecccdf":7322,"bebfebe":7323,"bacea":7324,"efbbbcc":7325,"bbdfebe":7326,"dbcbeed":7327,"ebecbbee":7328,"bcbcbbec":7329,"febbff":7330,"edcbedd":7331,"bfbcccc":7332,"bccbbebe":7333,"bbdbbebd":7334,"ebdcbbc":7335,"bbefbec":7336,"bbbbbbbbbbebb":7337,"ebbcbbbf":7338,"bbdcebd":7339,"ecfbebe":7340,"ebffbe":7341,"dbceebd":7342,"bbbdecc":7343,"dedfec":7344,"daba":7345,"bbfcbbbb":7346,"bbbcbbebe":7347,"bbecbebd":7348,"ecbebccc":7349,"eecfef":7350,"dbeac":7351,"bdcea":7352,"eeecebc":7353,"bebacc":7354,"ebebcbbbb":7355,"fffed":7356,"bccecec":7357,"bbbdbbed":7358,"bfcdbf":7359,"ebccfec":7360,"debcfc":7361,"bececbd":7362,"dbebced":7363,"efcba":7364,"fbbebfc":7365,"eeed</w>":7366,"efedcc":7367,"bbfbbebe":7368,"ffbbbf":7369,"bbeebebd":7370,"bbfbcec":7371,"bbbcfbd":7372,"ebbcbeec":7373,"bbffed":7374,"decdbf":7375,"decbebd":7376,"ebeffc":7377,"ecbeba":7378,"bceedbd":7379,"eeebea":7380,"bfbebbf":7381,"bbeebeec":7382,"bbbdbbbbbbbb":7383,"fdefcc":7384,"bccbced":7385,"bcbebbbf":7386,"eceddd":7387,"dcbedbe":7388,"bbfebcc":7389,"dbcebec":7390,"bbdddbe":7391,"bbbbbebbbe":7392,"decfcc":7393,"defebe":7394,"ebceef":7395,"bebcbeee":7396,"beccdee":7397,"bedefcc":7398,"dbcdebe":7399,"fbfbec":7400,"bcdbbdc":7401,"bbfdbbc":7402,"bceeebd":7403,"feeeec":7404,"bfeddc":7405,"fecba":7406,"ecccdee":7407,"ebeecec":7408,"ffebec":7409,"eebcebf":7410,"defdee":7411,"bcfebcc":7412,"bccca":7413,"bdfebbc":7414,"bbdeebf":7415,"bbeeea":7416,"bbecbeee":7417,"defdcc":7418,"debcdee":7419,"bbbccbbc":7420,"bdbcbbbe":7421,"becbbfc":7422,"bbecdebb":7423,"ebeedcc":7424,"ddeebf":7425,"febbfc":7426,"ecfbbcc":7427,"abcbf":7428,"eeeeebeebe":7429,"eedcebc":7430,"ebedebd":7431,"beccdbe":7432,"ebdcdbe":7433,"bebcdebb":7434,"dbbcbbbe":7435,"fbcba":7436,"eebeddc":7437,"efecbf":7438,"fcccccc":7439,"ddfbbc":7440,"ebcbcbbc":7441,"dbbecbbc":7442,"bebbbdcc":7443,"bfe</w>":7444,"bbffef":7445,"edcecdc":7446,"bbbcdbbbb":7447,"ecbcded":7448,"dbecdee":7449,"ecbddf":7450,"ebebfcc":7451,"ebccbfc":7452,"bedebbcc":7453,"ab</w>":7454,"bfbdef":7455,"ebcbefc":7456,"fcbcbe":7457,"fbcfbd":7458,"bcbcdbd":7459,"eeeebdc":7460,"bcfac":7461,"ecccdcc":7462,"dbeceec":7463,"beedbbbb":7464,"bbdffc":7465,"bbecba":7466,"deccccc":7467,"efbcbbc":7468,"fcbcebb":7469,"bbdd</w>":7470,"dbbcdbd":7471,"feeea":7472,"fecbeec":7473,"eccca":7474,"dbecbbc":7475,"bbabbbe":7476,"dcfedc":7477,"efecbe":7478,"bcbddbe":7479,"eedcecc":7480,"ddc</w>":7481,"debcbbc":7482,"bcdbbebe":7483,"ebbfbdc":7484,"fceeed":7485,"becfbbc":7486,"ebfddc":7487,"ebbcba":7488,"eeeebbebb":7489,"ecbcfbc":7490,"bcccbbbb":7491,"bdbddbd":7492,"febea":7493,"ecbbbccc":7494,"bbeebbed":7495,"dbbeddd":7496,"bcbcbef":7497,"bddb</w>":7498,"bfefcc":7499,"bfeea":7500,"bbdbdcc":7501,"fecefc":7502,"ebbdbfc":7503,"bdcbbebb":7504,"ecbdecc":7505,"edbca":7506,"bebbebbcc":7507,"bfcbbcc":7508,"eebedec":7509,"bceebebe":7510,"ebffef":7511,"dbfbebe":7512,"dbbcff":7513,"fdcdec":7514,"efcbecc":7515,"dedba":7516,"debca":7517,"ebcbbbcc":7518,"befbeebb":7519,"dedbbcdbf":7520,"eeebbbebe":7521,"bbbdbbcc":7522,"eebdebd":7523,"bceddbe":7524,"dceba":7525,"dbbbfbf":7526,"ebecebbc":7527,"ecfbbec":7528,"ebebcebe":7529,"ebcbeef":7530,"bbdbcf":7531,"bfcfbd":7532,"bcbcfbc":7533,"eecdbbd":7534,"bbdeef":7535,"bebddbd":7536,"beeddee":7537,"edbbbbbbbb":7538,"dcdebf":7539,"ebebcef":7540,"feebebc":7541,"ecbdeec":7542,"bcdbbef":7543,"bffccc":7544,"ebecdcc":7545,"ebccbbee":7546,"eeee</w>":7547,"becbcbe":7548,"bdcbbdc":7549,"bcbcdec":7550,"bffeec":7551,"effebc":7552,"dbbcdbc":7553,"eedbbebe":7554,"eddbbcc":7555,"dcbcebc":7556,"ebefbbbb":7557,"bbbebcbe":7558,"fdcdee":7559,"ecbdbbc":7560,"ecbbeecc":7561,"bbbfbebc":7562,"bbbbcdbc":7563,"debeebc":7564,"bcececc":7565,"aeecc":7566,"ecfbccc":7567,"dcfbbd":7568,"dfffc":7569,"dbbecdd":7570,"ebbbcdbe":7571,"ecdefcc":7572,"bfcbeee":7573,"efecec":7574,"cccbbbc":7575,"becbcebb":7576,"eebcdbd":7577,"eebdbbf":7578,"eedceec":7579,"eeeddf":7580,"eceb</w>":7581,"ebbfbbee":7582,"fdeba":7583,"edbedbd":7584,"fecbecc":7585,"dfcff":7586,"beebbbbf":7587,"ecdbbbf":7588,"fccebf":7589,"bebfbbf":7590,"debbdbd":7591,"edbceec":7592,"ebeeebbbb":7593,"eaecc":7594,"eceeedc":7595,"effdf":7596,"becdbbbb":7597,"cccbbbe":7598,"feedbd":7599,"debebebe":7600,"ebebdbc":7601,"bfcbecc":7602,"eebcdcc":7603,"defbdc":7604,"bbfcfc":7605,"ebbbedbc":7606,"eccbdcc":7607,"beeddec":7608,"edebbed":7609,"bbdbeebe":7610,"dbcbecc":7611,"eeeeeeef":7612,"deecdec":7613,"ecbcdcc":7614,"bbebebbebb":7615,"dcfdbe":7616,"babbebb":7617,"bbbbcbf":7618,"bcfbbed":7619,"bbadd":7620,"bedcbbc":7621,"ebbbcbbf":7622,"ebbcbbed":7623,"fecedc":7624,"debbdec":7625,"eccdebd":7626,"feeddc":7627,"bbbcdbf":7628,"beeebebc":7629,"bebdded":7630,"defdbc":7631,"bbdcbdc":7632,"becbcbf":7633,"fbedbbc":7634,"debbebbc":7635,"bceefbc":7636,"bbbbcdf":7637,"bdfbef":7638,"dcbebcc":7639,"bceebfc":7640,"bdeebdc":7641,"ebdfbbc":7642,"babebc":7643,"bbccbbec":7644,"bbbfbef":7645,"eeeebeef":7646,"febbccc":7647,"bedeba":7648,"ebeecbf":7649,"bcbcded":7650,"bdbcbbf":7651,"eccbdbd":7652,"bbccdcc":7653,"fdcebc":7654,"bdeedbc":7655,"bdecccc":7656,"dcfccc":7657,"ddcfbc":7658,"eeeeeeebb":7659,"bbebcbec":7660,"dbbedbf":7661,"ebbeebbebb":7662,"bbefdf":7663,"ebbdddd":7664,"bbbbbedc":7665,"dbbbdebe":7666,"feddcc":7667,"bbdcdbc":7668,"ebebbebd":7669,"bebefcc":7670,"fbdbfc":7671,"dbbcbbf":7672,"bbdddf":7673,"edeca":7674,"bcbdeec":7675,"edbcbcc":7676,"ffcccc":7677,"dedbfc":7678,"ebecedc":7679,"bcfbeee":7680,"bdfbebc":7681,"aeea":7682,"ffbecc":7683,"bcbcbccc":7684,"bcdddd":7685,"bdecbbc":7686,"ebebefc":7687,"ffbbef":7688,"bbecfec":7689,"eefefc":7690,"dadf":7691,"ecbcdbd":7692,"eedddd":7693,"bbbdbbbf":7694,"ecbcbfc":7695,"fddeec":7696,"febbbbf":7697,"edfebf":7698,"dcecebe":7699,"feefbc":7700,"bcecbeec":7701,"eceeef":7702,"ebdbebbc":7703,"ffbbed":7704,"ecccdec":7705,"debedbe":7706,"fbbbdcc":7707,"dcfbbbb":7708,"dbfbfc":7709,"becbeebc":7710,"bcceeebb":7711,"fbebbed":7712,"beebbbbbc":7713,"bbebcbbc":7714,"eeececc":7715,"fcdbbd":7716,"becdebd":7717,"dbdbeec":7718,"eebcbfc":7719,"fbdbbbe":7720,"defbbbb":7721,"fedbbbb":7722,"dcbcbbbb":7723,"dcbdbe":7724,"bbdbcbbbb":7725,"efcebbc":7726,"abfa":7727,"ebbfdbc":7728,"efeedc":7729,"defecc":7730,"edbeff":7731,"edefdc":7732,"bebcbecc":7733,"bcbcbbcc":7734,"fbfbf":7735,"becbbbec":7736,"bbfbcbf":7737,"bceeedc":7738,"febbdf":7739,"eceebbee":7740,"ecdbbdd":7741,"dceeebc":7742,"dcecdf":7743,"bbdcccc":7744,"dcbcbec":7745,"deeea":7746,"eeccfbc":7747,"ececdcc":7748,"eedd</w>":7749,"ebbfccc":7750,"ebebebec":7751,"fbebbbbc":7752,"bedcdec":7753,"bccbcbf":7754,"deedebb":7755,"ebecbbec":7756,"bebdbbee":7757,"edecebe":7758,"efbbeec":7759,"ffbbebb":7760,"ffbeec":7761,"bbebe</w>":7762,"bbbebcee":7763,"cccfbc":7764,"eebdebe":7765,"eeebebbee":7766,"bccfef":7767,"dbbcbebe":7768,"bbdddbc":7769,"beedeec":7770,"bbaba":7771,"bbfac":7772,"bcedbbc":7773,"edecbbbb":7774,"dbbbbbbebb":7775,"ecfbbee":7776,"ececbdc":7777,"bfbddd":7778,"beceeed":7779,"bbbedebe":7780,"ffbcbd":7781,"fbdfec":7782,"ebdcccc":7783,"ecfebcc":7784,"eceebbd":7785,"eedbfcc":7786,"ebbcfcc":7787,"beebbebc":7788,"edccecc":7789,"ebbeedbe":7790,"bfbcdf":7791,"ffebcc":7792,"dbbebecc":7793,"ebbbcbbbc":7794,"ddbcbe":7795,"bcbeeecc":7796,"adfc":7797,"bede</w>":7798,"edbedbb":7799,"fcfebc":7800,"ebfbcbd":7801,"dadbe":7802,"eceebbbe":7803,"ebbeefee":7804,"ebbbedbb":7805,"befdebb":7806,"bbecfee":7807,"fbdbebc":7808,"bbdcbbf":7809,"acccc":7810,"dcbcdf":7811,"ebebeebc":7812,"becbdbd":7813,"bebebeebe":7814,"befbbed":7815,"ebdbbef":7816,"ebecbfc":7817,"bbbfbdc":7818,"fcceebc":7819,"bdbebbebb":7820,"bdeebbf":7821,"ebdfdd":7822,"ebfeebc":7823,"deeac":7824,"bbeebbbbc":7825,"decbbcc":7826,"dedfbc":7827,"bbecbbed":7828,"dbecdbe":7829,"eeebbbbc":7830,"bdfddc":7831,"aecbc":7832,"edcfebb":7833,"bebcbbcc":7834,"fbddbd":7835,"dfbced":7836,"abcee":7837,"ebdecdc":7838,"dfdebe":7839,"bcbcbeec":7840,"bcfdef":7841,"bdbcdbd":7842,"ecdbbed":7843,"ddeef":7844,"ebefebc":7845,"ebebded":7846,"eadbd":7847,"ebbeac":7848,"bbdbbbcc":7849,"bbbfeec":7850,"bcbcebf":7851,"bbbffbc":7852,"bdeebbbe":7853,"ebeeea":7854,"ebcbba":7855,"ebdfebe":7856,"deefec":7857,"bbecbecc":7858,"dedebf":7859,"bfeebbbb":7860,"edbeebf":7861,"bbceedd":7862,"fcbeebc":7863,"badcc":7864,"dbbbbbbf":7865,"bbcbebec":7866,"fcbfcc":7867,"eadcc":7868,"bbddbec":7869,"bdfdbf":7870,"abeed":7871,"ebbcbbbbc":7872,"beecdebb":7873,"bdbcbdc":7874,"ebcebfc":7875,"bbdbdbbbb":7876,"bbbdedc":7877,"bebcbbebb":7878,"efcefc":7879,"ebedbb":7880,"bbdbbeec":7881,"cccfcc":7882,"bbbddcc":7883,"fecddc":7884,"bbbbfed":7885,"ebeeebeee":7886,"bbecdcc":7887,"bbddef":7888,"fefdf":7889,"ecceebf":7890,"ebccdbd":7891,"fbebbdc":7892,"deeceec":7893,"eceebbbc":7894,"ecbbac":7895,"ebebbeec":7896,"bebcfee":7897,"bbecedc":7898,"bcbcbbee":7899,"ffcdd":7900,"dbbbba":7901,"ebcbfcc":7902,"bbdbcdc":7903,"bbedbbee":7904,"ecbddee":7905,"bebbedcc":7906,"bffbbbe":7907,"edbebbee":7908,"ebbefbf":7909,"dcecbbc":7910,"eccecbe":7911,"ebdebbcc":7912,"dbefbf":7913,"bbebcbbbe":7914,"bfdebf":7915,"ebbceebd":7916,"eebceebc":7917,"bdffcc":7918,"efebfc":7919,"fceedd":7920,"ecfba":7921,"ebbeeff":7922,"ebeeeed":7923,"ebeecebb":7924,"bbdecec":7925,"bbdbeef":7926,"decbeee":7927,"bdbd</w>":7928,"dddedc":7929,"bccbedd":7930,"bbdecbe":7931,"dbcdef":7932,"bbbfdee":7933,"eebebbbbc":7934,"bdbebfc":7935,"ebbecbbd":7936,"bbefbbbe":7937,"eeecff":7938,"bebfbbbe":7939,"ecfdbf":7940,"ddbded":7941,"fcebfc":7942,"eececdc":7943,"bfeefc":7944,"bebebccc":7945,"dabbc":7946,"fbbbfcc":7947,"edcdbec":7948,"bcbcbbbd":7949,"bbabbbc":7950,"bfbac":7951,"efdccc":7952,"ddbcbf":7953,"feedbf":7954,"ebdeedd":7955,"cccbfc":7956,"ddecbe":7957,"bebebebbbb":7958,"bbecefc":7959,"bbecbbcc":7960,"bfecbec":7961,"ebcbded":7962,"eeceeed":7963,"bbdbded":7964,"beebbbec":7965,"dfdbbc":7966,"edcecec":7967,"befbebd":7968,"bcbccccc":7969,"bbedbbbd":7970,"bdfba":7971,"fffdd":7972,"befbbebe":7973,"feedec":7974,"debcdec":7975,"deddef":7976,"bbbbcbdc":7977,"ebebebbee":7978,"ebcceecc":7979,"edbbebbc":7980,"ebceced":7981,"ebcdbb":7982,"ebcecdd":7983,"bbcdecc":7984,"bbdedbd":7985,"bbdfbbbb":7986,"bbbecbec":7987,"bbdfebc":7988,"bfbbebf":7989,"efcfed":7990,"bdbeba":7991,"effbbbb":7992,"eebeebec":7993,"eefac":7994,"eecbcee":7995,"deddebb":7996,"eeecbbbe":7997,"edcbcec":7998,"ecfeccc":7999,"ebddbcc":8000,"bbbdddc":8001,"ebfebec":8002,"fbcbeec":8003,"eebebba":8004,"ebcfa":8005,"ebdedbd":8006,"bbbcefc":8007,"bbeebecc":8008,"eebdff":8009,"bcbbcbbc":8010,"ebcdbdc":8011,"ebfac":8012,"aeca":8013,"dceedbe":8014,"bbbbebbebb":8015,"bfcdebb":8016,"bbebbbdc":8017,"fbeebec":8018,"dfedcc":8019,"bbfbbdc":8020,"bbeeddc":8021,"beeedee":8022,"eebeebcc":8023,"bbbcbeed":8024,"beeebbbf":8025,"bbebbdbc":8026,"ecbdedc":8027,"adebe":8028,"fef</w>":8029,"fcbeef":8030,"bfcbebd":8031,"bbbbceec":8032,"eefeecc":8033,"efbfcc":8034,"bccbcbe":8035,"bdcdfc":8036,"bebcefc":8037,"eebddee":8038,"eeebefee":8039,"bedc</w>":8040,"dceedf":8041,"efeea":8042,"dbeebcc":8043,"bcedbec":8044,"ebfbbed":8045,"fbcdbf":8046,"bbebbdee":8047,"bcbbebdc":8048,"ebbbb</w>":8049,"efbcfc":8050,"ebebcebc":8051,"ebeeebbee":8052,"dedebbc":8053,"fbcbbbd":8054,"dccccccc":8055,"ebddedc":8056,"babcbc":8057,"deddbf":8058,"fbcdebb":8059,"eebeac":8060,"efedbd":8061,"bdcbedc":8062,"ecec</w>":8063,"ebceddc":8064,"bbcbdcc":8065,"bfcebec":8066,"edbcdee":8067,"bfecdf":8068,"bcceedd":8069,"befbeef":8070,"ecbc</w>":8071,"efcdbf":8072,"bbebbbebbbb":8073,"bbfcbec":8074,"dcdbbbc":8075,"bccdeec":8076,"bceeebbc":8077,"beeddbc":8078,"bbbcdbbc":8079,"bebceecc":8080,"fecfed":8081,"ecbcbbee":8082,"eebdbdc":8083,"bbfdebe":8084,"bbbbcdee":8085,"dcbebbd":8086,"bbcbefc":8087,"fccdcc":8088,"ebceebbc":8089,"bbedecc":8090,"bbcbcef":8091,"edcdebd":8092,"bbbbcbbec":8093,"beccbbbe":8094,"ecbcbbec":8095,"eeefa":8096,"bfbdbbc":8097,"edcdbbc":8098,"babbcc":8099,"bbeedbf":8100,"fbedef":8101,"ebbddcc":8102,"ebeb</w>":8103,"deceecc":8104,"dbefebb":8105,"ebfeebf":8106,"beeeebbc":8107,"ecceddd":8108,"dbbddbd":8109,"decbcec":8110,"dbdfec":8111,"bceebef":8112,"eeebbbeee":8113,"eceeeec":8114,"bdeedee":8115,"ebbecbcc":8116,"ebdb</w>":8117,"ffdebb":8118,"bfcdef":8119,"dbdfbd":8120,"eefdef":8121,"bebbbebbbe":8122,"dacea":8123,"edbbbfc":8124,"ececdbc":8125,"bebeeebc":8126,"dbbebbbc":8127,"bcbcdcc":8128,"ecbda":8129,"bdeceec":8130,"bfbcbbf":8131,"bfdedc":8132,"becbcdc":8133,"bdcdebe":8134,"edfbbbc":8135,"fbeac":8136,"eeecbbf":8137,"eeebbbbf":8138,"fbbeba":8139,"bdcbbdd":8140,"decbbed":8141,"deeca":8142,"eecbeef":8143,"bbbcfcc":8144,"bcebbbbc":8145,"edceeed":8146,"cccddc":8147,"bbefbbee":8148,"bdfbbbd":8149,"dfbebf":8150,"dffef":8151,"eebebbed":8152,"ececa":8153,"ebcbcfc":8154,"eccdbcc":8155,"fbddcc":8156,"eba</w>":8157,"dde</w>":8158,"ebdfef":8159,"ebffed":8160,"deceebc":8161,"decbedc":8162,"bcbcbcbd":8163,"fdda":8164,"edccfc":8165,"edeedbc":8166,"dabea":8167,"dbdbbed":8168,"bbebefc":8169,"debcdbe":8170,"efbfbeee":8171,"bdcfbf":8172,"dbceecc":8173,"eefdebb":8174,"ecbeac":8175,"bcccdee":8176,"fccbebc":8177,"eeeedbe":8178,"ecdbbdc":8179,"ebbdcbd":8180,"ebeedbd":8181,"befebec":8182,"bbebbbbec":8183,"fbedfc":8184,"bcbebbebc":8185,"eeecdee":8186,"ebbbebbbd":8187,"beeedcc":8188,"ececbbbb":8189,"ffcff":8190,"bdbcbebe":8191,"dcbeebd":8192,"efbdec":8193,"bbbebbdd":8194,"bbbdfee":8195,"bebfbebe":8196,"bddbbbbc":8197,"eccbeebb":8198,"ebfbcec":8199,"debcbbbb":8200,"bdbddbe":8201,"bdfded":8202,"beaa":8203,"edecdf":8204,"eecbbef":8205,"eecbeebe":8206,"ebbcbecc":8207,"bebbcbec":8208,"bebf</w>":8209,"bcfdebb":8210,"ddbcebb":8211,"ebdbdcc":8212,"befeebc":8213,"bcbcbfc":8214,"bbbfba":8215,"eefebec":8216,"beedbcc":8217,"beddbec":8218,"bdbedcc":8219,"bebcebec":8220,"fedded":8221,"bcee</w>":8222,"eccbbebe":8223,"bbdcdbd":8224,"efdbdc":8225,"fceebf":8226,"bbdbefc":8227,"dbbeded":8228,"dbbbebbbb":8229,"edbb</w>":8230,"effbcc":8231,"dffebb":8232,"dcbbbdc":8233,"ffbcec":8234,"bbeedebb":8235,"fdcfec":8236,"bbbccccc":8237,"becceebc":8238,"eefbbed":8239,"bbddebe":8240,"dbbbbdbe":8241,"ddcfec":8242,"eebeefc":8243,"bdeeeec":8244,"dcbfed":8245,"becfef":8246,"beeebeef":8247,"bedcbcc":8248,"ecfea":8249,"bfebbbf":8250,"edebbbbc":8251,"edecbbd":8252,"beccbebc":8253,"bbdcbbbe":8254,"deecdee":8255,"edecccc":8256,"ecceced":8257,"bdcdebc":8258,"bcbcfee":8259,"ecbedebb":8260,"daccc":8261,"bfdbbbc":8262,"ebdfebc":8263,"badbf":8264,"bbbddbf":8265,"beeebbec":8266,"ddeced":8267,"ebcecbf":8268,"ebfbbef":8269,"dbbbdef":8270,"bbbdbeec":8271,"bcbedebe":8272,"eddedcc":8273,"fcbded":8274,"bdceeee":8275,"bebebbed":8276,"bfceebc":8277,"efeeed":8278,"ebdbcdc":8279,"eedcedc":8280,"bbbebeebe":8281,"dbeca":8282,"bebfff":8283,"bfbbccc":8284,"dceebec":8285,"efbdbf":8286,"bbeebbef":8287,"dbffcc":8288,"fdcdbe":8289,"bdbeebbc":8290,"cccccccccccc":8291,"dcecbec":8292,"dcbceec":8293,"bfcbeed":8294,"fecbbec":8295,"bbbbcbebc":8296,"bedcff":8297,"dcbeeec":8298,"bbfeebd":8299,"ebeebfc":8300,"bbdbcbbc":8301,"bbfdfc":8302,"bbbcbebbbb":8303,"eaeeee":8304,"ebccdcc":8305,"dbecdec":8306,"edcceec":8307,"bbdbdbf":8308,"bbffdd":8309,"edbbcdbf":8310,"dcbcdee":8311,"fbbedcc":8312,"fcbeebe":8313,"bbfecbc":8314,"bcbdccc":8315,"bdbbebec":8316,"ebcbebec":8317,"dbcdbbc":8318,"bdcdbbc":8319,"becbeebe":8320,"dbddbbbb":8321,"ebccefc":8322,"ebdcdee":8323,"edebbbbbb":8324,"beeebbcc":8325,"bcccdcc":8326,"eceeebd":8327,"bdbbefc":8328,"bbdbdbc":8329,"baedc":8330,"beeebbbd":8331,"feebcbc":8332,"febbbbbe":8333,"fbbcbbc":8334,"edbcdbe":8335,"bbdeedd":8336,"beecfec":8337,"bbbbcbbcc":8338,"febbeec":8339,"bdbddf":8340,"bfbedf":8341,"bfbceec":8342,"ebbcdbf":8343,"debcff":8344,"bcccdf":8345,"adbbbb":8346,"befdef":8347,"bedcdee":8348,"dbbdbec":8349,"ebfdef":8350,"befbecc":8351,"bceebeec":8352,"bdfbbec":8353,"abced":8354,"ebeebbebe":8355,"ddeddc":8356,"fbdded":8357,"edbedec":8358,"bbeeefc":8359,"bbefbcc":8360,"ebbbcccc":8361,"babbec":8362,"bbccfec":8363,"bcdbbfc":8364,"edeebdc":8365,"ebbcebcc":8366,"decdebc":8367,"bbdcbbbc":8368,"ebbbcbcc":8369,"bbbbeebbbb":8370,"bdcdeec":8371,"ebecbcbc":8372,"bbeebebbbb":8373,"eebcbbec":8374,"fbdbbbc":8375,"eeccfec":8376,"bcbdebc":8377,"beedebc":8378,"ebebcdd":8379,"bceeddc":8380,"bdbeded":8381,"bffdbc":8382,"decebec":8383,"aeebd":8384,"efbddc":8385,"bdcebdc":8386,"fbcbebd":8387,"bfecfc":8388,"ebebdbf":8389,"fcfa":8390,"ebfbbebe":8391,"efcdebb":8392,"beebbbeee":8393,"bedcebd":8394,"eeebebbbe":8395,"eebceecc":8396,"bdceedc":8397,"efcbbec":8398,"bcccff":8399,"bdbdbbc":8400,"ebbeeccc":8401,"becbebbbb":8402,"efbdebb":8403,"ebecfec":8404,"bbddfc":8405,"ecebbbbbb":8406,"edbcdbc":8407,"fbcbecc":8408,"fbbcbbbb":8409,"ebeebbbbbb":8410,"ddbbebc":8411,"bccdecc":8412,"ebdcdbc":8413,"ecbeebcc":8414,"bbefbebe":8415,"dedceec":8416,"eedbbef":8417,"becdbcc":8418,"bcbeea":8419,"bdbcff":8420,"dbfbeec":8421,"fbdebf":8422,"bcbdff":8423,"bcceebf":8424,"bfcbbbf":8425,"fccfee":8426,"dbbdbbbd":8427,"feffee":8428,"bececec":8429,"bbddeec":8430,"dcecfc":8431,"efbeebc":8432,"eccbbbbc":8433,"bbeefebb":8434,"bcdcdee":8435,"dcebccc":8436,"ddfa":8437,"dabbbb":8438,"bbfca":8439,"fcdbdc":8440,"bbcfbec":8441,"ebdbebbbb":8442,"bbeebeebe":8443,"dbdbbcc":8444,"ebabbbb":8445,"bfdced":8446,"ebeeebebe":8447,"ebdbbebc":8448,"dbeeecc":8449,"dbeeebd":8450,"deedbbc":8451,"bcfdfc":8452,"bdbcbbbd":8453,"dcbdf":8454,"efdbbf":8455,"ddfebe":8456,"bcceebe":8457,"eadec":8458,"debcecc":8459,"ecbffc":8460,"ebbbebbec":8461,"ddbba":8462,"ebdeeed":8463,"eebcfec":8464,"bedcecc":8465,"bffbebe":8466,"bbbcddc":8467,"bbeebebf":8468,"dbfbebc":8469,"bbefccc":8470,"bbebd</w>":8471,"beeeeec":8472,"ebcbbebd":8473,"bbcfbbbb":8474,"ebdeebe":8475,"dbeecbc":8476,"babbbf":8477,"bebdbebd":8478,"bbebeccc":8479,"efbcbec":8480,"ebcfecc":8481,"bbcebfc":8482,"ebfecbc":8483,"bdcbbbf":8484,"bebedebb":8485,"bcccebe":8486,"ebdeebf":8487,"bccbcdc":8488,"dbbeddc":8489,"ebbfbfc":8490,"dceea":8491,"dfecbd":8492,"ebfbeebe":8493,"badec":8494,"eeeeecc":8495,"acdbc":8496,"bfbbbdc":8497,"edf</w>":8498,"bbbcbbbcc":8499,"fbeecbc":8500,"feddbd":8501,"bcecbcbc":8502,"eebeeecc":8503,"eafbc":8504,"dedbbbd":8505,"bbccebbc":8506,"fccbecc":8507,"bdbdbbd":8508,"bfbdbe":8509,"ebebdebb":8510,"beceeebb":8511,"bddac":8512,"bbbbdbbbe":8513,"affc":8514,"efbebbbb":8515,"efebbcc":8516,"ebfbbbbc":8517,"bcfdbbc":8518,"bcecbbec":8519,"edebbdc":8520,"bccdbec":8521,"dbcfdc":8522,"ebdcff":8523,"eebdfbc":8524,"dfceec":8525,"bccbbbcc":8526,"bbffbbc":8527,"beecdcc":8528,"beccbebe":8529,"abbdd":8530,"bbbbeeec":8531,"efbcebc":8532,"edeceec":8533,"ebcbbeec":8534,"bccbbfc":8535,"edcac":8536,"deefbd":8537,"cccbcbc":8538,"fecfee":8539,"beecba":8540,"dfbcbf":8541,"edcbcee":8542,"debcebe":8543,"aeeec":8544,"eedc</w>":8545,"bccbbbec":8546,"bbbebcbbbb":8547,"dbcbbbf":8548,"ebbcfbd":8549,"beeefbc":8550,"bfeeebc":8551,"dcdefc":8552,"eecedcc":8553,"bdecfc":8554,"dbfbbee":8555,"bbedbfc":8556,"ecccdbc":8557,"feffc":8558,"dcecebc":8559,"bbcbeebc":8560,"dbdb</w>":8561,"befac":8562,"feebbebb":8563,"bdbc</w>":8564,"edfdec":8565,"bbcbbebd":8566,"bbcbbeec":8567,"dbbecef":8568,"eebddec":8569,"bcdcdd":8570,"ebccded":8571,"ebccbbec":8572,"fbfebe":8573,"beebbebf":8574,"efbcdd":8575,"bbdfa":8576,"bdbcecc":8577,"ebbbcbebe":8578,"edcfdd":8579,"ebbdba":8580,"bbcfebc":8581,"bbcbdbf":8582,"ebfeecc":8583,"bbebbecc":8584,"fedebc":8585,"befcdf":8586,"bbebc</w>":8587,"eecfa":8588,"fecdfc":8589,"ecbeefc":8590,"dbbbbbbbbc":8591,"bcedccc":8592,"ebbeebbec":8593,"bcfcccc":8594,"edeebbbe":8595,"ebbbeccc":8596,"befbccc":8597,"beecbebd":8598,"debebdc":8599,"bcecbdc":8600,"aeeebb":8601,"ebbddbd":8602,"bbbebba":8603,"baeba":8604,"dccfbd":8605,"ecccdbe":8606,"beedfc":8607,"febebebe":8608,"eecbcbe":8609,"ebbcddc":8610,"bebcbbbf":8611,"ddfebc":8612,"beccbbf":8613,"bebbbbbebbbb":8614,"ecee</w>":8615,"efbcebe":8616,"eecfdd":8617,"bebcfcc":8618,"fdcecc":8619,"abdbd":8620,"eefcccc":8621,"bddbccc":8622,"ebbfdee":8623,"ebfdbbc":8624,"ebecbbbd":8625,"dbecebc":8626,"bfedbc":8627,"bbdeccc":8628,"bbbceebd":8629,"dbdbbebb":8630,"eaebd":8631,"feebbcc":8632,"fbbcfc":8633,"eeddfc":8634,"abbebc":8635,"bbbebcbf":8636,"bedebecc":8637,"feebfc":8638,"eecdbdc":8639,"eeeefc":8640,"fedbbf":8641,"eecceecc":8642,"eeedbec":8643,"bbbbbdebb":8644,"bbceced":8645,"eecbbebc":8646,"bbedbeec":8647,"ececded":8648,"fbbebbcc":8649,"bfbcbcc":8650,"ddbbfc":8651,"edcda":8652,"bbbcfbf":8653,"dcceedc":8654,"efcdef":8655,"eedbba":8656,"ecdbbebb":8657,"bffebf":8658,"bbdbdebb":8659,"bbbcbebf":8660,"decdecc":8661,"bada":8662,"bcbddbc":8663,"fdcded":8664,"eedbbebc":8665,"bfbcbbd":8666,"befbcec":8667,"ebeeebbbe":8668,"dbedbec":8669,"ebffebe":8670,"edcbbdc":8671,"bbeefcc":8672,"bebeeeebb":8673,"ebccebcc":8674,"ecfbbbd":8675,"bbbbbced":8676,"ebcbeebc":8677,"efcddc":8678,"eeeebebf":8679,"ebbbbbecc":8680,"bbfbbfc":8681,"beecfbc":8682,"beccded":8683,"bfbcff":8684,"bfecebc":8685,"dcbfdc":8686,"ddbcf":8687,"fcfbec":8688,"edbbdcc":8689,"edeedee":8690,"bbceebbc":8691,"eecfebc":8692,"dbfdec":8693,"bebdfbc":8694,"ecfac":8695,"aeebf":8696,"eeeebbbf":8697,"ecccff":8698,"bdbbea":8699,"bbebbba":8700,"debbebf":8701,"beccdbc":8702,"debddf":8703,"bdeebbd":8704,"ebbecdbe":8705,"efbdbc":8706,"bbbeeebd":8707,"bebeddc":8708,"bdecdbe":8709,"ebeeced":8710,"bbcdbbbe":8711,"ebdbcebb":8712,"feebbef":8713,"bceebcbc":8714,"eedbbbec":8715,"bccbcbbc":8716,"edcfbe":8717,"dbbebbbf":8718,"fccbbd":8719,"bdeebbee":8720,"bddbbebb":8721,"bfcbeebb":8722,"bebfccc":8723,"edebdcc":8724,"ebebebbf":8725,"bbcbcdd":8726,"efceebc":8727,"bedddf":8728,"bdfea":8729,"ebbfbef":8730,"bbecbeed":8731,"dfcebc":8732,"bbbbbbbbbbbbbbc":8733,"fdcbcc":8734,"afebe":8735,"eedbbfc":8736,"ddfecc":8737,"ebbecdf":8738,"dcbcbcc":8739,"ebeeebbc":8740,"ddeddd":8741,"ebdbbfc":8742,"eecbbfc":8743,"eecfecc":8744,"ffbbdc":8745,"debbdebb":8746,"bbebeebc":8747,"bdcbccc":8748,"bbecebec":8749,"bbecbeebb":8750,"ccccccccccc":8751,"dcfbbf":8752,"ebedbbbe":8753,"bbfdbbbb":8754,"beeedbd":8755,"eecbbbec":8756,"bebcbbed":8757,"bbccbccc":8758,"fecdbf":8759,"debcded":8760,"bdecdec":8761,"bccdbbbb":8762,"bbffebe":8763,"bbbcbcec":8764,"fbceebc":8765,"fbceecc":8766,"eeeedbc":8767,"eedda":8768,"dceac":8769,"ebebbecc":8770,"ebebcfc":8771,"ddbeef":8772,"bbdfbec":8773,"bebdbbbd":8774,"dbbecebe":8775,"ebdcbbbb":8776,"fcbbbec":8777,"dbebcbe":8778,"debeef":8779,"dbecff":8780,"febbbec":8781,"dcdbbee":8782,"eefebcc":8783,"ebbbedee":8784,"dcbbccc":8785,"ebebddc":8786,"eccfef":8787,"acdbf":8788,"beebeef":8789,"edbbba":8790,"bbcbded":8791,"fcbcdd":8792,"dfeebd":8793,"eebcbef":8794,"ebebebbd":8795,"bdcbdbd":8796,"bbbcdebe":8797,"decfbd":8798,"beecbef":8799,"eebcbbbd":8800,"dcbfbf":8801,"bbbcbbdd":8802,"efceecc":8803,"dfcdbc":8804,"eeecbbd":8805,"dbbdef":8806,"edeeebd":8807,"eecbdcc":8808,"bdceeed":8809,"bbbcea":8810,"bbbcbcbbbb":8811,"bebebcbd":8812,"ebecbef":8813,"bedcdbe":8814,"eecbcbf":8815,"ffbebf":8816,"dedbbee":8817,"ddcbbbe":8818,"eccceccc":8819,"eedcebd":8820,"dedbbed":8821,"febbdd":8822,"bfcbbed":8823,"ebecbbcc":8824,"beccbbd":8825,"ecbdbcc":8826,"eeebbbbee":8827,"bcdebfc":8828,"bdbbfcc":8829,"fcbcfc":8830,"decfed":8831,"ebbeeebf":8832,"bddebdc":8833,"eccbcbf":8834,"decebcc":8835,"edeeeec":8836,"ebcbcebe":8837,"dbdfcc":8838,"edbcbbbe":8839,"dccbeee":8840,"eeccdee":8841,"dbecbcc":8842,"ebebebcc":8843,"dddcdd":8844,"dccbcbc":8845,"feeedc":8846,"ddcbbbd":8847,"bcccdbe":8848,"bbbcbbbec":8849,"cccbebe":8850,"decbcbd":8851,"dcceebd":8852,"fecbbee":8853,"ebdcbcc":8854,"bcbedef":8855,"bebfdf":8856,"dbcbcec":8857,"ecbeeccc":8858,"bceeebf":8859,"bfeddd":8860,"dcdbfc":8861,"eecdbbbb":8862,"bdbdbbbd":8863,"bcdbbebc":8864,"ddbcef":8865,"fcdbbbb":8866,"ebdbeebe":8867,"fffebb":8868,"dccbecc":8869,"feebbbf":8870,"bcccedc":8871,"ecbcbccc":8872,"dcbdbbc":8873,"dbcbbdd":8874,"efcfcc":8875,"bbebbfbc":8876,"bbebbbbebe":8877,"bebbbbbbbd":8878,"dcbdebe":8879,"bbbcfbe":8880,"dbddebe":8881,"ecbcbeec":8882,"bcbdbcc":8883,"bdfbbcc":8884,"bcbbbbbbbe":8885,"dcbca":8886,"ffdfc":8887,"dbddbbc":8888,"eebcfcc":8889,"bdecbcc":8890,"afbbc":8891,"edfdcc":8892,"ebbeca":8893,"ebbceecc":8894,"ebccbebc":8895,"becbbbcc":8896,"feebbbd":8897,"eeeebbef":8898,"bcbeac":8899,"deecdbe":8900,"eedcbcc":8901,"eeefbeee":8902,"eddebdc":8903,"deecccc":8904,"eeeeebc":8905,"eeeeeebf":8906,"ebdcbdc":8907,"ecbd</w>":8908,"bfeded":8909,"bbbcdef":8910,"dbccccc":8911,"dceeecc":8912,"beccbfc":8913,"fddff":8914,"edccebc":8915,"ecdbfcc":8916,"edecdbe":8917,"ebecebf":8918,"fbfdbe":8919,"bceeba":8920,"eebcbccc":8921,"ecbeeecc":8922,"dfcccc":8923,"efcdfc":8924,"bbedfbc":8925,"deecef":8926,"bfbeff":8927,"bbfda":8928,"ebbeceec":8929,"bebbbfcc":8930,"fbebbfc":8931,"deccef":8932,"eceedec":8933,"bbdeced":8934,"bbdbebec":8935,"bebdebbc":8936,"debcbcc":8937,"bcecbebc":8938,"ebbdded":8939,"ebcbcebc":8940,"bbfbcebb":8941,"debbded":8942,"ebdcdec":8943,"bcfeccc":8944,"bcdbba":8945,"ebedccc":8946,"fcdccc":8947,"ebdbcbf":8948,"fbcbbcc":8949,"fecebbc":8950,"bdcfebb":8951,"dbddef":8952,"fbdbef":8953,"bbfbebbc":8954,"bbeebba":8955,"dedefc":8956,"ebdecec":8957,"ffda":8958,"eaac":8959,"bebfbcc":8960,"eceefcc":8961,"bbcedbd":8962,"fcbcef":8963,"bbdbddc":8964,"feebeebe":8965,"bbebbdbd":8966,"ecbebbed":8967,"bcbedbbc":8968,"ecbbeccc":8969,"effbec":8970,"feebbebe":8971,"dfcdec":8972,"bceedbf":8973,"bcdbbbec":8974,"bdeeeecc":8975,"ebbbbebec":8976,"fcecbf":8977,"eccbbef":8978,"bbddbdc":8979,"ddbebbc":8980,"dcbac":8981,"dfbedc":8982,"ffdbbc":8983,"bfcfbf":8984,"befebcc":8985,"deccbec":8986,"bbbbeebe":8987,"ddbeebe":8988,"dfdebc":8989,"bbfbeef":8990,"ecbcebf":8991,"beeacc":8992,"eeecdcc":8993,"eeecded":8994,"ebbbbbbbbbe":8995,"fdf</w>":8996,"bbbcebcc":8997,"ddbbbec":8998,"fceeebb":8999,"edfdbb":9000,"deebeed":9001,"efcbebd":9002,"fbedebe":9003,"bdbebbed":9004,"ebedbbf":9005,"bbeceebc":9006,"beecbcbc":9007,"bbdcbbdc":9008,"dbbbbbec":9009,"edebeebb":9010,"bbcecbf":9011,"dfbcf":9012,"dfbbdd":9013,"dfbdcc":9014,"ebfbeef":9015,"bdcffc":9016,"dbbecbec":9017,"bbbdb</w>":9018,"bbebbbbcc":9019,"fedddc":9020,"bdeedec":9021,"bfcebcc":9022,"bfbeecc":9023,"ebbdcec":9024,"bbbbbbbdc":9025,"ebddbdc":9026,"befbcbd":9027,"ecccded":9028,"cccebf":9029,"eebdbbd":9030,"bbcecebb":9031,"eccbbfc":9032,"fbecccc":9033,"bcecff":9034,"ececeec":9035,"dcdeecc":9036,"bccbdcc":9037,"dfbdbd":9038,"dbecdbc":9039,"bcecdbd":9040,"bbbbeebf":9041,"ebcebbcc":9042,"becbeef":9043,"efcbbee":9044,"dbecebe":9045,"bcbdbbf":9046,"bceebbebb":9047,"ebbefdc":9048,"eecceebc":9049,"bceeded":9050,"bedda":9051,"edfdbd":9052,"bbbebdbd":9053,"beeebfc":9054,"eebedbf":9055,"beebbeeee":9056,"bedcded":9057,"fbcbbbf":9058,"debbbbec":9059,"bcecbef":9060,"bcbbeccc":9061,"deebced":9062,"dbcea":9063,"feebbec":9064,"bbbbcebd":9065,"ecbddbe":9066,"ecdcebc":9067,"dbbebbbbc":9068,"bffbdc":9069,"dcfbdc":9070,"edcbbebb":9071,"ffffc":9072,"dccbbec":9073,"deecbbc":9074,"ecdcfc":9075,"dcecdec":9076,"dfebdc":9077,"dbdeebc":9078,"ddcbebe":9079,"eefbbdc":9080,"fdcbbc":9081,"febbebc":9082,"bdbe</w>":9083,"dcfdee":9084,"dbbebbed":9085,"feebeef":9086,"fecbebd":9087,"bedcebe":9088,"bbcbbcbbcbbc":9089,"ecceeebb":9090,"bebceebd":9091,"ecccbdc":9092,"bdeebbbc":9093,"eecfbbc":9094,"bbfbeed":9095,"bbfcdbe":9096,"fddfc":9097,"eeefef":9098,"eabbbd":9099,"ddcfcc":9100,"feceecc":9101,"acdec":9102,"beebbbbebb":9103,"edbebfc":9104,"bbbbda":9105,"bcbdbebe":9106,"eeedbbc":9107,"eebbeba":9108,"ebdeeebb":9109,"ffbebd":9110,"dbbbda":9111,"dbdbbdc":9112,"bbccded":9113,"febbdbe":9114,"ddecbf":9115,"bbfbebbbb":9116,"dbcbbbbc":9117,"beeebbef":9118,"fecdebb":9119,"fbfbbbe":9120,"ebfeef":9121,"edcedbd":9122,"ffecbc":9123,"deeecbc":9124,"beecebbc":9125,"dbecfc":9126,"bedcbbbb":9127,"eedcdbe":9128,"bcec</w>":9129,"bdeb</w>":9130,"ebcbedbe":9131,"becfebc":9132,"bcbfbbc":9133,"adebc":9134,"bfdbbee":9135,"bfebecc":9136,"bccb</w>":9137,"ebfeebd":9138,"dbceeec":9139,"bbeeebcc":9140,"bbbfdbd":9141,"bcbbbbbbbbc":9142,"bfc</w>":9143,"bfdcdc":9144,"becdbbd":9145,"eccdccc":9146,"bbbebced":9147,"beccefc":9148,"ebbbeedc":9149,"bbbcfed":9150,"ebbcbbebe":9151,"fbcbeee":9152,"ecbdbbbb":9153,"bfd</w>":9154,"dcebbebb":9155,"dbbddcc":9156,"dbbdcbd":9157,"bbbddbbc":9158,"bcbcedc":9159,"bbbcbcebb":9160,"dbbedbbc":9161,"eeeebbd":9162,"dfbeed":9163,"dbbbac":9164,"beeeedc":9165,"fecbedc":9166,"bbebdbbbb":9167,"dcbebbbe":9168,"ebdbcf":9169,"bbeeeebc":9170,"feebebf":9171,"dbfdcc":9172,"bbedbef":9173,"eeccbbd":9174,"ecbdbdc":9175,"becbcbbc":9176,"eada":9177,"fccbbbe":9178,"edebbee":9179,"dceebcc":9180,"bccfbbc":9181,"cccbef":9182,"feefbe":9183,"dbfbef":9184,"debeecc":9185,"eefbba":9186,"ebbdcbc":9187,"bccecbe":9188,"bccbbebc":9189,"dbebbdd":9190,"fbdfbd":9191,"eedcef":9192,"fcfebe":9193,"bbeefec":9194,"bcecbbf":9195,"ddfbec":9196,"bebebba":9197,"ecfedcc":9198,"ebebbebf":9199,"becfdd":9200,"fccebbc":9201,"beccfbc":9202,"bfbeeec":9203,"bfecebe":9204,"edfbebe":9205,"bbfbba":9206,"dbdefc":9207,"bbebebbebe":9208,"debebbbc":9209,"debcebd":9210,"aeccc":9211,"edfbfc":9212,"bbeebbebc":9213,"beeebebf":9214,"bcecbbd":9215,"eedefcc":9216,"bfacc":9217,"ebbfdbb":9218,"eccecbf":9219,"debebbf":9220,"ebbbcebd":9221,"bccdbcc":9222,"bdcdbec":9223,"bceddec":9224,"eeefeeee":9225,"bebeded":9226,"dbfdbf":9227,"eeecdbd":9228,"bcebac":9229,"dbebebf":9230,"bbeeeeebe":9231,"dbbdced":9232,"dccfdc":9233,"bcbcbbbbc":9234,"eefda":9235,"beebb</w>":9236,"ebbfdbd":9237,"bbbbbebec":9238,"becbcf":9239,"dfbeebb":9240,"deebeebb":9241,"bfcbbebb":9242,"fccbef":9243,"eeecebd":9244,"abedc":9245,"deedbec":9246,"beecbedc":9247,"bcdbfcc":9248,"edeedcc":9249,"fcbcbbc":9250,"eebcebcc":9251,"fbdefc":9252,"ecbebbbf":9253,"beedef":9254,"dbbefcc":9255,"ebecba":9256,"debebbd":9257,"ebbdefc":9258,"ebebcbec":9259,"bbbcbbef":9260,"debbbbebb":9261,"edccedc":9262,"abcebb":9263,"eccda":9264,"deeebcc":9265,"ecbddbc":9266,"fddccc":9267,"ecdbbef":9268,"ebbbedbd":9269,"ebefbcc":9270,"dfbbef":9271,"dbebcebb":9272,"dbddbbd":9273,"dccbccc":9274,"bbdcbbbd":9275,"bbbbeecc":9276,"feebeebb":9277,"fadd":9278,"aebdc":9279,"bbeeeecc":9280,"befdbbc":9281,"debedbc":9282,"bebbcbbbe":9283,"edbcedc":9284,"eccfbbc":9285,"bdcdecc":9286,"debbfbc":9287,"bbfcef":9288,"ecbbebdc":9289,"bfdbfc":9290,"dcdfcc":9291,"ddcfed":9292,"bbbecbbbe":9293,"beefef":9294,"edbdbbc":9295,"eeebebeebe":9296,"edeebbf":9297,"bdcbeebb":9298,"cccbbcc":9299,"bfcbcbd":9300,"feeebbc":9301,"fbfebc":9302,"fcbba":9303,"bbfbbebc":9304,"beccebf":9305,"bbdcdec":9306,"debddbe":9307,"febeef":9308,"fedbbd":9309,"bbddebc":9310,"bcbacc":9311,"ffbbebe":9312,"dbdbcbd":9313,"dccbbbd":9314,"fbfebf":9315,"ddbfcc":9316,"eccbcf":9317,"beedbebc":9318,"bbdbebbd":9319,"bfceecc":9320,"bbbfbbec":9321,"fcbbbcc":9322,"fbcebec":9323,"ddcfee":9324,"beecbbbd":9325,"febbbcc":9326,"bfbedbe":9327,"bbbbbcf":9328,"beceebf":9329,"ffeccc":9330,"dbdda":9331,"fecfcc":9332,"abcbe":9333,"edfbef":9334,"dbebdbd":9335,"dbcbccc":9336,"dccebbc":9337,"bbccefc":9338,"bbebbbebd":9339,"eebcbebd":9340,"bddd</w>":9341,"eccbcbe":9342,"bbebbbcbc":9343,"debbbfc":9344,"debebbee":9345,"ecfebec":9346,"ecdbbebe":9347,"ebcbddc":9348,"bbbeebbebb":9349,"dbcfbe":9350,"ddcebf":9351,"eeebebef":9352,"bbdebfc":9353,"dbcecbc":9354,"bbdddee":9355,"deecded":9356,"bdcceec":9357,"bddeccc":9358,"bfeebcc":9359,"bfbebbbc":9360,"dddbbbe":9361,"becbefc":9362,"bccedcc":9363,"bbbedebc":9364,"dbefed":9365,"bbedebbc":9366,"beccebbc":9367,"eebbcccc":9368,"edebbebe":9369,"efbbecc":9370,"beecbbee":9371,"eebedbbc":9372,"abcf":9373,"bbbbbdbc":9374,"bbbcecbc":9375,"bebefbd":9376,"bebebebbc":9377,"ebccebbc":9378,"dbfea":9379,"fccfbd":9380,"bceebbbd":9381,"bebfebc":9382,"bdfbbbf":9383,"eede</w>":9384,"ebbdcdd":9385,"dbffbd":9386,"eebebbdc":9387,"eedcdec":9388,"bebefbe":9389,"dddbbf":9390,"edcdbcc":9391,"bebcfed":9392,"bcbdbcbd":9393,"adbec":9394,"ebbececc":9395,"ebbbbdcc":9396,"dffbbc":9397,"deebbdc":9398,"dbbedbc":9399,"befbbbbc":9400,"beccbbbc":9401,"bbddbbdd":9402,"eceebcbc":9403,"bfbebbee":9404,"fcbeecc":9405,"ebdbcbe":9406,"bbfbbbec":9407,"efeced":9408,"ebcdccc":9409,"eccbddc":9410,"bbdbcdd":9411,"cccbbee":9412,"cccfec":9413,"dbbdcdc":9414,"dbbcbbbd":9415,"bdbedebb":9416,"bbfbcf":9417,"edcfbf":9418,"fccbbbc":9419,"fdcebe":9420,"fbbbbbbc":9421,"bcdd</w>":9422,"bdbebecc":9423,"dfbcdc":9424,"eedcbbc":9425,"eceebbcc":9426,"ecdb</w>":9427,"bbdeebbc":9428,"baebbc":9429,"deebbbf":9430,"bebeebcc":9431,"bbccbeee":9432,"ddcefc":9433,"beeceecc":9434,"bbfcbcc":9435,"bfbcbbbe":9436,"effbbf":9437,"fcedcc":9438,"becbded":9439,"babbbbc":9440,"fdcebd":9441,"bcbfdd":9442,"bbfbced":9443,"dbebedc":9444,"dbbecebc":9445,"bcbcebbc":9446,"eebdbbbe":9447,"eeaa":9448,"ebbeebef":9449,"eeeeeeeeeeeeeeee":9450,"bbbcbbebc":9451,"bebeefc":9452,"ecbcebbc":9453,"bdebbbbbb":9454,"eccfebe":9455,"bbefebc":9456,"dbcfbf":9457,"bebcdcc":9458,"fccdbd":9459,"bbddbbbe":9460,"bdbbbecc":9461,"dcbfbd":9462,"dcbedee":9463,"dcbeedc":9464,"ebebbbbbbbb":9465,"bccecbd":9466,"ebdbbbec":9467,"bccbcebb":9468,"bdcac":9469,"dbcebcc":9470,"bbedbbebb":9471,"bebddebb":9472,"eccefcc":9473,"edcfebc":9474,"ebecbecc":9475,"fccfdc":9476,"bebdbbec":9477,"ebdcedbbec":9478,"ddbefc":9479,"eecbcebb":9480,"bbfffc":9481,"bebefebb":9482,"fecebf":9483,"dbbdbbbe":9484,"abebbc":9485,"bbbbfebe":9486,"efbdef":9487,"eccbcdd":9488,"dfeeee":9489,"dbebebbc":9490,"decbeebb":9491,"bdbdbec":9492,"efbbebd":9493,"eecbfcc":9494,"bbbceecc":9495,"bebdeebc":9496,"bebfbbee":9497,"bfdebbc":9498,"bfbebdc":9499,"baded":9500,"bfcbedc":9501,"bbddebd":9502,"eecbcdd":9503,"bafcc":9504,"bfebbed":9505,"bbbbdbec":9506,"bbcecdc":9507,"dfbbbbc":9508,"dbefdd":9509,"bbecfbd":9510,"bbbbbedd":9511,"feefbf":9512,"bbbccbcc":9513,"ebcbcbbbb":9514,"ebcfebd":9515,"bafbd":9516,"dbbecbbbb":9517,"dedbcbc":9518,"ddcbbee":9519,"eeecdbbc":9520,"beeebba":9521,"debeebe":9522,"ecdebfc":9523,"eecbefc":9524,"bbfeebf":9525,"dbedfc":9526,"bdcfdd":9527,"deffbc":9528,"eeccdcc":9529,"faccc":9530,"ecfcccc":9531,"efbebec":9532,"bbcdbdc":9533,"bdcecbc":9534,"befdfc":9535,"bcbebbebe":9536,"daff":9537,"bebbbbbebe":9538,"ebfdfc":9539,"bebcfbd":9540,"fedbfc":9541,"bcccdec":9542,"ecdcdd":9543,"bdeedbd":9544,"dcedbc":9545,"eececec":9546,"ebfbedc":9547,"bebcbedc":9548,"eefdbbc":9549,"bcccebd":9550,"dbedebc":9551,"dbedbbbb":9552,"dbcbbdc":9553,"fbedebc":9554,"beefbbbb":9555,"eeebeeeebe":9556,"ebbeebec":9557,"dcefdc":9558,"ebcecebb":9559,"fceced":9560,"bdcbcec":9561,"bbecbedc":9562,"bbebbfee":9563,"eefbbbbc":9564,"decceecc":9565,"efeebbc":9566,"bbeefbd":9567,"bbbfecc":9568,"bceebbed":9569,"eeecfec":9570,"eceefbc":9571,"bfddcc":9572,"edfbbee":9573,"bccecbf":9574,"bbbebebbbe":9575,"bebebbdc":9576,"bebcebcc":9577,"dedbcec":9578,"debeebd":9579,"bcbebbdc":9580,"eceeff":9581,"efe</w>":9582,"dbebbef":9583,"dccbbcc":9584,"eddddd":9585,"ebbdbbcc":9586,"bbcbcebe":9587,"eecbded":9588,"edcbced":9589,"edcfecc":9590,"bebebbef":9591,"dedbbcc":9592,"ecbeebec":9593,"febb</w>":9594,"edefbf":9595,"ebcdbbbe":9596,"deeeeee":9597,"bcfbbbbc":9598,"debdbec":9599,"bbeecbec":9600,"bdebfcc":9601,"bdbefcc":9602,"bebeebec":9603,"dbbdded":9604,"eedcff":9605,"febeff":9606,"dbbecfc":9607,"bebcbbbbc":9608,"efcbedc":9609,"eeecbecc":9610,"eeebbebf":9611,"bcbfbbbb":9612,"bbcbbecc":9613,"bebdbef":9614,"daebe":9615,"bcbdbdc":9616,"dbccdd":9617,"bddddbd":9618,"bebbdbbbb":9619,"bbbebeed":9620,"bfcea":9621,"fbcebcc":9622,"bebdbeec":9623,"defdbd":9624,"bfbdbbbb":9625,"fcbbecc":9626,"bebedbbc":9627,"bfcfbe":9628,"acbdc":9629,"eebcdebb":9630,"dbbbbdbd":9631,"fceebbc":9632,"bebcea":9633,"bcbdbbbc":9634,"eceeeecc":9635,"efeedd":9636,"ebcfbec":9637,"eccbded":9638,"ebdfa":9639,"eecbcbbc":9640,"edcbbdd":9641,"fbdfee":9642,"eebeeccc":9643,"bcbdbbd":9644,"ebbbcbbd":9645,"bcdefcc":9646,"dcdebbc":9647,"efecebb":9648,"bccfebe":9649,"febbbbbc":9650,"ecdbbfc":9651,"bfbeebd":9652,"bfeebbbe":9653,"ebfbbdc":9654,"deddeec":9655,"eeeedf":9656,"bebdbfc":9657,"ecbddec":9658,"ebbbcdee":9659,"bbbbfdc":9660,"bbcfa":9661,"bbbebbfc":9662,"efbfbf":9663,"bbbbcdbd":9664,"ecde</w>":9665,"ebebfbf":9666,"bbcdedc":9667,"bbcdbbf":9668,"bbbeac":9669,"defdec":9670,"eeccbbf":9671,"ffcbec":9672,"ebbbcbbee":9673,"bfeac":9674,"bfbdebe":9675,"dbbebbee":9676,"befbeebe":9677,"dbfbcbc":9678,"ddcbbbc":9679,"beecedc":9680,"eebbedcc":9681,"ebcbcef":9682,"fcfbcc":9683,"ecceef":9684,"bbbddebe":9685,"bbbfdec":9686,"bbeddebb":9687,"bbebedd":9688,"ffca":9689,"eceddf":9690,"bceebccc":9691,"ebcefcc":9692,"bebeeebf":9693,"ddcbfc":9694,"eeeebcbc":9695,"bfbbedc":9696,"bfebbbbbb":9697,"edbbbbcc":9698,"bccbeef":9699,"fbeda":9700,"ddceecc":9701,"bcbddbd":9702,"edbddee":9703,"ebcccccc":9704,"bffbbbc":9705,"eddbccc":9706,"bbbdbbdc":9707,"eebcbecc":9708,"ecbcbef":9709,"ebedbdc":9710,"beecfee":9711,"beebbfc":9712,"ebfcdf":9713,"bbcbfcc":9714,"ebdbcdd":9715,"bebefec":9716,"beeeeeebb":9717,"bcccdbc":9718,"bdbdbdc":9719,"bbcbcfc":9720,"ebbcdebe":9721,"eabbec":9722,"acfa":9723,"bbbbdebc":9724,"ebdecbe":9725,"bbdecbf":9726,"dbeeeee":9727,"eebcefc":9728,"eefeccc":9729,"bceefec":9730,"edbdfc":9731,"edbeebbc":9732,"eecdccc":9733,"bebdba":9734,"bdbedbf":9735,"bfeebec":9736,"ebeecbbc":9737,"fbcea":9738,"bbbfebbc":9739,"bceebbcc":9740,"eebfccc":9741,"bcbfff":9742,"eeddedc":9743,"ecdcedc":9744,"eedbbbcc":9745,"bfcfed":9746,"bbddccc":9747,"eebacc":9748,"fdebecc":9749,"ebebdec":9750,"bbbedef":9751,"ecbcecbc":9752,"bdfdebb":9753,"abbba":9754,"efbebcc":9755,"ebefbec":9756,"eceedbf":9757,"becbdcc":9758,"ebdbddc":9759,"dfbcbe":9760,"dbbebbebe":9761,"ddcbef":9762,"fbdebbc":9763,"ffcfc":9764,"ebbbeebbc":9765,"bbecbbbbc":9766,"eebcbbcc":9767,"ecfbbbf":9768,"abeef":9769,"eebbb</w>":9770,"eeccfcc":9771,"bbebebebc":9772,"bcceced":9773,"bebeeeebe":9774,"efcebcc":9775,"eeceba":9776,"bbfbcbe":9777,"ebfeeebe":9778,"bdcbced":9779,"feefef":9780,"bcfbbef":9781,"ddecdd":9782,"eadbf":9783,"eabcec":9784,"bbbbbbbbbbd":9785,"bbadbe":9786,"efbebbbe":9787,"bbbeeebbbb":9788,"fdcdbc":9789,"eebfff":9790,"bfebbee":9791,"ebbacc":9792,"ebededc":9793,"ebdbddd":9794,"bbeebccc":9795,"bbbecdbe":9796,"edbcfbc":9797,"dcbebbf":9798,"ebcbddd":9799,"bccda":9800,"eecbcef":9801,"beebbff":9802,"eebffc":9803,"bbbbecbd":9804,"bbbbbeef":9805,"ebecfcc":9806,"ebdcbbd":9807,"eebeebbebb":9808,"bbfcdee":9809,"ebfcfc":9810,"bfefbf":9811,"ebeeedd":9812,"bbbeecbc":9813,"ebfbcebb":9814,"dececbc":9815,"bcfdebe":9816,"fbfbef":9817,"bdbda":9818,"ebbfebbc":9819,"ebefbbf":9820,"ebcbebcc":9821,"fdcbdc":9822,"dbccfc":9823,"bcbfdf":9824,"febcdf":9825,"ecddecc":9826,"bffbef":9827,"bbbbfef":9828,"bccbded":9829,"eaedc":9830,"bbbfbcbc":9831,"dbecded":9832,"bceebeee":9833,"ebeefcc":9834,"bcceef":9835,"eecbeebc":9836,"baeeee":9837,"dbcdfc":9838,"bebebcebb":9839,"bbbdefc":9840,"dabec":9841,"dceeccc":9842,"ebcb</w>":9843,"ebcbdbf":9844,"ebffdd":9845,"bbbdeebc":9846,"eeecedc":9847,"deccedc":9848,"bfccccc":9849,"bddbbed":9850,"dbcfebb":9851,"bbeeebec":9852,"bedcedc":9853,"beefff":9854,"bdfbeee":9855,"beccebcc":9856,"adca":9857,"ebcfbcc":9858,"dcceccc":9859,"fedfbc":9860,"dbecccc":9861,"dedbebd":9862,"ddcbcbc":9863,"eeecbebe":9864,"bbcbdbc":9865,"bbbcbdbd":9866,"bbeeeeebb":9867,"ebbcbcbd":9868,"bbccbbbbc":9869,"bcccbdc":9870,"bcccbcbc":9871,"bcecebd":9872,"beedff":9873,"beeddbd":9874,"bbfcbbf":9875,"bebbbbbbf":9876,"eedebbcc":9877,"efdbbbe":9878,"ddefcc":9879,"bbeefbf":9880,"dbbbfed":9881,"decdbec":9882,"fecdef":9883,"fdcedc":9884,"fa</w>":9885,"dcbcbbd":9886,"bbbbdfc":9887,"eccbcebb":9888,"dbebdcc":9889,"dbbbfbd":9890,"dccdef":9891,"efcdebc":9892,"bcbedebc":9893,"dbbbbebe":9894,"efecf":9895,"ddbdbf":9896,"becbba":9897,"becebfc":9898,"bbbcbcbbc":9899,"efcbbcc":9900,"bbecfed":9901,"fbceebd":9902,"beecbbcc":9903,"bbebcccc":9904,"bcbfbbf":9905,"bfebccc":9906,"bfeca":9907,"ebcbdec":9908,"bfcdebc":9909,"bfcdfc":9910,"becceebd":9911,"dbecebd":9912,"bceefcc":9913,"bbbbbddd":9914,"ebbcbeebb":9915,"bdbddee":9916,"dceebbbb":9917,"ddfdf":9918,"decdebe":9919,"bebcdbf":9920,"dbbbbbcc":9921,"bfebbbd":9922,"dcbeff":9923,"ebcfeec":9924,"bbbdbcbd":9925,"bcbbbdcc":9926,"bbbbbbeec":9927,"ddebfc":9928,"ebcdbbf":9929,"bbbcbebbc":9930,"dbbdcdd":9931,"ebccbef":9932,"efbcbbbb":9933,"ebcbdbc":9934,"becbeecc":9935,"eeceebf":9936,"bbdbeebc":9937,"bebedbf":9938,"dccdbf":9939,"ebccfcc":9940,"fbdba":9941,"ecbcfcc":9942,"deecdbc":9943,"beedded":9944,"eeeacc":9945,"bececdc":9946,"bdcbbbbc":9947,"eebddbd":9948,"dabda":9949,"beebebbc":9950,"bcdcdf":9951,"efbdee":9952,"bcbfa":9953,"bdfdef":9954,"eeeffee":9955,"ebcbbecc":9956,"deefbe":9957,"dccbeec":9958,"bbecdef":9959,"bbedebf":9960,"ecbedbbc":9961,"bceebecc":9962,"ebbeebbebe":9963,"edbebbbd":9964,"eecbebbbb":9965,"efcbbbd":9966,"fededc":9967,"fbffbc":9968,"eeecbebc":9969,"fbbbbbbbe":9970,"befeebf":9971,"bbebcdf":9972,"fcfdf":9973,"bccc</w>":9974,"bbdbcef":9975,"bbeebcec":9976,"bfcddc":9977,"dedfee":9978,"acac":9979,"debeedc":9980,"eeebeff":9981,"dcfdbc":9982,"bbcbddd":9983,"ebdbba":9984,"ecccddc":9985,"ebdcdbd":9986,"dedcdf":9987,"aeef":9988,"dbcbdbd":9989,"bbeeded":9990,"dbbbfdc":9991,"bbccfcc":9992,"febbbebe":9993,"bfebbbc":9994,"bbcbbbbbbc":9995,"ebdbeef":9996,"bfcdbec":9997,"dbbecdf":9998,"bbedba":9999}