#version: 0.2 - Trained by `huggingface/tokenizers`
b b
b e
b c
e e
c c
b d
e c
b f
e d
e bb
d c
bb bb
e f
e be
d d
e bc
bb c
f c
be c
e cc
e bd
bc c
ee c
bb d
d f
bb be
bb f
d be
e bf
bd c
ed c
b a
f f
bb bc
d ee
cc c
d bc
bb ee
be be
bf c
ebb c
d bb
d ec
d bd
be f
d cc
e a
bb bd
be bc
ef c
d ed
bb ec
f bc
be ee
bb cc
f ee
bb ebb
ebe c
bc bc
ebc c
f be
d dc
d bf
f ec
d ebb
bb bf
bb ed
f cc
be ec
ee ee
a c
bbbb c
ee bc
be bd
be cc
f bd
d ef
ecc c
ec bc
ebd c
f ed
ee cc
bb ebe
bb dc
d bbc
ee be
d ebe
ee f
d ebc
ec be
bb ef
bc be
bc f
ee bd
d fc
bb dd
d a
bc cc
d bbbb
d bec
bc bd
bc ee
f bf
be ebb
f dc
bbbb bbbb
bc ec
bb ebc
d eec
be ed
bb a
f ebb
ee ec
be bf
e ba
bb fc
bd bd
be dc
cc cc
d bbd
bb bec
d ecc
ee dc
ec bd
ebf c
d ebd
d bcc
ec f
bc ed
ee ebb
f ef
bb bcc
f dd
ee bf
ec ec
be ebe
bc bf
be dd
bc ebb
ee ed
be bbc
f fc
be bbbb
bb ebd
d edc
f ebe
ed cc
be ef
f bbc
ed bd
bc dc
ee dd
bb eec
ec dc
d bdc
d bbf
d ccc
ee ebe
d bbbe
bb ecc
f a
bd cc
ec bf
ec ee
bd bc
f ebc
ba c
ec ed
bc bbc
bd be
bd f
bf cc
be a
bd ed
ec ebb
be fc
ee ef
bc bbbb
bd bf
be ebc
bc ef
bc dd
d bbbc
ec dd
d ebf
ea c
ee bbc
b b</w>
ebb cc
f bbbb
bb bdc
bb ebf
bd ee
ebb ebb
bb ccc
be bec
bd dd
ed dc
f bec
bc ebe
bd dc
ef cc
f ecc
be bbbe
bd ec
f bcc
d bbee
bc fc
bd ebb
ed dd
bc ebc
d bfc
f df
be bbd
ee bbbb
dc dc
ec bbc
bb edc
be bcc
ed bf
ee a
f bbd
ed bc
f ebd
ebe cc
d ebbc
ebc cc
f eec
dd dd
bf bf
bc a
be df
be dbe
ee fc
d efc
be ecc
bc bec
bb ebbc
d ba
ed ed
f bbf
bb ba
ec ef
f dbe
ebb bbbb
be bbf
ebb ee
bd bbc
bb bfc
ec bec
ebb bc
be ebd
bd ef
bd bbbb
ee ebc
ebb bf
ec ebc
be eec
ec ebe
f ccc
bc bbd
ec fc
dc ed
f bbbe
ec df
dd cc
ee bec
f edc
bc bcc
ebb bd
ee bcc
be bbee
bc df
bf dc
bc eec
d ea
dee cc
be bbbc
dbb cc
ee dbe
bf ed
f bdc
ec bbbb
ebb ed
dc bd
bf bd
ee df
ec a
ebb bbc
f dbc
ecc cc
bf bc
b e</w>
ebb ebe
ee bbd
be ff
ee bbbe
b d</w>
f ebf
d ebcc
ec bcc
d ebec
bd a
be bdc
b c</w>
bd ebe
dc dd
ed bbc
be dbc
dc bc
ee bbf
be ccc
ee ecc
ef bf
dc ec
a cc
be ebf
bc ebd
bc ecc
df cc
dbe cc
ec bbd
f bbbc
dc bf
bd fc
ee bbee
ebb ef
bc bbbe
bbbb bbc
bd ebc
dd ed
ec eec
f bebe
be dee
f dee
be edc
bb efc
bb ea
ee ccc
e b</w>
bbbb cc
ef dc
bf ebb
bc bbf
bb ebec
bd bbd
bbc bbc
bc dbe
f bef
bf ef
ec ecc
ec dbe
ebd cc
bd bec
f bbee
ebb dc
ebe ebe
bf bbc
bd df
ee eec
ec dee
be dbb
d ac
bf fc
f dcc
bc ccc
ed ef
ee ebd
ed ebb
ff cc
bc bbbc
ee bebe
f dbd
ed df
bbd cc
dd dc
bbbb ebb
dd bd
f bfc
bf ec
ee bdc
ebe ebb
f dbb
bf dd
ee dbc
ee ff
ed ec
d eccc
dc ef
bf ebe
f dec
be dbd
bc dee
ed bec
bb ebcc
ed ebc
bf a
ee beee
ebb ec
ee dee
bc ff
d bbbbc
d ebdc
dbb bd
ef ef
be dcc
ed ebe
bbc bbbb
bc dbc
ed a
f ba
be bbbd
be bbebb
ee bbbc
fc dc
ec ebd
bd eec
ebb ebc
ee ebf
bf bbbb
be dec
be bbec
ebb dd
bbf cc
ed fc
be ba
f bebc
bbc bd
f ebbc
dc ebe
ef dd
be bfc
ebb a
bc bdc
dc fc
ee bef
dc ebc
bb ac
ebb bec
ef bd
f beee
ed dee
be ebbc
bbbb bd
e e</w>
bc bebe
ebe bf
a a
dc bbc
bc edc
ebb fc
ed dbe
ec dbc
ee dcc
bbbe cc
ec dec
be bbcc
bd bcc
bbc bf
f bbbd
bd dbe
e c</w>
dc ebb
ebf cc
f efc
ded cc
ed bcc
dbb dd
ed ee
ec bbf
bf ebc
e d</w>
ef ebe
ebb bbbe
ec bbbe
ed bbbb
f bbcc
ec bdc
ebe bbc
d b</w>
f bbec
bbd bd
dc bec
dbc cc
f ea
ee edc
f ddc
dc eec
bc bbee
f dbf
bd ebd
ee fee
bef cc
eba c
ec ff
bbc ebb
ed eec
dcc cc
bd ecc
bbd bbbb
bc dec
fc bf
ebe bbbb
dc a
ef ebb
ee dbd
f ded
bbbc cc
bf bec
ef bbc
dbb ebb
dc ecc
bc dbd
ef fc
ebe bd
bc ebf
bbbe bbbb
ef ed
bc bebc
ef a
bc bef
ed bbd
fbe cc
dc df
dc ee
dbb bf
ebb bbd
bebe cc
be dbf
dd bf
ee ba
dbb ed
bc fbc
f bbbf
ebe ef
be bbbf
bc bbbd
bd bbbe
be ded
ec bbbc
be ea
ec ded
fc dd
be ddc
ebe dc
ec edc
bd dee
ebc ed
bb b</w>
be bbed
ebc bf
bbd bbc
bbbb bf
bc bfc
ee dec
f bbebb
ebc bbc
fc fc
bd bbf
bec bbc
ebb bcc
ebe ed
ebe dd
bb ebdc
ec dbd
b f</w>
bbd bf
d d</w>
ee bebc
bbbb bbbe
dc bcc
ebb eec
fbc cc
ee bbec
bc bbec
be debb
ee fbe
bbee cc
bec bf
bbc ed
bc ded
ec dcc
ecc ed
dbb dc
f ebcc
bd ff
ebc ebb
bc ebbc
bc dcc
f ac
ee bbebb
fee cc
dd a
fc bbc
bf bcc
bd dbc
dd ef
ec bebe
ee ebbc
ebe a
bd bdc
dd bbc
be efc
ec bebc
bf df
ec bef
dc ebd
bc bbcc
ee bbbd
bbbb bbd
ed ecc
dbb ebe
bb eccc
ebb bbf
dd ebc
bd dbd
f ebec
fc df
bbbb bbbc
bc ba
f debb
be bbbbc
be bbebe
f bbed
bbbb ebe
ebc bec
ee fbc
fc ef
ebb df
ed ebd
ee bfc
bebc cc
ebc dc
be ebec
fc bd
bbc bec
ee ddc
dbd cc
ebc bd
ee bcbc
ebb ebd
ed dbc
ec bfc
bc fee
ebc ef
ebc dd
ebb dbe
bbd ed
f def
bec bec
dbb ef
bbc ebe
a bf
bc beee
bbc ef
ec ebf
fc ed
ec bbec
ebb bbbc
ec bbee
df dc
bf bbf
dd ebe
d ebfc
cccc cccc
bd edc
ee ea
ed ccc
ee bbcc
d e</w>
bc fec
dc dbe
ebc ebc
be ac
be ebcc
bbc dd
bf ecc
bd bbbc
bbbbbbbb bbbb
bbc dc
ee dbf
dd fc
bbd ebb
dbb a
bcc ed
d c</w>
bc bbebb
dd eec
bec dc
bc fbe
dd df
dbb fc
ec fbc
ec beec
bd ccc
dd ebb
a ed
ec ebbc
bc fcc
f eccc
dc bbbb
bec ebb
bbc fc
ec bcbc
eec bf
bbc bcc
bc efc
ef bcc
ebe fc
bd bebe
bc beec
ed dec
ef df
ebe bbbe
dc bbd
bbc ebc
bf ff
be dbbc
dd bec
def cc
ebb bebe
e bb</w>
ebe bec
ebb ecc
bbcc cc
ee ded
bc eebc
eec dc
bf dbe
dbb ebc
bf bbd
bf ebd
ef ebc
a bd
bf bbbe
ebe bcc
dbb bec
ed bdc
fcc cc
f dbbc
ec ba
f bbef
ec bbbd
ee beec
a dc
bbbc bbbb
ed bbf
dd ecc
ef bec
be bbef
ebe ebc
bc debb
f bbdc
eec bec
bc dbf
eec df
beee cc
bc bbed
ef bbbb
be bbdc
ee bbed
bcbc cc
bbc bbd
bc bebd
a dd
f bbbbc
ed ff
dc dee
ebc bbbb
f da
eeee cc
d eba
be def
ed bbbe
ebc fc
ba cc
ec fec
bd dec
a fc
bb ebfc
dd bbbb
a bbc
bb eba
bf eec
a ef
df fc
bc fbd
bbbbbbbb bbbbbbbb
bc bbbf
ea cc
f dfc
bc bbbbc
bd bbbd
bbd dc
dbf cc
ebc eec
dbb bcc
ee bbbf
dbb ebd
bd bbee
bbbe ebb
bc ddc
ecc eec
fed cc
df ed
be debe
f bbebe
bc ebec
ee bbebe
ec fee
dbe dc
ebb ff
bccc cc
fc bec
a bbbb
bcc bbc
eebc cc
bc becc
ee fcc
ebd dd
ec becc
ebe bebe
bd ebf
ebc df
dc edc
bbf bf
ec debb
ec ddc
ebb bbee
cccc cc
ebd ed
a ebe
bbd ef
bcc bf
ebc ebe
dee dc
f debe
bbd ebe
ee bebd
eec dd
bbbe bbc
ef dbe
be bbebc
a ebb
bbbb bec
bcc bcc
f ebdc
df dd
ec bbcc
eec bbc
ee becc
bbd bbd
bd bef
ef ff
ee debb
be dbbbb
ed dbd
ef ecc
dc ff
ec efc
ed edc
ec beee
df bf
ef bbf
fc ebe
ec fcc
ee fec
bd bebc
bc dbb
ebd bf
ecbc cc
bc ea
f debc
dd dbe
ee dbb
be debc
fc bcc
ecc ecc
bbd bec
ee fbd
e f</w>
ec dbf
ec bebd
bd fbc
dc dbc
ed ded
bbc bbbe
dc bdc
dd bcc
bbbd cc
fc ebb
bc eebe
ee efc
ebe bbf
bc ebcc
ecc bec
ebc bcc
bbbb bbf
ec fbe
bd ded
fc a
bd bfc
bbc eec
ec bbed
bd dcc
bbbb ed
dd ebd
ebb ebf
bc fed
fc ebc
bbbe bf
fbd cc
be bbdd
bbbb bcc
bc ecbc
be dbec
dc dec
ec bbebb
bbbb dd
ebb dbc
be bba
bc def
bec ed
ee bbef
bc eeee
fc dbe
ec def
bc ecbe
bc eecc
bbc a
ee ebcc
ee ebec
bbc bbf
ecc ef
ebb ccc
ebb bdc
debb cc
be bbbec
bec ebc
bec dd
ee ac
ec eebc
bec ebe
f bbdd
ef ccc
bf ccc
bc eef
bc debe
bc eebd
bb d</w>
d bac
bf bdc
bec bbbb
bbbe ebe
ec ebcc
dbe dd
ebd dc
be eccc
bbc bbbc
bf ebf
ec ebec
ed dcc
ee ecbc
bbc df
bbbb bbbd
bec ef
bbd ebc
bd ba
ff dc
bf bbbc
bbc dbe
bbd a
bc ac
ebe bbee
be dfc
dbb eec
bbbe bbbe
be da
dee dd
ecc ebc
f bbfc
bec df
ed bebe
becc cc
d eac
bf bebe
ecc dc
bbd fc
ee dbbc
bbbb ebc
bec bd
bcc ef
ed bbbc
eecc cc
bcc ebe
bf edc
f dbec
ebb bbbd
ebb edc
bbc ebd
ebb dee
bc bbdc
ee bbbbc
ed bef
dc bbf
bec fc
bf dbc
ebe df
ee def
bbbb ef
ebb bef
dc dcc
ebd ef
be ebdc
dd dbd
be bbfc
bd ebbc
bb c</w>
bd bbec
bebd cc
ebc a
ec fbd
df a
ecc fc
f dbbbb
eec ef
bcc fc
bbbb a
bbebb cc
bc dbbc
dd dbc
ec fed
f bbebc
dd edc
ec eecc
dd bbd
df ef
debe cc
bec bcc
bb e</w>
ebb bebc
ebc ebd
dbe ed
ecc bf
f bba
bbbf cc
dbe bf
bbebb bbbb
ec ecbc
bcc bd
bcc dc
ebe bbd
df bd
ed bbec
ee bbdc
ebc ecc
bec eec
bc bbebe
ff bf
bcc eec
dd bdc
bbf bbbb
ebb beee
ec ea
bbbc bbc
dc dbd
ebd df
bbd eec
bbf ef
ec debc
bcc bec
ebd bd
ed bebc
ebe ecc
ed bbee
bf dee
ebe dbe
fc eec
bcc ebb
bcc ebc
bf bbee
ebd bbc
ebe beee
ec deec
ee ecbe
bcc dd
e be</w>
bb bac
bbf bbc
ff dd
ebd ebb
be dbbd
bd fee
bb bb</w>
fc dee
bbbb dc
bec a
ee dbec
f bbbec
bbed cc
ff ef
ebd eec
ed ebf
bc debc
ebe eec
ecc bbc
df bbc
bd ddc
be deec
ec bbbf
ecc dd
bc bbdd
ebd bec
bd beee
f dbcc
ee bba
ebb bbebb
f dbbd
ef eec
bf bef
ebb ebbc
bbbb fc
bc bbef
ec dbb
ebe ff
ebd ebc
fbf cc
bbd bbbe
ecc ccc
ef bbbe
ecc ebb
bc dfc
dd dee
edc ed
eec eec
bd fbe
dbe bbc
ec dbec
ebe ebf
ebe bbbc
bcc bbbb
bbf ebb
ff fc
ef bdc
dd ccc
dc bbbe
ee eccc
bebe bbbb
df ebc
ed bfc
ecc bd
dc ded
e bd</w>
dbe bd
bbbd bbbb
a ebc
dbb bdc
f deec
ebb dec
bc dbbbb
e bc</w>
ecc edc
ec dfc
be bbbbbbbb
ebe ccc
debc cc
ebd bbbb
ee da
d bb</w>
ebe bdc
bec dbe
ebb dbd
bbf fc
bd bcbc
ecc a
ef bbee
be dbcc
ebd a
ef ebf
ed ddc
ebe eeee
ef bbd
ef bebe
ec dbbc
ebd fc
ebc bbd
ec debe
bf fbc
be bbbcc
dbd dd
bd fec
ebb fee
ec bbdc
dc ebf
ebc dbe
f decc
bc eccc
edc eec
bf bfc
ed beec
ed fbc
bd debb
ebc ccc
bd efc
ebb bbec
ef dbc
bbf dc
be bbeec
eec a
ebe ebd
ef dee
bd bbcc
fc bbbb
bd beec
ee bbebc
ebe bef
ebc bbbe
ba a
ec bbbbc
bbf a
fc ff
ef ebd
bbc dee
dd ff
ebb eeee
eebd cc
bcc a
fbe bf
ee debc
f debd
bbc bdc
ed ba
bbc dbc
dbe fc
ee debe
ecc ebe
bd dbf
ebb fbc
bcbc bcbc
bbee bbbb
bc ebdc
bec dee
ecc df
dec dc
ec ac
ec eccc
be debd
ff a
ebb ba
be bbebd
ebb bfc
ed bbbd
ef bef
ec eeec
bc dbec
bbc bebe
bc bbebc
eec ebc
bbd bcc
f bbbcc
ee fed
ec eeee
be eba
ed def
ee bbdd
bbbb dbe
bbbc bbbc
ec eef
be b</w>
bbd bbf
dbb ecc
a df
ec da
ec decc
f eba
ed ebbc
dd dec
bd bebd
bbbb bebe
ee dbbbb
dbb ccc
bbbc bf
ef fee
d f</w>
ec eebd
ebf bf
bbd ebd
ed dbf
ebc bbf
bbbb bbebb
ed fee
ec ecbe
bd bbebb
bc bbfc
ebe dbc
bc da
bef bf
bbebe cc
bd fcc
bbc ecc
ec eedc
edc dc
eec fc
bd eebc
ebc dee
bd fbd
f b</w>
dd dcc
edc ef
bc deec
ff ff
ec fdc
f ebfc
df bec
ed debb
f dbbf
ee ebdc
ecc bcc
bbbb bbbbc
bdc dc
bbbe bec
bbee bf
febb cc
beed cc
ee dfc
bbc ff
bbbe dc
ed beee
fc ecc
ebd ebe
df ebe
eec ebb
a bec
eec bcc
fc bbf
dee bf
eebe ebe
df ecc
be decc
eec ed
bebe bf
bdc dd
bebe bbc
fc dbc
edc bec
df bcc
ec ebdc
bbd bbbc
bebf cc
edc dd
bbee ebe
bd bbed
dc bbbc
bdc bf
ebc dbc
dc fbc
dbe bec
df ebb
dbe bbbb
ee bbfc
eeee eeee
ee deec
bc bbbec
bbee ebb
f dccc
ec eebe
eec dec
dd ddc
eec bbbb
bbf ed
bdc ed
ebc dec
bbf ebe
a bcc
bbf dd
bc bbbbbbbb
da cc
fc bbd
bbbe dd
ef bbbc
bbbe bebe
bf dbd
df df
dbe ebb
bec ebd
ec bbdd
bec bbd
eec bd
ebc ff
be bbecc
dbc dc
dbe ebe
ef beee
ebc edc
bf dec
bbbc ebb
dbe a
ed efc
ecc ebd
fc ebd
ed fec
dc bfc
dc ddc
be dbbbe
f bbeec
eec dee
bf fee
bd ea
bbef cc
dc bebe
bdc ef
ebb bbcc
be dbbf
bf bebc
bbc dbf
bcbd cc
bd dbb
bdc ebe
ec fbf
bbbb bbee
bd ebec
bc dbbd
eec dbe
ee bbbec
eec ebe
bbf bbf
bbc bbee
bd becc
bc bbbcc
ee eba
ebb fbe
dc fec
bb eac
bbd bbbd
fef cc
dbe ef
bbbe ef
bc bba
edc df
ebc bbbc
dbc dd
bbbbc bbbb
ff bbc
bbbe ed
ee dbcc
dc bef
bbbe bbbc
ebe fee
bdc bbc
ec bbebe
be ebfc
dbb ebf
f dbdc
bcc df
ec bbebc
eec ebd
f e</w>
bf dcc
bbbe a
ebb bcbc
bebe bebe
fc bdc
ebf ef
fc dec
bec dbc
bcc ebd
bcc ecc
bf ba
bbbb ebd
ded dd
edc ebc
ec dedc
fbe ef
ee dbbd
f bbebd
bc debd
eec dbc
bbc bbbd
bbd bdc
ebb bbbf
ed becc
a dbe
bec ecc
a ff
bd def
bd bcbe
ed bbcc
ec debd
ec febb
bebe ebe
decc cc
bd bbbf
edc bf
bbbe bbf
dc efc
ed bbebb
df dbe
ec ecbd
ed bcbc
f bbecc
ebc bdc
bbd ff
ebf bbc
bec dec
dee bbc
fbe bbc
dc bbee
dbc bbc
bf beee
bf ebbc
bebe ebb
bc b</w>
ef edc
bd dbbbb
dbe dbe
ef dcc
a ba
bec bbbe
bbbd dd
bbebc cc
ebb ded
ebd ebd
ec bbef
bd bcf
bc dbcc
df ccc
bced cc
bf fbe
bbbe ebc
ec bdbd
bbbe bbee
dd ded
ebb dcc
bd debe
a ecc
dc bebc
edc ebe
a bbf
dd bbf
beebb cc
bec bbf
bd eebe
a bbd
bec ff
ebc bebe
edc fc
bbbe bbd
be dccc
bf fcc
ebf fc
bf bbec
ed fbe
bd ac
bd dbbc
bef dc
f dbbbe
bdc fc
bec bbbc
bbc dbd
bf bbbd
bef ef
ed bbed
bd bbbbc
ed debe
bdc eec
ebd dbe
dec dd
ebf dc
bd ebcc
bd bcbd
ec ecf
bd bbdd
bdc ebc
ebb eebc
ebf a
bbee bbc
ebf ebe
bcc bbd
ebb fec
ec bbfc
bbbe fc
ebb bbbbc
ed bebd
eec bbd
bc decc
bef dd
ebb debb
bbc bebc
ebb bebd
bd bcee
ebc bebc
dbd dc
eeed cc
ebe bebc
bbc dec
ebb eebe
eec ecc
dbc ed
dbb edc
bdc bec
bd fed
ecbe dc
dbc bf
fbe ebe
eec ff
dbc fc
be dbdc
ded dc
bbd bebe
ebd ecc
cccc ccc
a ccc
ebe dee
ef fbc
ecbd cc
be bbebf
bd eef
dbbbb bbbb
bcc dbe
edc ecc
ee debd
f c</w>
dbc ef
bf bcbc
bbd ecc
bd eeee
dd fbc
ebbc bbbb
bbc ebf
df ff
ed fcc
dc fee
dbc bbbb
bec bbec
f dedc
df ebd
bd bbdc
bbc bef
a eec
bcc ff
dc fcc
dee fc
ec dbcc
ebb ea
a ebd
df bbbb
ebe edc
a bbbe
ef dbd
bbf ebc
bfc bf
ef ba
bbf bec
df eec
bd eecc
ee bbbcc
bbbc ebe
ebbc bbc
ebf bbbb
dd bbbe
dee ccc
ed eebc
ebb beebb
ec dbbbb
ee bbeec
ef dec
ebc ded
bf bbcc
ef bfc
bbd bbee
bcbf cc
df edc
be dbbbc
f bac
ec eedd
ff ebe
bef ebe
dbe ebc
dcc ccc
bd ecbc
ecc dec
bcf fc
bbbe bcc
ebb efc
fbe dc
ebd dee
df dbc
ff ccc
ee b</w>
bbc bfc
ee dccc
dbe bcc
ebb beec
d eb</w>
ebb bbed
bd fdc
ee decc
ebd bcc
eebe ef
fbe bbbb
bd beed
beee ebe
bbd ccc
fc bbbc
ecc bbbb
eec ded
bdc bbbb
dc ebbc
bbee bbee
bbc bbec
dbbd cc
ec bbbec
bd ecbe
ba bbbb
eef bf
be e</w>
ed ea
bd eebd
df bdc
f d</w>
ee bbecc
bd bcec
bbbe dbe
dc bbbd
debd cc
bcc dee
bec bdc
bef bbc
ec eeed
f debf
bcc bbf
bef a
eebf cc
ed fbd
dd ebf
ef ebbc
bd fbf
bbbc bec
ed bcec
dbc ebe
ed ebec
edc a
bbdd cc
dbb ebbc
bbc fbc
ed ebcc
bbc bcbc
ebb bcbe
fdd cc
bc bbebd
bcf dc
eebe bf
dbb bfc
eeee ebe
d bd</w>
bbf ff
ee bbebd
ebd bbd
bdbd cc
ebb ebec
dcc dd
dbb ba
df bbd
bbc edc
ecc ff
be bbbdc
bcc bbbc
f bbebf
dc bbec
bcc bdc
bbbb ccc
bcebb cc
dd bbbc
bd debc
bf fec
bec bebc
ebb becc
f dbbbc
dd bebe
bf dbf
eef ef
eef ebe
fbe fc
bf fbd
bc ebfc
ec dbbd
bd beebb
bbbb eec
bef fc
ed debc
ea a
ebb bbebe
dcc dc
bf efc
f eac
bbf bbbe
dbe df
ebc ebbc
bcc edc
bbc ebbc
ebc bbee
bd eeec
dd bbbd
dbe ecc
f bbccc
ebc ebf
bc dedc
dec bec
bebe bbbe
a bbbc
ed beed
bd bccc
dee ebe
ebd ccc
ebc bfc
eebe bbbb
a dbc
d bc</w>
bbee bbbe
df bbf
ebd ff
eec bdc
a bba
fa cc
ebb dbf
fc ded
ebd dbc
bcf dd
d be</w>
fc fbc
bc bbeec
ebc dbd
bbbb bebc
bcc dbc
ebd dec
ebe ba
a dee
bebe ef
bd dfc
ecbe dd
bbd edc
febc cc
dc bcbc
ed deec
bbc bbcc
fc dbd
be dedc
bcc bbbe
bbbc bbbe
fc dcc
bbbb bdc
dc beec
a bdc
fee bf
ed eecc
bbbb dbc
be bbccc
bbd bebc
dbe ccc
ebb fbd
fc bef
dbbbb cc
ef bebc
be bbedc
ec bba
ed fed
ebd edc
ecc bdc
ddc dd
bbbb dbd
bc dbbbe
ebe bbbd
fbe dd
febe cc
ecc dbe
ebb fcc
bcbe dc
bcf bf
bbf df
dee bec
fc bfc
b a</w>
f bbbdc
ecbf cc
fc ebf
dec bbc
ec eeebb
bd febb
ebb ebcc
ebe bfc
bd da
ef eeee
bbbb bbec
edc bbc
eef a
bbbc dd
ebc fbc
fc bbbe
be bac
bbf bcc
bbd ebf
bcbe dd
bf bbebb
bd bedc
be d</w>
ed dfc
bbbd bbc
be c</w>
bd bebf
bc dbbf
ed dbec
ed eeee
bec bebe
bf ded
be dbbee
edc dec
ef ea
bec ded
dee a
bf bbbf
bbee dc
ff df
bbee dd
ebe bbebb
beee bbbb
be debf
ebf dd
ed dbbc
be bbebbc
eebe ebb
dee dbe
bbf dbe
bc dbdc
bc bbecc
beebe cc
ef bbec
eebe a
ee dbdc
dc ba
bba cc
ec edcc
ec bbecc
ebc bef
ebe bbec
ed bedc
dbd bf
ed bcf
eeebb cc
fc bebc
dbc eec
ccc dc
ef fcc
ebe ebbc
ee dbbbe
ccc dd
ed da
df fbc
ec dbdc
ff bcc
fbe a
dbc bec
ebd bbbe
eec bbbc
ed ecbc
bcbe bbc
ebc fec
ebd bbf
bd dbbd
bbbf bbbb
ebd dbd
eec bebc
ebe fbc
ebd bdc
dc beee
df dbd
ee dbbf
dee bcc
ebe dbd
bd b</w>
bbbe bbebb
ebe dec
fc edc
df dcc
bbee ef
bef bbbb
ec dccc
bcbe bbbb
bb bd</w>
ee bbebf
bd bbebe
ed bbbf
ecc dee
bbee a
edbd cc
ebb febb
bf ea
ec bbbcc
bec dbd
bccc ccc
beef cc
bbbc bbd
bbec bbc
ecc bbd
dc fbd
bd dbec
bfc bbc
dc eebc
eec dbd
bdc a
ebe bcbc
ed bcee
dbe bbd
dbc ebc
ebb bcf
f dbfc
eec bbf
ecebb cc
bbbc ebc
fee ebe
df dee
bec ebbc
ebd bebe
bd deec
ed ac
eebe bbc
bc c</w>
beee bf
bbbc ef
bbbb bbcc
dc eecc
ebe bbcc
bdc ebb
ed dbb
ebe dcc
ebf ebb
dbe bbbe
fbe bcc
bcbe bf
efc df
bfc fc
bbd fbc
bbbc bcc
e bf</w>
ebc dcc
bebc bbc
efc bf
ecc dbc
dec bf
a ebf
eec bbbe
edc dee
dc dbf
bbbb ebf
bbbb df
f dbbee
ebc bbec
dd bfc
fbc bf
dc ebec
ec ebfc
dbd bbc
ebb ddc
ef ddc
bbf bbd
bc dccc
bbbc fc
ebc bbbd
f bbbbbbbb
bec bfc
bd bbef
ed bcbd
ed bcbe
bedd cc
ba dd
ef bcbc
fee dd
ebbc bf
bb f</w>
ecc fec
ec b</w>
ec bbeec
ef fbe
ed bbdc
ed beebb
ba bbc
ebb bcbd
ecc ded
edc edc
dcc fc
ebd bebc
ec eebf
ebb ecbc
bbbc dc
dbe bbf
ebc bcbc
bcf bbc
ebb eef
bbbb ff
dbe eec
fc bbec
bebe bec
bebe a
ee ebfc
bcc dec
bcf ef
bdc df
bbbb ebbc
dcc eec
bbbb bcbc
dbe dee
ec bbebd
ba bf
ed bccc
fee dc
cc ccc
bbbb dee
bec fbc
be dbfc
be bbba
bebe dc
ff bbf
bbc bbebb
bbbd bf
ebb bebf
ebb eecc
fbe bec
bbbb bbbf
dbc a
ea dd
bd ebdc
ded bbc
ef dbf
bbbb bef
edc ebd
bbee bbf
ecc bbf
ebc eebc
bbd bbec
edc bcc
f bbedc
bec bef
bec ebf
bbcc bbc
eef dd
ecbe bbc
dee df
bdc ebd
dc debb
bc bbccc
ebb bbbbbbbb
dbe ebd
be debbc
bcef cc
ccc fc
dc fed
bbd bef
ebb eebd
dbc dbc
ee dedc
bdc bcc
eec dcc
ec edbd
bbd bfc
bebe dd
bf ddc
bb bc</w>
fec dd
ef bbbd
ed fdc
dec df
bbf bbbc
a ea
beee beee
bbbb ecc
d ee</w>
dec fc
bdc dbe
eebe bbbe
bc eba
ebb fed
bcebe cc
ebf bec
dbc df
fee ef
bbd ebbc
bc debf
bebe fc
bbebb bbc
ebb bcee
ee d</w>
ecc eecc
bebc bec
bd bced
ff ed
bebc bf
dec dee
ebd ded
bd fdd
ef bbcc
dc bbcc
a dbd
ebb eeebb
eedd cc
fbe bbbe
a edc
bbc ded
bebe bcc
dec ebc
ff dbe
bec bbee
dc becc
bbbb ba
bf beec
ef efc
f debbc
ebb bbdc
f bbbfc
d ed</w>
ecbe ecc
eef bbc
bd eccc
ebbc ebc
ecf fc
a bbee
bd eedc
dc fbe
bcc ebf
ff ebc
ebe ea
be defc
fbc bbc
fbc fc
be bbbfc
ef ded
bb eb</w>
bebc bbbb
bbbbc bbc
ebb bebbbb
bec edc
dc bebd
bcbe fc
bcee dd
df ebf
dc ebcc
bbbd bbbd
f dba
dbc ccc
bf ac
beee bbbe
bd fef
ebb bcec
dbd bbbb
df bbbe
beee bbc
bebe bbf
bea cc
bdc dee
eec bfc
bc dbbbc
eec edc
ee c</w>
ed eebd
ebc efc
d ec</w>
dbbf cc
dd bbee
bebe bbee
be dba
fbe bbf
ed decc
beebc cc
bdc ecc
dd fec
ebb dbbc
ebd bbbc
bf bcf
bec beec
bec dcc
ebb fbf
fc fee
bd ecf
dd bef
bbec bf
bebe ebc
ebbc ebe
dbd dbd
ecbe ebc
bcc bfc
a bef
ee dbbbc
eeee beee
eef dc
bbd ba
bdc bdc
bbd bbcc
ef fec
ddc dc
bd bebbc
fecc cc
edc ff
fc bcbc
bbebb bbbe
ebb bccc
dbc bcc
ccc bcc
bd ecbd
a fbc
ebf bbf
ebb dbbbb
edc dbe
ed bced
ebf ebc
bb be</w>
bbc ba
fc beec
fbe ff
dee bbbb
bf debb
ebf bcc
ecc eebc
ed bbbbc
ebf ff
ed eeec
eec fec
bd ffc
bbbc bbf
bf becc
ee e</w>
eba cc
ebc beec
dbe ff
dc bbed
bd bbfc
bbbc ccc
fbc ef
bd debd
ebc debb
dbc dee
bbc beee
bec bbbd
ebbc dd
bbbe ebd
ebb beebe
f bbba
df bfc
bf bbed
ebc fee
ed bbebe
bbbc a
ed bbdd
debf cc
dbc dbe
beee bbee
bcf ebe
bbd bbebb
dcc ef
ed eef
bc bbbdc
ebbc fc
dd fcc
bf fbf
bbec bbbb
dec bcc
ed bdbd
dd bebc
ecc bbbe
eebe bbee
dd efc
bfc ef
dbe bdc
ee bbbdc
bef df
dee ef
ec dbbbe
fec df
ee bbedc
bc e</w>
ebec bbc
ebc bebd
bd bbebc
ed eccc
ccc bbc
ecc bebc
bcc dbd
a bebe
dbb efc
bcc bebe
ebc ba
ec dbbf
dc ea
ff bec
dbc ebb
fc fcc
bd bedd
dbe bbbc
ebbc bec
bbbe bebc
bef bbf
bcbe ebe
be eac
ccc ecc
bcbe bec
bf eebc
bbbe bbbd
bbbe eec
bd bebbbb
bcbc bbc
dc def
dbc bbd
a fee
f defc
ff ecc
bf bebd
edc ded
bcc fbc
bcebc cc
bd bcebb
f bbebbc
bf eeee
fbe ebb
bbec bec
eec bebe
ebc bbcc
ebc becc
bbc fee
bc d</w>
bbbb fbc
bd fbbc
ed bebf
ecbe fc
bd ecec
ebf df
dee ecc
bbbb bfc
dd fee
dbe dbc
bbebb ebe
ebb bbdd
ebd bfc
dbb ebec
ec eba
bd bcbf
bdc bbd
fc bbee
bbbd bbd
bcf ebc
fec dc
fc ebbc
ebb bbef
bef bcc
df dec
bd cccc
bdc ff
bd eeebb
bbc dcc
ed fbf
ecc efc
eec becc
bbf ccc
ed cccc
dee ebc
bcf a
bebbbb cc
ec c</w>
bf fdc
ecc dcc
bef ebc
ebb ac
bc dbbee
df fcc
dbd ef
ba ebe
bbee dbe
ecc fbc
ed dbbbb
dec ef
bd bba
bef bec
bd eebf
eec bbec
bbf ebd
f f</w>
ebb debe
ed debd
ebb bedc
dec dbe
eec beec
dbc ebd
bbebd cc
bfc dc
bd dbcc
bbee bec
ff bbbb
ed eedc
ebb dbb
ed ebdc
ecf dd
fc bebe
bfc dd
beee a
eec ebbc
bbee bebe
ba dc
bcee dc
fbe df
efc dc
fdf cc
dbf dd
bc bbebf
bf ebec
bbc bbbbc
ee bac
bfc ebe
dbc ecc
dec ebe
fc fec
ef fbd
bd bbbec
bf ebcc
eec debb
ebf ccc
efc dd
fbe ccc
eec bef
be bb</w>
eec fbc
bbd fee
bfc df
bbdd dd
ef bbebb
fbe ebc
ebb ecbe
ebb beed
dec dec
ebd fbc
bd bcdc
bbc fec
bc bac
ebe bebd
bd eeed
bcc bbee
bebe bbbc
bbbd bbbe
bf bccc
eebe fc
ea dc
ebe bbbf
ee bbccc
bcc bef
ebb debc
bbcc ccc
ebe beebb
eebe dd
bbc beec
bbf ebf
bec bcbc
bbd beee
ed febb
eeef cc
fed dd
bec fec
bfc a
ec eeebe
bcc dcc
dbe bebe
dbb bdbd
eec ba
eebe dc
bbcc bbbb
bf def
dbf fc
bbbe df
ec efcc
fbe bbee
bf ecbc
dbd fc
beee bebe
dbd ebe
a dcc
bbf bebe
ecc ebbc
bd febe
bbecc cc
bf bcbe
ef beec
eebe ebc
eef bbbb
dbd df
bebc ebc
ee dbfc
ed dbbd
ec e</w>
bef dbe
bbee fc
ebf bbbe
fee a
dbd a
bd ecee
ebb bcebb
bbbb dbbbb
bcf ccc
bef ccc
bd decc
dc eebd
ed bedd
dec eec
bbbd ebe
eeee ef
ecc bbbc
bcdd cc
ecc bfc
bcc bcbc
dc fdc
ded df
bd beebe
bdc dbc
beee ef
ecc ebf
ec deecc
bcc bebc
dee dbc
bbed dd
debb bbbb
bbf eec
ebd ebbc
bbbe ff
ebb def
bbee ebc
ecdd cc
bbbd a
ebb bebbc
bbbf bbc
dbbbe cc
dee dcc
bbec ebe
eef fc
eebe ebf
dbd dbe
bd edbd
bf bcee
bcc ded
a bca
bfc bec
ecc bebe
efc ef
bd d</w>
bcbc bbbb
bcc fec
bbbe ebf
bbbc eec
ebd ebf
bbbe ccc
ebc fbe
ebb ebdc
ecf bbc
cccccccc cccccccc
ebb eeebe
ebc fcc
bbd bebd
ba ba
dc bcee
fee bbc
ec debf
ecbe ccc
fbc df
ebbc ef
bf bbbbc
ebe becc
fc dbf
dee dee
eebe bbf
bcbbbb cc
bbebe bbbb
f dbbcc
ecc fcc
ebd dcc
bbbc dbe
ba ef
dec a
dd fbd
bd bbbbbbbb
bec becc
eeebe cc
ebb eebf
dc beed
ecc dbd
dbb ea
ebe ded
fbbd cc
bbbc bbbd
bdc edc
ec defc
ec ebccc
bbbc ed
eec bcbc
bbd bcbc
ebc eecc
bdc dbd
a bfc
bbbf bf
bbc bebd
bcf bec
ec ebecc
bbf bbee
eebe bcc
bcbe ef
be dbbcc
ed dbcc
ccc ef
ff dcc
ec debbc
ee bbbbbbbb
bbc eebc
dbe edc
eeee a
fbc bec
ebb bdbd
bebc ef
dee bbf
ebd debb
bbd beec
ebb bbebc
dd ba
ed bebbc
bbd eebc
ea ebe
ebd bbee
dbc bbf
fc eebc
ee dba
ebc ddc
bebc ebe
ecf ef
ecbe a
ecbe ebe
dbe bbee
ebd bbbd
bbbe bbec
ff ebf
bbd bbed
dc eeec
dd ebbc
bcc bbcc
bd beef
bbc efc
ebb fdc
bedbe cc
ed bbef
beec bec
ed bbebc
ee dbbee
ded bec
fc efc
a bea
ebc ebcc
bdc dec
bc dbfc
dbc ff
dd dbf
bbbb beee
dc debe
bcbe dbe
dcc ecc
eec fee
dc ecbc
ed dedc
ebb eeec
bbc bbed
bbbc bebe
bf fed
bbcc ebe
dc eeee
ed fef
bc bbedc
eef ccc
fc ba
be bbea
bbbe bdc
bcf df
ebc beee
bf bcec
ac a
fec bec
ebc ebec
fc bbbd
ebf ebf
ebd eebc
beebb bbbb
dc dfc
dee bdc
bbf ecc
dcc ebe
dbd bec
dd bbec
bbf bfc
dd beee
dc bcbd
fcc ccc
bbc debb
bcbe bbbe
ecf ccc
fc bbcc
ea ea
ebb bbbec
ec bbccc
ecbe bcc
bbbc df
eec bbee
bbc ebec
ebb dfc
ff bdc
bbbb bbed
ff bbd
eef df
bbbc ebd
bf bcbd
ed bcebb
bbc bbbf
bbf dbc
eec bbbd
ebc ecbc
fdbe cc
bf bebf
ed ecbd
ecc becc
ebc dbf
bbf fbc
a dec
bec fee
ec dbbbc
fcc ef
ebe bbebe
bec debb
bcc bbec
eeee bbee
bd edcc
dc bccc
fbe dbe
ff dbc
ec dbfc
fbe ebf
bebc fc
eec eecc
ebd fec
dd debb
bd fa
bbbe dbc
eec ebf
bec ba
dee bbd
eeee bbbb
ed eebe
ee debf
bcbe bcc
dbd bbd
ec bbedc
dcc bbc
ecbe dbe
ded bf
ded ccc
bfc bbbb
dc eccc
edc dbc
bcbe ebc
eeee bf
bbf dee
eec eebc
bec bbcc
fc def
bcc efc
ef bbbf
ed fdd
bbbd bbee
edc bdc
dc bbebb
bbbb bebbbb
bec efc
ebe beec
ed bcdc
edc ebb
eef beee
fbbbb cc
ee ebccc
ebc fed
dc bcec
eeee bebe
ee bbebbc
eec bebd
bcbe a
bbf bef
bd febc
ef ac
eebe ecc
febd cc
eedbe cc
edc fec
bbd fec
ded dbe
fbe bbbc
ef bbed
bec eebc
bbbe beee
bc bbebbc
bbbe bef
edc bbbb
df bbbc
bbd fbd
ebe fcc
ecf a
ebd bef
ec d</w>
bcf bcc
fbc dd
fc becc
dbd dee
bd bbbcc
ebb bced
be debec
eec ddc
bd bbebd
bbbe ecc
ef fbf
f dac
ecbe bbbb
dcc bec
dec ecc
fbe bdc
bbd efc
bcc ebbc
ff ebd
fc ddc
ed bbfc
ded dee
df bebe
ed ecec
dbe bebc
bbf bdc
dc ac
bf dbbc
def dd
ebe bbed
bcc bbbd
df ddc
dbe dbd
fee ccc
ebb eccc
dcc ebc
be debcc
bcf bbbb
bbec dd
bbc becc
bbec ebc
f dea
bbbc bcbc
eec efc
ba fc
ed ffc
bcf bbf
ebe eebc
fcc fc
ebb eedc
ea ef
bfc ebc
dec dbc
bd dbdc
dd eebc
bf febb
a bbbd
bec bebd
dd eecc
f bb</w>
bc debbc
ebb fef
ed b</w>
ebb dbec
bcf dbe
bbd ebec
bf eef
ebf bebe
ec bbbdc
dbb ebcc
dec bbbb
f bbefc
ecbe edc
eea cc
bd eedd
beec bbc
ebb bbfc
ebbc bbbe
ac ba
dbc bbbe
ebe fbe
ebb febe
ebe debb
eec bbcc
eebe ccc
ebb bba
bfc bcc
ebbc a
fec bf
ebc bbed
bbd bbbbc
bd ecdc
ebd efc
ebc fbd
fbc bbbb
ecbe bf
d ebac
ec bac
bebc bebc
ebbc dc
bbc fbd
ebf ecc
ee debbc
eef bcc
bd dbbbe
ebc eebd
be bbebec
fbc ccc
bec ebec
fc fbd
eebe ff
dbf dc
ebe efc
bbebf cc
ebb ecbd
be bbefc
f debec
bbc fcc
ebc bbebb
dbb b</w>
dcc ed
bbcc ef
bd ecbf
dcc bf
bef bbbe
eeee ccc
ee eac
ee bbba
ff dee
bd eced
ebb bcdc
dd bcbc
fc ebec
ecf ecc
bbbc dee
ebe ddc
fc debb
bbbd ef
eebe bec
efc a
bdc bbf
eef bbf
edc eecc
ebf bef
ebd bbec
bbebb bf
f debcc
bebe beee
bebc a
fec bbc
eec fed
dc deec
f bbea
ed beebc
bbbc bbee
bc defc
ea bf
bcf ecc
be dea
ef ecbc
df bbee
bebbd cc
ebb beef
dd beec
ebe fbd
ed ecbe
eebc bbc
dd bbcc
bc bbbfc
bbbd dbd
ef ebcc
a beee
eec dbf
dc eedc
edc bbd
fee bbee
ebbc bcc
dc bbdc
bcbe df
bebe ccc
dc bbbf
beecc cc
dc dbbc
ecc bbee
ebe ebcc
dbe dec
dc bedc
bbbe dee
dcc dcc
ecc fed
bef bbee
fbc a
bbed bbc
ebb fbbc
efc fc
ebb bebbbe
bdbd bdbd
ebb dbbd
fbe bbd
ee defc
ebb bcbf
dbbbc cc
ebd bebd
ef bebd
ebd ba
ecc ebcc
ebbc eec
dc debc
dddd dddd
ebe bccc
ebe beebe
bddd cc
ebf fee
efc bec
dbd ebc
ef debb
dd bebd
edc eebc
efc bbc
bebc eec
ebe fec
bf bbdc
bbbb bebd
bbbe bbcc
bbd bbbf
ebd ddc
ef def
ecbe dbc
be deecc
ebe dbf
bcbc ccc
ebe bbbbc
dee ed
ff fbc
dbe ebf
bbec df
bcbe bbf
dd becc
bbbd bec
ecbe bec
bd bfcc
bd dbbf
bcee bbc
bd ebfc
ef becc
bc eac
bc bbba
a ac
bbbc bebc
eec fbd
ebd fee
dbb ecbc
eef bebe
dcc bcc
fbc ebc
ebbc bbd
bbbc dbc
fbe ed
ec dbbee
bd bbeec
fed df
edc bebc
ded a
ecf bcc
bfc dbe
bd dedc
eeee bbbe
fbe ecc
dbf bf
bdc bbbe
bbf bbbd
ebd beec
bbcc bf
eec ebcc
bedf cc
bbbb bbebe
bebe bbd
bec beee
ecdf cc
ebd becc
ebc ea
ed befc
eec bedc
ccc bf
a bbec
eef bbee
bfc ff
dd ebec
e a</w>
ed bcbf
bef ebf
ef bccc
dcc df
bebc bbbe
ebc debe
dee bbbe
bef bebe
ebb bbbcc
bbcc bec
ec dbecc
fee ff
ded fc
dd fdc
dd ebcc
ed beebe
bbec fc
bbebb bbebb
dbc dbd
dee bbee
bcee bf
debb bbc
eddd cc
ebe eeebb
fbc dc
ea bbc
f deecc
beee eeee
df fec
fbbf cc
ee deecc
ebf dbe
fcc bec
bbbd dbe
bf beebb
ed fbbc
bbee bcc
edc dbd
ebe ebec
bcf eec
bf bbef
bbf bebc
dc bcbe
bbbc bbec
ebd eecc
bd eebbc
bec bbebb
bbcc fc
ff dbd
bec ebcc
df fbd
ebe bebf
ebb da
bfc dee
bcc fee
bbbc bbbbc
ded ef
bbd bbdd
bbbc bdc
ebb bedd
df bef
ebbc dbe
bbd becc
bf bbebe
ddc fc
bbbd dc
dea cc
ebe bcec
bcbc fc
eef bef
ecf bec
ebe ecbc
ff bbbe
dbc bdc
ecc bbec
ef bcec
bcc fcc
bbbb bcbbbb
dbe dcc
bd e</w>
bcc bccc
be bbebcc
ecf ebc
bcbc bf
ecc eebd
bcbe ccc
ebcc bbc
a bebc
ff fee
a fcc
bbf dbd
beec df
ebbc df
bebe bdc
ff bef
eef bec
ecc bef
ecc eccc
ef fdc
ef eebc
ecf edc
fc bebd
bcf ebd
bbbc bbebb
dd bbed
ef ebec
bcc eebc
bbcc ebc
ebbc bbf
dc fbf
bca cc
bbbb beebb
dbd eec
bf fef
ebbc ebd
bdc ebf
ecc beec
ecc cccc
ecbe ebd
bbd bdbd
fbd dd
ef bbef
bcf edc
bf eecc
ded dbc
dcc a
fc bbed
fbc ebe
dee ebd
dbd ccc
ebc bedc
ed eeebb
ff bbee
eebe bdc
dbf bbc
bec bbed
ee bbbfc
bbbe bcbc
edc efc
eec debc
ecc bcbc
dec ebd
bebc dd
a fec
ecbc bbc
fc ebcc
dbd dbc
bebc df
bbbd bbf
bbd bbdc
ecbe dcc
eec beee
dbd bdc
bbbe ebbc
bcc beee
fbe dbc
bbbd df
ec debcc
bec fcc
dbbee cc
dd ea
bbf fee
ebc bbbf
dc ebdc
ebf ed
bbee beee
bebbbe cc
ebc debc
bcc eecc
edc dcc
ba df
ecc ecbc
ecbe ed
dee eec
bd ecebb
dec ded
bd c</w>
dbd ed
bf dbbbb
bf dfc
eef bbbe
eebc bec
ebb bcbbbb
bcbe ed
dbf ef
dec ed
ecee ccc
ec bbebf
eec dfc
ecc eedc
eef ebf
dc fdd
bcbe bbbc
ee bbea
bfc bbf
a bbcc
ebc bcec
ebe eebe
bbec ef
bbd fcc
dec bdc
edc bbf
dbb ac
dd bbdd
ebec bbbb
fbc bcc
dbe bef
dc bbdd
dbc bbbc
edc ebf
fee fc
dd fed
fbc ff
ebd bcbc
eebbbb cc
bbec dee
fee beee
bc bb</w>
bec dbf
fec ef
ebe eeebe
a fbd
bebe dbe
ebe bcbd
bb ee</w>
bc dba
bbd fbe
dd def
dd bdbd
eef ebc
bebc bcc
ecc bebd
bf debe
ebe bcee
bbcc bcc
dc dbec
bf eebd
bbbc ebf
fc beee
ebb ecec
dc decc
ecc ebec
bbbb bbdd
dbe bbbd
bcbe eec
fcc eec
bec fed
bbbc ff
dddd cc
bbc ddc
bbbb debb
bbee ccc
bebbf cc
bbc bccc
bebc ccc
bbbe dbd
bec fbd
bf da
bcf ebf
ed beef
bbbe ba
ef fef
dbe bbec
bbbe bbbbc
bf fdd
ded bcc
ed bbbec
bbee bbebb
bebe bef
fc dbec
dec bbd
dbf a
ee dbbcc
ef bcbd
bd ebbcc
ebe dbbc
ebb bcbbc
bebe ebf
bdc fbc
ed febe
ebb eeef
ebb deec
ecc ddc
fee bbf
bbbd bbbc
ded ebc
dc ecbe
ea bbbb
ed eeed
a bcbc
bbee bbd
dec dcc
bbee bbbc
ff edc
bcc ebec
bbc fbe
ef dbbc
ebb bdbc
ed beecc
bfc eec
dc ecec
bbed bbbb
dd fbe
ef bcee
beec bf
df ba
ef bbebe
dd dbbc
dbc bebe
ef bebf
bbbd ebc
bcbe ecc
df efc
ebe bbef
bd dccc
ed edcc
bbbe bbbf
df bebc
dcdc dcdc
bbec a
bbbd fc
bef bef
beee fc
dbc dec
dc ffc
fbc bbf
bbebb bbbc
ebe fbf
bcbe dee
bbbb edc
ebb cccc
bec eecc
ebcc fc
bbbe bfc
ebc bcbd
ff eec
dbd bcc
bcbe bbd
eebe edc
fbc eec
dcc dee
bdbe fc
ebc def
eeee bbc
bebe ecc
dc eeed
a bda
ea fc
ec bbbbbbbb
bbec dbe
bf beed
beee bbf
ecbe bdc
bdbe bec
ebe bbdc
ebbc bbbc
bbcc eec
fbd df
fec bcc
dd debe
ed dbdc
bf eccc
fee bbbb
ee ecccc
ef beebb
ebec bec
beebd cc
dc bced
ef bcf
ecc debb
bcbc bcc
dcc ebd
ec ecccc
fee df
ebb ffc
ebf bdc
bebd bbc
bbec bcc
bbf ba
ebcc ebc
fbe eec
ed bba
ebb fdd
eef dbe
bcbc dd
fbe ebd
ded eec
bcbbd cc
eebc fc
dc bbbbc
bf bcbf
ebf eec
bcdf cc
dcc edc
fee bebe
bbcc dd
bebd bbbb
ebf ebd
ebcc ebe
ecc fbd
ed ecdc
da a
bef bbd
ebb fbbbb
becc bec
bd debf
bbec bbd
ccc eec
ed edbd
ecf eec
ebf bbd
dee dbd
bbebe bbc
bd bbecc
bb ebac
ed dccc
ff bebe
becc eec
ebf bbee
bd eba
ded dec
bf dbb
bba bbbb
fee bcc
bdc fec
a ebbc
f bbebec
bd dbbbc
beee dd
edc fbc
ccc bec
ff fcc
bcee fc
ebd dbf
dee bbbc
a ddc
bbbbc bbbc
bbc bbdc
ebc bccc
dc bcf
ebc dfc
edc fcc
bbebb bbf
dd eeee
ed eedd
bbbe fbc
bebe bebc
bbbb dec
bdc bbbc
ebd fcc
bdc ded
dd dbbbb
edc bfc
bc dbbcc
dc febb
edc ebbc
dbe fbc
ecf df
dc da
dbe bfc
bbc bcbd
ebe febb
bc debec
ebb febc
ebd fbd
ecbe ef
dbe bcbc
ebe bcbe
bebe df
ecbe bbbe
d ebb</w>
dc bdbd
a efc
a bbbf
eef ecc
bec fbe
bbbb ebec
bbee df
dc eebe
ebb debd
fec fc
bcc ba
a ded
dc dbb
fee bbbe
ddc ef
bef eec
ee dea
a bbebb
dee ff
dc ecbd
eebc bbbb
bebd dd
bef ebd
beec dd
fbbbe cc
ebf bbbc
be f</w>
ebcc ef
dec bbf
ea df
ebc bbbbc
ba bbbe
dbd ebd
fbd ef
bbec eec
dc bebf
ddc bbc
bebe bbebb
ba bba
bd eeebe
ebb bbebd
dbc edc
bcc becc
bc deecc
ecbe df
ebb eebbbb
ecee bbc
be dbbbbc
ecc fee
beee ccc
bbf bbbf
ff bfc
bbf ebbc
fbe bfc
fbd bf
bcee dbe
f eb</w>
bdf df
efc dee
cccccc ccc
bcee bec
bbbbc bbbbc
ee debcc
ebc eedc
a dbf
bcbe bbee
bbd bcbd
ebcc eec
ba bec
dc bedd
fc fed
ed d</w>
eebbd cc
bdc dcc
edc becc
ff bbbc
ebc bbdc
ebc eccc
bcc beec
bbc eebd
ed ecf
ebcc dd
dbbc bbbb
ac ea
eebe ebd
bebc ebd
debb dd
ec dea
bebc bbd
fcc df
bc ecccc
dc beebb
edc beec
ebc ebdc
bcbc ef
ecbc fc
dee ddc
eecc ccc
ecbc ccc
bdc efc
ebf dbc
bf debc
bcf bbbe
bdc bfc
bbf edc
bdc bebe
dee dec
fc bbbf
bec ddc
ebc beed
bef ecc
eebe bbbc
bbc def
bcbe ebd
df dbf
dee bbec
bb ed</w>
dc eef
a da
bec bedc
bcbe dbc
ed fa
bcf bbd
d bf</w>
ebc eeec
ef fed
ebbc ebb
bbbb beec
ecc bbcc
bcf dbc
bbebb bbd
ebe eecc
dee ebb
bef dbc
bbebb bec
bd bbbdc
df ded
ec eac
a eeee
ebd debe
ba bcc
ed bebbbb
eec fcc
becc bbc
ba bbf
bf ecbe
dc bbef
edc debb
ec dba
ebc dbbc
df ebbc
bef bdc
ed febc
bbd ea
bebe ebd
bbc bbbbbbbb
bebe ff
bbbe bbbbbbbb
fc bccc
bbbb bbdc
bebd bec
bbbb fee
ed eebf
bbc ebcc
ba dbe
efc bcc
bf bedc
dec ff
bbf bbec
ed bbebd
bbc dbbc
bbc fed
bef bbbc
ebb eeed
ef bbdc
ecc fdc
eec ea
fc beed
dc bcdc
df bbcc
bbbb dbf
bcbc bec
eebe bbd
ebf beee
dee bebc
eca cc
ebb ecf
fdbc cc
ed bebec
bcc ddc
ecbc dd
ef febb
ebd beee
bd ecdd
ed bea
bbc ea
bf bced
eebc dd
ed dbbf
bbbc dbd
bbc debe
eebc ebc
bbbd dbc
eeee fee
bbec bbbe
ebb bdbe
fc bcec
df fdc
ebd ebec
bbc eeec
ebb decc
ed bbecc
ec debec
ded ebe
dbe bbcc
eec def
ebcc bec
ebb edbd
bebe dbc
fc eecc
bbed bec
eec ebec
eeee bbf
bcf bdc
ebbc dbc
bbbc bbcc
bdbd dd
beebb ebe
bbebb ef
febf cc
bbed bf
ecc bedc
dcc dbe
bbbbc bbbe
df fee
ebf edc
df bcbc
ebd bbcc
bbbd bcc
ecbe bbd
ebb edcc
bb ec</w>
dc ecdc
bbebb bebe
bbbb bcbd
fec a
ebc bcee
ecc eeec
ba bbd
bbc bcee
bebc dbe
bbc bcec
bfc bbd
fc bcbd
eebe eec
fc deec
ecc ea
f be</w>
dcc ff
dec dbd
bebc bbbc
ec deccc
bcc fbd
ebd ebcc
bf ecbd
bc dbecc
becc ccc
dc eedd
ec bbbfc
ebb dbcc
bebc bbf
fc ecbc
ec bbebbc
bbbf bbf
ebbc dee
bef dee
bf bbfc
bec beed
fed ccc
fcc dd
bbbe edc
ed bfcc
eedf cc
ef beebe
ebf bfc
beee bcc
bcf dee
dd ac
ebd ecbc
ddc eec
dc bbebe
a fbe
efc ff
dec beec
bbc ecbc
ebc fdc
bd ebbebb
dcc dbc
ebb b</w>
bdc bbee
ef beed
bbbf bbbe
ed bebcc
ebb ecebb
dbb bddd
dbb ebdc
ebb fa
bcbc ebe
ef dfc
dbd bbbe
f bbebcc
bef beee
ecf ebe
ebec a
bf fbbc
bbbd bebe
ebd fed
ebb bdcc
ebd ea
bbc beed
eebc ccc
ebbc ecc
ebec ebc
bd efcc
bf bcebb
dc fef
bbbc ecc
ebf dee
ef da
edc bebe
bec def
bccc cccc
fc dfc
ebb eebbc
dbc fbc
bd eeef
dbb ecbe
ebf fbc
fee fee
bdf dbe
bbc eecc
dbd bbf
bcbe bdc
ed bcdd
bec ecbc
bbbbbbbb cc
bbed df
bcf bfc
bbbd eec
ff ddc
ed dbbbe
ec dedcc
dc ecee
ebbc bebe
bcc dbf
bebc dee
bbec bbf
ccc ebe
ed bcbbc
bf eebe
fc fbe
ebc febb
edc bbee
dbd ecc
edc bbbe
bbebe bbbe
eeebe ebe
bebc bebe
ecbbd cc
beec bbbb
bcc ebcc
bcbd dd
eec dbbc
dbc bbee
dcc bbbb
ebec dd
bf bbebc
ba ff
fbc dbe
eec ecbc
ef bbbbc
fc bbebb
fc bedc
bbbd dee
bf eebf
dba cc
ebec bcc
bbf bbebb
fcc bbc
bf ffc
ef beef
efc dbe
bbee ebf
bcee ccc
ed debf
bcee bbbb
dbf df
ef eccc
ebbc bdc
eef bdc
bcec dd
dbc ded
bbf dec
bdbc bbbb
ebc bebf
bdf bec
ddc ebe
dbd bbbd
dbbbb bbc
bf ebdc
ed bbbcc
eec bbed
be debdc
eec eebd
bcbe ff
bbbc bfc
bbd eecc
bbd eebd
ebbc bbee
ebd debc
dbd ff
dc dccc
ded bbbb
ee bb</w>
bebc ecc
bc debcc
be be</w>
bbc eeee
df bbec
fc ea
fbe ba
ebb ecdc
bbf bbcc
bf bebbc
dc bcbf
bbf bcbc
bcc fed
ddc ecc
dddd dd
be eb</w>
ebd eebd
bebbbc cc
ed bcfc
beff cc
bbbc ebbc
bcec bec
fec dee
becc ef
ebb eedd
ded ded
bcec dee
bbec bebe
bdc bbbd
ed eced
efc ebc
df ac
fbd bec
bf dbec
fbd bbc
bebbee cc
fc debc
fc ac
dbb ecbd
be dac
ed bcebc
ebf bebc
ddc ddc
bdbe bbbe
dd eebd
becc ebc
ebe ac
bdbe a
dc dbbbb
bf febe
ec dbbcc
bbebb a
dbe beec
eebc a
edc fed
bdf bbbb
bcf bbbc
fec dec
dd dfc
dd eccc
ecbbbb cc
eef bbd
bcc bebd
bbc beebb
fbe dee
ecf bdc
ebd bbed
efc eec
ecc bbbd
ebe beef
ecc bccc
dc debd
ba bca
fbc dee
dc edcc
fc fbf
bbc fbf
dc dbcc
bef ebb
bbc bebf
bd dbbee
dc dedc
bec bbbf
bfc dbc
edc fee
bcbc bbbc
eef ba
debb ebe
bbbbbbbb bbbc
bdbe dbe
ecf bbbb
eebc ef
bbbe dec
efc dec
bf cccc
dd bbebb
bc dea
bbdd bbbb
eeebb bbbb
bf bba
bbc bbebe
bbd ebcc
dd bbdc
edc bbbc
ecbe eec
edc eebd
bdc bebc
ebb bebec
ebec fc
bbc bbef
bbd fed
dc b</w>
eebe dbc
bcee ebe
bbee ff
ccc ebc
bbee dbc
ebb bdebb
ecc debc
bbed ebe
bbed dbe
bcee ebc
ea dbe
bbbf a
bcee df
edc ebcc
ebb beebc
bec debc
eef dee
bc bbefc
ecc beee
bf bbdd
bf eeec
bf bdbd
ecc dbf
efc bbbb
edc ebec
fec ff
ef eecc
dbb bdbc
eec decc
fee dbe
bbbd ebd
bbbf fc
bbd eeec
bc bbebec
bcee a
dd bcbd
f deccc
eef dbc
fec dbe
dd eeec
be bbac
dc eebf
dcc bdc
ecc edcc
eebe dbe
bbee ebd
fdc df
ebb dbbbe
bebe eeee
ff dec
ccc df
eec eedc
ebb bebbd
ed ebfc
ee bbefc
ebe eebf
beec a
ddc bcc
ddc df
ebb bcdd
bf beebe
ebe fef
bfc bbbc
bbbe debb
bbf dbf
dd b</w>
ebbc bbbd
ebcc bbbb
fee bec
fee eeee
ddc bec
fbd a
eebe ba
ebe eebd
bbec ebd
beec dec
ecbc bec
bbcc a
ecf ebd
f dbbbbc
bbbe beebb
ed bcef
ed bebbd
beec ef
ebb ebfc
fbd fc
dbd ded
bbed a
ed eebbc
fbc bbd
bbbf ef
eec fdc
ebbc ff
ecbc ebc
bbee bdc
ebe febe
bcec bbc
bba a
ebe beed
bcc debb
dbbc bbc
bbec bbbc
ecbe bbf
beee bec
fcc a
eebc df
eebbf cc
dcc dec
ba bbbc
bf bbbec
bebe eec
dbb bdbbbb
bdf ccc
ebbc ebbc
ebe fdc
ed e</w>
ed c</w>
bbcc bbcc
ff dbf
ebec df
bbebb ebc
eebc eec
bef bfc
ebe bedc
edc bebd
bbebb bbee
ebb bcebe
dcc cccc
ebb bea
fbef cc
bcbc ebc
ed bbeec
bd ebecc
dbc bbbd
dc eced
becc fc
bbd b</w>
ecbe dbd
debb bec
eebe ea
dbf bbbb
fbc bfc
ebe debe
ebb bded
ebb eba
ed fbec
ccc bbbb
dbc bebc
bedbc cc
bf bdcc
bcbe bbec
bcc bbed
df bbbd
ded bdc
dbe ba
dee bebe
f debdc
dbc ebf
dbe beee
dbc dcc
ecc ba
eec deec
bbf beee
bbbe bbed
dbc bef
dbd dec
eecc fc
bbd beebb
bbbf bec
ebb befc
eec bcbd
bfc ebd
bbf fcc
bbec bbec
bbbc bef
bbdc bbbb
dc dbbd
ecc decc
edc ddc
f bd</w>
ea ba
bbbbbbbbbbbbbbbb bbbbbbbb
ebb ecbf
ebc cccc
ec ebdcc
dd debc
ded dbd
def fc
bcec df
def ccc
bdc bef
eebe df
ebc fbf
ebe eccc
dd beed
becc a
bdf bcc
dbc bcbc
dc bdcc
ecc ebdc
beec dee
dec bebc
bbd beed
ee debec
eebc bcc
eec beed
bbc dbbbb
fbc ebd
fbebe cc
bbebe bebe
bbbe bebbbb
bebd df
ebe bebbbb
dd ecbc
ebe debc
ebc eeee
eef ebd
ebbee bbee
bbd eeee
ecee dbe
bcee eec
ea ccc
bd bac
bf beef
bcbcbcbc bcbcbcbc
ec bbba
eeec bbc
bcbe edc
fc dbbc
ecbe ddc
ebc ecbd
dd da
dd fdd
dbf bec
fbe edc
fbe bbcc
ef cccc
bbbe bebd
dd bccc
bbd fbf
dee edc
dd dbb
bbec dec
eef eec
ef debe
eecc eec
dbd bebe
bcbc a
bdbe bcc
bcee bcc
fcc ff
d ef</w>
ed fecc
bbf fbd
bb ebb</w>
ebc bbebe
dd fbf
dbe ded
f bc</w>
bcbe dec
bf ecf
eebe bbebb
ef dbec
bdc fee
bfc ecc
ba ccc
bbbe bbebe
bf bebbbb
ebb ebbcc
ef bced
ebbc bebc
ed fbcc
bbed dee
def a
ebbc dec
fcc ebc
ebb bdf
ebd bbebb
bbbf ebe
bebc ff
bebc dc
bfc dec
fec eec
ac da
efc ebe
fc bbdc
bcf dbd
ebb ecee
eccc ecc
ebb bdbf
bbbd bdc
bcee dee
be bd</w>
dbbd bbbb
bbc bbdd
def dc
fbbee cc
bc ffcc
ecbe dee
bf eeebb
fbc ecc
bebe ba
bdbe ebc
ebb bbeec
bfc bdc
bbee eec
ed bcebe
ef ebdc
bbcc ebd
be bc</w>
fed bec
bcbc dee
bbee dee
ef fdd
eeec bec
bbd bbbbbbbb
bbd bbebe
bbbb fbe
bbbb ded
ebf ba
eebc ecc
ebbc edc
ddc a
bebc dec
fbc fbc
ed ecbf
bcf bebe
ebc beebb
ebc bced
bbbb fbd
bbc bcbe
bfc bbbe
ff ba
ccc a
ddc dbe
beec bcc
ff fbd
bbc bedc
ecf dbe
ef eef
bcbc df
bef ba
ebe bced
fcc bf
ef febe
dbd bbbc
ee bbebec
fdcc cc
fee ebf
bebd a
eeee ebf
ecbe bbbc
bbebb bbbbbbbb
debb a
ef debc
ef eeebe
dbf dbe
bbd ecbc
bcf bbee
fcc bcc
dc dbdc
eecc bec
bbec dbc
bef bebc
bbbb bbbec
bfc fbc
ebd dbbc
eebc ebe
ded ecc
bebe edc
ddc dee
ef bcbe
ebd def
bbebe ebe
bdbc bbc
f bbac
ebcc bcc
ee bbebcc
bbf fec
eec bccc
ea ff
bddd dd
ecec bbc
debb ebc
bbcc bbbc
ba bea
bd dbfc
dbf ccc
bcf dec
bec beebb
ebb bdee
ebcc a
fbe dec
ec debdc
bf ecbf
ed beebd
bcebd cc
ecee bcc
bbbf ff
dbb eccc
ef eebf
fbbbc cc
bbbe fee
ef eebd
eeee bef
bbec dc
beec dbe
ddc ebc
bbee ecc
bcbbf cc
eec debe
bdc ebec
eebc bbf
bec dbec
eeec a
ddc dcc
bbdc bbc
bbee bef
eec da
bbd bebf
ebbc ebf
ebe bcebb
bebe bbcc
bbbc fbc
dd bcee
bccc bcc
fc fdc
bec bbbbc
ed ebbcc
ba dee
dbc bfc
ebb eced
ebb bebbf
ccc dcc
ebd dfc
ebc ac
bbd febb
bdbbbb cc
bbee bbec
ccc dee
ebe fed
beee ff
ded dcc
ee ebdcc
becc ecc
dbe bbebb
ea dee
beee ecc
edc bef
eebc bf
ebe def
ecee ecc
eccc dd
debb fc
dbd dcc
bbbf dd
fee bdc
bbbb bbbcc
dbe ebbc
bbbb bdbd
ebe eef
fbc bbbe
ebb dbbf
dec bbbe
bcbe ebf
bdf bbf
debb bbbe
bcc eebd
edc ecbc
debb df
eec bbdc
fec ebc
f ee</w>
bebd ebc
ebe dfc
beee ebf
ebe bba
bec bcec
ded beec
bbd bcec
bf fa
bbbb bebf
bf bcdc
dbe fcc
bec ea
bda cc
ccc ff
be bbeccc
bdc ebbc
beee fee
ebb bcebc
edc debc
bbc febb
bbbb bbebc
dc ecbf
efc dbc
ee f</w>
bec eebd
dc bded
eccc fc
bbd bedc
ebbbbbb cc
ed fdf
ecec df
dee bef
fbc dec
bbf dcc
ba ebc
dbe dbf
bec deec
ed edbf
bbbb dbbc
dc eeebb
bbbb bcbe
ebd bedc
edc eedc
fbe dcc
debe bbc
ebb bebbee
eef bbbc
eecc ecc
dc bbfc
dd bcec
bcc eeec
bbbb dcc
a eba
bbee eeee
eef ea
bdbe bbd
bbee bebc
bebe bcbc
beee bbbc
bd bbccc
bbbf bbbc
a fbf
dbe ddc
beec ebc
bbcc bbbe
dbf ff
fec dbc
ed eba
dbe debb
bdc bbec
eecc ebc
eec eeec
bbcc df
fcc ecc
ebcc ecc
ebb bcef
ed ecebb
dd dbbd
eec bbebb
ed eeebe
bbed ebc
dbe bebd
bbbb eebc
a bdbf
ef ecbd
ebb fbec
ff bcbc
dc bcdd
ecbc bcc
bfc ebf
bbc debc
f ed</w>
bbbb bccc
dd bbbf
ecf bbf
fbe bbebb
ebcc bf
bec bccc
dbc fee
ebcc ebd
bec bcbd
eecc a
beee ba
ed eddc
ebb dedc
fbe bbec
bbee ba
bcc ffc
ac df
bec bbdc
eec dbec
beebf cc
dc beef
bbbc dec
ac dd
ebec bf
dee ebf
ebb bcfc
bdbe df
bebe bbbd
beee ebc
bfc bfc
dbe becc
ac bbc
edc fbd
beec fc
dee bcbc
ecf dbc
ecee a
bbcc bbd
bb bf</w>
bd defc
eec ebdc
bbbb becc
bbbbc bcc
bbebb bbbd
beee bef
bdc ddc
fbc dbc
dc bbebc
edc eccc
ebe bebbc
ef eeef
bcf dcc
eec eccc
bbd fdc
bdc fbd
ef bedc
bbec bebc
ea bcc
beebb bbc
eecc bbc
ebb bfcc
ed bedbe
bec eedc
efc ded
dd decc
bdc eebc
bd bbedc
bebf bbc
efc ecc
ebb bddd
beebb a
be deccc
bbbb fbf
bbbe beec
eeee ff
bd bbebf
eedbc cc
bec dfc
ddc dbd
bbcc ecc
bec dbbc
bbed ef
dec bef
ebbc fbc
ed defc
ed feec
bd bb</w>
dd d</w>
bcbbbc cc
bbd bccc
ebc deec
ebcc edc
bcbbbe cc
bd debbc
def df
fec ded
dbbbb bbbbbbbb
bec eeec
bdc beec
dbbbb bbbd
bdc eecc
fc eeec
ebc bbdd
f ec</w>
a ebec
ef bcbf
ebe bcf
eebc bedf
dd cccc
bcc bbebb
a fed
bbcc dbe
ebc bedd
ebf dec
bfc bebc
bbbe dcc
ecc ecdc
edc eeec
ecbe dec
dd bedc
beed df
bbf bbef
bef dbd
bbba cc
eebc ebd
ebc dbec
bebd bf
ebbc dbd
ddc dbc
bbc fdc
dbb ecec
bbbbc bbd
bebe bbec
bdbe bbf
dbe fee
dbb cccc
fec bbbb
bec debe
edc bcbc
ebe bbebc
edc bbec
fc debe
bcc def
beec eec
dc bcebb
dbb bdcc
fbe bbbd
bc bbea
bd dba
dc edbd
bdf dbc
ebb bdbbbb
dc beebe
ed efcc
ed dbbee
ebe ebdc
debb ef
bf deec
ebb bbecc
ed fbbbb
dbd bdbd
bebd ef
beebb bbbe
edc dbf
eebd dd
fbc bbbc
eebbbe cc
bbbb bbef
ded ebd
ebb bebcc
bf dbbd
fbe ea
bef dec
bdc dbf
bebd fc
bf ecec
bbf efc
ebe bdbd
ded bbd
ebe bbdd
bdbe bbbc
bbbe becc
ebbc bbec
dd dbec
bbbd ccc
bbbb bebbc
dbe bbed
a debb
ecbc ecc
bbbbc bec
df ea
eec bcec
ecee dcc
dbc bbec
bebe fee
ebd bbdc
dd deec
fed bbc
bdf ecc
eec dedc
a bbed
ded bbec
ef eeebb
dee ba
bbd bcee
dc fbbc
def bbc
eeebe eeee
cccccccc cc
eef dcc
bbbc beee
bccc fc
bcc bbbf
edc ea
bcbe bfc
bcbe dbd
dd eedc
ff bbec
dc febc
fbe dbd
bbbb fec
eec bedd
bbd bbef
bdbe ebd
ebf ebbc
dd ebdc
ee deccc
dfc fc
fdbd cc
ed ecdd
ecee fc
ddc dec
fbe bbbf
ebb dbdc
bbbb bcbbc
bbbc ba
ebec ebe
bfc bef
dbe fbd
bcf bef
bbf beec
ed deecc
bdc fcc
ed ecbbc
ebec ef
ebf fcc
dee ebbc
dc febe
ed dbbbc
dbb bded
ee bbac
ebd bbbf
bdc bcbc
dbc fec
ebcc df
bec ebdc
dbf bcc
ebb fbcc
ebe eeef
bdbe ecc
ded bebc
bcf bebc
bbbb ea
ded ff
bbf fbf
ecbe bbee
bbbb efc
eebd bbc
bbbd ff
ebe dbbbb
bebe ebbc
ebf eeee
bebbbb bbc
bf bcef
bcee ecc
eebc dbe
fee bef
bcee ef
fdc ef
d a</w>
ec ffcc
ed debbc
f db</w>
ebf dcc
be bbebdc
fed a
ebb bdec
ebb bddc
dee fbc
dc ecf
ebf bcbc
fbe ebbc
bdc bebd
fc da
edc dfc
bbbd bbebb
bbf debb
df becc
bdbe ccc
ebf dbd
bdf ebd
dee bfc
ebec ebd
dcc dbd
bbee ebbc
bebe beebb
ecc bbed
bdbc dd
ebc bcdc
bebbbb bbbe
ebc decc
ebb bcbec
bcc bbbbc
dbbc dd
be db</w>
bbbb febb
edc bedc
ebe da
ebe cccc
ebec dbe
beec bebc
dc ecdd
bbdc dd
ebe dbec
ee debdc
ebf bbbd
bbbc bbbbbbbb
dc bcef
bbcc bbf
ebe bbbec
bf dbcc
ed beeec
fbd ff
fc eccc
dc c</w>
bebe bfc
ef bba
bbee bbbd
ecc bcec
ee dac
ebe ecbd
ebc bbef
fc eebd
ebe eeec
bc f</w>
ef fa
eec fbe
fbd ccc
eebc bbd
bcee bbf
dc bdee
beee dbc
ebb eea
eebe bbebe
fbf bbc
dbb edbd
bcbe bbebb
bef bbec
ed bcbbbb
ebd fdc
ba bdc
dcc bbd
ef fbbc
bc dbbbbc
ec f</w>
eec bbbf
edc bbbd
dbe fec
bf eedc
bebc dbc
bbee fee
bc dbbbd
fbebc cc
a beec
bcbd bbc
bdc debb
ecee df
bd ebccc
bcf ebbc
bcbc bbbe
ecbc bbbb
ebec bbbe
edc decc
bbed fc
ebec dbc
ecee ebc
ebb fecc
ebb bbbdc
ed dbfc
bccc bbc
ebb ecbbc
ebbee bbbe
ed edbc
bbec ff
ebd eedc
ecbc bf
beee bbebb
ebb fbbd
bcbe dcc
ebd eeec
fbc bebe
beed dd
bcbc bebc
eebe dcc
bef dcc
eeebb a
ebec dee
ecbc df
bbec ecc
dfc df
fbc fec
bcbc dbe
bdf dee
beee dbe
bdf ebf
bcc fdc
dec bbbc
ded bbf
bdf bbd
ef bbdd
bbbb bcebb
bdf eec
debb bf
ec befcc
ed eefc
fc bbbbc
dc bebbc
bcbc eec
ec bbefc
ea bec
bbef bbc
dbd ddc
eebc dbc
dbbbb bbbe
bbcc ff
bbebb bcc
ef eeec
ebe bbfc
bbbb eeee
bcbc bbf
dd bddd
ba dbc
becc bcc
fbd ebc
bbbf df
ea bbbe
bc dac
efc bbf
dbf ebc
dbb bdebb
beee bbd
bebe dee
fbc bdc
debb dbe
debb ccc
debb bbd
bcbe bbcc
ffc df
dc bddd
dc bddc
bfc dbd
fc beebb
ebb febd
ecc beed
becc edc
fed bf
dec bbec
eecc ef
ebd febb
bbbc bbbf
ecee dbc
fec bdc
ebd ebdc
ecc dfc
dbb d</w>
bbbb bba
eebc edc
bdbbd cc
dd bbbbc
eebef cc
ebb bbebf
bcec dbe
ebe bcbf
dec edc
bdbe eec
ccc dbe
ecbe ff
ebe bcdc
dd dbcc
ebd eccc
ecc fdd
efc bdc
bef bbebb
bbbbbbbbbbbbbbbb bbbbbbbbbbbbbbbb
bbbb fcc
ed eeef
bbc ac
ea bbf
bbbd bebc
dee beec
beee bdc
bf bfcc
dec bebe
ff fbf
ba bebe
ecec bcc
eecc edc
ebf bbcc
ebd beed
eebc bbbe
ebb bedbe
ecbc ef
dec bfc
fbd eec
ebb bfbf
bc bbebcc
fc eedc
bef ebbc
ebd bcbd
bf fbbbb
beee df
bf edcc
dc bdbc
ebec bbd
ed bedf
bbf bbed
bebd eec
bcf efc
bc bc</w>
bf eeebe
ebc debd
eebe ebbc
bbbd dbbbb
bbbf bcc
becc ebe
ff bbcc
bcbbbb bbc
dbf ebe
ebc ecdc
fbc bebc
dbb bdee
eedcc cc
ebb fbbf
bebd dbe
bf bcbbc
debb bbf
fee dbc
bbbbbbbb bbbbc
ff fec
fcc fec
dcc ded
ee dbbbd
bbebb fc
bced dd
bf bbbcc
ec bbfcc
ac fc
ef bbfc
ed ecee
bcec fc
deec df
eebe bbbd
bbbbbbbb bbbe
ebb dbbbc
ebb fbbbe
ed febd
dee bbbd
bdc fed
ef ffc
fdd dd
beebb bebe
dc dddd
ebec eec
dbf ecc
dbb bdbf
fa a
eef bfc
ed fbbd
ff efc
ecbe ebf
bf fbbd
debb bcc
dbf bbf
bcee dbc
bcf bbec
ef bbebc
ff beee
bbbbbbbb bbc
ff bebc
dee bbcc
bcbc bbd
ebe bdcc
eeec df
febb a
dcc bbf
beed bbc
ebbc bfc
ecbc eec
ed beccc
bbbb ebcc
eebd a
ecbc a
bdc becc
bebe fbc
fec bbf
bedcc cc
bcbe bbbd
fc ebdc
bef edc
ccc edc
ed debcc
ebd bcec
bebc edc
dbb ecbf
ebb bbccc
ef bcebb
bbd ac
dfc dd
bbf bbbbc
ecc ecbd
da dd
bf edbd
bbee beebb
fdc dd
bcc ea
bcc bedc
dee dbf
bf befc
ecbc ebe
febb bbbb
beed bec
bf febc
ed eea
eef dbd
eebe bbcc
dbbbb bbd
beec dbc
ddc bbbb
fc bebf
beee dc
bcee bbbe
bdc ba
bbdc bec
eef bebc
bcc eeee
eecc dd
eeebb ebe
bbdd dbd
df fbf
bba bbc
fee ba
bbbf bbd
bf bdbf
fee ebc
dcc fec
ed bebbbe
ddc ff
ef bdbd
a bebd
ebec bbbc
bbbe eeee
bbbf ebc
debb eec
ecf bfc
bbed dbc
fc eeee
ebd fbe
fc fef
bbdc ebe
fdd df
bf bdbc
bccc bccc
bf ecdc
ebb bebdc
bbef bbbb
bcdbc cc
bcf dbf
dbd edc
dbd bebc
bbee bfc
bbef a
ecc eedd
bd bbba
fed dc
febb bbc
dbc ebbc
bdf bdc
bef eeee
ed eddd
bef bcbc
ecc ac
bebbc bbbb
ebc da
bccc dd
efc bebc
ebb edbc
ee dbbbbc
ebb eddc
bcbd bbbb
beec ded
df ebcc
ecf bbd
bbbc bbed
ebd bbdd
ebf bbec
debe bbbb
bbbbc ebe
ecc def
ebc bdbd
ebd bdbd
bdbe dee
eeec dd
ecec bec
fcc edc
a becc
bd eac
bbf ea
fee bbd
a fdc
ebc bcbe
bebd bbbe
ebb bebbbc
a def
ddc bdc
bbbf dbe
fbf ef
ed beedc
bbcc bdc
ebb bdbbc
bbee bbebe
fc bcf
ebf fec
efc ebd
ed ebecc
bbf fbe
df beee
a eebc
dc fa
df fbe
ef bdcc
eebd bec
bdbe bdc
bc eeeecc
bbc dfc
bbc bdbd
eebe bbbf
beebe ebe
bbee fbc
bfc ded
dc ebfc
dc befc
efc bbd
eebd ebc
f bbebdc
bbbec bbbb
eebd fc
bfc bbec
bebf bbbb
ecec dd
bbed eec
ebec bbf
bbebc bbbb
bdf bbbe
bdee bec
eccc ebc
ebec ecc
dbd fbc
def bcc
bef ea
fbd bbbb
dbb bddc
dbbbb bbbc
ddc bf
fbf fc
ef deec
bc debdc
bd deecc
fed bcc
ecdbc cc
ecbc dee
ecf ebf
debe dd
bbbf bebe
a bbbbc
eebd df
fee ecc
bbbec bbc
bbed bbd
ebec dec
dbc beee
ef bcdc
eecc bcc
bef bbbd
edc def
ebcc dbe
dc fecc
eec beebb
bdc beee
ecec ebc
fc bcee
ba bbee
bdbe bbee
bebc bbee
ba bbbd
ac bec
bcebb bbbb
ee ffcc
ddc ded
bc befcc
bbebb dd
ddc ebd
bbcc dee
bbdd bbc
bbbc beec
eebe bbec
eebbee cc
fc bced
bbf bebd
dec becc
fbc ebf
eeec bcc
fbd dbe
ec dac
bbcc dbc
debc bec
bebc ebbc
ebc ffc
bcbe ebbc
bdee a
ecc bedd
dee beee
bebc ded
bbbbc bbbd
ff ea
bbbbc bbf
ba ebf
fdc bec
fcc ebe
debb bbbc
def dbe
ebec bdc
bbbe dbf
debc df
bdbc fc
bebe bbebe
eccc bcc
ecbd dd
bebd ebe
dec fbc
ecbc dbe
ebc bcf
bbbe ea
dbbc bec
ed bbedc
ff ebbc
ccc dbc
bef dbf
ff ac
bf bedd
ecc edbd
ebd bebf
eeee bcc
d ebe</w>
bbc bbebc
eebc dc
ecf dcc
bbebb bebc
bebd bbd
bf eeef
dbd ebf
ecf bbbc
ebd deec
ba ea
ebbee beee
a fa
bbbb b</w>
becc df
ecf bbbe
bedc bec
eec bbbbc
dec fec
ccc bdc
fed ef
ff ded
bbc bebbc
bbdc ef
ac ef
dc bba
ebd bccc
dd febb
bcc eedc
fbe debb
ebb ecdd
ebb beebd
bbc bcbf
dc eddc
dbd bbee
beec bbd
ecc debe
eebc bdc
dd ffc
bcc bcec
dcc fbc
fc bbfc
bbbc fee
dbe def
ecbc bbf
edc ebdc
fc bcbf
bebd dee
eecc bbbb
bf eeed
bbc dbec
bcee efc
ed eeebc
bcc bcbd
bbebb bbbbc
bebc bdc
eccc eec
dec ebbc
ddc bbd
a bccc
fc febb
edc ba
bf debd
dec ebf
bfc beec
bdf dbd
da bca
bc ebfcc
bbebe bbee
bbc bced
ed bebdc
bdbc ebe
bbed bbbe
dc bbbec
ecc bcbd
ed bbbdc
bbec ded
bf fdf
a bcbd
df fed
dbc fcc
bbf ded
bbc bbfc
bec bebf
dbf dee
fec dcc
ed eebcc
bbbbbbbb bbbd
ecbe bfc
fbd ebe
dbb ecebb
ecc eddc
ecc febb
bcc bbdc
ebc eebe
ef eebe
ebcc bdc
eef ebbc
eebc ff
eeee ba
bbbc bebd
beec ebe
ebd da
ebdc ebe
f ebac
dbb eced
ee be</w>
bebe ea
bdbe dbc
becc dd
bf ebfc
ebc eebf
ecc bbdc
bbef dd
fbe dbf
bebc bfc
bcc beed
dbe bccc
ebf ea
fbf a
f dd</w>
dbd bef
bbec bdc
ec dcccc
ebc bebbc
be bbb</w>
edc fdc
dc bfcc
bbbb fbbbb
bf bded
ebbc bcbc
bd dbbcc
ebc eedd
dee fcc
eef dec
bcec dec
efc bbbc
ebc bcebb
eec bebf
ebb feec
bcbebe cc
eebc dec
bdee fc
dc d</w>
eebc bbbc
bebe bbbf
bbebb dbe
ebc ecec
eeee beebe
ebd bbbbc
ed dbecc
bcbe ba
ed bac
ebf bbbf
ebd decc
bcc bcee
eec ac
ec bb</w>
bbed ccc
eccc bbc
bdee bbbb
bcbc ff
fbf ccc
bdbd bbbb
fdc fc
eeee eeebe
dbf ba
dc bdbf
bcc fbe
ebc eeed
bdbc ef
bbec bbee
fbc bef
df debb
dd edcc
ebf efc
ebf fbd
ecc ecec
ecf dec
bbbcc bbc
ebd dbbbb
def bec
fec bbd
ebdc bbc
df bebd
bbbe fbd
bdbc bec
ec bbebec
bf dbbf
bbed bcc
dbc beec
bfc dcc
ebd dbec
dc efcc
fbf ff
bebc bcbc
eef edc
ebdc dd
ebbee bebe
eebbbc cc
fee dcc
ebc fdd
ee eb</w>
fc decc
ccc dec
dbbd bbc
bbbc edc
dee ded
eec debd
bcee bdc
bbec beec
ebc dedc
d ebd</w>
ec ebfcc
dc beebc
ebcc ff
bcc ecbc
ebc bbfc
ef bebbc
bdf edc
bfc bcbc
eeee dd
ebbc bef
bbbc ded
ef dbb
fba cc
bbbe ebec
fc bbef
fbc ded
bebf a
fcc dec
df bccc
ebb efcc
bec bedd
bbbcc bbbb
eebc dee
bbbe ded
efc dcc
ecee bbbb
fec ecc
bbee dbd
bd debec
eebe bfc
ebe fdd
bbcc edc
eccc edc
ebb edbf
dbf bbd
bbbd bbec
ebb fdf
dd bedd
ebc bbebc
dfc bbc
df bcec
ecbc ebd
bebd bebe
ed fdbe
becc ebd
dc bdec
ecf dee
ccc bccc
dbc ba
becc bbbb
d ebc</w>
bbd bebbbb
ecc dedc
a bcec
bec fbf
beee beebb
a febb
ebb dccc
efc fec
bbbbc dd
ecee dee
bf bcbbbb
fc ffc
bdc bbcc
dbe ea
bdbe ff
eec febb
bbc eedc
df def
fbd bcc
dbb ebfc
ebc edcc
bbed bbf
bbee bbcc
bebd bebc
eccc bec
bcbc dbc
ed bedbc
dc fbec
ed fedc
bbc bbbec
ac dee
beec ff
efc bfc
ba ecc
eeec bbbb
bb a</w>
ed eebbbb
ecbe bbcc
ebd eeee
ed bbccc
bbbe bebf
bf bcfc
bcbc ecc
dbbc ef
ebbebb bbbb
bbee dec
bdf dcc
bf bebec
bd bbebbc
bcc fbf
bdf dec
ee bc</w>
ebf bbebb
fec fec
fbc edc
beec bbbc
dbbbb dd
bdc eebd
bcbd df
beebb ef
fdc eec
dbe eebc
bbee bbbf
a ebcc
bbbe bccc
ed ecebc
dc ddcc
dc bbbcc
bf bbeec
fec ebe
dbc ddc
ebdc ebc
bdee ccc
bef efc
ecbe ebbc
ebec ff
bdec bec
bced dee
ecee bdc
debb ebd
bbc bcebb
bf decc
bfc ebbc
ef dbcc
bcf ba
dbc efc
bebd bbf
eec eeee
dc bcbbc
bef bbcc
bbef ebe
bf fbcc
ebb bbebbc
fbe efc
bbd eedc
eebf a
dbbc ebe
bcbe dbf
bcec bcc
ed ebccc
bebe dec
bbc eeed
bedbd cc
ebdc fc
bbd eeebb
dbd ba
df ecbc
f bf</w>
dbe bcbd
edc beee
dcc fcc
bbbe fec
ee bd</w>
ed dea
bbc eeebb
bbea cc
eec bbdd
ecc deec
bbbd ebf
ed ecfc
dbb dddd
bcec ded
dbc debb
eeebe beee
bebe bbbbc
fed dee
dc feec
ebd fbf
beebe bbbb
bbed dec
ed dfcc
dbb bdbe
bbbd ba
dd bced
bbc bcbbc
bf fbec
ff eeee
eebe dbd
ebcc dee
bd dfcc
bbebe bbf
dbc fbd
ecccc ccc
f de</w>
dbb bdbbc
dbc bbcc
bbebe bbbc
dd bebf
bbee bcbc
ebbc bbebb
bebc bbec
bc bd</w>
bcee bbec
dbb c</w>
fbc bcbc
bcee bbd
eebe dee
bc deccc
dbb ecf
ccc ebd
dc e</w>
ebc dbbbb
df eccc
dbc bebd
bbbd ded
fc bbdd
bcf bbcc
ecc eeee
f dedcc
ebe bea
bbbb ebbbbbb
bebe dbd
bdc bbed
ebcc bbd
fbd dee
a dbbc
ccc bbf
dc eddd
bf b</w>
dbe efc
bf beebc
dbb ecee
bfc fee
ee bbebdc
bec febb
bec decc
bebe beec
dbb ebbebb
ecbc dec
bcee bbbc
bbbb bdbbbb
fcc bbf
bbbe fbe
df ebec
ff bbbd
ded ddc
bbdc fc
bbc deec
bbbbc bbbbbbbb
bebc ebf
be ebac
ed eebec
bdee dbe
bbbe eebc
fef a
ebb bedf
debc eec
dbc bbed
bc be</w>
bcc debe
dbc eebc
bbd ebdc
bc dbbdd
bbbe dfc
dbb ecdc
eba a
df bbbf
bcf bbbd
eef bbec
bbee edc
ebb dbbee
ff fbe
bdf bfc
ecc eeed
df bcbd
bf bbebd
fed dec
bcee dec
bcec ebc
bebe bebd
df fdd
dcc ebf
bcbe ded
dcc ddc
ebbc ded
bbf bebf
bcec eec
dbc dbf
bbc bebbbb
ed fccc
bdbe edc
ba eec
bd dbbbd
be ed</w>
fbf bbbb
fee bbbc
ea bba
bbdc eec
bbd bbebc
bec fdc
dd dccc
bdc ebcc
ebb ebecc
df bbed
bc dcccc
ea bbee
fed ff
bbc ebdc
bc bbac
def ef
fed dbe
bbdc a
bbc bbbcc
eef bbebb
bbef ef
ecec fc
dd beebb
be ee</w>
ecbe dbf
ecc ffc
bf bcebc
ebb debf
ecbe bbec
dd debd
bebc bbbd
beed a
eecc ebd
be ec</w>
bcee bbee
bf bcebe
bec bbebe
dee becc
ac bcc
bd bbbfc
fcc fcc
bbdc ebc
ebb eddd
dbb ebbbbbb
bcf ded
acc a
bd dbecc
beec ebd
bbbf ccc
efc dbd
fdbf cc
beee bbebe
bf ecebb
bbbc debb
ebb fdbe
bdbc bbd
ed eeecc
dbbd bbd
fea cc
ebb ecbbbb
bbec dbd
eebd bbbb
ecc dbbc
bbbe dbbbb
ebe fbbc
fec bfc
ebcc dec
bbf becc
ddc edc
ebd beebb
eec ecbd
ec bbebcc
bebe becc
ebf becc
fdc ff
bd dea
bdc eeec
ebc fef
ebc bcbf
bbbc dcc
fc bedd
debe ccc
bf ecee
bebc fbc
efc fbc
ec bbbecc
bbbbc ef
eecc df
bedc eec
ba dbd
bebd bcc
bbc bcf
bcbd ef
beec bbf
bdbe bbbd
beec bbbe
ebcc bbbe
bc eb</w>
bebd ebd
bef bbbf
edc bbcc
ed ebbebb
bbd bced
ebc bbbec
beee beebe
febb ebe
bec bbdd
bc dbbebb
ebcc bbf
bbbb eeebb
ebf dbf
debc ef
fc fbbc
dee bbebb
bbed efc
dd ecbd
ebb ecebc
ebbee bbf
bdc def
bcbc ebd
bcec ebe
dbb e</w>
dd bdcc
bec da
eef bbcc
ebc edbd
bbbbc a
ebb e</w>
fcc fbc
ee dbbdd
ebc fbbc
ebb bebbebb
dee bbed
bf eba
ecbc bbd
bcec ef
bf eebbc
bbec bef
bebc fec
fcc ebd
bf eced
ed debec
dc eeef
bfc bbee
bccc ecc
bfc bebe
bec bebbc
febb ef
fef ef
eebd ecc
bbec ebbc
ed dba
ff def
bbbc fec
edc debe
ebc febc
f bbeccc
dec debb
bbd bbfc
fed fc
eeebb eeee
dd eeed
ebcc dbc
ed bebbf
ebe fa
bdbc eec
df eecc
ee dbbbf
eccc ef
bbbb bbfc
a bebf
bbbd bdbd
ba ebd
ebb bbba
dec bcbc
bdbc ccc
dbf ebd
bccc ef
bbef bbf
dcc bbbe
be bbbbbbbbbbbb
bbc fbbc
bbd bebbc
ed ecbec
fef ff
edc beed
ebb bac
ebe dbcc
dbe dbbc
ebe bebbbe
fcc dee
bdf bbbc
dbe bbbf
bec ac
fdc a
ebb eefc
df beec
ebb ecbec
bf bea
bebe bebf
bcbe bbed
dbb eba
edc deec
fbc bbee
ded bef
bec bced
bbd bedd
dbe bcec
eef bbbf
ebec dc
bcc dbbc
fee dee
fbeee cc
fc dedc
bcf ddc
bbd bba
ebe eedc
ecbe bbbd
bbec bbbd
fbc dbd
f debfc
fc bbebe
ebc dbcc
bdbe dbd
bbc eebe
bf fbbf
bdbc a
eebc bebc
ebbc bbcc
dec ddc
eef dbf
bfc bbbd
ebf fbf
bcbbbb bbbc
bccc eec
eef bbbd
bbbe dbbc
fbc efc
bec eccc
fec bebc
fc ecbd
ee dbbebb
dcc bebe
becc ff
ea fee
dc ecebb
bcc eccc
ebd debd
bbbe bbdc
bbbf bbbf
bbebb ccc
bc fbecc
bf eedd
bec bbebc
ecf bebc
bebd ccc
eebd eec
ebd ac
dbb ebbcc
ecc bcee
dd fef
bcbe debb
bbc fef
ebe bcbbc
ed ebbbc
ebb beff
bcc dfc
bbebe ef
bbebb eec
bbef ff
fbd bbf
bbbe bebbc
eebc ebbc
dbfc a
ecf dbd
dc dbbf
dec bbee
ebc beebe
bbebe a
ec bbea
bbec fbc
bbbe efc
bbbe febb
bbdc dbe
bdc beed
ebdc a
eebebe cc
ecec ecc
bf bdee
bbbb ddc
bfc fec
ed eeccc
bbdc df
ebb ecebe
dbb bdec
dc fdf
bcbc bebe
ebb bca
bd debcc
ebf ded
bec bbef
ecbc dbc
fcc dbe
ebbc beee
bbcc bebe
ebe dbbd
bced df
da fc
bfc bbef
ef bded
ec bebecc
ebf bebd
ebe ecbe
fed dbc
edcc ccc
ebf bebf
def ff
ea dbc
bcc bebf
dbd debb
ed fbbf
fbbcc cc
debc bbc
bbbbc dbe
dc ecef
fc bcdc
bbd fbbc
bc dbbed
bbbb debe
dc eeebe
bec bcee
bbed ff
edbc ccc
ebdc eec
dbf dbc
eeebf cc
bcbd fc
bbec bfc
bbbf bbee
bbbb dbbd
dbf eec
bc db</w>
bebe dcc
dee bcec
ecc bbebb
ebd ecbd
fcc bdc
efc bef
bbdd a
ef dbbbb
eebe bbef
becc dec
bebc bef
bdbc bcc
eecc ebe
ef dbbd
df bbebb
ecc fbe
bbf ebec
bbf eebc
bbbbc fc
ea ebc
ecc fbf
fbc ebbc
bbd bcbe
bbc bedd
bbc ecbd
bc dedcc
ebcc bbbc
bebbbb bbbc
deec bec
ded bbbe
bedc df
bbbbbbbb bbbbbbbbbbbb
ecbc edc
bebd bbbc
fec dbd
ebb beeec
ecf efc
ebc ecbe
bdf bebe
bf edbf
dfc dee
bbdd bbd
bbbb bcec
dbf bdc
ff bccc
ecee bec
ef bbbec
bebd dbc
dbbc fc
ec feecc
bbebe bec
ded edc
ed fbdc
ebb d</w>
a dba
bfc efc
bbdc dee
bbbe bbebc
ee dbbed
dd dcdc
eef bbef
ff fdc
bfc fcc
bfc ba
bbc b</w>
ebd dbbd
ed bbebf
debb dee
dd ecec
ddc bbf
bbd bcebb
fef ccc
ecdbd cc
bbed dbd
ebb beecc
bbbd dec
bbc da
dc fbcc
bbcc cccc
eebd edc
dc bcebe
bebf fc
bbd eebe
debe a
ebe bedd
bc dbbbf
ebe bbbcc
eebc bebe
dd bcdc
bf bdebb
bbec ebf
bebc beec
ebc dbbd
bbbb beed
ecc bbbf
dcc eecc
eebc fbc
fbe bbebe
dd ecdc
fec ebd
bdbc df
bcbd dee
bbbb bcbf
ed ecef
debe bec
bbbbc bcbc
dbe ebec
ea bdc
ebe deec
bcc beebb
fbf df
bbc ffc
bbbe bbef
bbbd bef
dc eded
ebe eba
fed bdc
bbec bbebb
beec beec
eedc fc
dfc a
dee fee
dbbbb dbbbb
def bf
bebe beebe
bbee dcc
bbbc ebec
eebd ccc
eec dbcc
bbdc bbd
bbcc bcbc
dbbc df
bfc edc
bcc ac
ba bef
fbe ded
beed ccc
eeed dd
bebd ecc
dbbc a
ba beee
bcee dcc
dbec bbc
debb dbc
debb ff
bbebb beebb
beef a
dbf bbbe
bbebb ebf
bcbbc bbbb
ea ebf
ebd edcc
efc fee
bdee df
ebc febe
dbb edcc
ebbbc bbbe
bebbc bbc
eebd ef
bcbd a
fec bebe
ebd bedd
fbc fcc
ecbc ff
eedbd cc
dbec bec
eec eedd
eebf ef
fc bbebc
edc ecbd
bbebb ff
becc becc
ecf ebbc
dc eebbc
fbd dbc
bedc ef
dbe ac
be dedcc
bccc bec
bbfc bbc
dc bcfc
ed bedee
bbf fdc
efc beec
debb bbbd
dbd beee
bcbd bec
ee dedcc
ecbc bbbe
ea bebe
dbd bfc
dc bbeec
bbbc eebc
dbbc bbd
dd eedd
bbbbc bebe
dec fee
bdbc dbe
dec def
dd edbd
fbe bbef
bebc eebc
fdd ef
eedc a
bf ebbcc
ebbc dcc
bced bbc
ecec dbe
bef bebf
bba bba
ec dbbbd
bcbe ddc
eef ddc
ebb febf
bbf bccc
ea bea
bedc a
bbd bbbec
dee efc
dbc eeee
bdee bcc
bbbd fbc
ebdc edc
bedbf cc
debb ecc
debb bebe
bbc bcbbbb
dbec df
beec bdc
bbbbbbc bbbb
becc bdc
dc dbbbe
ac bbbb
ebf ebcc
bbebb ebd
dc edbf
bebc bebd
bbbd beee
bdbe dec
be dd</w>
ded bebe
dbbc dee
bbebb ebbc
bec eeee
bcbebc cc
bebc dbd
ebdc ebd
bbd eeed
bcc debc
dbc fed
ac ebe
bcee ff
eeebe ef
eedc dd
bebbcc cc
fbe ddc
bbbd bbbbc
bcbf fc
eebd dbe
ebdc ef
dc eefc
ecbd ebc
beebe a
bdbc ebc
dbb bdbbd
ba fee
dbb bfcc
bcee becbbec
dcc bbbc
beebe bebe
bbebc bbc
dc febd
eec bced
ebe ecdc
bbee bbed
bbdd dbe
fbd ebd
ed ecbcc
bbbe fcc
dfc ef
bcbc bdc
edbc df
edbc ecc
ebb c</w>
fbc fee
ebdc bec
bbebe bcc
bbbbc ebc
bbbd bbed
ed deccc
ea bbd
dbbc ebd
bbbe bcebb
fbd bdc
bbbe bcbd
bebd ff
ed ebbbf
dbd fee
bcf bbbf
bbf febb
fc fdd
bbbbc bf
ea bef
bebd dec
ecbc bdc
bbf ddc
bdcc ccc
bbbe bbbec
dbec dd
ebbc efc
ac ff
bd dbbdd
da bba
edbc ebd
ecc bced
dbb bdf
bbebb beee
edc bbed
dcc efc
ebb beebf
ba fbc
ebf fdc
bcfbc cc
debc dd
eec bebbc
debe bcc
dc bebec
ed eedbe
ea beee
dbd bcbc
beebb bbee
bec ffc
eeebe bebe
ecc bebf
ec fbecc
bef beec
bf ebbebb
bcec a
ebb bbbfc
dc bbebd
bf bcdd
bcbbee cc
bf bbecc
ccc fcc
ecbd bbc
bf dbbbe
bbbc bcbd
dc ebbcc
dcc bfc
ebc bcdd
bf bddc
bf bdec
eebebc cc
ebb ebccc
eec ffc
dec fcc
bf fdbe
be bbeba
ea bca
bbec bcbc
dbbc dbe
df bcee
bbcc bbee
ebec bebe
dbbc bcc
bbbb eebd
bbbb ecbc
bf bcbec
fc debd
ebb bdef
fc ecec
eeebb ef
fbd bbd
eebc ded
dd bbebe
fbd dec
ac bbf
beed dbe
fbf bbf
dd bbef
ed fdbc
becc fec
df dfc
fc dbcc
dc bdef
fbc bbec
bdf efc
ed bedcc
eeec dec
bef ddc
bbdc bcc
eeebb bbbe
bbed ebd
bbbd bebd
eeec dbe
bbed bebe
ee fbecc
ebb ecef
ff fef
dbd dbf
ef bcef
fcc dbc
dd bddc
ebbc fee
eecc bdc
ecbe ded
bcf ebec
ebbc bebd
def bbf
ac ebc
bf bebbbe
bbc eccc
be debfc
ee bbeccc
beee ebd
bcee ebd
ff bbbf
beebb bbf
bebc debb
ccc bbbc
ccc bbd
eedc bec
bbcc ebf
f dc</w>
dbb bb</w>
dee bccc
decc eec
eeed a
ecc bcdc
bcc bbef
bbbd bbdd
eef bbebe
fbc dcc
ebb fedc
dee bcbd
bbed bbbc
dc bebbbb
dbd bbec
bbcc dec
fec beec
ebe ebbebb
eeec ef
bbebb df
bf bbbbbbbb
bbee beec
ecee ddc
debe fc
bef ded
dbbc bbbc
ebcc ebf
fec bbbc
eeec dbc
dc bdebb
bbbe ddc
eeebb bbc
bcf ea
fcc bbbb
edc bcbd
bbebb bbbf
fcc eecc
bdec bbc
ee dbbdc
dfc dbe
ef eba
ecbc bbbc
fcc efc
a fef
fcc bfc
bcec bbbb
ecc dbec
ebbc debb
ebb debbc
ed eedf
ebcc fbc
dbbc eec
bbd fdd
becc dbe
bdbe ebf
bdbc bbbc
df da
dc beecc
df eebc
eeec bdc
bcbc dec
ecec dec
bcee bebc
bec ecbd
dcc fee
ecee dbd
bbbd debb
ec dbbbbc
def ebc
dbbc ebc
bbcc dbd
ed ebbbd
bccc a
beec bebe
ebb eded
ebcc bebe
edc edcc
bedc bbc
fc bdbd
debd dd
ecec dee
bbd bddd
deec dd
ebbc fec
fc bebbc
bdbc dee
fcc ded
ed fbbbe
ccc ded
bfc dbf
bdc bcbd
bf bdf
bcc bbdd
dbc bcbd
dcc fed
bccc ebc
ebd bbebe
ebec fbc
eef ded
bcc eeed
beebe bbbe
fc befc
bebbbe bbbb
bebf ef
ccc dbd
bbc bba
edbd dd
ecc bbdd
bbcc fbc
ba ac
bf bebcc
bbf eeee
bcc febb
bec dedc
ebec bebc
ebbc eebc
ba bfc
fee ebd
bbc dbbd
beec bfc
fbf dd
ec be</w>
ea bbbc
bbf beebb
eecc dbc
dec efc
beec ecc
bbf bcbd
dbe fbe
bbbbc bbebb
bdbd dbd
fec bbbe
bdee ecc
bcbe bbbf
bbbd bfc
eec bbebe
fcc fed
eccc ebd
a beebb
eccc ebe
bbcc bebc
bbcc bfc
bcbe efc
eeec fc
bcbbcc cc
bebd dbd
ed eac
debe bbbe
eeec bbbc
eebc bbee
ebf debb
edbc bec
dc ebecc
beee bcbc
edc ffc
fbc fed
ebbc bbbf
bdee ebc
bcbbc bbc
bbed bbed
dbf dbd
beebe eeee
ee ec</w>
ded bbbc
bbd bcbf
bf ecef
dbec ef
ee fbccc
bedd dd
dec bbbd
eec bdbd
bc bbb</w>
bf ecbbc
dc bedbe
ebdc ecc
bbebb bbec
a bbef
edc eeee
dcc bef
ed eebbd
ed bebbbc
ebe dbb
dbf da
ebe decc
beebe bbee
dfc bec
debe df
ebf beec
eebd dbc
bedc ebc
beed dee
ecbd fc
bbd fef
eec fbf
bb ef</w>
fbe ebcc
ecf bef
a bbdc
bbc bcdc
bc feecc
ac dbe
ebdc dbe
ebb dcdc
dbf fbc
dec ba
eef efc
fdd bec
bf ecdd
ecdc ecc
dc bbecc
bbc eebf
ef b</w>
be bbebfc
bc bbbbbbbbbbbb
ebdc df
ed ececc
beec bbec
a bbebe
bedc dd
ebec dbd
ecbc bebc
dbf ebf
bbbf dbc
beebe beee
beba cc
dbbc bbbe
dee eecc
bdc fdc
fbd fbc
dc bedf
dbe fdc
ebb bbedc
ebe ffc
ecbebc cc
ba bebc
bbbb bcee
eeee bbbc
ebb dced
ebec ded
bbee ea
dbf bbbc
bbbf bbbd
ebc bebbbb
bcbbbb bcbbbb
bbef fc
eebc ebf
ecee bbf
bec eedd
ed acc
debc ccc
bdec dee
ee db</w>
ecc fecc
f bbb</w>
dec beed
ebb fbbbc
edc dedc
bbebb bef
bbd bbebd
dc bea
fbe bbed
bbcc bef
bdbc bbbe
a fdd
bebd bdc
ed dbbcc
bdec df
dbe beebb
eeee beebb
bbd ecbd
eebe ddc
ecf bebe
ef edcc
bbcc bbbd
ebe debd
becc eecc
ebd ffc
eeee bec
bbbb fbbc
debc ebc
eebd bcc
bbbf bfc
debc fc
bdf bbee
ef bea
bcebb bbc
bf dccc
fbd ecc
dd dbdc
bbbe ebcc
ac eec
bbbe fbf
bbebe beee
becc dee
fec bef
eced ccc
bebd edc
bcbe bbbbc
bedc fc
bbbc bbdc
bbbc beebb
dec deec
bdbe bbec
eeec eec
bbcc fee
bbbd ebbc
eedc df
bac ba
ecf bbec
ef debd
ef befc
bbbbbbbb bbebb
debb bebc
ecc ecdd
debe ebc
ebd bced
ebe edcc
bd ebdcc
dbec eec
fec fbc
bdc ea
bbfc fc
eeec ebc
ebbc beec
fec bcbc
ef ecdc
ebe ecec
bbef dbe
bccc bbbb
bdc bbdc
dbc bbebb
debb bbee
def dee
dfc bcc
ebbc ebec
dbf edc
bcee edc
bdf bef
bbdd bbbd
ebb ecfc
fdebb cc
dcbc ccc
bcee dbd
ded bfc
bd f</w>
dbc eebd
bebbbb bbebb
bcbd dbe
ebbbc dbe
fcc bebe
ebb fbebe
eecc dec
ec bbbccc
bf bebbd
bbed bebc
bec debd
ff fed
bdbc ebd
bcf beee
debb bdc
dd bcdd
dc eba
bf dbdc
ba bbebb
def ecc
bbfc df
eeee ea
dd eebe
beed bbbb
eecc dbe
ebc bdcc
def ebe
edc bedd
bbbe bcec
beec dbd
bbd ffc
eec bcdc
ecf ddc
def bdc
bbbd ecc
ba bbbf
bc dbbdc
fc eeed
ecbd ecc
efc bcbc
bbbe eeebb
dd eebf
bbed bdc
bbd eebf
dbb ecbbc
ebec dcc
febe a
bcbd ebe
bdbe bbcc
eebd ebd
bf febd
ebec bbee
bbbb ac
fdc dee
ebf febb
ebc eeebb
bbdd ebe
efc edc
eeee ebeebe
bbbc bccc
beed dec
ccc bcbc
fbf bcc
dc bcebc
dc fedc
edbc eec
bbbd bcbc
dbb bfbf
dd fbbc
bcdbd cc
beee bebc
df bbdc
ef bedd
fc ecdc
ecbc bebe
debe dbe
be defcc
becc bebc
fbd bfc
def dbc
dcc eebc
ed fdee
bcee bebe
bebf bec
fbd bebe
bac ea
bbfc bbbb
dcc bebc
bebf bbf
bf fecc
ebf fef
bef beebb
efc bbbe
eeed bbc
edc eedd
bbee fbe
bebbbd cc
ebf beebb
debb dbd
dbec dee
bcc fdd
ebf fbe
eccc df
fdc dec
fed eec
bbed ded
eecc ff
bbee bbbbc
bef bbef
eccc a
eccc dee
dfc ebe
edc febb
dbb ecdd
dbbd a
dd eeebb
dbbc bbf
eedc ecc
ecbd ccc
bbd d</w>
bbed bbec
ecbe bbebb
bcee bfc
ecbd bec
ecf ded
ebf bccc
ea ecc
bdc fbe
efc bebe
ea eec
eebf ebe
ba bda
bcc bced
fbbc bbc
bcc ebdc
fec becc
dbc ebec
bcc bbebe
dec bebd
bcbe ebec
fdc ebc
bc dbbebe
eebc dbd
dcc bbee
fbd dbd
decc ccc
f deba
bf eddc
dee bebd
eeee beef
ee ebac
bec bcebb
ecf bbcc
bbdc ff
bbc ecec
ebcc bfc
bbdc ebd
bedebb cc
fec fed
ecbc fbc
bbbc dbbbb
bbbf bbebb
bccccc ccc
eeebe a
bcbc bbec
bdbc dbc
bbbb bbebd
bbbc becc
bbd febe
eebe dec
bbc fdd
ebe bcbbbb
bbc eef
dcec dee
ec eb</w>
fee ea
ef fdf
eeed ccc
dc fdbe
eedd dd
bcec dbc
debb edc
fc bdcc
ebb fbdc
dbe debe
bcf bbebb
fc bcbe
def dcc
ebc beef
beee ebbc
febb ff
dc bdf
efc ebf
fef dd
bbbf ebd
beee ea
dec dbf
ebec ebbc
beec becc
bbdd df
ecbd df
dee eebc
ecbe ba
a eecc
ed ecbbbb
dc debf
bced dbe
bbf bbebe
ef bcbbc
bbbc fbd
ebbee dbe
dbb edbf
eedc eec
bcbc dbd
ee ed</w>
dbc becc
eeebb bebe
bbbbc bbee
bbef df
bec bbbec
def bbbb
debc dee
bbf dbbc
ecc febc
ebc bbbcc
eced dd
fed ded
bbc beebe
bef bbed
ebf ddc
bf bca
eccc dcc
fbd edc
dbf bfc
fdef cc
dc fbbd
ef decc
debe ebe
a bcbf
bebf ebe
debe bebe
eebc bfc
ec defcc
dc eeebc
ec dbbdd
dc ecebe
fec efc
ebc befc
eebd ebe
bef bebd
ebb dbfc
deec eec
fef df
fee dbd
bebbebb cc
eeee bbebe
bbcc bbec
ecee edc
bdc bbebb
ff bbef
ecbc ded
bc dbbef
fee eec
bbbf bebc
bcf ac
bef debb
fec ba
ecc debd
da df
f bbebfc
ebec bbec
beee eeebe
ecee bbd
ef bbbcc
bbf ebcc
eebe bba
bdc eeee
dbec dbe
bbbf ebf
dc ecdf
fec edc
ed ebbed
dbd bbdd
fbf ebe
bcee ebbc
a b</w>
bec bcbf
bbbc bbebe
bbee bebd
ed bedbd
bbf def
efc becc
be deba
dbf bebe
bbc beef
bbf fed
dee debb
bdbe bfc
dbb eddd
a ecbc
fbc ba
bcec ecc
ed bbbbbbbb
bbbbc df
bec bcbe
bbbb bebbbe
bbee bbef
fbbbd cc
bbbe bcbe
bbbd bbcc
bf e</w>
eeee eeef
bcbc bccc
bbc dbcc
ed beff
ee dbbebe
dd c</w>
ebd cccc
dbe bbdc
eeed df
ebb fdbc
a eea
ec fbccc
bbd eef
bbbbc dbc
dbbc dbc
bbf fef
dbbc dbd
fee bebc
ef ecbf
ebc bcbbc
ebbc ba
bec bbfc
dbb bdebe
deec dec
ebb fbbee
bbd bdcc
bbbd bbbbbbbb
fc eef
bf bdef
ebbc bbed
ebd bbef
bdf bebc
bcc ecec
edc bccc
bbbc efc
bbee dbf
ebd fdd
dc bebcc
bcf ebcc
bbbf eec
bbd bcbbbb
bdbd bbc
ebe fbbbb
bcbc ded
ebd bcee
bbebe bbebb
bbf ac
eecc fbc
ebb dddd
edc ecdc
ff becc
ecbd eec
bbbb beebe
bcec beec
fcc ebf
ebb fccc
bf fccc
dbd beec
eebc bbec
da bbc
fc bcebb
fdc bbc
bec fbbc
bcbc bef
ed efdc
dc bcbec
bbdc bdc
ec bbeecc
fcc cccc
beee bbbd
ebc eef
bea a
fbe bbbbc
debc a
eeee bdc
dd eef
dbe beed
ef ecec
ef ecbe
dbb ebbbd
bbdc dbc
ebc bba
bcbc bbbd
ebe bfcc
ef bbeec
ebe bdbc
bebc becc
ebbee bbebb
ff bbebb
febb fc
bbbc dbf
bcc bdbd
ebd ecdc
fee fbc
bec dbbbb
dbe bbebe
eeebb beee
bf bebbf
dc bcdf
eeee bbebb
edbc a
ee ee</w>
ed eca
ded becc
ed ecebe
dd bcbf
bf eebbbb
ebb bedbc
bbd beebe
ebf eebc
bec beebc
ba bbec
dd bded
bbbf fbc
fbd bebc
dc fccc
bdee dbc
ecbc dbd
eebe ebcc
bcc bedd
efc ebbc
bbd ecec
dc bcbbbb
ccc bfc
dbbc ff
bf efcc
bbbb def
fed dcc
ebb eac
ed bedbb
ebbbc bbf
ded bbcdbf
bbec debb
eec dbbd
dd bcbe
a bfa
bbc febe
bdbc dbd
eedc ebc
ecf bbee
febb df
ebe befc
ebe eebbbb
ecbc dcc
ecc bdcc
fed ebc
ccc bbbe
fee ddc
dbc debe
bfc bbcc
da ba
bdf ebbc
ecc eebf
ef eeed
ebec bbbd
dbe bced
bbd bcf
ded fbc
eebc eebc
fdd eec
bcbc bbee
fbf bec
bbbf bef
bbed bbbd
ebec edc
ecbd dee
bcc fef
beec debb
bebe bccc
eccc dec
bbbbc bbec
bedc dec
bcc bcbf
dfc ff
bdee bbf
bebe fcc
eebe ac
dbc def
dc bdbe
bd db</w>
ebb dcbd
dbd bebd
bcee fbc
bbbf bdc
ef febc
ded ba
bdbc bbf
ccc fbc
ebd bebbc
ecbc bbec
dbbbb bbf
ecc bdbd
ddc fbc
bbd bbbcc
bbbe beebe
bec eeed
bbd bcdc
eebc dcc
ecf ebcc
eebd bbf
df debe
ebe ecbf
bcbc fbc
bbcc dcc
bbbf dee
bbbb fed
dbd ebbc
beed eec
fbbbf cc
efc ba
ebe bbebd
bbd bbeec
bf bdbe
dc ecbbc
dd ecbe
ebec bfc
fcc bebc
bcee beec
ef eedc
eeebe bbee
bef bbebe
bbd beef
bcf def
a eca
ef bebbbb
bcbeee cc
ec dbbbf
ebcc bbee
fec ddc
bbc ecbe
fec fee
bebd bbee
eeee eeebb
fbd bbbe
ebec bcbc
bcbd ebc
bf eea
bbbbc bebc
eedbf cc
ff beec
a dfc
dd dedc
df dbbc
fbe bbdc
dbbbb bbebb
dc bfed
bbed bbee
ebe bcebe
fec bbec
dcccc ccc
bf feec
ec bbac
beed dbc
eeec dee
febb bbf
fbe dbbc
dc fbbbb
bfbc ccc
ff cccc
bebd ded
ebd dedc
ea dbd
ecbf fc
fee dbf
bbbb bedc
bebc ba
bced bec
ef bdbf
ebc ebfc
dbe fbf
eec ecdc
debb dec
beebb bbbc
edc debd
deec bbc
be de</w>
bbebc bec
edcc ecc
bbd cccc
becc bbf
bbdd bec
eeec ecc
bdc bedc
ee dd</w>
bd ecccc
edc dbbc
ed bebbee
ed febf
bbdc bbbc
bf eefc
ed bbebbc
dd febe
eec fef
ff bbed
dbb ddbd
bf bac
ef dccc
bcbc bbcc
ebbc bbbbc
ebc eced
eec eeed
bbef bec
ebb bedbb
bebbed cc
bcc eedd
bbcbbc bbcbbc
ecee bbbe
ff ebcc
da dbe
ecf ba
bbbb ebbebb
dee ea
ecf eccc
bbee ddc
dbb ebbbc
fee bfc
ebe ecebb
fc beebc
dc eedf
df bced
e ba</w>
bd bd</w>
bcbf bbc
bbec beee
dbd fbd
a debe
debb ebbc
dbe febb
bba bbbe
ec bc</w>
bdbe bbebb
fee bcbc
fcc bbd
efc efc
bd dbbbbc
fbc beec
dc bebbd
ebe beebc
bbec bebd
dc eedbe
bbebe fc
ecec dbc
bcf bbed
bbc debd
bdc eedc
bb ebe</w>
beebb ebc
ffc dd
ef bcfc
ecbe ebcc
ebd febe
ecbc bfc
ded ebf
dac ea
ec dbbed
dc beeec
ebd bcdc
fbd fec
bebf bbbe
bdf ddc
becc bbbe
bcee bef
ebe edbd
beed fc
bbbc dbbc
ebd ebbcc
beebb bec
bf debf
bf fbbbe
dc dbbbc
dbe ebcc
ebd fbbc
dec bedc
dbbbb a
bbdc bbbe
ebe eea
bebf ff
bf bddd
becc eebc
dc ecbec
bcec bbf
bbec fec
ebe bded
bcc eeebb
bbbec bec
bdbe ba
ed beebf
eecc eecc
eebd bdc
eebd ff
bebc beee
bbfc bec
bcbd eec
fcc eebc
ebbc fbd
ed ebbbbc
bbebb dee
bebf bebe
dbe bbbbc
eeec bbbe
bf ebbbf
edcc fc
beed ebc
ebb efbf
dc beebd
bdf dbf
eeee fc
df ffc
bebc efc
bf ecbec
bbebb bdc
bbcc fec
ea dcc
ecbc bbee
dbe bcee
bfc debb
bcdd dd
bbdd dbc
bdbc ff
bbef bbbe
bbd fbbbb
dbec a
fbc fbd
dee fec
ebe bcef
bcbc beec
bdf bbbd
ef fbcc
fbc debb
ba dcc
fcc dcc
ebbee fee
ecc eebe
eeef a
dbbbe bbbb
bcbc ebf
dec beee
bebc fee
ecf dbf
da bea
bcf debb
eef ac
edc eeed
dbb ebecc
eebd dee
ebc eebbc
dbb bdef
febb bbbe
dc ebccc
bdc dfc
ebe bebbee
dc bceec
efc dbf
bbcc ebbc
ecc eddd
ded debb
ed ecbbd
fbc bbbd
bcbc bfc
bbf bcbf
bd bbefc
bcbe bbebc
bebc bbebb
ef edbd
ebbee ebf
fbe ebec
bdee bbbe
ebe b</w>
ebbbc bbbc
efc def
dbd dbbbb
bc bbebdc
bbbbc eec
ebb bb</w>
a bdbd
ebd febc
bbd bded
ba dec
bba dd
bdee dee
edc dbec
ef bfcc
ebc eddc
edbc dbe
debe bdc
ebc bded
ecc dbcc
bcc deec
bebe bebbbb
ebf bcbd
bdee eec
bedc dee
bf bcdf
bebd bbbd
bbebb bebbbb
ded ebbc
ebcc dbd
ecee bbbc
bfbc bbf
bccc dee
bd ffcc
ebcc fec
bebc bbcc
ff debb
ebf ac
ecbe ac
bbbbc dee
bdbc bdc
ebe febc
beebe ef
ff ebec
fc eedd
bbef bbee
fbd bbbc
ebb bebbbd
ebd fef
dec bbed
a bcee
edbc dbc
ebb ddcc
ff bcbd
bba ba
dcbc dee
ebf bbed
fc ebfc
dec bbcc
bbec fee
be bf</w>
bbc bebec
bcc dbec
ed bbbfc
ded bbee
bbd edbd
bbbd fee
ecec bbbb
bbbd ddc
ebe eeed
edc bbdc
bebe bbed
bfc becc
debe ef
f ef</w>
efc debb
debe bbf
beee bbbf
ebc ecdd
bbdd ef
bbfc a
ed ecdf
bcc bcbe
bbec becc
ed ebbbbbb
eebe bbbbc
bcec bcbc
ebd dbcc
eeec bbf
bbec bbcc
debc bbbb
fc bded
dd fa
ebc fa
ecec bdc
bdec eec
fed bbbb
bfc bebd
df bebf
dd e</w>
bf bbebf
ebdc dee
bbec dcc
debc dec
ecee bbee
bec fef
febb eec
ccc ddc
bbd febc
ebd edbd
bec bdbd
beebe bbc
bbd bdbbbb
beee dcc
ebc bebec
ebd eedd
dbbc bebe
bdf ba
bbebb dbc
bbbd edc
efbf beee
be dc</w>
bbd bcbbc
ecbd a
ded def
ecec eec
ebd bdcc
ebcc dcc
dd bcebb
bbec edc
dbb eddc
bf ecdf
ebe bbeec
ebf ebec
ff fdd
beee eec
bcbc cccc
dbd bbed
ebe bcebc
dbb eded
dd eced
becc dbc
bdee bdc
ded dbf
bbbd dcc
bbd eccc
ecc bbebe
bdbe ebbc
febb ccc
ecee ef
ed eedbc
bcc eebf
dc ecfc
bbbe bbdd
bbbe bcee
ed ecccc
bfc ebec
da bbbb
bbec ba
bef bccc
beee dee
ecc eced
bbd ecbe
bf bceec
eefee cc
ebbc eebd
dec eecc
ebb ecbcc
dc eea
dec bcec
eeebe fee
dbc eecc
dbe eecc
ebcc efc
ecbd edc
ebe bebec
a cccc
ecee eec
bf dbbbc
ebf fed
ebe eebeee
fc bfcc
edbc bcc
fc febc
ebc ecbf
bf bbccc
ebd eebf
ebcc bebc
bef eebc
bbbd bbbf
eeebb bbf
edbc dee
bbdc dbd
ebd b</w>
ebbee ccc
ebbc becc
fc dbbd
ecf ac
ebd eebe
df febb
debc dbe
bbee debb
edc bcec
beee bbcc
eeec ff
fbe def
ef eea
bdbe dcc
bcbc dcc
a beed
efc fed
bfc eebc
bfc beed
bdc fbf
ebbbc ccc
beee fbc
ebb ecbbd
bec dbcc
ba bbcc
ebd bcebb
ef ebfc
dec fed
f bbeba
bf dedc
bbef ccc
bbf ecbc
ebbc dbf
a dbbbb
bcc bbbcc
bdf ded
dc ecebc
ebc bcfc
ebbee ff
becc bebe
bcbbbb bbbe
ba edc
fbbed cc
fdc dbe
eeee ecc
dc defc
ebcc eecc
bbdd bdc
bba bbbc
bbf bcec
bccc df
ebc fecc
fc beef
eeebe bbbe
ebc dbdc
bcbd ccc
ecec a
cccccccc cccc
dbf fcc
beee bbec
bdee bbbc
fbc eebc
bfc fbd
dec ebec
bedc ecc
deec a
ebe eebbee
dbc beed
da ccc
ef fbbbb
ebbc fcc
bcc eebe
edcc eec
bebd bebd
debd df
ed fbbbc
bdbc bebe
bef ebec
ebf def
ded bbbd
bdbd dbe
eef def
bef beef
bebc eecc
bbebc bbbe
bebbbb bebbbb
bedd bec
beee beef
bdcc eec
bcc decc
fee dec
ddc fec
bf bdbbc
bbf fdd
ef beebc
bcc bcdc
bccc ebe
fc eebf
bcbe ea
beee dbd
ed bedec
fdc fec
ba bcbc
debe bbbc
dbf beec
eccc bdc
ecec dcc
bcbd ff
bc ee</w>
dee def
bbee beebe
bcee ebf
ecc ecbe
dbbd bbbd
bbdd eec
ebcc ded
debc ebe
bbee becc
ef bdec
ecc bbbbc
efc bbec
ef dbdc
dc bfdc
fbe ecbc
dec eebc
bbbc fcc
dee ac
ffc ff
ebdc ff
bcf dfc
dbb ebbbf
bebe debb
bbf bbdc
eedc bbc
fbe ac
fbbc bbbb
bef becc
eedd a
dc eebec
ebf eebf
dbe eebd
ed dedcc
bcec ff
ec ec</w>
fdd a
dbe ecbc
dc fbbf
bcc dbcc
ebf bbebe
dbc dbbc
ea eeee
bedc ebe
ebb fbef
bfc def
bbbc beed
dbec ebc
ed f</w>
bbbb bced
eedc edc
bdbc bbbd
ded fec
bec ecec
eef bbed
bcec bebc
ecee ebd
df fef
beec fec
eebd fbc
eebe bbed
bbbc cccc
deec dee
ed bb</w>
bccc dcc
bec beebe
bebbbe bbbe
bbbf dbd
bcec bbd
bec bcdc
bbbf ba
dec ebcc
efc eecc
dc bfbf
ebc beebc
bdbe ded
bbbbc bbcc
bdc dbbc
dbb ecef
ebc bfcc
bbec bbed
bcee bcbc
ff dbbc
ec dbbdc
bef def
bb ebd</w>
dec debc
bcc bbfc
bf bedf
ebe bdbf
edbd bbc
dc bdbbc
dc bbbdc
ebd eeed
dbf bbee
bbbc bebf
ebf bbef
dcc fbd
ecf ea
ecc beebb
ebb beccc
bdc bbdd
dd febc
ec ee</w>
ebf bbbbc
dc dbbee
dec fbd
fef bbc
bbbb eebbbb
eebc bbbd
dbbbb dbe
eccc dbe
ef dbbf
bbdc bbf
a bbdd
bbd befc
dbd fcc
beebb beee
eebe ebec
dfc eec
eef debb
bbebb ba
bbec efc
ddc bbbe
bdec fc
fbc dbf
bcbc bcbd
bbd bdbf
febb dd
ef bdebb
eeee dbe
bf bbbdc
bdc debe
bcdc dee
edc ac
dbd fec
dc eeecc
ebbc ebcc
ec dbbebb
eebe efc
dc bcbcc
bdc deec
beec dcc
bbf eebd
ebdc bcc
a ffc
eebc eecc
bbd fa
ebb bebbec
eccc dbc
dc bbccc
eeebb bbee
ef bcdd
fdc bcc
ef bcbec
bc dbbfc
bbebe ccc
fef fc
bbbc bbdd
ef bbebd
ebec bef
a bced
ebe bddc
ecf bbbd
ba dbf
dbb ecebe
dd eddc
bbbe debe
ea ebd
ebe ebfc
ed bbdcc
ebe bcdd
bf ecfc
ecbe debb
bcbc fee
bbc eedd
eebc fec
bec bebbbb
dbc bbbf
bdf bbec
bdc bbbf
bbed bfc
fed dbd
eec bcbf
dbe bedc
ebdc bbbb
ff bbdc
ebec fec
bbef bebe
eebeee cc
edc fdd
ebcc ebcc
ed eebdc
eecc dee
eec fa
bd bbebec
dd bbfc
bbef bcc
bcee ddc
dd beef
bbebb bbebe
ebf ecbc
bebf ccc
eec dbdc
bbbc bebbbb
ecebb bbbb
ebe ebbebe
bcbd bcc
ed ebbdc
ebb dba
dd bbebc
fbe dfc
cccccccc ccc
fbbbb bbc
eced bbc
eec edcc
dee bced
bdbd df
eccc ff
ee dbbfc
beec ba
bdbc ecc
fdc ecc
ed eeeec
ebf bcec
bef ac
ee dbba
debc ff
dbf dcc
dbbd bec
bebc bbed
ddc fcc
debc bbf
fbd ded
dbbbb bbbbc
befc df
bdc bccc
beebb eeee
bebc dcc
bebf df
dbc bbbbc
bcbe def
fee bbbf
dc eac
beed bcc
fc bcef
bebe eebc
becc ded
ed eeebd
fbc bbcc
eebd bbbe
ebe ebbbbbb
dbd bbcc
eeec dcc
fbd dcc
bedebe cc
bbd eedd
a fbbc
ebe eebbbe
bef ebcc
dbc ea
ecbe efc
bc bbeccc
ff febb
dfc ebc
eec febc
dee dbbc
fbc bebd
ecee dec
ebe eebbc
eec bbef
bebbc bec
ecbd bbbb
dbf dec
ebd bbebc
bbf debe
bbd bddc
bbc decc
bcec bbec
ebbbc bcc
bf fbebe
bdf bbcc
bf bcbcc
dc bca
ec bd</w>
bbc bcef
beec bebd
ebc dbb
ec dbfcc
dbec fc
eec bcee
bedc bcc
fbd ebf
eba bbbb
debc ded
ef bcebc
df edcc
fee beef
bcbd bbf
eecc eebc
bd bbfcc
dd bcf
ed eceec
a eeec
bdee bbee
bedc ff
fed bbf
fec dbf
ebe bcfc
edc ecec
bbbc ddc
df bcf
bbbd dbf
bfc bbed
eec bbfc
ebdc dbc
ebec ebf
bc debfc
fc dbdc
ed fdec
ebcc ebbc
bbc bdbf
fbc becc
bbbe eebd
bccc ff
bdec dbe
ed eebbbe
dbd bbebb
bbd bebec
dee cccc
ebcc bbec
bfbc ff
ba da
bcbe debe
ee dbbebc
beec bef
ef bddc
ed ebdcc
ccc bebe
ed bbba
df cccc
bdc debc
fdd ff
ebd bbfc
eecc bbf
bdec dec
fc bbbec
ef fbec
bbbbbbbb bbbbbbc
ed fdcc
bebbbf cc
edc fbe
bcdc dd
fee bbcc
ebe dbbbe
bdc eeed
bf edbc
eec bbebc
bec eeebb
ef bcebe
fbf bbbe
eeec ded
ebec bbcc
bcbe ac
bbc bdcc
df bcbf
eec beebe
df ecbd
bdebb bbbb
df eebd
dbec ff
becc ebbc
dee fbd
ecdc dd
bc dbba
eedd fc
bcbd dbc
bf bcbbd
eeee bbef
ffc fc
a bbebc
bf febf
becc bbbc
bbbec bbbe
efc fcc
bebe eeebb
dbe fed
bbee bebf
debb ebf
ecec ded
ee dbbef
bcbe dbbc
bcee ded
debc ecc
ebb bedee
ebb fbfc
dbf bef
ecdc fc
bdbd bbbd
debc bcc
bf eddd
efc bebd
eeee ebc
dbe bebf
eeec bbd
bd bc</w>
bbc befc
bbed ecc
bfc bbbf
a eebf
bd eb</w>
a eeebb
ea dec
dbb ebbed
bd dbbebb
ebb dcbc
beec bcbc
bebbbb bbf
bbc febc
eebd bbd
beebb ebf
fbbc fc
fee bbebb
debe ecc
bbed bef
eeee bebf
bf fdbc
bbdd fc
bbdd ebc
bf ecebc
ebe bdebb
fbbebb cc
bbc fbec
bbfc bbf
bfc beee
ebe eebebe
dbb ebbbbc
fee bbebe
fbc eecc
dc dbfc
ee dc</w>
bebe bcbd
bcec bef
fcc bef
bcee dbf
becc bbd
dbec dec
ea ac
beec bedc
fec dfc
ebe bebcc
dd eddd
fee bbbd
ed eedee
bd dac
dbb dcbd
bbbc bbbcc
bbbe bba
dbe bdbd
bbbbc ebd
fec debb
bebbbb bbbd
ddc ebf
bcbc edc
bfc ebcc
ebdc bdc
ccc bbee
bbbbc bdc
efc eebc
bcee bbebb
dedc eec
a eebd
bb ebc</w>
bbcc ded
febb bec
dbd dbbc
dbb ecbec
beec fbc
ee dbbbec
dec decc
dd dcdd
ff bebf
ed fdbd
dd bebbc
dbd b</w>
febe bebe
dd bba
eeee bbbf
ebbee bbec
bcc bbebc
bebd ebbc
bcbf bbbb
eebcbc cc
bbbc bcbbbb
ebb eca
bbf dfc
ecc da
bcc eef
beee bbef
bcbe bbebe
efc bbee
eebf fc
eec beef
ebbbc bebe
ebe bebbf
bbcc bccc
bced ccc
ec fedcc
ee bbeba
bcc bdcc
bebc eebd
bbc fbbbb
bdee bbd
ed debdc
beec bbee
eec fdd
bbebd bbbb
ee fcccc
bcee ba
dbc eeec
ebf beebe
bd bbea
bdbe debb
dbd debe
bbbc fbf
dcc bcbc
dbc cccc
fec ebbc
bf dced
dbc bbdc
bcc dbbbb
bcfcc cc
beebb bbebb
beec ebbc
ebbbbbb bbbe
dc deecc
bbc bded
bbf dbbbb
eccc eccc
fee edc
eeee eebf
fbd bef
dbe dbec
ba eba
becc fbc
eec dbbbb
bbd fbec
ebdc dec
dc bac
fc beebe
ef bdbc
ef bbecc
ebe bebbd
fc fbec
ebd ecec
bbd bdbc
dbf bebc
ebb ecdbe
dbd eebc
bbec ebec
bfc bbebb
dcc eebd
bcf dbbc
dc edbc
dd beebe
bd debdc
ebf febe
bebbc bbbe
f df</w>
df bbef
eef ebec
bbbb eeec
ecc fef
beea cc
bebd fbc
bccc edc
eec bcbe
ea fbc
bbbc fbe
fee beebe
dc eebcc
ebb ecdf
bf c</w>
fc bcfc
ac dbf
dd fecc
bdc dbec
eec fecc
fdc ebe
ebb fdee
ff bcec
bf eded
ebd bcbe
a febe
ebbc bbebe
ebc bbebd
bbc beebc
bc dbbebc
ba ded
ecbe bbed
ecc efcc
dbc ecbc
ee defcc
ed fdbb
ef ebbcc
df bbdd
fee bbef
df bdbd
efc dfc
bbc bbeec
ebf beef
bbbb dbbbe
fcc becc
fed ddc
ebb eceec
bebc ebec
fcc bbbe
decc bec
ebc ecebb
ebbbc bbd
fdc ded
bbbb da
beee bebf
ebbee bcc
fcc ebbc
dcc eedc
ebb dded
edbbc dbf
dbc bccc
bbf bbfc
dbb bda
ebc bcebe
ecc bbfc
eeee bbd
eecc fec
edc da
ccc ebf
ecbd dbe
bedc dbe
bdf ea
beebb fc
bc ec</w>
ebb ddbd
dbc ebcc
bdee dec
bbebb bcbc
eebc bef
ebd bebbbb
bf beff
ecbe eccc
bd dbccc
bf ebecc
bf fbdc
a eccc
dcc beee
bf eeebc
ccc bef
df bdcc
bbec beed
bbbb eebe
bbbc fed
bced dec
bbbc def
ebbc ddc
ebe bcbec
fdd fc
bfc fed
bcebb bec
bbbd beec
bbee febb
bcbd dbd
bd be</w>
bbee bebbbb
bbbc eebd
debc ebd
bbebb ecc
ed fbfc
bbdc ecc
bcec bdc
dd bcef
bbc eebbc
dbb bac
dcec dec
edc bcee
dbbbb bec
ecbd bcc
dc fdee
eec bdcc
ebf dbbc
bbed fbc
eef ebcc
bcbbbb bbbbc
fc fa
bc dbbbec
dbd def
ff ecbc
dcc bccc
bcbd bebe
bebf bcc
bbee bba
ebe dccc
df bedc
dbe bcbe
bbdd dee
ebb beedc
bebc ebcc
efc ddc
dbc fdc
bcbd bbbe
ebc bcebc
ebb fdbb
ed efbf
ff da
eedc ebd
ed eedcc
ebc fbec
dbcc bbc
deec ded
a dbec
bbebb fbc
bebc bbbf
beee bfc
fee ebbc
df eeee
bbec beebb
bdc ac
df debc
ebc dccc
beed ef
ff dfc
bdbe bbed
eccc ded
dc dfcc
dbbc bbbd
bebc fcc
ed ecdbe
debb ded
bbd bcdd
ff bebd
bbbb bebec
bdc ebdc
ebc bbeec
bcba cc
bebc fed
bebc bedc
efc bbbd
edc fbf
bef bcec
bbdc dec
ebc bedbe
bdc bdbd
bbec eebc
ebe bbbbbbbb
bbebe bbebe
dbb edbbc
ccc fec
ec beeecc
ddc bebe
bbf fbbc
bcc bbbec
fef fee
bec beef
ebe bbecc
ebd fa
bbc ebfc
ecc bbef
ddc bbbd
ecc dccc
bbee ded
bbdd bbbe
dbb dcdc
ecc bcbf
bcf bbbbc
dbe bcebb
ecc fbbc
dc bedee
bbed beec
dee ecbc
bbcc beee
ebc ebbcc
eebd dec
debe dbc
bcc edcc
febb bebe
bc dd</w>
ac dec
ef eced
bc ebac
df ebdc
ed fbebe
ff ffc
bbc ecbf
fbc bbbf
bfc beebb
dbbbb dbd
dbec bbbb
bec dbbd
bcc bcbbc
dd ecbf
dbb bfbd
ebc febd
eecc dcc
ed ebbebe
fcc dbd
bbbc bbebc
edbc bbbe
ef e</w>
fc eeebb
bbd bdebb
bcec dbd
bdc ffc
bbec bedc
dfc dec
ecbc beec
bccc dbe
fc dccc
efc bedc
ebb bbebec
ecbcbc cc
dd bfcc
bcc ecbd
ebf eef
ff bbebe
ed ebeebb
bbbc ea
eec fbbc
fec bedc
bf eebcc
fcc fee
bcc fbbc
dbb dced
bebbbb bebe
eeeeeeee eeeeeeee
df bbbbc
a beef
bbebb bebd
dc fbdc
df fbbc
bf beecc
bbbc debe
ef eebbc
becc bfc
edc febc
bbee eecc
fcc fdc
ebb dcbf
ed ebbee
dcc bbbd
bbd eced
debb debb
dbbc bdc
dc bfbd
ecc eeebb
fc dbbbb
bcbc ebbc
dbc fbf
df beed
dbe debc
bec bcf
dc bcbbd
ebbbc dee
bbbb eebf
eeebe beebe
fc ecbf
fee bebf
eef bbdc
edc edbd
a bcebb
dbec ebe
bef ecbc
bbcc efc
ebb dcec
eeec ebd
bbbc ebcc
bedd eec
dbf fbd
ec bbeccc
bd eeeecc
bbd eebbc
bbf febe
fed bfc
bec febc
debe bbee
ebc bcef
ebf eecc
dbe bbdd
df beebb
dbb ddcc
fc bcdd
ebbc eecc
ebc bdbf
ecc ecbf
bbf bebbc
bdc febb
eedc ef
bd dd</w>
bf d</w>
dbb ecebc
dc ebbebb
bef bcbd
dfc dbc
ed bebfc
bbbc bbbec
bedd a
bbbc bbef
ebd bbbec
bbdc bbbd
eeee dbc
ecee fcc
bbf beed
fee beebb
bcc b</w>
edc bced
fbc ebec
bec bbbcc
bbbb eecc
be ebb</w>
fec bbee
bcee bbcc
dbb efcc
bbebb bbcc
fbd efc
eec bbbec
dee beed
bbfc dbe
bbbb bddd
ac dbc
ef bebcc
fa dd
dcc becc
ebe fbcc
eebc bebd
fee bbec
bef dbbc
ea da
dee bbbf
a debc
ebd bcbf
bf beeec
bec befc
bf bebbbc
fc bbbcc
bef beebe
dee dbec
ecee fbc
fbf ebf
fec bebd
bbbd b</w>
a ebdc
fc bcbbc
bbbe beed
dd dbbbe
ecbe bbbf
bbc edbd
eebc fcc
bbd bebbd
fbe cccc
ebd beebe
dbb ecbbbb
ff eccc
fec ebf
dbd efc
eeef ef
bf ecebe
bbbe ecbc
ba ebbc
bdc ecbc
ebbbc bbee
dee beebb
bbdc bebe
bec fdd
bbf bcebb
deec dbe
eebbcc cc
bbebe bebc
bcc bcebb
bbbb bedd
debb bbebb
febe ebe
bec bba
eebe dbf
eea a
eedc dbe
ebc dbbbe
becc efc
ecbd dbc
bef bbbbc
dd bbbec
bfc eecc
decc ef
fee fbe
bbee fbd
ebb dcdd
bbbb bbbdc
bcee bbbd
ec debfc
ec db</w>
ddc bbbc
dbd bcbd
dcc ebbc
bdbd bbd
eebe eccc
bbee efc
bdec bcc
bebe ebcc
dec bcbd
bebe bebbc
ebb bedbd
bf dbbee
a bcf
dc beedc
eeba cc
bbbe ac
eef da
ecf ebec
dbd dbbd
bcec ebd
bbbe bcbf
dd fbec
fbe debc
ebe dbbf
bbf da
ebb defc
ebb fdbd
bebe ded
ebc bdbc
bedc ebd
ebc bddc
bebe fbd
bcee bbed
fbf dbe
ea dbf
bfc ddc
ecc bcf
eeef eeee
dcc bbec
ebe eced
bbc bcdd
bbf bba
bbd ebfc
dbec bcc
bbee bbebc
bbbb cccc
dd ecdd
fc bba
edbc edc
bbdc bbdc
ea bbbd
ded efc
fdebe cc
ed fbef
bbbf bbec
bbc bbebd
dbb dded
eef dbbc
deec ef
bf bebbee
ecc febe
bbdd bbdd
ebb dbbcc
dbbd ef
beee eeebb
bd deccc
debd dbe
bf acc
fec fcc
debb fbc
eedc bcc
eeebe ebf
fc edcc
a bedc
bbc ecebb
dee ebcc
ebdc edbbec
dbc fbe
bbc dbbbe
bebe bbef
febb dbe
bbf eebf
eebd dbd
ac fa
bbbe bcbbbb
bbed ebbc
bf dbfc
bdbd bdc
bedd df
bec bcbbc
fc beecc
fc febe
eeebe bbbb
bbebb dbd
ebbbc ebd
dcc def
bcbe bbdc
bf bedbe
bbbe debc
ccc bbcc
beec bbbd
ebb bbdbbbb
eeec dbd
debb bbec
ec fcccc
bebe ddc
bef eebf
bbbbc dbd
beee edc
bcbe ebcc
bbbe def
bfc fbf
ef bebec
fec eecc
ecc bddc
ebec ba
eeee df
bcdbf cc
bbc eced
bebc fbd
dc bebbf
fee fbf
dfc bbf
bf bebdc
debe bbd
beed ded
bbbe bbfc
beec edc
dc efdc
febb ebc
eec bcebb
ecc bcdd
bcec bbbc
bbbb fdc
fdd ccc
bbebe ebc
bbbb bcf
fc eced
bbbf ebbc
ebd bcf
bebd bfc
ebd eeebb
dc bebbbe
ebb bbdcc
beec eecc
ee de</w>
efc bbcc
dbb ebbee
eeef beee
ed eebbf
bbbd bcbd
bdee dcc
dbec dbc
edcc ebc
a dca
bf dcdc
bbee eebc
bcc febe
bbed ebf
bbbe bdbd
ec dbbebe
bbd beebc
ef ecf
ebd bddd
bbf beef
ea bbec
eedc dec
ecdc dcc
bbf bbbec
dbe bebbc
eec befc
edbc fbc
bcbc ba
bbbb bdebb
eebbed cc
bf beebd
bbf bcf
becc ebf
ed bbbbcc
bebe fbe
ef eedd
ebe eedd
ecdc ebc
edcc edc
eec bfcc
efc debc
bec bded
bec bdcc
ebe ebbcc
ddc fee
fbd fbd
eebc ebcc
eeec fec
ec dbbef
ec eeeecc
dbc bedc
eebe bbdc
bbbbc bbbf
ebe fbec
fdc bdc
bccc bcbc
ecee dbf
ecdd dd
bbee fcc
bcc bebbc
bbbe bced
bebc ecbc
dc bbedc
ba fcc
bef dfc
dc debbc
da bda
bbf bbebc
bcc ecbe
ebe bbebf
eebd bebe
bbf bced
ecc bcbe
eeee eebe
bf eac
ecbd dec
ef bfbf
fbe debe
bbbe bebbbe
bcbf a
def fbc
ded bcbc
eeee eec
ded bbed
bf eebbbe
ef fbbf
edc fecc
bebe bbdc
eddd dd
def dec
ebc bebcc
ebec becc
ebd dbdc
dcc bbcc
ddc efc
bcc bcf
bddd dbd
bbc bcebe
eeebe eeebe
bcbbbd cc
bbbb bbeec
ebf bbdc
bcee becc
bf ebbbbbb
ed dbccc
bbbb beef
ec bbebdc
bceebc cc
eeed bec
bcbd bbbc
ebb febbc
ecee bcbc
ebf dfc
ac bdc
ebfc df
ffc bec
bc dbbbcc
eeec dbbc
bdbd a
edc bbebb
bebd debb
fdc dbc
ed fbbee
bcc beef
beee bba
eebf ff
bf ddcc
bbdd ebd
bbee ebcc
dd befc
fdc ebd
eeec bebe
bbd ecebb
fc fbcc
f ebb</w>
bdec a
fbd ebbc
fbf bbbc
bebd bef
bdf debb
bbbb fef
ee dbbbcc
da ebe
bdc bbbbc
debe ebd
ebbee bef
fcc bbbc
bbbf ecc
bf bbedc
bd befcc
bccc dbc
ccc bebc
bd bebecc
eec dccc
bdee dbd
bbbe eecc
ddc fed
ebf eebd
bd dbbed
eeec becc
ef fbbd
ebc feec
def dbd
dbe dbbbb
bbfc dee
bdbd dee
edc dbcc
ddc bfc
bded dd
bebbbb bbee
bebe febb
fbd ba
bebe ebec
ea bcec
ebf eccc
ebf fdd
a beebe
bbebe dd
bdbe dbf
dc ebbed
ebc bcbbbb
fc bbecc
beec fee
bdbc dec
bbed bbebb
fbd fee
fbc ebcc
fbc beee
ebbbc eec
dcc dbf
bbbf dec
bcc eced
edbc bbf
ecbe dbbc
ecee bbcc
a bcbe
bebf dd
ee bbb</w>
dc fdbc
dbe eeee
bcbd bcbd
bdc beebb
bbed edc
bbed debb
beec bbcc
bbbcc bbbc
eebc efc
ea bfc
bebf bbee
bbbe bedc
fc bdbf
bec eebf
ecee ff
bbbe ebbebb
bbbbc ff
eef bba
bcbf df
bbbbc ebbc
ebe dbdc
dbc bcec
f a</w>
ebc b</w>
dbec ebd
dbb ecfc
ecbc bef
bbfc ef
ed beebbc
bcc da
febe ff
bebe eeebe
bccc ebd
dbc bbdd
bbbf bbcc
ebc bddd
eebc becc
eebc debb
ccc fee
dc beccc
bebe dbf
edbd fc
ecdc edc
eebbbd cc
bf debbc
bf bdbbbb
dd efcc
bbc fa
ea edc
ecdd ecc
bebd bbec
beed bebc
bfc bedc
df bcbe
bebd ebf
eec bcf
fcc fbd
eebd bebc
eecc bbd
bebf bbbc
debe edc
ebc efcc
dee fbe
ebcc bef
edbc dec
ebcc ebec
bbbd fbd
dcc beec
bbee fbf
febb dbc
eebe dbbc
bbee eeebb
bd bbbecc
fed bebc
eebd bbbc
bc defcc
bdc decc
bbebb bfc
ebd beef
bdee bebc
ea ddc
bbebe dbe
eec bcdd
ed ffcc
ed eebbbc
bbbb bebbd
dee bbdc
ecbd ef
bbbb ebdc
bf efbf
bec ecdc
ecbe ebec
deec dbc
ebd bebec
ebf eeebe
bbebb fee
bec ebbcc
bbbd dbbc
bebe fec
beee dec
dbf bcbc
dbbd ebe
fef ebe
dd fdf
bebe dbbc
bbbbbbbb bbd
ebc dbbf
dcc fdc
bbebc ccc
dbe dfc
ebbbc df
bedc ded
eebd ebbc
dbb bfed
ffc bbc
ebb acc
eebf bbc
ebec fee
febe ef
bcbd bdc
bcbd bbd
ba fbd
dbe fdd
ecbc ebbc
eecc ded
bebe bcec
eecc fcc
bbf bebbbb
bbee eeebe
bbbc bebbc
dbbbb bcc
bebd beec
dbbd fc
bced eec
bbbc bcbbc
dbbd bbbe
da dee
ebb ececc
dbe bbef
bbec fbd
bf fbbbc
ecf bbbf
eecc ebbc
a bebbc
fbc ddc
fed ecc
bc ed</w>
eebe debb
ac ecc
dc eedee
bbbc bcebb
ed befcc
eedc ff
bcbf dd
dc beff
dbcc eec
ccc efc
bf ebbbd
bf ebbee
dbb bfdc
fdc edc
dbf dbf
ebb beba
bdc bcec
bbbc bcec
bcdc df
bbbb debc
dec dbec
bbbb ecbd
bdee ebd
ef ecebb
bcc ecbf
bcbf ff
a bbba
bbd bcef
ef dedc
bf ebccc
eeec bebc
dbcc dd
bdbc ebf
bcbc bbbbc
ba eeee
bebe bba
bec ebfc
a eef
bcf bbef
bf fdee
bef bbdc
dbb edbc
bcf eccc
fdc efc
ebc bdec
ecbc ebf
dbb bdebc
eeef fee
bebd eebc
bfc fbe
dbb ecdf
fec def
ebe bdec
bdf beee
bbbb ecebb
fbbbb bbbe
bd ebfcc
eec beebc
bdbc bebc
bdc fdd
ba debb
fcc eedc
bbee ebec
dbd becc
bcbc beee
edbd dee
bf eebec
beebb ccc
ed ebbef
febb ebf
bebbbb bbbbc
bbeec bec
ebdc fbc
eec bded
bbec fed
beebb ff
febe beee
ebe eddc
beed ff
bbec bbbbc
bbdc edc
febb bcc
bcf debe
dc bbbbbbbb
fa ccc
bbbb dbec
dc eebbbb
ed dac
bdbd bec
bbd ecbf
bcee beee
bbf ffc
beef ff
debd bec
bf fbef
ebcc bbbd
ebc bebbd
ebb beebbc
ded bcec
beed dbd
bccc bdc
bbc dedc
ddc bbee
eebc bbcc
bbc dbdc
ef bdef
dec ecbc
fda cc
ef bddd
dd dbbf
bcbf bec
dbc dfc
ebc dcdc
bcbe debc
bdf bbbf
ec ebac
fbe da
decc df
fbe bdcc
ba bbbbc
fbc ea
dbc bdbd
bebe bcebb
bfcc ccc
ded bbcc
ecbd ebd
bbbc bdbd
dbe bbebc
bbbc ecbc
eebf ccc
bbebe bbd
ebb fbeee
fbe bbfc
ec dbbfc
ffc a
bc bbebfc
eec bcbbc
bbebe bbbd
bbbb dfc
bcee debb
bf eca
edc bbdd
ecbf ccc
dbd da
beebb beebb
bcbe bbbec
bdc bedd
dbb dcdd
ecc bded
ac ac
dd ebfc
dee ebec
ebcc fcc
ebd bba
dc eeccc
bbef ebc
fed bbd
febc df
dec debe
ef dbbbe
ded beee
bebd ba
dbb edebb
fec bbcc
ebf bedc
eec ecec
fbe bbebc
bcbc bbebb
bbbcc bcc
bf bbbfc
bfbc dbe
bd bbb</w>
febb bbbc
dbb ebbebe
ded deec
ddcc ccc
bbbb bdbc
fc b</w>
ebcc eebc
febe bbc
eeec eecc
bceebecbbec bbdbbc
ebd ecbe
ee dbbebd
bbf debc
ded fee
ebe ecbbc
fc bea
bbfc ff
bf eebbee
fbf bef
eced df
ebe ebbbf
dbb ebccc
beef bbc
fbc fdc
decc ecc
ed bebbbd
dbe da
eeebb ebf
bf ebbebe
ebbbc dbc
def bfc
fbc bbed
bf ebbed
eeebe bef
ac bbbe
bbbd bbdc
dec bced
becc fed
def ebd
eedd ecc
ebc eddd
dbe eccc
dbe bdcc
ebec beec
eec eebf
eef dfc
bbcc bbbbc
bbdd ccc
ecbf ecc
ebbc bcbd
bac a
bdc bebf
bbfc bcc
fbf bfc
bbbe eebbbb
ebbee bec
eec eba
debb bfc
eeed bcc
fbc dfc
dedc df
ef bebbbe
edbc bbd
bcee fcc
ec de</w>
eedc dbc
bebe efc
ddc bef
ba bbed
dbe cccc
dbe defc
bbbf bcbc
dcc eccc
eeee bcbc
dd bdbf
beebb bcc
ebc fbcc
bbc dbbf
ebdc dbd
dbcc fc
ef dced
bcee fec
ef ecbbc
debe dee
eedebb cc
bebc bbbbc
ebd bddc
bec beecc
ddc eecc
dd bdbc
bedc edc
bbee fec
ee debfc
ebe bfbf
ebec debb
beec ebf
efc fbd
beec beee
eeed dbc
bbbd dbbd
efc ebcc
ed ecdee
bccc dec
bebc bcbd
ebd befc
ebccc ccc
febe ccc
ec ed</w>
ea ded
ed dbbbd
bbbc febb
bdf def
fbf ebc
beed bdc
bbbc eecc
fbc def
ecbd bdc
bec dbdc
fc fecc
dbe bcdc
ecf debb
eedd edc
fc dbbf
fee fef
bbf eecc
eef eccc
bbbe fbbc
ebfc bbc
bec b</w>
ebd eddc
dbd bbdc
dc eeeec
dec bbebb
dcec ded
bef da
bbd bfcc
fbe eccc
eebc ecbc
eec bcef
ebe efcc
bcbf ccc
bbc bbbbbbc
bbbe bbbcc
febb eeee
fcc bcbc
bbd edcc
dec dfc
eeec bfc
ecbe def
bbbb febe
dbc debc
ebe bddd
bbbf beee
fef bcc
bddbd cc
a bbbec
ef bcbbbb
dbf ded
dbec ded
ebbee bbebe
bbbe fbbbb
ebbc beebb
bbebc df
ecdc eec
ba fec
bbee dbbc
eeebe ff
eded ccc
bdbe ddc
eef bbbbc
bdee bebe
bebf bef
edc eebf
dc febf
edc bdbd
dee eeee
ebe dedc
dc fbbbe
ecc bcebb
bbf bcee
ebd bcdd
ebd eebbc
dbf bbbd
bbd bebbbe
bbc bfcc
bebc beed
ef c</w>
febe eeee
df bcdc
ecc ebfc
bebd becc
bcc edbd
ee bbebfc
bcec dcc
ec bbcccc
bebf ebc
bbec fcc
bf eebbf
bbba bbbb
ecbc ecbc
bedc bbbb
ebf eeebb
fc feec
bdc bced
febb fee
fbbc a
bbee bccc
dc bdbbbb
bcec bbbe
ba ddc
bd dbbdc
ecbd ff
bbd bea
bdec dbc
bf ebbbc
dc bb</w>
ea bebc
bfc debc
bec fbec
bcbc fec
fdc fbc
dcbc ff
ed beddc
bdee ff
beef beee
dccc dd
ebbc debe
fdebc cc
eec bba
bc dc</w>
edc bbbf
beebe bbf
bfbc bbbe
bbd fbbd
a eebe
a bbfc
bdee bbec
bebd fec
bbd c</w>
bbebe bdc
bfc dbec
ebb bebfc
ebd bbebd
ecf dfc
ebb dfcc
bcc c</w>
dbbbb ebe
eeec bcbc
fc eebbc
dc bebdc
eeea cc
bdf ac
dbbd bbf
bdf ebec
dc bbebf
bbbb bcdc
bebe eebf
eebc ba
ecbd ebe
ecbc fcc
becc ebcc
ebc bea
bbcc fcc
debe ff
bfc deec
bbbe eebe
fbf dbc
bebec bbc
decc edc
ea bbebb
fbf fee
ebbc fed
fc fdf
def eec
bbee bcebb
bbbd efc
bbdd ff
bef beed
ddc bcbc
bbbf fee
bded dee
edbd df
dbbd ccc
bfc bccc
bbed ba
bbebe ff
bebc dbf
bec bfcc
ebb fbbbd
bcbf bbf
eeef ebe
ecec ebd
dec beebb
bbdd bbf
ebc fbbbb
da ef
fc ecbe
ebc bbecc
bcc befc
edc bebf
bbc ebbcc
ecec dbd
decc eecc
dbbc dbf
ffc ef
ecbf dd
bec eebbc
bf fbbee
bebe fdc
ebb debec
edbc ff
dbb bdbec
bbcc becc
ecec bbf
a bdcc
ebb bebbbf
fbf bdc
fbc bedc
bbbbbbbb bbbbbbbc
dec bccc
bbbc eeee
ebf beed
edc eced
debd ccc
da ff
bbc ecdc
eedc dee
bbcc ebec
fc bddc
bbbc bedc
bf ecbcc
fec bbbd
bf bbebbc
ed bbfcc
dbb bdfc
ebb fbebc
eebc dbf
fbd bbee
beef ebe
bebc bedd
ecc bbebc
bebbbb ebe
ebc debf
df dbec
da bec
fbf bebe
bbfc ebe
eeec fbc
bbc dbfc
dcbc dbe
bbbe fed
bfc ea
fbe bba
bbebb debb
eedc bdc
ec eebccc
ecc bebbc
eebe ded
debc dbc
becc eebd
bbc bbecc
edbc bdc
ecbe bbbbc
bebc ea
edbc dbd
bbc bcfc
fbd bbbd
fbbc df
a dbbd
dc bedbc
ecbe ea
eebc beee
bbbcc bec
dbcc bec
bebbd bbbb
bcf bbdc
bbd bbbdc
ecc eef
eebecc cc
bbd e</w>
ebd bded
bdbe bbbf
ebb bebbebe
bcc febc
ebec ebcc
bbec bbbf
eeec edc
debd dee
eebe ebbebb
eec bebbbb
bfbc dee
bbec dbf
ef fecc
bdbc ded
dbc bbef
bba dbe
beec efc
bdec bbbb
eebc fbd
eccc fcc
bfc dbbc
ef ecdd
ef fccc
eccc dbd
bebe bbebc
debb bcbc
deec bcc
febb bbee
bbec def
ebb dbbbd
fbf dee
fbc eebd
bc dbbebd
fec debc
dfc bdc
ddc fbd
ebbbc ff
bbbec dee
df bcebb
da ecc
bd dbbbf
bfbc bbbc
deec ff
ebd bfcc
bdbc bbee
be dbac
dfc ecc
bcbe bbef
ebec ea
ebbc beed
dbb bfbbbb
beee fcc
ebcc bcbc
eeee dcc
ebc ebbebb
bec bebec
bcc bded
bbbe eebf
ded bebd
fbf fbc
edbd ecc
dbc bebf
ded eecc
ecbc bbcc
eec eeebb
edc bcdc
be bbd</w>
fef bbf
eeef ff
dbb bfebb
beee bbbbc
decc fc
beec fed
ecbc becc
ffc dbe
bbbe ebbbbbb
bbbcc bbbcc
f dbac
be bbe</w>
bdc eedd
ebc ecbbc
ebcc ddc
bbbf bbbbc
bcbf dbe
ebbc fbe
bfc bcbd
bdf bbebb
bdc dbbbb
bebe ecebc
ffc dee
edbd ccc
dc ecccc
beec debc
df fa
dbc dbbbb
eccc fbc
efcc ccc
fbbbb bbf
bf dba
bebc debe
ef bbebf
ecec bbbe
ef bdee
dcc debb
ebcc bbcc
dcec dbe
dbbbc bbbb
fecc ccc
bebc febb
ecec edc
ed bebbcc
dbc b</w>
efc beed
beebb eec
ea bda
bcbcbcbcbcbcbcbc bcbcbcbcbcbcbcbc
ecec bbd
a dbcc
bdf bbed
ebb dddc
bcc ecdc
bbbd ebec
fbbc bbf
bf ecbbbb
becc fcc
bbebe bef
bdcc fc
ebc bebbbe
fed edc
bbec bbdc
eebe ebeebe
bbbec dbe
bbebc bbbc
bbcc ba
fed ba
ecbc fec
ebfc fc
eebbc bbc
bdc bbef
cccccccc ccccc
dd bcbbc
bd bbbebbbb
fbbef cc
fed fbc
dc ebbbf
a ecbe
dbf fec
dc ebbbd
dfc bbbb
fbbc bec
bcc bba
bced dbc
ebec fcc
eeebb fee
be bbbac
ecc fa
ebdc bbf
bcec bebe
beec eebc
ac bbbc
fed fec
ff bcf
ebbc dbbc
bbebc eec
bbcc bbebb
dc ebbee
bbd bcebe
bced fc
debb ba
fed bebe
bbec ebcc
bdee fbc
def ebf
ebe ecdd
bbbe bcbbc
bf bbba
bdee edc
eebf ebf
ebbc bccc
fbe dbec
ebbc bbdc
a bcdc
bbbd debe
beebb dbe
bdf ebcc
debb eebc
ecdc dee
bded df
bfc dfc
ded fcc
def bbbc
bec ecbe
bc ecbccc
dbd ea
bbf bcef
ecee bebc
edcc dd
bbbb bcebe
bbed dcc
ecdebb cc
bbc bdbc
debc bebc
ecba cc
bbcc eebc
eccc ddc
bcbbbb bbbd
ecf dbbc
eeebe bbf
ecc dbdc
bcec fbc
eebbbb bbbe
eedc ebe
bbcc eecc
def ddc
eeed dee
bdbd dbc
ef bca
bebe beef
bbee ecbc
bbee bbdc
efc ea
bdbe ea
efc deec
bdec ebc
ebbc ecbc
bec bbecc
bccc bbbc
fc dcdc
bcc bcef
dbf fee
bbdd bbbc
bcbd dec
ecec bcbc
bbcc fbd
ebbbc bbbd
ef eddc
ddbd dbd
ecc fedc
beed becc
df ecbe
ebf cccc
fdc bbf
ef d</w>
bebe ecbc
fed bef
bebe fbf
eebe eba
bbef bef
ebd eef
edbd ebc
eebe ebdc
dc eebbd
bbee bebbc
eedc fbc
ebf bcebb
bba bbd
eeec ebe
ed beded
eebf fee
eedd ccc
ecee bbec
ebbcc ccc
ed febbc
eeec ba
eeec ea
eebebd cc
ebbc ea
bbc bddd
ded dbec
dc eca
eecc bbbc
ebec fbd
def bbbe
ebb ecdee
bdbe bbbbc
bbc bdebb
a dea
ebd dbbbe
dccc dcc
ecbecc cc
dd fbcc
fec fbd
ebd fecc
eebf bbf
ebb bbea
da dbc
bbbd eebc
bbbb bdcc
dbbd bdc
bba bbf
bf ebbef
ed fcdc
fc bebcc
ee ecbccc
dd fbbbb
ffc bcc
a ecbd
ded debe
edc beebb
fec ebcc
deec ebc
ebe fbbf
bf defc
dee bbbbc
eecc bbbe
dbb bfbbc
bbef bbbc
bec bbeec
bbc eeebc
bbee bcec
dcc ebcc
bbdd ddc
ebb fdec
bbbd beebb
dd bbbcc
a ecbf
dc bfbc
dbbbb bebe
eec bbbcc
ded beed
bbebe ebf
dc ecbcc
bcbbebb cc
ecc befc
eced dee
eecc dbd
eec febe
dcc ba
beee fbe
dbbd bbbc
dbb bfbc
bdc eccc
ebbc bebf
bbdd bcc
dced dee
bbbec ebc
bbc bea
bebc beebb
ecc bfcc
eebf bbbb
debb bef
bfc bbbbc
ed ebeebe
fcc eebd
ebf debe
dbbd ff
bbbe bbeec
fbc fbe
bbebb eeee
eeed dbe
ef fdbe
ebf bced
bf ebbbbc
bbc c</w>
eec bebcc
bbebc bbf
dc eeebd
edc fef
a deec
bccc dbd
eebc fee
ed eebbee
edbd dbe
bbc bebbbe
bebc bcec
dbc febb
bbbb bebbbc
edc bbebe
dec eedc
dbbbb bdc
bccc bbf
df ecbf
ed dbbdd
def bbd
ebc bedf
ef ecef
fcc bedc
ebe fdf
bebbc bbbc
ed fbebc
bec ecebb
eebc beec
dc acc
ebdc dcc
bc fedcc
ee deba
bbebb bbed
bcdc fc
bbbb bdbbc
bec fa
ebcc beee
bdbc bef
dbbc dec
bf eceec
beed bbbe
df bbebe
bbebc ebe
dd bbebd
bbf bcbe
bbbbc bef
becc dbd
eeebb ff
beed bbd
ef ebbebb
bcc dedc
eeec ebbc
bdee ba
bbbb beebc
eebf eeee
ac bbd
d ebf</w>
f bbe</w>
ebb fdcc
fee fcc
bcec bfc
deec eecc
ebbbc dbd
ed dcccc
ef dcdc
bf fedc
dd eded
fbd ddc
bbebc a
bdbd bbbe
dbcc df
debc bebe
bf eebbd
ea bbbf
bbcc beec
ecbe bbdc
bbebc ebc
ecbd fbc
bdbe debe
ebbbbbb bbbc
bdee bfc
ff bcbf
dddd ddc
edbd a
ebe bac
eebc eebd
ebec efc
ed eeff
dbbc bbee
fbd debb
bcf bbfc
ecee bebe
bbbec bbbc
bd bbebcc
dfc dcc
dd bebbbb
ac ded
ebdc bbbe
eecc efc
eecc bebc
ed fefc
fdc fee
bcbd ebd
bdbc fbc
ecec ff
febe bbbb
bcebb bbbe
fbd dbf
edc ecdd
dbe ecbd
bbbd fec
bbef bdc
ef feec
ebc bdebb
bec bebcc
bedebc cc
ebdc bbd
ebbebb bbbe
beed bbf
ecef ccc
ebc fedc
ebbee bbbc
dbbd eec
dbb dcbc
dbc bced
bbbcc bbbe
dcc eeee
ecee ebbc
bebd bcbc
fc bbeec
debe bebc
eddc ecc
bef dbec
fdc bfc
fa df
bbee beef
be bbc</w>
dbb dcbf
ebf bcbf
fcc beec
dbd bbbf
dbf ea
dbbd bcc
bbee bcbd
ef beff
dbb eca
ebec ebec
bbef dee
dbe bcbf
bbebe df
ebb debcc
ebe bca
fcc ebcc
debc bdc
ddc bebc
bec eced
fc bdec
ed bbefc
debc edc
ebc eefc
ebf da
eeee bba
bbebe beebb
bf eedf
ef efcc
eeee fef
bedc bebc
ecf beee
bbf bdbd
bbebb beec
dbbbb dbc
fec ea
ebe bbbdc
debe eec
bcdc eec
bebbbb bcc
bbef fee
ebb bbbbbbbbbbbb
dec bedd
fdd bbc
bcbd bbbd
fdc eecc
eedd df
ebbc def
edcc ebd
bced bcc
bebf ebf
bc deba
fbc fbf
ecc bbbec
bbebc fc
ebc eeebe
eebd ded
bcbc bbed
fee ded
bc de</w>
febc ccc
bddc dd
bbbb bcbbd
becc bbee
dbbbb bbee
ecdd ccc
dbe deec
fa ff
dcc ebec
efc ecbc
bbebc ef
bbd ecdc
bbebc bebc
ebbbbbb bbc
dbf bbcc
dced df
bfcc fc
bced a
eebf beee
dbdc dd
ecc dcdc
dbe bcf
ebbbbbb bbebb
bdee bef
eecc bfc
bcbe dbec
dcc bebd
beef bbbb
dddd dbd
bbf bedc
eeec bbec
ecbd dbd
bebbbb bec
bbd ebbebb
ecee ba
eebbc bbbb
ecf bbed
dbbc ded
bdbe efc
ecec bbbc
ff dbec
febe fee
ebf debc
ecee bfc
ff eebc
dc dba
dfc ded
eeec bbbd
bdc fef
da bcc
dbc eedc
bebe bbbec
bbebe bbcc
decc a
ac ebd
df bedd
f bbbac
bdec ded
dbbbb ccc
beebb bef
dcc fdd
bdbc bbec
dee bcdc
bec eebe
fee fec
ef edbf
ef beecc
ebc edbf
da bbbe
bcebb bbbc
bcbc fcc
eccc bbf
ebe bcbbd
eced bcc
bf fdcc
ff beef
efc beee
ed bbbbbbc
ebb ebdcc
bfc ecbc
febe bbbe
bebec bbbb
dec bbbf
fc bbebd
ecc beebe
bccc fcc
bedc fec
dd bdebb
ebb ecccc
dcec eec
bdc bbebe
ef bceec
becc bbec
beebb bbd
fbe bdbd
bcbe dfc
dbb bddf
eecc ebcc
ecec ecec
ebb bedec
bbed beee
fdc fed
fbe bbbec
ebec bbebb
fc ebbcc
df ecdc
ebb bebbcc
bd bbbccc
dd fbbd
ac fbc
bbdc fbc
dbcc bcc
bbc bddc
a eda
dee debc
edbc bbbc
bebbbb bbd
dbe eeebb
ccc bbec
ebbc fbf
dbf bbec
bbbb bcbbbc
bdc bcee
beef bbbe
df bcef
ebf fbbc
dbd eebd
def edc
eebbebb cc
ecbc ddc
debb bebd
bbbb ecbe
ebec bebd
ecbc beee
ecec ebe
debd eec
debb bbcc
dee fdc
bebe beed
bbc ebbebb
dd eebbc
bbdc bebc
bccc ded
bdbbbb bbbd
f bbd</w>
dbd fed
fbd eebc
fbd becc
beec ddc
ea eba
ff bbbbc
fdd dec
bcf debc
bbc bebcc
febe fc
fbe ebdc
ebbc bbef
bdc b</w>
bd fbecc
dbc ac
beec dfc
dbe ecbe
debb fec
edbc dcc
bba df
fbf ecc
bec eef
ebd eced
ecbf a
bcbe bbfc
bbf dbec
ecdc dec
dcbd df
fbc bbebb
bbc edcc
bbd ebbcc
ebc bcbec
bcdebb cc
bbbb dbbf
ebec beee
bba bcc
bbf eeebb
ebc eebbbb
bedd edc
eebf bbee
eebc ddc
bf beebf
eebf ecc
bded bec
ff beebb
bcbf bcc
dbc eeed
ebb dbecc
fed bbbe
becc bebd
decc dd
bbc bcbec
fc c</w>
eebe bbebc
decc dec
dbc beebb
ecbc bbbd
fbc debe
bbf beebe
fbf bbee
becc cccc
ec dbbbec
febe bbee
ed bebbec
debc bbbe
bbdc bbee
fc fbbbb
fee eeebe
ecee ebf
bbbec bcc
ecdc df
be bbbb</w>
bbc bebbd
dbd ebec
dbd eecc
bbd eebbbb
ef bcdf
eac ea
dc fdcc
bbed bebd
fbd fcc
bcee bebd
dbd beed
bbdc ebf
bbbbbbbb bebbbb
ebe ebbee
bef eecc
ef bac
bbd eba
beee dbbc
bebf dbe
bbc feec
ebbc bcec
bbebb dec
bcdc bec
dbb ecbbd
ef bebbd
ebb dbbbbc
fc fccc
bbc bbccc
dbbd ebd
becc dcc
bbc bcebc
bbebe bbec
dd eeef
dee bbef
bcdc dbe
eec fedc
ebb fba
fec da
bef debc
bebe ac
bbbc b</w>
beee beec
bcbc debb
bbbec df
beef ccc
ef bdf
ecec fbc
bebe bcbe
dbbc dbbc
bedc bdc
bbf fa
bf fbfc
ebe fbbd
bdee ebbc
beebe ccc
bf fdbd
dd ecebb
fbd fed
eedd eec
ebdc ded
bec bbebd
bfc eebd
debc eebc
bbc bcbcc
def bef
a eedc
ba bebd
bcebb ccc
eccc bbbb
bbdc ded
bbbe dbec
ef febd
bbc fbcc
ef febf
fc ecebb
bccc cccccc
bec febe
bdbc fee
ebe beebf
ebdc ebf
bfbc dbc
ebc beecc
bbbc bbfc
edc eddc
bcbc bebd
ac fee
bbd bcbbd
fdc dcc
ef bbccc
febb beee
fef beee
ebe debbc
beef fee
bbd fdf
bdee bbbd
bf beccc
bec bea
fc efcc
dec dbbc
dbd eeee
bbebc bcc
beec bbed
bbebb eebc
bd bbac
edc bdcc
eec edbd
efc bcbd
debb fee
ef bebbf
fed ebd
ebcc fbd
bebe eebe
bbbb bded
ebf bebbc
ff bcdc
bbbc bcbe
bfc bbdc
ebc eeef
ebc fbbd
ecc febd
bbdd ded
beec dbf
fbc bcec
ecf ebdc
bbbb bdbf
ec dd</w>
eec eebbc
bbd feec
bebbebe cc
fec decc
bf eeff
eeec bbee
bebe bedc
ed beba
dbe b</w>
bef debe
ebbee bdc
bebe bebbbe
da bdc
fbc febb
bebc bbebe
bbef ebf
bebbef cc
bec bcef
dee eccc
bebf bdc
eefbd cc
bbbf fbd
bc eacc
bbebb dbbbb
beef bbf
ea bbcc
bbbd bbebe
bcf dbec
bec fecc
fec eebc
bf dded
dec eccc
dbd debc
bdf dfc
bef cccc
ba fbf
beebb fee
eeec bbcc
bfbd df
fbbc ff
bcee ebcc
fbe dbbbb
eeebb ccc
ebe dbbbc
bebc debc
fbc ecbc
fc eefc
ebec ddc
fcc ddc
dbb ebbdc
dee febb
ea ebbc
eec feec
ea bcbc
bced ded
bcbd ecc
bcf bbbec
bcc debd
bdee bbcc
bcc beebe
dbc fdd
fbc bccc
ecf def
eeebb bef
ed fded
df bbfc
bbc bfbf
dbe bbbec
dee bcebb
ac dcc
bbef beee
bbec eecc
fed dbf
beebb ebd
fc eebe
bbf bbdd
bcf ebdc
bebc bbdc
dd fdbe
eec beecc
dbd bbbbc
ef ddcc
fee bccc
be bbbbbbbbbbbbbbbb
bcbecc cc
dbe bbfc
becc bcbc
df dbcc
dee bbebe
fed ebe
bec edcc
bdbe bbdc
bbbe fdc
efc bccc
df bebbc
ef bebbee
bbd bdbbc
fc bcebe
eec dbbbe
ebcc beec
ebb bbdbd
dec bbdc
dec eebd
efc eedc
da eca
bbbf edc
ef bcbbd
bbc eefc
fc bcebc
edbc bebe
bfbc bfc
dd ecee
fbc cccc
ebb bebbed
bbbc eeec
dbc deec
eccc bfc
bcec deec
def ba
ecf bbdc
debb beee
bdee bcbc
dbbc bebc
ecdd edc
eecc cccc
bec ecbf
bbd bbecc
ebe bceec
dee bedc
dbf ddc
ebbcc fee
bc bbbbbbbbbbbbbbbb
dc ebbbc
ebd bebbd
bbed becc
dc dbecc
efc bbebd
fc eeebc
ded cccc
bd dcccc
a eeef
ff fa
bbebb edc
ecbc cccc
ebcc becc
ba beebb
dbf ebbc
bba bbbd
ebbebb ebbebb
dbc ecbd
beed bfc
ec ecbccc
bf eebebe
bbc bbbdc
ecc eebbc
dd bebec
dec fdc
fcc ea
febb bef
bdee ddc
bbf fbbbb
dbc dbec
bcbd bebc
fcc fdd
bbed fec
ebe fbbbe
fbd bbec
bbbbc bfc
eecc ebf
bf fdbb
ec dbbebc
ef dcbd
debb dcc
bced ebc
beef bbee
ebd bdbf
bbebe bcbc
dc eeedc
bbcc bebd
decc ebc
ed fea
beee bebd
bbbd bbeec
eebe ebbebe
bbbe bbebd
a bbbcc
ef eebbbb
ebe bbccc
dbb bfdd
dee bbebc
ded eebc
ebe fecc
bdbc bfc
dbc bedd
ded bedc
eedc dcc
dfc dbd
ff bdcc
ebbc bedc
bdbd ccc
ef bfed
dbe beebe
bf bedbc
bcfc df
ebbc debc
fc e</w>
bbc eeebe
fdc dbd
bcee dbec
bbbd becc
fec bccc
dbbd bebe
dd beebc
beee ddc
dbb dddc
bcee ea
fc bebec
fee beec
dfc ebd
dbb eceec
ed fba
bbbbc ebf
bdc dbcc
bebf ecc
dd bdec
bdbc dcc
edbd bbbb
febe bcc
eec efcc
bbec debc
bcec debb
dbe bebbbb
bfbc bebc
edbd bec
ed bbbbebb
a bded
ecf bbebb
bfbc fbc
bbed fee
a bcbbc
ed bbbbbd
bbbe fef
bbbbbbbb dbbbb
dee da
dbb ecdbe
ebbbbc bbbb
beed bebe
ff bced
ebc eba
fbbc bcc
ded debc
def fcc
beee eeef
bebf bebc
ba fbe
ecbe debe
bbbc bcbf
ebbc febb
ebb fbbcc
eec bea
ecbc efc
beebb bbcc
bef eebd
bedd ccc
ec fbdcc
ecbc debb
ebb bbefc
ebf eeef
bbc dbbbc
ded ebec
beec fbd
eeee febe
eeee eebeee
ebe e</w>
beee becc
ebb dea
ef bdbbc
ebe bdbbc
bbf ecbd
ecbe dbec
bbbb eebbc
ed be</w>
bbc eebbbb
bbef ba
bdbd fc
eec b</w>
dd bcebe
ecc bddd
fed becc
eebf bebe
ef bda
bbcc ddc
ebe ebbef
ecc dbbd
efc dbbc
edbd dbc
bcec fec
eef eba
eeee bbbd
bbdc bfc
dbb edebe
bcfbd cc
edc dccc
eef debc
bcbd bef
da dbd
fbe bbdd
bcbe dbbbb
bcec bbee
bbec ddc
fed bbbc
ef ebbbf
fbe ecbd
ac ebf
ecc edbf
edcc bec
dee deec
ebd dbbf
bedd dec
ebb fbbec
ebc fdf
ebdc bebe
bbec debe
dc dcccc
eac ba
bbbec bbf
fdd dbe
ec dbba
ebb fbbebb
bdf debe
dee bebbc
bcc bcdd
dd feec
ebcc fdc
dced bbc
bbebc bebe
ecbc fee
bcbc eebc
def dbf
def bebc
fa fc
efc ebec
ebd bbbcc
beed bbbc
bdbc edc
ff fbbc
ecc fbcc
bbbf fec
ecc ecebb
fcc bbee
ebb bbbecc
bcc ebfc
bbbf dbf
ff febe
bfcc eec
eedd bec
ed fddc
fbd ea
bf ecbbd
ecc bcef
ac dbd
ac bef
eebd dcc
bbc bedbe
ac bebc
bcbd ebf
debd a
bbef dbc
ef fbef
bdbe dbbc
bcbd bcbc
ff bbfc
ebe fdbe
bbbec a
ebe bcbcc
eeec bef
ebd ecbf
beebb df
bcec ebf
cccccccc cccccc
bbbd ea
bbeec df
ecbd dcc
bbbb dbcc
ecc beef
bcee ecbc
dd dbbbc
dcbc dec
bbbbebb bbbbbbbb
dc fdbd
eec bedbe
bcbd bbee
ecee ded
dfc bef
bcbbc bbbc
febe bbf
ed fbbbd
ecdc bec
bbcc ebcc
ecf debc
bbebe eeee
bcdc debe
fbc bbbbc
becc beec
eeebb bbbc
ecbebd cc
bba bec
bebbbe bbee
bdee ebf
ebb bedcc
bbc fbbd
ebd ebfc
bedc dbc
ec dc</w>
a fbbbb
ecec bebc
bbfc ebc
beee bccc
bbd eeebc
bbbb bbccc
ebe edbf
ed fbeee
dc dbbcc
ac bfc
edc efcc
bbcc bbbf
ef debf
ebbc eeec
efc eebd
ecec bfc
ebe eebbf
dbe dbbd
fcc bebd
dbc eebe
ec deac
ebe beff
dec da
bbd eefc
ebcc fee
ebd beebc
eebc ebec
ebbbc bebc
bbbb dbbbc
eebc fed
bbbbc dbbbb
bbeec bbc
ecbe ebdc
eeed bdc
dbb ebbef
dec dedc
ef bcbcc
ebb ffcc
bcec edc
ef dbbbc
bd dedcc
ebbee df
bbbb bcdd
bbdc fec
ebc eeebc
eebc bbebb
ebc ebecc
dee fbf
bcbc becc
bebbc bbf
bcbbbf cc
ebcc eebd
fbc ffc
ecee bbbd
eeef bbee
eec bddc
bcc dccc
bbbe beef
ebd fbec
beebb bbbd
ec eecccc
eec ebbcc
a dda
ebe ecf
ebd dccc
bcc bfcc
bcee fee
ef fbbbe
eba bba
dc fdec
ef bbbdc
bbed bbcc
bbfc dd
bdcc dd
bcec fee
bdc da
bcc bdbf
bec feec
ecbd ded
deec fc
eeee cccc
ebbc fdc
ff dbcc
ba b</w>
dc beebf
dbf efc
bccc bbbe
fbc bebf
ed bbdbd
eecc becc
bbbb bcbbbe
bebbc fc
fbd beec
bcc fbec
dbe ebdc
fed dfc
bbdc dcc
dbe fef
fbd bcbc
dbe eeec
ecbd bbf
eec ebfc
bdbe ebec
f bbc</w>
def bcbc
febc a
dbc bbebe
dbd bddd
ebe bcbbbe
dbb edbbbb
bcee ebec
ded decc
ccc beec
df eedc
ded dfc
eeee fbe
eec bebec
bd dbbebe
bebd bbebb
ecbe bbbec
bfbc ebd
bebe eecc
bcbd fbc
ef beba
bbee dbec
bbbe febe
bbd bebcc
bbec fbe
ded da
befc fc
ff beed
ed dbdcc
dbc dbbd
beebb dd
bccc bbcc
febb fbc
bbd eebec
ebbc bebbc
ebb bbfcc
bbbb bcef
efc dbec
bdc eeebb
deec ebd
ebe beebd
bebd dcc
bdbe bbebe
dcbc bbf
a eeebe
bea dd
a eeed
bbc beeec
ebbee ba
efc decc
bbd bedbe
dc efbf
bbbc eeebb
dbb edebc
bef bced
beef bebe
bef bcbf
bdf dbbc
dc debcc
ccc beee
fdd dee
bcbebd cc
a ecec
defc df
ebf bdcc
bdbc beee
bfed df
bebf beee
ffc dec
febb ebd
bedd fc
ebbc bbdd
fdd fec
bbd fbcc
dc deccc
bec bdbf
fcc bbec
ff debe
eeee dee
deec bebc
dbf fdc
bcbd ded
bdc eebf
bbbb eef
ebdc fec
bac da
ba beec
bcf bbebe
eebc ea
dca bdbf
beebe ebf
bbc fdf
dcc ecdc
ef dded
edbd dbd
feec df
ec bbb</w>
eebc bbed
bebf fee
ebc eebec
ecbd bebe
eebe bbbec
ef eefc
ebe bdbec
bbc ecbbc
eec ecdd
beebe bef
becc bedc
fbd bebd
bbc bedf
dcc ecbc
eced dbc
ecc bcfc
ebe c</w>
bbbb bbba
eced dbe
bdec dbd
bbbc bced
edbc ded
ebe bebdc
bbf eccc
bbfc eec
ccc eccc
bbbb bbebbc
ebb bebbbbc
def bbee
bcdc dec
bbbbbbbb bcbbbb
ebbbc bdc
bbbe da
ff bedc
dedc bec
ed bbea
bbbb ffc
bbec eedc
bbbe ebdc
bdbd bebe
dbb bfef
bbdd bebe
dcc eeec
fbc debc
ebc ecf
fc edbd
dc ffcc
fbd eecc
fed efc
ebec dbf
a bebbbb
fc bfdc
bbfc bbbc
dc fdbb
bbbb eccc
beec bbebb
fbe dbcc
bcbc efc
bfbc bebe
fbbebe cc
dbb edef
debe dbd
bded ccc
ebbbc bbebb
fee becc
dcc bedc
bcbbc bcc
bf bbbbcc
bbcc bbed
bbdd dbbbb
deec ecc
ebd d</w>
bbbf fcc
ecdc dbc
ed eebebe
dcc bbed
bcbc ddc
bcec def
bdbd bbbc
debe ebf
ef bcecc
dee bdcc
bbbe bcf
dbd dddd
ecdc dbe
fed fee
ebd dddd
dec ea
beec beed
eec eddc
bebc ddc
bebf dbc
bbebe ba
bbbbbbbb bbf
bf beedc
eec eef
bedd ebc
fdd edc
ebbee bbd
eec dcdc
bdec ff
bcc dbbd
ebbbc ecc
ebec bcbd
dee dfc
bcc eddc
bbebd df
a d</w>
ebd bcbbc
ed eb</w>
bdbd bbf
dbd d</w>
fc dbfc
bef ebdc
becc eedc
bedd bbc
eebf bbbe
fdc ebf
bbbb ebbcc
bebbc ebc
eebd bfc
bebf bfc
bbebb febb
ecbf edc
bef bbebc
bbebb eeebb
eeec ddc
bec bedbe
dbb bd</w>
bcee fbd
ebbbc bbec
ff eecc
ecbbbd cc
fed beec
ecc fbec
dc bedbb
bbbb fdd
ebd bdbc
debe bbbd
ebb bbebcc
ecebb bbc
bbee ac
bbbe b</w>
ef eebbee
bbbc ac
eec eebe
def bbec
dd edbf
dbbc bcbc
bbbf fbf
dbbc bbec
eced bec
dc ebbdc
bebbebc cc
deec bdc
bbd beebd
eeee bbcc
eedd ebc
df fdf
ee dbac
dbbc ebf
beebb ebbc
bbdd edc
a ecdc
fec beee
debb eecc
bf eedbe
fc bdebb
bef bcebb
bec bdebb
da ebc
eec dbbf
bdec ebd
bdec ecc
dcbc dbc
dcc beed
bef eeebe
dbbd ebc
be deac
df febe
fbc bcbd
fcc ffc
ebdc ebbc
da ea
ebbbbbb bbbbc
a e</w>
bbbb eeebe
bbd bdbbd
ebec bbed
ecee ac
dbb ecbcc
fcc dfc
bded dbe
bbf cccc
fa bba
bf dbecc
ebe febd
bbcc eebd
bd bebccc
bdec bdc
bbbf debb
bcf bbebc
eef dbec
bec bebbd
dbd ecbc
bbbbbbbb bbbbbbbe
ef bdfc
ebf ecbd
edbc bfc
bc bbeba
bbdd dec
ed fbbcc
dc eebbf
bcbc bcec
bebe bced
bbbb eeed
ecc eefc
bebd efc
bbc eba
bbcc fed
ebdc bfc
ddc dbf
bebf bbd
bcc bebbbb
dcc ea
debe bfc
dd ebbcc
bbc bdef
fec deec
ef bdebc
ed db</w>
dbbc bfc
dbcc ebc
ebcc fed
bdec bbd
bbed dbf
ccc eecc
edc ebfc
edbc bbee
ebe dced
bebc bccc
dbbc bef
bedc eecc
bf bbbbbbc
dbe fbbc
ed dbbbbc
fbc eedc
bba bea
bcee def
fee fbd
fec dbec
bbbe bdcc
bbf bbbcc
ebd bcfc
beee eebe
fec eedc
bbbec fc
dd bea
bec bcdd
dbc eccc
beec ebcc
bbef bbebb
dcbd dee
bdc debd
ecec bbec
bebc bebf
ecc bbbcc
becc bef
ebe bedbe
eebbbf cc
bbdc bef
a fdf
eec fbec
beed debb
ebec eebc
bbbb bbecc
fdd ebc
ff eebf
bbbb debd
ecbf bbc
bbbbc ba
ea fbe
bcc bbccc
ed bedbf
fee cccc
ebbbbbb bbbd
ef dbfc
dbb eac
ecdd ebc
ff ebdc
ed bbebec
ea def
bbdd bdbd
df dbbbb
bba fc
bdc bcdc
bcbe bbeec
dbf debb
bdc ecbd
bcf da
bec fedc
bec fbbbb
bec ecbbc
eec bdbf
dbc bcdc
ddc debb
dee fbbc
bbebc dbe
bbbec bbee
bf eeecc
eebd bbbd
dc bebbbc
bebc eedc
eebd ebf
bd bbeecc
febb ecc
efc bbed
bbf dbbd
bbef fbc
fef bef
ebbbd bbbe
bbbf bebd
bbd bcfc
ebb deecc
debc ebbc
edc eeebb
efc eccc
bbec deec
ebe bebbbc
bbf ebdc
debc eecc
eeec debb
ebd efcc
bbd eeebe
dd bbeec
ded ebcc
debe bcbc
dddd ccc
dbc eebf
bfec dec
bec efcc
bebd eecc
ecc eded
bbebb ebbebb
bbef bfc
ebbbd dbe
a bcef
becc bbcc
abd ac
beebe fee
bf eebeee
dd febd
bbdc fee
dfc fbc
becc bbbd
fdc bebe
a dbbf
ecc eeef
dbc ebdc
bdee fcc
ed bc</w>
df edbd
fbd bbcc
bbbbebb bbbe
ef bdebe
ebf bbfc
bcc bcbbbb
dbd dbec
ecee beee
dd debf
bbbbbd bbbd
ef bbedc
bcbf bbbe
bcc bddc
cccccccccccccccc cccccccccccccccc
bbbb ebfc
ecbc bbed
bbbb ebbbbc
ff bcee
bdec ebe
ebec fed
edc fbbc
dbb ebbdd
ccc ba
eec bebbd
ecbf ebc
bdbc fec
dc eebdc
bbec bcbd
eeebb eeebb
dee bdbd
fc debf
bcec ebbc
fc bfed
ecf dbec
dd eeebe
bcbc dbf
ebbee dbc
ded bcbd
eba bbc
fef dbe
df bbebc
beed ebd
ecee dbbc
eeed dec
a fba
bccc fbc
f deac
eac dbf
bbee dbbbb
df b</w>
bebd fee
bcbe da
dd eefc
ef bedf
bef bedc
deec dbd
ef beebf
ecbc fbd
bebc dbbc
beec ea
debc bbbc
bedd dbe
bebbc bebe
ec eacc
bbecc ccc
bbec dbec
bebf fbc
bfc ac
edbd ebd
bbc febd
becc ebec
fcc dbf
bf fdec
ebbc eedc
bebbc dbe
ebbee ebc
eeef bebe
ba efc
beee febb
bbbb bb</w>
debb bbbbc
eef debe
dc dea
ff beebe
bec bcebc
edee dbd
dc bebbee
eebc bedc
ef eebeee
fdc bebc
beee bbed
beebb ecc
bcebb fc
beec ebec
ebe bcebd
edc fa
bcf bba
bbef eec
bbbb bea
bbc bcbbd
debd fc
bdec bbf
ded fbd
df eebf
bbc bdbbc
ded dbbc
eebc ebdc
bebf ebd
ebbc dfc
bef eeebb
bcbd fee
dced ccc
dd bb</w>
dbc dbcc
ecebb ccc
bbd beeec
dee bcbf
bef eccc
bcbbbb bbebb
a febc
dc fbef
bbd ecbbc
ecdc bcc
fbe bfcc
bbdc bbec
dee debe
beec fcc
dee eebd
ecc bedf
bbbbc bbed
df ecec
ff ecbd
bbbd bebbbb
df eeec
a bedd
dbc fef
be ef</w>
bdf da
bdbbc dbf
ebec eecc
eba ba
bdbd bcc
bbbb fbbbe
ef beebd
ecbe dfc
edec bdc
bbee beed
ebec bbbf
ebcc eedc
eec fbcc
bbebe ebd
bcec becc
eced dec
fed debb
bbbe dbbd
bccc ddc
ef eeff
fbbbb bbbc
fbc beed
dc fbbbc
bbd fecc
eeebb bcc
dc bedec
bbdc ebbc
bd ee</w>
ea bbed
bec bcebe
dd bcfc
dcee ddc
fcc bbcc
bfc eeec
ebbbc bef
ec deba
edc eebe
fec bcbd
eebf bcc
ecee becc
fcc eccc
bec dbbbe
bebf eec
bbbb bcbec
dbd fdc
bf ebeebe
ebbc bbebc
bec fbcc
fdd ecc
ec dbbbcc
bfec ff
ef ecbec
ebf ebdc
bbebe fee
bcebb ebc
bbc dccc
edc bbef
def ded
bdc dbbd
dbb efbf
bcebb eec
bbbb fbec
bdc eebe
bdee bbebb
d ba</w>
bbbb fa
bcbe deec
dc fbfc
ebe bedf
ac bebe
beef bef
bec dbbf
fef bbee
a edcc
bebd dbf
fbf fbf
fc dbbbe
bbbd fbe
dec ebdc
debe bbcc
dcdc dcc
fc bebbbb
ed bebecc
df deec
eef ebdc
debb bbed
bbbbc fbc
ebd fbcc
ebd bbeec
ebd ecebb
dee bcee
fdd dbc
bbec eebd
beec decc
dbcc ff
fc ecf
eecc bebe
bdc fbbc
ecbe debc
dec eeec
ea efc
dfc fee
bdc ecec
ecc dbbbb
bbbbbbbb bbbf
bdc bcbf
eced ebc
dee bebf
ebec bedc
bbc eebec
bec beebd
bebbc bcc
ba becc
ba fa
beec bedd
bbc bdbbbb
ebf bcf
bbee bbbec
eddd ccc
bc bbc</w>
df dbbd
bdc bdcc
dbec dbd
ecbd bbbe
bbf bdcc
debb dbf
bbec bbebe
fdd fbc
ebb fea
bbc fbbf
bbbc debc
fbe bdbf
edbd eec
bbfc bbbe
ecc bbeec
dbcc ebe
dd bdbbbb
eecc fdc
dc fbebe
bfc debe
bebc def
ebc eebcc
eeec fee
ebbc ebdc
beee fbf
fbbc bbbe
bbd bcebc
beee eebf
dd eba
ecc ebbcc
ebec bbbbc
eccc bbbe
ded bbebb
bcc bebec
ea beec
ddc def
eccc fec
ebbc eeee
edbc fcc
ecbe bbebc
ac bcbc
eeed eec
dc eedbc
dc ebdcc
bbbb bbbebbbb
bbd edbf
bbbd def
bebbc ebe
beebb bebc
bccc ebf
ebb fbbbf
febc fc
ecc bba
a fbec
bbd fdbe
dbb edec
bdee dbf
bbc eeef
bebbbe bebe
bbd bfbf
ecc bedbe
edee ddc
ecee bef
bd feecc
a bac
da bbf
eeebb bbebb
bcc bcbcc
bbd febd
dbe bedd
ef eddd
bebf edc
bdc dbdc
dbbd bebc
ebb dbbdd
bcbd edc
beed beec
ebcc debb
debc fec
bfc eedc
bbbb bbdbbbb
bec dccc
bec bcbbbb
ebd bcebe
dbc debd
bebd fbd
bdbe def
ebc dced
fef bebe
bdbd eec
dc debec
bbbb bfbbbb
dbbbe bbbe
ebe eefc
ebc bebbf
dec fbe
ecbc ba
bbcc dbf
eccc bccc
decc ff
dd ecf
dec beebc
beed edc
ebbbc ebbc
dcc eedd
ebfc bcc
bdbe ac
dee ecbd
ed fbbec
dc fcdc
debe ebbc
dec debd
eccc bebe
eebe edcc
fdf ccc
df bded
decc eebc
fc bcdf
bbc bca
ecc feec
ea debb
ebbbc fbc
bec bcbec
fed bcbc
dc bbdcc
dee bbdd
bcee bbbf
fc ecbbc
bbef dbd
bbbb bbebf
bcec fcc
f ebe</w>
ef fbdc
ef dcbf
ebf ffc
bbee debc
eebe bbdd
bbbec ebe
bbbe eeebe
dc bbbfc
dbb ecdee
bcebb bbf
ef acc
bcdc ff
ea fcc
ed bbebcc
bcc fecc
dbb dcebe
efc dedc
bebd bbcc
ecbf dbe
bebbbb dbe
fbd dfc
dbb bffc
ec debecc
bf ecdbe
ef ecfc
ebf fa
eeee ebd
bbebe bbbbc
bdbc bbcc
dd ecef
bbebe dbc
ecdc ebd
bbc fecc
fee febe
ebe fbbee
bbd eded
ea fbf
fc defc
ecec ddc
eebd fec
bbbb bebbf
dbd ebcc
bbebe bbbf
dee bbfc
beee bbdc
bbbb befc
efc da
ef fbebe
ebc fbdc
ebc bbbbbbbb
bdbc ddc
dcbbd fdd
ccc becc
bbbec eec
dbbc ecc
ea beebb
ebc fdbe
ed bd</w>
bf dddd
bcc bbeec
debb bbbf
bdbc ebbc
dcc bcbd
debe dec
ee bf</w>
bbef ecc
ba bcbd
bcc ecebb
dbb dcec
dbb dcef
bbed bcbc
eecc eccc
bfc fdc
ecec bebe
bcdc bbc
dbd fbe
bbbc fbbc
bf febbc
ecee ebcc
bbbb deec
bf ececc
beed ecc
dcc ffc
bf fba
fcc ebec
fed ebf
dc bedbd
dd bebbd
bcee dbbc
eecc fbd
fbf bebc
bfc fbbc
edec dbc
ebe fbebe
bbbb eba
ff debc
fef ebf
bbec ecbc
bba dbc
bbbe ecebb
dee dbcc
bec edbd
fbf eec
dbb dcbbc
bccc bebc
bcbf bbbc
bbbb bfbf
dcbc dbd
bd dbbef
bdee becc
ebbc dbbbb
df fbcc
ecebe bdbbbe
ebe ecef
bedc bbf
bbbb ecbf
eebc bbbf
dbe dbcc
ebc ecebc
ba def
bbbd bebf
eddc edbbc
bfbc fec
df bbbec
bbee bced
beebe ff
bfbc ecc
ebd debf
bebd debc
dfc ebf
bcc dbdc
da edc
dbec bbf
bfbc ebf
ebdc efc
dc ebbbbc
ebc bbbdc
eeee eef
ecdebc cc
fef bdc
ed eebeee
bbebb bebf
beec def
beed dcc
bcdc dcc
bef bebbc
ed beebcc
bbecc eec
ebbc bdbd
eedd dbc
bbc bebbf
bcbc bbbf
ef ebbebe
bebd beee
ebb bbbccc
becc fee
eebd bbee
ed dbbed
bbc debf
ebe ecbec
ebc bcbcc
bd dbba
dd bdbbc
bbf bcbbc
dced bcc
bec bebbbe
bbd bdec
dbe befc
edbd edc
bceecc cc
bdbf fc
fdc fcc
df debd
bcbc fbd
ed eebef
ed beefc
bedc bebe
eebf bef
debe ba
ebc bfbf
fed def
ef beeec
ebc eded
ddc bbec
bbebb bcebb
ebe eddd
eecc bbee
dedc dec
dbb ebbbbbe
bebd bbed
bec ebecc
beef fc
bedc fbc
ebc beebd
ebb bedebb
ebd febd
bdf bbdc
dbbbb bebc
bbbe eebbc
bec bcfc
bbfc bef
fbe bbbcc
ecbe bbebe
ebc dbbbc
bedd dee
bdf bbef
beec bbdc
ddc bbed
ebe bdbbbb
df bba
bfc bcec
ef bcebd
ecf bbbbc
bdc febc
edbc bbbd
bcc bddd
bcbc ebec
fbc bbdc
bbdd bbee
def bebe
beebb dbc
ded bced
edc beebe
dec fbf
ddc beee
bccc bebe
fec dbbc
bbbbc bcbbbb
ef ecbcc
edc bcbf
bbbc dbec
ebbc bbbec
fc bddd
ec dbbebd
bbd eeef
bebbc eec
ffc dbc
bcef ccc
becc fdc
ebe febf
bdec bebe
dcbc bdc
ddc eebc
bebbc bbee
dc bedcc
bf dfcc
edcc fbc
a bbeec
ebfc bec
ef bfbd
bcbbc bbbe
bcbbed cc
becc fbd
df decc
bcdc dbc
ddc dfc
ed eeebf
bbebb ebec
ba febb
dcbc ded
bbbb bddc
dec bebf
bd fbccc
bdc dedc
bbbbc beee
dc bbba
ebc bfdc
dbd dfc
ecec fcc
dc ebbef
fc ecdd
eedd fbc
bbbc bcee
ac beec
bcec beee
ebe bdef
ebdc ebec
bbf ecbf
ebe feec
bebbc a
fbbebc cc
ebbc bcebb
dbd fbf
f ebd</w>
ddc b</w>
bcdc ecc
ebd bebcc
bcbc def
ba bccc
dbb ebbebc
bbbc fdc
bbbd eebd
eedc fec
bba ccc
bbc edbf
bbf eef
dee bcf
bbcc bbdc
eebc dbbc
bb ba</w>
bcc fbcc
ecdd bccffc
ebe ecee
eebc eba
ebfc a
bcbe eccc
fee dbec
bbbf bbed
bfc bebf
ebbbc dec
eebf edc
df eced
ebcc bbed
fc beebd
bbd fbbf
ebb fcdc
edcc a
bbbe beebc
bf bbcbbc
eddc dd
bbf eebe
bdbc bebd
bcdebe cc
bcc efcc
dbb ebbec
ebe eac
edec dec
fbe deec
efc debe
bbec dbbc
beec beebb
bbbb ecbbbb
bbec bbebc
edcc dee
bcec bbed
fc eba
febb febb
ecbc bebd
bf dbbcc
fc bcbec
bdbd ff
be a</w>
bcef bebe
edbd fbc
ef efbf
beec deec
bba dee
eebd fcc
ee deac
dbb edbec
ebc bceec
eebc fdc
ebc bcecc
dbf fbf
dbbbb df
ebd fbbbb
ebdc bbbd
ebd bea
dbc bcbf
eebd fbd
bbcccc ccc
fee bebd
dd bcbbbb
ebd ecdd
ebc eedbe
dbdc eec
befc a
ebe beecc
edbc ebbc
ebbee bbbd
debd ded
bfbc bdc
bbc bdec
bbec ea
eebc eccc
ef ecee
ef eca
bcc bcebe
ebf bcee
ebd eeebe
dbcc dbe
bebe febe
bdcc bec
beed ba
bdbc debb
dcc dfc
dcec ff
ebdc bebc
dbd deec
eebbee bbee
bbd eddc
bfc ffc
fc ebecc
bbebb bbebc
ebe eefee
beee bcbd
eeee fbf
dc ecbbbb
ebe beeec
bfc bcbf
fc ecfc
edc bbbbc
bbf bdbf
bfec dbc
ed bebbebb
edc febe
bbec bccc
dee bded
bbbe bcdc
ecbbed cc
ea fec
dbbd bbee
ccc fbd
eebc bedd
dbb ecebd
eeec debc
ecbc dbf
dbb ebeebb
bbfc fbc
ebc ebccc
ebc ecbec
febb bdc
bcc fa
bbbe bebec
beee febe
bf bbbbebb
bbf ecbe
fee dbbc
ebe bfef
bec eba
edcc bbc
efc bbdc
ef fdbc
bbd bedf
ebbc bcee
dc bbebbc
ba bebf
ebcc bebd
ea fbd
fc bebbd
bbbd fbf
ebe eeebc
dbd bccc
ecc bdbf
dec bbbbc
edc dbdc
fdd bdc
ebc bbccc
df bdbf
bbbec bbebb
bebbee bbee
bebc dfc
bbd ebbbbbb
ebd bdebb
ebc bdef
fc eddc
fec dedc
dbe ffc
dbe febe
dbe eedc
eef bbdd
bbbf beebb
dcdc dd
bebe dbbbb
beebc bbc
ebb beea
dbf becc
befc bec
bebe bcee
beed efc
bcec ddc
bbbe bdebb
debd ff
ecbc ebec
bbebc dee
ebdc bbbc
ebbc bced
beec dbbc
da da
ebe fccc
bbd bb</w>
dbcc a
bbcc debb
ac edc
edcc dbc
dcc debe
eeed dbd
ebf bcbe
bbee fbbc
eebd debb
dbf def
bbbb fbbd
dbcc dbc
ccc bbbd
debd bbc
bedd ecc
bbd bcbec
bbec bebbc
ebe d</w>
bdbd ded
edcc bcc
bbed ebec
bbbb bebcc
bef eeef
fec beed
bbd bdbe
fc dced
dbe bded
bedc bbbe
df bfcc
bfcbbef bedd
bba ff
bf eebdc
bf bebfc
beebb ba
bc bbd</w>
dfc bbbc
ed fdbf
bbebb ded
eccc efc
bebc eedd
ac bbee
bcbf dee
ec dbbeec
bd dc</w>
bcc bcccc
eccc ebf
ebbbc beee
a c</w>
bcbc debe
bced ff
fef bec
bdf debc
dbcc ebd
bdcc ecc
bdbc ba
ebc bcbbd
dbb aa
fee bcbd
bfbc dec
bedd bdc
bbc ebecc
bfc bebbc
bbbbc debb
ddc ba
ebc ecfc
dbe ecbf
ecbc eebc
ebf dbbbb
ef fdee
beebe bcc
bf eeccc
eec febd
bdee beec
bedc eebc
bbbb d</w>
ebe bcecc
eec bbecc
bedd ff
dbb bfebe
ef eac
bcec bbcc
dbec bdc
ebe bbebbc
bf ebeebb
edc dbbd
dbc eedd
ecbc debe
ac bba
becc debb
def ebbc
fef dee
eccc bebc
edcc df
bbbb ecec
eeec ebcc
ecc bcebe
bbbe ecbe
dbe bba
eec debbc
dbc ffc
bfbd bec
bcbd beee
eeee bebc
bbc bebbbc
bebbbb a
f ebc</w>
eeec dbf
eec bcfc
bbbc eeed
ebb dbbebb
fbf fcc
bcbc beed
ed ebfcc
fee eeef
beebb bbbf
eec bbeec
edbc ebf
ffff ffff
bbec bebf
ddc bebd
bbdc beee
dec bebbc
bd ed</w>
ebbbd a
beebe beebe
bbbb ebbbf
ee debccc
eedc ded
ebe dcdc
ebd feec
bd defcc
bbbcc a
bdec beec
ebc c</w>
dcbd ccc
be bbeac
bfbd a
ebe ecbbbb
dee b</w>
ebc debbc
bbfc dbc
ff bbdd
ebc beeec
febb bbebb
dbe debd
bfc ebdc
bf fbeee
ddc ebbc
decc bcc
ef ebccc
ebd bcef
ddc beec
dbbc bbcc
ebd e</w>
bebe debc
dbb ebbbec
bcee ac
fdd dbd
bbbe eeec
bbbe ecbd
dbb eda
eeee bbec
eecc bbec
bfc fef
dedc dd
bbc bdee
edec dcc
edc bcdd
dbb f</w>
dbbbb bbdd
fdd bcc
eec ecbbc
fcc ba
bbc fdbe
bbbf dcc
dc fbbee
edbc bebc
bebbc df
bebd debe
bcebb bebc
bdc dbbf
ded bccc
eebd ebcc
dbec bebc
bdbe ebcc
bef bba
fdc bbbb
aa aa
bbc ebbbbbb
dbf ac
ecee bbebb
bc ebb</w>
bbbbc ecc
bcec bbebb
ebd eddd
bcebb bcc
edc eef
bcdc bcc
eeebb dd
ebf bbebc
dddddddd dddddddd
dbb eddf
ebbee bbef
df dccc
ebe ecebe
beebb bdc
ebe ebecc
dbbc fbc
becc eccc
bebd ebcc
ebc fbbf
debb ebcc
ebf eebe
bfc bbfc
bbc bbebf
fceebc bfdbbbb
ebe bdebe
ef ebeebe
bbf dbcc
ecbe dbcc
bbbb bdbbd
ecbc ebcc
eec bcbec
bbf dbbf
bbbc bba
deec dcc
bbed def
dbbbb bbcc
dcbc ecc
df beef
bbbf ded
bfcc a
ebb fefc
fec fdc
bcef fc
dd bdef
bbbb febc
bbed ddc
fcc def
bbbb fbbf
ebec bccc
bdec bebc
bfc febb
eeec eebc
ebd bedbe
ebf bcdc
eecc ddc
bdbe bbdd
fecc efebbc
eeebb bec
dbec ecc
bbec bedd
bebd bedc
ebe dbbee
bcee bbbbc
bef bcf
bcebb a
ebe ecebc
ebf bdbd
ebc bdbbc
fbc bced
eec eced
bdcc bcc
bbdc efc
bbbe cccc
ed febcc
dbc da
eedd ff
dd bedf
ef ecebc
ef eded
dcc dccc
debc bbd
debe beee
bbee dbbd
fbf bcbc
ed feecc
bbf eeec
dfc bbd
bbbec bebe
fbbc dbe
bbc bcbbbc
ccc fdd
ef eebebe
dbbc beee
eebd ddc
bf ecccc
eec ecbf
ba bbebe
fc febd
decc fec
ffc bdc
ec bbebfc
dbc bcee
bdbe dbbbb
bcbe bbdd
ef dcec
edc bded
ecbe bbef
fcc beee
eeebe eeebb
bbebc ff
bbc e</w>
ebf eeec
eeed ff
fcc bccc
bbc d</w>
eec bcebe
bbebb beebe
dbc eef
ecbd bbd
bbbd eeee
debc dbd
fef bbbe
beec eedc
bdbc bbed
efc fbe
bbec bcec
bbbbc dec
eebf bec
fdc ddc
dbbd bdbd
fc fbbd
bbf bbbbbbbb
ba dbbbb
edc feec
ecc bcbbc
ebe bcdf
bbbc bbbbbbc
bbebc bbee
bdcc df
ebe eeff
bbbd beed
bdec bef
bedc becc
ebe bdee
eba bbbe
bbdc bcbc
bcdd ccc
bddd ddc
ebbc dbec
ded b</w>
bbbf ea
bebd ddc
bbf deec
bbbb bcebc
ebe bbedc
bedd dbd
fcc debb
ecbc def
bcf dbbbb
bbebc bbd
bbc ecf
eec bbebd
a debd
bf bb</w>
ebc ecee
eebd bbec
ebbbc ebf
ed beea
bebc bced
ebb fdbf
eec bfdc
eccc bbd
dfc bfc
ff eef
fbc ac
dee ebdc
becc beee
eec c</w>
debe dcc
a fbcc
dc eedcc
fbd def
beebb bbebe
bcbd dcc
ba eca
ef dbbee
fbe b</w>
bcbd debb
bcec dbec
ecec bbcc
ed dbbbf
da dcc
bcbbc bec
beebe bbbc
be dbb</w>
eccc bbee
bbc bbbbcc
bebe fef
fdc eebc
edcc dcc
f bbeac
bbbb bcbcc
eedc eecc
bfbc bef
eebd efc
eced fc
ef ebecc
febb bbd
ba dbbc
ac def
bbef bebc
debd dbd
bec bedf
dbe ecdc
ecc ebccc
bbbd bdbbbb
bcc beebc
ff eeef
ebbc bcbe
beee ebcc
eebe debc
ef bfdc
bced beec
bccc bbd
fbf dec
dee bcbe
ded fed
bedc bbbc
fbe eba
bdee debb
fdd ddc
ebd fbbd
df febc
bdec bbbe
dbb bfa
ed dbbebb
ebe debf
bdf bbbbc
ed bedebb
ebbbd bbf
bccc fec
a eebbc
dd ebecc
bbc bbebbc
beee fbd
ebbee bbbf
dbdc dbd
befc ff
fc fedc
fc bedf
edc ecbf
ef dba
efc bedd
bbfc bbd
efc fef
fee ac
ebc fccc
fed eecc
fc bdbc
ecbe dbbbb
bcbd bfc
beef ebf
bebe bcbf
dee beebe
a decc
eced ecc
beef eeee
bcc eebbc
fdc dfc
dcbc dcc
bbc efcc
ecddbccffc ecebebdbbbe
bd ec</w>
ebb bebbef
bcc bcfc
def bbcc
dc ebbbbbb
eeebe ccc
bc bbbb</w>
bbbd da
dedc ecc
efc bbbf
ebe bfebe
bbc bac
ebec ecbc
bbebe ecc
ecbd ddc
fed bbcc
ecbd bfc
dd dcbd
ed beac
bf debec
bbec febb
bf bebbec
df e</w>
bbbc bedd
bba bbee
bbbec bebc
dbd eeec
ebe eeebf
fbe decc
bbbd bbef
ebe ddcc
ebd bcbbbb
bbf bcdc
bbbc dfc
dd bbecc
fed da
bbbb dbbee
fee debb
eebd eebc
dcbc bebe
ef dcdd
bdec dcc
debc bfc
dbd bebf
eebeee beee
ebf bbdd
fee febb
bfcc ff
ebd dcdc
bbbc dbbd
ac fec
ef debbc
eef bbfc
bdee bbed
bef bbfc
bebbc dee
bbbc fef
ded ecbc
ef eebbbe
dbf beee
bfbc ebbc
ecbe edcc
ded ea
beebb fbc
dd bdbbd
debd dec
ebbbc bbbbc
dbf bbed
bcebb df
ef bedbe
ebc bac
febe ebf
ebe ebbbbc
fc bedbe
eebe dbbbb
bbbd fcc
bebbbe bbebb
ef ecdf
bdf eccc
bbbb edbd
ebe bfdc
dd bedbe
bbdc ddc
beed eecc
dd ecbbc
becc ecbc
dd beecc
fbf bbcc
dbb bfbec
ac bac
fee fa
fc eeef
dbd bedc
bcec efc
fbf bbd
ebe ebbbd
eedc bbf
ebe bdbe
eeec ebf
eced a
ee fedcc
bebe bdcc
bded dec
ebe eebef
dc eebbbe
ed bbbecc
edc bbfc
bfcc bec
bdc fa
beed fbc
eebd bcbc
fc eea
bfbc bbee
bbc beebd
dc ebbec
df bcdd
bcec ba
bdee beee
eec ecebb
edbc bbec
fbd beee
febc bec
edc bcbe
ecbe bbdd
bcdc a
dbbd bbdd
ed defcc
dbc bbebc
dcbbdfdd eecfdc
bbbd febb
dbf fdd
bebd fcc
ef bebdc
beebc ccc
bbef bbd
bbbe dbbbe
bcbd bbec
eeec beee
bf debcc
eebd bbcc
bbebd bbee
ebfc ff
fbf ba
bbbd bddd
fef eeee
bdcc a
ebc ecebe
bedc ebbc
bdee ded
bdbc bbebb
fbc dbbc
bebc cccc
ebd ecbbc
ebbee dee
fc bdef
bebe bdbd
bbdc bbcc
ecdc bdc
ecf bbfc
edc fedc
eec debf
bbbbc bebd
fc bcbcc
dc f</w>
ebf bbbec
dd dced
def fee
bdbf a
bbc fbbbe
bbc ecdd
debb ebec
edc bebbc
ebcc ba
ecc fccc
ef eebbf
bbbc beebe
bbdc bebd
eebc eedc
ebdc eecc
dbbbb bbbf
dbc bcbe
dbb bfec
bebec bcc
eccc bcbc
ebbc fbbc
bccc bfc
fbf dcc
dbb edfc
ebcc bbebb
bbbc eebe
bdbc fbd
bbf bfcc
dbe bcef
eccc eecc
febc ff
deec fec
ecec bbee
eeebb eeebe
bbdd dcc
eedd bdc
eced bdc
fee efc
ebbbc bfc
dbb acc
dbec bbd
eef dbcc
dbec bbbe
ebc eebbd
fc deecc
bec eeebc
bf bedee
ebe bbba
dbd cccc
bebbbb bbbf
ef fbbee
bcbbc bcbc
bcdd df
bdf dbbbb
ef beccc
bccc bef
bcf bfcc
bbf bfbf
bcbd ddc
bbc ecef
bbbd bbebd
debe fbc
bcbe dbcc
ebc eea
eec ecbe
dec ac
dbe beebc
dbb dcebb
dc dbccc
bebe eebd
decc ebd
bbee eebe
bebc ebdc
fc fbbf
eeec beec
bcf deec
eebf bdc
dd bbbdc
dbd ebdc
eebc bbdc
edbc bef
bca a
dc ebbebe
fec bbbf
ff bcef
ccc ebbc
bbebb ebbbbbb
eeee fbc
edbd bdc
bf eeebf
bbf febc
fef dbc
bcbf fbc
eec bddd
ecbf df
ff b</w>
ebe bbbbebb
bbef ebd
bbbb eedc
bbd bebbf
bebd ebec
bf bedbb
bcee bbebc
f bbbbbbbbbbbb
dbe bbeec
bbf bcbbbb
bbee febe
ecbc bbebb
bcee debc
edbc fbd
eec eeebe
bbebe bfc
fec ebec
beed bef
debb becc
ebe dcbd
ebf bba
beebb edc
dc debdc
ff bdbd
eebc debe
bebf dee
dcc eeed
bf fbbec
fbf edc
bbd efcc
bbec dfc
ecee fee
bcbe bbbcc
ba bdbd
dc bbbbcc
dbe eebbc
eeef bef
dbbc ebbc
bf dea
dbc bbfc
bf ecdee
ebcc bccc
bbbb ecbbc
ee debecc
ebc dbbee
debd bebc
ecbd bebc
a befc
eebe dbcc
bc bf</w>
bedc bfc
bcfc dee
dec bbdd
dbe decc
fbe edcc
ebc ebbbf
ebe bfbd
eebc dfc
efc ffc
ba eea
eebd bebd
ebb bedbf
eeed bbbc
ded eedc
fbd fdc
da ebd
eedd bbc
ed fbecc
bbbf bebf
ebb dbccc
bec bddc
dec bcdc
bbdc ebec
ecebb bbbe
eebc debc
dbb ecbbbe
bcebb bebe
bced dbd
ea bbebe
ecbf bcc
dd bbbbbbbb
beebb eeebb
ecc ddcc
dd bcebc
ff bba
dcc bcec
fc bdebc
ebbee bebc
bbbec bbec
bf bbefc
dcbc ebd
efc fdc
bbbd fed
efc ac
bbcc eeee
eecc ecbc
dbe bbebd
dbe beef
fbbc fbc
bd de</w>
eeef ccc
da eba
dbd febb
dbb ebebbbb
beed bbee
a bfcc
ef eebcc
dd dbbee
ebc bcdbe
eeef bbf
fc bfbf
a bbebd
ddc bccc
bbdd ebf
bbc beecc
efc fbf
ebdc bbee
bced bbf
ed dd</w>
ebe bfebb
fc beeec
dbbc fee
bbd bbbbbbc
bcbf ecc
ea eea
bbef ebbc
fbe dbbd
ded beebb
bbeec dee
dbbbb ebd
bbfc bebc
bc bbbac
ac bbec
dbbbb bbec
beed bbec
ebbebb bbebb
ebc bca
bf efdc
bbed debe
bedbbbb cc
bbbcc bbf
bbd ecef
bcec bebd
ef beedc
bfed ccc
bbc ecee
bbebe eec
ebec def
df fbec
fed fed
dfc edc
edbc fec
ecebb bbbc
efc febb
bbfc ebf
bf bbdcc
eddd ecc
bba bebe
ffc bbf
ffc dcc
bcbbebe cc
ea bebf
deec becc
bbbf beec
eeec bebd
bedc dbd
fdd ded
da eec
eef bbebc
fbc ebdc
bdbbbb bbbc
ebc bfbd
decc eedc
dcec dcc
bbed beebb
df ecdd
ebc e</w>
dbbf dbe
edc bfcc
fee fdc
fef ba
ff bbebc
debb ecbc
ebf bebbbb
ebd edbf
bf f</w>
beee ecbc
ef fbeee
edc fbec
ebc ecef
bbebe ebbc
fa bca
ebf dbec
eccc bef
dbc bcebb
bebc fdc
bbebb fec
ebc bcebd
eeee febb
bdbbbb bbbe
eecc fed
ebc dbfc
dd ecebe
debb efc
ddc fdc
bbbcc bbcc
ecec becc
eecc edcc
fee def
bbeec bbbb
debb beec
ecc beebc
bbed fbd
dbd beebb
bbef bbec
dec beecc
eecc ebec
bced bef
ebd bebbbe
eebc febb
fbbc bbbc
eecc bbbd
ecec beec
ddc bbcc
beee ac
bfcbbefbedd dcbbdfddeecfdc
debb fbd
eedd dbe
ed dbbebe
bebd eebd
bbcbd dee
eef b</w>
ecdc fbc
bdc bcbe
debb bcbd
bebc bebbc
dbdc df
dd bceec
bcbbbb bcc
bbee def
bedd dbc
eebbbb bbc
bea dbe
bbee bcee
bbd eea
bebe bcbbc
bbbcc fc
a ebfc
eeed bbbb
beef bec
eced bbf
bdcc bbc
bbebd bec
befc dee
bbee eba
dbec fec
dd fccc
beee eccc
bcbc bebf
ff fdf
dd bebcc
bbbf efc
bcec bbbd
ef bdbe
bdc febe
bbbf febb
dbbc dcc
ebe fbeee
bdbc bbbbc
beee bebbbb
bcebb dbe
edbd bcc
ecdc bbc
bdbc fcc
eec eebcc
fbbbf bbebf
bbbbbbbbbbbb bbbbc
bedd bbbb
dcec ecc
bbdd fbc
df bcbbc
bbba a
bebec bec
eec bdebb
ccc dbf
bbebb bebbbe
ebb beded
ebd eba
ebbc ac
eecc bcbc
edc ecbe
eddc fc
fdd efc
debe bbec
bbbe eba
ebcc dbf
bcef dbe
eebc ecbd
ecec bef
ebbee dcc
bbd bbcbbbb
edc febd
bbbd bbebc
edc beef
eebeee eeee
ef defc
ef ebbef
bbbf becc
dbc eeebb
bf beba
fed fcc
edc eebbc
ba bbdc
ef bdbec
bcc fdf
eeed fc
bcee fbe
bbebb bebbc
ecbf ff
ebbee bcbc
dbb efdc
eebc bbbbc
ddc eebd
ee bbe</w>
bcbf bebe
ebe eebcc
dd bdee
bbbf fbe
fee eebf
bdc beef
bcc eefc
eedc fcc
bcec ebcc
bdbd ebd
dbec bebe
bcebe bbbb
dcbc bef
ebbee ebd
bfec ded
ecec ebbc
bcebe ccc
efc ebdc
bbee da
ecbbebb cc
dc eeff
bbbcc dbe
bec fdf
bcec dbf
bbeec dec
eded dee
dbb dcebc
ecdc a
bcc ebbcc
bdbc ebec
bf fbebc
beebb bbec
bbbe bebbd
ef fdec
bbd ecf
bbbd bbbec
dd eeebc
edc eddd
ea fa
bebc bbdd
dbbbe dbe
bfbc bbec
bedc efc
dcbc bbbc
fee bbed
bdbc beec
beee dbf
eced dcc
dbcc bdc
eec bcebc
ddc bcbd
eeee bfc
dd fbbf
ebc bfed
dcbd ff
a bdef
bbebb bbbec
bcef df
bebf ba
ebbc bbfc
eebe bbfc
ebec debc
bbebb ea
ebc eedf
fee da
decc ded
fdc becc
dbbc debb
bbd bdebe
dbcc dee
ebbbd df
bebd bdbd
bcf bbdd
bccc bbee
a bcdd
dec bbebc
bef bbdd
a bdebb
ddc dcdc
bfcc df
bbdc eebc
dbcc bbbb
edcc ff
eccc beec
dbb ececc
bbebd bbbe
ebe bcdbe
bbd bbbbbd
bbf fdf
beed bbbd
fbec bbc
eecc bbcc
bded bbc
ccc fed
ebbee fbe
dccc bcc
bcec debc
eec bedf
ccc bbed
bbd eddd
fbf ebd
eeebb ba
eeed dcc
ecc eedbe
bebc ecbd
fcc ecbc
bdbe debc
ebbc ffc
bbee bedc
dbc bebbc
bebe bbdd
bbf eedc
bf ddbd
ff bcebb
bef eef
ddc becc
dd fedc
bbbc ebdc
dbec beec
be ebe</w>
bbbd debc
fec ecbc
fbcc fc
bcbc ecbc
debb ea
bcee deec
edcc dec
edbc efc
ddc ebec
ebbebb bbc
bec eefc
dbe febc
bec febd
dbbbb fc
edee bfc
dbd fdd
dd ecbec
edbf fc
ecdd fc
ebc bcdf
ebc bdebe
fdc bef
bbebb bcbbbb
bbee eebf
bf fdbf
dbec efc
eecc eebd
bbee eebbbb
dbbc bbed
bdbc eebc
bdc bbfc
bddd dddd
dfc beec
ed dbbdc
bbebb bcbd
dbd bcec
ebc eeecc
bebe bcdc
fbbc dbc
a edbd
beee fef
bbbbc bebbbb
fec ffc
bdc eef
bbbc eedc
ba dba
fbd ebcc
bbbc eebf
bbbbc beebb
ebbc bedd
febb dee
ded eccc
fbec df
ba ebec
bdc bded
ebc bbebf
bbebe bebbbb
ef bcbbf
ea fef
edc befc
bbee bbdd
dbbf ff
ecc ebecc
ebbc ecbd
dfc bebc
bbd ebecc
ebb f</w>
ebe ecdf
dedc eecc
ef eefee
dd eebec
ebc bdee
ecee bbed
bf deecc
bcbf bfc
beef df
dcc eebf
ddc beed
da fbc
a ecef
bbee ebbebb
bbbe bedd
ded bbdd
ba eebc
dbbc bebd
f dbb</w>
eded bbc
ebd fdf
bbdc beec
a eced
decc bbc
ebbbd dbd
bbfc bfc
ebe bdebc
ebcc ebdc
ff dccc
fee eebc
fbd fbf
bdc eced
dbc ecbe
fcc febb
edee edc
ef edbbc
dd bfbf
bd bbebdc
bbbe bcebe
bdbd dec
a bcebe
fbd debe
bbec bced
bbebe beebe
ba fef
da dec
bebc bcebb
dc fded
bebe cccc
fdecc cc
bec c</w>
bbebe bebd
bbbb bbbfc
bbbc bcdc
bbebb bbef
bcbbc bcbbc
bbbe fdd
bdc fbec
efc beebb
bcec ebec
ebc bebbbc
bcc feec
ddc eccc
bbbcc eec
bbbb bfcc
ebe eebbd
fec bedd
febc bbc
ec dbac
ef fedc
ecc ecf
bbbc fbbbb
bbd bebbbc
bbebb fbe
bcbe bba
eeec fcc
fc ebccc
ba bdbf
bbec fbf
eedd dec
ebbbc fee
fdbb ccc
bbd beecc
fa dbe
dedc dee
dbbbe bbc
dded ccc
bbcc bcbd
bedc ebf
dcc b</w>
dfc bcbc
fed ebbc
dbbbb dee
bbbbbbbb bbbbebb
dbbc bbdc
bbd ecdd
ded bbdc
bf eefee
ff eebd
bebbbe bbc
ebd bcebc
bebe ebbebb
bcdc bcdc
edbf ccc
ebb dac
dcc fbf
febe febe
ebb eb</w>
dd eea
bbbedfc fceebcbfdbbbb
ebe ebccc
dd fbdc
dcc bbdc
bbed beed
bf eeebd
eeed ecc
ebb fddc
ebbbc edc
df dbbf
fed bebd
fbc bbef
fed bbec
ebc fbbbe
fbe ecbf
bbd bdef
fc d</w>
ebf edcc
dbb ebeebe
ebc bedbc
ebd eebbbb
bdbc efc
dcec dbc
bbf eeebe
bdc edcc
dd bfdc
bbd bbebf
dbb dcbec
aa a
ba bcbf
bcf ebfc
bf fbbbd
ecee ea
ebbbc ded
bdec bbec
ebbc bcbf
bdec bfc
fcc bbbd
ebb beebec
ebc ddcc
dcc ac
dbf bbbf
bded eec
fcc edcc
ecf debe
bf bbea
ee ebb</w>
bbbe bcebc
dee beebc
eac df
beec eebd
ecc bebec
bef ecbd
dbbc edc
eebc cccc
ebe bcbbf
dbd ac
ebe fbdc
bebc eeec
bbebc bcbc
deba cc
becc ea
dbbbb bbed
beef bcc
ecee ecbc
fee eeebb
beebe fc
fecc a
ebbc eebf
dbf bebd
dcc debc
dd bcbec
dcc ebdc
bbbbc ebec
eccc fbd
ecc fdf
dee beecc
beed fec
ded bdbd
bbd fbbbe
dbc ecdc
fa bbc
bbbe ffc
dc fddc
dec ecbd
bbf befc
eedc ebcc
bdcc bdc
bbbd ebcc
ecc e</w>
ecc ecef
eedc dbd
dee dccc
eeee eea
ed feccc
bdec ef
bfbd ccc
ed ee</w>
dd bfed
ebc ebbed
dbe ecec
ea febb
bbbbc bcbd
ebbbc bbcc
efc bebf
beec bcbd
bec beeec
fbf beee
bcebe bbc
ec fbfcc
bbf bebec
fbe ecdc
a ecebb
bbbe eccc
bbf debd
ebd dbbbc
df eef
dbb eddbe
bced bbec
eedd bcc
fbc bcbf
fef bbbb
fdbb fc
ef edef
fbbc eec
bfbc ded
ebec bbdc
dbbd ba
beec debe
a beebc
dbe bebec
dee bbecc
bcdc ded
bcdebc cc
bebe bbfc
fdd eecc
dd beeec
eeee bccc
ef dddd
bbee bbfc
ea bbef
dbe eebbbb
ebecc ccc
ebf befc
bef dbbbb
bbebbc bbbb
bedd bcc
edc dcdc
ebe ecfc
bfc bbebe
bcf bbeec
dd ebccc
dbf bccc
ecc bbecc
bef bcee
debc debb
ea bebd
ebcc bedc
bdee fec
eeee dbd
ecebe ccc
bbbc bebec
bbcc fdc
beebe bec
ef bcdbe
eef deec
df bddc
df bcfc
edee dec
bfcc fec
ebcc ecbc
fdbbd cc
bbd ebbbd
df ecef
eedc ebbc
bebc eccc
debd bbbb
ebc bebdc
bcbc bbdc
ffc ded
ebf febc
ff bebbc
ebe eebec
bbbcc bebe
bbbd bcbbbb
dc fefc
ba bfa
ffc eec
ff ecdc
bec bfed
ebfc bbbb
bbbdc bbbb
debd dbc
bebc bbef
ecc b</w>
bfc bced
ff bcbe
bcbc fed
bcbc eebd
decc bdc
dbbf bbc
be df</w>
dbec ebbc
fdc fdc
bded a
edbc fee
ecc c</w>
bbebb becc
dcc bcdc
bbebc beec
bfbc edc
bbec bbdd
bcc edbf
bdbe bbef
bbbf ebec
ed bebbed
fbc eccc
bf eebef
ebbee dbd
ebb bd</w>
bf ebdcc
dcbc bbbe
df fecc
dcc edcc
ebd eebec
ebf bedd
fec bbed
bebe bea
dcc bced
bbbf bebbbb
dedc a
fec bcec
bdf bbdd
bbebb bbdd
bcc ecdd
ecdc ded
bfc bbdd
bbbbc beec
fc bdfc
beebb beebe
eeee eba
deec bbbc
bcc bbecc
bbee bcbe
cccccccc ccccccc
eeebb dbe
bebf bbcc
ecf bbef
dcbd dbe
bbebb eebd
def dbbc
debc bebd
dbf fbe
ebc defc
debc ebf
dbc febe
bbd bdee
bcbc beebb
deec bedc
ed febec
ebc eac
ef bbba
fed bedc
bbfc bdc
bcc bbbbbbbb
bbed eebc
bcdc dbd
dcee dec
eec eefc
bbbe befc
ebbee ea
bfc da
bebbd bbc
bd beeecc
eecc eedc
ecdc ddc
df bddd
bdf dbec
bf bbfcc
ecbd bbbc
bec e</w>
bbf fbbf
bbbe dbcc
ef bcff
fbd febb
eeebb fc
bec bfdc
bfc eeee
eebd bef
bcc eeef
ebf dbcc
dee bba
fec debe
debc fbc
ececc ccc
dedc ded
ebdc fcc
bec bdec
bbd bfbd
ec bbbfcc
ac bbbd
ecbd fcc
dbc bcdd
def def
eef bbbcc
beec bccc
bcbe bbebd
edc dbbbb
fbe bded
bbebe fbc
eba ccc
debe bef
eebe bbbcc
ebc bedee
bbbec ebbc
ecee fbd
bec fbbd
ef ecbbbb
bbf fbbd
eebc beed
eebd becc
dc ebbdd
bf fefc
bec ebbebb
bcc febd
bbbbc bbbcc
eeebe eeef
bbef dec
ecbf dbc
bcbd ba
eeebb bbbf
bbbb c</w>
decc bebc
fdd bfc
ecc eebcc
ebbc beebe
eebc fbf
bbbec bbbd
dbdc dbe
eeebe beebb
dbbd ebf
fef dcc
bbc eddc
dfc bbec
eccc bbbc
bedc debb
ed bbeecc
fc beedc
dbbbe bebe
dccc dccc
dbec dcc
ed bebbbf
bdbe bbebc
ebd fdbe
bcbc bcbbc
fc bbccc
ded ebdc
bd debfc
ebb bebecc
dbb ebba
bbebb fbd
bbbb fbcc
eeec fed
ef dcbc
bbcbbbb bbbc
bbbbbd bbbbbbbb
fec bebf
bbf ebfc
bba bdc
bbbec bbd
dbb ebebbc
bbc ebbbf
fdc ebbc
beed bebd
edbc ddc
bbeec a
fbe ecbe
ebb febcc
fbc fbbc
eeecc ccc
ebe efbf
ea beebe
deec debb
ebc dcdd
ecc bcebc
dbbbd bbbd
ecec ebcc
ebe bbbfc
bdbf dd
dbbf df
bbcc def
becc edbd
fbf dbd
dfc fcc
bdf ebdc
bbbb eced
bbee bebbbe
beec dbec
beec dedc
dbc fbbc
decc dee
dbe bbbcc
bbbc bcf
bf beebbc
bbbec dd
ebbebb bebe
ef bddf
bbbe bdbbbb
dec bcebb
bbf fbec
bced bdc
eebc def
bc bbe</w>
febe bef
bf fbbdc
fee ecbc
eec beebd
ba bbef
ebd c</w>
fee bbdc
beebb bbbbc
fdc fbd
ebe fbef
bebc bebbbb
bdbf df
ebc bbedc
bbc eea
bebd fed
fecc df
bcc eddd
bbd bca
bdcc ff
bf fbbcc
bef bcbe
bd dbbbec
fbf bbbf
dbbf bbbb
dcbd dbd
eebe da
dccc df
bbed dbbbb
bdec bbbc
ecc fdbe
bcbc eeee
eccc bbec
bdc beebe
eebc dbec
fc eebcc
bebd bbbf
febb edc
bef deec
ed bbac
ecbc bbbf
bebd ea
fbc bbfc
bd dbbebc
bbbe deec
eeed ebc
eeebb beebb
edbd bebe
a bddd
edcc dbe
bbbbebb bbebb
dbcc dbd
bbc dbbee
eec beccc
bd dbbebd
bbbe bbecc
bedc bbd
edbc beee
ba fed
ddc ebcc
ebe bfbbc
dcc dbbc
ecc bebcc
febb ebbc
dd fdbc
debc bbee
ecbe da
cccc bcc
dcdcdcdc dcdcdcdc
ebf bbbcc
bdee efc
eded df
dc fbebc
bedd ded
bfcbbefbedddcbbdfddeecfdc ecddbccffcecebebdbbbe
bced bbbb
beebc bbbb
bbbbc bccc
eeed edc
bbbe fa
bebf bbebb
bebbc bbd
bdc bbebc
ecec fec
bbbc da
eec bebbbe
bbebe dee
bcbc dbbc
fbd ebec
bcbe ebdc
bdc bcebb
bef bdbd
dcc bbbf
eded dbe
ebd bedf
eebbbe bbee
bf dac
fbbc bbd
dbec bfc
ecdc ff
ecdd df
eecc ebdc
debc ecbc
ebb bbac
fbf bbbd
ebe dbfc
bbbe bea
beed ebbc
bced ecc
bf eedbc
ed ec</w>
fc bcbbbb
eac da
dedc ff
ebd eefc
ebb fded
bebc fbe
bf ffcc
bbbe eef
beec bbbf
ebbbc bbbf
bbf bded
eebd fdc
dd bdebe
eebd dbf
bcbc ebcc
bebf ebbc
fec bbdc
dfc def
eec e</w>
ebbbd bebe
eeebb dbc
ec bbeba
dcc deec
efc debd
dcec dbd
eeed ded
bcdd dee
beee debb
dbb ebebd
ebd ebbebb
dbb bc</w>
fbf ebbc
bbfc dec
bedc bebd
bdbc dbf
fc eeebe
dcc fbe
ecdc dbd
bcbf dbc
bebbbb bbec
febb dbd
ecc eedf
bbee ebdc
fdbb a
bbed ea
ebd bbecc
febc dbc
ebbcc bbc
ecc ecbbc
bbdd bebc
eebe dbec
eeebb bbd
ddbd dbe
bba dbd
bcc dbbf
bdbbc bbbb
bebbc bebc
eeef ebf
bbed ebcc
bbbbbd dbd
bcee bbdc
bceeefc feccefebbc
dee dbbbb
bbcc ea
ecf decc
dced dec
fed debc
bbef bbbd
bebf fcc
eec ddcc
fdd bbf
edc bcebb
deec bfc
ecbc eecc
ebe bbbbbbc
efc eeec
fbbbb bbbd
bcbd beec
bebe eccc
ecc ecfc
bdec fbc
ebec dbbc
ecc eeebe
fc fbdc
dc bbbbbbc
bdbbbd cc
def ea
bcef dd
ed bebccc
befc bbc
ecbd ebf
beebe bbebb
dbe eebf
ebfc bbf
bbcc beed
ddc dddd
ebfc dee
edbd ff
bdcc dee
eac a
bdbc bbbf
df bcebe
ebe ebbed
bfbc dbd
fbe dbbf
dcc decc
bfbc fee
fc edbf
ecbc fed
bddd dbc
dbec eecc
eccc becc
ba bbdd
bcbd bdbd
bebe bbbcc
ebdc ebcc
ba debe
bebe bcbbbb
bbbbc bbdc
eebc ac
edc bcf
bbbd ac
ef eeebc
dec dbcc
bcc bedf
ebbebb bbee
ecdee ccc
bceebecbbecbbdbbc bbdbf
ef bbbfc
bdbc fed
ff eeebe
bbebb bbdc
dbbbe bbbc
bcee bbebe
beee cccc
eec bedbc
bec ecfc
beec da
bbbec dbc
ecbd bbee
df eddc
ed fdebb
fee bcec
fbbc dee
bbf bedd
dbb efbd
bced bebc
fbc fef
bebbc ebd
eebd ecbc
febb bfc
bbdbd dbd
bbc ecebe
bcc bbebd
ecf dbcc
bec dbbbc
bcc ecef
bbed dbbc
bbd dcdc
dd beebd
fee ebcc
ecc bebbbb
eedc bbbb
bebd beebb
beed ddc
a dccc
bdc bcef
def efc
ebbcc fc
edc b</w>
bcbc bcbbbb
bbd bbccc
bbebc bbbd
dc bbcbbc
bdec bbee
bedbb ccc
a bddc
ebe bebbebb
ecee dbec
ef bcccc
dbbd b</w>
ebfc dbe
fbbdd cc
bcdd dbd
bedebd cc
bded dbc
bc dbac
bbf bbeec
def fec
dc fdbf
eec bac
fbd debc
fa ba
dbf bbebb
bbfc bbec
bbbbc bbebe
ecee bbdc
bd dbbfc
bef eba
beebe beebb
bf bebbbd
edbc bbcc
dcc bdbd
ebdc ddc
ebec fbe
bebf bbbd
ee bbbac
bec eddc
eeee bea
df ecebb
eec defc
ecc ecdf
ccc ebcc
dec b</w>
fbd dbbc
eebbc bbbe
fec febb
fee dfc
eebf eebf
bfcc bbc
eeed bebc
dbbbb ba
dd eedf
eebe ebbef
bbed bbbf
ecbc fdc
ef eeebf
ff deec
a dbbbe
bf bebbcc
bdcc ebd
dbb edbbd
bcbc bdbd
bcf dbcc
ebbec bbbe
dbe bcbbc
bccc efc
debb fcc
ac efc
ebbbd bec
df eedd
dc febbc
bd dbbbcc
eeee edc
bebd dbbc
bbbbbbbb bbcc
fbe bbeec
fed bbee
eeee eebebe
ebbbd dee
bcdc bdc
bef b</w>
becc ebdc
eba bea
f bbbb</w>
dddd bebeecebc
ef fbbbc
bbf b</w>
bbecc bec
ed bbdbbbb
ebb ebfcc
ef bbebbc
bcf dbbf
bdbc eebd
ecdd dee
ebbbc dcc
fbc febc
dbb ebdcc
dbec bbbc
dc dedcc
bbc ecbec
a bbac
bbebc ebbc
dcbc fee
edc bddc
eedbe ccc
bbebc ebd
dbfc abca
ebc dcbf
bbf beebc
bbebc ded
beec ecbc
fbe bdebb
eebbbb bbebb
bbec bcebb
fc bffc
dbc decc
dfc bbbe
bdee ebcc
fc bca
bbbec ff
eefc df
ebc dcbd
bcbc bcbe
fed bbbd
ebec ebdc
fec ebdc
bbf fbcc
bebbbb ccc
bd bbbbbbbbbbbb
bfc eccc
bbee fef
eebc bebf
beecc ccc
dbe bdbf
fcc debc
dbdc bec
bbef bbbf
ecee eccc
bbf eebbc
ebbc eccc
fbc deec
bbbbbd bbbe
febb bebc
edee bbcc
ac bbcc
febb bbbd
eebbbb bbbc
bf bebbebb
ac eac
fbd bbbf
ebbbd bbbd
dc ebbfc
edc bcef
dbb efdd
becc bccc
efc bbebb
ebcc eeec
dbe bddc
ac beee
bddd ccc
fc ecef
debb bbdc
fdc bbd
ecebb bec
bbbcc df
dd ecfc
bbdd ecc
eded dbc
bdbc debe
eebbbb bbee
bd dbfcc
eec bdec
dee ecdc
ed fac
bcc eeebe
fbe debd
fdc bbbc
ed ecced
bceebd cc
ac ddc
fbbc bebe
eeed ddc
dbbbb bcbc
fee bbbbc
ff befc
dbb eb</w>
bedd ebd
bfc beebc
fc ecebc
bbec ebdc
dbe bdebb
bcee eccc
fbc da
fbc eeec
bfbc bbbd
eef bbbec
bbcbbbb bbbbc
beef dd
bedc dcc
bef bcdc
eeebc ccc
efc febc
dee dbbd
eebf df
a bcfc
bbec bbbec
bea bbbb
fc ddcc
dbe eebe
ebf deec
dc ebbbec
dbb ebbfc
fbf fec
fa bcc
dccc ecc
dbbf dd
bbc bdebe
bbbbbbc bbbbbbbb
bdc bcdd
bdc ecdc
bef eeec
fdc dbf
dc ebbebc
bebc bcdc
bcbbd bbbb
ebe edbbc
bcf dbbd
dcbc bbee
dc bbcbd
eebd ba
bcebc ccc
ebd fedc
bedc beec
bec bbbdc
fbd bbed
bbfc ecc
bdc ebfc
bdbe bbbec
bdc ecbe
ebbc bebbbb
ea ebec
ebb debdc
ef ecebe
ebc fdbc
bebe debe
eeebb bbcc
bbebe bebf
dec ffc
edc eefc
debd ecc
bded dbd
bbbe bdbf
ebf eedc
febe df
eec ebccc
bcbc dfc
be ebc</w>
dc bebbec
beee bebbbe
eebe bbebf
bfbd bbf
bfbd ff
ebe eca
ac ebbc
debb eebd
beebb eeebe
ebd beecc
bfc bedd
efc ecbd
bf eebbbc
eec bcbbbb
bcbc fbf
ebe efef
eedd dee
bbbb eebbbe
eeee ddc
eebe edbd
bbdc bbebb
fbe bfbf
bcbf ebc
becc fdd
ebe ecbcc
dcbc bebc
bbbe bebcc
becc ba
dec febb
fbe ebfc
da bbd
eeebb beebe
ecee debb
ebb febec
bcf bbbcc
bebe fbbc
dbbbb bdbd
ef eebbd
bec bddd
ebcc ea
ecc bdec
dbe bfcc
dee fed
eebe def
deec eebc
bfec bebc
dd ebbebb
dbb dcfc
dbd bdcc
eef dbbd
dbec bef
ebf bcbbc
bbed bbbbc
bcc bcbec
bbeec bebc
bbd ecebe
a bcbbbb
dcc bedd
dbb bfebc
eec eeef
dcec beec
fdc ea
deec ebbc
eebf ebc
dbbc eebc
ed dbbef
bbbb bebbee
ebe bfed
dcc ecbd
dbbc ba
ecbf fcc
bbd bbcbbc
fbe ebbebb
eecc ea
bbbc febe
bea bbc
fc bceec
bbbf bbebe
ebdc edbbebb
debc bbec
bdc fecc
becc edcc
bec debbc
bbcc fbf
becc bedd
bebbbb bebc
dbd debd
beee ded
dbe fa
ecbf bbf
bbbf bbef
dc beddc
dec eedd
bef bbbec
ebd beebd
bcec eebc
ecbf fbc
debb ddc
bbebd dd
dedc edc
a bcebc
efc bbbbc
bedc bedc
ecec bbbd
bf eeeec
bcec debe
eba df
edbf ecc
fef fbc
dec bdbd
bbee bdbd
bebd ecbc
bbed dbec
bbdc ba
eba bbbc
bfbc ba
eeed bbf
eeee ebbc
ebb dbbbf
ff fbcc
bec debf
a bebec
bdc bebbc
bba bbebb
dccc eec
edec dbd
ebd eebcc
bbee cccc
dbe bcbec
dbf fed
bcbf ef
fdc bbbe
bf bbebec
ebe beccc
bebe ebdc
dec befc
ecdd dbc
eeec fbd
eeec eedc
ebf dbbd
bf dddc
dd dfcc
bbebd bbc
decc efc
ebf bfcc
bccc bbec
dcdd ccc
a fbbf
eec dcbd
dbe edbd
dbf ecbc
dbbc bbbbc
bbbe bbbbbbc
bdc bddd
fdc debb
bbfc dbd
bbbccc ccc
bcc eeebc
fdc eedc
bc deac
bebe fed
ecf da
ebbbc bbed
df eeebb
dbbc fec
decc eccc
ecec ecbc
bbcc eedc
bbbb bebbebb
bbee eebd
bbbd dddd
bbf edbd
bd ebac
fee bcbf
bbd ecbec
def fbd
edee fbc
dc bebfc
dd eebcc
fdebd cc
ecc eeccc
ef bdeec
ebe edbc
bef bdcc
bfbc efc
bebe ecbd
dccc dee
dec bcee
ddc fdd
ebe fdbc
bbdd debb
bdc edbd
ebe bdfc
fc bcecc
dbe bcdd
dd defc
eec dfcc
fbe bbebd
febb ba
fdc bcbc
bbed bedc
ebc edbc
eec bdbc
ffc bfc
bdee ea
bdc bddc
bbc bceec
dbd bced
bbbbc ded
bebd beed
bcc fbbbb
eebf fbc
ddc eedc
ebd ddcc
dec febc
df beebe
fec ac
beebb dee
dbb be</w>
dd bca
ddc bbdd
dbbbd dbbbd
bebc fbf
bbc bcbbbe
ba bbba
a dbdc
ebe bda
ebc ebbbbbb
bbcc bedc
df fbbbb
bbed fcc
bbbb dbdc
bdc efcc
ecf bbdd
bcee debe
bfec bbf
bbd ebbed
bebe beebc
bbbd eeebb
eebe debe
eedd dbd
eef dbbbb
bcbd ebbc
bef bea
bbbb bedbe
bbee bbeec
dbec bbec
bccc fee
ebcc eccc
bcbd bbcc
dc eedbd
fc bbbdc
fed ea
bebec dbc
ccc eebc
bcbbbb bec
edee fcc
dbe edcc
bef bbbcc
bebe eeef
dbbd beee
bbbb ebbbd
bbbb bdebe
dbcc ecc
fc bbedc
bcebb ff
dd bcbbd
ebdc bbec
bbdc debb
eebf eec
bdbd bebc
dd eebbbb
ecec ebf
bfec bfc
bbbb ebbebe
eebe b</w>
bbbe bded
ecbe bbfc
eebbee beee
bcc bdebb
bedbb bec
bebf bcbc
bf fded
dcc c</w>
ebec bcec
bcc bcebc
fbf fbd
bbd bfdc
eebbc bec
ebb fbbed
dd fdee
ef edbc
ebe bdf
deec eedc
ebd bdec
ebec debe
beebe eeebe
def bbbd
ebb beefc
dbe ecebb
deec edc
ed fbccc
ecc eac
bdbd ebc
bdee bebd
bd bacc
ebb beddc
dbbc bbebb
fec bbebb
eef debd
bcbc eecc
bccc debe
ebbbc bebd
ed de</w>
bea ba
ff bded
bef eebe
da ac
bcbf eec
debc efc
fdc beec
dee bbbec
ebcc edcc
bcfc fc
bcef a
da bbbc
bcebb ebbc
fec eccc
febb bbec
ebfc dbc
debc fee
bec ebccc
bbbe febc
bdc bbbec
ecbe dccc
ebc bebbee
bdcc dbc
bbcc eeec
ecbe bbeec
fbc fdd
bbdd dddd
bbee fbbbb
bcbf ebf
ded eebd
ebb be</w>
bbdc bbed
bebec bbbc
ee bbd</w>
ed debfc
dbe bcebe
bebbc dbc
bbbbbbbbbbbbbbbb bbbbbbbbbbbb
bcec eecc
ea beef
eebe dbbd
bcbe dbbd
bbebc dbc
ef eebec
bbd eebbd
bbee debe
eec dbbbc
bedc fee
eba ff
dcee bbec
bbbcc ebc
ecc ecebc
bea bba
debb bbebe
bbbe bebbbc
ecbd bef
bebe eeec
edc fbcc
bcec fed
ebec beed
debb fed
bfbc bbbf
bbbc ffc
bdbf ccc
bdbbbb bbc
dbd bbcdbf
be ebd</w>
bbdd bbebb
dd bcdf
beebb febb
ef ebbbbbb
bbee fdc
bbebc bbec
bbcc fbe
bbed fbe
deec bbf
eedd ebd
eebd eecc
dbbbb ebc
bbd bceec
dee fdd
dbbf a
bdbe da
ed fbbbf
ef bebbbc
dbb edeec
bbbd bccc
ecdd eec
dbf bcbd
bbd ecee
bbebc dec
dfc fec
decc dbe
dbbf fc
bebc bcbe
ded fdc
dbbbd dbd
ded bbbf
dcc dcdc
bcbc bcbf
bf bedec
dcbd a
bebe bbbbbbbb
def bccc
bcdc ebc
dc bbefc
bbee eccc
bebc eeee
fcc fecc
ebdc fbd
bcc eded
fef ecc
beef dbe
dbdc ff
eebbbb bbbd
ebbbc ba
debd ebd
bbf bdebb
bbc eded
bbbe bbbbebb
dbbf ccc
bedc bbbd
ed dbfcc
ecbf dcc
dc ebeebb
bcee da
eeebb eeef
dba a
bbc bcdf
bbebd a
befc dbe
ebbbd bbbc
bbc ecebc
ded beebc
bdbe dfc
bbee fed
df ecf
bbdc fbd
bcebb dee
dbec fbc
febc dbe
bbd dcdd
bbcc beebb
ebb dbbed
ebe dcbf
ecee bbdd
bf fddc
dd ecdf
ecbf ebd
beef ba
df fccc
bdcc ebc
ebbee ecc
ebe eded
fbf bbec
debc eebd
eedc bebc
beebe bdc
ebcc fbe
bec bedbc
dbbbe bbf
becc bbed
ecbc beed
bbfc ebd
fbbc ebc
bebbc bbbd
edbd dec
dbb ecdbc
bbebb efc
dd bac
bbc bfed
bec eeebe
bfbc beec
bebe def
fdd ebd
bcee dfc
eec bebdc
ddbd ccc
dcc febb
eedc bfc
ff bdbf
bbee dfc
fec eebd
beebb dbd
deec bbbb
eebbc bbf
bbd ebbbf
becc eedd
bcbf ebd
ebbebb bbbc
dcbc edc
eebbef cc
bec eebcc
ebbee bbed
bbbe bebbf
ddc eeee
bbbf bbbbbbbb
ecbd ebbc
dbbbb bdbbbb
df eeed
ebe efebe
ebe fbbbc
bebf bebf
edbd ded
dbb fcbf
bbbbc fee
bfec bdc
fed fbd
eccc beee
dbbc beec
bbdd beee
bebbc ebbc
bebc ac
ed ed</w>
bddd dbe
bbebb dbf
ebf ecdc
dbb ecbbf
bdcc edc
bbbbc bbbec
ebbcc eec
ebec eedc
bdf bbfc
bcecc ccc
dbc bbbec
ebc ecbcc
fbbc bfc
bbc eddd
df bbbcc
eebe dfc
bcfc dbe
ecc ecee
dbcc bbbc
febb dec
ebe dded
fc bac
bec eebbbb
bdf bbebe
bdc dcdc
fef bfc
a edbf
dbdc dee
efc bcec
bedbb dd
bcc bebcc
eecc bef
ebcc bbbf
becc debc
fbc bedd
beed bedc
bcdd ddc
bebbbb beee
bbee bcbf
df ebfc
fcc ebdc
edee bbbd
bcbc ea
bbec eeec
bcbd bbed
bcc bdef
bcebb bbbd
eef decc
bcbbbb ccc
ebc bdfc
bded ff
da ebf
bced bfc
fc bebbf
eec dced
dbc ecec
eeee ac
ba eeebb
bbebe dbd
fc dcbf
bbd bfed
bbdd b</w>
ecc fbbd
bbdc eecc
debc bef
bebbc dd
bddc bddc
febe bdc
dbf debe
beebb ea
bbc eedbe
bbbe bbebf
dbdc a
eeebc bbf
fdc eebd
bbc dcdc
fc debbc
bbbe bcef
df fbbd
beec bebf
ebe defc
fa bbf
bdec ddc
bbebd bebe
ebc edbbc
dbbbb bebbbb
bdbf bbbb
bcc bea
ebb bc</w>
df eba
fc dbbbc
ebbc eeed
dbc beebe
bbc ebbbbc
bcbbbb bcbc
ef bbbbbbbb
bced bebe
bcc fdbe
ebd ecbbd
bcc beeec
eebc eeee
befc ded
bbd bda
dbd bedd
bbebb ebcc
fdc ebcc
bbec beebc
fcc eeec
fdc ffc
fbc dbec
bbbcc dd
ecec eccc
bcbbc ff
ecdd dcc
eec eddd
ee bbc</w>
fc eeeec
bbbe ecbf
feec a
bebbc ff
dee debd
ebbebb bbf
fbec a
bebd febb
ebb fdebb
fc eded
dbe eced
eecc ecdc
eebf dd
bbbc ecbe
ebc bdbbbb
fbc beebb
ef dbecc
fee bba
def beec
bedc eebd
bcc bedbe
edee ba
dccc ff
ef bedbc
bec ecebc
dee decc
bebd deec
ebf ecbf
dee eebbbb
ded dedc
bbdd bfc
bfbc eebc
ebc ecdf
ebc beccc
bbdc becc
fdd dcc
dc eebbee
ac debb
bebf dec
bf fea
ebbebe bebe
bbd bbedc
eec dbfc
bedbbd cc
bdc c</w>
df fdbe
beee eba
bdec edc
dbb dca
bbec bbef
bdbd bbee
ebd eeef
bbbc deec
ebbbf bbbb
ed beebec
ecc cccccc
bdc ecbf
dbbbb b</w>
ecf deec
bbdd bbcc
bbba bba
ac fcc
ecee beec
bbc bcccc
ebc ebbbbc
bbed debc
bbebe edc
fef fef
bcbe debd
bedc fed
bbbcc dbc
bcebb bcebb
ed fdbbc
fcc decc
dfc ddc
fbbc edc
bdee fbd
eddc edc
beda cc
bbbc ecbd
ebf fbbbb
bebc bbebc
dbd eedc
debe becc
fc dcbd
bbd bcbcc
febc dd
bbd dcbd
bbbe bcbec
bbbcc bbbd
bebbbe bbf
dec eeee
fbf dbf
bdbc eeee
beee bcdc
dfc ebbc
ebec dbec
dbbf bbf
dbbbe bec
ecbe edbd
dc dac
dbb dceec
eebc ecdc
eebe bbeec
bcbe bbecc
bbdd bbec
bdbc def
fc bcbbd
eebf ebd
dbc eced
bbbcc bcbc
eedee ccc
ebe bcbbbc
ebc efdc
beed debc
bfbc fcc
df bebec
fbcc ff
ef ebba
babca bdbf
ef ebbbbc
bbd bac
ded bedd
ecf bbebe
bedc ebcc
bdebb bbbe
ef fba
bbef ea
dcbc ddc
bebe bcf
bbbd bba
bfc decc
dbbc efc
ebc ecdbe
bcc ebecc
ecebc ccc
fc bebdc
ebf ebfc
bcbbc bbf
a bbecc
bcbc fbe
ef dea
ebe bbbbcc
dbe bcebc
beee bea
ebdc bef
bbdd ba
eeed fbc
febe ecc
fdbb dd
ecbe dbbd
fc bfbd
dec fef
bbbe bfcc
bebf dbd
eeec efc
bcbbbb bbf
bcbd dbf
beed bbcc
bbd eebcc
bbebb fbf
ebf debd
dec ecec
eebc bbebe
debf ccc
dbbc eebd
bccc beec
bbbec ebd
bcbf bdc
ebec eebd
dc bd</w>
fee eecc
ed beeccc
bebe fdd
fdf ff
bebf eeee
eec bcbcc
deec ba
bedc bbec
bebf bbbf
edc ddcc
beebc bec
eecc bedf
bbfc ded
bedee ccc
ebbbc beec
eebe ebbbf
dcc bdcc
ebd eded
fcc bedd
bbbec bdc
eeed bbbe
ef fdcc
becc ddc
ecc beecc
ecbe decc
edcc bdc
bea ccc
bebd def
fed ebcc
ffc fec
bbbbebb bbbc
ecdf ccc
bbc bfdc
edc bddd
dbdc dbc
bbbbbd bbbc
ebd bfdc
bcc e</w>
fbbc bbee
fbbc bdc
deec beec
ea ebcc
bdbe dbec
ffc fbc
bbf bcebe
bbbbc bcbbc
ecbc eccc
dd edbbc
dbb efebb
dd bbccc
ebc bdebc
dcc bbebb
bbbbc bbbbbbc
fcc eedd
ebb fbecc
eec fbbbb
dced dbe
ee ef</w>
eecc beec
fdc def
fc bdbbc
df c</w>
bdbe b</w>
bfc bbebc
ebc febf
bfbc bbcc
bbbec dec
ef ecccc
dd dbfc
bebbc bbec
befc dec
ebb bbb</w>
bdbd ba
ecee fec
dd bfbd
df eebe
bec bbccc
ebd ebecc
beee fec
fa bbbb
dbf ebec
eeef bbbe
bef bebbbb
bbef bcbc
dbcc dec
ecbc dfc
dbbc ddc
ea bcbd
a ecf
dcc cccccc
edee bcbc
bcec fbd
bedd bebc
ecee bbbf
bbd bbba
ebbee bbcc
ebfc bbbc
bcdd dbe
bebf fbd
dc eebef
ebd bdbbc
dee bcebc
ded eeec
fbc bcf
bcbe b</w>
bbd eedbe
fed bbbf
eef dccc
ef eceec
ebc ebbbd
bbebc bbebb
eeebe ea
bbc bbedc
ecee bbbbc
fdc bebd
fbec bec
bebe da
dbd eccc
ed bbbccc
dbd bddc
dfc bbee
fed decc
ebbbc debb
bbbd eeec
bbbbbbbb ebbbbbb
bced dcc
eeee bbbbc
bdbd ddc
dc beded
bdbf ff
fc ecbec
bbbb bcfc
ebd bbbdc
bbbd dbec
bedbb a
dbc febc
bbf bdef
ac becc
bbf bbebd
bdc bcf
ef bdbbbb
fc bbebf
eebc fbe
ecbd debb
dc eeebf
dbc bdcc
bebe dbec
ef eedf
eeee eebbee
ef ebbbd
df edbf
ebec dfc
bdbc bbdc
dcc bbdd
bbbcc dee
eec ebecc
dcbc bfc
debc eedc
fbf efc
bdec ebf
bdec fec
bbc eebcc
ecbe deec
dec bcbf
eecc bccc
bbef bbcc
ffc ecc
bbf bcfc
ebc d</w>
ccc def
bbee bbebd
dd dba
df bbeec
dee bbeec
dec ecdc
ebbee ebbc
df befc
bf fbbbf
ff bcfc
dedc eebc
bbbe fbec
ea eebc
bbbb beebd
ebe bcccc
fc dbecc
debc ebcc
dd ecebc
dcc bebf
ded debd
ddc eeec
ebe fedc
ebd bcbbd
ebec beebb
bedc fcc
dbcc edc
bebbdd cc
beebe bbebe
bba bbcc
df dbdc
bdc dccc
bbed fed
ecec debb
dc bc</w>
ecc edbc
bbbc eccc
fec debd
efcc eec
bbbc fdd
bebd bbdc
bebe dfc
bfbc fbd
fbbbb a
bbbc befc
dbb ebebf
bced def
dec bbebe
bec bdbbc
bbbb beeec
ecc ecbec
ba fdc
bbbe debd
bbfc beec
bebe ecbe
bec dcdc
ebb dbbebe
ddc ecbc
eedc ebf
ebbec bbf
ea bccc
ecc bcbec
eaea eaea
dbbd bef
bfbc dbf
ebe bedbc
bbbe ebfc
bebd bbbbc
bdebb bbc
bd deba
fbbd bbc
dbe bddd
dc fbbec
debc becc
dc fba
dbbbb ff
bebc bcee
ddc debe
eced edc
bbef fec
bfbf ccc
bcbbc a
eec eeebc
dbec debb
ebb bebbebc
ebbc deec
ded bcdc
dee bcdd
eedc efc
bbef efc
ebc bcdee
ebf edbd
ebe beba
bbbbbd dbbbb
bbbd bedc
bebc deec
dbbbe dd
bbbb fbbbc
ebe bbcbd
dbe fdf
bebba cc
fed cccc
beed dbf
dbbd bbec
ebe bcdee
bbee bea
bcef bbc
ebd bcbec
bdc bdbf
ecec ba
febb bbcc
bebf bbec
bfc eeed
bbbd bcebb
eef bfcc
dbec ebec
bbbd eecc
ebbbc fec
fc fdbe
ebc bcbbbe
edbc debb
bebbee bbbe
bbbc beebc
eefc a
ffc dbd
ecc bdebb
bbf eeed
fdbbf cc
bded ded
ef bcbbbe
ebc eebbbe
eebe ebbbbbb
bec bbbbcc
ebf eeed
ebd dbbee
fbc bcdc
bebc debd
ef ecbbd
eddd dee
fc eeecc
bbbf dbbbb
eccc bbcc
edbd bbcdbf
ebcc beed
fbec ff
ebcc def
bcf ebbcc
eef efef
febc bcc
eebebe bebe
dd eedbe
bbbc bbebd
edc ecebb
ebec bedd
bf bedbd
bbee fa
fbd bedc
bcbe bfcc
bedbe ccc
bbd bbebbc
beec ebdc
bba bbbbc
febd bec
ebbbd dbc
edc eeebe
dee bcbbc
bbbf def
febc eec
bbbc beef
bea df
dbb edee
fcc fbf
bcec ecbc
bcc dbbbe
fee bdcc
ddc dbbc
bcbc bbebe
decc eebd
eebbc dbe
fc dfcc
bbdc eebd
bebd dbbbb
beec febb
bba bbec
bbbd bebbc
eba bebe
bbc ebccc
dcc eebe
bebc bdbd
ebcc fbf
bbbd d</w>
ecec efc
bec bcbcc
ecee def
bdc befc
debb bbdd
ecf bbebc
bbebb eeebe
eecc ba
bcbd fcc
eded bbcdbf
bbf ebbebb
bdebb ccc
bec ecdd
ebcc dfc
eec bdbbc
bbc eeeec
dbf dbbc
bcebb dec
ebbec dec
dbd dbcc
bbcc ecbc
ebf bcef
bbef bbef
bcc fbbd
beee eebc
da bfc
bbbc dbcc
bcbc bbdd
beebe ba
ebbc ecbe
ebec ac
eeec dfc
ec eebdcc
fdc ba
dbb ecff
eded a
bbbc dbbbe
ebcc eeee
bbebe bbed
ecdecc cc
bcf decc
fbbc dd
bbd bbdbbbb
df bcebc
bbc debbc
efcc ff
dc eb</w>
ebd bcebd
dcc ecdd
beee efc
ecebb bbf
ecc eeebc
eec eea
dcc fef
ecc bbccc
ebd bdbbbb
debe ea
fc dcec
debb febb
ded dbcc
eec eeccc
bbbf eebc
edbf a
eecc bebd
ed bebbdc
dbf eebc
bcbd bbebb
dc eebbbc
dbbd bfc
bbebf bbbb
bcee bbfc
dbe bcfc
dee bea
dcee bfc
ebec eccc
bbebe ea
eedc ddc
bbbcc ff
ebbcc ebc
bcc ecebe
bbd ecebc
bbebc bebd
ef ebbdc
ebe bbcbbc
bbbf bcebb
beed bcbc
bef dbcc
bbbcbbbc bbbcbbbc
bebbc bbebb
ecebb a
dbc bcbbc
dd bdbe
ecbf bdc
fc beccc
bebc bbfc
bbcc debe
debb beebb
ecc bbebd
ecc bceec
ebbebb a
ebe dcec
eeebb df
eebf ea
ebcc bcec
bdec bcbc
ef ebbed
ef bbcbbc
bec eedbe
beec bbbbc
bbd bcbbbe
bdbc bbdd
ecebb dbe
edc bedbe
fbe dccc
bccc beee
edcc fcc
fecc ebc
bfc befc
bec bac
debc bbbd
bbee ecbd
bfbc fed
bcc bfbf
fbd eebd
ddbd dbc
debb debe
bbbe eeed
efc fbbc
ddc bdbd
fbc bcebb
ebcc debe
bebbc dec
bd eebccc
dbe eef
febd df
ebec bbebe
bbed bbdd
fc bebbbe
efcc a
bcbd fec
bbcc bbdd
decc dbc
bbbbcc ccc
dbe bebcc
ecc ecebe
bcc dcdc
ebbc bbbcc
fbe bddc
febc bbf
eeebe beef
ebc dddd
eeebb bbbd
bddd bbbb
bbc ecfc
bbed bbdc
bdbf bec
bbebc dd
bbbbc dcc
debd edc
eeebb ea
bbd ebbbbc
deec dfc
eced eec
ebf ecbe
eecc beee
eccc fdc
debc dcc
ecc dbbf
dbb efef
bef bcbbc
bef bcef
bebf beebb
bebbd a
bebbbc bbbb
bbd bcebd
dbb ecbdc
dec fdd
bcc ecbbc
dbe eeed
debb dbbc
eecc fdd
ec ebb</w>
debc bcbc
eced dbd
bebe eba
bbbc bcbbbc
ebdc fee
ebdc bebd
bebe eebbbb
eeebb bbebe
ebbbd bbee
bebbbb ebf
edef ccc
bbbf dbbc
bbd eeeec
ea dbec
bbef eeee
edcc dbd
ebb fac
bdc feec
ed bedef
ebbc fdd
fcccc ccc
fbc eeee
edec edc
ef bcedc
bbd ecbbbb
eebc bbdd
bcbd def
fbbd bbbb
fdee ccc
dbc ecbf
bbcc bbbcc
ea dbbc
bdee fee
dd eac
bccc bbbd
ecbd efc
bcbbef cc
bbc bfbd
ecbd fbd
ed bedbbc
dee bcbec
dbb efebe
ea dba
dbc bcf
da bbee
fc dcdd
ebf eba
dbb eddee
bedd fec
eec d</w>
beed dfc
dcbc beee
decc becc
bebe eef
eeec bbdc
fbbd a
bbd bedee
bbf dbbbe
ebb befcc
bcbf bbee
ef deecc
bebe b</w>
bd bcbccc
bbed deec
fbbd ff
ebb fbbbbc
bcc ecee
ebd debbc
decc ebbc
ecec dbf
bced efc
bbbcc beecc
bebbbb beebb
cccc dcc
bbebc bfc
bcdc edc
bec eea
bbec dbbbb
bcbc ac
fdbe ccc
debd bdc
bec bebbf
fbbc ebf
fbbbb bbebb
ecc dbbbe
eec fbdc
fbc bbebe
eebd beec
ecebb fc
bcdd dbc
bbcc dbbc
bf fbbebb
eebbebe cc
ebdc eebc
bdee dbbc
bbbd bedd
fcc bebf
eecc dbf
edbd bbbe
bbd fbdc
dd bebbbe
df bcbec
eddc dcc
bec ecbec
bbf eba
ff edcc
dbec eedc
dbe bebbd
ebfc dec
ddbd dee
bbd ecfc
eebbbe bbbe
bbf bea
dcbc ebf
bbbec beec
ff febc
ebe ebbbc
dbb ebedc
bbebc bdc
eec bfed
fecc fc
bf bbbecc
ebc bdbe
bdbf bbc
edbc dbf
bccc eccc
ecec def
bec beccc
eebf bbbc
eebe bfbf
dcdd ddc
bbbb eeebc
efc eeee
bebd bbdd
edee dbf
bbbbc dbbc
bebebebe bebebebe
ebc dfcc
ecc efdc
debc debc
fbc bcee
bdbbbb bdbbbb
bbed eecc
fcc bbbf
ffc bef
dbe dccc
ebd bfbf
bcbc eeec
ebbc eedd
fbd fbe
dcbd dbc
dd bddf
bbfc bbee
bbbcc bdc
bcdc ddc
ecc bfdc
df d</w>
bec ecf
beee eebeee
eebd eebd
ecc eebec
bbbe eedc
fdf a
ebbed dee
eeec eeee
bbc fedc
ed fdef
eebbc bbbc
ebbbd ccc
ed fbbebb
ecc ecccc
dbec fee
ebbc bcbbc
bbed b</w>
bf eeba
ecbd fec
ebd dced
bcc fccc
bebbc bdc
bfec fec
bbd fdbc
bc dbb</w>
eebe ebbee
efef efef
ff eedc
ebec febb
dd eeecc
bdbd bbdd
eddd edc
eec ebbebb
ded ac
bec bbedc
df bebbbb
dec dccc
debc fed
ebec fdc
febd a
bebc ffc
ecdd ddc
bfc dedc
becc febb
bcc fbbf
dbec edc
ded fbe
fbf bccc
fc bedbc
edbf edbf
dbe dbbf
bbebc ebf
dec bcdd
bebec bbbe
ecbbc dee
ebe dba
dcbc bbec
ebe bcff
da fcc
bebc bbbec
bcebb bbebb
dbb edbcc
febc fbc
bbc bdbe
ebdc debb
bcc eebec
dbe dbbbe
febe dbc
eebd fee
eeed bbcc
dc fbbcc
bbf ecebb
da ddc
bcc d</w>
bbf bebbbe
fbd bbebb
fbd bbdc
bedd fbc
bebc bcbf
bcbd efc
fdd ebf
def ac
eedd dcc
bb ebf</w>
ecdc fcc
ebd eea
bcbbbb bbcc
bfbc dcc
bccbcc bccbcc
debc beec
bcee fed
bbc bcecc
eccc bcec
ecc fbdc
bbbbc eebc
becc eeec
eec bedcc
ebbc debd
bef befc
ebbec bbbc
bebbbb bbebe
fdbbbb cc
dec bded
beebb bfc
becc beed
dd eeccc
ebc bcbbf
bebbc bcbc
ebc eeccc
fbd eedc
ecbd beee
edc ebbcc
dfc dbf
dbbd bbed
bedc bcbc
efcc df
edbc ecbc
ea beed
bbbf bccc
bdec debb
ba ebcc
ecc bea
ebf bebbbe
dbbd bbdc
dbc c</w>
ebdc beee
bbecc a
bbfc bcbc
eec bfbd
eeebe eebf
bfbc bbebb
fbcc df
ebe bdbbd
ebe eedbe
ebeebb a
eecc eddc
eef bbebf
fec bced
dbbd fbc
fbcc a
ebe dcebc
bbbe ebbcc
eccc fee
ee bbeac
bbeba cc
dee bedd
bebe dbcc
dee bbebd
ecc debf
eeebb eebf
eec bbccc
eced ded
ebd bebbf
dcec bdc
eeebb bbec
ecc eba
bdcc bbbb
bebbd ccc
fdc bbee
bebd dfc
fbf bbebb
bbebc eebc
fc bcebd
edbc bbed
eef bfef
ecbc eebd
ebd eebbd
bebd bcbd
ebec deec
bbc ebbed
fbe ebbebe
fef bbbc
eeee bcbd
fbf ea
eec bebbf
eedc eebc
ff bfcc
ecbd debe
eebe bbebd
beebb bcbc
eebbee eeee
dbc beef
bdbd bef
bcbe decc
edbc ebcc
bec fbbf
bdc bfcc
ebc bbebbc
ebc debec
bcbe bbbbbbbb
bbf ebbcc
fc fdbc
bcc ddcc
bbf eeef
dcc ecbe
ebe bbcbbbb
dbd bcdc
bbbcc bbbbc
ef fbfc
bbdc dbf
bfc debd
ecf dbbbb
ebe beedc
bcbf dec
bdbf dbe
ebdc eebd
bbec beebe
becc ecdc
bec fbdc
bbbd ecbc
fed dbbc
eeec eebcbedf
dbbd bbebb
beec bebbc
ef dfcc
ebeebb eeee
df bcdf
bedc ebec
def beee
eccc ebcc
fc dded
eec fccc
eeebb bdc
dee eedc
dedc dbe
bdf bbebc
bf bbebcc
ef eebef
ebd fbdc
dbc edbd
dee bdebb
bcbf bef
bbc bedee
ebe ecbbd
bbbc bbeec
ebbc beef
def becc
eedd ddc
bf ebfcc
df beebc
bbbc bdbbbb
dbec ebf
bbbb bfebb
cccc dd
dbbbe bbee
fbf eeee
bdcc dbe
eec fdf
bbed bcbd
ff bcbbc
dee bddc
dbd eeed
ebe fdee
bba ea
eebebe beee
dbc befc
dcec bef
bbdd bef
eebf fcc
bd dbb</w>
ebc eebbf
deec fbc
ebbc bcdc
bdbd dbbbb
bbbe ebbebe
dd fbbbe
bbbbc edc
fec fa
edcc ded
dc dbbbd
ebc beff
bbbf bebbc
ecbf bec
a eddc
ebc ecbbbb
debe ebcc
bfcbbefbedddcbbdfddeecfdcecddbccffcecebebdbbbe ddddbebeecebc
bcbf fcc
dcbc fbc
bcebb bbec
bedecc cc
bbee eeef
dbb fcdc
ecf efcc
bdee ecbc
ccc ebec
ecebc ddbd
dcee dbf
fbba cc
ef eeccc
dcc bcdd
bbbf bcbd
dbd ecbd
edbc fed
bd debbcc
beed ebcc
dc bbebec
fbbc ebd
df ecdf
ef dddc
bbebb dbbc
fef ea
deec fed
ef bdbbd
df bdef
bcbf bebc
bdbc becc
ef ececc
bcc eba
fc eedf
bced bbbe
dc beebbc
ebe bcbebe
eec eedbe
ff dbbbb
fec bdbd
fee bea
dc bedbf
beee ebec
bdee ac
bbd bebdc
bbfc bebe
ebb fbccc
bbbb eeef
bec bcbbd
bced bbbc
eebbebc cc
bbee bcbbc
bec beedc
ebfc ebf
bbef edc
fbbc bef
bec ecbcc
dcc febe
bebbbb bbcc
dc be</w>
ebd bceec
bbc bcbbf
ded dbbbb
ddc c</w>
debd bebe
ebb bedbbbb
bec ebbbf
ff eba
beebe ecc
ebd ecbec
dbc bded
bccc becc
ebb bebbbbbbbb
dee bcfc
ded bebf
eeed bfc
debd bcc
acc ccc
bbbe eebbbe
bbf eebbbb
bebc bbbcc
ebd bdebe
efc bcdc
a bbbbbbbb
bbcc ac
bebd bebf
bbbe dbbf
fbec bcc
bec dbfc
bebd fdc
ebbed ccc
dec bbfc
dc bebbbd
fbe ebeebe
bbbf fed
becc dbf
eddd dbd
bbebd bebc
debb bedc
ebc bffc
beee bcec
bdf deec
fbbd ccc
ecc bdef
ebd bdef
dbc bbbcc
ef eda
fcc ac
fc ecbcc
bced ddc
eebbc bcc
decc ecbc
bbbec bef
bbbec fbc
edec bbf
eebd ea
ed dbbfc
fbd da
ebdc dbf
bdcc dcc
eeee bbdc
eebc beebb
dac da
ff bcdd
dbcc bbf
ebbcc bbbb
edec fbc
bfc bcebb
bec dced
bcbbebc cc
bbebe beec
dcbc bbbd
ba bcebb
bbec fdc
ebec fbf
bebbc bbcc
dbe bea
ebc dcec
bfc bcf
bdbc b</w>
bded bbf
bebc febc
eedc bbbc
fbe edbd
bba bca
bbee bbbcc
febe dd
ebbec dbc
fc bdebe
dec bcbe
fec beebb
dbbbe a
ef fdbd
beebc a
bbdbd bbbd
ebbbc fcc
ebc ecdee
debe bbebb
dbbbb bef
ebe dcef
bcdc bbbb
febd ccc
eccc fed
ecbc debc
bbebc ecc
bcee bbef
febb dcc
edbc eebc
ebcc bcbd
ebd bbbbbbbb
eebf dbc
dbd dbdc
bbcc bcec
bba beee
d ea</w>
ded d</w>
bdc bbbcc
ff eeebb
ff fbec
bbbbc bebbc
eebe bfcc
fdd fee
ecdd a
bbee bdebb
bdec bbbd
df fbbf
edc ebecc
ddc dccc
bebbd bbbe
bbec bbfc
fdc bedc
dd eceec
bcef dee
bbbbc bbdd
ecbc fbf
fec fecc
eebbbb bebe
ddc ea
ebf bea
eecc debb
bec bebdc
dfc bbbd
da bbbd
bd bbeccc
bbc ecbbbb
ecbc bebf
bcc fedc
fcc beed
dbcc bbbe
dbec eebc
fa dbc
cccc dee
eebe ebeef
dbe bbecc
dbbd bebd
eeee dbf
ebdc beec
ecf bbbec
ebc ececc
efbd ccc
dfc ba
dbbd fee
df efcc
bdbc dbbc
bbcc bebf
ddc deec
ebb bebccc
bbec bebbbb
edc bedf
ddc decc
bcbf dbd
bbbbbbc bbbc
ebb deccc
bec bceec
ff bddc
bbd edebb
bccc ebbc
ecbe bfcc
dedc eccc
febb bcbc
ef debcc
fcc febc
debc bedc
ebf fbcc
ea becc
bbbf bbdc
ecc bedee
eec bbbdc
bbbbc bbebc
bccc eecc
bdec def
ebd dcdd
ffc bebc
bec bcecc
ebfc fbc
beef bdc
bced fbc
bcbd debe
dbbd bbcc
eec fbbd
dcc ecec
bbef dbf
ebc bedbb
fa bdc
edee fee
fcc bbed
efc bebbc
eced bbbb
eddc dee
bebec df
ecc bcecc
bcbc bcbcc
dd fdcc
bec bfbf
debb dbbbb
bddbe bbee
ba beed
bdbf bbf
dedc fec
eeef beef
bcdd a
ecee dbcc
ed bedebe
bbbc ecebb
ebbec bebc
eedc fbd
edee bebc
ebc beedc
dbbc debe
ebdc becc
dded dee
bcebb dbc
fbec fc
bbbe bebbee
bfbd dbe
bebe bebbee
dabca bdbf
bec bdef
ecc eebbbb
febe fbc
ebbec bbec
ebbc bbebd
ebbbc fbd
bbebb fbbbb
debd bbf
bdee bbbbc
fdf fc
ef bcbdc
bbbb bca
bbbb dddd
bbc bbbfc
dbec fed
dbbbc ccc
ec bf</w>
bebe fbbbb
bebe bcebc
fcc bcec
ecbd bbbd
bbd fedc
beebb bebf
bedc bbee
ebb fbbebe
ef bbbbcc
ebd ecfc
beebb eebf
dbb ecdec
ded beecc
bbbc bebbbe
bcbc bcdc
eea ccc
edc eded
ebcc ffc
dec bdcc
ebbee bfc
bbbb bac
bbbe bbebbc
bbdc beed
bbbb e</w>
bcc ebccc
ebc bfbbc
dcbc beec
ebbc bcf
dbf febb
dbd bbebe
bdbc dbbbb
ebcc debc
eef bfbf
dee bbbcc
bcbc debc
bbfa bba
fdd eebc
ebeebe eeee
bcc ebbebb
fbe ecebb
eebd bbebb
bdf bbbec
bbee bbbbbbbb
eddc eec
df ebbcc
dbe ebfc
dbd bcee
edbd bbf
df bdebb
ebcc ac
ebe bcedc
ff ecbf
fbe bdef
bdec becc
ecc dced
bbbe bcbbbe
eecc fee
bbbb eedd
beec bbebe
dbec becc
ecef dd
ebbbd bbd
eef ebfc
fbbc dec
dccc fc
eeebe bbebe
dcc bcee
ddc bbdc
beee da
bcbd bebd
dc ebfcc
bcc bca
ed bebbbbc
ebe bddf
bbc bbba
ebd fccc
dbe fbbbb
dedc eedc
ecee ebec
eebd debe
bebe ebbbbbb
bced debb
efcbbebd eecbf
bbfc fee
edec ded
dbd bbef
ea bdbf
bec bbbbbbbb
bbee bdcc
ebcc bbdc
dbe e</w>
dee fef
bbbbc dbf
fbd ffc
eccecc eccecc
bbeec ded
bdee bbbf
bbc dddd
bbc bcdbe
ebd eeebc
bbed dfc
fbd ecbc
ebcc fdd
bba bbbf
ebb bedbbc
bcc ecf
deec bbec
beed fee
bfbc bebd
bd bbd</w>
bbebd bbf
dc db</w>
bbd dced
bced edc
eddc dbc
bebbbb ebbc
ea cccc
bcf bbecc
febb bbbf
bbbb bdbe
bebec a
bfc bcee
dec bbef
bbd bbbbcc
fed eebc
bdf dbbd
eef dbdc
bbee beebc
ed dc</w>
ebec da
ebcc eeed
dd debbc
bfc bcdc
bdbd bcbc
bedd becc
bec bbebf
bbed bebf
ff dbdc
dee bebcc
bf bebbbf
ef bcdbc
bf eefbe
ef ebebf
fbe e</w>
deec ddc
bd bebdcc
ff dbbd
eeec ecbc
bdf b</w>
bfcc edc
beee ebdc
ecdc ebe
ebbbf bbf
ebc bbbbbbc
dbe dbdc
dee befc
eba bbbd
bbd bedbc
debc debe
ef bcdee
bdc bba
eba dd
bdee bbdc
bebc beebe
dbb ebedd
fbe ecec
bcbbc fc
bbbec bcbc
eeec dbec
dee bebbbb
ebbbc ebec
bbebb fcc
ec ef</w>
bbbb fdf
eeebb fbc
ebc bcccc
bbbc ebbebb
eeee beec
fa dcc
fdc bbec
bdee dbec
bebc eebf
fdc ebec
ebbee dbf
bcbccc ccc
bc ef</w>
bdf debd
eddc a
bbdd bebd
dbcc dcc
bfc eedd
eccc ebbc
bbebc debb
ebcc eedd
ecdd fbc
bbc eeecc
ba eebd
bdbd fbc
ed fdfc
eeebe bebf
dec eeed
bec defc
bfec fbc
bbbc bdcc
bbc fccc
bf bedcc
ebc ebbebe
bbd bdfc
fbd bcbd
bcf debd
fc ecdf
fbe bbebf
bbd bbbbebb
df eddd
beed ebf
eef e</w>
bfbc debb
bbd bdbec
dcbc fec
ebfc eec
dbbf bbbe
bda a
bdbc ea
bdf bba
ebe bfbbbb
bbebb dcc
ef dbbcc
beee dbbbb
bbed bcec
eebc edcc
fdd becc
ed beeecc
ebb bebbdc
edc e</w>
ef eddf
ecc fdbc
bef debd
ba bcec
edec ebd
ecbc bedc
fef dec
fecc ff
eebc bbfc
dbbc def
dd fdbd
fdc debc
dd bdfc
dbe fbec
beec debd
beebb debb
ebfc bdc
bddc dbd
bcc bbbdc
ebbc da
bbcc bbebe
dbec bbee
febb fec
bebf becc
edec bbbe
debe fee
ed dbba
bbed bbebe
bdbd dcc
bedd eecc
bbc bedbc
ecbc bbdc
bdbe dbbd
decc cccc
fc eddd
eeebb beef
fc bfebb
ebf bdbf
edc bbebc
ebc bbbfc
ebb bbebdc
fed beee
bec eeecc
debe bccc
bbdd fee
bbd eeecc
bcbe ebbebb
ebe bffc
bbbf bcbf
bbc fbbbc
ecec fbd
bdcc bdcc
ccc bcec
fbbf a
bef eedc
fc eebec
dbf bbdc
deec bbbe
decc ebcc
bdec fee
bbd ebccc
edbc bebd
dcbc efc
df eebbc
fdd bebe
fc dbbee
ef bbea
ebc bbcbbc
ebd ebccc
ebb fbbef
ebbed dbe
fbe ebbcc
deec efc
bddc dee
ecbc eeee
ee decccc
bec bdbc
bbbd dbbbe
bfc bdbd
edee bbec
eedd ded
bec d</w>
bdcc dbd
bbd bfebb
bbbf ac
dfc bbcc
ed fbbed
bebc fbbc
bdf dbcc
edec bbbc
bbbbbbbb bbcbbbb
dddd dcc
ebbc fef
ebc eebdc
dbc bba
ebec bebf
bddc eec
ecc bdbc
dec bcf
bcee ecbd
deec bebd
bcc ecfc
dbf bcec
bdbbbb dbbbb
bcc eedbe
bcbc dbbbb
ecdd dbe
fbbbb bbbf
decc ecdc
ecee bebd
dcc ecbf
bebc dbec
eecc bedc
ebf bcfc
bef dbbd
dfc bebe
dc bbcbbbb
bbd bcdf
bebc dbbbb
bcbbc df
beebc bbf
ebf bebec
bbdd bbed
bbc bb</w>
ecc ecdee
eecc ac
dcee ded
bbdc fcc
bbc bfef
febe bbbc
ebe eedf
bbebb bba
bbef fbf
bec fccc
bbebd dbe
a fbbd
dbc bddd
ba bebbc
fbe bbecc
beebe eeebb
bf fdbbc
bbef fbd
ecc bcdf
dd bcbcc
dcbd eec
bec edbf
debe debb
ebd fbbf
beee fa
bfec bbbc
bcbc bcebb
bfec dcc
bbec ac
a fea
ebb bbebbbbbb
bfc fdd
bdec ebbc
bced bbee
dcee beec
eebbc dbc
bc a</w>
bbd fdee
fec fef
dbbc ebec
ff e</w>
fee eebe
bbed ecbc
ebe bbea
ecbe bba
bbbec bbbec
eedc bbbe
bbd bcbbbc
dc bbfcc
beef bbbc
bbc bdfc
bbebb beed
eeed bbbd
bbbbc b</w>
eebf dbe
dccc dec
bdbe bbfc
da bfa
bfbc becc
dbb ecccc
eedd fcc
bcbbc dee
fbf ddc
bbebc fbc
bbebb eebbbb
eef dbbf
bec bdebc
eeda cc
ebe dcdd
ebbc dbbd
ebcc bbebe
bef bded
fbbc bbec
bbf bca
dbb ecbbbc
ebbbc dbf
bcbe ebfc
eeebb dbd
ffc bcbc
befc bcc
ebbee fbc
bbebb ecbc
bcec dedc
dd efdc
beee bdcc
bccc ccccccc
efc fecc
bccc ba
bbee bded
edbd dcc
edc eebcc
dcbc bbcc
bbed dbbd
ebb bebba
dfc becc
bedbb fc
bd cccccc
ebf bcebc
ebbec bebe
bbbf fdc
debe ded
febc dec
edc debf
eec deecc
ebbc fbec
bebd debd
bbef bbebe
beed def
eced ddc
bedf ccc
debe ddc
ecdd dbd
eec beedc
bbbb ebebbbb
ebe edebb
ebd dbfc
bcdc bbf
febe dbe
ebc eeeec
fbbc dbd
ff bbbec
a feec
ebe efebb
ff bedd
ecebb bcc
a bfbf
bbee ebbbbbb
fee eccc
bbee bcf
eba bcc
ecbbc bbc
dcc eddc
dbbbe bbbd
dbcc ef
bbd febf
eec bcbbd
edc eeef
bedc ba
eebd dbbc
bbdd dbf
bbbbc becc
dcc dedc
bef beebc
efcc fc
ebd eedbe
ff decc
ed bbb</w>
dc dbdcc
bcbc b</w>
fbbc bebc
eeebe ba
bdc febd
bbbc bcdd
fee debc
bbfc bbbd
edcc bbbe
ebd fdbc
ebf fdf
bdc bcbbc
febb ea
dee fa
bbef fcc
eedd fec
ded bebbc
beebb bebd
dc dbbdd
ecc ececc
ebe bcdbc
ebc bedbd
ecbf bbbb
bdbd bebd
ebc eeebd
dee bcef
bdbd debb
dcdc df
ebf decc
bedc fbd
eebbc dd
febb fbd
eebf ba
dcbc bbed
bd bbcccc
febe ba
ebe dbbcc
bbc eedf
fc efdc
dbcc bebe
a eebbbb
dbbc fbd
ecee fbe
bbccc bcc
eebbee bebe
def fdc
eec ecbcc
bfbd bebc
febb dbf
bdbd b</w>
bea bbbe
beebb eebc
eedc bbec
bbbbbbc bbbbbbc
eec debcc
ebe bcbdc
efcc edc
dc ebeebe
bbbc bbbbcc
bbeec bbbe
bec deecc
efc bced
bfec ba
bddd df
dd acc
ea bbbbc
eeec da
bcbc bedc
ebb bbbbbbbbbbbbbbbb
eeec bbed
fcc ecdc
bdbe bba
deec debc
bbfc ebbc
ac dfc
bbef fbe
ffc bbbb
dbb efbbc
bcbc bbbcc
ebbcc ecc
ebb db</w>
dced ded
dc fbbbd
fec bcdc
eeec bbebb
ffc bbbc
bcdd dec
ecbd bbec
a fecc
dd bda
bcc eedf
bbbbbbbb bbbbbbd
dc bebbcc
edc beebc
dee febc
ac fbd
efc fa
eecc bbed
bdbbd bbbb
ecbe ebbebb
eea beee
bbcc eeed
ef bcbbbc
fec fbf
bcc debf
bdee def
febe dcc
ebbcc dbe
ebbbc debe
bdec fcc
ebbebe bbbb
ebec bbdd
ebd bebbee
bebc decc
bced dbf
fed fdc
eeef eeef
eebbc fc
bbebe bccc
dee dcdc
bdf ebfc
ebb beebcc
bbc bcebd
bef bedd
eeec decc
ef aa
ebd ecf
ea eca
eebe ebeebb
bbef dcc
ef bbdcc
eebbbb bbf
efc dbcc
fbe ecbbc
bcbbc dbe
eec bfbf
ebbc edbd
dcbc def
bdbf bcc
eebbebb fed
ff bea
eeec eccc
bbbe ebbbf
dee beef
ebd dddc
edc fdf
ffc fee
a eac
ebbc eeebb
dec dbdc
bbdc fed
eedc eccc
bbbbc bebf
bec bca
bbebd bbbc
eeddc edbbc
bcbbc bbcc
ebf fbec
efc eedd
dbbc bbbf
ebbee ddc
bbc ddcc
edc bba
beec bcec
bbeec dbe
bbbd bcec
bbbd debd
fec bcbf
ebdc ebdc
a bebcc
bebe fa
bebc da
dbbbe ccc
ee a</w>
bbebe becc
bcbd fbd
ebe bdeec
dfc fbd
bdc ecebb
dd bebbf
ebe eeba
bbcc febb
bded bcc
dfc ebec
bebbc bfc
ac bebd
ff dbbf
dedc fc
beee bcebb
eeef ba
bec eebec
bebe bebec
bebc fdd
bbebe eeebb
edc c</w>
ebbbbbb bebbbb
dc fbeee
ebc eceec
bbbbbbbb bdbbbb
efed ccc
ddc bedc
ecbd fee
bceec df
bbef beebb
eba dbe
bfbd dee
ebe dcebe
dbb ebeed
bdc fbcc
bcebe bbbc
ff c</w>
bddc dbc
beef dbc
a eedd
debb debc
eebd fed
ecbc fbe
bbdc bbdd
bbf fdbe
bbee dbcc
ebbc bba
ebbc edcc
dec dbbbb
eebf bfc
fbbbe bbbe
bbc bebdc
ecbc bbbbc
ebb dbbdc
ecee da
ebbc dbcc
fbf becc
edc bebcc
bdc fdf
bdc beebc
fbc eeed
debb eeee
febe bec
bbd bdebc
bbed da
ebbee bba
bbc bbbbebb
ecc bcbcc
bbebb bdbd
eebd eccc
eedbbbb cc
ef f</w>
bbf bbecc
eec eeecc
f deb</w>
bcdc ebd
ecdc bbbe
eedc becc
edbc def
ebe dddd
ba bebbbb
bded fc
bbee deec
ebec bcbf
ebdc bcbc
bebf fec
ecee efc
ecbbc bbbb
fbc eedd
bcbd eebc
ebbc eebe
ebec decc
bbcc bcbf
bbbbbbbc bbbb
ebf beebc
ebc bdbec
debe dbbc
edc bdbf
dbd bebbc
beee beed
fee fed
bedc bef
bcee bbbec
bd bf</w>
bcc ecbec
dbe eddc
ef fea
bbebd eec
fbbc ecc
debc eccc
fbc debd
fbbbb ccc
bbc fdbc
bddd bdc
dbc ecdd
bbcc b</w>
beef beef
edbc beec
bbc eebbd
ebf bfbf
ebbc bebec
ac beed
bcfc ff
bfc febc
bbec da
ebf fbbf
ea eebf
eebc bdbd
dd bedee
beebe bebf
fcc fef
eebbc bbbd
ebc fbbbc
eba bbf
efc eeed
eeec bbbbc
ebd bac
deec bebe
bcbbbb bbd
ebd eac
dbbbb bebd
dccc ddc
bcee ebdc
dbbd edc
ef ebeebb
ebc bfdd
bbbf ddc
bdc eded
bcf bfbf
a bcbec
dee dced
ccc eeee
dbf dfc
dec bebcc
efc befc
fdd bbbb
ef edebb
bbc bebbee
eef ebeebe
df bbecc
bcbc fef
fec dbcc
ecbd bbcc
df ecbec
bdc bebbbb
bfc eeebb
bdec beee
fed dbec
eecc bcec
beec eccc
ed bbeccc
ba bbebc
eec eebbbb
dbd bded
dbf bbbbc
ed bbebdc
dd eeeec
bbdd fbd
ff fccc
bef bdbf
bbbf bbbec
bbf bcbec
ded bcebb
debb eedc
ecbe dbbf
eec efdc
deec ea
bedc eedc
bfc bbbec
ccc fdc
dc bbbbbd
ecbe bbbcc
dcec ddc
edc edbf
bcbc fdc
eebc debd
eddd dbc
ef ddbd
dcc dbec
bedd bbbd
bfc dbcc
bcbbc dbc
febb fcc
eeee fa
ecbe b</w>
bfbd fc
ef ebbee
eec dbbee
ebf dbbf
bdc d</w>
beee ebeebe
fbbd bec
ebe ebbdc
bf beea
bebbc fbc
bbc ebbbd
edee ebbc
bcc bdbc
eec ecebc
bbbc debd
bbbc bcebe
dbbd efc
bcbbbb bebe
bbec dedc
def ecbc
ecf dccc
beed fbd
dbd ffc
bbbe dbbbc
bcbbc bebe
ec febbcc
fec fbe
ebc dded
fbf ded
bcbbbe bbbb
bbbd bced
def debb
fbbbb bebe
ea b</w>
dbbd ebbc
bbdc ebcc
fbc bcbe
bccc fbd
eec eac
bdc eebbc
bcebb bbee
bf dbbbbc
bdbd ecc
edbc becc
bbbe fbcc
dd eebbd
bbdd bddd
dee eba
ebb bbeecc
dd bfdd
bfc ecbd
bea ff
eebd beee
bedd bebe
fee bced
bedc debc
bcc ecebc
dfc debb
fec eeec
bcef bbf
ecdf ecc
eebeee bebe
deec ebcc
fa ecc
eddc fbc
fcc debe
eebeee bbee
bec dbbee
bdcc dec
bedbbf cc
bbd fbbbc
bbbcc bbee
dd bbedc
fdd bebc
dcbd fc
da bef
ecee dccc
a ecdd
bcbc febb
bcf eba
bbc bfbbc
a fdbe
fee bcdc
bbebd ff
bf eeedc
df ecbbc
ebf ebbcc
da ded
dcbd ded
bccc fed
dcc bbef
dcec def
bbbe bbbdc
dd ebbed
ebc bcbbbc
ebbbc bbebe
bbbf debe
dbbbb ebbc
eedbb ccc
ea eeebe
febe edc
bdec ba
ea bbdc
bcc beecc
bcee bbecc
bbc bfebb
ebf b</w>
bfc ebfc
fbbc bbbd
bbcc eccc
fbe dbbbe
fbbd fc
edbc ba
ebec bebbc
bcf efcc
dbd bcdd
becc debe
ebcc bbbbc
dcbd bec
bbec decc
bbec bcbf
dcee bebc
efc bbdd
eec dcdd
ea eeebb
fbc bbdd
dbccc ccc
fbf fef
bebf bebd
ecbe edbf
bebbd bec
bbcc ffc
debb bcec
becc ac
fbf fdc
ecbc ac
dbb effc
fec febc
dbdc dec
bcc dbbbc
bebbd bbf
bbc fbdc
eec eebbd
dcec edc
ed fbbdc
ddc debc
edbd bbd
bbbbcc bbbb
fec bebbc
beed eebc
ff fbbbb
dbf ebcc
bbebc edc
bdbe eccc
dbe eba
ea bced
eeee beebf
ddc bedd
dcc bbbbc
a acc
fbc fa
ecc fbbbb
fbc eebf
bedf fc
ebbec ebd
bbbd dfc
dcec bbf
edbc bbebb
edbc debe
bfec bbbe
ba bced
bcbc bebbc
eecc ecbd
bbbec dbd
edbc ebec
bfec dbd
fbe c</w>
bebbbe bbbc
dcec deec
ef edbec
dc beba
ebbc decc
dcc dbcc
fed debe
eedc ebec
bbeec bbbc
bdbe ebdc
df eeef
bdf decc
df bbebd
ea bcbf
fec bbbbc
cccc fc
fbe dbdc
bcec dfc
edcc bbf
bcef bcc
edbc bbbf
bbec bcbe
ebbcc bbf
ebd beeec
ebbee bbbbc
fbbbe bbbb
dc ebba
bfcc ebc
efc ecdc
ecc dcdd
fbc ecbd
ebe bcbbee
bfbc ebec
eec bdef
bcbc bcee
eebc fdd
fbd bebf
eebc eedd
beed debe
bbec ffc
dc bbea
bded bdc
f dbe</w>
ecc ecdbe
fbc decc
fbd febc
bbeec bebe
bbebb bccc
dcbc debb
ebe bfa
bedd bbf
bec eeef
eebe eddc
def bcbd
ecbc beebb
eced bbbc
dcec ebd
bbebc bef
ebbcc ebd
bd dbbbdc
ecc ecbcc
dbec bedc
fdc beee
dd dcbf
bbed bdbd
eeec febb
bddd a
ebbebe bbee
edc ecef
dee d</w>
ebc dddc
dbc bebbbb
dbbc becc
dc bbdbd
fc ecebe
bdc eeebe
bcbc bced
eca a
fbc bebbc
ebcc bbef
ebbee beec
bedd bbbc
ebe ecdbe
ded bbbbc
bbeec bcc
ecbf dbd
ef edebc
eeebb bebc
fbbf bebbeccc
eedebd cc
edbd ddc
bf eedee
df bca
dbb dcdf
ecda cc
bbd eebbbe
beed deec
bdec efc
dd bcebd
ecbc eedc
fef fcc
df bceec
fbec bbbb
dbc d</w>
bbfc fec
fdd fcc
ebc ecbbd
ebbebe bbbe
dbe ebbebb
fbbbb bbee
ccc debb
bbebc dbd
dbdc bdc
eded bcc
bbfc bbcc
debd bbbe
bfcc bbf
dbbc bcbd
bbbc dbbbc
ebbc befc
def bbed
eeec ac
bcbf edc
edcc fec
ba dfc
bbbd bbbcc
ebe bebbbd
dbc bdbf
ded dccc
ebf bcebe
dcbd dec
eea ff
beec bbdd
fdd fed
dcdc dee
fbc befc
debc dbf
eeec bbbf
a ecbbc
fc bcccc
bedbb bcc
debc ebec
bdee ebec
bef eeed
ebdc bbcc
bdbc fbe
ebe bedee
eec bcdf
bdbd beee
dbe bceec
debb fbf
bfbc beee
ecc eeecc
dd bcecc
dbd eebf
edcc bebe
bbee b</w>
fc bfdd
bef bdebb
bbbd fdc
fbc febe
bbcbbc bbbb
dbc bebec
bbfc ba
eebc edbd
febb beebb
fee beed
dbe ecbec
dbe bebbbe
fa bea
fdbe a
ebe dcebb
fcc dedc
fc ebbebb
bec bcebd
bbf ecdc
ea fdc
bbebb bcec
bded bbbb
dd bcdbe
eebe efef
bbbe bddc
ebcc bebf
bcbe dbbf
ebc edbec
fee bdbd
eef bbebd
bbbec ebf
ebe ececc
bbd bebbee
bdc dbbbe
bcf b</w>
debe bebd
dbec ddc
fbc ecdc
fee ebec
bfc bfcc
bebc eeed
ebbc bbbbbbbb
eeee fcc
ecec eecc
dbb ecbebe
ed bebbebe
becc ffc
fc f</w>
bbed eebd
bbbcc ebd
bebbc bef
ebbcc dee
bfc fbec
bbee bcdc
becc bcec
bedd eebc
ecdd dec
ecdebd cc
ded dbbd
bdbc eecc
beebb fbd
ded fbf
edbd bbbc
dccc edc
bbd edbbc
bdebb bbbc
ebe bb</w>
dbe bcbbbb
becc bbdc
ebc debcc
dfc bbbf
bcbbbc bbbb
dbec bbbd
deec deec
ecef bcc
bbef bebf
bcbd ebec
dd beccc
ecc eddf
ccc bebd
dbbf dbc
fbc bdbd
beebc df
eebbc dee
ecbc ea
edbc eecc
ecec bebd
dbb dcbcc
fdd fbd
bfc bdcc
debb bcebb
ecec ef
bddc df
def cccc
fc ebbbf
dc bbbbebb
ffc fcc
fa fee
ebdc fed
ebbbd ff
bbdd fec
dc fea
ebbc bcbbbb
debc ba
beebb bebbbb
ecf bbbcc
bcef bec
bbd bcdbe
bbfc bbebb
ebc bedcc
bfc dbbbb
bcbc eeed
ecf ebfc
bfec bebe
fecc edc
beebe dbc
dc fac
eedc bbee
bea bbf
ebc beebf
ebc bcdbc
fa bda
fc fbbbe
bebec dee
ebc eedbc
bdbe dbcc
edbc eccc
ebbebb beee
dbfc df
fcc eddc
debb bdbd
bbebe dec
fc eebbbb
edbd bbbd
bd fcccc
ebb bebbbec
efc eeebb
bcbbc bbbd
fed bccc
bba ebf
bdbf bdc
bfbf bbf
fc bcff
eebebe eeee
bf dbbbd
bbc bdbec
ebe acc
edc bbbec
bbcc bbef
eddd fbc
fef fbf
bbd dcbf
dbec dbec
febc bbbb
bea dbc
dc dbbbbc
dbb dcee
fbe ebbbf
bec ecbbbb
ea eeef
def bcec
eebe dccc
ebec bbbec
bba bebc
bbebd dee
bec bebbbc
ebbc ecdc
befc bbf
ebbbbbb bbf
ddc bced
beed dbbc
bcbc bbebc
ecc bfed
bbd bcdbc
dbb efed
bbec fbbc
ebc edebb
ecbd dbf
bddc a
bebd b</w>
ecbd beec
bd fbdcc
fc fbbbc
ecc eebbd
ecc dfcc
dedc ef
dbe fbcc
bbec eccc
bcebe bbbe
ebd defc
bfbd eec
beed fed
ebc bbbbcc
eebbc bebe
fc fbfc
ddc bcdc
bdee dfc
bfdc df
bcc bfed
dec bbbec
bcbe edbd
bbebb bbbcc
eedc ecbc
bcebb bcbc
ebe eeccc
dec beebe
bdbc ecbc
edc eedbe
ded bbebc
bbbb edbf
ebb dbbef
ebc ebbebc
bbd fbebe
ff bdef
ddc eeed
eebe ebfc
edec fcc
dc fdef
ebf efcc
eddc dbe
ebbec bbee
bdc fbbd
ebbbc eebc
ff eeec
dec dbbd
dec dcdc
ded bded
dbc beebc
dded df
dd ebbbf
bced ef
ebf bebcc
dbd fef
ddc d</w>
eec ecbec
debb fbe
eedc bebe
ebe fdcc
febc dee
fedc df
bbc febf
ea fed
bd ebb</w>
bec fdbe
dbb efa
fee bcee
ddc bbbf
ac eeee
ac bccc
bcbf dbf
ff bbbcc
efc bdcc
ac debe
bdec bebd
beee bbbec
eddd a
ff bcebc
eef bbeec
dd deecc
beee eecc
edbd fbd
ec bbebecc
bebc dedc
bfec bef
ddc ffc
bbbe fbbbe
bebbd bbbc
fee bedc
ecdd bdc
ba dea
bbebb fed
bbbe ecec
dbc dbdc
ebdc fdc
beed da
eebbc df
eddc df
ddbd bdc
eeee ebbebe
bcebe bcc
bbee bcbbbb
eddd df
bec dbecc
bbbf fef
ecbe debd
bbef bbed
fbbc fbd
bdec bbed
bccc ebcc
ecf dbbd
beef beebe
bcbec dee
bbbb bcbbf
ebbc bdcc
ebc fdee
bec bcdf
ebbcc df
fcc bcbd
bbdd dbbd
dbec bebd
fee eba
bdee bbebe
ecc beccc
eec bbedc
dbd e</w>
bbebd ccc
bbcc bdbd
bbbbc fec
ebb ecced
ba eebf
fc bdf
bbebb eebf
bddd dee
ebc fdbd
bddd dcc
bbdd efc
dc eebebe
ecbd bebd
bbbbc bdbd
fbf bebf
decc bbf
ecee dbbbb
bbebb bcbe
bcbc bbfc
becc bcbd
bbbe bcfc
bbdd dbbc
ebf bddc
ebe eeebd
bbd bbbfc
ebe dcbc
bebc edbd
ef bbefc
eeec def
eeed bebe
edcc fbd
ebd fbbbe
edec dbf
bbbb fdbe
da bebe
bbbb bebbbd
deec bbbd
bebbbb dbbbb
bbef ded
ebc fbfc
ba bbbec
ea febe
bebbc ecc
fa dee
ebc bdf
beee bbebc
eedd fbd
fbbbb fbbbb
edbc eebd
bbfef ebfc
eec bceec
ebbed df
eebbc a
edc bcebe
bbcc ebdc
ecee bbebe
bbec eeee
bbbbc bcebb
dd bdbec
ecc bac
bbbc bdbf
bfbc eecc
dbd eebe
bbcc bcbbc
ebcc bced
eebbbe bebe
bedbb bdc
ebf fbbd
dbc dedc
deec decc
bfcc fbc
bdef ccc
bbed febb
bbec debd
ecbd def
bedc eccc
ef ecdbe
fc eeccc
ebe eceec
eebe efbf
bfc dbbf
da fee
ec bbefcc
bbd ebbebe
ebbc fbbbb
fdf df
ecbf bbbe
dd bdebc
eeee bebbee
ecc bdebe
dfc efc
eeed ba
ebbcc bcc
bddc bdc
ebec bbef
ddc bcdd
eeebb bebf
bd dbbeec
bebec bbf
ef fcdc
bbfc debb
bec eded
ebbc b</w>
bebe bebcc
bebd bcec
fed bcec
bbbbc fbd
fef fec
dbd edbd
bbec bcee
bbbc bbecc
bbbc bcef
bbbc bdebb
bbee ebbebe
eef ebbebb
ebc dcfc
bcccc bccc
ebe bbdcc
dbbc dbbbb
fdd fdc
acc ac
ed beebdc
ebe bddbe
ebd bebdc
bbbc fbec
ea ecbc
bebbc ebf
ffc def
bbebf bbf
dedc bcc
f dbd</w>
ecc fbbf
ebd ecebc
bbd bdf
becc decc
bac bbf
edec bfc
fc eedbe
ecec bbed
ebbc febc
ebdc bbed
fed debd
eebf eeebe
ecbf dee
fc bbbfc
ff ebfc
beee ebbebb
bedd bbbe
bbc eebbf
bbc beff
ded ecdc
bebbd bebe
debb def
beebe edc
eea fee
ef fdbb
fc beff
bdbd ebf
fecc eec
ecef dbe
ec bbc</w>
ebec ecbd
fdd dfc
ddc bbebb
eeebb bfc
bfbc eebd
ebc bcff
dd bffc
edee ac
fa dbd
bec efdc
cccc bccc
ed debbcc
ecf debd
bdec dbf
ebe fdbd
bec ebbbbbb
deec bef
ecc fdcc
fed eedc
eebbc bbee
bbbb bedf
bca bba
bbc dced
bebbbb dbc
bebbbb bef
ebe eeecc
bbc defc
ebd ddbd
bbbf da
fc eebbd
bec bdebe
ccc beed
dbbbb bbdc
beee bedc
a eefc
beee bbdd
bebbc dbd
fdc bbbd
fcc fbe
eced fbc
bddc dbe
dbbc eecc
debe dbf
bdc fbbbb
bfc bcbe
beee bbbcc
bba eba
bec ebbbbc
ff bbeec
eebc eebf
bdbf dee
eebba cc
ecdd bcc
bebbd bbbd
fdd dbf
eec dddc
ebe debcc
bbd bfbbc
bbebb eecc
ecebb df
fbbf bbf
bebbf bbbb
bebf febb
dbbbb fbc
bcee dbcc
a ebbcc
bcec decc
bfed dee
ba beebe
ffc dbf
ebc ebbef
ebd bfbd
bebc ecdc
bebc befc
dfc bbed
beee fbbc
debb b</w>
ed ebac
ff eebe
bcbd eeee
bdcc fec
fc febf
ebbc bcebe
bfec beec
bbdd bbdc
bbbb bdef
ebbc bded
ddc fbe
ddc ecdc
ecc bca
eef c</w>
bbbc bbcbbbb
bcec bbdc
ebc bfebb
debb beed
dd dbbcc
bbd bcecc
bcee bbeec
edcc eecc
efc bcbf
dedc dbc
dcbd bdc
bbc bdebc
bbbec bfc
dcbc dbf
dc fbecc
bec eebbd
bef ecdc
debe fec
fef dbd
bcbbc bbebb
dac ba
bbbbbbbbbbbb bbbd
fbcc fbc
ecbec dee
ac bbed
fbec bbf
bebd bbebe
bced ebd
dd deccc
decc bebe
edcc bfc
beebe dbe
dc aa
bcc eebbbb
bbbb bfbbc
ebe beea
bbbc fa
bef bbecc
bbbf fbbc
dcc eced
edbc eeee
a ebbebb
bccc eebc
bced fec
bcebb eebc
bec bfbd
bcc bcdf
ebe bbcbf
bbbd fbbc
a bebbbe
bbbf ebcc
ecc ebbebb
fdd ba
bbbb ecebe
ebe dfcc
eec bfdd
deec bedd
febc edc
debc ea
fecc dbc
bdec bbcc
bbc bdf
ecc eea
ded befc
eebe bbecc
bbbe bfbf
beee eebebe
bcbe dbbbe
febb fbf
bbbc eebbc
ebbc bcef
eebd bbed
bbbcc bbec
bcdc beec
ebc bddf
ebc efbd
bbc bcdee
becc bbebb
ebb fdbbc
bbf ecec
ebbcc edc
eccc bbed
dbbee dbe
bbbe ebbbbc
beee eef
bdbbbb bbbbc
bbfc dcc
debc fbe
fed bcbd
ef ebbfc
dd bebdc
dbd febe
bbc ecbcc
bcbc eeebb
def ebcc
bbbc bcbcc
ffc efc
bebec dbe
bebc bcdd
eebd bedc
bcebb bfc
bbd eedf
bebd eedc
bbebd bbbd
ebbc ecec
ebbec beec
ebbc ecbf
fbf beec
feec dec
beee bebbc
bcbc bbef
da fbd
ddc bcec
bf be</w>
dee febe
bbf bcebc
ebbc beebc
beebb ebcc
bf febcc
bcbf dcc
bfbc ebcc
bded bebe
bf bebecc
eedd eecc
bbd bffc
dbec ebcc
dccc ded
ebb fbbdc
ebd ecef
bcc bceec
bbebb bbbbbbc
febb efc
eec bdebe
bbbc bbbdc
ebe eddf
ebc bfef
bbbe eced
dcec bbec
df bfbf
ac ebec
dbe fdbe
fcc bbdc
bebf ea
bcbf ba
bcbf fbd
bcbbc dbd
ebf eea
bbcc dbbbb
bbbf bbfc
eeee bebbbe
dd ebbbd
ebd bdbbd
dcbc eebc
bbbb ebecc
bef bfcc
bbbd bcee
dccc dbc
dbe ecdd
debb bebbc
beee bdbd
fbc bbbec
ed fedcc
bebbbb bcbc
ebe dcbbc
bbbc eef
beee bebbee
def bebd
ecee bbebc
fc bcbbf
bbbb eebec
ebd ecebe
dcec fec
ebe bfdd
bebf fbf
ebe edbec
bba bcbc
bbbb ebbed
dcbc bebd
bdbbc bbc
eebd ebec
bbbbbbbb bcc
fa bbbe
eec beeec
bebe befc
ea deec
ebbc ecebb
ecbc ecbd
bbbbbbbb bbee
bebc bcbbc
eebd bbdc
bec ddcc
ebd bdfc
bedd bfc
beef ef
dbcc ded
eded dbd
f bbf</w>
eeee dbbc
bcef dbc
a ebba
ffc ba
ebc edebc
bbbcc dbd
eebbee bbbe
beef ecc
bdbe bbebd
ebe ecccc
fbc bbebc
bcbe edcc
ebbcc dbc
cccc ecc
fdc decc
bcef ff
bcdbb ccc
fbd beed
ecbc eeec
dbcc ebf
eccc eebc
eecc beed
bf befcc
bbbc bded
ddc fbf
bebbbb bcbbbb
dbbbe bbebb
bbbf fbbbb
eebd ebdc
ebe fea
ebfc ecc
ddbd bbbd
dec c</w>
fcc fa
eec bcecc
dbec ba
ebbcc bbbe
dbe d</w>
bcec eeec
edec ff
deec fee
bbccc bbc
ebd ebbed
bdbd bcbd
ebc bcedc
ecec fed
ebc ecccc
dcec fee
a bedf
a bebbf
dbcc fec
bddd bbbd
fbcc bec
dbbbb ebf
dbbbb bcbbbb
bedd ef
dbbbc bbc
ebbbd bdc
ed deac
dc dd</w>
dbe eeebe
ea dea
beebe bbbd
ebccc ecc
ebd dcbd
bbf edcc
bebe ebbebe
bbbbbbbb bbec
eeed becc
ebbec bef
eec bedbd
bcebb fbc
bbeec ff
bbbedfcfceebcbfdbbbb efcbbebdeecbf
ebe bfbc
bfc bbbcc
bcc bfdc
bced ebf
bbdbbbb bbbd
dbf debc
dbf fef
bbebc fec
ebe bebbebe
feec dbc
bebbbb ba
fc bedcc
ebbc bcfc
dcc ddcc
beebb dec
dcbc ba
bebec bdc
eca bdbf
fc ececc
bbbc febc
bbdc bcbd
ffc bebe
ebec bcbe
debd eecc
bbee bbecc
edec bebe
bbd bebbbd
fbbd bbf
a bebbd
ec bbe</w>
eebc fbbc
ebfc dd
bbbf febe
debb bebf
ebbec bdc
bbebd dbd
df dedc
bbbc bebbbc
eebc febc
bcdd ff
dc feecc
dee dbdc
ebd eeecc
dbc bddc
bcbcbcbc bcbc
bbd bbdbd
bbbcc bebc
ef debec
ebbc febe
debb eccc
beec beebe
ebfc bbbe
eebebe bbee
eebd edcc
ebbcc bec
bbcc bedd
dfc bebd
ecbd bcbc
ebbee dbbc
debe eecc
eec bca
efc bfcc
a bddf
fee fdd
dbec bcbc
ebe eefbe
fc ecee
dbd decc
bbd eeebd
bbbc ebbbbbb
fbd bcec
ffc ebbc
bcc bcbbd
bcbf bbec
bfbf ff
beed fcc
eebf fef
bbbf bbebc
eeec eeec
bbbc bebbd
deec bcbc
eec bdfc
ebc fbebe
bbccc bbbb
eea ba
be deb</w>
eedc fdc
eddc bec
ebbec ebbc
bba bef
eeed dbbc
fbec dee
bf fbbed
ecbf ebf
ec bbbac
bebe bedd
bebe eebbbe
bbcc fdd
ecbec dbe
beee bcbe
becc bbbf
ebe bdbcc
bbebb b</w>
debe ecbc
bbdbbcc bdbf
df dcdc
efc bdbd
bbec befc
ebbee bebd
eedc fed
bcbf fec
fee eef
edc dbbbe
eeef bbbb
ecbd fdc
bec bebbee
dbc e</w>
fbbc fec
fc bfec
fbbc bcbc
bcbd bbbbc
dd febf
bcc bebbd
eebd debc
bccc ebec
decc edcc
dd dd</w>
eccc ebec
dbcc eecc
df bebcc
ff d</w>
bbcc eeebb
bcbd dbbc
dbbd ecc
ebbbc ddc
edc bbbcc
fbd ac
dfc beed
efc bbfc
ebcc dbbc
bbebb debe
bcbf bcbc
bdbe bbeec
fcc eeed
ebc ebbdc
bedbb ebd
bebc beebc
ecbc dbbc
bbcc bced
bbebb bcbbc
ecbd ba
bf eefbc
fbd bdbd
bea fc
eeebe eebe
dccc a
bbd bcbbf
bfed bec
bbc fdee
dbb ecedc
beee dbec
edec bcbc
bebc fef
fed beed
eded dec
ef fbebc
ff bcebe
beee eebbee
bbcc bbbec
eecc bedd
bcebb ecc
bd debecc
bbdc dbbc
bcdd bdc
bbc bda
dee c</w>
fbd bccc
bbd bddbe
dbc fdf
ecbd becc
fbf fbe
ffc beec
bddc bec
bbc eebbbe
bebe bbebd
beee ebbebe
edc eedf
bebc febe
ec eeedcc
bbbc ecbf
bcf bbebd
ecbbc dbe
bcbcc bcc
df fdbc
bbcc dfc
bbebb bbfc
bba bda
ed fdebc
debb bccc
efcc ecc
ebbee dec
bbbc eedd
bebc eebe
dcc eef
ebf bbeec
fcc deec
ebbee eec
dc beefc
dd bdf
eded bdc
bfbc bbbbc
ec bbd</w>
ef eedbe
debb ebdc
bbbc bbcbbc
dbc eeebc
fbbbb bbbbc
bebbebb bbbb
be dbc</w>
bbbebbbb bbbe
fbd b</w>
bdbd dbf
bebbc bebbc
eeef beebe
bcbbbb bbec
abf ac
bef dbbf
beee eea
efbf ccc
eccc ecbc
fbec dbe
ef ecebd
bfcc ecc
fee bcbe
bbbd bbfc
ebe fba
bbd eebbf
eeec dedc
bdbf bbbe
eedbbd cc
ed deba
ebbbf bbbe
bfbc bbed
ebbbcdc debe
bedc ea
edc defc
dbb ebfcc
bf debdc
fee bcebb
dbbbb bbebe
dbdc bcc
eeee eefee
bdbe debd
eebbbb a
bbc edbbc
bec bdfc
eec bbbbcc
bbf bebcc
ebf bcdd
beee dbcc
eccc ba
bbbec ecc
ebc deecc
bec fbbbe
df bedf
bebe bcebe
bbbd bcbbc
ef efdc
fee dbcc
ebcc bcee
ecbbbb bbbe
dbd befc
eecc dfc
ebbbd bcc
dcbd ddc
fbbcc fee
ebe ecbbbe
eeed ebd
ffc bbbe
edc eac
ecbe dbbbe
bf eb</w>
ef edfc
ebf eedd
bca bdbf
dbe eedd
dec eced
bbec eeebb
bbf bebbd
dbb becbbc
ebe bcdec
bdc e</w>
ccc c</w>
bced becc
eec dcbf
bebd ebdc
efc bbef
eebc bebbc
debe bbed
bebe bbeec
eebc bbef
ecbc bbebe
eebf bbcc
fdd ea
ebc bdbbd
bbc eeebd
dbb dcecc
eeec eebd
bef bcebc
ecbe bbebd
fc dcef
bbc bffc
fc debcc
edbd bfc
bbecc edc
bef bbeec
bebc bcf
bec fdbc
beee fbbbb
bedc ddc
bddc bcc
bbebb eebe
ebec eeee
bebbbb dbd
ff dcdc
beec fdc
ef bcebf
bbf decc
beee bcbf
ed dbbebc
bef ebfc
bf bbdbf
ecc dddd
bbbd fbbbb
ddbd ddc
bcec eedc
ebd eedf
bbd bfbbbb
bbbc ecec
bfbf a
dbc fbec
bfcc bcc
dbb ecdbd
eebf ebbc
beef ea
ed fda
ded bdcc
bbfc dbf
eeed fec
eddc bcc
bcbcc bbbb
edcc ddc
dcc edbd
ebbcc a
beed bbed
debc bbcc
bba bfc
beebe ea
fc bfef
bcbbc bbbbc
beec eeec
bdee fbe
eebbebbfed edcfcc
ac fed
bcbd becc
bedc dfc
ecced ccc
ebec ffc
bcbbbb bebc
dcdd dbd
dbcc dbcc
dcc d</w>
ecc bebbd
dbb fcbbc
debb bced
dedc efc
beebc dbe
ded febb
eddd ddc
dd dcec
beebb fec
dfcc ccc
ebe dcbec
eeee dec
bfbf bbbb
dd f</w>
fef ddc
bea dee
df dbbbe
bdbc ebcc
eec bebbbc
dc befcc
fc dea
bbebc bbbbc
bedf a
edc dbbf
eced ff
ecec bbdc
ebe bebbec
bcdc bebe
ecc bcccc
ecdc bfc
ecec dfc
ac eebc
bbbc eebbbb
bebd bedd
bdbc bbebe
bec bbebbc
dbc bcef
ebbbbbe bbbb
ef ebdcc
debe fcc
eebf eeef
bdebb bbbd
dcee ba
ebf bded
bdbd edc
ebc bedec
beebc bbbe
dd eca
f dbc</w>
beec fbe
ecebb bebe
bbc fbebe
ebbed bbbb
ebd bbedc
eebe decc
dcee bcbc
eeee bebbbb
becc ecbd
ebf bcbbbb
bebc ecbe
bef eea
eecc edbd
ef ecbdc
dd fdec
bbec eedd
efcc fbc
fed deec
ebc ebbbec
bbd beff
bccc dbf
dbbbb bfc
bbc ecdbe
beebb bbbbbbbb
ba bcbe
dbbbc bbbc
dbbd fbd
dbbf dbd
dcc da
ffc ddc
ebcc bedd
dbbbb debb
bedc bcbd
dbe ecbbc
debf a
bbbd beebe
bfcc bfc
bbbe bdbbc
bfec becc
ebe dbecc
eedf ccc
ebcc edbd
bbbcc bfc
fbcc bbf
bbbf fa
ecdd ebd
eeee bbed
bbbf eebd
bbbbc beed
bfebb a
ebec bcebb
eba ea
ebb beac
bbd bedbb
ded bcee
ecdd fcc
fbbbb ff
ecef a
dcee def
ebcc decc
bbba ba
df ddcc
eccc def
dee eebbc
dbbd bcbc
ebbbc efc
bdbbbb bbebb
bbbe bcdd
ded ecbd
dfc dfc
eec bbebf
debe bcbd
bbdd ebbc
ecbf ddc
ebbbd fc
bced ba
dbf eecc
bdbd bfc
bbc beccc
ebbbc fbe
eebf bebc
dbc bbebd
bef bcfc
eeec ebec
eddd dbe
bf dbbbf
dee bdbf
dbd bcebb
fed ecbc
bbbb febd
bbd bfdd
dccc bdc
bebe bebbf
bdbd bbec
bcec bbebc
dbcc fbc
bbbec bbbbc
bf fbecc
ed debecc
bcc bebbf
dec fbbc
ecdc fec
dcbc fcc
ebc dba
bdef a
eced bfc
dcc e</w>
fed bebf
dbd fbbc
ebd ebbbf
bf fdef
beed beed
ebe eebdc
ecf e</w>
ebb dbba
ebc eca
deec fbd
fecc ecc
efc fdd
beef fbc
dcec debb
bcc ecdf
ebf eebbc
bbbbbbbb bcbc
a eeebc
edc eeccc
dcc bcbf
debe fbd
beebb bbed
eddc dec
bbee bedd
eebe efebe
bca ccc
ebc eedee
debe bbbf
fee ebeebe
ecfc df
ecbc ecbe
edebb ccc
fdbb bdc
bcc bac
dbc ebfc
ecebb bbec
bbbc bcbec
fec bbfc
bebe eebbee
bcee debd
bebbbb bdc
edc fdbe
bcf dccc
eebf bbbd
ffc becc
dcdc ddc
bbd fccc
bef ecbf
ecec eebc
bcebe bec
eec dded
bccc fdc
da dbf
bd eacc
bbbc bbccc
eecc eedd
bddc bbbb
ebb ee</w>
bbbc ebfc
ebe bedbb
bbbe ecbbc
eebd bcbd
bdebb dbe
edcc edcc
ecbbebc cc
ebc dcef
bcbbc bebc
bdcc fbc
dd bbebf
bbef bbbbc
bbd eceec
def fbf
eebe dbbbe
eedc bcbc
ecf b</w>
ecec deec
bfec bcbc
ebe eeeec
ebec bbebc
dcec bebc
df feec
fc bdee
ebe dcfc
fc edbbc
ecec fee
fbbd fbc
ecc defc
eebd febb
dedc ebd
dbf bebf
beebe bebc
bfbd dbc
eebd ebbcc
eba bec
bbbd bcbe
bbc ecdf
def bbebb
eeee bebd
eeed bcbc
ecdd bec
eebdc eebceba
dc bbbecc
bdbd fee
bebbbb dee
ee ebe</w>
edc bdef
bbee eebbc
efbd ff
ecc beeec
bedd ddc
beef beebb
ef eeecc
ebe efdc
ebc eddf
dcc debd
dcdc dbd
dbe bbbdc
efc bbbcc
bbdc bbbbc
fef eec
bcdc fec
dec bbecc
ebcc febb
dddd dbc
eba bca
ebbc eebbc
debc fcc
dbe c</w>
dbe beecc
beebe bbbf
bdbe deec
fc bcdbe
bdec ebec
dcee fbc
edbd fcc
bfc bcef
dbbc bbdd
bbc eceec
eedc dbf
eddc ebd
ecbec df
ebbc bbeec
dc febcc
bfbc ea
ee ebd</w>
eec eedcc
fef dbf
ecc dddc
bcc bdebe
bef ebbcc
bcee bba
bdebb a
dbbd bbbbc
eefc ff
dcdc dec
bbbc c</w>
bcdc bcbc
bbbe decc
bbebe debb
bcee bbdd
bdec fbd
dbc dbbf
bcbd b</w>
ba ecbc
ddc eedd
dbdc bbbb
efbf ff
debc fbd
ee dbb</w>
ccc ecbc
beee fdc
bbbc dbbf
bbc edebb
ba beef
bbee bebcc
bedc debe
bdbf dbd
dd dcccc
ebd bfed
bcbbdd cc
dbe fbbd
bbee eea
dcc bddc
bbef bebd
ef bedee
eef ebbbf
bf dbbebb
bdc ebbcc
ef ecbbf
bcc bdbbc
bdc bcebe
beec eeee
bfec bbec
a beac
ed bacc
bebbbb ff
eef ebbcc
beff ff
bced deec
bec ecef
fdd bef
dbc edcc
ebbbc becc
edc beecc
edc fccc
bbee ebeebe
dbb fcdd
ebc edef
ebc bebbec
eebe bfef
ebeebb bbbe
ebb fdef
bbf bcdd
dee ecbe
ebec fbbc
eedc ea
fdbb bcc
ebf fdbe
fdd bbcc
dd ecdee
dec bcebc
fec bcf
beed dced
edc bcfc
fbc bfcc
bbbbbbbe bbbbbbbb
bbebe bebbc
eced bbbe
febc ecc
ebd dded
bccc def
bbc bdbbd
bbebb bedc
eec ecfc
bdbc debd
dee edcc
bbebe bba
bedd ebbc
bdc bbeec
bcbd fbf
eebf bcbc
edc bcbbc
bbdedc fbebcc
ebdc ba
bbfc bbbf
dcbc eeee
fbbf ff
bbd ecbbd
ef bbcbf
ffcc ccc
bbcbd fee
fed bbdc
bcc eea
dbd c</w>
dbd bba
bef decc
fec bdcc
bbc beedc
bbf febd
eebe e</w>
bbbc bddd
feec ff
bbed bbebc
bcbe ebbcc
befc bebc
fbbf ccc
bebe bfcc
bbbec bbcc
efc edcc
fcc efcc
eddd dcc
fbe eddc
bdbd bddd
befc bbbb
ebe ecdee
eedc bbd
ecbd eebc
dbd beebe
dbdc dcc
ebc fdcc
bbee ecebb
ebbc bdbf
dbb ebced
ddbd ded
df dced
dbec ecbc
beebc bcc
debe eebc
eba dee
eeebe bbebb
dbec bbcc
decc decc
debe bcec
eeef ea
bebbbe beee
bebbc beee
ebc dcebe
feec dd
ebf fccc
debc ecdc
ebd efdc
bbbf eeee
bdbd bbed
dcee bbed
bbbe fecc
bcbd dbbbb
ebf bbebd
bebbee bebe
ecbf bfc
ebc efdd
bec ecebe
dbb ebcebb
dbf bced
bdc eefc
ba febe
fbec dbc
ef eebdc
dbd eeebb
fedc a
eebbd ccc
be dbe</w>
dbd bcbe
fee bcf
fec eedd
fdc ecbc
fbc dedc
eddd fc
ee df</w>
beec ac
bdf dbbf
fbc bcef
edec bbec
fbc fecc
fbbc ebbc
ed dbbbec
bec edbbc
bbbe edbd
bbbf dfc
ebfc bfc
bcda cc
bcbec df
bebc eeebb
fbc bcfc
ebbec ff
ef eeeec
bec bfdd
bcc bedee
eba bbee
eebf fbd
dbdc ded
febb debb
ef ebbbc
bedc ecbc
bbcc bcee
fc acc
ebf ecebb
eec bdebc
bbbd bebec
bfbd bebe
dcec bfc
bbec fef
dbf cccc
ebbbbbb ebbbbbb
bdcc ded
beed bbebb
bbdcc ccc
eebe edbf
bcebb dd
becc def
becc febc
eeec ebdc
dec bcbbc
bebf bbebe
ecee bbef
fc dba
fed dedc
bcebc df
dcbf ccc
ecc bebbf
bcebb bdc
bbfc fcc
fc bfbbc
bbbe bcbbd
debf df
ebe eda
ac deec
dbcc bef
ebf eddc
a dddd
dbbc eeee
ebfc bef
fbbbe bbf
dbb ecded
dec e</w>
beec eedd
bebbc ded
becc eddc
dbbbb beee
ebd bedee
bcbc eccc
bbeec eec
bea bea
eebf fec
ebb bbeccc
dee dbbf
bdee da
dbfc ff
ebe bdebd
dbc eeef
bbed debd
befc dd
ebb bedebe
ebec bced
eeec fdc
bcdc fee
ebd bbccc
bfc beebe
eecc bcbd
debc dfc
bcebb bbbbc
ecc efdd
eeec edcc
bebd bebbbb
debb bedd
eba fee
fbc ecec
ebcc beebb
bebd fbf
ba dbbd
bbbcc bbd
a fdee
dbdc bbc
ef fded
eec ebbbf
ebc bbba
ebd edbc
bdcc fcc
bcbd bbbf
eeec debd
bebf fdc
bdc ebecc
ba fbbbb
bfcc dec
dc bebbed
ebe edebc
ecdd ff
bfbd bbbc
ebdcedbbec beebf
fbe efcc
bf bbac
ecbe ebbcc
bbebc bbcc
ecc bcbbbb
bbec bdbd
ed fdebe
ebc eebbbc
fbe d</w>
eedc edcc
eebd ac
bcebb edc
dbb ecbef
beebb eebe
bedc fdc
ebc bcbdc
bbdc b</w>
dbec fbd
ebccc edc
bbebc bbbf
bbebe dcc
eef ebbef
ecbe bbecc
ecee dfc
bef bbebd
dbc eeeec
ebec bbfc
bbbb eea
bf fac
debb ecbd
bbd edebe
dd dbbdd
bbee bebbf
dedc ecbc
eded bec
debe efc
bfc bcbbc
dbb ebcbbc
bbbec ded
eebf bebf
bbbbbbbb bebe
edec ddc
bcebb bbcc
bbf edbf
bbee bbebf
dbbc fcc
eba dbc
edee becc
fbf febb
ed bebbdd
ecc dbfc
fef edc
bbdc eeee
ebb feccc
edec bbbd
debc bbed
ba cccc
dee bfcc
dbcc bfc
eec eebec
ebf bcbec
fbe bfef
eecc decc
febe beebe
eeebe eebeee
feec dbe
eebd bbbf
fbbbb bcc
fa ea
da dba
dbcc bbcc
ecec ebec
bdbbbb dbd
bfed a
bbf bebbf
bbebe bbef
bbdc ea
bba fee
ebf bebbd
bec ebbed
dbb ecbbec
fbd ebdc
bef edcc
eef dedc
bd bbeba
ebb bebbdd
eecc def
eded dcc
ba eeec
bbee dbbbe
dc bebbebb
bbbb decc
ebd bca
bcbbbb dbe
a efa
fbd decc
bbee eebbbe
bebd bebbc
fdc deec
ebc bbbbebb
eec ecf
ba fbbc
debd bbbc
eeebe bcc
bdec bbebb
dbbbd dbbbb
dd ecbcc
ebc bda
dbf eccc
eebc ffc
bbebe bcbd
edec bebc
bba fbc
beebb beec
bd fedcc
bdc ecdd
fec ecbd
bebf dcc
dbd bcbf
bdf eba
edee ded
dd edbc
eef d</w>
bcbe eba
ecc bcdee
bbec febc
dbcc bbbd
eeed bbd
ebbec bbebb
bbdc bbbf
ba dbec
dbb fcef
ecbc bdcc
bbdd bcbc
ecdc bbf
ebf febd
ebdc dfc
bcee dbbbb
ebfc dcc
ebf bebbee
bbbec bbed
eedc debb
bcdc ef
fee debe
ecbc febb
edbd debe
eec edbf
ebf ebbebb
ea debe
fbe edbf
bbdd ebec
bec bcbbbe
ccc ac
bcebe bbf
eec deccc
bcbbd bbc
eeed dbf
febf a
dbc dccc
beed beee
bcec eeee
beef dee
dbc bcbbbb
fec fdd
bbbbc efc
bbbdc bbc
bf eebfc
eebf fbf
dec bebec
ebe edef
bbec b</w>
bfbd bcc
bbbbc fbf
bf fdebb
bef bebcc
fbe ebbef
decc fed
df febd
bef bebec
dbbcc ccc
dbd eedd
dcbc eebd
dec beebd
bbef febb
ff bcdf
bcec dbbc
bbbe beebd
bbbd bdebb
ebc dea
bec bfebb
bec bedbb
bbbbbbbb bbbcc
bcec eccc
fef bebc
eec fdbc
ebbc ebfc
dbd bbebc
dbd ecdc
debb dfc
fbbc efc
bcdbbbb cc
beed ea
ebbbd ebd
bbd bddf
bebe ecebb
bef bfbf
bebd eccc
ecbd ebcc
bebf eebc
ebbbd bbebb
eec eedbc
ecf c</w>
bec eddd
eeebe bbc
ebf dccc
dcbd ebdebbcc
dee ecebb
bcec bbbf
ee bbbb</w>
dec beef
ecec beee
ebbee bbebc
fbcc bbc
bdc bdebb
bebe edcc
bfc beef
bebbee bbbb
ececbd cc
ed bbbebbbb
fc dddd
bedc bbcc
bf beefc
bec bdee
ecbe dbdc
bbee bcef
debd debb
bf bbbccc
bf fbccc
dbbd d</w>
bdbc ac
bbbe bddd
eedd fdc
bebd fbe
febc fec
bded efc
ecc edef
fbd cccc
dbec dbf
eba beee
ed bedbec
bebc bebec
bebbc bbbbc
ebd bcdf
ebbcc ff
bc ebe</w>
febc bbec
dbc dbbbe
bedc beee
bedd debb
bded beec
ed eeeecc
fc bddf
ebbbc bbef
eedf a
eebc bbebc
bea bbee
ebbbc eeee
ddcc dd
bfbd fbc
bd bbbb</w>
bebe ecbf
ebc efbf
ebd bcbcc
ba debc
dbb fcbd
bced fee
ebbc dbbbe
bef eebbc
ecf dbbf
bba dec
ecbbc bcc
ebbee edc
be bbeb</w>
df debf
bebc dbdc
dbbbb bcbd
bf bedbf
bf beebec
ef bbcbd
ebd dfcc
decc bfc
ebc dcebc
ebf bebbf
bbbd deec
bdbe bbbcc
eeef eeebe
ebd bcecc
bef bebbbe
bebc eebbc
dbbc fed
ecbbc bbf
bbd bfef
ecbe eddc
bf bbbebbbb
ea bfa
dbd bbfc
ddc ac
fbe eced
ebc edebe
eebbbe bbbb
bec debcc
bbec beecc
becc dfc
dbc bcfc
eecc debc
da fec
dbec beed
bebf efc
dc ee</w>
ecc beebd
bcbf fee
bcbbbb bbee
ccc bcee
dbec bbed
ebe bcebf
ded fdd
dbbbc bbbe
ebd edbbc
dbb ecbebc
ebcc ecec
ed bedebc
dec edcc
bbcc bbebc
eebf dcc
bcebb debb
ebbbc bbdc
dbc fa
ac bbbf
bbbec ba
eedc bbbd
bcbbbc bcbbbc
fbe bac
dd db</w>
ebc dbbcc
fcc eeee
fbf debb
a bbebf
bbed ffc
bbef beec
bbbbbbbb bbdd
eeec bbdd
bdcc bbbe
a bbccc
ed febdc
eccc dbf
bcec bbbbc
bbf eebbee
bbbc bebcc
bfc fbcc
def bced
eedc fee
ecbbc fc
beebb ebec
bceeefcfeccefebbc ecebcddbd
bebbebd cc
ef bcdec
ebe bebbbf
bebe dbbd
a febd
bcbc deec
bcdd dcc
bebe bcef
dbb becbf
a efcc
beee bbfc
bebd da
ff fbbf
dec fecc
eef bfebe
ebc bbdcc
ecc bfbf
fbbc fcc
bdbe eba
dbcc efc
ef eedbc
bbd edfc
decc bedc
edee dbbc
bf bbeecc
bbd eac
eebd def
dbc bbeec
eef bac
bcbf bbbd
bcebb ebf
beebc bbbc
bdc eddc
dec ebfc
bcbf bbcc
ecee ebdc
ffc dfc
dbbbc bbbd
dd ecccc
ebec bcbbc
bcec ea
ebe fdbb
bebe bebbd
bddd ded
fcc bced
dcbd dcc
dbe dced
bcdc bef
beef bbbf
bbbb ecdc
dd beff
debb bebbbb
fc bdbec
fbe bbccc
fbe bdbbc
fbd febe
ebb feecc
edbd bebc
bded bef
bec bbcbbc
df bea
dee dbbbe
dbe ebbcc
dbc dcdc
bbec bbbcc
bebbf bbbe
ebc fcdc
dee ecbf
bebd eeec
bfc fbbbb
bdcc bbf
dbb fcfc
fbe dedc
bf bbdbd
beee debc
bdc bebec
debd eebc
eded bbf
ebe bbebec
debe beec
bd bccccc
eec dcec
fee bbfc
bbec bcbbc
dbf bdbd
dbf ecbd
bcbd ea
ecec debc
ebd bebbbc
bbee bcebc
ebcc ecdc
bdf bbbcc
ef bfbc
bf dbccc
eccc edcc
dbcc bebc
bbc beebf
fec befc
ebd bbebf
bbd edef
edbc bbdc
ccc ea
ebd beff
bbd bbcbd
fbc beef
fef bbcc
bebf beec
bbbec bebd
fa bbbc
bebe eebebe
ded eeee
fcc dbbc
dd fdbb
abd ba
ed fcccc
beed decc
eeed debb
ecbbbb bbbc
fc eceec
eec bedee
ecf bba
a fccc
bbbe eea
ff debd
bbebb bbbbebb
dbf eebd
ecbc bbdd
fef beef
edc bbeec
ebbc bebbbe
eeee ebbebb
ecebb bbee
ebb dedcc
ebec bdbd
ebd ebbebe
dbbd beec
edc eeebc
bbebc ba
dccc dbd
bac fa
bcbc befc
debb fdc
bbebe bcebb
bcec fdc
bcc bebbbe
bdc eeef
bbec beef
bcdc bbbc
ecc bdfc
bcc eebcc
eccc bbbd
bfc fa
a bbbdc
dcc eddd
dbbc b</w>
bcdd bec
dd bfef
dd bcdee
ebdc ea
ee bbbbbbbbbbbb
edc fbbd
ccc fbf
fc ecccc
eebbdd cc
feba cc
ebe dceec
bdc bedbe
fec bbdd
ecbc bbfc
ebcc bdbd
bdcc bebe
ddc dbbbb
dcbc ebbc
bbc eac
bcbc dbec
deec bbcc
ecbd eecc
dbbee bbbb
fec bcbe
dc bedebb
ef bcfbc
ebe bbbbbd
fc dddc
eebc decc
bebbecc cc
dbf beed
bbebc bbebc
edcc efc
becc eeee
eec bcdbe
fcc eebf
def da
bfc eebf
beebe eebf
eebbc ff
ebd ebbbd
ebf bdebb
bbee bebbee
eedc bebd
ecc eceec
bebe eefc
ebc fdec
dee bcebe
dbf ffc
bbed bcebb
bebbbb fc
bbc ebbebe
bbeec bbf
ac ebcc
bf fbbef
eec bedbb
ba fdd
bdec fed
ac eecc
bbdd d</w>
bcec debd
febb bbbbc
bec bffc
dedc bebc
dcee ebbc
bbbc bcebc
bccc bcbd
bbc efbf
befc dbc
ebec bcee
beebb bbef
cccc df
ebe eebbebe
ebf fecc
bbee bcebe
bddc dcc
ddc ecbd
febd ff
dcbd bbf
bfc dbbd
eeec debe
ebc ecebd
edc dced
bebe bcbec
bdc ecebe
dbd bdbbbb
bfec fed
ed eebccc
ebd febf
bbbe fbbd
a ecdf
ba bbbbbbbb
eedc eedc
bbc dbbcc
eebd ecbd
bdee eccc
ecc bcdbe
bdbc debc
ebc febbc
ccc ffc
bebe bbebf
ded bbebe
dbbc ea
ecdc efc
a fbbbe
bcdc fbc
bbed bebbc
ecbc deec
dc febec
eeebb ebbc
edbf df
bbef fa
bcdc bebc
dd ececc
bfc eef
bbed eeed
bbbb bbdbd
bbf fbbbe
decc fbc
dccc bec
bfbd fec
dbb ebea
eebec df
bbebb beef
befc bef
bbd edebc
bdee debc
fbbc bbbf
ccc bcbd
bbcc fef
dbcc eebc
fdbc df
ebd eeccc
fee bebbc
dfc fed
bba da
dccc dbe
a ecbec
a beeec
ebcc beef
ebe dddc
ebc bddbe
edc bfdc
beebb fbe
eeef fef
ef bebfc
febe eeebe
dcbc fed
decc dcc
bfebb bbbe
bbdd eeee
bccc cccccccc
ba bcf
ebb febdc
ef bb</w>
ebe ecebd
eec fbbf
bbebe eeebe
debd bbbd
bdebb df
ebe eebbebb
ac fbf
ebfc bebc
beee bbebf
cccc ff
dbbd eebc
bbeec dbc
bcef fbc
bccc ecbc
bbbb edebb
ebbec ded
bfc ecec
ecf dbdc
bbc dba
bbc bcff
bbed bedd
bbebe fbe
bcdc efc
eccc beed
bbd beedc
beebe beef
bbd fdbd
bdc bcbbbb
bebe eebeee
dee ecec
ebec dedc
bf eedcc
dbd dbbbe
bbbf ffc
fbcc bcc
ebbbc ebcc
ebe bebbcc
debe bbdc
febc bbbe
bbbc eced
beee bcee
eec bebbee
bdc dddd
ef fbbcc
ebe ddbd
bbdd bbbbc
ee ebc</w>
bef bcebe
bbbec beebb
ebc edfc
fc bebbbc
bebe bbecc
becc bebf
eebe ebebf
fbec fbc
bbed bced
bdbc dfc
ebbbf ff
fbbebd cc
efcc bec
fbd fdd
ba bac
bbfc ebec
bfbc def
ebe debec
bbbc bbbbbbbc
bbbf ecbc
ebd eebbbe
ccc eedc
ebccc dcc
bbbb bbedc
bbfc edc
ba bedc
bef dbdc
bef ecbe
bcf dbdc
a bdbbc
ebcc ecbd
ebecc edc
ebbec dcc
ddc febb
bcec eebd
bbbd ebdc
fec bbef
ecbbc bec
ddc bddd
eeec deec
bbc dcbf
dee eced
eebe deec
fecc dec
bcbd eeebb
edbf edc
bbbb eebbd
bebd bbef
bdc bedf
bebe ecdc
beee bcbbc
bbbf bcbe
bebd bccc
ebd debec
fee ffc
dbbc beed
eddc ff
ebb bbcccc
dcec eedc
bbd ebbdd
def dfc
bbfc fbd
bfbf bfbf
bbed fbf
eea df
bbbec ebec
ebb dbbbec
ef eefbe
bebe bdbf
bbec eeed
ef ecff
eef ebbebe
bdec deec
bbc bedbb
ebeebb bbee
bbbe fbbf
febd dbe
fee b</w>
bdbc bbef
ebecc eec
ebd ecbcc
ebbc bdebb
ebd bedbc
bdc eddd
ba eeed
fef bcbc
a bceec
bcbd fdc
bbbbbbbb bbbbbd
fdebf cc
bbdd becc
bbd fdec
ccc eebd
bbec ecbd
eebc eeec
debb bcbf
ebbc dbbf
dfc deec
bedc beed
ff ecbe
dbd bdbf
ea bdbd
bd bbc</w>
ba bcee
ebc edec
ff bbecc
beec beef
eebc deec
febb ded
efcc fec
bbc fbfc
edbc ecbe
ebccc fc
dbd ecbe
bbbf bcec
ebf ecec
ed dbbbcc
dee eeccc
bcdc fcc
bbf eedd
ebb fdfc
fee bcbbc
bc bbeac
ef edbcc
dbc eebbc
bbec bebec
ebbbbbb bbee
fbd dbec
bbbec debb
bbd fdbb
febc ded
ebc eedcc
ecc d</w>
dbb ebcbf
bbbbc bbef
dbbd bcbd
ebbbd bebc
ebd beccc
bdc bbebd
bfbd bfc
eddee ccc
dcc beebb
fdc eccc
bdbd bbebb
a dbbbc
bcbbbb bebbbb
ebb dbbebd
dd dbccc
eef bbecc
def bbdc
ebc bcbebe
efc bcf
edbf fcc
ebf bbecc
bcc bbbbcc
bbd bedbd
ff eedd
ebfc bcbc
eeebe fef
bbbdc bbbd
a dedc
bbdd eebc
eca ccc
ebb ebac
eeee eebbbe
ac bea
eeec fbbc
ff eea
ff bca
ebbc ebbebb
eecc bbdc
bcec fbe
eba fc
bded bebc
ddc dbcc
bbdd beec
eec dbecc
ddc ebdc
ebcc ecbe
bbbcc fbc
ebd ecbbbb
ff bdebb
ed fbbbbc
edc d</w>
ff bfbf
dec eebbc
ecebb bebc
bbf bddc
bbee befc
bdc eeebc
dee bceec
dbd bebbbb
bbbf bba
bcdc bbbe
edc bebec
ecc bdee
eecc fbf
bcbd fed
fee eebeee
bcebb ded
fa fbc
bedc decc
edee ea
ecbf fbd
bcdd ded
bfc eeebc
bbd edbec
bbbd fdd
eebd bccc
edc dfcc
beebc eec
bbebf bbbc
bfec debb
dbc eefc
ffc fed
fecc fbc
bbebbc bbc
ebbbbc bbbe
ecee bbeec
bbd ecdf
bdec debe
bebbee beee
febb bebf
bbbb feec
bedc bedd
bbccc bbcc
bebbf bbf
dbe bebbbc
edc bea
bbbd fef
bedc dbf
bec bedee
ebf dbbbe
bd bbebfc
bdc ecef
dec bcfc
eebd dfc
df dcef
bbbcc bef
a bcbbd
dc bebecc
fbd bbbbc
dc bbebcc
bec eeccc
bdc bdef
febe ea
dd dea
efc bbebe
bec bbbfc
def bbbf
febb eebc
bbccc fc
bcc bcecc
bebe edbd
bbbb edcc
bfc bebcc
bcbc eedc
bbec bbeec
ecbc bbef
dbd eef
efc feec
becc eeed
ebe bbefc
eeee eeebf
dbdc eecc
ebbebb beebb
febb bbebe
ecbd ecbd
ef beea
ebe fbbbd
bbcc eedd
bbd beebf
beee fed
bcee decc
dcbc debe
ebcc eebf
bbf ebbbf
ebebd ccc
ebe eebbbc
dbe edbf
ddc edbbc
ebbec dbd
bbbe beeec
dbe bdbc
dbec ebdc
edbc dbbc
dbb fcdf
debc bbdc
bcebb fec
bcbbbb bbbf
ecbbc df
bfec ebd
bbebb fbbc
bec dcbd
ebec dbbbb
eeebb eec
ebc bbebec
eebe dbbf
bcdc bfc
be dbd</w>
ebb dbbebc
beec fbf
eebd fbf
ecec fdc
dbe ecdf
bcbe bbebf
ecebb dbc
ed dbbebd
ebb dbdcc
bebc edcc
bbc dcbd
ebf eefc
bac df
bf ecced
ebc ffcc
ecee b</w>
ebe aa
ebe bcbebc
bbee fdd
bbed ac
eedc ebdc
eccedc dee
bbbb eefc
bec dfcc
bbed ebdc
ebc acc
bbf eced
fbe debf
dd ffcc
bbbbc debe
bf eebbebb
beed fdd
fef ded
eeee ebbef
ebd bdee
bbcc bbfc
dded dec
dbec def
bfbc ecbc
eebc ecbe
bbbe ecbbbb
ea dfc
ed fbbef
bdc eba
ebc bfebe
ef febbc
ebe bbbebbbb
bced ebbc
edbbbb febec
bbee ffc
bccc eeee
efcc bcc
bbd ecbcc
bfc ecdc
cccc eec
debc ddc
dcc febc
ebeebb beee
ebbbbbb bebe
dcbc eecc
ebc eebbee
bbbbc bbcbbbb
edbd beee
bbbe eeef
beebe df
dbf bcf
bf beded
eebe bfebe
bdbbd bbbd
ebc bdeec
bfcc dbc
debc beee
ebccc eec
bdc bcfc
ff eeed
ef eeba
ecbc bdbd
bbdc fdc
ac eeec
dbbbb eec
bebbd eec
bdc edbf
ebbbc eebd
bfec fee
bddc dec
ff fbbd
bbbc bcfc
dbb ecbbee
dfc ebcc
dbe ecf
bcbe edbf
dacea bdbf
bbbc bcbbd
fcc bcbf
ecbf dec
ebf eebbbb
bbbc dbdc
ebeebb bebe
dbb abf
eeee bbebf
dbbd bddd
debc ebdc
bbbbbd bbebb
dc dbbdc
ebd bdbe
fcc febe
bec bedcc
dbbf dee
bbbe bbcbbbb
bcbc eebf
eebc da
dbbc eeed
efbf a
bbf dbbbc
fee fbbc
deec dbf
febb ebec
bbbb debf
ebe bedbd
bbec bbecc
befc eec
bbcbd ccc
fa bef
dc fbccc
ebe fbfc
dd ecdbe
fee bbdd
ea eccc
dee bcecc
bebf dbf
bcebb bebd
ff ecec
dcec dbf
ebc fdbb
eedc eebd
bea bca
bddc ddc
ded dbdc
fbc edcc
beebb eeef
edbd debb
bcdd eec
ebcc bbdd
dbbbb bbbbbbc
dd ebbbbbb
fcc ecbd
bbdc def
bbbcc ebbc
bcbbbb dbd
beebc fc
bcdbbd cc
edc bdebb
dbbbc dbbbc
eded ecc
dbc bcebe
bf febec
ebe bebfc
bbc bddf
dee ffc
dbbc bdbd
fbc bebbbb
debc ecbd
beed dbec
bced dbec
bbbbebb bbbd
bcc dbbee
bbef beebe
dee fbcc
bedd efc
ebbebb bbbd
ba ffc
edbd bbee
bcc fbdc
fcc bcdc
bbbbc ddc
bebe deec
dbbc bccc
bfec bbbd
bbbe bceec
be bbbd</w>
bbd ebbdc
ded bbfc
beef bbebb
ef ecdbc
bef ecec
ecbf bbbc
fdc fdd
beed eedc
bbdc bedc
ebeebe beee
eba bda
bbeec beec
ef bedcc
bec fbbbc
dcc bcbe
eedd ebbc
ebbebb bebc
bedbb ecc
dc bbded
bbd bbdcc
ebc dbecc
dee eeec
bebe eedc
bfc bcfc
dbb fced
bcbc bbbec
ac bbebb
debc def
beebb eebd
bcbbc bbec
ebecc a
bcebb ebd
ccc dccc
dbc eeebe
bfc bdbf
bcdd bbbb
ecdd bbc
dcc bbebe
ded e</w>
bcbf bbbf
bedbe dbe
fee bbbec
fbd fef
ba dbbf
becc eebf
ecf dedc
bdbdbdbd bdbdbdbd
bfc feec
fbec dec
fcc fedc
febb eeebe
bbcbd dbe
ebbcc dbd
edbc ea
bf bd</w>
dcc bded
ac bcbd
febb fbe
dced a
bf bebbbbc
dd beedc
dee e</w>
ecbc ebdc
ddc dbec
dfc dbec
bfbd dbd
eef dcdc
eeed efc
bef bbebf
beef bbebe
ecbf eec
dee eeebb
bbcc bdcc
bced beee
df eeebe
ebf beff
bbbc bfbf
fec bfcc
ebbbc dbbc
ebe beebbc
df bebbd
bfec bebd
ebc fbbee
bcc fdee
ff bcbec
f dec</w>
eef bbbdc
dd debcc
ebec bcdc
ac dac
bcf e</w>
bcee bbebd
febc bdc
ba d</w>
ebec dbcc
bbbc bdbbc
fed fbf
bbdc bdbd
ef bbfcc
fc fdee
edc ecbbc
ded ffc
bbebb bbebd
fdc bbcc
beebe bbec
ebbbd bbec
bcdebd cc
ff beebc
dbc bfcc
deec ecbc
bedc bbed
bdee bbebc
bebcc bbbb
eebbbe beee
ecebb bbbd
bdef dbe
bcc bebbbc
bfbd bbbe
dcee bbcc
dd bedbc
eccc fdd
ecbe eba
ed bedfc
ebf febf
ba eda
bebe eebbc
ebdc fbe
bbbc ebbcc
eccc debb
dc bbbccc
fc bfebc
dbd bbbec
debd fec
ecec debe
efbd dbe
eebbbb ccc
bfc febe
dcc bbfc
bced debe
bfed bbc
eccc eedc
eeed bbee
fcc edbd
eef dbbbe
ea dca
dced bec
bef bcbbbb
efc dbbd
fbc dbbbb
bcf debf
dd eeebd
fbc eced
beebe bbcc
ed bebbef
ebd bcdbe
bbdc fbe
a debf
bdebb bbf
eea bbf
bbd beccc
bcccc bcc
dec eeebb
fbf bbef
ddcc ddcc
bf dbbed
eebe c</w>
da bbec
beec beebc
bfec fcc
beec ffc
debc bcbd
ebf bddd
bbd bfebe
ebdc debe
bebc b</w>
bbee bebec
bcdd bbc
ecc eedee
bced bbbd
beecc edc
bef dbbbe
bbecc bbbb
eebe dbdc
ebbec bbbd
bbbbbd dbe
ef beebbc
ebe dca
ebdc def
beebd a
eeebc bbc
bf eedbd
eeef df
ed bedbbbb
fbc bcbbc
bbbc edbd
bccc bbbbc
dd dbecc
bbed beebc
ebd dba
bfc b</w>
bebc bebbbe
bdbc dbbd
debc beed
bbdd bcbd
eedd bbbb
fc dbbcc
dbb ecebf
dbbc bedc
eebf dbd
fbbc fee
bf bbdbbc
dc bbdbf
ebc ebdcc
ff edbd
ecec decc
ebbbc dbbbb
ebbbbec eebdceebceba
eeee becc
ecbc ffc
fbf ebcc
ebbc dedc
bbdc dbbbb
bbfc bebd
bfbd bdc
ccc eeec
ebbc eced
ecbc fdd
ebfc ded
eebd fbe
bfed dbe
dfc beee
ef fdbf
eecc ffc
febb eeebb
ebbebe beee
bea ea
fbd deec
eedd bbf
bbee ecbe
efc beef
fbd beebb
bdee debe
ebe eeea
dddd cccc
bbbbbbbb dbe
fbf cccc
bced bcbc
eddc dbd
bbbbc fcc
bcf dbbbe
bcef ecc
a bcdf
bbd fbfc
eeee beff
dbf eeef
eecc ecdd
eebbc dec
def eebc
fa ebf
fbbbb fc
dcdd dcc
eec bcebd
df fbdc
ccc dfc
fdbb bec
ebbc bedf
fed b</w>
dbbc ebcc
eded ded
dced dbc
bbcc bcbe
bdbe dbbbe
ef ffcc
bcc bdec
becc fecc
bbbd bcbf
bbc edef
fbf bcbd
eebbbb bbbbc
bbec bded
dbf bbef
bebbbb bbed
fbbbb dbe
dc bbdbbc
bbd fbef
eccc ecdc
bdf bbeec
ebbec bfc
fee eea
bcbbbb dbc
eebe eddd
ebfc ebd
ebc bbcbbbb
bceec dec
bfed ff
edc bebbd
bbdc debe
da dea
eebbc bdc
eec debec
fbf bbbbc
ecec bbebb
a ecee
eeee eebef
fec dbdc
bbf dbdc
bba b</w>
bcebe fc
bbccc bccc
fbc dbcc
eebc fef
fbc fbec
beec bced
bc ebc</w>
ebc ebbbc
bcc eeecc
bbf bbebf
bef bcdd
febb ebcc
febc ebf
dbbbd dbe
edc ecfc
eeebb bcbc
fcc fbbc
bbc fbef
fccc fc
bbbbbbbbbbbb bbebb
bebf bbbbc
fed ffc
bcc fdbc
bbcc bebbc
bfbc dfc
ed becccc
ef fefc
fcbd ccc
bbc bfbbbb
ba bbfc
def fbe
bbdc beebb
bcdc ebf
bded dcc
eec dea
ff eced
bebc beef
bcbf efc
bcebe df
ebbbd dec
fed bbed
eec edbbc
edc bebbbb
ebe efa
dedc bdc
ecef fc
f dee</w>
ecbd ecbc
ebbc bcdd
dbec beee
ecdbe ccc
beec dbcc
dbbbb beebb
febc dbd
bbbe ecdc
bbbdc dbe
bba ac
bcbbc bbee
bbbd eedc
ecef ecc
bbdc bccc
bf bbdbbbb
dee eebf
bddc fc
bbd fbbee
dbc bebbd
bedd bebd
dcef ccc
bec bcdbe
ded dcdc
febb ddc
ebe bdecc
bedc ebdc
efc dbdc
fcc bcf
eebd fdd
ecef dcc
dec eeebc
fdc eeec
ecf bbecc
edbc fbe
ecee debe
bbebe bebbbe
bcbe dbbbc
debd bbee
bebbc bbbf
bebe bdebb
eec fdbe
fbd eeec
dd bebbbc
dd fbbbc
dee bbedc
fed ac
bbef fef
dded dbe
a bdbc
edec bbcc
bbfc bbed
ecdf dcc
bebe ffc
ded c</w>
edbd fee
dc fdebb
bbdc eeec
fbcc dbe
bbbec beee
bbbcc ebf
dbb ebcbd
ecbbc bbbe
dcbd bcc
bfc eebbc
bbbc bfcc
bbbf beebe
bbbbc fbe
def eecc
bbebe eebc
ebbec bcbc
eebe ebba
febb fef
fcbf ccc
dbbd fec
bebbc debb
[...]
