{"<unk>":0,"<pad>":1,"a":2,"b":3,"c":4,"d":5,"e":6,"f":7,"c</w>":8,"d</w>":9,"f</w>":10,"e</w>":11,"b</w>":12,"a</w>":13,"bb":14,"be":15,"bc":16,"ee":17,"cc":18,"bd":19,"ec":20,"bf":21,"ed":22,"ebb":23,"dc":24,"bbbb":25,"ef":26,"ebe":27,"dd":28,"ebc":29,"bbc":30,"fc":31,"bec":32,"ecc":33,"ebd":34,"bcc":35,"eec":36,"bbd":37,"df":38,"bbbe":39,"bbf":40,"dbe":41,"ebf":42,"bdc":43,"edc":44,"ba":45,"ff":46,"bbbc":47,"dee":48,"ccc":49,"dbc":50,"bbee":51,"bebe":52,"bfc":53,"ebbc":54,"dbb":55,"dec":56,"dbd":57,"bef":58,"dcc":59,"ea":60,"bbbd":61,"bebc":62,"efc":63,"ded":64,"bbec":65,"fbc":66,"beee":67,"bbcc":68,"fee":69,"bbebb":70,"ebec":71,"bcbc":72,"ebcc":73,"fbe":74,"ddc":75,"dbf":76,"fec":77,"debb":78,"bbbf":79,"bbed":80,"fcc":81,"beec":82,"eeee":83,"ac":84,"bbbbc":85,"eebc":86,"bebd":87,"becc":88,"fbd":89,"def":90,"eccc":91,"ecbc":92,"ebdc":93,"fed":94,"eecc":95,"bbebe":96,"bbdc":97,"dbbc":98,"eebe":99,"debe":100,"eef":101,"ecbe":102,"debc":103,"bbef":104,"bcbe":105,"bcf":106,"eebd":107,"dfc":108,"bbdd":109,"bccc":110,"da":111,"dbbbb":112,"dbec":113,"bcbd":114,"fbf":115,"bcee":116,"beebb":117,"fdc":118,"bbbbbbbb":119,"bcec":120,"bbebc":121,"deec":122,"beed":123,"bba":124,"febb":125,"eeec":126,"bebf":127,"eba":128,"bbfc":129,"bdbd":130,"bedc":131,"cccc":132,"dbbd":133,"bbbec":134,"decc":135,"eedc":136,"ecbd":137,"ebfc":138,"debd":139,"dbcc":140,"ecf":141,"bced":142,"eeebb":143,"fef":144,"bbbcc":145,"fdd":146,"eebf":147,"ecec":148,"beebe":149,"bcbf":150,"bedd":151,"bcebb":152,"eeed":153,"bebbc":154,"ffc":155,"bebbbb":156,"dedc":157,"bbebd":158,"edcc":159,"febe":160,"beef":161,"fbbc":162,"edbd":163,"bcdc":164,"bbeec":165,"eedd":166,"ecdc":167,"dbdc":168,"dbbf":169,"dccc":170,"eeebe":171,"dbbbe":172,"bbecc":173,"fa":174,"bdcc":175,"ecbf":176,"ecee":177,"febc":178,"bdbc":179,"bac":180,"eced":181,"bcbbc":182,"bdbe":183,"bdf":184,"bfcc":185,"bea":186,"bded":187,"ecebb":188,"befc":189,"eeef":190,"bdbf":191,"bcbbbb":192,"beebc":193,"bcef":194,"bcdd":195,"dbbbc":196,"debf":197,"ecdd":198,"eac":199,"eebbc":200,"bb</w>":201,"ebbcc":202,"fbbbb":203,"bbbdc":204,"bbebf":205,"bdee":206,"bbccc":207,"ebbebb":208,"bebec":209,"bddd":210,"eddc":211,"fbec":212,"bcebe":213,"bddc":214,"efcc":215,"fecc":216,"bebbbe":217,"bdec":218,"fbcc":219,"bcfc":220,"dbbee":221,"bdebb":222,"eddd":223,"bcebc":224,"dbfc":225,"fdf":226,"bebbd":227,"eebbbb":228,"dcdc":229,"ecbbc":230,"bebcc":231,"bbedc":232,"edbf":233,"eea":234,"fbbd":235,"ebecc":236,"edbc":237,"febd":238,"debbc":239,"feec":240,"ebccc":241,"dddd":242,"bca":243,"bfbf":244,"bedf":245,"bedbe":246,"eefc":247,"defc":248,"bcbec":249,"beecc":250,"bbebbc":251,"dba":252,"eded":253,"bbba":254,"fbbf":255,"ecef":256,"fdbe":257,"ebbbbbb":258,"ebbee":259,"bebbf":260,"bdbbc":261,"bbbfc":262,"ebbbc":263,"ecbec":264,"beebd":265,"bdef":266,"eeebc":267,"bdbbbb":268,"ebbbf":269,"ecebc":270,"beeec":271,"ecebe":272,"fccc":273,"fbbbe":274,"bcbbd":275,"ecfc":276,"dced":277,"ecdf":278,"ddcc":279,"fedc":280,"eebec":281,"bcbcc":282,"ebbbd":283,"eebcc":284,"bcdf":285,"bebbee":286,"bfdc":287,"bceec":288,"dea":289,"deecc":290,"bebbbc":291,"dbbcc":292,"bfed":293,"eedbe":294,"fbdc":295,"ecbbbb":296,"ebbed":297,"dcbd":298,"bfbd":299,"eedf":300,"eca":301,"fdbc":302,"ebbbbc":303,"ecccc":304,"bfbc":305,"be</w>":306,"eebbd":307,"ebbebe":308,"beff":309,"febf":310,"eebbbe":311,"debcc":312,"bd</w>":313,"ecbcc":314,"debec":315,"bda":316,"bebdc":317,"bc</w>":318,"bdebe":319,"dcdd":320,"edbbc":321,"bedbc":322,"dcbc":323,"eebbf":324,"beccc":325,"efbf":326,"eeecc":327,"acc":328,"dcec":329,"beebf":330,"bcebd":331,"bcecc":332,"dbecc":333,"ecbbd":334,"dfcc":335,"fbbbc":336,"efdc":337,"bdfc":338,"bfebb":339,"eebbee":340,"bcbbbe":341,"bdebc":342,"bbbbbbc":343,"dded":344,"eceec":345,"fbebe":346,"bedee":347,"fdee":348,"beedc":349,"bbefc":350,"bbea":351,"eeccc":352,"eb</w>":353,"bfef":354,"bbbbcc":355,"bcbbf":356,"ebbef":357,"bbebec":358,"bdbbd":359,"bfbbc":360,"bcdbe":361,"fbef":362,"ecdbe":363,"ececc":364,"bdbec":365,"ebdcc":366,"fbbee":367,"ebbdc":368,"bbcbbc":369,"bffc":370,"ebeebe":371,"bddf":372,"ecdee":373,"eeeec":374,"bedbb":375,"fdcc":376,"bfdd":377,"bcccc":378,"eeebd":379,"dac":380,"edef":381,"ffcc":382,"edebb":383,"eddf":384,"bcbbbc":385,"fdbd":386,"eebebe":387,"bfec":388,"dddc":389,"bbdcc":390,"bbbbebb":391,"fbfc":392,"bfebe":393,"eebdc":394,"fdbb":395,"ddbd":396,"eeff":397,"eedbc":398,"edec":399,"deccc":400,"ebeebb":401,"dcef":402,"fdec":403,"bfa":404,"bedbd":405,"bcdee":406,"bbebcc":407,"edbec":408,"edebc":409,"eebeee":410,"eedee":411,"dcbf":412,"bcff":413,"ebbec":414,"dbbbbc":415,"debdc":416,"dbbbd":417,"efef":418,"bedcc":419,"edebe":420,"bcdbc":421,"bbcbbbb":422,"eda":423,"fba":424,"edfc":425,"bebbbd":426,"ecebd":427,"bdeec":428,"dcfc":429,"bebbebb":430,"eebbbc":431,"eeebf":432,"ebbebc":433,"bfbbbb":434,"bedec":435,"bebbec":436,"beba":437,"dcebe":438,"ebbdd":439,"bbfcc":440,"bbcbd":441,"fbebc":442,"febbc":443,"dcebc":444,"efdd":445,"bcbdc":446,"bebfc":447,"ebba":448,"eebef":449,"ebbbec":450,"efbd":451,"bbac":452,"fbeee":453,"eddee":454,"beebbc":455,"ee</w>":456,"bbbbbd":457,"dcbbc":458,"ebbfc":459,"bcbebe":460,"aa":461,"ebebf":462,"eddbe":463,"bcedc":464,"eedcc":465,"ecdbc":466,"bbbecc":467,"ecdec":468,"dcebb":469,"bebbcc":470,"bbcbf":471,"bdbcc":472,"bddbe":473,"fbbbd":474,"ec</w>":475,"ebfcc":476,"fefc":477,"dedcc":478,"edbcc":479,"bfebc":480,"dbbdd":481,"ecbbf":482,"edee":483,"efebe":484,"ed</w>":485,"ebbbbbe":486,"fbbcc":487,"ecbbbe":488,"edbbbb":489,"dcbec":490,"ecbdc":491,"ebebbc":492,"dceec":493,"db</w>":494,"fbbec":495,"bbdbd":496,"fea":497,"dbccc":498,"fddc":499,"eeedc":500,"bcbbee":501,"fdbf":502,"eefee":503,"bdebd":504,"effc":505,"ebac":506,"befcc":507,"ecff":508,"bbdbbbb":509,"dca":510,"edeec":511,"bdecc":512,"bbcebb":513,"bcdec":514,"dcccc":515,"ebebbbb":516,"bfbec":517,"dcecc":518,"efebb":519,"eedbd":520,"bbbccc":521,"fded":522,"dbbebb":523,"efbbc":524,"bcdbd":525,"fcbf":526,"bcebf":527,"ebebd":528,"efa":529,"bcbebc":530,"bbbebbbb":531,"efed":532,"dcdf":533,"bcbef":534,"dcee":535,"edbbd":536,"fbecc":537,"dbbbf":538,"ebbbbd":539,"fcdc":540,"bebecc":541,"bedbf":542,"ddbf":543,"eeba":544,"bcfbc":545,"fbbbf":546,"dbbed":547,"bdbbbe":548,"bebbbf":549,"bcbbbd":550,"ebeef":551,"beded":552,"ebedc":553,"ecbbbc":554,"ecded":555,"beea":556,"fcdd":557,"beddc":558,"ecedc":559,"bbb</w>":560,"bebbed":561,"bddee":562,"ebced":563,"bcbfc":564,"bbbbbf":565,"eedec":566,"ebcbf":567,"bbdbbc":568,"fbbebb":569,"fcfc":570,"bdbbf":571,"ebcbbc":572,"becbbc":573,"bbebdc":574,"ebeed":575,"ebbbcc":576,"eebebc":577,"bf</w>":578,"ebedd":579,"dd</w>":580,"ecdbd":581,"bbdbf":582,"dbbdc":583,"bbbbbbbe":584,"bcbbec":585,"fbccc":586,"ebbeec":587,"eebbec":588,"bedebb":589,"eefbe":590,"dcbcc":591,"edecc":592,"bbeecc":593,"bcded":594,"ecdcc":595,"bdff":596,"febcc":597,"ebcebb":598,"becbf":599,"bcebbc":600,"fac":601,"bcdcc":602,"bbced":603,"dda":604,"eebbebb":605,"feecc":606,"bddbc":607,"bfbcc":608,"ddef":609,"ecbebe":610,"fcbbc":611,"bdbdc":612,"eeebbc":613,"ddbbc":614,"beefc":615,"ecced":616,"dbbebe":617,"bfdf":618,"ecbebc":619,"ecbef":620,"eebbbd":621,"bbbbbbd":622,"ebbbbf":623,"dcebd":624,"ebea":625,"bcbbcc":626,"ddebc":627,"bbeccc":628,"febec":629,"bcba":630,"bddbd":631,"fcdf":632,"bbbbbbbc":633,"bebbbbc":634,"fdebb":635,"bebbebe":636,"fbbed":637,"edebd":638,"bbbbebe":639,"eefbc":640,"ebcebc":641,"fcef":642,"eebfc":643,"ebbdf":644,"bbcbec":645,"bebccc":646,"beebec":647,"ebcdc":648,"eeddc":649,"fcbd":650,"eebcbc":651,"ebcbec":652,"dbdcc":653,"ebbebd":654,"eddbc":655,"ebcbd":656,"ecbfc":657,"bcfee":658,"bbded":659,"fdef":660,"bbcebe":661,"bfbbf":662,"dbbef":663,"becbec":664,"ecebf":665,"ddebe":666,"ddfc":667,"bbcef":668,"ebbdbe":669,"ecbbec":670,"edccc":671,"bcbeee":672,"dfdc":673,"ebcef":674,"ebbbbbc":675,"ecbbee":676,"cccccccc":677,"bfecc":678,"eeea":679,"debfc":680,"eebbcc":681,"de</w>":682,"dcdbe":683,"bdedc":684,"beac":685,"bcfec":686,"abf":687,"dddf":688,"ddeec":689,"beebcc":690,"fced":691,"bdbbbc":692,"bbbbbbbbbbbb":693,"bbcdc":694,"ddbec":695,"ddebb":696,"eedbf":697,"bbdebb":698,"dbba":699,"dbbfc":700,"dc</w>":701,"bcbbebb":702,"bcced":703,"bcfbe":704,"ecbeec":705,"ecfbc":706,"bdccc":707,"dcbbbb":708,"bcfcc":709,"aed":710,"bccbbc":711,"ebebec":712,"feccc":713,"ecbcbc":714,"ecebbc":715,"bfff":716,"dcbbd":717,"bcefc":718,"ebefc":719,"eddec":720,"bbcfc":721,"bdbebe":722,"efdf":723,"ebceec":724,"bcbeec":725,"ebbecc":726,"bfbbd":727,"ebbbebe":728,"bfdbe":729,"ebebbbe":730,"ebcdd":731,"dbbbec":732,"defcc":733,"bfebd":734,"efbcc":735,"ebb</w>":736,"bfbbbe":737,"bceebc":738,"efbec":739,"bbcccc":740,"bedbbc":741,"ebcbbbb":742,"eeded":743,"ebcfc":744,"bfeec":745,"bbcdd":746,"abd":747,"ecba":748,"fcccc":749,"dcdee":750,"edbdc":751,"fbbef":752,"eebeec":753,"ecbbbd":754,"bbcbcc":755,"ecceec":756,"fdbbc":757,"edbbf":758,"adc":759,"bbbcbbbb":760,"bebbef":761,"ebebcc":762,"bcdbf":763,"bcdebb":764,"fbbdc":765,"beeecc":766,"ddecc":767,"abbc":768,"bcbbed":769,"efebc":770,"becdc":771,"dbbebc":772,"bebbdc":773,"efbbbb":774,"bcbccc":775,"eebbed":776,"eecdc":777,"bcbebd":778,"ddbbbb":779,"dffc":780,"fbbbbc":781,"becebb":782,"fda":783,"bacc":784,"eeeecc":785,"edbbbe":786,"deba":787,"bbcebc":788,"afc":789,"edff":790,"bbddc":791,"bddec":792,"bedef":793,"ecfec":794,"add":795,"bbebfc":796,"bbeba":797,"eacc":798,"bbbbbbbbbbbbbbbb":799,"bcbbbbc":800,"bcbbbf":801,"bcfbd":802,"aef":803,"ebeebc":804,"eecbec":805,"fdfc":806,"bdbbbd":807,"bdbbee":808,"dbfcc":809,"bbcbbd":810,"eebbbf":811,"dfed":812,"ebbff":813,"bcddc":814,"dbbebd":815,"fbbebe":816,"dbedc":817,"bedebe":818,"eebbebe":819,"fedcc":820,"bcebec":821,"ecfee":822,"eecbf":823,"bbbeebb":824,"fcbec":825,"bccccc":826,"abbbb":827,"dbbbcc":828,"bcbecc":829,"eefcc":830,"eebccc":831,"dcedc":832,"bdebf":833,"aebe":834,"ebddd":835,"ecbecc":836,"eecdf":837,"ebcdf":838,"cccccc":839,"bbfbf":840,"ebcebe":841,"ebbbbee":842,"ecdebb":843,"ecddc":844,"ebded":845,"bbdebe":846,"deedc":847,"bccbf":848,"bbdef":849,"fdebe":850,"bbbebbc":851,"eebebd":852,"efdbe":853,"febdc":854,"bebbebc":855,"eecdd":856,"bccbcc":857,"eecbbc":858,"ebebebe":859,"eebecc":860,"efff":861,"dfdd":862,"bbbbbec":863,"aebb":864,"ecbbcc":865,"dcff":866,"bdbef":867,"bedbbbb":868,"efecc":869,"ededc":870,"eedebb":871,"eddbd":872,"bbdbbd":873,"dfbf":874,"ecefc":875,"efbbf":876,"ecbeee":877,"eefec":878,"fcebe":879,"ecbccc":880,"ecfcc":881,"bcdbb":882,"dddbe":883,"dcdbc":884,"bcea":885,"bdbebc":886,"fdebc":887,"ebdbf":888,"eccecc":889,"eedbb":890,"bbdbec":891,"bedebc":892,"eefbd":893,"ecdbf":894,"ef</w>":895,"fcbcc":896,"bdfbc":897,"edded":898,"ecbebd":899,"bbcbbbe":900,"ebebbf":901,"bceebe":902,"eeefc":903,"bbbdcc":904,"dcbdc":905,"fcebb":906,"ddbcc":907,"ebcbcc":908,"eccbec":909,"bcebcc":910,"bdbfc":911,"bbbbbbf":912,"bdded":913,"bbceec":914,"fca":915,"ebbebf":916,"bddcc":917,"ecfbe":918,"bbbbed":919,"ecbbed":920,"bcfed":921,"ddebd":922,"fcebc":923,"bbbebf":924,"fbdcc":925,"bebbdd":926,"bbbbbcc":927,"ebbdbc":928,"bedbec":929,"bcecbc":930,"ecbbebb":931,"dcdec":932,"bbca":933,"bebba":934,"beced":935,"bcdef":936,"eeebcc":937,"eebbef":938,"bcecbe":939,"bbbbdd":940,"bceeee":941,"fcdbe":942,"bbcbbf":943,"ebbbdc":944,"debbcc":945,"efccc":946,"bceecc":947,"ecdef":948,"ebbccc":949,"eeebec":950,"eceebc":951,"bebbbec":952,"becebe":953,"becdd":954,"fbbdd":955,"becebc":956,"eeac":957,"bfccc":958,"bcdebe":959,"bfbdc":960,"ebddc":961,"bceef":962,"bbd</w>":963,"bbcbbbc":964,"bceebd":965,"eccef":966,"eddcc":967,"bbbbbbbd":968,"ecebcc":969,"beeccc":970,"bfebf":971,"dbedd":972,"dbac":973,"bfbbbc":974,"bbbebbbe":975,"becef":976,"bbcdf":977,"ecebec":978,"becbbbb":979,"eeecbc":980,"ebebbee":981,"bdba":982,"bbdebc":983,"ffdc":984,"bbdfc":985,"bbda":986,"bcac":987,"dbbeec":988,"bbcdbe":989,"becccc":990,"deac":991,"fbbfc":992,"ebbdee":993,"bedfc":994,"bccebe":995,"eccebc":996,"bfbebe":997,"eccdc":998,"becdf":999,"edbebe":1000,"beda":1001,"edbbbc":1002,"bbbbebc":1003,"bccef":1004,"eedbbc":1005,"eecccc":1006,"bfedc":1007,"bbbeebe":1008,"becbd":1009,"fdbec":1010,"ebbbbbd":1011,"bbcebd":1012,"dcbbf":1013,"dcdcc":1014,"dddbd":1015,"ebbedc":1016,"ebbbef":1017,"bcbbdc":1018,"eebbbbc":1019,"becfc":1020,"bfdbc":1021,"edbef":1022,"eedef":1023,"dfa":1024,"deedd":1025,"ebdef":1026,"bdbbec":1027,"beebdc":1028,"bbbbef":1029,"bebbfc":1030,"ebca":1031,"bdebbc":1032,"bbc</w>":1033,"bbebbcc":1034,"ecfbd":1035,"eccfc":1036,"ebedf":1037,"bccfc":1038,"bebdcc":1039,"fdbbbb":1040,"bbbba":1041,"ecfed":1042,"eceecc":1043,"fbbebc":1044,"eecef":1045,"bcdbbc":1046,"dddbc":1047,"debecc":1048,"bbe</w>":1049,"bccbec":1050,"bccdc":1051,"ebddf":1052,"ddbbd":1053,"bccbd":1054,"ebbbebc":1055,"ddedc":1056,"bbbfcc":1057,"fbba":1058,"dbeed":1059,"bfdee":1060,"ececbc":1061,"dfef":1062,"bccebc":1063,"bbebbbbbb":1064,"bfbbee":1065,"bcceec":1066,"eebbdc":1067,"ebebbd":1068,"ebdbec":1069,"bcbbebe":1070,"ebcecc":1071,"ddbdc":1072,"bccebb":1073,"edbbec":1074,"ebdbd":1075,"dfbd":1076,"bbbcbbc":1077,"ecea":1078,"ebedbe":1079,"eecbd":1080,"bbfbbbb":1081,"ebbbeee":1082,"ecdebc":1083,"ebdbbc":1084,"ebeecc":1085,"dcdbd":1086,"bbfef":1087,"bccdd":1088,"edbebc":1089,"edbbee":1090,"ffbf":1091,"bbdeec":1092,"ebdebb":1093,"dbebf":1094,"ebebeee":1095,"ecdeec":1096,"ebe</w>":1097,"fbbbec":1098,"bbbac":1099,"bbbbdc":1100,"bedbbd":1101,"eeecbe":1102,"beceec":1103,"bbfbbc":1104,"ffdd":1105,"edebf":1106,"eedbec":1107,"fceec":1108,"bcdebc":1109,"eccbf":1110,"ebdeec":1111,"bbbb</w>":1112,"fcdee":1113,"bbedcc":1114,"ffef":1115,"bedeec":1116,"ebdebc":1117,"ecbbbf":1118,"ebbbbebb":1119,"eccbbc":1120,"eccbd":1121,"dfbbc":1122,"dbebd":1123,"beca":1124,"bcbbdd":1125,"eebba":1126,"fdbcc":1127,"bfbef":1128,"eccdd":1129,"fdbbd":1130,"bcbbef":1131,"bbbbfc":1132,"ebeeec":1133,"ebbebbc":1134,"fffc":1135,"ecdbb":1136,"efeec":1137,"bbdbbbe":1138,"fbfcc":1139,"efbbbe":1140,"eccccc":1141,"bdfee":1142,"eccebb":1143,"edced":1144,"bccbbbb":1145,"dbebbc":1146,"bcdfc":1147,"dddee":1148,"ebeff":1149,"dfebc":1150,"ebebbbc":1151,"bdddc":1152,"dcbbbe":1153,"ebeebf":1154,"ecdbec":1155,"aebc":1156,"efbdc":1157,"bdbeee":1158,"bbfebb":1159,"edbfc":1160,"ddccc":1161,"dcded":1162,"bebebbbb":1163,"eeeccc":1164,"eeceec":1165,"bbbdbbbb":1166,"ebdbbbb":1167,"ebd</w>":1168,"becbcc":1169,"dbbbdc":1170,"eeda":1171,"ebc</w>":1172,"ebeccc":1173,"ebbdec":1174,"fdeec":1175,"ebda":1176,"bcdbbbb":1177,"debccc":1178,"becdbe":1179,"eccedc":1180,"dbb</w>":1181,"ebebdc":1182,"ecdfc":1183,"ebdfc":1184,"bebbbbbbbb":1185,"ecca":1186,"bbffc":1187,"efbbee":1188,"dbddd":1189,"edddc":1190,"bedbcc":1191,"efbebe":1192,"bdfbe":1193,"ecdebe":1194,"efebf":1195,"ecdbbc":1196,"bffbc":1197,"ebcbbd":1198,"efbbd":1199,"ebeeeee":1200,"dcebf":1201,"bdbcbc":1202,"bceccc":1203,"bebbbcc":1204,"ecbbdc":1205,"ebbfee":1206,"ebcebd":1207,"ebbdbd":1208,"bfbfc":1209,"bbfdc":1210,"edfbc":1211,"ebcdbe":1212,"ebcccc":1213,"efdbc":1214,"edbeec":1215,"fdecc":1216,"bdfec":1217,"baa":1218,"fcbbbb":1219,"edceec":1220,"ebbbbec":1221,"bebbeec":1222,"efdee":1223,"ebeebd":1224,"ebcbbbe":1225,"eebbebc":1226,"bddebb":1227,"bbfa":1228,"ebebef":1229,"bdefc":1230,"eeca":1231,"bdbbcc":1232,"bdbeec":1233,"ffa":1234,"efebd":1235,"eebdcc":1236,"ecbbbbc":1237,"eedebc":1238,"ebbeeee":1239,"bcca":1240,"bbcdee":1241,"dbefc":1242,"fdebd":1243,"eccebe":1244,"fbebf":1245,"eedebe":1246,"ddff":1247,"bbcdbc":1248,"bbcbdc":1249,"bbeebbbb":1250,"ebbfbc":1251,"bcebdc":1252,"edba":1253,"ecac":1254,"ececcc":1255,"eceeec":1256,"edbbbd":1257,"becdee":1258,"beeba":1259,"decdc":1260,"ebbbfc":1261,"bebbebd":1262,"bedebd":1263,"efbef":1264,"fcff":1265,"ebbba":1266,"eecebc":1267,"bcbcbcbc":1268,"eccdf":1269,"bcdbec":1270,"eceeee":1271,"bebebbc":1272,"bddbf":1273,"bbdbcc":1274,"fbbbcc":1275,"bcbbebc":1276,"eefed":1277,"bbbcbf":1278,"eddef":1279,"eceef":1280,"beb</w>":1281,"bbbbdbe":1282,"dbbecc":1283,"ebcbbf":1284,"feba":1285,"eebbdd":1286,"edebbc":1287,"effee":1288,"dddec":1289,"bbdbbf":1290,"df</w>":1291,"ecdecc":1292,"ecda":1293,"bbbcbbbc":1294,"eedbbbb":1295,"edfee":1296,"edcdc":1297,"bbbbbbebb":1298,"ececbe":1299,"bcdeec":1300,"dfbec":1301,"eceebd":1302,"bbebecc":1303,"ffff":1304,"dbbccc":1305,"eddbf":1306,"ebdebe":1307,"befbf":1308,"dfebe":1309,"bcda":1310,"eecfc":1311,"ebfbf":1312,"fb</w>":1313,"ebcdee":1314,"eceedc":1315,"ecfdc":1316,"dddcc":1317,"bcbbfc":1318,"bbcbebe":1319,"febfc":1320,"bdbebd":1321,"bbcecc":1322,"bdfcc":1323,"bdbbebb":1324,"bbbbbebe":1325,"fdbbf":1326,"becbbd":1327,"edcef":1328,"eeebdc":1329,"eddebb":1330,"adf":1331,"bdcdc":1332,"bdeebc":1333,"eccbcc":1334,"bbbbbbbbc":1335,"bdfbd":1336,"eedfc":1337,"bbbedc":1338,"ebedbc":1339,"edbeee":1340,"bbeebf":1341,"beedcc":1342,"eecebb":1343,"febbcc":1344,"deebf":1345,"bbdebd":1346,"bbcff":1347,"fcbbf":1348,"eebeebe":1349,"eecbcc":1350,"bbbebec":1351,"bedecc":1352,"dfecc":1353,"fcecc":1354,"ecebdc":1355,"eeced":1356,"eeeeeeee":1357,"ddddc":1358,"abec":1359,"bebfcc":1360,"bebebf":1361,"dbcdc":1362,"bbeeebe":1363,"dfbcc":1364,"edcdd":1365,"bdcdd":1366,"edcbec":1367,"eebbfc":1368,"bbdbbbc":1369,"dbebbbb":1370,"dfebb":1371,"bbeeebb":1372,"dcfbc":1373,"bbfdd":1374,"bbfebe":1375,"fcdbc":1376,"bdcbf":1377,"dcbbbc":1378,"eedeec":1379,"eecdec":1380,"bcbbbec":1381,"bdced":1382,"eceebe":1383,"dbebec":1384,"ebcdec":1385,"ebcdbc":1386,"fdccc":1387,"dacc":1388,"bdbbed":1389,"bbfed":1390,"eecbbbb":1391,"efbbbc":1392,"ecbbdd":1393,"bcbbbbbbbb":1394,"bfdbd":1395,"dbeebb":1396,"dfdf":1397,"bbbebebe":1398,"bbbedd":1399,"fcbbd":1400,"abcc":1401,"bebbecc":1402,"ebcff":1403,"becebd":1404,"bfdec":1405,"edefc":1406,"eccebd":1407,"ebcedc":1408,"ebbbbcc":1409,"dcddc":1410,"efbeee":1411,"dcbfc":1412,"dbea":1413,"fbbeec":1414,"edfec":1415,"dcbebe":1416,"dbeebe":1417,"bbefcc":1418,"bdea":1419,"fcebd":1420,"bffee":1421,"bcbdcc":1422,"bedbbbe":1423,"bbcdbf":1424,"bbbcebb":1425,"bdcebe":1426,"bfbebc":1427,"ecfbf":1428,"bbcbbee":1429,"bedbbf":1430,"bdcef":1431,"bdebec":1432,"eecdee":1433,"bcdbbd":1434,"dbbebf":1435,"bbfbbf":1436,"eecdbe":1437,"dcfec":1438,"ebcbbbc":1439,"bbeac":1440,"bbbbcbbbb":1441,"bdbecc":1442,"ebbfbe":1443,"dcbef":1444,"bcbbbcc":1445,"bbbeed":1446,"eebbbec":1447,"ebefee":1448,"fefcc":1449,"bbbeef":1450,"dbeef":1451,"eeeba":1452,"bcbba":1453,"bbdbbbd":1454,"bbbebbbc":1455,"edcdf":1456,"ecbbebe":1457,"fdbdc":1458,"ffbbc":1459,"bbbbbbee":1460,"ebbbcbc":1461,"beebfc":1462,"dbcdd":1463,"eedbcc":1464,"bfdcc":1465,"eecebe":1466,"bbbea":1467,"bccdf":1468,"fcbdc":1469,"eecebd":1470,"fe</w>":1471,"bebebebe":1472,"bddbb":1473,"ecbbebc":1474,"ebfef":1475,"bfba":1476,"bccecc":1477,"bccebd":1478,"bdcbbc":1479,"becdbc":1480,"ecdedc":1481,"fcdec":1482,"eedbbd":1483,"bffbe":1484,"edcebc":1485,"bbbbebd":1486,"edbbcc":1487,"bebeebe":1488,"fbbebd":1489,"eecdbc":1490,"bcdebd":1491,"ebbbbbf":1492,"bdbcbe":1493,"bbcbbbd":1494,"bececc":1495,"bbdbdc":1496,"ddded":1497,"bddef":1498,"edbecc":1499,"dcefc":1500,"adbe":1501,"edbbebb":1502,"ecdebd":1503,"ebbded":1504,"bdbbbf":1505,"aff":1506,"ebcbdc":1507,"ececbd":1508,"decccc":1509,"bbbebbf":1510,"fbeef":1511,"bfebbc":1512,"bbdff":1513,"dfdbe":1514,"bfbeee":1515,"ecfebb":1516,"ebfbbc":1517,"edbcbc":1518,"dcbbee":1519,"dbcbbc":1520,"fbbecc":1521,"efedc":1522,"deebbc":1523,"bbbeebc":1524,"becdec":1525,"bcb</w>":1526,"aba":1527,"bebeebb":1528,"bddbbbb":1529,"efdcc":1530,"bcedcc":1531,"dbedbe":1532,"ecbbef":1533,"bdbcf":1534,"bbebccc":1535,"ebdebd":1536,"ddbbf":1537,"ecbdbd":1538,"fbebbc":1539,"bbbebbee":1540,"bfbbbd":1541,"bcdbcc":1542,"dfccc":1543,"bffcc":1544,"ebfa":1545,"ebffc":1546,"bdeebe":1547,"bfbbec":1548,"ebbdcc":1549,"bddebe":1550,"dcbebc":1551,"edcfc":1552,"edcebe":1553,"ebcbebe":1554,"bbbebbd":1555,"bbfbec":1556,"deddd":1557,"bedccc":1558,"bdcbec":1559,"aecc":1560,"beebbcc":1561,"abbd":1562,"befdc":1563,"edfbe":1564,"bbeebbc":1565,"ebddbe":1566,"ebfdc":1567,"bbbddd":1568,"abbf":1569,"bddbbc":1570,"fdbbbe":1571,"bdcfc":1572,"bbbefc":1573,"bdbbdd":1574,"eddebe":1575,"bccbbd":1576,"befef":1577,"dbddc":1578,"edbbed":1579,"eecbbd":1580,"ebfebe":1581,"decdd":1582,"bdbbbbc":1583,"bdbcbd":1584,"becff":1585,"ecbbfc":1586,"bdac":1587,"bdebcc":1588,"ebbeebc":1589,"edcbf":1590,"ebbbbbbc":1591,"befdd":1592,"ebbbebd":1593,"fbeebe":1594,"ebbfec":1595,"edbebd":1596,"bdceec":1597,"ebbdebb":1598,"becbbf":1599,"bdbcee":1600,"becbbbc":1601,"ececf":1602,"deddc":1603,"ebcbebc":1604,"dbcfc":1605,"bbcbebc":1606,"ebebebc":1607,"edfcc":1608,"ecbedc":1609,"bcdecc":1610,"dbbedc":1611,"bbcdbd":1612,"eecff":1613,"bdfed":1614,"becbbbe":1615,"eeedcc":1616,"ebbeebe":1617,"bbcdec":1618,"ebedee":1619,"bdcebc":1620,"ccccccc":1621,"effbc":1622,"bedbdc":1623,"eececc":1624,"ecbdcc":1625,"dbcbf":1626,"accc":1627,"bbdbebe":1628,"dbbbbbbbb":1629,"dfebd":1630,"efdbd":1631,"bdeef":1632,"bebbebf":1633,"dfff":1634,"fc</w>":1635,"edcecc":1636,"bccdbe":1637,"dbced":1638,"bfbcbc":1639,"bbcebf":1640,"bdeeee":1641,"deefc":1642,"dcfee":1643,"eedebd":1644,"efba":1645,"efbfc":1646,"bbcbef":1647,"ebbcbbbb":1648,"dbcbbbb":1649,"aebd":1650,"bccff":1651,"dcfcc":1652,"dfbbbb":1653,"ddfbc":1654,"bfbbcc":1655,"bdbbdc":1656,"becbbec":1657,"bdeecc":1658,"bbdecc":1659,"ebbea":1660,"ecdbcc":1661,"efdec":1662,"ebdecc":1663,"aeec":1664,"fdedc":1665,"ebeedc":1666,"ddbbbe":1667,"abbbe":1668,"bbfebc":1669,"ebbbeebb":1670,"eebbbcc":1671,"dfeec":1672,"bbcbfc":1673,"ebfbbbb":1674,"deeccc":1675,"eebbeec":1676,"edeebc":1677,"dbeebc":1678,"bcffc":1679,"ecdbbbb":1680,"bbdbbee":1681,"bbbcebe":1682,"fbac":1683,"dccccc":1684,"fbedc":1685,"dfedc":1686,"ffccc":1687,"ebbefc":1688,"eccdec":1689,"befebe":1690,"dfdbc":1691,"bcbfcc":1692,"bbbebcc":1693,"bdecbc":1694,"ebbbeec":1695,"ebbcbbc":1696,"ebcded":1697,"eceedd":1698,"bedbbbc":1699,"ffebe":1700,"ebddee":1701,"bdbeed":1702,"bbdccc":1703,"ebbbbed":1704,"bdfdc":1705,"eedccc":1706,"dbebcc":1707,"deb</w>":1708,"eeb</w>":1709,"fbebbbb":1710,"ebdbcc":1711,"eedecc":1712,"bfcbf":1713,"ecbbbec":1714,"beeeebe":1715,"bbbcbec":1716,"befbbc":1717,"bee</w>":1718,"dbbdcc":1719,"eebeef":1720,"eccbbbb":1721,"bdecbe":1722,"dcebbc":1723,"babbbb":1724,"eecded":1725,"eebbecc":1726,"dbcef":1727,"edea":1728,"becbdc":1729,"dfbdc":1730,"bbbedbe":1731,"dcbbbd":1732,"bdeebd":1733,"fd</w>":1734,"bbcbbec":1735,"fcbbbc":1736,"ddebf":1737,"bbeebbee":1738,"edfbd":1739,"dbcebe":1740,"bccdee":1741,"eefbf":1742,"bccbbf":1743,"eeeeebe":1744,"fdebf":1745,"eebfcc":1746,"dbbebbc":1747,"bdfbf":1748,"befa":1749,"bbddcc":1750,"bdbcec":1751,"edbcec":1752,"debdcc":1753,"bdcbbbb":1754,"dccdd":1755,"fddcc":1756,"edebcc":1757,"ebbbcbe":1758,"eceeed":1759,"edca":1760,"bdbdcc":1761,"edebec":1762,"bcfdc":1763,"dbbbfc":1764,"efebbc":1765,"ebbebec":1766,"bbbbccc":1767,"bffec":1768,"eebbebd":1769,"bbcbcbc":1770,"dfbbd":1771,"bcbbebd":1772,"bbfff":1773,"bbcfbc":1774,"dbd</w>":1775,"fbefc":1776,"bccbbbc":1777,"ddbbbc":1778,"bebbbdc":1779,"dbbba":1780,"ebdbbd":1781,"bfefc":1782,"dcbbec":1783,"bffbd":1784,"becbebc":1785,"bfdbf":1786,"bcebbcc":1787,"beffc":1788,"fdbbbc":1789,"bdbeebb":1790,"ddbebe":1791,"ecdbbd":1792,"fbbebf":1793,"dccdc":1794,"eddebc":1795,"eccff":1796,"eefebe":1797,"eefef":1798,"edcbbc":1799,"bccbdc":1800,"bddebc":1801,"eaa":1802,"bcebfc":1803,"ebcbbee":1804,"ebcebbc":1805,"bbfbbbe":1806,"feac":1807,"ebbbbebe":1808,"ebcbfc":1809,"bdeeec":1810,"decbec":1811,"bccedc":1812,"dbedf":1813,"ebcebf":1814,"ebbbecc":1815,"bbbbeec":1816,"bbcebbc":1817,"ddbbbd":1818,"bcdedc":1819,"fcded":1820,"deeebe":1821,"edbeed":1822,"abbbc":1823,"dbeecc":1824,"bbcedc":1825,"bebebbbe":1826,"fbbccc":1827,"eebebf":1828,"bbeebbbe":1829,"facc":1830,"dbe</w>":1831,"ebdccc":1832,"bbbbbdc":1833,"ebbdbf":1834,"abba":1835,"bdbccc":1836,"fcfbc":1837,"dfbbf":1838,"bbbbbebc":1839,"dbc</w>":1840,"dcbcbc":1841,"bebeef":1842,"bcfdd":1843,"bcbbeec":1844,"bddfc":1845,"eddeec":1846,"bbbbdbc":1847,"adbc":1848,"ebddec":1849,"febccc":1850,"bbbcbbbe":1851,"deebec":1852,"eecbdc":1853,"bededc":1854,"ebbfbd":1855,"ebddbc":1856,"fcdcc":1857,"ecbedd":1858,"dcbeec":1859,"fcdbd":1860,"bccbbbe":1861,"edfed":1862,"ebcdbd":1863,"efbebc":1864,"ebeba":1865,"bbcbbcc":1866,"abdc":1867,"fcbef":1868,"ebdff":1869,"bbdedc":1870,"dbeccc":1871,"adee":1872,"edeecc":1873,"bfded":1874,"bbfdf":1875,"bfbbbf":1876,"eccbdc":1877,"eebebbbb":1878,"dbbbbcc":1879,"bfbbebb":1880,"bdfebb":1881,"bbbdbbc":1882,"bccdbc":1883,"fbedd":1884,"bcbedc":1885,"bbdbebc":1886,"eceeebb":1887,"bebbccc":1888,"ebbfcc":1889,"ebbebcc":1890,"bebbedc":1891,"ddcdd":1892,"bcdbbbe":1893,"ebdedc":1894,"ebebfc":1895,"decbbc":1896,"eccdbe":1897,"ebcfbc":1898,"bbacc":1899,"bec</w>":1900,"bbbcdd":1901,"ba</w>":1902,"ebfdd":1903,"febecc":1904,"ecbfcc":1905,"bbbbdbd":1906,"bdda":1907,"eefa":1908,"fbbbdc":1909,"bbbbbbec":1910,"bcdbbf":1911,"bebac":1912,"bbfbcc":1913,"eddfc":1914,"bdbedc":1915,"efeeee":1916,"fcbbbe":1917,"fcbfc":1918,"bed</w>":1919,"ebebbbd":1920,"bbeedc":1921,"edeeee":1922,"edbcf":1923,"bfea":1924,"bbeedd":1925,"bcbedd":1926,"fcebf":1927,"becbebe":1928,"bbdebf":1929,"cccdc":1930,"deea":1931,"beeebbbb":1932,"bdbebf":1933,"edcdec":1934,"eddbec":1935,"ffdf":1936,"becded":1937,"eebeebb":1938,"bedbbee":1939,"bebbebbc":1940,"eddbbc":1941,"edbedc":1942,"dbceec":1943,"bcbbecc":1944,"bcdbdc":1945,"ecedcc":1946,"bbfdbe":1947,"bedebf":1948,"eebea":1949,"deedbe":1950,"efbbec":1951,"cccdd":1952,"ebcbef":1953,"bcbebbc":1954,"feebf":1955,"eedbdc":1956,"efea":1957,"beebecc":1958,"ecbbecc":1959,"eedbbbe":1960,"ebebbec":1961,"edbbbf":1962,"dcba":1963,"ebebbebb":1964,"edecbc":1965,"fbea":1966,"ecdbdc":1967,"eecbbbc":1968,"ebdbbf":1969,"fcbebc":1970,"dbcbec":1971,"ebddbd":1972,"dcbeee":1973,"dffbc":1974,"effcc":1975,"eeebbcc":1976,"bbbebbebb":1977,"ebcfec":1978,"bddbbd":1979,"dfdbd":1980,"ffbcc":1981,"ecbba":1982,"ebefbc":1983,"ebdbdc":1984,"ebedbd":1985,"edda":1986,"ebeebbc":1987,"ecdccc":1988,"bbbd</w>":1989,"ebdbbbe":1990,"eecdbd":1991,"ebedec":1992,"deebcc":1993,"ebbbcf":1994,"becdbd":1995,"bcbebbbb":1996,"bdbbebe":1997,"fcedc":1998,"bcccccc":1999,"befbbbb":2000,"eedbbf":2001,"dfdcc":2002,"eecbebc":2003,"bdb</w>":2004,"eebbebf":2005,"bfcbbc":2006,"bbdfbc":2007,"dcfbd":2008,"bbecbbc":2009,"edbdcc":2010,"bddbec":2011,"ebbfebb":2012,"bbbfbbbb":2013,"bbeeef":2014,"bbeea":2015,"beefcc":2016,"becebbc":2017,"dbcebc":2018,"ecbbbcc":2019,"edbcee":2020,"feeebe":2021,"bbbcbbd":2022,"dceebc":2023,"bbbcef":2024,"dbebbd":2025,"eccbbd":2026,"fdbfc":2027,"bdca":2028,"dfdee":2029,"dcdbf":2030,"edac":2031,"bcc</w>":2032,"dceecc":2033,"bdcebb":2034,"eccdee":2035,"bddeec":2036,"eebebbc":2037,"bbbbbbcc":2038,"eddbb":2039,"eecbbf":2040,"bbbcebc":2041,"bcfbf":2042,"bebcbbc":2043,"ecebbcc":2044,"edbcbe":2045,"ebebbcc":2046,"aebf":2047,"ebdbebe":2048,"ebebcbc":2049,"dbebbbe":2050,"dccfc":2051,"dcebec":2052,"eecbbbe":2053,"edcdee":2054,"bbbbebf":2055,"ebf</w>":2056,"fbebcc":2057,"bfcfc":2058,"bbbcfc":2059,"efcdf":2060,"bfddc":2061,"ebbddc":2062,"eccdbc":2063,"ebcbbec":2064,"bbfbbd":2065,"dbdbbc":2066,"ebedcc":2067,"beeebf":2068,"bbbcbcc":2069,"bcfef":2070,"fdbbee":2071,"edbeebb":2072,"ddbfc":2073,"bbbbdf":2074,"ebdbebc":2075,"ebbbcbd":2076,"ebcbbbd":2077,"fbbbbbbbb":2078,"edbbdc":2079,"ecebfc":2080,"efcbf":2081,"eceebf":2082,"ecb</w>":2083,"ecbbeec":2084,"edbcbd":2085,"bcbebf":2086,"bdbbef":2087,"fbcbf":2088,"babbc":2089,"beddcc":2090,"eccded":2091,"ebbecbc":2092,"dbdbf":2093,"efddc":2094,"ebcdcc":2095,"feedd":2096,"ebbeef":2097,"effbe":2098,"bcdccc":2099,"eeebfc":2100,"decbf":2101,"bbf</w>":2102,"becbfc":2103,"dcdebb":2104,"eccfec":2105,"ebbcbf":2106,"dbedee":2107,"bcfbbc":2108,"badd":2109,"efbcbc":2110,"edcedc":2111,"dbebbf":2112,"bebebec":2113,"bebea":2114,"feedc":2115,"edbccc":2116,"dbeeec":2117,"bbbbdee":2118,"ebcbcbc":2119,"cccfc":2120,"bbbcdc":2121,"bdcdf":2122,"bbbbebbc":2123,"dcceec":2124,"ebbeecc":2125,"ecbebbc":2126,"bbbbff":2127,"becfbc":2128,"bbebbbbc":2129,"bcefcc":2130,"ecbbebd":2131,"becebf":2132,"bccdec":2133,"bbccbbc":2134,"bebedc":2135,"bbbbbcbc":2136,"fcbbec":2137,"dedbbc":2138,"eadd":2139,"ebbbebf":2140,"dbca":2141,"bbbbbbbf":2142,"bebbba":2143,"bedbfc":2144,"efdbf":2145,"bdebdc":2146,"becbef":2147,"bbbbbef":2148,"bbfbbbc":2149,"ebbeebd":2150,"edcebd":2151,"bbbdbf":2152,"eefdd":2153,"ccccc":2154,"decfc":2155,"babf":2156,"ebbbbbbbbbb":2157,"edcbcc":2158,"dbeebd":2159,"dbcdbc":2160,"eededc":2161,"ebceebc":2162,"ffbbf":2163,"beeebeee":2164,"bdcbcc":2165,"eccbbf":2166,"bbeebbf":2167,"bcbbccc":2168,"bedebbc":2169,"bbdbbec":2170,"bbdbef":2171,"bdcebd":2172,"deedf":2173,"dee</w>":2174,"fbbedc":2175,"eecdcc":2176,"bebefc":2177,"fbebec":2178,"dbcdf":2179,"bbdbfc":2180,"bbbc</w>":2181,"bbbbecc":2182,"edfdc":2183,"efbbbd":2184,"eebebbbe":2185,"ebbfed":2186,"dcfed":2187,"bcebecc":2188,"dcbbcc":2189,"bbdebbc":2190,"bdcdbe":2191,"fecdd":2192,"decdf":2193,"bebedd":2194,"ebfbec":2195,"ebbeeebb":2196,"bcdebf":2197,"ecedbd":2198,"efbbcc":2199,"eefbbc":2200,"ebbbcee":2201,"aea":2202,"dcfbe":2203,"bdfdd":2204,"feeef":2205,"bfbeec":2206,"eeddcc":2207,"bdbced":2208,"bebcbec":2209,"bbbbcbbc":2210,"edcff":2211,"bccebf":2212,"fbcfc":2213,"decdee":2214,"bfac":2215,"fbcbbc":2216,"bceba":2217,"ebbcebc":2218,"eed</w>":2219,"adbd":2220,"beeebbc":2221,"ecceecc":2222,"ebbbbdc":2223,"decebc":2224,"bdeedc":2225,"fdba":2226,"fdebbc":2227,"ebdded":2228,"aedc":2229,"dfebf":2230,"becbbee":2231,"bebbbfc":2232,"ecffc":2233,"fbebbbe":2234,"bbbbba":2235,"bccbebe":2236,"efefc":2237,"eefdc":2238,"bbeb</w>":2239,"ebbbebbbb":2240,"ffed":2241,"ecbeecc":2242,"ebeea":2243,"abbee":2244,"dbcccc":2245,"fbbbfc":2246,"bdfef":2247,"dcced":2248,"bcbefc":2249,"fbebbf":2250,"ffdbe":2251,"ddbef":2252,"bdeccc":2253,"bebcbbbb":2254,"dbdbbbb":2255,"ded</w>":2256,"ecbeebc":2257,"bfbcf":2258,"becedc":2259,"ebbfbf":2260,"dbbfcc":2261,"dec</w>":2262,"ebbbcec":2263,"dcbecc":2264,"efded":2265,"eeeebeee":2266,"dcbebd":2267,"dcebcc":2268,"ddbbee":2269,"bbebbbbbe":2270,"bedba":2271,"bcdbbbc":2272,"bdcdee":2273,"bfbbed":2274,"beacc":2275,"ffebc":2276,"ddfec":2277,"ebdbbbc":2278,"bccbfc":2279,"bedefc":2280,"ebbdbbc":2281,"ffbec":2282,"ebbdbbbb":2283,"bbbdbbbd":2284,"bdcecc":2285,"eecedc":2286,"beebccc":2287,"ebbcebe":2288,"bebebbee":2289,"eec</w>":2290,"eddecc":2291,"fcfee":2292,"bebebbf":2293,"ebcefc":2294,"eecbfc":2295,"dfbbbe":2296,"bfdebb":2297,"bbcded":2298,"beeebbbe":2299,"bfbecc":2300,"bccdbd":2301,"ebbbccc":2302,"edeebd":2303,"bdecbd":2304,"fbcef":2305,"bbdbbcc":2306,"becdcc":2307,"fecccc":2308,"becbeec":2309,"bbdba":2310,"bceedd":2311,"fcbcbc":2312,"bbcba":2313,"abef":2314,"bbcbbebb":2315,"dbcdee":2316,"ebacc":2317,"ddcdc":2318,"bdecf":2319,"eedbbbc":2320,"effec":2321,"ebfebc":2322,"bbbcbbf":2323,"ebfbbf":2324,"bbbcccc":2325,"bebebcc":2326,"bbbe</w>":2327,"bebeebc":2328,"bdbebbc":2329,"dbddbd":2330,"fbbba":2331,"bdcbdc":2332,"bebcbf":2333,"bbecbf":2334,"fcbeec":2335,"edbced":2336,"dbedbc":2337,"afbc":2338,"ebbbeebe":2339,"becbbbd":2340,"eecfec":2341,"ecceebc":2342,"bfcef":2343,"fbeff":2344,"beeebbee":2345,"bdffc":2346,"bdbbfc":2347,"dcbbed":2348,"dbeff":2349,"bddebd":2350,"edbdbd":2351,"ebfff":2352,"deebbbb":2353,"ebcfee":2354,"eee</w>":2355,"edbbbbc":2356,"bbbeebd":2357,"ebcdebb":2358,"edeeec":2359,"bffbf":2360,"dbebdc":2361,"bbcbeee":2362,"debfcc":2363,"ebbcdd":2364,"bbbca":2365,"ebbcfc":2366,"befdf":2367,"edbbebe":2368,"cccbcc":2369,"eebebbee":2370,"bbecbbbb":2371,"bbdbbebb":2372,"dbcbcc":2373,"dccef":2374,"ebbdbb":2375,"edeef":2376,"ebfbcc":2377,"edbbdd":2378,"ebecbbc":2379,"bcbbbdc":2380,"ebbcbec":2381,"bfeebc":2382,"ebcbebd":2383,"ddefc":2384,"ddfcc":2385,"ddbebc":2386,"eebbbdc":2387,"bdbbebc":2388,"ecdbbbe":2389,"bbbeeec":2390,"ebbbbef":2391,"cccbbc":2392,"ecdbbf":2393,"dfbfc":2394,"bbbebbbd":2395,"bce</w>":2396,"dcea":2397,"ebcbeec":2398,"ebcba":2399,"dcdef":2400,"bfbebd":2401,"bcfebe":2402,"bebbbbcc":2403,"dbebbbc":2404,"abebe":2405,"ffecc":2406,"befbbf":2407,"eebbedc":2408,"cccecc":2409,"ecbefc":2410,"bbbebebc":2411,"bcebccc":2412,"edcded":2413,"bcbebec":2414,"bcbeebe":2415,"deeef":2416,"decbcc":2417,"edeccc":2418,"bbecbec":2419,"bdbedd":2420,"edcdbe":2421,"bbcfee":2422,"bfeeee":2423,"deeecc":2424,"edbebf":2425,"ebcbecc":2426,"beeac":2427,"afee":2428,"fcfcc":2429,"dbcdbe":2430,"eceba":2431,"dbbefc":2432,"fecdf":2433,"bdbcebb":2434,"fbbebbc":2435,"bcbcbbc":2436,"ebdbfc":2437,"bccfbc":2438,"dbcecc":2439,"bbbbfbc":2440,"ebbbbdd":2441,"bdecec":2442,"dbcbbd":2443,"fecdc":2444,"fdefc":2445,"ebbac":2446,"dffcc":2447,"eecbef":2448,"ebbbedc":2449,"bdfbbc":2450,"bbbbbfc":2451,"bdbcbf":2452,"bcd</w>":2453,"dfdec":2454,"ebbdebe":2455,"dccecc":2456,"bcfebc":2457,"bdcccc":2458,"bdcff":2459,"efcdc":2460,"bffdc":2461,"bdcbbd":2462,"bdbba":2463,"befebc":2464,"eebefc":2465,"bbebbebe":2466,"edfbf":2467,"bdbebbbb":2468,"bbfccc":2469,"deeebc":2470,"ddfee":2471,"badc":2472,"bbbdbbd":2473,"ebbdebc":2474,"abfc":2475,"bbeefc":2476,"ff</w>":2477,"bbfebd":2478,"fdfcc":2479,"decebe":2480,"eecbebe":2481,"befbec":2482,"eecbecc":2483,"befbcc":2484,"ecc</w>":2485,"bbeebec":2486,"bdeeebb":2487,"bcfa":2488,"eccbebc":2489,"ebbbeed":2490,"decef":2491,"bfebcc":2492,"decdbe":2493,"ffbbbb":2494,"edebdc":2495,"eecbbec":2496,"bceedc":2497,"eecbeec":2498,"baebe":2499,"bbeedbe":2500,"ebfdf":2501,"eddbbbb":2502,"fbedf":2503,"bcdbbee":2504,"bbebdcc":2505,"edcccc":2506,"dbcebd":2507,"bdeebf":2508,"ebcbbcc":2509,"eddebd":2510,"dbdef":2511,"bddbcc":2512,"dbffc":2513,"ebfccc":2514,"dbbebec":2515,"eebac":2516,"efcdd":2517,"dbdfc":2518,"dccbbc":2519,"bfebec":2520,"ebbecbe":2521,"bbdddd":2522,"dcfdc":2523,"bbeebebe":2524,"ecfdd":2525,"bcbbebf":2526,"fbeccc":2527,"bdbbbec":2528,"bbdbeee":2529,"dbfdd":2530,"eccfbc":2531,"eccbbbe":2532,"eeefcc":2533,"eecebbc":2534,"dbebebe":2535,"ebebebd":2536,"bebb</w>":2537,"eecdebb":2538,"fbeebc":2539,"bbdfee":2540,"eecfbc":2541,"eebbccc":2542,"bbfbebe":2543,"bdbcdc":2544,"bfcdc":2545,"bbfebf":2546,"bfdef":2547,"bbcbbbbc":2548,"ebebbbf":2549,"bbcfec":2550,"ebdfbc":2551,"eebedc":2552,"bbeeebc":2553,"bfbccc":2554,"bdeeed":2555,"fcebbc":2556,"eadc":2557,"efbbebb":2558,"bbbdbbbe":2559,"effbd":2560,"bccbef":2561,"edeedc":2562,"feddd":2563,"bfcdf":2564,"eccdcc":2565,"decdec":2566,"bfcdd":2567,"beeea":2568,"eebedd":2569,"ebbbcebb":2570,"fcfec":2571,"ebbeeebe":2572,"becfec":2573,"bbcbeec":2574,"ebebeebb":2575,"beeebebe":2576,"bcbac":2577,"bbecccc":2578,"bbbeebf":2579,"abca":2580,"efbeec":2581,"bfcebe":2582,"bcbcbbbb":2583,"bbbdebe":2584,"bbccccc":2585,"eeffc":2586,"eccefc":2587,"ebbdef":2588,"ebbebdc":2589,"fbebbee":2590,"ebbbebbc":2591,"eedbfc":2592,"ebbeebf":2593,"bfecbc":2594,"befdbe":2595,"edfebb":2596,"bfbcbe":2597,"bbccbbbb":2598,"ecefcc":2599,"bccbbee":2600,"dbbbdbd":2601,"bbcdcc":2602,"bbbeff":2603,"eceeebe":2604,"bddecc":2605,"bbbedf":2606,"eebeebc":2607,"eccebbc":2608,"bebebbbc":2609,"bdfebe":2610,"becbcbc":2611,"dceebd":2612,"bccbebc":2613,"bbecebe":2614,"debbbbbb":2615,"dbda":2616,"dbddf":2617,"eefbbbb":2618,"bdecee":2619,"eebeebf":2620,"eecba":2621,"bbeddd":2622,"deedee":2623,"dbdebe":2624,"bdcdbc":2625,"bfca":2626,"beeeef":2627,"feea":2628,"eccebf":2629,"ebdebf":2630,"fcbebe":2631,"deddf":2632,"bdd</w>":2633,"befccc":2634,"deceec":2635,"bfcbec":2636,"bcfccc":2637,"bfbcee":2638,"bdedbd":2639,"dcbcee":2640,"ebdebbc":2641,"ebbbbebc":2642,"eddbbd":2643,"eccbbbc":2644,"ecfbbc":2645,"baba":2646,"edbedd":2647,"eeeeef":2648,"bebcebc":2649,"ece</w>":2650,"bccbcbc":2651,"bdbeebe":2652,"dbddbe":2653,"bcddcc":2654,"eecbcbc":2655,"ecdeecc":2656,"deedbc":2657,"bccdcc":2658,"bbbfbbc":2659,"ebcfbe":2660,"ecddcc":2661,"bbbcbbbd":2662,"bccded":2663,"bbbcdbe":2664,"ebbbdbd":2665,"dbbbecc":2666,"feebbc":2667,"bfbbbbc":2668,"bccfec":2669,"ebcfcc":2670,"fcbbee":2671,"bbdbebd":2672,"fdbbcc":2673,"bbebebbbb":2674,"efcef":2675,"eccbebe":2676,"adcc":2677,"bbbeccc":2678,"ddfbd":2679,"eaebe":2680,"fbcdf":2681,"ecdebf":2682,"bcfbec":2683,"bbbced":2684,"beecbec":2685,"cccccccccccccccc":2686,"bbbebbec":2687,"eebcbbc":2688,"eebebbf":2689,"fbbdcc":2690,"dcbeed":2691,"bcbbbbcc":2692,"eccbfc":2693,"bebcfc":2694,"bdbbbbbbbb":2695,"bebcebe":2696,"bbbceec":2697,"bbbbdbbbb":2698,"bbdbcbc":2699,"bbbda":2700,"baef":2701,"ffebf":2702,"deebbf":2703,"ecdebbc":2704,"ecdefc":2705,"dedbec":2706,"ebceecc":2707,"eccfcc":2708,"ecbeccc":2709,"ecbeebe":2710,"eeebecc":2711,"dbeedc":2712,"ebbcef":2713,"ebbfdc":2714,"eccdbd":2715,"deca":2716,"fbcbec":2717,"dbcbbf":2718,"dccebe":2719,"bdcdbd":2720,"bbcbebd":2721,"bdcedc":2722,"bedbbcc":2723,"bcbeef":2724,"deeed":2725,"efcfc":2726,"bccbbcc":2727,"ebddebb":2728,"bbdbbed":2729,"dceeee":2730,"eebbbbbbbb":2731,"ebdbbee":2732,"bafc":2733,"bffed":2734,"ebbeeec":2735,"bdbeef":2736,"ecbea":2737,"fbeebf":2738,"ecebccc":2739,"ecebecc":2740,"efcbbc":2741,"bbfbbee":2742,"bbdbeec":2743,"bbfeec":2744,"bbbfbf":2745,"dccbec":2746,"dcdebe":2747,"dbebbee":2748,"ddebbc":2749,"ebbbbbec":2750,"bebcef":2751,"bedbecc":2752,"eebebcc":2753,"ebdbbbd":2754,"ebcddc":2755,"fcdbf":2756,"eddbcc":2757,"dcecbc":2758,"fecbec":2759,"eedbbee":2760,"eedba":2761,"bbccebe":2762,"dbbea":2763,"cccef":2764,"bcbebbbe":2765,"bfeef":2766,"edbbef":2767,"eeeea":2768,"dcbcbd":2769,"dbcff":2770,"dceeec":2771,"ddba":2772,"bcdbfc":2773,"ebcebec":2774,"edfef":2775,"bfbcec":2776,"bfbcbd":2777,"aca":2778,"eddedc":2779,"ebebecc":2780,"bdcdec":2781,"ecfef":2782,"bbdeebc":2783,"ebeded":2784,"efcbec":2785,"ebbdfc":2786,"ebfebf":2787,"bdcbbf":2788,"edbebbc":2789,"dddbf":2790,"bbbcebd":2791,"eeeebbbb":2792,"bcfdf":2793,"ebcbeee":2794,"fecbbc":2795,"edbbebc":2796,"ebcebcc":2797,"bbbcbebe":2798,"bebbea":2799,"ddbbec":2800,"bfcbbbb":2801,"bcbedbe":2802,"ecbbccc":2803,"bccbbec":2804,"dbcbbbe":2805,"bcbbedc":2806,"becbecc":2807,"fccccc":2808,"bbfecc":2809,"beebbbbbb":2810,"ebddcc":2811,"ebcdbf":2812,"eecebf":2813,"eecfee":2814,"bbbcdf":2815,"fceebc":2816,"dcbccc":2817,"ecdbfc":2818,"ebbbced":2819,"bbedbbc":2820,"ecfccc":2821,"edbcebb":2822,"eecbbee":2823,"bdfa":2824,"dbdbec":2825,"deedcc":2826,"bfbebf":2827,"ebcecbc":2828,"dcdfc":2829,"deebdc":2830,"ddbeee":2831,"fccef":2832,"eecbbbd":2833,"bbfdbc":2834,"fccfc":2835,"dceccc":2836,"beecbbc":2837,"bbfbfc":2838,"bbdfbd":2839,"eefdf":2840,"befbbbe":2841,"fbbbbcc":2842,"adec":2843,"bdedcc":2844,"eeeebbee":2845,"ffdbc":2846,"ebfbbbe":2847,"ecdbbbc":2848,"ecbedbe":2849,"ebebbebe":2850,"eefccc":2851,"bcbebcc":2852,"abea":2853,"eaef":2854,"eccbecc":2855,"dedccc":2856,"bbffbc":2857,"bbceebc":2858,"ecbebcc":2859,"ebdeebc":2860,"becfee":2861,"fbedbe":2862,"dddebb":2863,"edecbd":2864,"fbeebb":2865,"ecbbedc":2866,"eeceecc":2867,"fdbecc":2868,"ebcfed":2869,"ffbbd":2870,"eedebf":2871,"becba":2872,"ebdfec":2873,"dcbbebb":2874,"dcbcec":2875,"ffdcc":2876,"fbebbbc":2877,"bbbebdc":2878,"dedbf":2879,"bcfbcc":2880,"ecbebbbb":2881,"bbfbef":2882,"deebbd":2883,"ecbeedc":2884,"edeebe":2885,"becbbcc":2886,"becdebb":2887,"fcbbbd":2888,"bdfebc":2889,"dbdbbd":2890,"efca":2891,"efac":2892,"bbbedbc":2893,"ffbdc":2894,"eebbebbc":2895,"bcbeebc":2896,"bcbea":2897,"ebbeccc":2898,"bbcbbed":2899,"ebbeedc":2900,"eedbecc":2901,"bbbbbeee":2902,"efbbbf":2903,"ebbfebe":2904,"ecfa":2905,"ebebeec":2906,"bcbbebbc":2907,"eeeebebe":2908,"dbebebc":2909,"bbbbbbed":2910,"febdcc":2911,"bbbdbbee":2912,"fcba":2913,"eecddc":2914,"eeebccc":2915,"bbbbbebbbb":2916,"ffebd":2917,"dbedbd":2918,"bffebb":2919,"bbfdee":2920,"edcfec":2921,"ebbfef":2922,"eebeecc":2923,"fbebdc":2924,"effbf":2925,"edcbdc":2926,"fcbbcc":2927,"fbcdd":2928,"dececc":2929,"ecd</w>":2930,"dcac":2931,"edcdbc":2932,"eecbebd":2933,"edfdd":2934,"defdd":2935,"ebbbba":2936,"dfbbbc":2937,"edbcdc":2938,"ebbcbbbe":2939,"efbbed":2940,"eeceebc":2941,"bdbbbcc":2942,"bfdbbc":2943,"bbcdebb":2944,"bbdfec":2945,"eefbeee":2946,"dfddc":2947,"bbcbbbf":2948,"edcbbbb":2949,"bbcefc":2950,"bedebec":2951,"bfcbcc":2952,"bbecebc":2953,"fdac":2954,"ebebbed":2955,"deddee":2956,"bcfbbbb":2957,"fdea":2958,"ebdbef":2959,"bdbbebd":2960,"dfbebe":2961,"bbecdd":2962,"ebbdbec":2963,"deddbe":2964,"bbcebec":2965,"feeccc":2966,"bedebcc":2967,"bcfbbf":2968,"bbbcbcbc":2969,"dccebc":2970,"ecbbbdc":2971,"ebefcc":2972,"fbb</w>":2973,"bbbebeee":2974,"bccbbbd":2975,"bbbeecc":2976,"beceebc":2977,"fcdef":2978,"eaea":2979,"ebbbbfc":2980,"bccebbc":2981,"fcefc":2982,"fcbecc":2983,"dbddee":2984,"bbbebef":2985,"bfcebc":2986,"fbddd":2987,"edecec":2988,"ecbac":2989,"ebfbebe":2990,"becbebd":2991,"edb</w>":2992,"ebbecbd":2993,"bbdbbbbc":2994,"ebefbe":2995,"ebeeebc":2996,"bbfbdc":2997,"ebbbcdc":2998,"edbbfc":2999,"bbdefc":3000,"edffc":3001,"eeacc":3002,"bddbdc":3003,"ddeecc":3004,"acba":3005,"bcdebbc":3006,"ebbca":3007,"dceedc":3008,"bbdebec":3009,"ddeebc":3010,"eecbbcc":3011,"dbbebcc":3012,"bebbebec":3013,"bdeedd":3014,"dbbb</w>":3015,"bfbbdc":3016,"decdbc":3017,"bbebfcc":3018,"fbbefc":3019,"bccefc":3020,"decbbbb":3021,"eccbbee":3022,"dcbedc":3023,"bdecdc":3024,"dcbbbf":3025,"dbdebc":3026,"eebeccc":3027,"eebebec":3028,"fcddc":3029,"fbcccc":3030,"bbbdef":3031,"ebbbeef":3032,"ebedebb":3033,"fbbea":3034,"ebeddc":3035,"fdebcc":3036,"bebbefc":3037,"bcfdbe":3038,"ecbedbc":3039,"debac":3040,"eedebbc":3041,"bdecbf":3042,"bddbbbe":3043,"bebca":3044,"bebcbbbe":3045,"fecbf":3046,"eeeebf":3047,"ebceebd":3048,"fdebec":3049,"eccebcc":3050,"fbcbbbb":3051,"eccfed":3052,"eeeeccc":3053,"eefbcc":3054,"eecdbf":3055,"becefc":3056,"eefbbf":3057,"ebbfbbc":3058,"ddbbcc":3059,"ebcfbd":3060,"eebbba":3061,"ebcbbebb":3062,"dccbf":3063,"efecbc":3064,"bebbdcc":3065,"dcdebc":3066,"dcdbbc":3067,"bdeced":3068,"dddddddd":3069,"dcdeec":3070,"fcdebb":3071,"ebbbcbf":3072,"bbcbecc":3073,"eeeac":3074,"abbbd":3075,"ecbebec":3076,"bebebeee":3077,"ddbcbc":3078,"edbeebc":3079,"ebbdbbd":3080,"bebceec":3081,"bcfecc":3082,"fcebec":3083,"dbeebf":3084,"ffdee":3085,"edceecc":3086,"ebcbbed":3087,"ebefbd":3088,"bbdbbbf":3089,"feebbee":3090,"bbbcdee":3091,"efbebd":3092,"ebbceec":3093,"befbbee":3094,"bcbbba":3095,"ebdbbec":3096,"aac":3097,"efebcc":3098,"dccdcc":3099,"dcbbdc":3100,"dbedec":3101,"abeee":3102,"bbbdbec":3103,"eebeff":3104,"eabf":3105,"dbbbccc":3106,"bcbedf":3107,"bcbbbfc":3108,"ecbebf":3109,"ebbbebbbe":3110,"feddf":3111,"efdebb":3112,"befebf":3113,"beecccc":3114,"ebeefc":3115,"ddbeec":3116,"bcdefc":3117,"bceebbc":3118,"fbebbd":3119,"bebeccc":3120,"bbbddbd":3121,"bbccbec":3122,"edcbbd":3123,"efbecc":3124,"ebdba":3125,"bbbcbbee":3126,"bbbcdbc":3127,"eedefc":3128,"bbecdf":3129,"bedea":3130,"ebefec":3131,"bedeecc":3132,"bdebfc":3133,"eecefc":3134,"ebedbf":3135,"edceebc":3136,"ebeebcc":3137,"ebbcbcc":3138,"efdef":3139,"bceac":3140,"dedfc":3141,"bbcfcc":3142,"fbca":3143,"bcbcccc":3144,"bbebbbf":3145,"ecfecc":3146,"bcbebbf":3147,"ebdefc":3148,"becebec":3149,"fbcebc":3150,"ebfecc":3151,"bfcff":3152,"ebebbbbc":3153,"deebbbe":3154,"dfbbee":3155,"ebebeebe":3156,"ebdbebd":3157,"befbebe":3158,"eeeebbbe":3159,"bdddcc":3160,"bdcbbbe":3161,"bdbfcc":3162,"eecfed":3163,"ddbebd":3164,"fbcdc":3165,"ebbbbbcc":3166,"feeff":3167,"ebcea":3168,"bbbcbebc":3169,"ddbecc":3170,"dbddbc":3171,"fcfbd":3172,"bfbeebb":3173,"edcbebc":3174,"eefbebe":3175,"ebbcdc":3176,"fbeed":3177,"dbbecbc":3178,"fbeecc":3179,"bddbbf":3180,"ebdbeec":3181,"bcfeec":3182,"bbcfbd":3183,"ea</w>":3184,"deda":3185,"ecdbbee":3186,"bedfcc":3187,"ebdfee":3188,"bfbbef":3189,"ebbcbbd":3190,"ebebccc":3191,"edddcc":3192,"bfeecc":3193,"dccbcc":3194,"ecfbcc":3195,"edcebb":3196,"ebdddc":3197,"bbbebbcc":3198,"bfcdbe":3199,"bbbbbebd":3200,"efbcec":3201,"edbefc":3202,"bbecfc":3203,"dffec":3204,"deebbee":3205,"dbdeec":3206,"bfbbebe":3207,"ebffee":3208,"bdbdbdbd":3209,"becbeee":3210,"bbbddbe":3211,"ebfdbe":3212,"ebbcbbf":3213,"bdbbeec":3214,"debbbbc":3215,"ebfbef":3216,"bbbbbbebe":3217,"edecbe":3218,"bddedc":3219,"dbfdc":3220,"efbccc":3221,"ddebcc":3222,"bcbeccc":3223,"ebdbecc":3224,"ebdeecc":3225,"fbbfcc":3226,"bbccfc":3227,"ecdbecc":3228,"bebebbd":3229,"ebbda":3230,"eefbbee":3231,"ebcdebe":3232,"becebcc":3233,"edbcbf":3234,"eecbedc":3235,"bbfbebc":3236,"edfbbc":3237,"becbbebb":3238,"eabbc":3239,"bbbcbbbbc":3240,"beeeeeee":3241,"fffbc":3242,"ebeeeebb":3243,"bbbddc":3244,"beecdf":3245,"eedeecc":3246,"eecebcc":3247,"bccbccc":3248,"edbeebe":3249,"fdeecc":3250,"ebbcdbe":3251,"ecdfcc":3252,"bebebdc":3253,"bffef":3254,"dccdf":3255,"fccbec":3256,"feefc":3257,"ebebebf":3258,"ebeebec":3259,"ebbcdf":3260,"bbbedee":3261,"bebbebcc":3262,"bdeebbc":3263,"bbebbbbebb":3264,"efebec":3265,"ecfedc":3266,"bfcdee":3267,"ebbbedd":3268,"dbdbdc":3269,"eebcbec":3270,"bebcbebc":3271,"ddcfc":3272,"eecfbd":3273,"eefbef":3274,"ebdbcbc":3275,"dbdccc":3276,"bbdbbdd":3277,"bbbebcbc":3278,"ddebec":3279,"ddbbed":3280,"dedef":3281,"bbbcbdc":3282,"ecceccc":3283,"ddfdc":3284,"abbec":3285,"dcbcbe":3286,"bbccef":3287,"bccfcc":3288,"bbfbbbd":3289,"ebebcec":3290,"deddbc":3291,"bbbcbbec":3292,"dbfbf":3293,"ebeecbc":3294,"dcfbf":3295,"ffbbbe":3296,"ecfbec":3297,"bbbcbbebb":3298,"bbccbf":3299,"ebccbbc":3300,"ecfebc":3301,"fbedbc":3302,"eccbef":3303,"dbedcc":3304,"deacc":3305,"bbbbbeebb":3306,"abebc":3307,"eccbbec":3308,"bccfee":3309,"bbccebc":3310,"afcc":3311,"ecccccc":3312,"eefbec":3313,"bcacc":3314,"eccbcbc":3315,"dbded":3316,"ffbef":3317,"bcfedc":3318,"bde</w>":3319,"ecceebd":3320,"feebeee":3321,"bbbbbcbbbb":3322,"bbbeebbc":3323,"bbdbecc":3324,"eebebdc":3325,"ecbeed":3326,"bbbddf":3327,"ebcbbbf":3328,"ffbbee":3329,"bcfebd":3330,"bfdbbbb":3331,"bccbeee":3332,"bcceebc":3333,"ddea":3334,"dbcbdc":3335,"eccbeec":3336,"bfdfc":3337,"deeeec":3338,"bbbcebf":3339,"fcebcc":3340,"fcbebd":3341,"edcdcc":3342,"deeebd":3343,"eceeccc":3344,"fbcebe":3345,"ecbcbbc":3346,"dffbd":3347,"fcbbed":3348,"eebbbfc":3349,"dbfef":3350,"dbfbbc":3351,"edcefc":3352,"feebbf":3353,"afec":3354,"eefebf":3355,"bfcbbf":3356,"ebbcebd":3357,"dfbef":3358,"edcebf":3359,"ebcbedc":3360,"dcfdd":3361,"fcceec":3362,"bbdbdbd":3363,"bdcebf":3364,"edcbbf":3365,"edeeebb":3366,"ecdebcc":3367,"ebbbcbbbb":3368,"bebbbecc":3369,"ffdbd":3370,"efbbef":3371,"dbbeecc":3372,"bdc</w>":3373,"ecbeebd":3374,"bfeebd":3375,"bcbb</w>":3376,"dfbebc":3377,"bcceecc":3378,"ecbbebf":3379,"ebcdebc":3380,"bfeccc":3381,"bbdbbdc":3382,"efeebc":3383,"ecbedcc":3384,"dcebdc":3385,"dbcebb":3386,"effdc":3387,"edcdbd":3388,"decebd":3389,"bebedbe":3390,"dcbbdd":3391,"bbeebcc":3392,"fbcbcc":3393,"dbcdbd":3394,"bebeecc":3395,"bbbdbbf":3396,"dbbac":3397,"abcbc":3398,"bcdba":3399,"beeebbf":3400,"bbbcff":3401,"ebcbcec":3402,"decded":3403,"ebecbec":3404,"ebeeebe":3405,"bfdebe":3406,"afbd":3407,"bcbeed":3408,"dcdecc":3409,"bbccbcc":3410,"ddbbdd":3411,"eebbbbcc":3412,"eecdebc":3413,"bdecebb":3414,"bebeebf":3415,"bebcbcc":3416,"fbcff":3417,"bbecdee":3418,"efbcee":3419,"ebecbbbb":3420,"dcdcdcdc":3421,"eebbea":3422,"eefbbbe":3423,"bebcdd":3424,"bfda":3425,"bbdfcc":3426,"bffdd":3427,"ebedbbc":3428,"dfba":3429,"bbeeccc":3430,"bbee</w>":3431,"eecbeee":3432,"ebeeeebe":3433,"ecceedc":3434,"ebbecec":3435,"fffee":3436,"effef":3437,"becfcc":3438,"eefebc":3439,"dcdbec":3440,"ddddcc":3441,"bcbebbbc":3442,"bcfebf":3443,"becfed":3444,"bbbdfc":3445,"decbdc":3446,"bfceec":3447,"bebcdf":3448,"ebbeeef":3449,"ebbbdbc":3450,"ebebcbd":3451,"ddbdbd":3452,"bdbefc":3453,"dcca":3454,"edbbbec":3455,"bcbcfc":3456,"becbbed":3457,"ddcef":3458,"bbbeba":3459,"bbbbdebb":3460,"bbeebeee":3461,"becfbd":3462,"eccecbc":3463,"dccdee":3464,"ddfed":3465,"bbecef":3466,"bebbfcc":3467,"bbeebbebb":3468,"bdcfbc":3469,"bcbeeec":3470,"bfbeed":3471,"ebccfc":3472,"bebcccc":3473,"bbdfbe":3474,"dbebef":3475,"ebbdeec":3476,"abbcc":3477,"bbbedbd":3478,"feebbbb":3479,"beeefc":3480,"edeeed":3481,"bdebbcc":3482,"eeeebbc":3483,"dedebc":3484,"fecef":3485,"ddcbbc":3486,"dcecbe":3487,"dbcbbbc":3488,"edbeef":3489,"becdbf":3490,"eecdfc":3491,"bfbcbf":3492,"edcfbc":3493,"dbcdec":3494,"bbecdbe":3495,"edfebe":3496,"bbbdbbbc":3497,"dddef":3498,"eebcfc":3499,"bcbeecc":3500,"dcecec":3501,"ebbbcbbc":3502,"dedbcc":3503,"ebebcee":3504,"befbef":3505,"dcffc":3506,"eafc":3507,"bbbebbbbc":3508,"dfefc":3509,"dcbced":3510,"eedbbcc":3511,"decbbd":3512,"bebdbbbb":3513,"ddfbe":3514,"bbeebbd":3515,"bbeca":3516,"efbcbd":3517,"bbfdbd":3518,"bbedbbbb":3519,"ebebbef":3520,"bebdbbc":3521,"edbeecc":3522,"ededcc":3523,"bbbdebc":3524,"bbbebfc":3525,"efbebf":3526,"eabbbb":3527,"bcdfcc":3528,"bbeebbbc":3529,"bbabbbb":3530,"abda":3531,"edcebbc":3532,"dccebd":3533,"bbebebbc":3534,"dddbbc":3535,"ebccebc":3536,"efdbbc":3537,"fbceec":3538,"badf":3539,"eccebec":3540,"feedf":3541,"dcbbbbc":3542,"bbbebbbf":3543,"bfdbb":3544,"bdcfec":3545,"bccbecc":3546,"ebbcccc":3547,"bddccc":3548,"ebbfdd":3549,"dceeed":3550,"ebefbf":3551,"beceecc":3552,"feebebe":3553,"bcbebbd":3554,"beebdcc":3555,"eecfcc":3556,"eccbebd":3557,"ebebbdc":3558,"eccddc":3559,"dbfa":3560,"bbebbbbbc":3561,"bbcbccc":3562,"dcda":3563,"dbcbebe":3564,"efbbebe":3565,"eebeedc":3566,"ebfbdc":3567,"fbcbbf":3568,"ebbcbbbc":3569,"dbebbbd":3570,"efbeebb":3571,"ffedc":3572,"bbecbcc":3573,"bfecbe":3574,"bbcceec":3575,"becfbe":3576,"bbebac":3577,"eddbdc":3578,"edecdc":3579,"ffeec":3580,"ebccebe":3581,"dbebcbc":3582,"ebcbcbd":3583,"fbddf":3584,"ececccc":3585,"bbfba":3586,"dddebe":3587,"feebbbe":3588,"ededbd":3589,"bcbedee":3590,"bebebebc":3591,"eccdebb":3592,"bceefc":3593,"fecfc":3594,"deddec":3595,"eebcbbbb":3596,"eeecccc":3597,"bccba":3598,"dbebbec":3599,"edbba":3600,"ebbffc":3601,"ebddbf":3602,"befbbd":3603,"beeeccc":3604,"edcbfc":3605,"eddccc":3606,"dddbbbb":3607,"bccebec":3608,"ebbfbbbb":3609,"bdbebec":3610,"ffbebe":3611,"ecbbbbbbbb":3612,"dbefbc":3613,"dedeec":3614,"dcbdbd":3615,"aebbc":3616,"bdeba":3617,"dfbcbc":3618,"fbeebd":3619,"ebbfebc":3620,"bbecbbd":3621,"feebcc":3622,"fcdbec":3623,"ebfebd":3624,"fecbcc":3625,"addc":3626,"bbbbcbbbc":3627,"ebcbccc":3628,"fbbebec":3629,"deebbbc":3630,"ecbebdc":3631,"bbbbdec":3632,"bbbbbbdd":3633,"dbdebd":3634,"edcbecc":3635,"ebfbbd":3636,"eceebbc":3637,"edeedd":3638,"ddeeee":3639,"fbebfc":3640,"fffcc":3641,"befebd":3642,"efbcf":3643,"dcbcf":3644,"bceebf":3645,"bcdebec":3646,"cccbf":3647,"fbeeec":3648,"dbebfc":3649,"dcfebb":3650,"bdbbecc":3651,"bddebf":3652,"ebefebb":3653,"ebfbbee":3654,"bcdbbcc":3655,"aded":3656,"decdcc":3657,"bcbbdcc":3658,"ebcdfc":3659,"bdcbbbc":3660,"ebbdebd":3661,"ebcdef":3662,"ebfeec":3663,"bddbbbc":3664,"dcdbb":3665,"ebbeebbbb":3666,"bbcddc":3667,"bebcebd":3668,"eccfbd":3669,"beeedd":3670,"bdcded":3671,"abbebb":3672,"eebeebd":3673,"ebbbbebd":3674,"babba":3675,"decbbf":3676,"ecfdf":3677,"bbccdd":3678,"dbdbcc":3679,"ecfeec":3680,"beecbf":3681,"eedea":3682,"ecbcccc":3683,"efcdee":3684,"edcfcc":3685,"eefdbe":3686,"bbbefbc":3687,"bebcbbd":3688,"ada":3689,"eedebcc":3690,"dfdbf":3691,"bcbebbee":3692,"beccbec":3693,"dcecbd":3694,"dfebbc":3695,"eecea":3696,"befbdc":3697,"bbfbbbf":3698,"fbdef":3699,"adbf":3700,"feb</w>":3701,"eeecbbc":3702,"eebbdcc":3703,"bbfebbc":3704,"bcbedbc":3705,"eccfee":3706,"ecbcfc":3707,"bcbcbf":3708,"bbbbedc":3709,"dcbebf":3710,"bcbcbcc":3711,"ecbeef":3712,"ccccccccc":3713,"ebccef":3714,"bebddd":3715,"bcbeebd":3716,"debb</w>":3717,"bbffee":3718,"ffbbbc":3719,"ebfed":3720,"dcbedd":3721,"bcbcdd":3722,"bdeeebe":3723,"bceebec":3724,"fcbeee":3725,"dccedc":3726,"bef</w>":3727,"ecbebbbe":3728,"abbbf":3729,"dceef":3730,"deedbd":3731,"eebcebc":3732,"ecdea":3733,"bebebbebb":3734,"dfded":3735,"ffbfc":3736,"aefc":3737,"babec":3738,"ebecebc":3739,"babbbe":3740,"dceebe":3741,"eeccccc":3742,"bebebef":3743,"bbdea":3744,"bbbbcbbbbc":3745,"bbdbcbd":3746,"ebfdbc":3747,"fccbbc":3748,"bebeebd":3749,"beecdd":3750,"dffdc":3751,"dbbcbbbb":3752,"bbfedc":3753,"bedbbbbc":3754,"fbbbecc":3755,"fbdbf":3756,"ebfbbbc":3757,"becceec":3758,"befecc":3759,"dcbeebb":3760,"bcdeecc":3761,"effed":3762,"bdcdcc":3763,"bbeceec":3764,"deeddc":3765,"bbcbbdc":3766,"dfbbcc":3767,"deeff":3768,"befeec":3769,"bbebbbec":3770,"cccbec":3771,"ebcceec":3772,"bbcbcbd":3773,"edd</w>":3774,"debbdd":3775,"acea":3776,"ebbbdbe":3777,"edfa":3778,"bfdebc":3779,"bdcbfc":3780,"eefecc":3781,"ebceedc":3782,"bcecccc":3783,"bbcfbe":3784,"bbfbbec":3785,"edbebbbb":3786,"bccbeec":3787,"fcbbbf":3788,"ccceec":3789,"bcfbbd":3790,"edecf":3791,"dffee":3792,"ebdfcc":3793,"bdcbebe":3794,"bccddc":3795,"edbbebd":3796,"ebceccc":3797,"bbed</w>":3798,"ebbdecc":3799,"bcfbbbe":3800,"bbbbebec":3801,"edcbeec":3802,"becbedc":3803,"bcfdbc":3804,"ebccdd":3805,"bceedbe":3806,"ebcbbdc":3807,"ebcbbbbc":3808,"edcdebb":3809,"ebbeeed":3810,"bbbbbbdc":3811,"becddc":3812,"bdcefc":3813,"efbbdc":3814,"ebdfbd":3815,"deebbec":3816,"bbfdec":3817,"beccbbc":3818,"ebbecf":3819,"dbbbbbbc":3820,"aeeee":3821,"edeebf":3822,"dcbbef":3823,"ebbedcc":3824,"bebeff":3825,"edbebec":3826,"fcfed":3827,"eceac":3828,"fdbccc":3829,"dbf</w>":3830,"ebbedbd":3831,"deedec":3832,"eccbbcc":3833,"eebebbbc":3834,"ebcebdc":3835,"bfbedc":3836,"ebeeecc":3837,"ebcdbbc":3838,"bcecbbc":3839,"eddbbf":3840,"dcbcdc":3841,"bfbced":3842,"dcecdc":3843,"bbeedf":3844,"bbebbbbf":3845,"bdbbbdc":3846,"bdfdf":3847,"bebedbc":3848,"befdbc":3849,"ebbdbcc":3850,"bbbcbbcc":3851,"ebddebe":3852,"bccfbd":3853,"bebdbec":3854,"bbbcdbd":3855,"ecacc":3856,"bdecdd":3857,"bbbbfee":3858,"ebebcbe":3859,"ecdba":3860,"edfebc":3861,"ebdbeee":3862,"badbe":3863,"bcbcbec":3864,"bfbbfc":3865,"bebedf":3866,"bbbbbeec":3867,"ebbeebbc":3868,"bbbebbbbbbbb":3869,"eccfdc":3870,"bbedbec":3871,"eeccfc":3872,"bcbcef":3873,"deebebc":3874,"ecbcdd":3875,"efcbcc":3876,"ebccbec":3877,"edbbecc":3878,"eecdef":3879,"ecdebec":3880,"bbebbef":3881,"bbceebd":3882,"bbebbbbd":3883,"ebcbeed":3884,"edbea":3885,"ebbb</w>":3886,"eeeefee":3887,"dedebe":3888,"ffddc":3889,"bbec</w>":3890,"befdee":3891,"ebecfc":3892,"bbbbdbf":3893,"ebceeec":3894,"eebeeec":3895,"bbeeebf":3896,"babbf":3897,"eccea":3898,"edcbbbe":3899,"befbbbc":3900,"ecdeccc":3901,"dbbcbbc":3902,"ecbedf":3903,"ebbbdcc":3904,"bfecbd":3905,"ebeca":3906,"fbdbbc":3907,"eebebbd":3908,"ebdebcc":3909,"fcbeed":3910,"dbebbcc":3911,"effebb":3912,"fcbccc":3913,"feca":3914,"babbd":3915,"bdbddd":3916,"ebbecebb":3917,"bcdbecc":3918,"bbbddbc":3919,"dbdecc":3920,"fedccc":3921,"ebfdee":3922,"ebbcdbc":3923,"daa":3924,"febfcc":3925,"eadf":3926,"decff":3927,"dbdbbbe":3928,"bffbbc":3929,"ebbfa":3930,"dccdbe":3931,"ecbebbd":3932,"bbecbbbe":3933,"ebfbeee":3934,"ebbcecc":3935,"bebcbbbc":3936,"bbcdef":3937,"bdcbbee":3938,"eebcdd":3939,"bbebbbebe":3940,"bfcbbd":3941,"fccdf":3942,"bebcdc":3943,"bbbbbbbbbbc":3944,"bcbcebe":3945,"bbbbcbbbe":3946,"beebbebe":3947,"fbeba":3948,"bceebbbb":3949,"ecbbebbc":3950,"bebcbbf":3951,"edbfcc":3952,"bebcdbe":3953,"bcfdee":3954,"bdcbbbd":3955,"ecbbbfc":3956,"bbcdebe":3957,"fbe</w>":3958,"ebdbbcc":3959,"ebbcdee":3960,"fcdeec":3961,"bdebbebb":3962,"bbbfbbf":3963,"bbbfbbbe":3964,"cccebe":3965,"ebecbcc":3966,"ecbcbec":3967,"dbcedc":3968,"ecfebe":3969,"dceedd":3970,"bfffc":3971,"ebcfdc":3972,"bdeeef":3973,"ebfedc":3974,"efbeebe":3975,"bbbffc":3976,"bbbbbbbbcc":3977,"edbcdd":3978,"bdefcc":3979,"bebcdee":3980,"bfeebe":3981,"ecceeec":3982,"edbebcc":3983,"ebdea":3984,"dbcfbc":3985,"beeebcc":3986,"beccef":3987,"bfbcebb":3988,"bbbdbcc":3989,"ebfbfc":3990,"bcfbdc":3991,"dbbebdc":3992,"bccccccc":3993,"eccbedc":3994,"fbdfc":3995,"edbcbbc":3996,"ebdecbc":3997,"bbbdbebe":3998,"eeeebbf":3999,"beccccc":4000,"dcbbebe":4001,"bcfbfc":4002,"efcff":4003,"babcc":4004,"dbbbddd":4005,"fccdd":4006,"ecdedcc":4007,"dccff":4008,"ebecdd":4009,"bcecbec":4010,"dccdbc":4011,"ebcbcee":4012,"bbcea":4013,"dbdbbf":4014,"eedfcc":4015,"fbbebcc":4016,"ddceec":4017,"edcbbbc":4018,"bdbcbbbb":4019,"dedded":4020,"ebebeef":4021,"edcbbee":4022,"feefee":4023,"eebcccc":4024,"dcecee":4025,"dbbecbe":4026,"dcfef":4027,"bdfbec":4028,"dccbbbb":4029,"bbeddf":4030,"deffc":4031,"bcbddd":4032,"bcecdd":4033,"ebcfebb":4034,"decbeec":4035,"ebdfed":4036,"bbcebcc":4037,"bbbbbbbbbbbc":4038,"edcbebe":4039,"befbeee":4040,"bbbddee":4041,"dbeba":4042,"decdbd":4043,"ebbeedd":4044,"becbeed":4045,"ebbcbebe":4046,"bbcfed":4047,"afbe":4048,"efda":4049,"efbeef":4050,"beecbbbb":4051,"efdfc":4052,"efbeed":4053,"eccdbf":4054,"dddddd":4055,"eececbc":4056,"bbecbbf":4057,"bbebebbbe":4058,"ebbecdc":4059,"bcbebdc":4060,"ebdebec":4061,"bfeebf":4062,"bbcdbbc":4063,"ecccdd":4064,"eecbbed":4065,"bbceeec":4066,"fbdbec":4067,"bedebdc":4068,"ebffbc":4069,"bccebcc":4070,"bcfbbbc":4071,"fcecbc":4072,"bffebe":4073,"bceeccc":4074,"eeceebd":4075,"bfbebbc":4076,"bccbebd":4077,"eddbbbe":4078,"bcecdee":4079,"eeebeebe":4080,"bfbbebc":4081,"eecdbbc":4082,"bdfdbe":4083,"bcbcbbbc":4084,"edbbbcc":4085,"eddebf":4086,"eccbccc":4087,"dfbbec":4088,"dcdccc":4089,"bbeeff":4090,"dbacc":4091,"baff":4092,"bccdbf":4093,"eecebec":4094,"bebcbebe":4095,"bebe</w>":4096,"ecbbdcc":4097,"efbbbbc":4098,"dfac":4099,"eebb</w>":4100,"edeced":4101,"eefbdc":4102,"fceecc":4103,"eccbbbd":4104,"dedbbbb":4105,"dbebeec":4106,"bfcccc":4107,"dbdbbbd":4108,"ddcebe":4109,"bbdeebd":4110,"bccfed":4111,"ebddebc":4112,"bcdebcc":4113,"bfdbec":4114,"dbdff":4115,"fecdec":4116,"bcbeff":4117,"bbeedbc":4118,"ebcbebf":4119,"bdbea":4120,"bbfbbcc":4121,"bfebdc":4122,"dcbcbf":4123,"bbdeecc":4124,"bdfbbbb":4125,"dcdedc":4126,"ddbbebb":4127,"ebbcbdc":4128,"fcdfc":4129,"edbcfc":4130,"fbedee":4131,"eeebbbbbb":4132,"ecfbdc":4133,"bdbebbbe":4134,"efeccc":4135,"fecdee":4136,"fcbcbd":4137,"beeebec":4138,"ddac":4139,"beccebc":4140,"ecdbbcc":4141,"beeb</w>":4142,"edbcebc":4143,"bbbcebbc":4144,"bebbeecc":4145,"befebb":4146,"bedac":4147,"efcebc":4148,"bbfbcbc":4149,"bbcbcee":4150,"ddcbec":4151,"eebca":4152,"bebbbccc":4153,"dcedcc":4154,"bfcdbc":4155,"fcbcec":4156,"bbbedec":4157,"bbddbbbb":4158,"eefdee":4159,"ebdeebd":4160,"bbbeedc":4161,"fbcdee":4162,"debbebe":4163,"fbcdbe":4164,"ebdbbed":4165,"dbfdf":4166,"feebec":4167,"bbfbbebb":4168,"eebedbc":4169,"bbecbbec":4170,"ebfebb":4171,"ecfbbbb":4172,"eefdbc":4173,"eebeba":4174,"bfbba":4175,"dcdebd":4176,"dccbdc":4177,"bbbfbec":4178,"dcdbcc":4179,"efcdec":4180,"ebbcbbee":4181,"edcfed":4182,"ecbbbbcc":4183,"ddcecc":4184,"ebfbebc":4185,"efcdbe":4186,"beffcc":4187,"bbcbeed":4188,"dddfc":4189,"eadbe":4190,"eefba":4191,"bbcecbc":4192,"beccfc":4193,"edbcef":4194,"edebfc":4195,"bfcbbbc":4196,"bdbedbe":4197,"bcbbefc":4198,"efceec":4199,"ebbbea":4200,"bccbbed":4201,"bbdfed":4202,"bbcbebf":4203,"bbecbebe":4204,"bbebeebe":4205,"bceeebc":4206,"dfbbbd":4207,"bceea":4208,"bbebba":4209,"dbbecbd":4210,"bbbfa":4211,"ffdec":4212,"ecbeeec":4213,"bbcbcec":4214,"bfbdbd":4215,"fcfbe":4216,"bdcbebc":4217,"ebbbcdd":4218,"bfbbdd":4219,"edceebd":4220,"dcdbbbb":4221,"cccebc":4222,"bbceecc":4223,"ebeac":4224,"dcb</w>":4225,"eeceedc":4226,"ebbdbbbe":4227,"ddeebd":4228,"ebbbebec":4229,"ddcddc":4230,"fcdebc":4231,"dbfbec":4232,"dbcded":4233,"ebbbdebb":4234,"eccdebc":4235,"bbeeebd":4236,"bbbdebd":4237,"ddbcbd":4238,"eaba":4239,"edcfee":4240,"debbbec":4241,"bbbbbcbd":4242,"bbdebcc":4243,"ebbbebbd":4244,"ddbbdc":4245,"beecdec":4246,"ebbbeebc":4247,"edcebcc":4248,"eccbeee":4249,"fbda":4250,"fcbbebb":4251,"dbbbdbc":4252,"fdeccc":4253,"dceebf":4254,"eecdecc":4255,"bcdea":4256,"efcebe":4257,"bfbdcc":4258,"efeecc":4259,"bfcebd":4260,"fcbedc":4261,"bbfdbf":4262,"bbbcbef":4263,"bdfccc":4264,"efcbbbb":4265,"bbedebe":4266,"ebbebfc":4267,"bbcfbf":4268,"ebbcbbbd":4269,"eefbbd":4270,"edcebec":4271,"defccc":4272,"bceedf":4273,"babca":4274,"bfeeec":4275,"bddbbee":4276,"eebcef":4277,"feedbe":4278,"edc</w>":4279,"beeca":4280,"bbceeee":4281,"bfbbbec":4282,"dcccccc":4283,"bbbfef":4284,"bbeda":4285,"bfbeebe":4286,"ddcbcc":4287,"fecdbe":4288,"bceeebe":4289,"ebbbcebe":4290,"dbdbebe":4291,"eccba":4292,"bcbbebec":4293,"ecfebd":4294,"edbebbd":4295,"eccedcc":4296,"dbcbcbc":4297,"ddeccc":4298,"deebebe":4299,"bbeddbe":4300,"ebbbefc":4301,"bbcbeebb":4302,"bbecebd":4303,"bbcca":4304,"fecff":4305,"ebbcebbc":4306,"eebbefc":4307,"bdebecc":4308,"fbcbbd":4309,"dbddec":4310,"beecef":4311,"bccdebb":4312,"bbbdeec":4313,"bececbc":4314,"eccebdc":4315,"ebefef":4316,"fcfbf":4317,"fcca":4318,"ebbbded":4319,"bebbac":4320,"ebeeebf":4321,"bbbcbfc":4322,"edeebbc":4323,"eedebec":4324,"edbbeec":4325,"dedbdc":4326,"dceced":4327,"ebebeed":4328,"fcea":4329,"ebccbbbb":4330,"bbcbbebe":4331,"bbdeeec":4332,"feeeeee":4333,"ddb</w>":4334,"fdcdf":4335,"fbefcc":4336,"fdebdc":4337,"dccdec":4338,"fbcbfc":4339,"becdebc":4340,"bfbebbbb":4341,"bbaa":4342,"edcddc":4343,"eebceec":4344,"ffdbf":4345,"dbbbdbbbb":4346,"edfbec":4347,"ddeeec":4348,"dbcebf":4349,"dcdbbd":4350,"fccebc":4351,"dbcbbee":4352,"befbfc":4353,"bedbccc":4354,"ebeeebd":4355,"babbbc":4356,"bfbeef":4357,"bbebebebe":4358,"fcac":4359,"bbbedebb":4360,"bbcbbef":4361,"ecbebbf":4362,"dbcbebc":4363,"eebedbe":4364,"cccdf":4365,"bcbcebc":4366,"dbdded":4367,"eebbfcc":4368,"bcecdf":4369,"bbbebeebb":4370,"fdbbbbc":4371,"bbebb</w>":4372,"bbdb</w>":4373,"edcbebd":4374,"fccff":4375,"ebbeba":4376,"ecbcebc":4377,"ebbcff":4378,"bcbebbec":4379,"bbeddee":4380,"ebbbdbf":4381,"eecfdc":4382,"ebbbdf":4383,"bbfbeee":4384,"ebbecbf":4385,"bdcbef":4386,"bbebbbbee":4387,"bbebbebc":4388,"becdef":4389,"bbbcecc":4390,"eebcdf":4391,"edfbcc":4392,"ebefebe":4393,"dbfbbbb":4394,"dbcdcc":4395,"ddcdf":4396,"eebedf":4397,"bcbca":4398,"bebeeeee":4399,"eebeea":4400,"fbd</w>":4401,"ede</w>":4402,"fbebecc":4403,"eceedbe":4404,"bbecdec":4405,"ebebebbbb":4406,"cccbbbb":4407,"ecbedbd":4408,"eecbcbd":4409,"bebcecc":4410,"ecebdcc":4411,"ebefdc":4412,"bbbebebbbb":4413,"beecdee":4414,"ebecdf":4415,"ebedebe":4416,"bbdbeed":4417,"dcbdcc":4418,"ddda":4419,"ebbeebbee":4420,"bcbedec":4421,"dbcbef":4422,"bbdfbf":4423,"fbebbcc":4424,"bfecf":4425,"ecbeddc":4426,"bebeba":4427,"eecdeec":4428,"ccca":4429,"dbeded":4430,"bbdcbbbb":4431,"bdbac":4432,"becca":4433,"eecbeed":4434,"bebcff":4435,"eccdecc":4436,"bbdbeebb":4437,"ebebedc":4438,"ddbeed":4439,"eebcbcc":4440,"ebfba":4441,"ebddef":4442,"edfecc":4443,"ebcfbf":4444,"ecbbba":4445,"ebbbbeec":4446,"bbbebebd":4447,"bfcdec":4448,"bbdeeee":4449,"becbbbf":4450,"bbccbbcc":4451,"ebcecbd":4452,"fbeedc":4453,"deeedc":4454,"bdbebcc":4455,"ebccccc":4456,"dbcbbbd":4457,"bbeebdc":4458,"ebdbbebb":4459,"bcbeedc":4460,"ddecbc":4461,"bbbcfbc":4462,"dbebeee":4463,"deddbd":4464,"feceec":4465,"bbffbd":4466,"efbced":4467,"bfeeebb":4468,"dddebc":4469,"bebcdec":4470,"bbbebbed":4471,"bebeedc":4472,"fcdbbc":4473,"bfcecc":4474,"bbcdbbbb":4475,"fbc</w>":4476,"eefebd":4477,"bceeeec":4478,"ebedebc":4479,"bdfbcc":4480,"ebbebbcc":4481,"ebceeee":4482,"ebbecee":4483,"ddfdd":4484,"bebddf":4485,"bdcfee":4486,"ffba":4487,"edbcebe":4488,"bceebcc":4489,"ddbccc":4490,"def</w>":4491,"bbbbbbbbbbbbbbbbbbbbbbbb":4492,"ddfbf":4493,"ecccecc":4494,"bceedee":4495,"bbffcc":4496,"fbedec":4497,"eecceec":4498,"ebbcdec":4499,"dddbb":4500,"acda":4501,"efdbec":4502,"dbdbbbc":4503,"ececbbc":4504,"bfecbf":4505,"efcccc":4506,"bebeeec":4507,"bfcbdc":4508,"eebebbebb":4509,"ebbbdee":4510,"bbecdc":4511,"debebbc":4512,"ebbcbebc":4513,"eebcecc":4514,"eebcbbf":4515,"feeebf":4516,"bcbcbcbcbcbcbcbc":4517,"bcffcc":4518,"eefeec":4519,"bcbcdee":4520,"bbdcbbc":4521,"bdbebbd":4522,"ebcbced":4523,"eaccc":4524,"defdc":4525,"bbeeeec":4526,"befba":4527,"fbcecc":4528,"bbeedee":4529,"eeccbec":4530,"bbbfebe":4531,"ebcbbebe":4532,"beecbcc":4533,"bbbbfbd":4534,"ebddbbc":4535,"edecbf":4536,"dbcbfc":4537,"eeecbec":4538,"dbedebb":4539,"ebcbeebb":4540,"ebcca":4541,"effdd":4542,"eebcebe":4543,"defa":4544,"fedbec":4545,"ebbcedc":4546,"bbbbded":4547,"effebe":4548,"eaff":4549,"beeeebf":4550,"bcfdbd":4551,"bebd</w>":4552,"bbeebef":4553,"ecbebbbc":4554,"ebbeced":4555,"efdebe":4556,"ddca":4557,"bbbbfbe":4558,"efebdc":4559,"fbbeecc":4560,"bebebbcc":4561,"ecbedee":4562,"eeeeebf":4563,"bbbebbebe":4564,"bbbfff":4565,"fcbbdc":4566,"bbbdbdc":4567,"ecdebdc":4568,"bbecbbbc":4569,"bebda":4570,"efdebc":4571,"acbbc":4572,"fccbcc":4573,"ebbbebbf":4574,"bdbcbbc":4575,"dddbbd":4576,"ddcdbe":4577,"ebebcebb":4578,"badee":4579,"bcbeebf":4580,"ebeeccc":4581,"becbeebb":4582,"bbbefee":4583,"bcbcdf":4584,"dedecc":4585,"ebbdbbf":4586,"dccbbd":4587,"fbcfbc":4588,"bfbcdc":4589,"ddcdee":4590,"efeef":4591,"efeebd":4592,"bdbeebc":4593,"bfcbbbe":4594,"dbfdbe":4595,"bcfbebe":4596,"bebc</w>":4597,"bddbfc":4598,"edbeebd":4599,"fcfdc":4600,"befbebc":4601,"bbeeecc":4602,"fecbbbb":4603,"fffbd":4604,"cccdee":4605,"ebbbebbee":4606,"babea":4607,"fecebc":4608,"becdbec":4609,"bcebdcc":4610,"ddcebc":4611,"eebbebcc":4612,"fdcccc":4613,"ebefed":4614,"bcceebd":4615,"bbccbbbc":4616,"debbebc":4617,"ebdbedc":4618,"ebddfc":4619,"eecda":4620,"bdcebec":4621,"fbcbbbe":4622,"dcdbdc":4623,"edfdf":4624,"bbdbebf":4625,"eeebdcc":4626,"beeeff":4627,"bffa":4628,"ebebced":4629,"bbecdbc":4630,"bcfbbee":4631,"edebbcc":4632,"baccc":4633,"debba":4634,"bbdbcec":4635,"dbbdbbbb":4636,"ecfdbe":4637,"eebbebec":4638,"ecccfc":4639,"debbfc":4640,"dbfccc":4641,"efbcbe":4642,"eecbccc":4643,"beecdbe":4644,"ebccbcc":4645,"bcbbfcc":4646,"eceebcc":4647,"bbebbbbbbbbbb":4648,"bebbcbbbb":4649,"bdcebbc":4650,"ebbbddd":4651,"bbedbf":4652,"bbdfebb":4653,"bfcfbc":4654,"becbbbbc":4655,"efeebf":4656,"efeeebe":4657,"bbdecbc":4658,"fccbf":4659,"bcfdec":4660,"beecfc":4661,"eeeca":4662,"debbdf":4663,"dcecbf":4664,"fbbac":4665,"ddbbbf":4666,"eabec":4667,"dbbeccc":4668,"fbbbccc":4669,"ddbcee":4670,"bbcbbdd":4671,"eeccecc":4672,"ededbf":4673,"ebeeef":4674,"dbeebbc":4675,"ebbbcebc":4676,"ebedfc":4677,"bbccdf":4678,"dcbded":4679,"bbffec":4680,"befdbd":4681,"ebbdedc":4682,"bbbbbbbec":4683,"fbcdec":4684,"eeccebc":4685,"debbbbbe":4686,"bbdbbbbbbbb":4687,"ececdf":4688,"bbeebbec":4689,"eef</w>":4690,"bebfbbc":4691,"bbdbbebe":4692,"ebbcebf":4693,"efcded":4694,"dbcfee":4695,"cccff":4696,"fee</w>":4697,"beecebc":4698,"bebdebc":4699,"ebbbcef":4700,"baebc":4701,"eadee":4702,"eecdebe":4703,"beceebd":4704,"bbcbbbbbbbb":4705,"eecbbdc":4706,"beccedc":4707,"bdacc":4708,"bccbbebb":4709,"bebdfc":4710,"decbebc":4711,"abdbf":4712,"bbcbedc":4713,"ecfbbf":4714,"bbbcbeee":4715,"bebebcbc":4716,"eeeebef":4717,"bbccebd":4718,"cccdcc":4719,"ebedef":4720,"eceeecc":4721,"ddbcec":4722,"ebbbbbbcc":4723,"bdbbbbcc":4724,"ddbddd":4725,"beebfcc":4726,"bbecbebc":4727,"dbefee":4728,"fecdbc":4729,"eebcbf":4730,"eabcc":4731,"becdeec":4732,"edcecbc":4733,"bdfbbf":4734,"bbbbbbbcc":4735,"bbbbbcbe":4736,"bbedebc":4737,"becbcec":4738,"bbeebebc":4739,"eebcebd":4740,"bcccbcc":4741,"dddecc":4742,"bfcebf":4743,"fbcebd":4744,"edcbef":4745,"dedbeec":4746,"fbebbebb":4747,"edcdebc":4748,"decbbbe":4749,"beccecc":4750,"ebbfbec":4751,"becbcbd":4752,"edecebb":4753,"ddcdcc":4754,"bbccdbe":4755,"eefbbbc":4756,"ebebba":4757,"fbedcc":4758,"ebbbcfc":4759,"efcdbc":4760,"dbfff":4761,"ecfdbc":4762,"eeccbbc":4763,"efbedc":4764,"efecbd":4765,"dbddcc":4766,"fccecc":4767,"bdbbccc":4768,"bcbbbccc":4769,"fed</w>":4770,"fbcdbc":4771,"bfcbfc":4772,"edbedbe":4773,"beeeecc":4774,"bbbbbbebc":4775,"aeba":4776,"beeefee":4777,"eddefc":4778,"dcbbfc":4779,"bcceeec":4780,"ededdc":4781,"eecbbebb":4782,"beebbbbbe":4783,"dbebbebb":4784,"bbfdcc":4785,"afbf":4786,"eecdbec":4787,"bcccfc":4788,"deddcc":4789,"ebccbf":4790,"bbcbcbe":4791,"eeeeff":4792,"bbbbbdbd":4793,"ebbbbecc":4794,"edeeebe":4795,"ebccecc":4796,"dcbcdd":4797,"bbbbeebc":4798,"bdceecc":4799,"ddbedc":4800,"bbdbedc":4801,"bbccbbbe":4802,"ebccebd":4803,"bdfdbc":4804,"ddd</w>":4805,"dceeebb":4806,"bbbcdec":4807,"deebef":4808,"dbfebe":4809,"beeeba":4810,"dcbeebe":4811,"beccebe":4812,"ddcdbd":4813,"dcbeef":4814,"defdf":4815,"afed":4816,"ecbedec":4817,"edfeec":4818,"edeba":4819,"dcedbd":4820,"bbeeeeee":4821,"bbccbbd":4822,"feebdc":4823,"ecbcbcc":4824,"edceedc":4825,"beebbbbc":4826,"eddbbee":4827,"becea":4828,"acdf":4829,"becdbbc":4830,"bbbbbccc":4831,"ebecef":4832,"bdbbedc":4833,"beeeebc":4834,"dcbcebb":4835,"ebecbf":4836,"dcbbebc":4837,"dbeddc":4838,"dbebebd":4839,"edceccc":4840,"deeebf":4841,"bdbebbf":4842,"beeceec":4843,"ebbbfcc":4844,"ddcccc":4845,"becdfc":4846,"bccffc":4847,"bbbbdcc":4848,"bcfdcc":4849,"bbbbbebf":4850,"beeddf":4851,"bdbedf":4852,"eefea":4853,"bbbf</w>":4854,"bbbbfbf":4855,"bebbeccc":4856,"edcfbd":4857,"dbedbf":4858,"beebba":4859,"ebebebbc":4860,"eedbccc":4861,"bebebbbd":4862,"bfdbbd":4863,"bdcbbec":4864,"bedeccc":4865,"bbbbcbcc":4866,"befdec":4867,"bbbfbbbc":4868,"bddefc":4869,"becbccc":4870,"bbedef":4871,"defbbc":4872,"bbbacc":4873,"dbbbdcc":4874,"bddebbc":4875,"dddbec":4876,"bebebbec":4877,"bbbbdbbc":4878,"eecca":4879,"eceefc":4880,"eeceeec":4881,"bbeeba":4882,"fbebbbd":4883,"ebecebe":4884,"fedbbc":4885,"efcecc":4886,"bcbbbecc":4887,"bdcddc":4888,"ebbcfbc":4889,"dddeec":4890,"fecded":4891,"efeeef":4892,"becbbdc":4893,"dbefcc":4894,"ebcac":4895,"bbebbbbbd":4896,"ffbcbc":4897,"bdcfbd":4898,"deebcbc":4899,"bcbebfc":4900,"dfcfc":4901,"ebbbdbbbb":4902,"ebcdbec":4903,"edfbbbb":4904,"eebcbedf":4905,"edcbbec":4906,"eecdedc":4907,"becdebe":4908,"bdcbeec":4909,"bdbbebf":4910,"dedbbec":4911,"eececcc":4912,"bebdbf":4913,"bddba":4914,"bbbbcbbd":4915,"ebbbebcc":4916,"beeebef":4917,"fec</w>":4918,"ddcdbc":4919,"debbef":4920,"bceeecc":4921,"eecebdc":4922,"edefcc":4923,"bbcdebc":4924,"beceeec":4925,"fbebbec":4926,"bbcfebb":4927,"bbfbbef":4928,"ebccdf":4929,"ebcbedd":4930,"ebfebbc":4931,"dbbbbbbbd":4932,"ebccedc":4933,"bbbcba":4934,"bcfbef":4935,"dbebecc":4936,"dbfbcc":4937,"ebfdec":4938,"bdbb</w>":4939,"edecee":4940,"ebbbddc":4941,"ddeedc":4942,"dbdbdbd":4943,"bdceebc":4944,"feda":4945,"dbbecec":4946,"ebcdeec":4947,"bfecec":4948,"efbcbf":4949,"bdfecc":4950,"bbdbbef":4951,"cccccccccc":4952,"feebef":4953,"beceedc":4954,"dbbcccc":4955,"edcbcbc":4956,"ecbcecc":4957,"ebbbdec":4958,"bbdbccc":4959,"ffbbec":4960,"ebcbbdd":4961,"ecffcc":4962,"beecbebc":4963,"bbbedcc":4964,"fbebbbf":4965,"dbbbbbbbbbbbb":4966,"bfdeec":4967,"bbfefc":4968,"bbccecc":4969,"bdbeebd":4970,"deeebbc":4971,"bebeebbc":4972,"dbebbed":4973,"eefdcc":4974,"bdfebd":4975,"eebbbecc":4976,"fbedbd":4977,"bbbbbecc":4978,"ebebcf":4979,"decbef":4980,"beeedbc":4981,"eebdbbc":4982,"bcbbea":4983,"bfdbcc":4984,"eddeecc":4985,"dbbbded":4986,"bdbebbbc":4987,"bbbbbbef":4988,"dcfbbc":4989,"bceeef":4990,"bbdfdc":4991,"ebeeeef":4992,"ebbfbcc":4993,"eabbbe":4994,"bbbdccc":4995,"eedeccc":4996,"bbeeebbc":4997,"dedff":4998,"edcdbf":4999,"adebb":5000,"edceeec":5001,"dcecf":5002,"ebebbebc":5003,"bebebeebb":5004,"ddebdc":5005,"ebdbbdc":5006,"deefbc":5007,"abbed":5008,"dddbcc":5009,"dbcbbec":5010,"fbeebbc":5011,"bccbbbf":5012,"da</w>":5013,"fceeec":5014,"dedbbd":5015,"ebbdbdc":5016,"bfcbebc":5017,"eecbcec":5018,"bebdef":5019,"ddbbbbc":5020,"bfcbef":5021,"bdbeecc":5022,"ebeebdc":5023,"deeba":5024,"dedbbf":5025,"ebecbbbe":5026,"ecbebbee":5027,"beeebbbc":5028,"ebdbbbf":5029,"bccdef":5030,"bdcfcc":5031,"bfbcef":5032,"ddcdec":5033,"bebbbbbbc":5034,"febbbbbb":5035,"edecdd":5036,"bbbdff":5037,"bcbedbd":5038,"eddebbc":5039,"fdcef":5040,"bbccbbf":5041,"dcecdd":5042,"bebefee":5043,"fbeea":5044,"edecbbc":5045,"bedb</w>":5046,"bbedfc":5047,"ebcdecc":5048,"eceea":5049,"ebebbdd":5050,"bdcbebd":5051,"bbbebeec":5052,"fbcbbbc":5053,"dedbebc":5054,"eebcbbd":5055,"bebbebdc":5056,"ebbfecc":5057,"fbdccc":5058,"dfcdf":5059,"ebffcc":5060,"edcbedc":5061,"ecbcbbbb":5062,"bbebbfc":5063,"eebcdbe":5064,"ebbbcbec":5065,"ebbbbebf":5066,"dedebd":5067,"eddbbbc":5068,"efcbbf":5069,"eecbedd":5070,"bdcdbf":5071,"fdbdcc":5072,"bcecdbe":5073,"eabbf":5074,"dbcfec":5075,"ebbfbbd":5076,"fbdff":5077,"eccbbed":5078,"ebcdebd":5079,"eccecdc":5080,"dcfebc":5081,"becebdc":5082,"ebbcdbd":5083,"bcbcbbf":5084,"debbdbe":5085,"eebddd":5086,"bfeeebe":5087,"ebfdbd":5088,"dbbedbd":5089,"eedac":5090,"acdd":5091,"ebbcbbec":5092,"ebecebd":5093,"ebbbbbdc":5094,"bbbbfec":5095,"fbfbbc":5096,"bbeebbbd":5097,"bcecfc":5098,"efeeebb":5099,"bbbebecc":5100,"eceeebc":5101,"ebedbbbb":5102,"ebfdcc":5103,"bbbbcbec":5104,"edbeeec":5105,"debbccc":5106,"fdb</w>":5107,"fbcbebe":5108,"deebfc":5109,"bceebbf":5110,"ebecdbe":5111,"dcc</w>":5112,"ebebbbec":5113,"ebebdbd":5114,"dfea":5115,"bcccbbc":5116,"debbbbf":5117,"bcbcdbe":5118,"edcdfc":5119,"eccbeed":5120,"bbebbbcc":5121,"fcdebe":5122,"bcdbbbbc":5123,"bcbceec":5124,"dfbeee":5125,"edcbbbd":5126,"eebebbebe":5127,"bebbbbbbbe":5128,"bbefbbc":5129,"edbcbbbb":5130,"ecf</w>":5131,"eddbfc":5132,"dcbddd":5133,"babdc":5134,"eceedcc":5135,"eebbac":5136,"effa":5137,"badbc":5138,"dcfebe":5139,"bcfbebc":5140,"ececbcc":5141,"bbbfdd":5142,"bcbcbbbe":5143,"ebfbbbd":5144,"dcbdee":5145,"ebedbec":5146,"ebbecbbc":5147,"ebbeea":5148,"ffbbcc":5149,"ebecccc":5150,"bfbefc":5151,"effbbc":5152,"ebcbcdc":5153,"efcbdc":5154,"acfc":5155,"bfcdbd":5156,"bbbbbcbbc":5157,"bbeefee":5158,"ebecdbc":5159,"dfbecc":5160,"eedebdc":5161,"ededbc":5162,"efbba":5163,"bcbedcc":5164,"bcbdbbc":5165,"eccdfc":5166,"bcdbbbd":5167,"fecbdc":5168,"ebeeeec":5169,"bcbbebcc":5170,"decedc":5171,"bcf</w>":5172,"eecfbe":5173,"efeeec":5174,"ebeecbd":5175,"fbebccc":5176,"ebecdee":5177,"bdebccc":5178,"bbbbefc":5179,"bbccbdc":5180,"eeebeeeee":5181,"bcfebbc":5182,"ebdfdc":5183,"bdfebf":5184,"bdbeccc":5185,"dbbbbbbbe":5186,"bdfbbd":5187,"befebbc":5188,"eebebbbd":5189,"ebbbfbf":5190,"bdfdee":5191,"eccbcec":5192,"bbdcdd":5193,"ebecbbd":5194,"fbcbdc":5195,"bebddbe":5196,"bfeedc":5197,"bfedcc":5198,"beeebbebb":5199,"dccdbd":5200,"bbfbeec":5201,"bcbbbbbbc":5202,"abeec":5203,"dbbcdd":5204,"befbbec":5205,"bebcdbc":5206,"ecbeff":5207,"edeeef":5208,"bccbbbbc":5209,"fbffc":5210,"bebebfc":5211,"beeedbe":5212,"decbbec":5213,"dcbebbc":5214,"bdbeeec":5215,"ebbfebd":5216,"bbbbfcc":5217,"edcdecc":5218,"ebdeeec":5219,"bdbcdd":5220,"bfbbbcc":5221,"fecbbf":5222,"eebcdbc":5223,"eeebba":5224,"befdcc":5225,"dbfebc":5226,"edcea":5227,"bcbcbebc":5228,"ebbeebbbe":5229,"ebdebdc":5230,"bbbcbbbf":5231,"debbbbd":5232,"beccbcc":5233,"bdfeec":5234,"bbbdbbebb":5235,"ebebbfc":5236,"ebdeedc":5237,"beeddd":5238,"ddcbbbb":5239,"bbbbbbbbbbbbbbbbbbbbbbbbbbbbbbbb":5240,"fceccc":5241,"ecbefcc":5242,"ebfeeee":5243,"cccdbe":5244,"beedbbc":5245,"efbbebc":5246,"efbbdd":5247,"bbbbbbbbbbbbc":5248,"ecbcdf":5249,"bcbebbebb":5250,"bdbbdcc":5251,"ebbfbbbe":5252,"ebeda":5253,"ebfbbcc":5254,"ecbbefc":5255,"edeefc":5256,"dcbcef":5257,"beeebbd":5258,"bfbfcc":5259,"ebcbbef":5260,"dcdddd":5261,"bfecdc":5262,"efffc":5263,"bbbbbcebb":5264,"bbecff":5265,"dbfbbf":5266,"eebeebbc":5267,"dbbbdee":5268,"eebcbbbe":5269,"bfbcbbc":5270,"bebedee":5271,"fbcfec":5272,"ebdfebb":5273,"eebefcc":5274,"bbcfdc":5275,"dbbbbbbd":5276,"edbeccc":5277,"ebbfbbf":5278,"dcbddc":5279,"eecbbbf":5280,"bbbdbebc":5281,"bbececc":5282,"feedbc":5283,"bffbbbb":5284,"bbbbbba":5285,"bbbbfebb":5286,"bbfbbed":5287,"edbedf":5288,"bcdac":5289,"bbbbea":5290,"bcbebbcc":5291,"ebebcbf":5292,"fceebd":5293,"aebec":5294,"bfedbd":5295,"ddcff":5296,"eedbbbd":5297,"ffcdf":5298,"bbbbeeee":5299,"dbfecc":5300,"eeccedc":5301,"eceedf":5302,"decbfc":5303,"fcda":5304,"bcfefc":5305,"bccfdc":5306,"decbbbc":5307,"bfbdbf":5308,"edfbbd":5309,"bccea":5310,"bbdbcee":5311,"fbdeec":5312,"babebe":5313,"beecdbc":5314,"eebedcc":5315,"befbbebb":5316,"eceedbc":5317,"ebbbedbe":5318,"bdcdebb":5319,"dcbdbc":5320,"bbbbbebbc":5321,"ebcda":5322,"dbbd</w>":5323,"bbbbbbbbbbbe":5324,"fbcbebc":5325,"dbefec":5326,"eebcedc":5327,"ecbbfcc":5328,"ebbedbc":5329,"ebfbcbc":5330,"eeccef":5331,"bbdcbec":5332,"bbbbcbbf":5333,"ebdbcbd":5334,"fdddd":5335,"bbbddbbbb":5336,"decbebe":5337,"bebcedc":5338,"bbeddbc":5339,"bcfbbec":5340,"bcdbccc":5341,"edeea":5342,"bcbc</w>":5343,"bebdeec":5344,"dbdddc":5345,"bbcac":5346,"dccbbf":5347,"ebbdbbbc":5348,"deebbcc":5349,"bdcbecc":5350,"ebebcdc":5351,"bbbfdf":5352,"deebeec":5353,"fcbbbbc":5354,"dccded":5355,"deebbbd":5356,"bffebc":5357,"deedbf":5358,"abebd":5359,"ebbbebbbc":5360,"fbdebc":5361,"bdcfed":5362,"ecbcef":5363,"bfbdbc":5364,"beedbec":5365,"ebdeccc":5366,"ebbcbfc":5367,"bedcccc":5368,"afdc":5369,"dbbbdbf":5370,"bcbcbbd":5371,"ecfbbd":5372,"dbbbdebb":5373,"dffbe":5374,"ebebdcc":5375,"ddfebb":5376,"fccfec":5377,"fceedc":5378,"eefbfc":5379,"aeebc":5380,"fffec":5381,"ffbeee":5382,"ecbeebf":5383,"ebeceec":5384,"fccedc":5385,"bcceeee":5386,"feeebc":5387,"ecbceec":5388,"bcccbccc":5389,"bdcbeee":5390,"fcbeebb":5391,"bbabbc":5392,"dbdedc":5393,"dbbbbbbbc":5394,"eccecbd":5395,"bceddd":5396,"ebcecdc":5397,"ffbebc":5398,"efbbfc":5399,"eedcccc":5400,"bbffbf":5401,"fffbf":5402,"ececbec":5403,"bbbfbcc":5404,"bffbbd":5405,"debbeec":5406,"efcebd":5407,"ebbbbccc":5408,"ecbcebe":5409,"ebbbebdc":5410,"dccfec":5411,"edfebd":5412,"bdcbcbc":5413,"abbbbc":5414,"dbefbd":5415,"dfcdd":5416,"befbcbc":5417,"bdcba":5418,"efbcebb":5419,"bccbedc":5420,"edbebbbe":5421,"dcfa":5422,"cccedc":5423,"bbbfbbd":5424,"dbbecbf":5425,"bbbcbeec":5426,"bbbeeeee":5427,"ebecbbf":5428,"ebececc":5429,"eddebcc":5430,"dbcebbc":5431,"acef":5432,"dadd":5433,"fcebdc":5434,"bdbbba":5435,"bbeebeebb":5436,"ebdbeed":5437,"fbcebf":5438,"fdcdd":5439,"ffefc":5440,"dbdbebc":5441,"bbddbbc":5442,"dcebfc":5443,"debbbcc":5444,"bddddd":5445,"dcbefc":5446,"eeebbebe":5447,"dffbf":5448,"befedc":5449,"eccfdd":5450,"abecc":5451,"dbbbddc":5452,"bbbfebc":5453,"bceebbbe":5454,"baebf":5455,"eeccdd":5456,"bceedbc":5457,"efeebe":5458,"bcbebbbd":5459,"bbdddbd":5460,"bbbbebcc":5461,"babbee":5462,"ebbeddc":5463,"ebbbdbbc":5464,"defdbe":5465,"ececdd":5466,"bebcebbc":5467,"defbcc":5468,"bbbbcebe":5469,"beeedf":5470,"bbbecbbc":5471,"deecdf":5472,"efbdbd":5473,"fbbebdc":5474,"beecded":5475,"bcdebdc":5476,"bdceebd":5477,"ebecbbbc":5478,"bcbdbbbb":5479,"dcfecc":5480,"ebdbcec":5481,"bbbfbebe":5482,"befeeee":5483,"ebdcbbc":5484,"efbdcc":5485,"ecceedd":5486,"eedbbbbc":5487,"afa":5488,"febbbbc":5489,"ededdd":5490,"ecbcbf":5491,"bfcbbec":5492,"eebebbcc":5493,"beebbbebe":5494,"bbedeec":5495,"babbbd":5496,"fcfef":5497,"ebecdec":5498,"ddcebd":5499,"debebbbb":5500,"bcfdbf":5501,"fceeee":5502,"eefbebc":5503,"efcbbd":5504,"efcbebc":5505,"beebeebe":5506,"bdbebbee":5507,"bbbcbbbbbbbb":5508,"bbedbbd":5509,"febba":5510,"bdbedee":5511,"fccebe":5512,"bbdcebe":5513,"dbdebf":5514,"bbccff":5515,"bbfbbbbc":5516,"fbedebb":5517,"ecccebc":5518,"ecfebf":5519,"bdeac":5520,"edbeedc":5521,"bfeeef":5522,"dbcbeee":5523,"dbdfbc":5524,"feebbd":5525,"fbdbbbb":5526,"bfbedd":5527,"feeecc":5528,"eebdbec":5529,"bebdbbbe":5530,"ecbca":5531,"bbefbbbb":5532,"ececebc":5533,"bebefbc":5534,"dccfbc":5535,"fcbebf":5536,"edebecc":5537,"eebda":5538,"bbfea":5539,"bfcded":5540,"bdeebec":5541,"bbbecbbbb":5542,"bddeecc":5543,"bdfbbbe":5544,"ebdbdbd":5545,"debedd":5546,"eeecdf":5547,"eebddf":5548,"bbebcbbbb":5549,"ebccdbe":5550,"fdddf":5551,"bceeeecc":5552,"bccbcbd":5553,"bebdebe":5554,"edbbedc":5555,"bbccdee":5556,"ecfbfc":5557,"feddc":5558,"acbec":5559,"feeba":5560,"adef":5561,"bebfbbbb":5562,"dbbdbbc":5563,"eeffcc":5564,"bcbefcc":5565,"bbffbe":5566,"bbeefbc":5567,"ddcded":5568,"eebebbbf":5569,"bdeefc":5570,"fedbcc":5571,"ecdbccc":5572,"eeecdd":5573,"bcebbbbbb":5574,"bbfdebb":5575,"bbbbcbbbd":5576,"eebcdc":5577,"bdbebdc":5578,"bbeebbebe":5579,"bbccdbc":5580,"debe</w>":5581,"bbebbbebc":5582,"bbbedbf":5583,"dbedef":5584,"bcccecc":5585,"bffdf":5586,"efdeec":5587,"bbcdfc":5588,"beeedc":5589,"ecfbbbc":5590,"ffded":5591,"ebffec":5592,"beeebdc":5593,"bcccdd":5594,"eebdebc":5595,"debcdf":5596,"eccceec":5597,"eccac":5598,"ebbcbef":5599,"ecbcdee":5600,"bebcded":5601,"bebdbbd":5602,"ebdfbe":5603,"eebbeecc":5604,"bcecdec":5605,"eebcdec":5606,"ddcbdc":5607,"ecbcdbe":5608,"ffea":5609,"bebebbebe":5610,"dbdbef":5611,"eeccbcc":5612,"bdeea":5613,"ebfbbec":5614,"bfcbeec":5615,"cccdec":5616,"bdbcfc":5617,"bfebfc":5618,"bfdebd":5619,"bbefa":5620,"debbbbbc":5621,"baea":5622,"ebcbcbe":5623,"bbbfdbe":5624,"debcbec":5625,"ecfbbbe":5626,"ecfdec":5627,"ecdac":5628,"bbbdbbec":5629,"eecbeebb":5630,"eeecbcc":5631,"ebbeebeee":5632,"dbcfcc":5633,"eebdfc":5634,"bcbcecc":5635,"dfebcc":5636,"fbddbe":5637,"efbcdc":5638,"ebdcfc":5639,"bebddee":5640,"beccebd":5641,"bebcbbee":5642,"fdcbec":5643,"ebbecdd":5644,"bbbcded":5645,"dbdbbee":5646,"fdcfc":5647,"ebbbeebd":5648,"ebcbcf":5649,"fbdbcc":5650,"ecccbbc":5651,"bfeeed":5652,"bbedbcc":5653,"ecbddd":5654,"edbebdc":5655,"ecccbcc":5656,"bbebbdd":5657,"bbdac":5658,"bbbccbbc":5659,"beccdd":5660,"bedcbec":5661,"eecbbbbc":5662,"ebbfeec":5663,"eeeebcc":5664,"dffed":5665,"ffac":5666,"bbebbdbe":5667,"dabca":5668,"bdfedc":5669,"befdbf":5670,"ebcbdbd":5671,"bebcbdc":5672,"cccdbc":5673,"ebecbdc":5674,"bdfbdc":5675,"eccbedd":5676,"eefdbd":5677,"fbfef":5678,"bebbb</w>":5679,"befea":5680,"eccdef":5681,"ecbcbbf":5682,"eebcbdc":5683,"bdfdbd":5684,"eddbecc":5685,"bbbcedc":5686,"eeccbbbb":5687,"deebeee":5688,"beecbbd":5689,"abcbd":5690,"dbbecebb":5691,"ebceedd":5692,"bdbcebe":5693,"ebbcbcbc":5694,"ebdcebe":5695,"ebddeec":5696,"abccc":5697,"baeec":5698,"dcbba":5699,"bcebfcc":5700,"becbebf":5701,"edeeebc":5702,"bbefdd":5703,"bfbded":5704,"eeeebeebe":5705,"bddbbcc":5706,"ebbeebebe":5707,"bfdbbf":5708,"ebcffc":5709,"bbcbdbd":5710,"bbedbbbe":5711,"bbdcfc":5712,"edcdef":5713,"bbbdebf":5714,"ebccbdc":5715,"bbbbb</w>":5716,"ebcbcebb":5717,"eccedbd":5718,"eebebbec":5719,"bfbcfc":5720,"edbbbdc":5721,"dbfdee":5722,"ebcecec":5723,"ebdbebf":5724,"edeebcc":5725,"bcbebecc":5726,"fecdcc":5727,"ecbebfc":5728,"dceddc":5729,"ebdbbdd":5730,"bebcbfc":5731,"ffebbc":5732,"fbcbef":5733,"eefdec":5734,"bbfbebd":5735,"fccdec":5736,"bbbcbbed":5737,"ecdcccc":5738,"ebceeed":5739,"eeeeba":5740,"beccdf":5741,"bbcbbebc":5742,"bbebebbee":5743,"bcbeebbc":5744,"ecfdee":5745,"ecfdcc":5746,"dbbcbec":5747,"feedcc":5748,"eefebbc":5749,"bbbcbebd":5750,"dcfbec":5751,"ebffbd":5752,"fcbcf":5753,"dcbbbec":5754,"fedef":5755,"ebcfdd":5756,"ebceebf":5757,"ebdbccc":5758,"ebfea":5759,"ecccedc":5760,"fececc":5761,"dfcbbc":5762,"bccbcee":5763,"beecebe":5764,"eebebfc":5765,"baecc":5766,"bebbcbbc":5767,"dedbbbe":5768,"cccbdc":5769,"bbdcef":5770,"dcd</w>":5771,"ddffc":5772,"bdbcbec":5773,"dbbeced":5774,"ddcbbd":5775,"bbbbfbbbb":5776,"bbbcfee":5777,"ecbb</w>":5778,"fecbbd":5779,"bbecbbee":5780,"bbbbbbbbbbbd":5781,"bbebbbbbbc":5782,"ebdeeee":5783,"bcbcff":5784,"fcbced":5785,"befbbbd":5786,"defbec":5787,"fcbcee":5788,"bccbcec":5789,"ddbedd":5790,"eebcdee":5791,"fbfccc":5792,"bbbbebbbbbb":5793,"bbecbdc":5794,"ebcbbfc":5795,"bccbeed":5796,"fbfff":5797,"dfdebb":5798,"bbbeea":5799,"fdd</w>":5800,"ebbefcc":5801,"ebdbbbbc":5802,"dbbcef":5803,"ddedcc":5804,"bbeebfc":5805,"fbddee":5806,"ebddecc":5807,"bbeebbcc":5808,"bdbcef":5809,"ebdda":5810,"eebe</w>":5811,"ebcbebbc":5812,"bbeedec":5813,"fbdebe":5814,"bfdecc":5815,"ebbfdf":5816,"bbeedbd":5817,"bdeebbbb":5818,"bdbedbc":5819,"fcfebb":5820,"ecceddc":5821,"ebccff":5822,"eefedc":5823,"dfbebd":5824,"bccfbe":5825,"efcbfc":5826,"fcbbfc":5827,"dfbcec":5828,"faa":5829,"eccfebb":5830,"eecbebf":5831,"fbacc":5832,"efcfec":5833,"ecebfcc":5834,"dbbcebe":5835,"bfbebec":5836,"bcceedc":5837,"bdcbbcc":5838,"eccdebe":5839,"bcbcdbc":5840,"fbfa":5841,"efcbbbc":5842,"edfedc":5843,"dbebccc":5844,"eceebbbb":5845,"bfbcbbbb":5846,"bdfdec":5847,"ffeeee":5848,"fbcedc":5849,"eeecbbbb":5850,"eeeb</w>":5851,"bdecbec":5852,"fecfec":5853,"fdceec":5854,"bbcdbec":5855,"eccecec":5856,"bdbdbbbb":5857,"bbecded":5858,"ecccbec":5859,"dcbcbbc":5860,"ddbced":5861,"ebecff":5862,"eebcff":5863,"dfbccc":5864,"dcbdbf":5865,"dcbeebc":5866,"dbfbbd":5867,"dcefcc":5868,"bdbbebbc":5869,"bbfded":5870,"bbedccc":5871,"dbfba":5872,"ecbbebec":5873,"acdee":5874,"fcbcbf":5875,"febac":5876,"ecbcebd":5877,"ebfbbbf":5878,"ebdcebc":5879,"bebebbbbc":5880,"ecbeebbc":5881,"feddee":5882,"bdfdcc":5883,"bdfbfc":5884,"bffbec":5885,"ebddbbbb":5886,"edfdbe":5887,"bdcbbed":5888,"efcdbd":5889,"efdbb":5890,"bbebcbbc":5891,"ebbdccc":5892,"beecbbbc":5893,"beecbbbe":5894,"edbac":5895,"bebeea":5896,"eccbcbd":5897,"debceec":5898,"ebbedbf":5899,"dfdef":5900,"ebddbec":5901,"beecff":5902,"efcdcc":5903,"bbbccbbbb":5904,"bfbbebd":5905,"eeeeeeebe":5906,"fcdecc":5907,"fecebe":5908,"eceedee":5909,"eccccccc":5910,"ecbcdec":5911,"ebceebe":5912,"bddebec":5913,"bffbcc":5914,"bccbbdc":5915,"bbcbced":5916,"bbcbcbf":5917,"efbebbc":5918,"ebdac":5919,"debd</w>":5920,"bbdbebbbb":5921,"bceeefc":5922,"eccbbdc":5923,"fbedbf":5924,"feddec":5925,"bcbeba":5926,"ebccdee":5927,"bbedbbf":5928,"bfbbeec":5929,"bccfbf":5930,"eebcbbbc":5931,"edbbccc":5932,"ebbebecc":5933,"eecfebb":5934,"bbbebebf":5935,"dcbfcc":5936,"ebcdedc":5937,"bceedec":5938,"ebefdd":5939,"bbccedc":5940,"dbcddc":5941,"ebbcded":5942,"bebdbbf":5943,"bbcbbfc":5944,"bba</w>":5945,"ebdca":5946,"ebfbbebb":5947,"edecfc":5948,"bbccbebe":5949,"ebdcdd":5950,"bbbfccc":5951,"eecdebd":5952,"bbcbebbc":5953,"ebccbbbe":5954,"dcfeec":5955,"dbcdebb":5956,"bebcbcbc":5957,"beeebeebb":5958,"dbbebfc":5959,"bccecbc":5960,"edcba":5961,"dbbbdbe":5962,"ebccbbd":5963,"bfbcebc":5964,"deefcc":5965,"fbcded":5966,"bcbedbf":5967,"bebebecc":5968,"bcfbbbd":5969,"edbedbc":5970,"dcbdec":5971,"bbbeded":5972,"eeccdf":5973,"bfbeebc":5974,"ebbbedf":5975,"deeded":5976,"debc</w>":5977,"bebcebf":5978,"dcddcc":5979,"becbedd":5980,"becfbf":5981,"bbbeebec":5982,"bdeedbe":5983,"eebc</w>":5984,"dbcfbd":5985,"bbbbbdbbbb":5986,"edeebbbb":5987,"edcbeee":5988,"bebfa":5989,"bbbbcdd":5990,"bbcbbbec":5991,"fcbbef":5992,"eebd</w>":5993,"bebcbbec":5994,"eeeedd":5995,"dbcbeec":5996,"beeda":5997,"bcdeccc":5998,"ebbbbebbc":5999,"decbecc":6000,"edecebc":6001,"dccfcc":6002,"ebbcbbebb":6003,"ebebea":6004,"fcffc":6005,"dbcba":6006,"eccdedc":6007,"edebccc":6008,"eebedbd":6009,"dccebf":6010,"dbbbbdd":6011,"edeeecc":6012,"dcbbbcc":6013,"eecac":6014,"fecbfc":6015,"bbceedc":6016,"bebebebd":6017,"bebcbbbd":6018,"acca":6019,"dbbecee":6020,"dbebcbd":6021,"bceebdc":6022,"bbebebbf":6023,"ecbebbcc":6024,"fefa":6025,"eebbbccc":6026,"bcbd</w>":6027,"eabba":6028,"eebbebdc":6029,"ffbbbd":6030,"dbcefc":6031,"bfecee":6032,"bebebbbf":6033,"ebccdec":6034,"dce</w>":6035,"bbeebbbf":6036,"bbbefbd":6037,"bcfba":6038,"fdedcc":6039,"ebcedcc":6040,"deebecc":6041,"ebcbbebc":6042,"bceebbd":6043,"fbf</w>":6044,"befbbcc":6045,"ebdfbf":6046,"dedddc":6047,"eeceeee":6048,"bcbdef":6049,"bebedec":6050,"bceddee":6051,"dbbbdbbc":6052,"bfeba":6053,"dbbc</w>":6054,"fedfc":6055,"bcbddf":6056,"eeebebeee":6057,"bdeeccc":6058,"efdbcc":6059,"bbdeeebb":6060,"befefc":6061,"eccdeec":6062,"dbceebc":6063,"bbecdbd":6064,"bfcbcbc":6065,"abcec":6066,"dbbcfc":6067,"bebffc":6068,"bbecbeec":6069,"bceddf":6070,"ebbebbbbbb":6071,"ebbeddd":6072,"dbbecf":6073,"bbeeedc":6074,"bedceec":6075,"bddbecc":6076,"bfb</w>":6077,"bcbe</w>":6078,"ebbdbbee":6079,"bbdeedc":6080,"dbbdddd":6081,"fde</w>":6082,"dbfeec":6083,"cccbccc":6084,"fccfbc":6085,"beccbbbb":6086,"febbebe":6087,"bccdebe":6088,"dbeeebc":6089,"bbdca":6090,"ebfefc":6091,"ebcdbbbb":6092,"becdecc":6093,"dbebcec":6094,"bdbeedc":6095,"dceddd":6096,"decfbc":6097,"bfcdcc":6098,"eddfcc":6099,"bbceeebb":6100,"edfccc":6101,"bbebebbbc":6102,"dbbdbbd":6103,"bdbeff":6104,"feacc":6105,"bcbbac":6106,"bbefebe":6107,"bfcebbc":6108,"dbcbbcc":6109,"fccbbf":6110,"beed</w>":6111,"dddebd":6112,"bbefef":6113,"deebbebb":6114,"ecceeee":6115,"bdfbbbc":6116,"ebccbbf":6117,"dbcbbed":6118,"bbeacc":6119,"decebf":6120,"decfec":6121,"edcfdc":6122,"beecbbf":6123,"bcdbbdd":6124,"bbbefbe":6125,"bceebbee":6126,"eebfa":6127,"bdbcbbd":6128,"bbecbbbd":6129,"bceb</w>":6130,"dbbcbbd":6131,"edeebec":6132,"edcebdc":6133,"bbbbeeebb":6134,"bfbcebe":6135,"fbcbcbc":6136,"ecbcbbd":6137,"beee</w>":6138,"debeccc":6139,"dbeea":6140,"bbcbcebb":6141,"bebedbd":6142,"eebedee":6143,"bceebbbc":6144,"bbbefec":6145,"dbfebd":6146,"bbceeed":6147,"bbbebccc":6148,"bfeced":6149,"bbebea":6150,"bbbbca":6151,"ebbecbbbb":6152,"bdceeec":6153,"bbddbbd":6154,"ebbdebf":6155,"bcceccc":6156,"dfbbed":6157,"bebebeec":6158,"eddea":6159,"ebcedbd":6160,"decebbc":6161,"bbdceec":6162,"bbbbcef":6163,"fedff":6164,"dfbbbf":6165,"ebbfdbe":6166,"ebdbeebb":6167,"ececfc":6168,"badbd":6169,"ecbbbecc":6170,"becfdc":6171,"feebbbc":6172,"fbbeccc":6173,"becfebb":6174,"bbecebf":6175,"bedbdcc":6176,"bcdbbebb":6177,"dddccc":6178,"bfecebb":6179,"bfeebbc":6180,"dffdd":6181,"bccdfc":6182,"dbfca":6183,"ebbbebbebb":6184,"dbcbebd":6185,"dbbebbbbbb":6186,"bcbdfc":6187,"bfeedd":6188,"eddebec":6189,"bbfbebf":6190,"eefbbebb":6191,"bddfcc":6192,"bcdcccc":6193,"fecbebc":6194,"ebaa":6195,"eebdecc":6196,"bbbbcbbbbbbbb":6197,"ecbbebcc":6198,"becbbebe":6199,"dafc":6200,"dbcdbf":6201,"beeebeebe":6202,"bcfbbcc":6203,"efcfbc":6204,"dfecbc":6205,"dfeecc":6206,"bbcdeec":6207,"bcecded":6208,"efcbef":6209,"bbecbfc":6210,"bddbbbd":6211,"ebcfef":6212,"ebefbbc":6213,"bbdda":6214,"bbbbbbfc":6215,"ebecdc":6216,"feddbe":6217,"bfbdee":6218,"eefbbcc":6219,"bceceec":6220,"ebcfbbc":6221,"ebcbbbec":6222,"dfeccc":6223,"ebbecebc":6224,"dccbbbe":6225,"ddcedc":6226,"ebbe</w>":6227,"bffbbf":6228,"deebbed":6229,"befbbbf":6230,"fccfcc":6231,"ebbeefc":6232,"bebdbebc":6233,"bdbebbbd":6234,"fdcff":6235,"dbbebbebb":6236,"ebcecbe":6237,"ebcbcbf":6238,"bbcbcbbc":6239,"dbddebb":6240,"ecceeed":6241,"bdcdef":6242,"eebdbbbb":6243,"bebdebd":6244,"bdbcccc":6245,"bbcbcf":6246,"beebbef":6247,"eceebec":6248,"fefef":6249,"eccffc":6250,"eebdeec":6251,"bbbeeebc":6252,"ddecbd":6253,"bbecebbc":6254,"fdca":6255,"bcecebe":6256,"eddba":6257,"ddbebf":6258,"ebbecbec":6259,"eabbee":6260,"bcecbcc":6261,"beeebbebe":6262,"edecbec":6263,"bfcbbee":6264,"eefbbbd":6265,"ebbbeff":6266,"bbbfbbbf":6267,"dfebec":6268,"dbbecdc":6269,"ebccdbc":6270,"febbef":6271,"ebfdbf":6272,"ebbbbba":6273,"ebbeebbf":6274,"fbfbbbb":6275,"decdebb":6276,"bbbedfc":6277,"bddea":6278,"beec</w>":6279,"ebebebbbe":6280,"fdbfcc":6281,"bfcfee":6282,"decbcbc":6283,"bfbea":6284,"bbcbebbbb":6285,"bfcbebe":6286,"beecebd":6287,"bbefbbf":6288,"ecbcdc":6289,"ddbeebb":6290,"dfbcbd":6291,"bcbebbed":6292,"acbcc":6293,"fefff":6294,"bbbcdebb":6295,"eeccebd":6296,"edebbebb":6297,"ebeecbe":6298,"debea":6299,"deecbec":6300,"bbbdba":6301,"debebec":6302,"ebbecebe":6303,"fccebd":6304,"bccceec":6305,"edcbbcc":6306,"beebac":6307,"bbbcdcc":6308,"bdbca":6309,"bbecbef":6310,"fbeefc":6311,"eebcbebc":6312,"bdbceec":6313,"bcbcebd":6314,"bbedefc":6315,"bbdbbfc":6316,"bbecfbc":6317,"debcef":6318,"bebbbbbbbbbbbb":6319,"ebbbca":6320,"beebebbbb":6321,"edbebbf":6322,"bbdebdc":6323,"dbeefc":6324,"ebcfebc":6325,"bcbeded":6326,"eedbbdd":6327,"ebcdbcc":6328,"dbbe</w>":6329,"fbeded":6330,"dbedbbc":6331,"fccdee":6332,"eebcebbc":6333,"bebdbebe":6334,"ebedbcc":6335,"bbefff":6336,"edebbbc":6337,"defef":6338,"bcfded":6339,"bdbbbfc":6340,"fbdbbf":6341,"dceeef":6342,"cccebd":6343,"dccddc":6344,"bebcfbc":6345,"bcccef":6346,"ebccbbbc":6347,"bceebbec":6348,"ecbdfc":6349,"ecbedbf":6350,"bbbedbbbb":6351,"ecececc":6352,"dbebbbf":6353,"ebbd</w>":6354,"ddfef":6355,"debcbbc":6356,"bcfddc":6357,"eceebdc":6358,"eedbbebb":6359,"eedcfc":6360,"ebbbac":6361,"debbebd":6362,"ebfbecc":6363,"bccdbbc":6364,"bebcfec":6365,"bbebebec":6366,"ecbbea":6367,"ebebcbbc":6368,"bbdbced":6369,"bbfbecc":6370,"baebd":6371,"eafee":6372,"bbebbccc":6373,"bdecbbc":6374,"dbecbec":6375,"dbbebbcc":6376,"bbdcdee":6377,"ffdef":6378,"eefbbec":6379,"fbcdbd":6380,"bdcbeed":6381,"ddbdcc":6382,"ecbebecc":6383,"eccdbbc":6384,"ebbbeeec":6385,"bbdbedd":6386,"ebdceec":6387,"edcdebe":6388,"dccbebe":6389,"feedee":6390,"dfcdee":6391,"bdcebcc":6392,"bbdcdf":6393,"dcecef":6394,"dcdbbf":6395,"bebcbef":6396,"bbdcdbe":6397,"bbebbeec":6398,"bbcbbbcc":6399,"bbeebcbc":6400,"bbbbcfc":6401,"feddbc":6402,"edeeccc":6403,"ddeeed":6404,"bdbedbd":6405,"dcfdf":6406,"bbbddec":6407,"bbdbba":6408,"eeebfcc":6409,"ebefa":6410,"bbbcfec":6411,"bebdccc":6412,"bbdcebc":6413,"bbbdded":6414,"fffbe":6415,"fbcefc":6416,"becda":6417,"bcfea":6418,"ebbbeecc":6419,"bbeddec":6420,"beccdec":6421,"fccdbe":6422,"eefdbf":6423,"ebbcbbcc":6424,"edccccc":6425,"ecbcdbc":6426,"bcdbbed":6427,"dbbeba":6428,"ecccef":6429,"dbecbbc":6430,"fecebd":6431,"bbbdbdbd":6432,"bbebeef":6433,"bcbdbec":6434,"bccbeebb":6435,"edcbeed":6436,"ffbccc":6437,"abebf":6438,"ecfeecc":6439,"fefccc":6440,"bcfbecc":6441,"eedbbbf":6442,"ebbcbeee":6443,"fedbf":6444,"bbbfbbee":6445,"bcecebc":6446,"dcecebb":6447,"bbdbbebc":6448,"fbfdf":6449,"becbebbc":6450,"bcedbbc":6451,"dedbef":6452,"bbeffc":6453,"edfbdc":6454,"dbbbdec":6455,"ebebedd":6456,"fbbcccc":6457,"eecbbdd":6458,"dbfdbc":6459,"bcecef":6460,"bcbbbbbbbc":6461,"bccbebf":6462,"bcdedcc":6463,"eccbcee":6464,"decddc":6465,"bbfcbbc":6466,"eeebbeeee":6467,"ecbebbec":6468,"ebcbeebe":6469,"ebddebd":6470,"bbbefebb":6471,"debefc":6472,"acbbbb":6473,"ebfbebd":6474,"dbdba":6475,"bdfbebe":6476,"bcbedebb":6477,"dccbfc":6478,"eebebecc":6479,"dceded":6480,"bbdbebbc":6481,"bdbcbcc":6482,"bbbedbbc":6483,"bfbdebb":6484,"ecbdbbc":6485,"eebcbebe":6486,"bcbffc":6487,"fbeeecc":6488,"edbcccc":6489,"adbbc":6490,"eebebbef":6491,"efdbbd":6492,"dbdfee":6493,"ecbdebc":6494,"bbbdbef":6495,"bcdb</w>":6496,"fbcbbee":6497,"ebeeedc":6498,"edcdeec":6499,"eefbbbf":6500,"bbbbddc":6501,"dfbeec":6502,"ebffbf":6503,"bbebbbeebb":6504,"becbbdd":6505,"bccdebc":6506,"beccff":6507,"ebdcebd":6508,"dceebbc":6509,"dbdbfc":6510,"bbebbebbc":6511,"fecbebe":6512,"ecbebbbd":6513,"bddebcc":6514,"bbbeefc":6515,"eadbc":6516,"bbbbbbbbbbbbbbbbbbbb":6517,"bdbedec":6518,"cccbbf":6519,"ecfebbc":6520,"dbfbdc":6521,"bcbda":6522,"ecbdecc":6523,"ebedbbd":6524,"debbecc":6525,"bcbcbebe":6526,"ecfbebc":6527,"eaebc":6528,"fbebbebe":6529,"fffdc":6530,"deefee":6531,"bfedbf":6532,"ebeeba":6533,"dddcdc":6534,"ebfbebf":6535,"efbbbec":6536,"bbdcbbd":6537,"edbedee":6538,"bedcdf":6539,"adba":6540,"bbeedcc":6541,"bbedebd":6542,"bbbbdbbd":6543,"aebcc":6544,"fccbdc":6545,"babef":6546,"ddcbbf":6547,"dbbedcc":6548,"fcbbdd":6549,"bebcbebd":6550,"ddbcdc":6551,"debbdee":6552,"bbcccccc":6553,"beebebebe":6554,"fccbfc":6555,"dcbcebe":6556,"eebcfbc":6557,"defff":6558,"edfbbf":6559,"fecdbd":6560,"debbdbc":6561,"efdbbbb":6562,"eebdedc":6563,"bcdbbbf":6564,"fdebfc":6565,"fcbedd":6566,"ecdbdcc":6567,"acbbf":6568,"bbbbcbcbc":6569,"ecbdbec":6570,"bbbebebbc":6571,"bfebbcc":6572,"dceeebe":6573,"afebb":6574,"ebebbbcc":6575,"bbebbebd":6576,"decbbee":6577,"ebdcbec":6578,"edecef":6579,"ecfdbd":6580,"bbbdfbc":6581,"bbbbbeed":6582,"eccfbf":6583,"bbeddbd":6584,"bffdbe":6585,"ecbcedc":6586,"ebdcedc":6587,"ecfefc":6588,"bbdbcebb":6589,"bfbdec":6590,"ebfded":6591,"beecbeec":6592,"bfcbbef":6593,"eedcdd":6594,"bfdbbbe":6595,"ebedeec":6596,"eedbbed":6597,"efbded":6598,"eefddc":6599,"eeeddd":6600,"dbbbbdbbbb":6601,"fbdebd":6602,"bfebbebb":6603,"dbbcdf":6604,"bcecbbbb":6605,"edbbebf":6606,"bebdbbbc":6607,"decdef":6608,"babeee":6609,"bbebbff":6610,"dbfbbbe":6611,"befbebf":6612,"bceeebd":6613,"dbbcdee":6614,"dabba":6615,"eefbbef":6616,"bededcc":6617,"efcfee":6618,"bececcc":6619,"eccbebf":6620,"bbfebec":6621,"bfbddc":6622,"bcbcdc":6623,"bbffdc":6624,"ecbcbbbe":6625,"bbdfbbc":6626,"bebbbbbbbc":6627,"ebbfebf":6628,"bdeedf":6629,"bcbcbdc":6630,"aceec":6631,"abeebb":6632,"bbedff":6633,"eccbbbf":6634,"bebedcc":6635,"bebdbcc":6636,"fedbdc":6637,"bbbbbbcbbbb":6638,"fbddbc":6639,"fbeddc":6640,"bebceebc":6641,"ebcfebe":6642,"dbeebec":6643,"decfee":6644,"bcbbcbbc":6645,"bbdbcbe":6646,"bfbbbbbbbb":6647,"bebebebf":6648,"eeccebe":6649,"ebcdbbd":6650,"efbcef":6651,"ebfebcc":6652,"eecdbcc":6653,"eeebbbbc":6654,"eeecfc":6655,"bfbcbec":6656,"fccbbbb":6657,"bcbbcbbbb":6658,"becbbebc":6659,"bfcfec":6660,"eedca":6661,"ecdbbbd":6662,"bcbddee":6663,"bceedcc":6664,"bdbcdf":6665,"ebbbcbbbe":6666,"efeba":6667,"bbdeebe":6668,"dcfbcc":6669,"bfcba":6670,"eededcc":6671,"bfcbbbd":6672,"efcbeec":6673,"ddecdc":6674,"debbff":6675,"dbdbeee":6676,"debbbbbd":6677,"bbbcebec":6678,"bedcbbc":6679,"ddeedd":6680,"ebffdc":6681,"bfbbecc":6682,"ebbbbbfc":6683,"bbebbbbbf":6684,"bfbdf":6685,"bebbcccc":6686,"bcceeed":6687,"bbebbbeee":6688,"edbcdf":6689,"bfbebbbe":6690,"bebddec":6691,"bceeff":6692,"bbbbcdbe":6693,"ececdbe":6694,"ddedbd":6695,"becbced":6696,"bbdddbe":6697,"becbbef":6698,"bbbebbdc":6699,"dbbbdf":6700,"ebbc</w>":6701,"dcfebd":6702,"bebddbc":6703,"beefa":6704,"cccfcc":6705,"eabdc":6706,"dbecdf":6707,"ebbcefc":6708,"dbbcebd":6709,"bbdbbbec":6710,"eebcded":6711,"beebebbbe":6712,"dcdbbbe":6713,"bbcfbbc":6714,"fddef":6715,"eedbdcc":6716,"befddc":6717,"bebcbeec":6718,"ececdec":6719,"bebdecc":6720,"fcdedc":6721,"becac":6722,"fbfbbf":6723,"bfcedc":6724,"dededc":6725,"bcbcdec":6726,"dcbcfc":6727,"dbbbdbbd":6728,"bbbbcbebe":6729,"beccfec":6730,"ebbfedc":6731,"bbebbdf":6732,"bbebbebf":6733,"dbbceec":6734,"bfbebcc":6735,"bbbbdebe":6736,"fdc</w>":6737,"dcbbeec":6738,"fbcebbc":6739,"dfcef":6740,"ebcbcdd":6741,"eabbd":6742,"ecbcff":6743,"edbcebd":6744,"bbedbbbc":6745,"bbebebcc":6746,"bfbcdd":6747,"eccfbe":6748,"deebccc":6749,"debbbebe":6750,"dcbdef":6751,"bcbeddc":6752,"befbeec":6753,"dfca":6754,"fbcfee":6755,"bceca":6756,"dddbdc":6757,"becffc":6758,"bfcfcc":6759,"fbcbbec":6760,"dcbebec":6761,"eeecdec":6762,"dcbbebd":6763,"eabebe":6764,"decceec":6765,"bddbbdd":6766,"dccefc":6767,"bedd</w>":6768,"eebdccc":6769,"fcbcdc":6770,"bedbfcc":6771,"edebbbf":6772,"ebbbeebf":6773,"ddbddc":6774,"eebdef":6775,"eddeccc":6776,"bbccbcbc":6777,"bccac":6778,"bbbebbef":6779,"bbccdbd":6780,"bbeebeec":6781,"eaebf":6782,"dcedbf":6783,"bdbcdbe":6784,"bebcdbd":6785,"ecbcbdc":6786,"eebddbc":6787,"eabca":6788,"bbccdec":6789,"bcfebec":6790,"beccbecc":6791,"befded":6792,"fbebbef":6793,"eebfef":6794,"cccbbd":6795,"ebeecdc":6796,"bbbebbebc":6797,"bbfddc":6798,"deeefc":6799,"dbfdbd":6800,"bbfbccc":6801,"bebdff":6802,"edfbbbe":6803,"eececbd":6804,"bedcef":6805,"bcbebccc":6806,"ebddbbd":6807,"bbfeebc":6808,"dbbca":6809,"eebddbe":6810,"eebebccc":6811,"dabbc":6812,"bbbbcebc":6813,"dceefc":6814,"beeddbe":6815,"debcfc":6816,"beebea":6817,"bdbcebc":6818,"deebcec":6819,"ebbecef":6820,"bbecbbebb":6821,"bebbeba":6822,"fccdbc":6823,"bcebbbbc":6824,"bfcefc":6825,"dcceecc":6826,"fbddec":6827,"dbecdd":6828,"dbbcbbbe":6829,"fddbec":6830,"acebe":6831,"beccbdc":6832,"dedbebe":6833,"eabea":6834,"debcdd":6835,"bcbdebe":6836,"eceeddc":6837,"bafbc":6838,"cccbbbc":6839,"eeebebebe":6840,"fecbbbc":6841,"bbdeeed":6842,"edeedbe":6843,"edecbcc":6844,"bedcfc":6845,"bbfcfc":6846,"dcebbcc":6847,"ebbebccc":6848,"eccbced":6849,"eeceedd":6850,"fbeebcc":6851,"ebbcdcc":6852,"bbedbbbd":6853,"bedca":6854,"bceebecbbec":6855,"bfecdd":6856,"bbbbcbbebb":6857,"dbbcdbe":6858,"bbabba":6859,"beceeee":6860,"bbcbedd":6861,"fffef":6862,"bbccbbee":6863,"ecccebd":6864,"eeebbef":6865,"eccbbebb":6866,"beebbbbee":6867,"ebbdebbc":6868,"ebbeded":6869,"bbbbbcbf":6870,"bbfeeee":6871,"ececdee":6872,"bdbeebf":6873,"bbffebb":6874,"ebecbebe":6875,"dbeac":6876,"eecffc":6877,"dbcfed":6878,"bebcdebb":6879,"bbccbbbd":6880,"fecbeec":6881,"fbdbbd":6882,"feeebd":6883,"ebdcef":6884,"abbdc":6885,"bbcfef":6886,"beebeeeee":6887,"ecbcbbbc":6888,"eeebbbbbe":6889,"bccfebb":6890,"eebcbbee":6891,"eedcbec":6892,"edeedf":6893,"bceeedc":6894,"bbcffc":6895,"bcfbccc":6896,"bbddbbbd":6897,"eeecdbe":6898,"ddbbebe":6899,"bfcdbf":6900,"ebbcdebb":6901,"fccefc":6902,"eabeee":6903,"eedbbdc":6904,"edbcecc":6905,"eecbced":6906,"dbdbcbc":6907,"bbbfbbbd":6908,"bdccccc":6909,"beebebbee":6910,"fcbbebe":6911,"fcfbbc":6912,"fcecbd":6913,"dfda":6914,"bebbbebbbb":6915,"fbdbdc":6916,"ebdcecc":6917,"bceebebc":6918,"dccbbbc":6919,"ebdbedd":6920,"bbbebbbec":6921,"baac":6922,"bbceebe":6923,"bdbcbbbc":6924,"beedccc":6925,"eebbeccc":6926,"bbfbeebb":6927,"eeebeef":6928,"ebccebf":6929,"bcbbeecc":6930,"bccbbef":6931,"dbfebf":6932,"edcffc":6933,"bbedbebe":6934,"defebc":6935,"eeccbdc":6936,"dbbcbbbc":6937,"dbceeee":6938,"bccbbdd":6939,"dbbbb</w>":6940,"eeccdec":6941,"edbebbbc":6942,"eeeda":6943,"ebeebbebb":6944,"ebbcfee":6945,"ebecfbc":6946,"bbcbcbbbb":6947,"bbdbddd":6948,"dbbcebc":6949,"bdeeecc":6950,"dcbebbbb":6951,"eabef":6952,"bbccebf":6953,"bbbbbcec":6954,"dccfee":6955,"fccfed":6956,"bcccebc":6957,"edfdbc":6958,"beccdbe":6959,"ddbbef":6960,"bcbddbe":6961,"eeecef":6962,"fbdfbc":6963,"eeecdbc":6964,"edbedcc":6965,"bbcebdc":6966,"ebbbdef":6967,"dfdfc":6968,"ebccbebe":6969,"acff":6970,"beeddec":6971,"bbecbcbc":6972,"bedebfc":6973,"bbccfbc":6974,"ecdcecc":6975,"dfbbebb":6976,"bbbeddc":6977,"ebbbbedc":6978,"ebbdcdc":6979,"bedcebc":6980,"bbbbeebd":6981,"bcccbec":6982,"eabbbc":6983,"dccfed":6984,"dbffbc":6985,"bbcb</w>":6986,"eecfbf":6987,"dbbbfcc":6988,"eebcebf":6989,"defbbf":6990,"ecfbecc":6991,"decbbbd":6992,"beececc":6993,"ecccebe":6994,"fcfdd":6995,"bdfefc":6996,"bdeebcc":6997,"eeecbbbc":6998,"acebc":6999,"beecbdc":7000,"ebdedcc":7001,"babfc":7002,"eefbbebe":7003,"debcccc":7004,"fcceecc":7005,"edebbbd":7006,"dcbdebb":7007,"fdcdec":7008,"eecbebbc":7009,"abbebe":7010,"bbccbebc":7011,"ecbcbebc":7012,"bdbddbd":7013,"bfecbbc":7014,"bfdbdc":7015,"eddbbcc":7016,"bbdfdd":7017,"beecbfc":7018,"eeeebbbc":7019,"deebcbd":7020,"dfcdbe":7021,"bebfef":7022,"bfdccc":7023,"deebebd":7024,"bfecef":7025,"bcbcbbbd":7026,"beecbebe":7027,"eefbecc":7028,"bbbebcebb":7029,"ebbceebc":7030,"bbbfbfc":7031,"bcbbbbbcbbbb":7032,"ecbeded":7033,"debddd":7034,"fccded":7035,"bcedbec":7036,"beebebeee":7037,"bbedbdc":7038,"eefbccc":7039,"efcedc":7040,"ebbcbebd":7041,"eefded":7042,"ecbe</w>":7043,"dbddbf":7044,"defecc":7045,"dbbcbcc":7046,"ecbdccc":7047,"afef":7048,"deeeecc":7049,"debbedc":7050,"bebacc":7051,"bcfeecc":7052,"bafee":7053,"ebccfbc":7054,"defebe":7055,"bcfbeee":7056,"beebbbbf":7057,"bbbbecbc":7058,"dfbcee":7059,"debebcc":7060,"ebbfbebe":7061,"bbdcbcc":7062,"eceebbf":7063,"bdeeebc":7064,"edbcbec":7065,"abbef":7066,"bcbbbbbbbbbbbb":7067,"eceedbd":7068,"eccbbdd":7069,"bcbebbbf":7070,"ddecec":7071,"bbebbbef":7072,"eeecbdc":7073,"efbefc":7074,"bffebd":7075,"efedcc":7076,"edeac":7077,"edeebbd":7078,"dbeceec":7079,"bdfbbee":7080,"efcbebe":7081,"ebbbcdbe":7082,"edcedcc":7083,"bcdbbdc":7084,"eeedbbc":7085,"bcbbcccc":7086,"eeeebec":7087,"bcfbbbf":7088,"ebecdbd":7089,"edbddd":7090,"dcbbecc":7091,"bbbdbbbbc":7092,"fbdecc":7093,"bcbfbbc":7094,"edececc":7095,"bbbefbf":7096,"dbbecbbc":7097,"fccbebe":7098,"eeccdbc":7099,"edcbbed":7100,"eebdbcc":7101,"beeeebd":7102,"edacc":7103,"debbbdc":7104,"bbdcebd":7105,"beeddee":7106,"bbbdbebd":7107,"dedbbbc":7108,"dbbda":7109,"edcbcbd":7110,"fbebbed":7111,"ecedccc":7112,"bccca":7113,"beecbbec":7114,"becdedc":7115,"bbdfef":7116,"bcccbbbb":7117,"ecfbef":7118,"bbebbbbec":7119,"deefec":7120,"dfcebe":7121,"efbea":7122,"dbfda":7123,"debeebc":7124,"bedddd":7125,"ebbfbbbc":7126,"dbfbbbc":7127,"bbbfdbc":7128,"eeecebc":7129,"becbcee":7130,"eecbbebe":7131,"dfeebc":7132,"ecdbbbbc":7133,"dcbedf":7134,"eccbcdc":7135,"bbbebcbd":7136,"fcbbebc":7137,"deecdd":7138,"bbbebcec":7139,"dccbef":7140,"fdcbbc":7141,"bebbebfc":7142,"ebbdced":7143,"fbbcbbc":7144,"bbfbcbd":7145,"dbdbbec":7146,"bbdbbebd":7147,"edcecbd":7148,"bbef</w>":7149,"bcbeebec":7150,"bbccbef":7151,"dcebecc":7152,"fcdebd":7153,"ebdecbd":7154,"debbbbee":7155,"bbddebe":7156,"edceeee":7157,"debbbebc":7158,"dcbedbe":7159,"bacba":7160,"bbbbbbbbbbebb":7161,"ffbbbf":7162,"fcbefc":7163,"fffed":7164,"edbceec":7165,"eeec</w>":7166,"bbbbbcee":7167,"efb</w>":7168,"bdcbcbd":7169,"fbcfed":7170,"bdbcdee":7171,"babbebb":7172,"eefefc":7173,"bcbebbbbc":7174,"bdbdbbc":7175,"beeeebbc":7176,"bcbeefc":7177,"bbccbfc":7178,"fcbebbc":7179,"eeeceec":7180,"bbbefcc":7181,"bbbdebbc":7182,"babebc":7183,"ebdbbebe":7184,"dfbbdc":7185,"dbdbbdd":7186,"efdebd":7187,"fecfed":7188,"dfcbcc":7189,"fdebbcc":7190,"defbdc":7191,"ecfbbec":7192,"deccccc":7193,"bcbbb</w>":7194,"edefdc":7195,"ebdffc":7196,"dcbeecc":7197,"bbbcbeebb":7198,"dfcbec":7199,"dcfedc":7200,"acdbe":7201,"bbdbcbf":7202,"ebecebbc":7203,"bbbddebb":7204,"febea":7205,"fbbb</w>":7206,"bbbdbeee":7207,"bfe</w>":7208,"eceddd":7209,"ebffbe":7210,"ebecbebc":7211,"bcecbeec":7212,"ebecdcc":7213,"bdecdee":7214,"eedb</w>":7215,"bedcdd":7216,"eaecc":7217,"fbcfcc":7218,"ebecded":7219,"debebbbe":7220,"dbecef":7221,"ebcbebbbb":7222,"eebedec":7223,"bdebdcc":7224,"befbbef":7225,"fcdbcc":7226,"bbedded":7227,"eebdebe":7228,"dcbcccc":7229,"bfbca":7230,"afdd":7231,"fcecdc":7232,"dbcbecc":7233,"dbefbe":7234,"ecbcbebe":7235,"edbeff":7236,"edcdedc":7237,"eeeebeebb":7238,"fbfdd":7239,"eedcdf":7240,"dbebeebb":7241,"bbbcbcbd":7242,"ebecbbee":7243,"ebdcdf":7244,"bbcda":7245,"bffecc":7246,"bbdeebf":7247,"bbbcfbd":7248,"ebfbeec":7249,"bbbdbfc":7250,"dcbea":7251,"ecfddc":7252,"dbdebbc":7253,"eebdebd":7254,"fdcdee":7255,"bebbbdcc":7256,"bbccfee":7257,"eecbcdc":7258,"bdceeee":7259,"bbfcbbbb":7260,"efecdc":7261,"bbbdecc":7262,"eebeddc":7263,"ecfbebe":7264,"ebbecfc":7265,"eedcecc":7266,"fefdd":7267,"eabdbf":7268,"fecbef":7269,"bbedbebc":7270,"beedbbbb":7271,"bceeebbc":7272,"ebfbeebb":7273,"beeebcbc":7274,"fecbcbc":7275,"eecbdbd":7276,"eccca":7277,"fcbdbd":7278,"beeebebc":7279,"bebdedc":7280,"fbdbfc":7281,"bfeddc":7282,"defdee":7283,"dbfedc":7284,"bdecdf":7285,"bdbcbbbe":7286,"fcecec":7287,"bdbebbec":7288,"bbeefbe":7289,"ecbebccc":7290,"dcbcebc":7291,"bbbfbbebb":7292,"bebdbdc":7293,"bceddbe":7294,"bdbcdbc":7295,"fecbbbe":7296,"dceba":7297,"bbbbcdbc":7298,"eeccdbe":7299,"ebcbdcc":7300,"dbdbeec":7301,"debedf":7302,"bbbdbbdd":7303,"eeeeebeebe":7304,"bfbebbd":7305,"ebdbbef":7306,"bbbceebc":7307,"cccded":7308,"fecbecc":7309,"bbedbbec":7310,"bedefcc":7311,"febbff":7312,"ebedecc":7313,"edecbbbb":7314,"ebeffc":7315,"bbcbba":7316,"decefc":7317,"eeeebeef":7318,"ebbdbfc":7319,"bbdd</w>":7320,"bbebebeee":7321,"bceebfc":7322,"ebedbb":7323,"ecbbbccc":7324,"bbcecbd":7325,"bececbd":7326,"bcdbbebe":7327,"bbeebbbbc":7328,"dbbcdbc":7329,"bbbcbccc":7330,"fbdbebe":7331,"ebedebd":7332,"bffccc":7333,"bbdcff":7334,"bdbcebd":7335,"ecfded":7336,"bbceccc":7337,"ebdcdbe":7338,"fefdf":7339,"ebfbccc":7340,"ddeebf":7341,"eaeec":7342,"beccdee":7343,"babda":7344,"bbebbdbc":7345,"debcebc":7346,"febbfc":7347,"bdf</w>":7348,"ebbcbeec":7349,"eeebbbebe":7350,"bcccccccc":7351,"fecfbc":7352,"bebddbd":7353,"bbfbbebe":7354,"ebefbbbb":7355,"becceecc":7356,"beceedd":7357,"defdbc":7358,"bceedbd":7359,"bdcbbdc":7360,"bdcfdc":7361,"deecdec":7362,"bbcdbbd":7363,"ebfdebb":7364,"eedceec":7365,"fceeed":7366,"bbbcbbdc":7367,"deeceec":7368,"ebbfccc":7369,"eeeeeeef":7370,"dcceebc":7371,"bbeebbed":7372,"efbcbbc":7373,"ebbcbbbf":7374,"ebecedc":7375,"bccbced":7376,"babbbf":7377,"bbbeebcc":7378,"fedebc":7379,"bdbcbbf":7380,"bbccfec":7381,"bcdbdcc":7382,"eeed</w>":7383,"fccbbd":7384,"bfefcc":7385,"dccbebc":7386,"dbecdee":7387,"bcecdbc":7388,"bcbcbbec":7389,"bcbdebc":7390,"debedbe":7391,"ebeedcc":7392,"ebdbced":7393,"bceebebe":7394,"dedbfc":7395,"febbbbf":7396,"efbedd":7397,"bdfbef":7398,"bfbdef":7399,"ecbddf":7400,"eeebbbeee":7401,"bbbbac":7402,"edfdee":7403,"ddbcdd":7404,"bdcfbe":7405,"efcebbc":7406,"ecbcfbc":7407,"eceeedc":7408,"eceb</w>":7409,"ebbbedbc":7410,"ffbbef":7411,"fbfbcc":7412,"bbebefc":7413,"bebfbec":7414,"efbbbcc":7415,"dbdfbd":7416,"debcdee":7417,"feeea":7418,"bbfcdf":7419,"bcfbbebb":7420,"ececdbc":7421,"bbbcbecc":7422,"bcbcbccc":7423,"eccdbec":7424,"ecfbbcc":7425,"cccbbbe":7426,"bbeeea":7427,"befdebb":7428,"bbceebf":7429,"bccfdd":7430,"aeecc":7431,"bbbbbbebd":7432,"ebecbbec":7433,"ebccbfc":7434,"dbfbfc":7435,"bedcdec":7436,"dcfccc":7437,"dadf":7438,"becdebd":7439,"bbefdbe":7440,"bdbebbcc":7441,"debebebe":7442,"eccfebc":7443,"bbfdef":7444,"bedebbcc":7445,"dcecebe":7446,"bbeebebd":7447,"bbcbcdc":7448,"fbcdcc":7449,"bbedbbed":7450,"dcecdf":7451,"edebbed":7452,"deedebb":7453,"ab</w>":7454,"bbbbdef":7455,"efcbbbe":7456,"bcececc":7457,"cccdbd":7458,"decfcc":7459,"ecccdf":7460,"ebbfbdc":7461,"bbbdbcbc":7462,"fdeba":7463,"baedc":7464,"beebeef":7465,"ecbffc":7466,"bfbebbf":7467,"befbeebb":7468,"eeebac":7469,"bfeebbbb":7470,"dbbecdd":7471,"beedeec":7472,"dcfbbd":7473,"beecdbd":7474,"ecdbbdd":7475,"dcfdbe":7476,"bccebdc":7477,"efcebf":7478,"beeeeeebe":7479,"dbbcbbf":7480,"ebdcccc":7481,"bbbfbebc":7482,"eeeeea":7483,"bdfbebc":7484,"dbbbfbf":7485,"ebbfbbee":7486,"bbbbcdf":7487,"bebfbbf":7488,"dbefdc":7489,"beecbecc":7490,"beebebbc":7491,"ebebcbbbb":7492,"eedddd":7493,"ebeecec":7494,"bbeedbf":7495,"bbefbec":7496,"ebcbeef":7497,"bdfebbc":7498,"fbdedc":7499,"bbdcdbc":7500,"bbbecbec":7501,"eeeebdc":7502,"bebdded":7503,"beedfc":7504,"bbbbbebbbe":7505,"bccbbebe":7506,"bbbfebf":7507,"fbbebfc":7508,"dcdebf":7509,"eebcbfc":7510,"ebcbbbcc":7511,"bfeea":7512,"fbfbec":7513,"ecdefcc":7514,"debeef":7515,"efcbcbc":7516,"bbefdf":7517,"fbbbdcc":7518,"bbdffc":7519,"fbddbd":7520,"bbbeeeebb":7521,"bbdfebe":7522,"bdcea":7523,"fbfebe":7524,"eccfecc":7525,"ebdfdd":7526,"eebfebe":7527,"dbcbbebb":7528,"bebcbecc":7529,"bbbbfbbc":7530,"bbbbcbbee":7531,"bfbdbe":7532,"fbcbbbd":7533,"bebbbbbbebb":7534,"dceeebc":7535,"bbbcdbf":7536,"bfbac":7537,"eeebea":7538,"bbbcdbbbb":7539,"eedbbebe":7540,"fdefcc":7541,"ddeeebb":7542,"edbca":7543,"bcdbbef":7544,"bbecdebb":7545,"fedded":7546,"ebbdddd":7547,"bbbcbbebe":7548,"fbcba":7549,"eccecdd":7550,"dbebbdc":7551,"bbdddf":7552,"eeedccc":7553,"debeebe":7554,"bbdbcbbbb":7555,"efdecc":7556,"eccdebd":7557,"ebdbcee":7558,"dedbbcdbf":7559,"ddeebe":7560,"befbbed":7561,"feeeec":7562,"feedbd":7563,"ecccdec":7564,"ddeef":7565,"edbbbbbbbb":7566,"edbedbd":7567,"ebbfdbc":7568,"bbcfdd":7569,"ebceeebb":7570,"becdbbbb":7571,"fecedc":7572,"ebbbcbbf":7573,"bcfdef":7574,"dbebced":7575,"bcbcded":7576,"dccbbee":7577,"fbcfbd":7578,"dbbcdbd":7579,"bffeec":7580,"bbbdbbcc":7581,"ebccefc":7582,"fedeec":7583,"dbbcff":7584,"eeeebbebe":7585,"eceebbd":7586,"dcbdbe":7587,"eebdbbf":7588,"ecfbccc":7589,"bbbebcbe":7590,"beeeea":7591,"ecccdee":7592,"efecbe":7593,"fbebbbbc":7594,"debca":7595,"bbbdbbed":7596,"ecccdcc":7597,"ddc</w>":7598,"fccebf":7599,"bdeedbc":7600,"dbebeed":7601,"edccfc":7602,"edcfebb":7603,"bfdebf":7604,"edeca":7605,"ebcbcbbc":7606,"bbbebcee":7607,"decdeec":7608,"eebcdcc":7609,"ddecbe":7610,"decba":7611,"eeccff":7612,"bcfac":7613,"ebbcfec":7614,"ecbcded":7615,"dbbedbf":7616,"befbebd":7617,"ececa":7618,"edcecdc":7619,"bbdbdcc":7620,"decbebd":7621,"ddfbbc":7622,"bbbfebd":7623,"bfcbbcc":7624,"feebebc":7625,"eebebba":7626,"dcbcbec":7627,"ebffebb":7628,"decdbf":7629,"bbdeef":7630,"dfffc":7631,"bbecfec":7632,"bbbfeec":7633,"ececbbbb":7634,"effdf":7635,"fdcebc":7636,"bedeba":7637,"bcbcdbd":7638,"bbceef":7639,"feffc":7640,"bcfebcc":7641,"bbdbeef":7642,"ecceebf":7643,"dbecdbe":7644,"edbedbb":7645,"beccbbbe":7646,"ebbdcbd":7647,"efecbf":7648,"feefbc":7649,"feddcc":7650,"bbebbdee":7651,"cccbfc":7652,"dbcbcbd":7653,"bfebbbf":7654,"ebfddc":7655,"eedcebc":7656,"eebcdbd":7657,"ebbeedbe":7658,"dcecdee":7659,"ebecbcbc":7660,"eebcbbec":7661,"babbcc":7662,"bbdecbd":7663,"bbbcefc":7664,"ebbcbbed":7665,"eeeddf":7666,"abcbf":7667,"ecbbeecc":7668,"ddbded":7669,"fecefc":7670,"eccbdcc":7671,"ecbcdcc":7672,"dcbebcc":7673,"bbdcbdc":7674,"fefbbc":7675,"dbbebbbd":7676,"ebccbbee":7677,"beecdebb":7678,"bfeefc":7679,"dbbbdebe":7680,"dedfbc":7681,"dfcff":7682,"bcccebe":7683,"bbbffbc":7684,"edecebe":7685,"bcbcbbee":7686,"bebbebbcc":7687,"becbcbe":7688,"ebbcba":7689,"dbfbebe":7690,"bbbfdee":7691,"becbbbec":7692,"bccbdbd":7693,"beeddbc":7694,"ddcfbc":7695,"bebfbbbe":7696,"bddb</w>":7697,"ddfebe":7698,"fcbcbe":7699,"dbbeddd":7700,"bbbdbbbbbbbb":7701,"ecfbbee":7702,"fcccccc":7703,"ecdbbbf":7704,"ebbeac":7705,"ebbefbf":7706,"becbbfc":7707,"defbbbb":7708,"bcbcbef":7709,"eeccfbc":7710,"bbebbbdc":7711,"beccbbf":7712,"ececbdc":7713,"beaa":7714,"bebdbbee":7715,"ecfebcc":7716,"dbbbbbbf":7717,"ecbdedc":7718,"ecbbac":7719,"dcbcdf":7720,"ebdecdc":7721,"dadbe":7722,"bebfebe":7723,"eebeac":7724,"bceebeec":7725,"bfcdebb":7726,"beccbebc":7727,"bddbbbbc":7728,"fceef":7729,"ecbcdbd":7730,"efdccc":7731,"ebffef":7732,"edbbebbc":7733,"becbcebb":7734,"beedebc":7735,"dccccccc":7736,"bbcbeef":7737,"efbbeec":7738,"bbdbcf":7739,"debebbf":7740,"bebbbbbebbbb":7741,"bfbcccc":7742,"edebbbbc":7743,"ebddedc":7744,"feeddc":7745,"bbecedc":7746,"fecba":7747,"dbceebd":7748,"daba":7749,"bcbcfbc":7750,"dbbcbebe":7751,"ecbdeec":7752,"bdbcdbd":7753,"bbbbbeebe":7754,"ffdebb":7755,"dcbdf":7756,"bbbfbdc":7757,"beebbbbbc":7758,"ebbeebbebb":7759,"bfecbec":7760,"ebebbebd":7761,"deeea":7762,"bbebebbebb":7763,"ecbebbebb":7764,"bceefbc":7765,"ebebfcc":7766,"edcbedd":7767,"bbbfbef":7768,"fbdbebc":7769,"adfc":7770,"bffbbbe":7771,"efeedc":7772,"bcceedd":7773,"aeca":7774,"bbbbfed":7775,"ebfeebc":7776,"edceedd":7777,"beceeed":7778,"bbbbcbbec":7779,"ecbeba":7780,"dbcebec":7781,"bbefbbbe":7782,"bcbcbbcc":7783,"eeeeeeebb":7784,"becfbbc":7785,"beeebbbd":7786,"debbdbd":7787,"bdeebbf":7788,"ebbcebec":7789,"eecdbbd":7790,"ebceef":7791,"ebdbebbc":7792,"decbedc":7793,"ecbddee":7794,"ecfba":7795,"eeebebbee":7796,"ebfebec":7797,"ebcbefc":7798,"efcbecc":7799,"dbebbebe":7800,"dbbebbbc":7801,"eadbd":7802,"bdbcff":7803,"eccdbcc":7804,"dedbecc":7805,"bbecba":7806,"fbedbbc":7807,"edfebf":7808,"dfbced":7809,"dceedbe":7810,"becbcbf":7811,"edbeebf":7812,"feedbf":7813,"defdcc":7814,"dbbbba":7815,"bbedbbee":7816,"dfdbbc":7817,"ddbcbe":7818,"ebcbba":7819,"dedebbc":7820,"bbfac":7821,"dbedebe":7822,"fbbbfcc":7823,"efbdbf":7824,"bccbcbf":7825,"efeeed":7826,"bebdbbbd":7827,"eebddee":7828,"bbcbeebe":7829,"efbebbbb":7830,"bbbcdbbc":7831,"dbebbbbc":7832,"bbdecec":7833,"dbeca":7834,"bbfca":7835,"bbdbbeec":7836,"bcbeeecc":7837,"bbbbbedc":7838,"bbdbeebe":7839,"bebefcc":7840,"eeeebbebb":7841,"edcbccc":7842,"ecceddd":7843,"ecfeccc":7844,"fddeec":7845,"beefebe":7846,"edbebbee":7847,"bcbdeec":7848,"ddbcbf":7849,"bcbcebf":7850,"dedebf":7851,"ebbcbbbbc":7852,"bebfff":7853,"bebcbeee":7854,"bbdbbbcc":7855,"bbdbcdc":7856,"bbecbbcc":7857,"eefac":7858,"bebebccc":7859,"fbebbdc":7860,"bccbedd":7861,"dddedc":7862,"dbefbf":7863,"fecddc":7864,"bbcecec":7865,"bcfbbed":7866,"bcecbbf":7867,"bbecfee":7868,"ebecbbbd":7869,"decbeed":7870,"efcdebb":7871,"bbecbebd":7872,"befbbebe":7873,"ecbcbbee":7874,"eebdff":7875,"ebbddcc":7876,"ebdfbbc":7877,"febbbbbe":7878,"fcbded":7879,"edcdebd":7880,"bebcba":7881,"eeececc":7882,"eceebbbe":7883,"dceedf":7884,"bcceeebb":7885,"dfdebe":7886,"bdcbbebb":7887,"eeee</w>":7888,"effebc":7889,"bbcfebe":7890,"bbccdcc":7891,"bfdedc":7892,"bccdeec":7893,"bccfef":7894,"dbcdef":7895,"ebbeefee":7896,"bfecdf":7897,"dbecebc":7898,"efcba":7899,"debcebe":7900,"bbabbbe":7901,"cccfbc":7902,"eeecff":7903,"ebbbb</w>":7904,"bccbcbe":7905,"bbddbec":7906,"decbbed":7907,"ebecbfc":7908,"ebccfec":7909,"edecbbd":7910,"eceebbbc":7911,"effbcc":7912,"bccecec":7913,"dbbbbbbebb":7914,"eeefa":7915,"dcdbbbc":7916,"bcbcbfc":7917,"bfbbebf":7918,"bbecbeee":7919,"bbecbecc":7920,"debbebbc":7921,"bbebcbec":7922,"edccecc":7923,"eececdc":7924,"deeeebc":7925,"fccbebc":7926,"dcbeebd":7927,"dedbbee":7928,"ecbcbfc":7929,"bdbeba":7930,"dcbfed":7931,"beebbbec":7932,"ebdeebe":7933,"ecfac":7934,"bfbcbbf":7935,"bdbebfc":7936,"ebbeeebf":7937,"bdecccc":7938,"bbdcbbbc":7939,"bbcdebd":7940,"edecccc":7941,"beebbebc":7942,"bbebe</w>":7943,"dcecbbc":7944,"dfbebf":7945,"ffbecc":7946,"bbccebbc":7947,"ebeeebbbb":7948,"eeeefc":7949,"bbdddbc":7950,"ffbbebb":7951,"efcfed":7952,"bfbddd":7953,"bdceedc":7954,"ebdfebe":7955,"bbeebbef":7956,"bbdcbbf":7957,"bedcdee":7958,"bebbedcc":7959,"dcfbbbb":7960,"edcdbbc":7961,"dedba":7962,"fbcbeec":7963,"fbdfec":7964,"bfbcdf":7965,"eedd</w>":7966,"ffbbed":7967,"bebebeebe":7968,"ffcdd":7969,"befbccc":7970,"ebbbedbb":7971,"ebeecbf":7972,"eccbdbd":7973,"bdfddc":7974,"bbdbded":7975,"ebccdbd":7976,"fedbbbb":7977,"ebeedbd":7978,"bbbbcdee":7979,"dbcdebe":7980,"dcecbec":7981,"ebebded":7982,"edebbbbbb":7983,"cccbcbc":7984,"feedec":7985,"bfbdbbc":7986,"fbdbbbc":7987,"ffbeec":7988,"cccddc":7989,"ebcbded":7990,"ebeb</w>":7991,"ebebefc":7992,"eceeebd":7993,"ebcfa":7994,"ddeced":7995,"fbdbbbe":7996,"aeea":7997,"bebcbbcc":7998,"fbcdebb":7999,"bdbd</w>":8000,"ecceebe":8001,"eeceeed":8002,"bbfcbec":8003,"aecbc":8004,"bdcbbdd":8005,"ffcccc":8006,"bebebbed":8007,"bbdedbd":8008,"dbbddbd":8009,"bdecfc":8010,"ebceced":8011,"bdbebbebb":8012,"edbbbfc":8013,"dbefebb":8014,"bcfdebb":8015,"feebcbc":8016,"ebccded":8017,"beccdbc":8018,"bbcecbe":8019,"bbdcccc":8020,"edeedbc":8021,"bebcbbebb":8022,"bbbdedc":8023,"bbeeddc":8024,"eba</w>":8025,"dbddbbbb":8026,"becceebc":8027,"eecceecc":8028,"debcdec":8029,"abfa":8030,"bcbbebdc":8031,"dcbebbd":8032,"bbcbebec":8033,"fcbdcc":8034,"bccdecc":8035,"ffebec":8036,"bcbcbeec":8037,"ebbbebbbd":8038,"ebebcebe":8039,"bbcdbcc":8040,"ebbbcbbbc":8041,"dbbebecc":8042,"bebcfee":8043,"ebebeebc":8044,"ffbcbd":8045,"eadcc":8046,"ecdbbed":8047,"becbeebc":8048,"dbfbeec":8049,"ebeecebb":8050,"edceeed":8051,"ebcebfc":8052,"efcefc":8053,"ebccebcc":8054,"bbbebbdd":8055,"ebbcfbd":8056,"bbecdcc":8057,"eedbfcc":8058,"bbdecbe":8059,"dbebcee":8060,"fcceebc":8061,"dcbeeec":8062,"ebfac":8063,"decbeee":8064,"debcbbbb":8065,"bdfbbbd":8066,"eebdbdc":8067,"daccc":8068,"dbbeddc":8069,"bfdbbbc":8070,"efedbd":8071,"eceebbee":8072,"ebebcef":8073,"bbdbcbbc":8074,"bfcbecc":8075,"dbbbdef":8076,"bcbebbebc":8077,"febbdf":8078,"bbffed":8079,"bdeceec":8080,"dcbcdee":8081,"bede</w>":8082,"bbbbceec":8083,"ebdcdee":8084,"bcdddd":8085,"dbdbbed":8086,"deeca":8087,"ebfbcbd":8088,"fffdd":8089,"ecbda":8090,"fef</w>":8091,"bdcdebe":8092,"decbbcc":8093,"dbdbebd":8094,"eebffc":8095,"bfbceec":8096,"efbfbeee":8097,"ebcecbf":8098,"decbcec":8099,"dabea":8100,"bdffcc":8101,"efecec":8102,"deddebb":8103,"bebf</w>":8104,"ebeeea":8105,"befebec":8106,"fccdcc":8107,"eebcbbbd":8108,"bebebebbbb":8109,"ebccdcc":8110,"bdcfbf":8111,"bdbbefc":8112,"bfbedf":8113,"efbcfc":8114,"dbecfc":8115,"bfedbc":8116,"eccecbe":8117,"bbdfebc":8118,"efbfcc":8119,"badcc":8120,"bdeedee":8121,"bbbbebbebb":8122,"edcbbdc":8123,"ecbc</w>":8124,"bbbbcbebc":8125,"ebbbcccc":8126,"dcebccc":8127,"bfcbebd":8128,"bedc</w>":8129,"bfbbccc":8130,"dcecfc":8131,"ebdbcdc":8132,"bdfdbf":8133,"bdcbedc":8134,"ebccbebc":8135,"bdbeebbc":8136,"dcbceec":8137,"bdbeded":8138,"bbdfbbbb":8139,"bbffef":8140,"decfed":8141,"eebceebc":8142,"bbefbbee":8143,"bdeebbbe":8144,"dbbdbbbd":8145,"bdcdfc":8146,"bbbcfcc":8147,"bebfbebe":8148,"eebdfbc":8149,"beddbec":8150,"bdfded":8151,"fbbedcc":8152,"bbdcbbbe":8153,"bbaba":8154,"bcbbbbbbbe":8155,"efcdbf":8156,"febbccc":8157,"bdbddbe":8158,"ecfdbf":8159,"adebe":8160,"beeebbbf":8161,"eeccdee":8162,"bcecbcbc":8163,"ebdfebc":8164,"bbdfa":8165,"bbfbcbf":8166,"dbbeded":8167,"ebccebbc":8168,"eeecbbbe":8169,"eecfef":8170,"bbfdbbc":8171,"efebfc":8172,"ebbecbcc":8173,"ebceebbc":8174,"ebdbdcc":8175,"bdeebdc":8176,"cccccccccccc":8177,"bfcdef":8178,"eedda":8179,"eebebbbbc":8180,"bbebcbbbe":8181,"ecdcfc":8182,"bfcbeed":8183,"befdef":8184,"ebdfef":8185,"ebdbcebb":8186,"dbbbebbbb":8187,"dbceecc":8188,"bccdbec":8189,"bbfebcc":8190,"befbeef":8191,"eeddfc":8192,"ebebebbee":8193,"bfcfbd":8194,"fecfee":8195,"ebfdef":8196,"ddfa":8197,"bbfecbc":8198,"befeebc":8199,"deddef":8200,"beccbebe":8201,"ecccdbe":8202,"ecdbbebb":8203,"ebebdbc":8204,"babcbc":8205,"bbecbbed":8206,"ebcbebec":8207,"bbbdddc":8208,"bbdcdbd":8209,"eeebefee":8210,"bdbedcc":8211,"bbbdfee":8212,"deddbf":8213,"dcbcbbbb":8214,"bbbddcc":8215,"deecbbc":8216,"eddedcc":8217,"bccdbcc":8218,"bbbcbeed":8219,"deedef":8220,"bbebbbebbbb":8221,"fbedef":8222,"ebbeeff":8223,"ebceddc":8224,"ebdedbd":8225,"febbeec":8226,"bdeeeec":8227,"fdda":8228,"edfbbbc":8229,"efcdef":8230,"ebebbeec":8231,"ecdbbdc":8232,"fbeecbc":8233,"eefeecc":8234,"bcbdccc":8235,"bcecbebc":8236,"ebddbcc":8237,"dde</w>":8238,"fcbcebb":8239,"bebedebb":8240,"bedcecc":8241,"dceea":8242,"eebeebcc":8243,"fbbbbbbc":8244,"beeebbec":8245,"fecbbec":8246,"eceeeec":8247,"edbcbcc":8248,"ebbcbecc":8249,"eeecdee":8250,"bbefccc":8251,"edecdf":8252,"abdbd":8253,"eadec":8254,"efcbbec":8255,"eebebbed":8256,"bcecff":8257,"deccef":8258,"debddf":8259,"ebefebc":8260,"bcccdee":8261,"ddbcebb":8262,"fcbeebc":8263,"edcdbec":8264,"bccbbbcc":8265,"ecccbdc":8266,"bbcbbcbbcbbc":8267,"ebeeebeee":8268,"edbcdee":8269,"ddcfcc":8270,"bceebef":8271,"edbcdbc":8272,"bbbedebe":8273,"bbbebeebe":8274,"dcbfbf":8275,"ebcdbdc":8276,"ecceced":8277,"edbcdbe":8278,"ebcecdd":8279,"bcceebf":8280,"fbeebec":8281,"ebbbeccc":8282,"dcbfdc":8283,"ebeeeed":8284,"becdbcc":8285,"bbccbbec":8286,"edcceec":8287,"ebdebbcc":8288,"bceeebf":8289,"adbbbb":8290,"ddfebc":8291,"beeedcc":8292,"eefdebb":8293,"eceeef":8294,"becfef":8295,"beeedee":8296,"ffcff":8297,"ebbecbbd":8298,"bbdbdbbbb":8299,"bbbfba":8300,"fecdbf":8301,"bbffdd":8302,"bfcebec":8303,"debcdbe":8304,"ebdeedd":8305,"edcbcec":8306,"ebfbbed":8307,"bcbdff":8308,"eccbbebe":8309,"dffebb":8310,"ecbcbbec":8311,"bdcceec":8312,"abeed":8313,"bfecfc":8314,"ebdeebf":8315,"dbeebcc":8316,"beeeeec":8317,"bdfba":8318,"edebbdc":8319,"ebebcebc":8320,"fbcdbf":8321,"bdbcbdc":8322,"bbbbbced":8323,"ebdb</w>":8324,"bbabbbc":8325,"bbeebeebe":8326,"fcebfc":8327,"bbdeccc":8328,"fbceebc":8329,"bbbfdbd":8330,"eeecbbf":8331,"ececeec":8332,"bfbbbdc":8333,"dbcbbbbc":8334,"efdbbf":8335,"ffdbbc":8336,"ebbeeccc":8337,"feebfc":8338,"eefdef":8339,"bcccdcc":8340,"efbeebc":8341,"dcdbbee":8342,"bccbcdc":8343,"ecfbbbd":8344,"becbcdc":8345,"bcfdfc":8346,"bbddbdc":8347,"fdcfec":8348,"bbadd":8349,"ebcfecc":8350,"ebdeeed":8351,"fbbeba":8352,"dcfbbf":8353,"bbbcbebf":8354,"ebbcfcc":8355,"bcecbbec":8356,"dabbbb":8357,"dbcdbbc":8358,"debebdc":8359,"ebdcbcc":8360,"fbbcbbbb":8361,"fdcdbe":8362,"bcccdf":8363,"bcbccccc":8364,"acdbf":8365,"ebdcff":8366,"eecceebc":8367,"eefbbed":8368,"ebbcdbf":8369,"abcee":8370,"ecec</w>":8371,"ecee</w>":8372,"eedcbbc":8373,"bcbcbcbd":8374,"debcff":8375,"eceedec":8376,"eeeeecc":8377,"ebbceebd":8378,"bebcefc":8379,"bcbcdcc":8380,"fecdebb":8381,"ebdcdec":8382,"eeebebbbe":8383,"bbddef":8384,"eebeefc":8385,"bbddeec":8386,"ecfea":8387,"bececec":8388,"dcecebc":8389,"bdbcbbbd":8390,"dfbcbf":8391,"bfceebc":8392,"befbecc":8393,"fbedfc":8394,"eeebbbbf":8395,"ebfbbbbc":8396,"dceebec":8397,"dceeecc":8398,"bcee</w>":8399,"bccbbfc":8400,"ecbeac":8401,"eccbeebb":8402,"bbebbba":8403,"ebcceecc":8404,"dbffcc":8405,"dcdefc":8406,"fcfebc":8407,"bcbeea":8408,"bebebcbd":8409,"ebbfbef":8410,"bfbcbbd":8411,"bbeedebb":8412,"beeebbcc":8413,"bebeeebc":8414,"ecbedebb":8415,"acccc":8416,"edf</w>":8417,"dcbbbdc":8418,"dbbdbec":8419,"ebebddc":8420,"bbbcddc":8421,"bfeddd":8422,"dbbecef":8423,"eebdbbd":8424,"babbec":8425,"bbbccccc":8426,"edfdcc":8427,"ebebcfc":8428,"bebcdcc":8429,"efbdec":8430,"eedcedc":8431,"fceedd":8432,"debcded":8433,"fcbfcc":8434,"fffebb":8435,"befbcec":8436,"edeebdc":8437,"edbedec":8438,"dceac":8439,"fcbeef":8440,"dbeeecc":8441,"beeebeef":8442,"bbddebc":8443,"bcdcdee":8444,"ebfbbebe":8445,"bbebbbbebe":8446,"ecedbbc":8447,"bccbdcc":8448,"fbeac":8449,"feddbd":8450,"dbbbbbec":8451,"bbbbeebbbb":8452,"ecbeebcc":8453,"dbcea":8454,"decebec":8455,"beecdcc":8456,"edbbdcc":8457,"bebceecc":8458,"ddcfec":8459,"bebbbbbbf":8460,"bedebecc":8461,"bfecebc":8462,"bebbbebbbe":8463,"bcdbbfc":8464,"befcdf":8465,"eedbbfc":8466,"dedfec":8467,"eeecbbd":8468,"deecdee":8469,"edfdec":8470,"dbcbeed":8471,"bcecbbd":8472,"bebfdf":8473,"beecfec":8474,"eebdbbbe":8475,"beccebbc":8476,"bbebd</w>":8477,"ebebdbf":8478,"eecbcbf":8479,"bdcdbbc":8480,"fdcbcc":8481,"fcdbbd":8482,"eeebbbbee":8483,"bbbdbbbf":8484,"efbcbec":8485,"deceecc":8486,"cccbebe":8487,"bffebf":8488,"efceecc":8489,"debcbbf":8490,"bbefbebe":8491,"bcdcdd":8492,"beebbeeee":8493,"febbbec":8494,"bdbddf":8495,"ebeeebbee":8496,"bcbcfee":8497,"eecbcbe":8498,"eaebd":8499,"dbbbbbbbbc":8500,"eecdbdc":8501,"fbcbbcc":8502,"deedbbc":8503,"beccbbd":8504,"ecccff":8505,"edeebbbe":8506,"dbfbbee":8507,"edbb</w>":8508,"efbcdd":8509,"bbfcbbf":8510,"eecbcee":8511,"dbddebe":8512,"ebcbfcc":8513,"bbbcbbdd":8514,"beecbebd":8515,"bdbcbebe":8516,"beebbbeee":8517,"ebebcdd":8518,"ebfeebf":8519,"badec":8520,"bfcbbed":8521,"abbdd":8522,"bbbcfbe":8523,"ebcbcfc":8524,"dbbbbdbe":8525,"deeac":8526,"dbbdcbd":8527,"dedbbbd":8528,"bbdcdec":8529,"bcfdbbc":8530,"aeeec":8531,"eedbba":8532,"ebcbeebc":8533,"fceebf":8534,"bccbbebc":8535,"fbddcc":8536,"ebebebec":8537,"dbccbbc":8538,"bcceebe":8539,"eecfa":8540,"bfcbeee":8541,"eaeeee":8542,"ebdcbbbb":8543,"ebbdcbc":8544,"efbdebb":8545,"feebbcc":8546,"feebbebb":8547,"efbbebd":8548,"edbdbbc":8549,"bcceef":8550,"dbbebbbf":8551,"bdfbbec":8552,"dfedcc":8553,"dbdbbebb":8554,"ccccccccccc":8555,"ebbbedee":8556,"eccbbbbc":8557,"beccded":8558,"bcbddbc":8559,"ebdcdbc":8560,"ebffed":8561,"edcecec":8562,"debbdec":8563,"eebcfec":8564,"abced":8565,"bdbbebec":8566,"bbbbbbbbbbbbbbc":8567,"bebbcbbbe":8568,"fbbcfc":8569,"bdfbbcc":8570,"bfbcbcc":8571,"ecebbbbbb":8572,"efbcebe":8573,"eecedcc":8574,"dbeecbc":8575,"deebced":8576,"dbfdec":8577,"efeea":8578,"ebfbbef":8579,"ffebcc":8580,"ebbcddc":8581,"beecba":8582,"bfc</w>":8583,"ebbeca":8584,"ddbbebc":8585,"edcac":8586,"ecccdbc":8587,"befac":8588,"bdeebbee":8589,"affc":8590,"ebbbebbec":8591,"eeeeeeeeeeeeeeee":8592,"efdbdc":8593,"bbfdebe":8594,"bdcdeec":8595,"bbecefc":8596,"bbbcbebbbb":8597,"bedcebe":8598,"bdebbbbbb":8599,"eebeeecc":8600,"bffdbc":8601,"ebbddbd":8602,"bbdbdbf":8603,"bbebeccc":8604,"bceebbebb":8605,"dcbdbbc":8606,"becbdbd":8607,"dbeeebd":8608,"dbdfcc":8609,"dccfbd":8610,"abbebc":8611,"bddac":8612,"ebecbbcc":8613,"bebdfbc":8614,"bceebcbc":8615,"bdbedebb":8616,"beeefbc":8617,"bebfccc":8618,"ebbfbfc":8619,"ddbeef":8620,"bbceedd":8621,"dbdbbcc":8622,"feebeef":8623,"bcccff":8624,"ecbdbbbb":8625,"eedbbef":8626,"eedbbbec":8627,"ebfecbc":8628,"bfbcff":8629,"ecbd</w>":8630,"ffcfc":8631,"bdecdec":8632,"eecbbef":8633,"edcfbe":8634,"beccbbbc":8635,"eeecdcc":8636,"afbbc":8637,"beecbbee":8638,"bffbebe":8639,"ebeebbebe":8640,"bdcbbbf":8641,"eeeedbe":8642,"bdbc</w>":8643,"ebeebbbbbb":8644,"ebfbeebe":8645,"beedbcc":8646,"bfeded":8647,"eecbbebc":8648,"efcbbee":8649,"eebceecc":8650,"bceeddc":8651,"bdbdbbbd":8652,"fecebbc":8653,"edeeebd":8654,"ebecbef":8655,"badbf":8656,"fbdded":8657,"bcbdbbf":8658,"dddcdd":8659,"ebfbcec":8660,"fbdbef":8661,"edeedee":8662,"ebbbcbcc":8663,"fedddc":8664,"bdecdbe":8665,"bdcdebc":8666,"ebbdba":8667,"dcdeecc":8668,"ebeeebbc":8669,"bdceeed":8670,"bbfcdbe":8671,"bebbcbec":8672,"dfcebc":8673,"fddff":8674,"ebccbbec":8675,"eebddec":8676,"fdcecc":8677,"bfebecc":8678,"bbdbefc":8679,"dcbbccc":8680,"dcbcbcc":8681,"ddbcf":8682,"bceeded":8683,"fbbebbcc":8684,"bfdced":8685,"bbfbcec":8686,"dbbecebe":8687,"bcbbbbbbbbc":8688,"ecdbfcc":8689,"bbefbcc":8690,"bcbeac":8691,"bbbbbebec":8692,"bebcbbed":8693,"dbecff":8694,"eeeeebc":8695,"bceddec":8696,"dffef":8697,"eebeebec":8698,"effbbbb":8699,"efcfcc":8700,"beeedbd":8701,"ddeddd":8702,"bcbdbbbc":8703,"beefbbc":8704,"bcec</w>":8705,"efbddc":8706,"dfecbd":8707,"efcbebd":8708,"ececdcc":8709,"effbec":8710,"edbbba":8711,"edfdbb":8712,"bbfeebd":8713,"bebeeeebb":8714,"bebdbebd":8715,"debebbbc":8716,"bcbedef":8717,"dfceec":8718,"deefbd":8719,"ddeddc":8720,"bbedbfc":8721,"dbcbbbf":8722,"edeeeec":8723,"ebdbbebc":8724,"bdcbccc":8725,"bdbbea":8726,"ebeeebbbe":8727,"bddbbebb":8728,"dbdfec":8729,"ebecfec":8730,"beecebbc":8731,"fdf</w>":8732,"fcdbdc":8733,"bbbecbbbe":8734,"dbecebe":8735,"ffbbdc":8736,"dfcdec":8737,"ddbeebe":8738,"becbebbbb":8739,"ebbecdf":8740,"ddcbbbe":8741,"eeeebebf":8742,"dbecbbbb":8743,"beecbef":8744,"dfcccc":8745,"bbbcfbf":8746,"debeecc":8747,"edeceec":8748,"bbcfbec":8749,"eafbc":8750,"bcbebbebe":8751,"debcecc":8752,"bffbdc":8753,"deecccc":8754,"dbecdec":8755,"bcdebfc":8756,"ebdecec":8757,"beecfbc":8758,"beccfbc":8759,"bdbcecc":8760,"bdeebbd":8761,"ebbbbbbbbbe":8762,"ebbecdbe":8763,"dbebedc":8764,"ebecebf":8765,"feebbbd":8766,"bbedecc":8767,"dcecdec":8768,"dbbcbbbd":8769,"efbbecc":8770,"beeebbef":8771,"aeebf":8772,"ffbcec":8773,"ffbebf":8774,"bbbfecc":8775,"eeecded":8776,"deccbec":8777,"bcfcccc":8778,"fccbef":8779,"ebbbcbbd":8780,"bebbbfcc":8781,"bbbbcbdc":8782,"edfdbd":8783,"bccedcc":8784,"bfeeebc":8785,"bcedccc":8786,"dcbac":8787,"edcfdd":8788,"ddbebbc":8789,"fcbcef":8790,"dbfdcc":8791,"eeeebbef":8792,"eeeebbd":8793,"bcbcebbc":8794,"dbfbebc":8795,"feffee":8796,"eedbbebc":8797,"fcfbec":8798,"dbbebbbbc":8799,"dbfbef":8800,"acdec":8801,"ebeebfc":8802,"edcfebc":8803,"bbbbcebd":8804,"ebabbbb":8805,"ebedbbbe":8806,"bbcbdbf":8807,"eeccfec":8808,"bcbbeccc":8809,"bfcbbebb":8810,"fedbbf":8811,"afebe":8812,"dcbca":8813,"bfd</w>":8814,"fbdebf":8815,"bbebeebc":8816,"edbbcdbf":8817,"bbcbcef":8818,"becbeebe":8819,"debbebf":8820,"fccbecc":8821,"bdbbfcc":8822,"ddbbfc":8823,"dbdb</w>":8824,"bceeba":8825,"ebeeebebe":8826,"bbbebba":8827,"befebcc":8828,"eeeeeebf":8829,"eeccbbf":8830,"bdeb</w>":8831,"edcfbf":8832,"bebdebbc":8833,"debedbc":8834,"edebdcc":8835,"ebebebbd":8836,"bbcfbbbb":8837,"bbebc</w>":8838,"bfbeeec":8839,"ebebebcc":8840,"bbccded":8841,"fccfee":8842,"acdbc":8843,"ebbeebbec":8844,"bbccbccc":8845,"ebdbbfc":8846,"bbccefc":8847,"fecbedc":8848,"eeeebbbf":8849,"beebbebf":8850,"ffffc":8851,"dccbccc":8852,"bbbcdef":8853,"bbeebebf":8854,"ebcdccc":8855,"bbeceebc":8856,"beeebebf":8857,"eecfebc":8858,"febebebe":8859,"ebbfdbb":8860,"eecbeef":8861,"aeeebb":8862,"bbbcea":8863,"befdbbc":8864,"bbecebec":8865,"bdeedec":8866,"dbcbbdc":8867,"beecbedc":8868,"bada":8869,"dcdbfc":8870,"ddbcef":8871,"bbddfc":8872,"ffecbc":8873,"bcbdbcc":8874,"bbebdbbbb":8875,"bdbebbed":8876,"efbcebc":8877,"bfcbbbf":8878,"ecbddbe":8879,"bcdbba":8880,"bbeeefc":8881,"bbebbecc":8882,"eecfecc":8883,"fddfc":8884,"dbddbbc":8885,"bdeebbbc":8886,"bcdbbbec":8887,"ebdbebbbb":8888,"feebbbf":8889,"bceedbf":8890,"ebcbcebe":8891,"fccbbbe":8892,"bdbdbbd":8893,"bbbbeeec":8894,"bbeebecc":8895,"ecbeefc":8896,"debcbcc":8897,"bdbda":8898,"dbbbda":8899,"fbcbebd":8900,"ecccded":8901,"fdcdbc":8902,"ebcbbeec":8903,"deceebc":8904,"beebbfc":8905,"eedc</w>":8906,"fdcded":8907,"efbdbc":8908,"eeccbbd":8909,"fbfebf":8910,"dbbdfc":8911,"bbbbda":8912,"bbcbdcc":8913,"eabbbd":8914,"bebcebcc":8915,"fbdefc":8916,"fbfbbbe":8917,"eefcccc":8918,"bddebdc":8919,"ddbba":8920,"feebebf":8921,"dbbbbdbd":8922,"ecfedcc":8923,"dfbcf":8924,"feebbebe":8925,"beecbcbc":8926,"bbbccbbbc":8927,"bcebbbec":8928,"edefbf":8929,"ddcebf":8930,"fecdfc":8931,"edeedcc":8932,"dbebebf":8933,"bcbedbbc":8934,"abcf":8935,"bbedbef":8936,"dbbebbed":8937,"bbdddee":8938,"aeebd":8939,"bfdbfc":8940,"bfbebdc":8941,"ebdcbdc":8942,"efebbcc":8943,"dedceec":8944,"ebbfdee":8945,"baeba":8946,"deecded":8947,"ebbbeedc":8948,"ebbbcbebe":8949,"bdbe</w>":8950,"cccebf":8951,"dceebcc":8952,"bfeebcc":8953,"dcdfcc":8954,"bbbbcbbcc":8955,"ecbeeccc":8956,"bbdbddc":8957,"dfeebd":8958,"dbefed":8959,"dbbecbec":8960,"beebbbbebb":8961,"dbccccc":8962,"dbdeebc":8963,"bddbccc":8964,"bbbbbedd":8965,"ddfecc":8966,"eecfdd":8967,"dbbecbbbb":8968,"dcceedc":8969,"bcccedc":8970,"bcecbdc":8971,"ebcbbebd":8972,"dbbedbbc":8973,"bebcbedc":8974,"bccbcbbc":8975,"fbcbecc":8976,"fccebbc":8977,"ebbdded":8978,"ffbebd":8979,"ececded":8980,"bfbeecc":8981,"dffbbc":8982,"bbfbbdc":8983,"beeacc":8984,"ebebdebb":8985,"bbcecbf":8986,"eebcbccc":8987,"ebbeceec":8988,"bbcebfc":8989,"bbbcfed":8990,"dbbcbdc":8991,"decebcc":8992,"ddcbbbd":8993,"dabec":8994,"bbcdecc":8995,"dbebdbd":8996,"feebeebe":8997,"debcebd":8998,"eecbbfc":8999,"dfbbdd":9000,"dbedbec":9001,"feeebbc":9002,"bcbedebe":9003,"bbdfbec":9004,"eefebec":9005,"bcbdbcbd":9006,"edebbee":9007,"bbcbefc":9008,"ecceeebb":9009,"bbecbeed":9010,"ecbcbccc":9011,"dcfdee":9012,"ebcfebd":9013,"dfbdbd":9014,"deeecbc":9015,"bcdd</w>":9016,"cccbbee":9017,"decdecc":9018,"beccbfc":9019,"bbdeedd":9020,"bbfdfc":9021,"dbceeec":9022,"beeebfc":9023,"ffbbebe":9024,"fbceecc":9025,"bcbcedc":9026,"dbbbac":9027,"eedefcc":9028,"dfbeebb":9029,"dbbddcc":9030,"edbdfc":9031,"bbbeeebd":9032,"bbbddbf":9033,"daebe":9034,"bcecbef":9035,"ebcbcef":9036,"dfbdcc":9037,"beceeebb":9038,"eecbeebe":9039,"dbcbccc":9040,"feeedc":9041,"edecdbe":9042,"efeebbc":9043,"eccbcbf":9044,"dfbbef":9045,"bbecbeebb":9046,"dbbebbee":9047,"bbcbded":9048,"dbbbfbd":9049,"eedcebd":9050,"baded":9051,"fdcebe":9052,"ebbdcec":9053,"ebfbeef":9054,"fecbbee":9055,"ebcfbec":9056,"eccbbfc":9057,"ebbcebcc":9058,"befecbc":9059,"bbbbdbbbe":9060,"eccfef":9061,"dbbbbbcc":9062,"febbdd":9063,"fadd":9064,"bbceebbc":9065,"debbded":9066,"bbedbeec":9067,"fbdfbd":9068,"eddebdc":9069,"ebbfebbc":9070,"feebbef":9071,"eccceccc":9072,"debebbee":9073,"bebeebcc":9074,"eccefcc":9075,"bbedebf":9076,"edbcbbf":9077,"bfbebbbc":9078,"ebcecebb":9079,"dfbeed":9080,"dccbcbc":9081,"efcdfc":9082,"bdcdbec":9083,"eceefcc":9084,"ecbeeecc":9085,"bbbbeebe":9086,"befbcbd":9087,"bfbeff":9088,"bbcbbeec":9089,"eccdccc":9090,"eecbdcc":9091,"bbecbedc":9092,"eecdbbbb":9093,"dbcfbf":9094,"bbddebd":9095,"abcebb":9096,"ebebebbf":9097,"bccfebe":9098,"edbcbbbe":9099,"bdfea":9100,"fcbcfc":9101,"becdbbd":9102,"bfcfed":9103,"beccebf":9104,"eccbbef":9105,"ebbcbbebe":9106,"bbccbeee":9107,"bbbdbeec":9108,"bbebbbcbc":9109,"febbebc":9110,"bfdbbee":9111,"ebbdefc":9112,"dfebdc":9113,"dbebcebb":9114,"fdcebd":9115,"edbcedc":9116,"decfbd":9117,"bcbacc":9118,"aeccc":9119,"ebebbbbbbbb":9120,"beebb</w>":9121,"dbcebcc":9122,"bebceebd":9123,"eeebeebf":9124,"bfbeebd":9125,"ebbbbebec":9126,"ddecbf":9127,"debebbd":9128,"bcebac":9129,"edebeebb":9130,"ebbefdc":9131,"bbbcbbef":9132,"fcbeebe":9133,"dbebcbe":9134,"bbedfbc":9135,"edfbebe":9136,"bbffebe":9137,"bdcbdbd":9138,"bbeebebbbb":9139,"bebcebec":9140,"eefbbdc":9141,"bccb</w>":9142,"ffdfc":9143,"bfcbeebb":9144,"dcceebd":9145,"eeefef":9146,"becfdd":9147,"bdcebdc":9148,"dbddef":9149,"bcbfbbbb":9150,"edccebc":9151,"eeebebeebe":9152,"bfecebe":9153,"ebedccc":9154,"ebdbcbe":9155,"bbfbbfc":9156,"bebcfed":9157,"fdebecc":9158,"edbebfc":9159,"ddbfcc":9160,"bbcfebc":9161,"fcfa":9162,"eebcbebd":9163,"ebbbedbd":9164,"ebebbecc":9165,"edcfecc":9166,"dbdbcbd":9167,"ebbdcdd":9168,"dfeeee":9169,"bdcfebb":9170,"bbffbbc":9171,"bfbedbe":9172,"bbdbebec":9173,"debbbbebb":9174,"eeebbebf":9175,"edfbfc":9176,"ebdbeebe":9177,"ecbebbbf":9178,"becbbbcc":9179,"dfbedc":9180,"bbbeac":9181,"efcbbbd":9182,"bbdeebbc":9183,"eaddc":9184,"bebfbcc":9185,"bbbceebd":9186,"eefebcc":9187,"dabda":9188,"fefebe":9189,"bfacc":9190,"fbcbeee":9191,"ecbebbed":9192,"fccfdc":9193,"ebbbcdee":9194,"fbcebec":9195,"beedef":9196,"bbfdbbbb":9197,"efceebc":9198,"fbedebc":9199,"bcccdbe":9200,"bceebecc":9201,"ecdebfc":9202,"bbfbcebb":9203,"bbbcbcbbbb":9204,"dccbbbd":9205,"fbecccc":9206,"bceebbcc":9207,"eebbeba":9208,"bdeeeecc":9209,"decbcbd":9210,"efcddc":9211,"efcbedc":9212,"bbebbbbcc":9213,"fecbebd":9214,"dbbdded":9215,"dbbdef":9216,"dbbecebc":9217,"feebeebb":9218,"ebcbcebc":9219,"dfbbbbc":9220,"ebdfa":9221,"bebcfcc":9222,"bebbbbbebe":9223,"bdcbbbbc":9224,"eaac":9225,"dcebbebb":9226,"bbeebba":9227,"fbcbbbf":9228,"eaedc":9229,"fcecbf":9230,"ebbbceec":9231,"bfebbbbbb":9232,"defeec":9233,"bcbeebcc":9234,"bccecbd":9235,"baebbc":9236,"efeced":9237,"eccda":9238,"bbbeecbc":9239,"bbbdb</w>":9240,"eebbcccc":9241,"fcbba":9242,"eebcbef":9243,"cccbef":9244,"edeebbbc":9245,"dbddbbd":9246,"dcfbdc":9247,"dcbfbd":9248,"decdebc":9249,"eeaa":9250,"ecbbeccc":9251,"deebeebb":9252,"eabbec":9253,"bbebebebc":9254,"bfdcdc":9255,"bbdbdbc":9256,"bedcbbbb":9257,"bccbbbec":9258,"dfcdbc":9259,"deebeed":9260,"bebeddc":9261,"eede</w>":9262,"bfeac":9263,"ebeeced":9264,"edfbef":9265,"edcedbd":9266,"bbebbbebd":9267,"dbecdbc":9268,"bcdbbebc":9269,"dbedebc":9270,"dbebbdd":9271,"bbbcbbbcc":9272,"bbeefebb":9273,"dccbecc":9274,"bbbcbbbec":9275,"bfceecc":9276,"ebbfdbd":9277,"feebbec":9278,"bcbdbbbe":9279,"eeedbec":9280,"bccdbbbb":9281,"edcbced":9282,"ebebcbec":9283,"bbedebbc":9284,"bcccdbc":9285,"bfbebbee":9286,"efbebec":9287,"bbbcebcc":9288,"fcbbbcc":9289,"bcfeccc":9290,"bcbebbdc":9291,"bbcbeebc":9292,"eebebbdc":9293,"ebcebbcc":9294,"ffeccc":9295,"bbeeded":9296,"bbbbeecc":9297,"efbebcc":9298,"bbeebbebc":9299,"dccebbc":9300,"eceefbc":9301,"acfa":9302,"eeecebd":9303,"edcbcee":9304,"dbbdced":9305,"edebbebe":9306,"ebcbdbc":9307,"bbdbdebb":9308,"bbfbebbc":9309,"bfcddc":9310,"dbbdcdc":9311,"debbdebb":9312,"beedded":9313,"bdeca":9314,"bbbebebbbe":9315,"eadbf":9316,"fecebf":9317,"bbbbbddd":9318,"dfdebc":9319,"bebebbdc":9320,"efcdebc":9321,"feceecc":9322,"eefdbbc":9323,"ebbdbbcc":9324,"becbefc":9325,"bbbfebbc":9326,"eebcfcc":9327,"defdec":9328,"beddeec":9329,"ecdcdd":9330,"bfbbedc":9331,"bfeebbbe":9332,"fcbbbec":9333,"eeeeeec":9334,"bbfcdee":9335,"bdcffc":9336,"bedcff":9337,"eccfbbc":9338,"dbbefcc":9339,"ecbcbeec":9340,"ebcbcbbbb":9341,"cccbbcc":9342,"ebccebec":9343,"bddeccc":9344,"fcdccc":9345,"bbdeced":9346,"bbfeebf":9347,"eebddbd":9348,"ebffebe":9349,"bebefebb":9350,"dccbeec":9351,"dbecded":9352,"bcecebd":9353,"bcecdbd":9354,"eedcdec":9355,"bebbbbbbbd":9356,"bccbcebb":9357,"bcbfa":9358,"eebbedcc":9359,"ebcbddc":9360,"bbcbbebd":9361,"ebfdfc":9362,"feefbe":9363,"efe</w>":9364,"effbbf":9365,"befbeebe":9366,"bbbcbbebc":9367,"bdbdbec":9368,"ebfdbbc":9369,"bbbcdebe":9370,"bebebbef":9371,"fecfcc":9372,"eedcdbe":9373,"dcbeedc":9374,"bcbfbec":9375,"ebbbbdbbbb":9376,"bccfbbc":9377,"dcbcbbd":9378,"bfebbed":9379,"eddbccc":9380,"ebcbedbe":9381,"bbfbbebc":9382,"eeeedbc":9383,"eebedbf":9384,"debddbe":9385,"dddbbbe":9386,"bbbfbbec":9387,"fedbfc":9388,"bebbbbbbee":9389,"bcbcba":9390,"eebeeccc":9391,"bedcdbe":9392,"bebefbd":9393,"bcfbbbbc":9394,"dcbebbbe":9395,"ebbbcbbee":9396,"ebefbcc":9397,"bebebebbc":9398,"bbebedbe":9399,"ecbddbc":9400,"dcbedee":9401,"bdcecbc":9402,"ebccbef":9403,"acecc":9404,"bedddf":9405,"dccbeee":9406,"ebcdbbbe":9407,"becfebc":9408,"bebefbe":9409,"feefbf":9410,"febbdbc":9411,"eecfbbc":9412,"bebebcec":9413,"bbbebeed":9414,"bdbdbdc":9415,"bedda":9416,"bdecbcc":9417,"ebbbeba":9418,"dbbedbc":9419,"bedcbcc":9420,"dbdefc":9421,"bdbddee":9422,"eeccebbc":9423,"bfddcc":9424,"bbcbcdd":9425,"bbbbbdebb":9426,"bbfbeed":9427,"fbdba":9428,"ebbeebcc":9429,"ebbbcebd":9430,"fceeebb":9431,"bebeded":9432,"bedcded":9433,"fbcddc":9434,"bceebbbd":9435,"bbdbebbd":9436,"eccfebe":9437,"eabfc":9438,"bcdbfcc":9439,"edfbbee":9440,"bceebeee":9441,"dfcbbf":9442,"ecdddd":9443,"debbfbc":9444,"bbddbbbe":9445,"ebcbebcc":9446,"bbcedbd":9447,"ecdbbebe":9448,"bbbbbbbdc":9449,"edcda":9450,"bcfdebe":9451,"bfcebcc":9452,"deecdbe":9453,"eebfff":9454,"bcbbbdcc":9455,"edeebbf":9456,"eccecbf":9457,"cccfec":9458,"ebbbeebbc":9459,"bbeeeecc":9460,"eecbcebb":9461,"ebbeebef":9462,"bebcecbc":9463,"febbdbe":9464,"dbccfc":9465,"ddefcc":9466,"dcdebbc":9467,"ebddbdc":9468,"ebdbebec":9469,"bbeeebcc":9470,"eeeedf":9471,"bcecbbbe":9472,"bbdbeebc":9473,"dbecbcc":9474,"bffdee":9475,"eccbcdd":9476,"ffda":9477,"bddd</w>":9478,"ebedbbf":9479,"bbbbcdbd":9480,"fdcedc":9481,"bebeeeebe":9482,"bdeedcc":9483,"dcefdc":9484,"deeebcc":9485,"efcbbcc":9486,"bebdbef":9487,"bceebbed":9488,"ecbdbcc":9489,"bbcecebb":9490,"ebdbbbec":9491,"ebfbbdc":9492,"bebeebec":9493,"bebedbf":9494,"beecbbbd":9495,"bebdbfc":9496,"ebdbddd":9497,"ebbceecc":9498,"bbbbcff":9499,"bdcac":9500,"eeecbecc":9501,"ecfcccc":9502,"eefbba":9503,"dbcceec":9504,"ecfebec":9505,"bfebccc":9506,"ebfcfc":9507,"febeebe":9508,"ecdcebc":9509,"edbcfbc":9510,"deccfc":9511,"bbbebbfc":9512,"fccdbd":9513,"bbbabbbb":9514,"ffca":9515,"dccbbcc":9516,"eebcbecc":9517,"bbebebbebe":9518,"fbfdbe":9519,"eeefbeee":9520,"ebbbbdcc":9521,"ddbbbec":9522,"becbcbbc":9523,"eada":9524,"dbcfdc":9525,"bcecbbbc":9526,"beedbebc":9527,"ebdbcbf":9528,"bbdbcdd":9529,"bccda":9530,"bbdecebb":9531,"eedcef":9532,"eebacc":9533,"adbec":9534,"bdbefcc":9535,"ecdb</w>":9536,"dbfbcbc":9537,"bcedfc":9538,"bccbebbc":9539,"dedefc":9540,"ddcbbbc":9541,"dbffbd":9542,"fbfebc":9543,"bfccccc":9544,"edbbbbcc":9545,"bbbbeebf":9546,"ddfbec":9547,"eccbcbe":9548,"dbbecfc":9549,"bbbdbcbd":9550,"abcbe":9551,"bebfbbee":9552,"fbbcbec":9553,"dbcecbc":9554,"ecdcedc":9555,"bbebbfbc":9556,"dbbbbebe":9557,"ecdceec":9558,"bfeebec":9559,"dbebebbc":9560,"fbedebe":9561,"bbdcbbdc":9562,"febeef":9563,"bbbbcccc":9564,"abeef":9565,"fcbcbbc":9566,"bcccebd":9567,"eceeeecc":9568,"deedbec":9569,"bbbdfbd":9570,"eebbb</w>":9571,"bffbbbc":9572,"ebfeecc":9573,"dccbbec":9574,"ebdcedbbec":9575,"ebfeef":9576,"ddcbfc":9577,"dcbeccc":9578,"efecebb":9579,"cccfee":9580,"fa</w>":9581,"bbebbdbd":9582,"bcedeec":9583,"eddddd":9584,"bebcbbbf":9585,"bbddbbdd":9586,"bfefbf":9587,"effbbd":9588,"bddddbd":9589,"bddbbed":9590,"becbcf":9591,"bbbebcbbbb":9592,"eebdebbc":9593,"ebeebbcc":9594,"bbbeeecc":9595,"debbbbec":9596,"dcbbedc":9597,"bbdebfc":9598,"bebedbbc":9599,"beeeedc":9600,"ecbcbef":9601,"eeecdbd":9602,"ecbbebdc":9603,"becbeef":9604,"ecdcdcc":9605,"bbbedef":9606,"bbebbbfc":9607,"fdcbdc":9608,"febeff":9609,"eeefeeee":9610,"febb</w>":9611,"bccecbe":9612,"eebcbbcc":9613,"bdeddd":9614,"bccbeef":9615,"bbbebedc":9616,"deebbbf":9617,"bbeefcc":9618,"eebedbbc":9619,"edccedc":9620,"edffcc":9621,"bfbdbbbb":9622,"ebecbecc":9623,"fbdebbc":9624,"bdbcdec":9625,"eccbcf":9626,"bafcc":9627,"beecedc":9628,"bbbbcbbbf":9629,"bfbbbfc":9630,"bdbedbf":9631,"bdeeebd":9632,"eecbfcc":9633,"bcbdbdc":9634,"ffcbec":9635,"bccbcf":9636,"bdbcbebc":9637,"bbbcfebb":9638,"bbededc":9639,"eeecfec":9640,"ecbddec":9641,"ffcbbc":9642,"efecf":9643,"bbbebcbf":9644,"cccefc":9645,"bebfebc":9646,"dbccdd":9647,"bdbcebf":9648,"adebc":9649,"eccbddc":9650,"fedbbd":9651,"bceebccc":9652,"bfebbbc":9653,"efbfbf":9654,"ebdeeebb":9655,"bbfbba":9656,"bfcfbf":9657,"beeceecc":9658,"abeebe":9659,"ebbacc":9660,"eeddedc":9661,"eceedbf":9662,"dcfdbc":9663,"dbcbedc":9664,"eebcebcc":9665,"eecbbbec":9666,"ebecfee":9667,"edbeebbc":9668,"bdbbbecc":9669,"bacea":9670,"bbbbbcf":9671,"fbcdfc":9672,"bbebbfee":9673,"babbbbc":9674,"bbeddebb":9675,"eceebbcc":9676,"abbba":9677,"bbcdbbbe":9678,"bbbbdbec":9679,"defdbd":9680,"bdbeddc":9681,"bbfda":9682,"befdfc":9683,"eebfebf":9684,"bebbbbbbbbc":9685,"bbcfa":9686,"ebdecbe":9687,"bbfbbbec":9688,"bebebba":9689,"fbcfdc":9690,"bbfbced":9691,"bbbebced":9692,"bbbeebbebb":9693,"befbbdc":9694,"fbdfee":9695,"eeccdcc":9696,"ddccccc":9697,"bfdebbc":9698,"bbbedebc":9699,"bebdbbec":9700,"ebcb</w>":9701,"fcedcc":9702,"bbbebdbd":9703,"eceeff":9704,"bccedbd":9705,"bcceced":9706,"dedbcbc":9707,"eeeeeebe":9708,"ebbeebec":9709,"dcedbc":9710,"bbbfbbcc":9711,"beecbbcc":9712,"beedff":9713,"aebdc":9714,"ddecdd":9715,"fbcebcc":9716,"bebddebb":9717,"fedecc":9718,"eebdbebc":9719,"bbbbbbbbbbd":9720,"ebcbdbf":9721,"fcdbbbb":9722,"bbbfdec":9723,"eebcdebb":9724,"bcdefcc":9725,"bbfdebc":9726,"adca":9727,"ebefbec":9728,"ebcefcc":9729,"fcbcdd":9730,"debeebd":9731,"deecef":9732,"beeddbd":9733,"becbdcc":9734,"bebdebf":9735,"ebfcbbc":9736,"ecdbbfc":9737,"bbbbbebbd":9738,"dfbcbe":9739,"cccbebc":9740,"bbecbbbbc":9741,"eefda":9742,"febebeee":9743,"ebbdfcc":9744,"beecfee":9745,"bbbbbbeec":9746,"dbbbdebc":9747,"bdfbeee":9748,"eeebebef":9749,"bcdbbbcc":9750,"dbcfbe":9751,"ecbcebbc":9752,"bbdcbbbd":9753,"debedee":9754,"bbbcbcebb":9755,"bbbceecc":9756,"dbcbcec":9757,"ecbcebf":9758,"dceebbbb":9759,"eebfbbc":9760,"dbbbfed":9761,"ecbdbdc":9762,"dcebbed":9763,"bbbbbeef":9764,"ecdbbef":9765,"bcbcbbbbc":9766,"ddcbbee":9767,"ecbedbbc":9768,"eeebeff":9769,"bdfdebb":9770,"efbdef":9771,"ebecdebb":9772,"bcbfdd":9773,"ebeeedd":9774,"ebcfeec":9775,"dbefdd":9776,"befbbbbc":9777,"beecbeee":9778,"eebdbbbc":9779,"eedcbcc":9780,"eddbbbd":9781,"badebb":9782,"eebcefc":9783,"bebebcebb":9784,"dbdbecc":9785,"ebccbbbd":9786,"bcbfdf":9787,"bdeddee":9788,"eecbefc":9789,"dedbbed":9790,"bbecfbd":9791,"fbeda":9792,"beebbbcc":9793,"debeedc":9794,"bcccbdc":9795,"febebbc":9796,"dbedfc":9797,"dccdbf":9798,"dedbeee":9799,"bcbebbbec":9800,"bffbef":9801,"ebbbebfc":9802,"becbba":9803,"fccfbd":9804,"bbebcccc":9805,"ecbfccc":9806,"fedbebc":9807,"bbbbebdc":9808,"ebdbcdd":9809,"bbdbfcc":9810,"bbfbcf":9811,"bafec":9812,"bdebfcc":9813,"eced</w>":9814,"ebcbddd":9815,"bdbebecc":9816,"ebbfbeee":9817,"dbeeeee":9818,"fbebbfc":9819,"bbdcecc":9820,"bdeebebc":9821,"bcbddbd":9822,"edbddee":9823,"bbdcedc":9824,"dfbcdc":9825,"bbeefbd":9826,"bebefec":9827,"dedbbcc":9828,"fbfbbbc":9829,"eeeceecc":9830,"efeedd":9831,"bdcdecc":9832,"bbedbbebb":9833,"bbebedd":9834,"ebeeddc":9835,"bdccfc":9836,"bfebbbd":9837,"eddac":9838,"eedcff":9839,"bdeedbd":9840,"bbfffc":9841,"bcbdbebe":9842,"bbeecbec":9843,"bedcedc":9844,"bbeeeeebb":9845,"debdbec":9846,"bbbcbcbbc":9847,"bfeebbee":9848,"baeeee":9849,"dbbbfdc":9850,"fddccc":9851,"febbbcc":9852,"ddcbef":9853,"beebbbeebb":9854,"bebbbbebe":9855,"eeebebbbb":9856,"ecbfdd":9857,"bdbbb</w>":9858,"dbecebd":9859,"bceedebb":9860,"bbcbcebe":9861,"bcccbcbc":9862,"eeecdbbc":9863,"bbbefbbbb":9864,"eedbbbcc":9865,"eabcec":9866,"ebfeccc":9867,"bdcbedd":9868,"bafbd":9869,"efcebcc":9870,"beccfed":9871,"faccc":9872,"ecddecc":9873,"bced</w>":9874,"dceeccc":9875,"bcbedebc":9876,"bbebceec":9877,"ecbdebe":9878,"edbcdec":9879,"bbfbeef":9880,"dbfdbf":9881,"eedcdbc":9882,"bfebbebe":9883,"bbbfbeee":9884,"febeeeee":9885,"abebbc":9886,"ebdcfbc":9887,"bfcfbe":9888,"ecbfecc":9889,"bdecebc":9890,"ecebac":9891,"edecdee":9892,"ddcefc":9893,"fccbbbc":9894,"dadee":9895,"dbedefc":9896,"ebfcdf":9897,"ebffdd":9898,"fecbbcc":9899,"beedbbbe":9900,"eebfccc":9901,"fcbeecc":9902,"ecbedef":9903,"bbbbfdc":9904,"bbceced":9905,"bbebbdebb":9906,"bbebebbbd":9907,"abedc":9908,"bbbbdfc":9909,"ddfdf":9910,"deddeec":9911,"beebbccc":9912,"bfebbee":9913,"bebcbedd":9914,"baddc":9915,"dbbdcdd":9916,"fecdef":9917,"bbfbebbbb":9918,"bebfbef":9919,"ecbdef":9920,"bcbfff":9921,"dbebbef":9922,"bcbdbbd":9923,"bfeebbf":9924,"eebedebb":9925,"fdacc":9926,"ebdbba":9927,"bbeeeebc":9928,"bbfcbcc":9929,"ecceef":9930,"bdcbcec":9931,"bbbcbebbc":9932,"dbcbdbd":9933,"ebecbeec":9934,"eeecfbc":9935,"bfcbedc":9936,"bdfac":9937,"bcbcbbebb":9938,"ddcfee":9939,"bbdcbebe":9940,"ffcef":9941,"eeeffee":9942,"dceedee":9943,"ecbcfcc":9944,"edebbef":9945,"ebfeeebb":9946,"bbbcbcec":9947,"bebcdbf":9948,"eeecbebe":9949,"febcdf":9950,"eebbbdcc":9951,"bbbbecebb":9952,"bbbbcebbc":9953,"eebbcbbc":9954,"abbbec":9955,"fceced":9956,"ddceecc":9957,"bebdbeec":9958,"beccefc":9959,"ebcbbecc":9960,"ddcbebe":9961,"beebbff":9962,"eeefebe":9963,"ebcdbbf":9964,"ebdbeef":9965,"eeceba":9966,"dbedbbbb":9967,"ebfeebd":9968,"bbecfed":9969,"bbbbbbbbbbbbbbbc":9970,"bfecbbbb":9971,"bdcfdd":9972,"efdedc":9973,"dccfdc":9974,"ebbbcdf":9975,"febbbebe":9976,"eeecbebc":9977,"ecfdebb":9978,"ebcdcdc":9979,"dbcbbdd":9980,"ececebd":9981,"efbebbbe":9982,"beeedec":9983,"deefbe":9984,"dccdef":9985,"bebfdd":9986,"bbeeeeebe":9987,"dedbcec":9988,"fbcbbed":9989,"eceebcbc":9990,"bbbbfef":9991,"fcfebe":9992,"ebccfcc":9993,"eeddecc":9994,"ecfbbbf":9995,"ebbfbbbd":9996,"fcbdbf":9997,"eecdccc":9998,"dbbecdf":9999,"eebbbbbbbe":10000,"dbeda":10001,"bbeefbf":10002,"ebecba":10003,"ebecea":10004,"bebdeebc":10005,"ebbececc":10006,"edbcbbd":10007,"fbcbedc":10008,"dcbebbf":10009,"bbfeecc":10010,"bbbcbdbd":10011,"bdcbebf":10012,"ebecfcc":10013,"bcfbbef":10014,"efecbbc":10015,"eecbeebc":10016,"ecbcecbc":10017,"eeceebf":10018,"beeeeeebb":10019,"bceefcc":10020,"aeef":10021,"fbcdef":10022,"bcbddec":10023,"edbebbbd":10024,"becbded":10025,"bdcbeebb":10026,"bebcfbd":10027,"fbcea":10028,"beecebf":10029,"eccbded":10030,"bfcdeec":10031,"dbdda":10032,"bfeca":10033,"ebebbebf":10034,"ebcbebbd":10035,"ebcceebc":10036,"ebbbbea":10037,"dcbeff":10038,"fcb</w>":10039,"bbdbebbbe":10040,"bebecbbc":10041,"bececdc":10042,"edcdbcc":10043,"bfcdebc":10044,"eebdbebe":10045,"bbbccbcc":10046,"ecccddc":10047,"eeccfcc":10048,"bbbbdebc":10049,"dbfded":10050,"fbfbebe":10051,"bbdc</w>":10052,"dbbebccc":10053,"dbdbbdc":10054,"fbebbebc":10055,"fcfbcc":10056,"deccecc":10057,"eeeddbc":10058,"bfbbba":10059,"bedcebd":10060,"deebbdc":10061,"decdebe":10062,"bcbfccc":10063,"ebceddd":10064,"eecbcbbc":10065,"febbebf":10066,"bceddbc":10067,"efbddd":10068,"eecbcdd":10069,"bbbdbeebb":10070,"deccdf":10071,"eeebeeeebe":10072,"bdfdef":10073,"bbddccc":10074,"becebbcc":10075,"dbebdcc":10076,"bbbddbbc":10077,"acbbbe":10078,"bdbcbbee":10079,"bbfbcee":10080,"decdbec":10081,"bebcbbbbc":10082,"dbbdebe":10083,"ecbcbecc":10084,"ddcfed":10085,"dbcdfc":10086,"eabda":10087,"ecbeebec":10088,"ebbbebbbf":10089,"dbecccc":10090,"deeeeee":10091,"bbedba":10092,"bbfcebe":10093,"deccedc":10094,"bffbbee":10095,"dcbb</w>":10096,"ddbefc":10097,"dbeeccc":10098,"eeedbcc":10099,"beefbeee":10100,"ffbcf":10101,"beedbbd":10102,"eeecedc":10103,"ededccc":10104,"bebeefc":10105,"dbbbfbc":10106,"ececdbd":10107,"baca":10108,"ebbdddc":10109,"bbcdbdc":10110,"eebecccc":10111,"bddbbdc":10112,"bceefec":10113,"edbefcc":10114,"dddbbf":10115,"dffa":10116,"dbbebbebe":10117,"beccebcc":10118,"bdfbbbf":10119,"bbbbbcebe":10120,"bdcbced":10121,"ebbcdebe":10122,"eebeded":10123,"dbbdbbbe":10124,"bceebecbbecbbdbbc":10125,"ebdbbebd":10126,"fdcefc":10127,"bbbdefc":10128,"bcbcbeee":10129,"dcbfdd":10130,"effccc":10131,"decbccc":10132,"becceebd":10133,"beefff":10134,"dbbbdfc":10135,"bebcbcbd":10136,"dbccbec":10137,"ebdbcf":10138,"dbcbebf":10139,"ececbbf":10140,"ebdbddc":10141,"ebdcdbd":10142,"febbfee":10143,"bdeeedc":10144,"ecbbcccc":10145,"eecbded":10146,"bdeebbec":10147,"dcbcff":10148,"ebedbdc":10149,"bbdedcc":10150,"dbebcdc":10151,"bbeeebec":10152,"bfcea":10153,"bbccbbbbc":10154,"fbebdcc":10155,"bbfcff":10156,"bbbccbec":10157,"bbbbecbd":10158,"ebcbea":10159,"dbcdebc":10160,"dbfbbbd":10161,"fbbbbbbbe":10162,"fcbbecc":10163,"dbebbebc":10164,"bbcbfcc":10165,"bdbcded":10166,"bdeebebe":10167,"dbbbfbbc":10168,"fededc":10169,"bfbbebbc":10170,"bbdbcef":10171,"daecc":10172,"eebffee":10173,"bbbcecbc":10174,"dbbedebb":10175,"eeccded":10176,"beedbecc":10177,"fefbcc":10178,"ddbdbf":10179,"ebcbdec":10180,"fcbea":10181,"dbbbdbec":10182,"ecbeea":10183,"bdfebec":10184,"fbedbec":10185,"eefbbbbc":10186,"bcbbebfc":10187,"eebbebfc":10188,"ddebfc":10189,"bbbceeec":10190,"decbbebb":10191,"eeebebbf":10192,"dcecded":10193,"bcbcfcc":10194,"fbfbef":10195,"bbbefbbc":10196,"fbebba":10197,"fdcfbc":10198,"dbcbbef":10199,"ebbbbbbbbc":10200,"bfecbcc":10201,"dcbebdc":10202,"eecbcf":10203,"dbbbfebb":10204,"bcdc</w>":10205,"eecbcef":10206,"eedebbcc":10207,"efdbbbe":10208,"becdbdc":10209,"decbeebb":10210,"fbfbfc":10211,"edbdebc":10212,"ebfbedc":10213,"deebcdc":10214,"bcbcfec":10215,"eeecebbc":10216,"ececedc":10217,"efccccc":10218,"dfbcebb":10219,"eebcbeee":10220,"ebbeebbebe":10221,"ebdeef":10222,"bbdbea":10223,"decdfc":10224,"defbfc":10225,"dbbbcbbbb":10226,"ebbdebec":10227,"ebdeddc":10228,"acbdc":10229,"bfdba":10230,"efdced":10231,"dccdebb":10232,"eeeacc":10233,"fcfeec":10234,"febbeeee":10235,"fbbca":10236,"bebcbeebb":10237,"bbbecebc":10238,"ddbdbc":10239,"bbdbbbdc":10240,"bbbddbbd":10241,"eebeeba":10242,"ecbebbbbc":10243,"bebefdc":10244,"befbeed":10245,"dbbcdbf":10246,"deecdbc":10247,"bdeebfc":10248,"edbeddc":10249,"bbeefec":10250,"fedfec":10251,"edbcbdc":10252,"dcfbbbe":10253,"edcbcdc":10254,"ebebddd":10255,"ebdbefc":10256,"eecbba":10257,"ececbbbe":10258,"becfbec":10259,"ccccccccccccc":10260,"bbfbcbe":10261,"eeccbbbe":10262,"bbbceeee":10263,"bebbdbbbb":10264,"ebbbcdbc":10265,"efc</w>":10266,"ebecebcc":10267,"fcceedc":10268,"deecbcc":10269,"bdeeebbc":10270,"dcbbebf":10271,"dcbdbbbb":10272,"febeccc":10273,"eceddf":10274,"edceebf":10275,"bbefebc":10276,"eedebfc":10277,"bddbbbf":10278,"dcbfbc":10279,"eccbbebc":10280,"bccbefc":10281,"bbecdef":10282,"dbffee":10283,"ebbdbbbd":10284,"bbbfbbbbc":10285,"fcdbbf":10286,"debbbfc":10287,"fbfdbc":10288,"deecebc":10289,"dbffec":10290,"bbbfbcbc":10291,"bebfbbbc":10292,"dedcdf":10293,"eedbbebd":10294,"ecde</w>":10295,"bbde</w>":10296,"debcdbc":10297,"eeecbcbc":10298,"dceeeec":10299,"becb</w>":10300,"ebdeebbc":10301,"ebfeeebe":10302,"debcbebc":10303,"dcecdbe":10304,"edcbbebb":10305,"ecccdbd":10306,"bbebcbbf":10307,"bbbecebe":10308,"bbbccbbbcc":10309,"bbcdbbf":10310,"beeebba":10311,"eebcfbd":10312,"ecbdff":10313,"edbbfcc":10314,"fbfbdc":10315,"deeebec":10316,"dfcbdc":10317,"bdbdbbbe":10318,"eccbcebb":10319,"bccc</w>":10320,"ebbcfed":10321,"eebeebbebb":10322,"bebbd</w>":10323,"bbebebdc":10324,"eeecbfc":10325,"edbebbcc":10326,"eebeebeebe":10327,"fcfecc":10328,"bbddff":10329,"eccebfc":10330,"efcea":10331,"debbba":10332,"efbcbbbb":10333,"bbbcbedc":10334,"debeff":10335,"bdfbbebb":10336,"dcfebf":10337,"edcbebf":10338,"bebcfebb":10339,"bfebbbbc":10340,"ebdbded":10341,"eebcecbc":10342,"beebebbf":10343,"adbbd":10344,"beeebbbbc":10345,"beedbdc":10346,"fddbbc":10347,"ebebdec":10348,"bbdfbbd":10349,"bbeedbbc":10350,"ebbcbeebb":10351,"bbecfcc":10352,"bbddbbf":10353,"ebbfbebc":10354,"bbbbfebe":10355,"bbebeff":10356,"edccdd":10357,"fbffee":10358,"efbbebf":10359,"ebeecbbc":10360,"ebcbebbbe":10361,"ebccbbcc":10362,"acac":10363,"dcceccc":10364,"dedfee":10365,"deffbc":10366,"ebdcbbf":10367,"bdeefbc":10368,"dcbbbbbbbb":10369,"eebcba":10370,"eddcccc":10371,"bebdfec":10372,"fedbebe":10373,"ffcbcc":10374,"dbeecbd":10375,"bebdba":10376,"bfccfc":10377,"ebeebbbf":10378,"bbeebccc":10379,"ebbcbcbd":10380,"eefeccc":10381,"fefbbf":10382,"bdfbbed":10383,"dfdbec":10384,"dadbc":10385,"fbfdee":10386,"ecfdfc":10387,"bfbcbbbe":10388,"bfcdbec":10389,"bbecbbbf":10390,"bcdcbec":10391,"bedbac":10392,"bfcdbbc":10393,"eeccbebc":10394,"dbbbbdbc":10395,"edbeded":10396,"effecc":10397,"bfcdfc":10398,"ebccfbd":10399,"debdccc":10400,"fdbac":10401,"efeddc":10402,"bbbdbbdc":10403,"ececbbd":10404,"bebeeebf":10405,"bbbddebe":10406,"bcccdec":10407,"ebbccccc":10408,"ebfdebe":10409,"ebcfbcc":10410,"bbccfbd":10411,"ebccbcbc":10412,"eefdfc":10413,"beeffee":10414,"edbdccc":10415,"ebeefcc":10416,"edbdecc":10417,"bfdefc":10418,"debbeebc":10419,"beecefc":10420,"bcecfbc":10421,"ecdcdee":10422,"ebcccccc":10423,"bbcdedc":10424,"beccfcc":10425,"eebdded":10426,"ebbbebbebe":10427,"bbbebbbcc":10428,"beeefcc":10429,"fbeeccc":10430,"dfecbe":10431,"edcbdbd":10432,"bbbffee":10433,"deecfc":10434,"bdeeba":10435,"dbbbbbdc":10436,"bbebcbbbc":10437,"ffcdee":10438,"bbadbe":10439,"fdebccc":10440,"bebbe</w>":10441,"dcebbbf":10442,"bfcbccc":10443,"bbbdeebc":10444,"debcbebe":10445,"bbdecbf":10446,"bbccbbebb":10447,"defbbbc":10448,"bbebcebc":10449,"eedcfbc":10450,"fbbcbbf":10451,"ebfcccc":10452,"bbeebcebb":10453,"bbddbcc":10454,"eedcdee":10455,"dcbfef":10456,"ddbcbbc":10457,"eaebbc":10458,"abbfc":10459,"effdbe":10460,"ebccddc":10461,"beecfed":10462,"bcdceec":10463,"bbeecbbc":10464,"dbcbced":10465,"dbebcbf":10466,"dbbbfbbbb":10467,"deecff":10468,"bdbcbef":10469,"bdecbbbb":10470,"ecbacc":10471,"fafc":10472,"bcdbbebd":10473,"dcebbbd":10474,"debddee":10475,"aecbe":10476,"becebfc":10477,"fccbcbc":10478,"daff":10479,"efbeff":10480,"abdcc":10481,"bfeceec":10482,"bbccbecc":10483,"dbbdbbf":10484,"eceeebbc":10485,"bdbebbbbc":10486,"edbcdbd":10487,"bcbbebbcc":10488,"ebbfdcc":10489,"ebededc":10490,"decbced":10491,"eabebc":10492,"beeceebc":10493,"dbbdbdc":10494,"eedcbdc":10495,"eebbcbbbb":10496,"ebbecdee":10497,"bccbded":10498,"babbed":10499,"bebefbf":10500,"bcecbccc":10501,"bbeebbdc":10502,"ebecfbd":10503,"febbbbbc":10504,"ebbbcff":10505,"fbbefcc":10506,"dececbc":10507,"efcfbd":10508,"fecfbd":10509,"fbbcdf":10510,"bdecdbc":10511,"dcedbbc":10512,"bddbdcc":10513,"eccbbbec":10514,"befeebf":10515,"ddcbcbc":10516,"aeebe":10517,"efecef":10518,"ebeecdd":10519,"dbbdeec":10520,"becbebec":10521,"eabbebb":10522,"beceebf":10523,"eaded":10524,"bcccded":10525,"bcecdcc":10526,"efcbeed":10527,"bbebcdf":10528,"fbbbbbbf":10529,"edcbbbf":10530,"eeeebcbc":10531,"bdeeff":10532,"bebbbac":10533,"fcceebd":10534,"fbffbc":10535,"bdbddbc":10536,"ebbfdec":10537,"dcbedbc":10538,"fcbddc":10539,"edcbbdd":10540,"bbeebebbc":10541,"ececbcbc":10542,"dcccdd":10543,"dbbdcbc":10544,"bebcbeed":10545,"bebdbecc":10546,"ebdcdcc":10547,"bcbebbef":10548,"bcfbbdc":10549,"dbbdccc":10550,"edccebd":10551,"bbebeebf":10552,"bcecbebe":10553,"deeceecc":10554,"edbcff":10555,"bbabbf":10556,"ebccbeee":10557,"bbebedf":10558,"efbca":10559,"bbeeecbc":10560,"eebcfee":10561,"dbbbbccc":10562,"bcebbbbbe":10563,"bdbcfbc":10564,"dddddbd":10565,"edfebbc":10566,"ebbcecbc":10567,"dbfbbcc":10568,"bbebcfc":10569,"ecbdebd":10570,"faff":10571,"bbcecdc":10572,"bbbdebec":10573,"bcbedfc":10574,"bcdcdf":10575,"ebcecbbc":10576,"ebbcbebf":10577,"eabbbf":10578,"bbebebeebb":10579,"eeecba":10580,"bfeebbd":10581,"bbcbbbbbbc":10582,"edceced":10583,"decceecc":10584,"febefc":10585,"defebd":10586,"fdcbbf":10587,"efebbebb":10588,"ebebfbf":10589,"ebfda":10590,"bbebbeeee":10591,"bdbeefc":10592,"bfcbcbd":10593,"eeddccc":10594,"eeefff":10595,"bfbcdbe":10596,"acbbbc":10597,"bbebebbcc":10598,"bbbecdee":10599,"ddbdebb":10600,"dbbdff":10601,"eceebbec":10602,"bcbedbec":10603,"efd</w>":10604,"bbbbbdcc":10605,"decbedd":10606,"beedbbf":10607,"eeebbfee":10608,"becbeecc":10609,"bccfebc":10610,"bbefbef":10611,"eceebebc":10612,"eceebccc":10613,"bfeedf":10614,"ebcdebf":10615,"bccbba":10616,"dbbeca":10617,"defddc":10618,"eedcebe":10619,"bbbeeebbbb":10620,"bbebebbd":10621,"fbcfbe":10622,"beccdbd":10623,"efecdd":10624,"bdceedd":10625,"bbddbbbc":10626,"bbebca":10627,"bbbecdbe":10628,"eeecbccc":10629,"bbbeeebf":10630,"bbeebeef":10631,"eeccdbd":10632,"bcbdebd":10633,"efbcdf":10634,"fbceebd":10635,"bcbfbbf":10636,"fbbe</w>":10637,"eccbebbc":10638,"bcfbbfc":10639,"dbccdf":10640,"bcbbbbbbbd":10641,"eeccbbbc":10642,"adea":10643,"ebbcbbdc":10644,"fccbeec":10645,"eebcdbf":10646,"bbbccbbbe":10647,"bcbfdbe":10648,"ebbbebbcc":10649,"eccdbdc":10650,"bebebeef":10651,"defbbd":10652,"ecbcfec":10653,"bcdcfc":10654,"bcde</w>":10655,"dcecbcc":10656,"debeeec":10657,"debebebc":10658,"ecfdbbc":10659,"dcccdcc":10660,"debbbef":10661,"bebdbcbc":10662,"dcebbee":10663,"bbeddcc":10664,"fdcbfc":10665,"bdbebbbf":10666,"ebbbbbbbbbbbbbb":10667,"ddfbcc":10668,"ebcfbbbb":10669,"bbecebcc":10670,"bbebbbeec":10671,"ddcfbd":10672,"bfbcbbbc":10673,"eebebdcc":10674,"ffcdbe":10675,"bdeddf":10676,"ebbebdcc":10677,"eccbefc":10678,"bccdedc":10679,"ebbcfbe":10680,"bcccbbbc":10681,"dceebbd":10682,"eccfa":10683,"efcdeec":10684,"bbccebec":10685,"fccbedc":10686,"debcbbbe":10687,"eedeba":10688,"eccbeebe":10689,"bbefbbbc":10690,"eceddee":10691,"bedebccc":10692,"eeebbff":10693,"bbcdbfc":10694,"ebdfecc":10695,"bdceccc":10696,"ebbbcbbbd":10697,"dcbfec":10698,"ddfbbbb":10699,"ebdbfcc":10700,"ebfbcebb":10701,"bcccdbd":10702,"bebbbbbbd":10703,"ececff":10704,"ecdcdec":10705,"dceeebd":10706,"edbddf":10707,"dcbcdbe":10708,"abcdc":10709,"bccecbf":10710,"dbcdbbbb":10711,"beeebeec":10712,"fedbef":10713,"eeecea":10714,"bdbdfc":10715,"febbbbee":10716,"dcecccc":10717,"ebbbbbbbbbc":10718,"eebeebdc":10719,"beeebecc":10720,"defbbbe":10721,"bbebebef":10722,"bebfebf":10723,"effeec":10724,"dbbcbbee":10725,"eeecebe":10726,"bbecbbdc":10727,"bbccfcc":10728,"beebbeec":10729,"bbcbdbc":10730,"bebeecebc":10731,"debbbcbc":10732,"bcedbcc":10733,"bffdbd":10734,"bbcebbcc":10735,"dbceedc":10736,"ecbcfee":10737,"eeccefc":10738,"beddedc":10739,"bebbbbbcc":10740,"ecefccc":10741,"eeeedcc":10742,"eebceebd":10743,"eedddf":10744,"dedbebd":10745,"bbcbcfc":10746,"beceebbc":10747,"becbebcc":10748,"fedfbc":10749,"bbebcebe":10750,"ecdcdf":10751,"ebcfedc":10752,"ddcbebc":10753,"fbfbbee":10754,"bdcbbef":10755,"eeeebba":10756,"edbda":10757,"ebbcbeed":10758,"dbbbddf":10759,"fbdbbbd":10760,"fdcfee":10761,"edbcdcc":10762,"bfcbbbbc":10763,"dbdea":10764,"bbecdbf":10765,"bbebbedc":10766,"beecdfc":10767,"eccbfcc":10768,"befda":10769,"fccebcc":10770,"deceedc":10771,"eeccebcc":10772,"eebfbbf":10773,"bdfebcc":10774,"ecbecccc":10775,"ecdebbcc":10776,"ebbecccc":10777,"bececbe":10778,"dfbebbc":10779,"ebfbced":10780,"bcccbbf":10781,"eeeddee":10782,"aecbf":10783,"beebbdbe":10784,"ddddddc":10785,"bffdcc":10786,"bbbbbcbbd":10787,"ebceefc":10788,"bcfedcc":10789,"eecbbbcc":10790,"fecda":10791,"ebbbbbbbbebb":10792,"ecccfbc":10793,"ebdcbbbe":10794,"febebbbe":10795,"bdbedebe":10796,"ebbcdbbc":10797,"bbfcef":10798,"bdbbbebbbb":10799,"dbcb</w>":10800,"bcbdecc":10801,"beebbbbd":10802,"edeebbee":10803,"eddbbdd":10804,"becbbecc":10805,"dccbebd":10806,"beecdebc":10807,"edebeebe":10808,"bdbebbdc":10809,"ebebcbbd":10810,"bebcdebe":10811,"debbbbcc":10812,"ecfbeee":10813,"bbbbecbe":10814,"bebebbebc":10815,"eaeba":10816,"febcccc":10817,"bcbcbcbcbcbcbcbcbcbcbcbcbcbcbcbc":10818,"bbbbdbbf":10819,"fcfdf":10820,"fedbbbe":10821,"ecddccc":10822,"bfbcdee":10823,"bebeecbc":10824,"dbdbbbf":10825,"dedeebc":10826,"bbeffee":10827,"bffbfc":10828,"bebbcbbbc":10829,"ddbbebd":10830,"bbedbeee":10831,"bbbbcbef":10832,"bbddddc":10833,"fceebbc":10834,"fecdebc":10835,"acfbc":10836,"bbbecbbf":10837,"bbcbddd":10838,"eececec":10839,"ebecebec":10840,"ebddbbbe":10841,"bccdebd":10842,"dfecbf":10843,"fecebcc":10844,"beccbbec":10845,"bbcbbecc":10846,"ebfbeed":10847,"ebdcbbd":10848,"dbbbbbbee":10849,"bdedbec":10850,"ebbeebbbc":10851,"bfbcbfc":10852,"eeceeebb":10853,"dbcfebb":10854,"fecea":10855,"dbbdbbbc":10856,"feccccc":10857,"ebebca":10858,"ebbcdef":10859,"dccebcc":10860,"dedfcc":10861,"bbccba":10862,"dbbcdec":10863,"bffedc":10864,"ebbdebcc":10865,"dceca":10866,"efefcc":10867,"bbbebcbbc":10868,"eebfbeee":10869,"eceebfc":10870,"bbbbbebbbc":10871,"eccfedc":10872,"dedeecc":10873,"bbabbd":10874,"bdbbebcc":10875,"efcbeee":10876,"adbcc":10877,"bbbbbcdc":10878,"ebfbcbf":10879,"edcfef":10880,"dccfdd":10881,"ecccfcc":10882,"bebebebbbe":10883,"fbddebb":10884,"fadf":10885,"becbfcc":10886,"bdcdbbbb":10887,"bdcbcee":10888,"fecbbbd":10889,"beddfc":10890,"aecbd":10891,"efdcdc":10892,"becbbeec":10893,"bbebbdec":10894,"fbebdbd":10895,"beccbbee":10896,"debf</w>":10897,"dbfbbec":10898,"fedba":10899,"bedcbebc":10900,"edbbefc":10901,"edfefc":10902,"ebefbbf":10903,"adeec":10904,"bccbeebe":10905,"bdbcbbec":10906,"ebcebbebb":10907,"beccdcc":10908,"debcedc":10909,"dbedeec":10910,"bebeeebe":10911,"beadd":10912,"dbdcdd":10913,"bdecded":10914,"dfcecc":10915,"eeecbbbd":10916,"bedcbdc":10917,"bfbcfbc":10918,"bdbbbccc":10919,"edeeff":10920,"dcacc":10921,"feefef":10922,"bbebcef":10923,"fdddee":10924,"ebebbbdc":10925,"eecbebbbb":10926,"eecbebcc":10927,"ecbddbd":10928,"bbfbcef":10929,"ffbbbbc":10930,"bebcbcec":10931,"ebecefc":10932,"dbbcded":10933,"bbbecbbbc":10934,"dcbffc":10935,"bfcecbc":10936,"befdbec":10937,"deccdd":10938,"bddcdd":10939,"eebbebbcc":10940,"ebcbdebb":10941,"bbbeeebe":10942,"ebbcea":10943,"eebcbeec":10944,"fbdbbee":10945,"dccba":10946,"fcecbe":10947,"bccbcef":10948,"bbdbcebe":10949,"cccbbec":10950,"bebcea":10951,"ebecbebd":10952,"defedc":10953,"beebbdd":10954,"ecebbbbc":10955,"effebd":10956,"dbcac":10957,"febebbbb":10958,"ebbbbdbd":10959,"fcdcdc":10960,"fbbcff":10961,"bcbcbbed":10962,"aeda":10963,"dfecdc":10964,"bbbefdc":10965,"dbbdddc":10966,"fdddec":10967,"ebceeebe":10968,"fbebbbec":10969,"dbbbbbebe":10970,"bbbedbec":10971,"feefcc":10972,"bcccfcc":10973,"eeecbbec":10974,"ececfbc":10975,"bfbedbc":10976,"dfcbbbb":10977,"eceebebe":10978,"bfbeebf":10979,"efbdee":10980,"dfbcef":10981,"bbfbdbd":10982,"eeeefef":10983,"bcbdbbbd":10984,"bdbbbbbbbd":10985,"edfbebc":10986,"bebcbbdc":10987,"edbddbe":10988,"ddbddbd":10989,"bdbbac":10990,"ebcedbf":10991,"edbbbbbbc":10992,"ebcbedf":10993,"ebdbdbf":10994,"bbdebbcc":10995,"edcbbebe":10996,"bbccbeec":10997,"eebfecc":10998,"bcbfbcc":10999,"ebbfba":11000,"efbbccc":11001,"fbdddc":11002,"ebdeced":11003,"bebbbbbec":11004,"dceceec":11005,"bceda":11006,"bdbeea":11007,"bbcbebcc":11008,"dcceeee":11009,"bbbdfec":11010,"beebbfee":11011,"febebbf":11012,"eeddbec":11013,"debcbdc":11014,"eeeddbe":11015,"bffdbb":11016,"ebbdbbbbc":11017,"bccecdc":11018,"eeccbfc":11019,"ecbebbdc":11020,"bcecbfc":11021,"efbceec":11022,"ebffbbc":11023,"dbdfed":11024,"fbddbf":11025,"bceedbec":11026,"bbedfec":11027,"dbdbbbbc":11028,"debdeec":11029,"deebbbbc":11030,"edbdbec":11031,"bebbc</w>":11032,"ebbdbecc":11033,"fcc</w>":11034,"bbbeebbbbbb":11035,"ecddedc":11036,"bebebbbec":11037,"fcbebcc":11038,"deddbec":11039,"fbcbbebb":11040,"ecbcddc":11041,"bcecdebb":11042,"bbadf":11043,"eebfbbbb":11044,"eceeebf":11045,"dbeeeebb":11046,"ecbcbeee":11047,"daeca":11048,"ececebe":11049,"beefbbf":11050,"ebbbedec":11051,"beebbbef":11052,"bbcc</w>":11053,"bdcfef":11054,"deddebe":11055,"feebccc":11056,"beefbbbb":11057,"dceddee":11058,"dcbfebb":11059,"defbef":11060,"decca":11061,"efbdf":11062,"bcdeba":11063,"ebbcbccc":11064,"feeeeebe":11065,"dabbbe":11066,"fbbbac":11067,"edfded":11068,"feebeec":11069,"dbfea":11070,"beedbbbc":11071,"dbbdbcc":11072,"edccbec":11073,"bbdfdf":11074,"bdcb</w>":11075,"bbcceebc":11076,"bcbdebf":11077,"ffcdec":11078,"bcbcdebb":11079,"bbbffbd":11080,"ecccbbf":11081,"dfcdcc":11082,"ecdbbbec":11083,"bbebbbbed":11084,"fedebe":11085,"bedcdbc":11086,"dceddf":11087,"bbdcbbee":11088,"bcbfef":11089,"bdeebef":11090,"dabcc":11091,"fdcdcc":11092,"fdceecc":11093,"bbcfbcc":11094,"bbdcfbc":11095,"bbefba":11096,"eeecbbee":11097,"eeebbbef":11098,"edbdbbbb":11099,"bfeebebe":11100,"ddfbbd":11101,"fcbdec":11102,"dbdebec":11103,"bbebcbebc":11104,"bbabbbd":11105,"dbdeecc":11106,"beeebebd":11107,"beecddc":11108,"eceeba":11109,"ecdd</w>":11110,"ebebac":11111,"dbbecdbe":11112,"daef":11113,"ddeded":11114,"edceddc":11115,"ffdbec":11116,"feefec":11117,"ecbcbbcc":11118,"bbebebbec":11119,"bebebeed":11120,"beecdbf":11121,"bebfbdc":11122,"eebfeeee":11123,"fbeebdc":11124,"beecbbed":11125,"ddeebbc":11126,"eecfebe":11127,"dbdbeed":11128,"defebf":11129,"bcbdfbc":11130,"ebbeebdc":11131,"bbffa":11132,"acded":11133,"bbabcc":11134,"bfdded":11135,"bbcbcbcc":11136,"becfa":11137,"bbdfeec":11138,"beeeeebe":11139,"dbbdebc":11140,"eebfbbee":11141,"edcbeebb":11142,"ebbbbefc":11143,"bbbbbeebc":11144,"effebf":11145,"dbbebbdc":11146,"dccebec":11147,"bbebebcbc":11148,"dbbdebd":11149,"bfeeff":11150,"bbbcbcbe":11151,"bedcfec":11152,"bbcebbebb":11153,"bbceeebc":11154,"beeeddc":11155,"ebbccfee":11156,"bfbeccc":11157,"bbefbdc":11158,"debdfc":11159,"dbccbbbb":11160,"bbbebbebd":11161,"ebfbebbc":11162,"ffbcbf":11163,"bebfdbe":11164,"dcdba":11165,"bbbebbeec":11166,"acbbd":11167,"debceebc":11168,"bbbbbbbbbebbbb":11169,"bcecdeec":11170,"bbbefebe":11171,"eabbcc":11172,"fbcfebb":11173,"bbddded":11174,"efedbf":11175,"ffbcdc":11176,"beeefbe":11177,"ebcbcbec":11178,"bbcbcebc":11179,"fbcdebe":11180,"eeddeec":11181,"ecdcbec":11182,"dcbddf":11183,"ffeebc":11184,"bbbcb</w>":11185,"efcdbbc":11186,"fbcfbf":11187,"bcedded":11188,"ebecbbebb":11189,"ecbfa":11190,"eccdcdc":11191,"fccddc":11192,"debcbbd":11193,"dfcded":11194,"dbbdbebe":11195,"bfecbbd":11196,"bbbbbdbbc":11197,"ddbbbcc":11198,"dbeb</w>":11199,"bafbf":11200,"dbbecbbd":11201,"fecdecc":11202,"bebbcfc":11203,"bceacc":11204,"bcbbbbbbbbbbbbbbbb":11205,"deefdc":11206,"fccbbee":11207,"ecfbbed":11208,"bfbddf":11209,"bbbefed":11210,"dbbbfdd":11211,"fbdbecc":11212,"beebbebbc":11213,"bcebbbbbc":11214,"efeebbbb":11215,"bcecedc":11216,"bdfdfc":11217,"bcdebbcc":11218,"efbdbbc":11219,"bbcbebbbe":11220,"eccbeef":11221,"bbfdbec":11222,"bbefdbc":11223,"ddecebb":11224,"debbbebd":11225,"ecedbcc":11226,"ebceeef":11227,"bdbcbfc":11228,"ebbfbbec":11229,"dbccbcc":11230,"efbcbbd":11231,"ebefdf":11232,"dbdeebd":11233,"fbcbccc":11234,"bbcceecc":11235,"fbdea":11236,"bceebebd":11237,"febbbef":11238,"fbccccc":11239,"bcecebf":11240,"ebbdea":11241,"defba":11242,"dbbcbebc":11243,"bcfdebc":11244,"beebeccc":11245,"becfebe":11246,"bbdebbebb":11247,"fccea":11248,"bcfebdc":11249,"eefbdcc":11250,"eeceebbc":11251,"ecfbbdc":11252,"bcebbfc":11253,"dccecbc":11254,"feeded":11255,"bcbebbfc":11256,"bcebbccc":11257,"defdbf":11258,"bccccccccc":11259,"bcbdbbee":11260,"edbcbbbc":11261,"bdfbecc":11262,"efbeecc":11263,"eecdbbbe":11264,"eebcddc":11265,"bdbdccc":11266,"eceeded":11267,"dbcbedd":11268,"efceedc":11269,"ebefbbd":11270,"ebdbebbd":11271,"eecfedc":11272,"debbfec":11273,"beccbef":11274,"bebbcbbf":11275,"efbfed":11276,"babebd":11277,"dbbcbcbc":11278,"edfea":11279,"ebebeebf":11280,"beceebe":11281,"ebbcdebc":11282,"bbccbebd":11283,"bbcedcc":11284,"ecceebbc":11285,"bbdbdbbc":11286,"ebbbebbed":11287,"ddfeec":11288,"bbdeebbbb":11289,"dbeecbe":11290,"deceebd":11291,"efcbcbd":11292,"ebccbeec":11293,"fbdfed":11294,"bebbbb</w>":11295,"ebcbeecc":11296,"bfcbbdc":11297,"becccccc":11298,"ebbeedf":11299,"dcabdbf":11300,"ebceebbbb":11301,"bbbecdf":11302,"ececbbbc":11303,"bebbebecc":11304,"bbcbea":11305,"eccfebd":11306,"ecccbbbb":11307,"eceddbc":11308,"edbbbbebb":11309,"bebeac":11310,"fbcbcec":11311,"fbeecbd":11312,"beebbbbbd":11313,"fdcfed":11314,"eeefbbee":11315,"bbcfbbd":11316,"bebebedc":11317,"beebbebd":11318,"edbbbbbd":11319,"ebecddc":11320,"ebdcded":11321,"edbddbd":11322,"ebbbbcbbbb":11323,"edbebbec":11324,"ebcfbbd":11325,"bbcbcbec":11326,"bececebb":11327,"ebfecbd":11328,"bbebcbcc":11329,"bbbefef":11330,"bebebcbe":11331,"bdbcfee":11332,"bbcbdebb":11333,"eeeedee":11334,"ddbebbbb":11335,"fcfbbbb":11336,"defbebc":11337,"efbac":11338,"bbbbbbbbdbbbb":11339,"edbe</w>":11340,"ebbbedcc":11341,"deedebc":11342,"dbfddc":11343,"bdeebbbd":11344,"edcbdcc":11345,"ffbdcc":11346,"eecccccc":11347,"eecefcc":11348,"acebd":11349,"bbbbcebf":11350,"bbbecbcc":11351,"eeebbccc":11352,"beefbbee":11353,"ecddfc":11354,"bebecbbbb":11355,"bdecebd":11356,"bbccddc":11357,"ecbcbbbd":11358,"ebbbcdbd":11359,"edbeba":11360,"ebdcebf":11361,"bbfbedc":11362,"bcdcdbe":11363,"bbeecbbbb":11364,"bbdeba":11365,"edcdccc":11366,"ebbcfbf":11367,"dbbedebe":11368,"debebbbd":11369,"bbefdee":11370,"ebbcbedc":11371,"dccbedc":11372,"ebccbecc":11373,"eebcea":11374,"bebbefcc":11375,"dccea":11376,"decda":11377,"ddeeef":11378,"dedcccc":11379,"bbebbdbbbb":11380,"ebbcbcec":11381,"bbedbebd":11382,"eeecdebb":11383,"eccfbec":11384,"ebedbbbc":11385,"bbdbcbbd":11386,"bbbcbbfc":11387,"dfcdbd":11388,"ecfebdc":11389,"deefebb":11390,"bbebedbc":11391,"aeedc":11392,"bececed":11393,"ecccbfc":11394,"feddbf":11395,"eebeebbebe":11396,"fdcdbd":11397,"febebbee":11398,"bebbbbbbbbbbbbbbbb":11399,"ececbccc":11400,"bafbe":11401,"eebcebec":11402,"fbdbbec":11403,"bbbecfc":11404,"bbbbbdbf":11405,"beefbbbe":11406,"bcdcdebe":11407,"febcfc":11408,"efddcc":11409,"ebefecc":11410,"dfdbcc":11411,"beeebccc":11412,"bbebeeeee":11413,"beddccc":11414,"eccedbf":11415,"efcdecc":11416,"bbefebf":11417,"bdeebcbc":11418,"bfbcdbc":11419,"becbbebd":11420,"beeedbbc":11421,"acebf":11422,"acfee":11423,"bbbbcbfc":11424,"debda":11425,"bceeecbc":11426,"fbbd</w>":11427,"bbbbbdbc":11428,"eccfbcc":11429,"ffbced":11430,"dedbeed":11431,"dcbcdec":11432,"edfba":11433,"dbebcf":11434,"bbccbbbf":11435,"beecfbd":11436,"bddcccc":11437,"efbebbee":11438,"ebefbbbe":11439,"eebcfed":11440,"eeccebf":11441,"dabdc":11442,"cccccccccccccc":11443,"bbcbddc":11444,"bccbcdd":11445,"edbbdbd":11446,"dcdbecc":11447,"dbebeebe":11448,"beccbcbc":11449,"beccbebd":11450,"dcfdcc":11451,"bcbfbbbe":11452,"befcfc":11453,"bfecdec":11454,"ddfdbe":11455,"dfcbef":11456,"ecfdef":11457,"febefee":11458,"eddbdcc":11459,"ecbccccc":11460,"bbbeca":11461,"edbdeec":11462,"eacba":11463,"bbcbbccc":11464,"bbcfeec":11465,"bbfecbd":11466,"bbeebcec":11467,"ebfcbec":11468,"bfbcbebc":11469,"bcfcdf":11470,"ebedebbc":11471,"ebeebbee":11472,"bbebbeebc":11473,"ebcceebd":11474,"acbef":11475,"bbdcebf":11476,"edbddbc":11477,"fbbc</w>":11478,"bfeebeee":11479,"efbeba":11480,"deeeccc":11481,"decbbbf":11482,"dbbcbbec":11483,"ecbedbec":11484,"bcbdbebc":11485,"bbfcdd":11486,"ececbebc":11487,"edbbea":11488,"efbebbf":11489,"bbdecdc":11490,"daebc":11491,"beefccc":11492,"dbbebbef":11493,"febbbeee":11494,"eceebbbd":11495,"dbeebdc":11496,"bbeedbec":11497,"efcbccc":11498,"beccbedc":11499,"bcbecccc":11500,"bbbbbded":11501,"eccdbbd":11502,"ebecdbf":11503,"fbedbbbb":11504,"bbedbbcc":11505,"fccfdd":11506,"eeeeeebeee":11507,"bceefee":11508,"bcecfec":11509,"dbedbbd":11510,"fbcbbbbc":11511,"bceeebcc":11512,"bceffc":11513,"ebbbcbbec":11514,"ebbcbbef":11515,"bcbdbef":11516,"ebbcfebb":11517,"bcfdbec":11518,"bdeeddc":11519,"decfdc":11520,"bbbfedc":11521,"defbbec":11522,"bcedebc":11523,"aeeef":11524,"deebedc":11525,"bcbcbebd":11526,"debbfee":11527,"bbbbbcbbbc":11528,"eeecbbcc":11529,"febebcc":11530,"eddcfc":11531,"bdceeebb":11532,"beecbbebb":11533,"fbfecc":11534,"ebbfbbebb":11535,"dcfdec":11536,"effbef":11537,"dbceeed":11538,"fefbec":11539,"bbeecdf":11540,"eddcecc":11541,"edfbbbd":11542,"bbbbeebbc":11543,"efbebbd":11544,"bbfeeebb":11545,"ecbedebe":11546,"bcbbcbbbc":11547,"bdececc":11548,"fbdeebc":11549,"bbfceec":11550,"dbcbeebb":11551,"ebdcfec":11552,"bbabec":11553,"bfbbbbbbc":11554,"ebdbbbcc":11555,"deffcc":11556,"bdcdbcc":11557,"bbbffcc":11558,"acbebc":11559,"bceeea":11560,"defcdf":11561,"dbcfdd":11562,"bcfbbbec":11563,"dcbddee":11564,"ffbeed":11565,"bebdefc":11566,"bcccbbbe":11567,"beddbbc":11568,"ecbfbbc":11569,"edeb</w>":11570,"fffbbc":11571,"dececcc":11572,"acdcc":11573,"bdbdeec":11574,"ddbeebc":11575,"ffbeebb":11576,"debceecc":11577,"ecececec":11578,"bcdcbbc":11579,"bbeccccc":11580,"ebee</w>":11581,"fcfccc":11582,"bbfbeebe":11583,"efcbbebd":11584,"dedda":11585,"bdbdbbbc":11586,"bcfbdcc":11587,"bccbdbf":11588,"bfceebd":11589,"fbdeecc":11590,"bebfbbd":11591,"bccfbec":11592,"ecbcdebb":11593,"bbdcbebc":11594,"dbbcecc":11595,"ecbdfbc":11596,"bcebbeec":11597,"ebcfdf":11598,"dbbbfef":11599,"ebccfee":11600,"ddcdebb":11601,"edfddc":11602,"babeec":11603,"bcecfee":11604,"bbebcbbd":11605,"debdbbc":11606,"ecdcdbe":11607,"bdbeebec":11608,"ddcbbec":11609,"bbebcdee":11610,"ecfbbebb":11611,"ebbebbbbbe":11612,"edbcbebe":11613,"dcfdbd":11614,"ebebeebd":11615,"dbdeeee":11616,"bbedfee":11617,"ecedbec":11618,"bfcceec":11619,"feecdf":11620,"fedebd":11621,"febbfbc":11622,"bdbcedc":11623,"ebbeebbd":11624,"ebbbbebcc":11625,"bbbdbbeec":11626,"bbefbeee":11627,"bdcda":11628,"bebfdbc":11629,"bbfcebc":11630,"befdebc":11631,"bbdcded":11632,"bcbdbcbc":11633,"bcdcdec":11634,"bdeeebf":11635,"bbffbbbb":11636,"bab</w>":11637,"fbdbeec":11638,"dfcbbd":11639,"beebbdf":11640,"bebfbebc":11641,"ebabba":11642,"deccdec":11643,"eebfbebe":11644,"dedcbec":11645,"ecdeac":11646,"dcbeebf":11647,"eebddcc":11648,"eebcbbebb":11649,"dbbcdbbc":11650,"ebbffcc":11651,"efcecbc":11652,"dbfebbc":11653,"dbffdc":11654,"acdbd":11655,"bebebced":11656,"bfbeedc":11657,"bbfbbbcc":11658,"fcbbeec":11659,"edcecdd":11660,"deccebc":11661,"bdccdd":11662,"bddbbebe":11663,"dcebbbc":11664,"ebebdbbc":11665,"ebfdebc":11666,"bdcbbebe":11667,"befcccc":11668,"beebbbbcc":11669,"bebfeec":11670,"fbbebecc":11671,"ebbbbfcc":11672,"ebecbeee":11673,"feceedc":11674,"dbbbbfc":11675,"aecdc":11676,"dbcdeec":11677,"dbbedbbbb":11678,"fecbccc":11679,"fccffc":11680,"eebcbbed":11681,"dceeedc":11682,"efbcbcc":11683,"bccebfc":11684,"dbebbbec":11685,"febbecc":11686,"ebbbbbecc":11687,"bbcbebbd":11688,"beccbbcc":11689,"dfcebd":11690,"bbebbcbbbb":11691,"dbcdbec":11692,"dfcfbc":11693,"ececbfc":11694,"fcbcebc":11695,"becbdbf":11696,"befdebe":11697,"bbbdbbebe":11698,"abebbbb":11699,"becbcef":11700,"bbfdbbd":11701,"bbeebcbd":11702,"bbecdebe":11703,"ebccfdc":11704,"beefbebe":11705,"ebbcfdc":11706,"bbeceedc":11707,"bbbbcba":11708,"eddcdd":11709,"dbccef":11710,"dcdbbcc":11711,"deeda":11712,"eeeefbe":11713,"edbcded":11714,"ebbfbbcc":11715,"becedcc":11716,"becbea":11717,"ffbedc":11718,"dbceebe":11719,"dbbeceec":11720,"dccecdc":11721,"ebecfed":11722,"eebdebf":11723,"bebfebd":11724,"ebabbc":11725,"eeedbdc":11726,"edbdebd":11727,"fffebe":11728,"bcbcbcec":11729,"bbfcbbbc":11730,"eceecccc":11731,"efdbbbc":11732,"efbda":11733,"bebcdebc":11734,"fccbebd":11735,"beccbeec":11736,"bdbedbbc":11737,"bbecddc":11738,"beeeeeef":11739,"bebbcebc":11740,"bbbbebbbbbbbbbb":11741,"bbebbebbebb":11742,"bfeddf":11743,"bbbbebbbbbe":11744,"dcbcbbf":11745,"ecbebdcc":11746,"bbbbffc":11747,"eccbddd":11748,"bbeceecc":11749,"bbbfdbf":11750,"ecdbba":11751,"decbbdc":11752,"decdbbc":11753,"ebccfed":11754,"beedbfc":11755,"eecbeecc":11756,"bebeeecc":11757,"bffdec":11758,"ebebcbcc":11759,"ebeebbef":11760,"bbdeefc":11761,"dfbedd":11762,"ecbcefc":11763,"ebbbbbbbbbbc":11764,"efebbbf":11765,"deebbebc":11766,"eabcbc":11767,"fbebbdd":11768,"bcbdded":11769,"aeeed":11770,"bddedcc":11771,"bdeebbcc":11772,"edfbeee":11773,"efdebf":11774,"bebcddc":11775,"ecbeebdc":11776,"fbfeec":11777,"febbebd":11778,"adda":11779,"ecdc</w>":11780,"bfbbbbcc":11781,"bbbffec":11782,"eeeebbbd":11783,"bebffee":11784,"bdbffc":11785,"eefeba":11786,"beedecc":11787,"bdbdbbf":11788,"bececbbc":11789,"bbebbeeebb":11790,"fccbbcc":11791,"debcebbc":11792,"bdedccc":11793,"efdcbd":11794,"bbdbbecc":11795,"bbceeebe":11796,"fffa":11797,"dcceeec":11798,"dbbcebf":11799,"dbbcbfc":11800,"beebebef":11801,"ecbbb</w>":11802,"edeebebe":11803,"ebebceec":11804,"ddbdec":11805,"fbdbcbc":11806,"beedbebe":11807,"aeeebe":11808,"dcefbf":11809,"ebddccc":11810,"fbbcbcc":11811,"ecfbdcc":11812,"defbcbc":11813,"ddbcebe":11814,"fcbbebd":11815,"ebdfbec":11816,"dbebedd":11817,"beebeebf":11818,"ebdbeebc":11819,"dbeeeec":11820,"ffbeef":11821,"dccbbed":11822,"dbecbbf":11823,"bcecbbee":11824,"eeebbbbbc":11825,"bbdeeebc":11826,"dfb</w>":11827,"eafbe":11828,"fbdbebd":11829,"ebbbebbbbc":11830,"efceccc":11831,"fbcecbc":11832,"fccdfc":11833,"eeeecccc":11834,"fbdbbcc":11835,"bcbedbbbb":11836,"bbdddbbbb":11837,"efbcecc":11838,"befeecc":11839,"bbdcfec":11840,"ebcebecc":11841,"deebbebe":11842,"fedbbbc":11843,"bdccbbc":11844,"bbcbfbf":11845,"eecbea":11846,"ffbbfc":11847,"dbcecbd":11848,"bebcbbebe":11849,"dedbedc":11850,"bbebbfebb":11851,"eeeefebe":11852,"beccebec":11853,"dbecdbd":11854,"eeecbef":11855,"eebfbcc":11856,"ddbebec":11857,"dfbbebe":11858,"deebbef":11859,"deebcebb":11860,"eebebbebc":11861,"fce</w>":11862,"bececbf":11863,"ebdbdbc":11864,"eccbcef":11865,"dbfdebb":11866,"dbebebbbb":11867,"dbdbddd":11868,"eabeec":11869,"bebcbccc":11870,"eebdfec":11871,"bcbbbfcc":11872,"deefbbc":11873,"feecccc":11874,"bbecfbe":11875,"fbdfcc":11876,"bbdcdcc":11877,"eefdebc":11878,"ebbbcbef":11879,"dddbbbc":11880,"becfecc":11881,"deecbdc":11882,"fddfbc":11883,"edcefcc":11884,"dbddebc":11885,"bbecdebc":11886,"bebdeecc":11887,"bbdcbfc":11888,"bceeebec":11889,"bbbbeccc":11890,"dbcdbbd":11891,"bbddbebe":11892,"ebceebcc":11893,"bccdccc":11894,"eecfeec":11895,"bbbeebdc":11896,"bbbcbcbf":11897,"bcbceebc":11898,"debeebf":11899,"bdbdbebe":11900,"fbccfc":11901,"ebceba":11902,"ebceeebc":11903,"fbcbcbd":11904,"beccbbbd":11905,"ecfdebc":11906,"bfbcebd":11907,"bfdbecc":11908,"efbdebc":11909,"bbdbebcc":11910,"eebdbfc":11911,"bbbbbbbbbcbbbb":11912,"bbcbbbdc":11913,"bacda":11914,"ebebdbec":11915,"ddecee":11916,"eecebbcc":11917,"eecbddc":11918,"dbcebdc":11919,"beeefebb":11920,"beeffc":11921,"dcffcc":11922,"bbbbbcdd":11923,"efbdebe":11924,"bbceefc":11925,"acbfc":11926,"becceedc":11927,"fdddbe":11928,"fabba":11929,"dfeedc":11930,"bcbcdbf":11931,"feddfc":11932,"bcecebbc":11933,"ecbdbebe":11934,"bbefbfc":11935,"ecbdded":11936,"abbbcc":11937,"abcef":11938,"dcdebcc":11939,"ecdbbebc":11940,"bdecff":11941,"bcbebdcc":11942,"afbbbb":11943,"dcebbdc":11944,"beceef":11945,"bdceebf":11946,"fddedc":11947,"bebbbebbee":11948,"ddbbeec":11949,"fdcebf":11950,"deecebd":11951,"ddeeebe":11952,"eecedbd":11953,"decdedc":11954,"deddebc":11955,"bbccebcc":11956,"beecebec":11957,"bebddcc":11958,"ebbbcecc":11959,"efeefc":11960,"bbbdea":11961,"bbbecbbee":11962,"edbcbfc":11963,"ebbbcbebc":11964,"ebec</w>":11965,"deebebbc":11966,"bebfbeee":11967,"dcbedec":11968,"bbcdbbbc":11969,"bbfbbdd":11970,"bcecdef":11971,"efeeff":11972,"bcceddc":11973,"eecebfc":11974,"bbbebeef":11975,"dbefef":11976,"feceebc":11977,"dbbcbef":11978,"bbafc":11979,"bebfecc":11980,"bfeedbe":11981,"eececdd":11982,"deefbf":11983,"bbdcbef":11984,"deececc":11985,"bebffbc":11986,"beebefee":11987,"bdbebbebe":11988,"dcbedbb":11989,"ebeeebbf":11990,"bbccbbed":11991,"bebbebccc":11992,"ccceccc":11993,"bbcbedbe":11994,"bbfcccc":11995,"deddecc":11996,"bebfbfc":11997,"dbccff":11998,"eeedbbbb":11999,"ebebeff":12000,"ebdcebbc":12001,"eeddebc":12002,"bdeddbe":12003,"edeedbd":12004,"ebddbbf":12005,"ebcceedc":12006,"fddfec":12007,"bbceebbbb":12008,"edcbbef":12009,"bdfdebe":12010,"ebdd</w>":12011,"bccbcbbbb":12012,"bbdbedbe":12013,"dffebe":12014,"bdcfbbc":12015,"ebdcebec":12016,"bdbcbeee":12017,"bcbbeba":12018,"dcdcccc":12019,"ebebebdc":12020,"bebdbbebb":12021,"fedebf":12022,"beeddebb":12023,"bdbbeecc":12024,"fcebbcc":12025,"fcbcebe":12026,"efcdbec":12027,"bbdcfee":12028,"bebcdef":12029,"efceebd":12030,"deddfc":12031,"eeccbbee":12032,"bdecbbf":12033,"edddccc":12034,"ecbbbdcc":12035,"ebdefcc":12036,"fedbecc":12037,"bbebcdbe":12038,"ebbeeba":12039,"edbedbf":12040,"bebceedc":12041,"dbbbbdf":12042,"bedddec":12043,"fdeac":12044,"acbebe":12045,"ebdcbfc":12046,"bcbdedc":12047,"dbccdbe":12048,"bdecbdc":12049,"edbcbbee":12050,"eebbbfcc":12051,"afba":12052,"bbcbedf":12053,"ecceefc":12054,"dbbedef":12055,"bbbfdebb":12056,"debeebbc":12057,"bcfbba":12058,"bbcecbbc":12059,"bccbfcc":12060,"eecbedbe":12061,"fbcffc":12062,"bbeddbf":12063,"bbbbeef":12064,"eecdbbf":12065,"dedebec":12066,"bbbffbf":12067,"ecccbbbe":12068,"ebdcbebe":12069,"bbebcbebe":12070,"ddbea":12071,"bbecdeec":12072,"fecdbec":12073,"bbbcbced":12074,"fdfccc":12075,"eddbbbbc":12076,"ebbdeecc":12077,"eeceebe":12078,"abded":12079,"bedeac":12080,"dcfdbb":12081,"bbbbbcef":12082,"deedeec":12083,"bbecdbec":12084,"ecebbccc":12085,"ebbbdbbbe":12086,"ebbbddbe":12087,"dba</w>":12088,"ebdecbf":12089,"acbeec":12090,"bbbbcdbbbb":12091,"edfbbcc":12092,"fceebe":12093,"becbedbe":12094,"efcebec":12095,"ecbdbbbe":12096,"dcbcdbc":12097,"dbbecbcc":12098,"bbccfed":12099,"bcbcbecc":12100,"bbdcebbc":12101,"bdbcdcc":12102,"ecddebc":12103,"beeebbed":12104,"bbbbbbbbbbbbbbbe":12105,"bbfcbbbe":12106,"ddddccc":12107,"dbbeac":12108,"ecbebbbec":12109,"dcdea":12110,"bccbebbbb":12111,"bdcbcdc":12112,"eafbf":12113,"debcbbbc":12114,"bbefbbebb":12115,"eceddec":12116,"bbbbbbccc":12117,"ebfbdcc":12118,"edcfa":12119,"dbbedebc":12120,"eeeddec":12121,"ebbbcebbc":12122,"dcedccc":12123,"dacea":12124,"ddebbcc":12125,"bbcbcbbd":12126,"fcefcc":12127,"eecbebec":12128,"ffdebe":12129,"beecbeed":12130,"bbbbbbbbbbf":12131,"bbabea":12132,"fefbeee":12133,"bbbbbcbbbe":12134,"ebebcbbbe":12135,"befbedc":12136,"eeccbecc":12137,"bcbedeec":12138,"ebceebec":12139,"bccbddc":12140,"eeccfdc":12141,"afdf":12142,"bbbbdbcc":12143,"ebcecbec":12144,"becfedc":12145,"ebdbcbbc":12146,"baefc":12147,"ecbddcc":12148,"dcdeccc":12149,"ebebbccc":12150,"becbdebb":12151,"edcebfc":12152,"bdecbbd":12153,"ebbbcbbebb":12154,"ebeedbf":12155,"eeceef":12156,"eeccbebe":12157,"eceacc":12158,"bfebeebe":12159,"ddeefc":12160,"bcebbbbf":12161,"ecdcdbc":12162,"bfeeecc":12163,"eccbcfc":12164,"bbbeb</w>":12165,"bbbceeebb":12166,"bbeedbbbb":12167,"ebbceeec":12168,"dbbebbdd":12169,"fecdeec":12170,"eebcebdc":12171,"bcfbbebe":12172,"edbbebec":12173,"bbbbeeebe":12174,"bccbcbcc":12175,"befeeebe":12176,"bbedbecc":12177,"edecdec":12178,"abcbbc":12179,"ebefdbe":12180,"befbcbf":12181,"deccff":12182,"bebbbbdbe":12183,"becbcdd":12184,"ebdebfc":12185,"bbbdbecc":12186,"bbecbcbd":12187,"fbedbcc":12188,"debbdcc":12189,"ebbfbbbf":12190,"efbdfc":12191,"ebebcebd":12192,"fcbebec":12193,"dfbbfc":12194,"eadef":12195,"fccdbf":12196,"eebcbedc":12197,"bfdddd":12198,"ebcbcecc":12199,"bbbeda":12200,"deebdcc":12201,"fefbebe":12202,"edccbbc":12203,"ebeecf":12204,"eccbbbcc":12205,"eccecebb":12206,"efdded":12207,"efeebeee":12208,"bbdfbcc":12209,"eeeebbcc":12210,"fedfee":12211,"fedbeec":12212,"bceedef":12213,"ebbeedbc":12214,"ebbbcbdc":12215,"eecb</w>":12216,"babeebb":12217,"bcbcefc":12218,"dbbbbbebc":12219,"fdcbebe":12220,"dceebbf":12221,"ebddebf":12222,"debbbeee":12223,"eebfbbbe":12224,"bbbfbebd":12225,"edcca":12226,"bfecff":12227,"eedbac":12228,"eecdcdc":12229,"befeccc":12230,"dedcdec":12231,"deedfc":12232,"ebbcdfc":12233,"ebbcbbdd":12234,"dbbefbf":12235,"ecbcbbed":12236,"fceefc":12237,"bbfeccc":12238,"eabbed":12239,"ddcdbf":12240,"bdecdbd":12241,"dbefbbc":12242,"beecebcc":12243,"bdbebccc":12244,"edcfbbc":12245,"dbceccc":12246,"dbcbbebe":12247,"bcbcebec":12248,"deedebe":12249,"bbeedebc":12250,"dbdd</w>":12251,"befeebd":12252,"befbbebc":12253,"bcbcdef":12254,"ecbedebc":12255,"fefebf":12256,"dffdf":12257,"eeebbbbebb":12258,"ecdeba":12259,"ebebedbe":12260,"fbebfcc":12261,"bcccbbcc":12262,"bbdbcfc":12263,"fbcdebc":12264,"bebddebc":12265,"ebaba":12266,"bbbbbdbbbd":12267,"effbbbe":12268,"ecceded":12269,"fbcbebf":12270,"bccdbbd":12271,"dbebbfc":12272,"dbdfdc":12273,"feebecc":12274,"debdded":12275,"dceebdc":12276,"bbdeeebe":12277,"ffdbcc":12278,"bbddbdbd":12279,"febca":12280,"bfecdbe":12281,"efecbec":12282,"efeebbee":12283,"dbddbec":12284,"debbeecc":12285,"eefdebe":12286,"bceefbd":12287,"beddbbbb":12288,"bdbedef":12289,"ebeecee":12290,"fddecc":12291,"bbcbeeec":12292,"ebecbbed":12293,"ecbfebc":12294,"ecbfedc":12295,"ffeebf":12296,"befcbec":12297,"bbcfdf":12298,"bbbbcdec":12299,"deecbebc":12300,"bebfedc":12301,"eedcdcc":12302,"bccbbccc":12303,"bdceebe":12304,"bdcdebd":12305,"ffecbd":12306,"bbbcac":12307,"bbdcbbec":12308,"beebbecc":12309,"bfbcfec":12310,"bdfeecc":12311,"dfedbd":12312,"efcbbed":12313,"dedebcc":12314,"feefbd":12315,"eeebbeeebb":12316,"edbeefc":12317,"dcbebbee":12318,"fcbfdc":12319,"bfcac":12320,"ececbbec":12321,"edbebecc":12322,"beebbbebc":12323,"beddebc":12324,"bdfda":12325,"bbcbdbbc":12326,"fceeebc":12327,"ddcbeee":12328,"eebcbbbf":12329,"ebbdbbdd":12330,"dcbebbbc":12331,"ebbcbebbc":12332,"dbddddd":12333,"ecccbebe":12334,"bbebeba":12335,"bcbeda":12336,"eeedeec":12337,"ebefccc":12338,"dfdbbd":12339,"bdcbdcc":12340,"bbbdeebd":12341,"dbfdef":12342,"fccbbec":12343,"bedceecc":12344,"dccbeed":12345,"bbefecc":12346,"bbdddec":12347,"fefdbe":12348,"edccfbc":12349,"dedbcbd":12350,"bbebeebd":12351,"bceebbbf":12352,"bdbbcdbf":12353,"edecdbc":12354,"dbbbd</w>":12355,"efcda":12356,"aecec":12357,"bccecebb":12358,"bbebebbbbc":12359,"fdcbbbb":12360,"bfbcebf":12361,"effbebe":12362,"ddbcfc":12363,"fbebdbf":12364,"beddecc":12365,"bdbcfec":12366,"efacc":12367,"ebebebbbc":12368,"edcdbbd":12369,"bbbcfbbc":12370,"eeddbbc":12371,"fcedbd":12372,"becfeec":12373,"ecbebbebc":12374,"ddbb</w>":12375,"ddbdbbbb":12376,"ebddddd":12377,"edceeebb":12378,"bafa":12379,"ffebdc":12380,"bebcdbbc":12381,"ebecbbbbc":12382,"ebefebd":12383,"ebedced":12384,"bbdeebec":12385,"bbadbc":12386,"ad</w>":12387,"dfbbebc":12388,"bcbebbeec":12389,"bdeebecc":12390,"ebbbbbbbbbd":12391,"ddfebd":12392,"ffeecc":12393,"bbeebeed":12394,"bcfda":12395,"bbaccc":12396,"eeecfee":12397,"eeecddc":12398,"febcbbc":12399,"ddedbf":12400,"ebcecf":12401,"bbbeeeebe":12402,"bbeeac":12403,"bcbcddc":12404,"bcccfbc":12405,"bdee</w>":12406,"bccdbdc":12407,"ebbceedc":12408,"befbced":12409,"debedec":12410,"bbadee":12411,"eceddbe":12412,"fcecebb":12413,"bbdbeebd":12414,"edceebe":12415,"bebdbbcc":12416,"eefdbec":12417,"bcecbecc":12418,"bedddbe":12419,"ae</w>":12420,"ebdbcebe":12421,"bdcecbd":12422,"bfceedc":12423,"eacdbf":12424,"ebbbcdec":12425,"dbccdbc":12426,"eebbbbbbc":12427,"dcbcdbd":12428,"ebecbcbd":12429,"eceedbbc":12430,"afbec":12431,"bfececc":12432,"ebcfbdc":12433,"efbbbdc":12434,"bbfebdc":12435,"bbfbdcc":12436,"ebbbcfbc":12437,"ebcbbbbbbbb":12438,"fcdbfc":12439,"bbdecbbc":12440,"eafcc":12441,"bbecbbebe":12442,"efbeebf":12443,"becdbbf":12444,"dfdbbbb":12445,"ffbcee":12446,"dbdfbf":12447,"bcfbbebc":12448,"fdddbc":12449,"ddeba":12450,"bbbedbbd":12451,"bbbcdbec":12452,"ebbceeee":12453,"bbbdfbe":12454,"eebdfbd":12455,"bdbdbcc":12456,"dcbbbfc":12457,"ecceeef":12458,"ebfeeef":12459,"bfcfbbc":12460,"dbdecbc":12461,"fedefc":12462,"debedcc":12463,"eebfbef":12464,"afebc":12465,"eccbedf":12466,"cccbeec":12467,"eaefc":12468,"eedddbc":12469,"bbecceec":12470,"bdbeac":12471,"dceeddc":12472,"becbcebc":12473,"dbbdcbf":12474,"dbfefc":12475,"ecccbccc":12476,"bcdcdbc":12477,"ccceecc":12478,"beebcbbbb":12479,"ebebedf":12480,"ebdfbcc":12481,"dfdeec":12482,"bcbfbbbc":12483,"ebbeeebc":12484,"edbc</w>":12485,"ebbbbbccc":12486,"dcdebec":12487,"fcbfed":12488,"babccc":12489,"dedbced":12490,"feedbbc":12491,"ddcdef":12492,"dfcebf":12493,"bcdcff":12494,"eceeebcc":12495,"bdedbbc":12496,"bdecbbbe":12497,"ebefbbee":12498,"befbcebb":12499,"bbdfdbe":12500,"beeefbf":12501,"feefebe":12502,"fdcfcc":12503,"bcdcdcc":12504,"bbbbbea":12505,"bbbdbebbbb":12506,"bebbcbebe":12507,"fcdebf":12508,"bccfecc":12509,"deebebf":12510,"dbdfbe":12511,"debbdbf":12512,"eebebbbec":12513,"dcdcdcc":12514,"bfbcdec":12515,"bebbeac":12516,"bffba":12517,"ebdbcfc":12518,"eecfbec":12519,"bebddbf":12520,"defbbee":12521,"eebebbdd":12522,"eefebdc":12523,"ececbebe":12524,"bdbcebbc":12525,"beebcbbc":12526,"ecdebccc":12527,"edeeebf":12528,"dceedbc":12529,"debbbbed":12530,"bcecfcc":12531,"bebbcdbe":12532,"becefcc":12533,"edcbbbbc":12534,"ebecbedc":12535,"ecbedfc":12536,"ebfca":12537,"beebeff":12538,"eceeac":12539,"bbbbbbba":12540,"ebcbceec":12541,"ecbcfbd":12542,"eebdfcc":12543,"fdcbebc":12544,"fefbef":12545,"bfbcbebe":12546,"bbbbeeed":12547,"efbeebd":12548,"becbebbbe":12549,"fbcbeed":12550,"bbccdbf":12551,"ebeceebc":12552,"ebecbccc":12553,"bddbba":12554,"ebfbcf":12555,"dbbbebbbe":12556,"ebeecef":12557,"bbdbdbbd":12558,"babcbd":12559,"ebcbfbf":12560,"bccbcebe":12561,"dedbbebb":12562,"bdecbebe":12563,"efbedf":12564,"dedfbd":12565,"beeebcbd":12566,"bebdfbd":12567,"edbcebbc":12568,"dcfbebe":12569,"deebbdd":12570,"dbddfc":12571,"bbccbbdc":12572,"bbbfbbed":12573,"dcfbbbc":12574,"ebeecbec":12575,"bdcdbbd":12576,"eafec":12577,"bbefeec":12578,"ecbdbbf":12579,"eceebecc":12580,"edbbebcc":12581,"bbdedbf":12582,"bebbcdf":12583,"beefbef":12584,"dbdbedc":12585,"bebdbbed":12586,"feddebb":12587,"edccbcc":12588,"ebeeefc":12589,"bbeceebd":12590,"acbcbc":12591,"fefbbbe":12592,"ffcdbc":12593,"ecdbbeec":12594,"becfbcc":12595,"beedbeec":12596,"edecbdc":12597,"bcbbc</w>":12598,"eddb</w>":12599,"beeeeebf":12600,"edbeebcc":12601,"ebbbedebb":12602,"eeceddc":12603,"eeeebbec":12604,"fefbdc":12605,"edccdbc":12606,"ecdcebd":12607,"bdfbbef":12608,"fbbbbbbbc":12609,"bbceba":12610,"bbbbcbbed":12611,"bdbcddc":12612,"bcdebecc":12613,"febe</w>":12614,"bafebb":12615,"deeeebd":12616,"cccfbd":12617,"dbbecdee":12618,"ecccfec":12619,"bdbcbbcc":12620,"abedd":12621,"efeddd":12622,"dfeeec":12623,"bbbddef":12624,"deddbbc":12625,"dbfbecc":12626,"deecdbd":12627,"efbbedc":12628,"fcbebbbb":12629,"bbfeebe":12630,"bebdfee":12631,"adbbf":12632,"bbbbdebd":12633,"ebebdbbbb":12634,"bfceeec":12635,"dccdfc":12636,"ebebdee":12637,"bbcfbbf":12638,"bccbbeec":12639,"deebcee":12640,"eadebb":12641,"bcbbbbbbebb":12642,"dcbbdcc":12643,"effbdc":12644,"bbdfecc":12645,"ebfbbfc":12646,"dbbebbebc":12647,"deccfec":12648,"bcebbebc":12649,"bfbcecc":12650,"dcfbfc":12651,"bccbebec":12652,"cccbeee":12653,"bfcdebe":12654,"bbbbcecc":12655,"ecbcba":12656,"eedcfec":12657,"dcbcded":12658,"bbbbbbebbc":12659,"ffdebc":12660,"bcccddc":12661,"bfdfcc":12662,"dbbebbbbbe":12663,"beecdef":12664,"fddebc":12665,"ebbfea":12666,"dcebdcc":12667,"dfeebf":12668,"dbbdcbbc":12669,"ebdcefc":12670,"beededc":12671,"dbbdbebc":12672,"dbccebc":12673,"bfbcbdc":12674,"bbdbcebc":12675,"bbbcdebc":12676,"dbbdcebe":12677,"decbeebc":12678,"debbbbbf":12679,"bbbbcfbc":12680,"bebdddc":12681,"abdac":12682,"deebded":12683,"ebbcdbbbb":12684,"decceebc":12685,"ececddc":12686,"bbbbfbec":12687,"becedbd":12688,"cccbbbd":12689,"bebefebe":12690,"ebbcbbebc":12691,"bbeffbc":12692,"dcccdccc":12693,"dcebbbbc":12694,"bcbcdebe":12695,"fdcddc":12696,"bedcbbf":12697,"bfbebfc":12698,"becbeebd":12699,"bcccebf":12700,"ecdcbbc":12701,"bcbbcbbbe":12702,"edbcbbbd":12703,"edbd</w>":12704,"bbbbebbbbc":12705,"becbebbd":12706,"ebdbebcc":12707,"ecbceebc":12708,"fefbbee":12709,"eedeac":12710,"bdcdbdc":12711,"deebcbf":12712,"decfbf":12713,"eeebbbcc":12714,"ebebfebe":12715,"bcecbeee":12716,"edfbbec":12717,"dddebf":12718,"eecbebbd":12719,"ebebeecc":12720,"deebdbd":12721,"eeccfbd":12722,"bebbcbbee":12723,"efecfc":12724,"beccfbd":12725,"ecccebf":12726,"beebbfbc":12727,"bffbeee":12728,"bcecbbed":12729,"ecedebc":12730,"bcbbcbcc":12731,"bbbbebfc":12732,"bbdbeeec":12733,"ebbcbbbec":12734,"decea":12735,"ebecbbbf":12736,"ebdcbbbc":12737,"bcccbebe":12738,"dabbf":12739,"daedc":12740,"dadbd":12741,"beebebcc":12742,"ecbfdbe":12743,"beecfcc":12744,"eceebef":12745,"bdeefcc":12746,"bfeeccc":12747,"becfbbbb":12748,"dbbdcef":12749,"beedebd":12750,"fbbcdbe":12751,"becbcfc":12752,"dbbdcec":12753,"bbccdebb":12754,"ebdcbbbd":12755,"bbdcbeee":12756,"debebfc":12757,"bbddebf":12758,"eccbdbf":12759,"deccbbc":12760,"beebefc":12761,"bdeebbebb":12762,"eddcedbbc":12763,"cccccccccccccccccccccccccccccccc":12764,"efdbfc":12765,"eccebbcc":12766,"ebdfebd":12767,"deebbfc":12768,"eebeedcc":12769,"bdbcba":12770,"efecbcc":12771,"eccfeec":12772,"bbdbfbf":12773,"fbebbbcc":12774,"eebf</w>":12775,"dffbcc":12776,"ebbcbcebb":12777,"dcceedd":12778,"acbbee":12779,"bbebefee":12780,"bbbbbbebf":12781,"ebeecbbbb":12782,"ebefbebe":12783,"bbbebcf":12784,"bbbcbcee":12785,"bfcfdc":12786,"beccfdc":12787,"ecfdbec":12788,"bcebebbc":12789,"dcbcbdc":12790,"abac":12791,"eddbbed":12792,"bbdfebd":12793,"dbcdebd":12794,"bcbebbdd":12795,"bffebbc":12796,"bbbbebbcc":12797,"ebcbbbdc":12798,"dfecec":12799,"ebccdebb":12800,"beecbedd":12801,"ebdceecc":12802,"bcbbd</w>":12803,"fbedeec":12804,"fecbeee":12805,"fecbcbd":12806,"eebcdbbc":12807,"ecbcbebd":12808,"debcdbd":12809,"bebbcbcc":12810,"ebbdbbebb":12811,"bbbbfdd":12812,"ebcdbbbc":12813,"dbbedec":12814,"eeeeebd":12815,"febeebf":12816,"efcdedc":12817,"feddef":12818,"bbbbbbbbbbbf":12819,"bebbbebebe":12820,"bbebbded":12821,"acedc":12822,"eeecebf":12823,"ebfcbcc":12824,"bbdeddc":12825,"bbbeceec":12826,"bbbbfbbbe":12827,"eccbbeec":12828,"bbbbbcbec":12829,"ebcbeebd":12830,"ebdbbeec":12831,"debebbcc":12832,"beeddcc":12833,"bfecdbc":12834,"edbebbebb":12835,"bbcbebbf":12836,"dfdebd":12837,"ddcba":12838,"bcccbebc":12839,"fefdee":12840,"bdbcdebb":12841,"dcecbbbb":12842,"fcbdebb":12843,"bbbebdcc":12844,"bbbcbbbbbbc":12845,"bfcbcec":12846,"eafbd":12847,"bbbbbbbebbbb":12848,"ebefeec":12849,"dbbbffc":12850,"befeeef":12851,"ebccbebd":12852,"eceebeee":12853,"fcceccc":12854,"bceebbbbc":12855,"bbaff":12856,"bddbbef":12857,"bbcbdbbbb":12858,"bbfeef":12859,"decdebd":12860,"ebabbbe":12861,"ecdbbbcc":12862,"ebeceecc":12863,"bbfcbef":12864,"dbbdbbee":12865,"bbebddf":12866,"edbdedc":12867,"bcefccc":12868,"dcbdccc":12869,"bdfbccc":12870,"fcecf":12871,"ebdecebb":12872,"bebcbebf":12873,"fbceedc":12874,"ecbebbebe":12875,"ecbdbbd":12876,"dcedbcc":12877,"bbbbbefc":12878,"bbcdccc":12879,"bdcbcbf":12880,"bfcffc":12881,"dccbcbd":12882,"febbbbebb":12883,"bfbb</w>":12884,"bbbbbbecc":12885,"ebeeefee":12886,"bbbfded":12887,"eebdbbee":12888,"fbfedc":12889,"fbfba":12890,"bceedbbc":12891,"ebbfefc":12892,"ebcfdbe":12893,"dbceebf":12894,"ebdcbebc":12895,"debedbd":12896,"deccbcc":12897,"ecdebecc":12898,"edfdbf":12899,"bbbbbb</w>":12900,"ebbcbdbd":12901,"beeebbdc":12902,"bcedbeec":12903,"dcbbdfdd":12904,"eecbdbf":12905,"decbbbbc":12906,"beddff":12907,"eeedfc":12908,"edccdf":12909,"becbcbec":12910,"bccfa":12911,"bcecbbebb":12912,"beedefc":12913,"bbccccccc":12914,"efbcebd":12915,"ebcbbccc":12916,"dbbecebd":12917,"bbcceebd":12918,"fbffcc":12919,"ebbccfc":12920,"edbffc":12921,"abbeec":12922,"edbeac":12923,"bbbdbebf":12924,"feedbec":12925,"ddcdfc":12926,"eecceccc":12927,"fbfbebc":12928,"dcfbef":12929,"efefbf":12930,"eecfbcc":12931,"dbceedd":12932,"fbcbbdc":12933,"ebceded":12934,"dfbbbec":12935,"bfcbebf":12936,"bcdcecc":12937,"bceecccc":12938,"bbbbdbbbc":12939,"efbeeec":12940,"bbdeded":12941,"bcbcfbd":12942,"ddcb</w>":12943,"eeeddbd":12944,"bfeebdc":12945,"bccbcccc":12946,"ebefebf":12947,"becbcbbbb":12948,"bbdbb</w>":12949,"ebffa":12950,"bebcdfc":12951,"ddcbbed":12952,"beecea":12953,"beecbbdc":12954,"debeba":12955,"beebbbbebe":12956,"fbecbbc":12957,"ecbbedcc":12958,"efbfbd":12959,"befeeebb":12960,"fecdedc":12961,"bbddedc":12962,"bdcfebc":12963,"dbbbfebe":12964,"fccba":12965,"bbbbcbcbbbb":12966,"adebd":12967,"beef</w>":12968,"dbcdbcc":12969,"bfcbbfc":12970,"decbebf":12971,"ecedfc":12972,"bea</w>":12973,"bbbbfa":12974,"becdccc":12975,"beccdebb":12976,"eceebbebb":12977,"ebebdbe":12978,"decfbe":12979,"beecdecc":12980,"eebdbbbd":12981,"ebedcdc":12982,"ddecf":12983,"bbbcbba":12984,"cccba":12985,"debcfec":12986,"ecdbbebd":12987,"edeebeee":12988,"ebccbbed":12989,"bebdbeee":12990,"becceccc":12991,"beebbba":12992,"febbbdc":12993,"eebfeebf":12994,"bcebbbcc":12995,"fbbcbbbe":12996,"dbdceec":12997,"aedcc":12998,"efebccc":12999,"befbebbc":13000,"bdecbebc":13001,"edecdcc":13002,"bbbbebbbf":13003,"dfbded":13004,"befbcf":13005,"defbebe":13006,"dada":13007,"bbbcca":13008,"ebcebccc":13009,"ebcbdef":13010,"ebfbcbe":13011,"debebcbc":13012,"bcbdbeee":13013,"ececfcc":13014,"ebcecfc":13015,"dfdecc":13016,"dfbfcc":13017,"dbbebbbec":13018,"dbbbbbbdd":13019,"debdff":13020,"ebbeebbbd":13021,"ffffffff":13022,"bbbbbbdbbbb":13023,"bbbbcdebb":13024,"bbebebbbf":13025,"bcbdfee":13026,"bedcfbc":13027,"bedddee":13028,"dddddddddddddddd":13029,"ebebdef":13030,"ddbdbbc":13031,"eccbba":13032,"bedceebc":13033,"ebebbebbc":13034,"eccbedbe":13035,"bbbebebec":13036,"dbeffc":13037,"ebccbccc":13038,"fecdbbc":13039,"bfdbbcc":13040,"ddbebbd":13041,"eebdddc":13042,"eeecdbf":13043,"eebbeebbee":13044,"abfcc":13045,"febd</w>":13046,"ebebcecc":13047,"bccefcc":13048,"beeefebe":13049,"eefbbfc":13050,"bcbfdee":13051,"bdfdbbc":13052,"dcbedbd":13053,"dbedbcc":13054,"beecdeec":13055,"bbefdbd":13056,"ebcbeeec":13057,"ebcdced":13058,"bebebcee":13059,"dbbedbec":13060,"befebdc":13061,"dedbccc":13062,"bcbcbbbf":13063,"fccebec":13064,"eebddebb":13065,"debddbd":13066,"bbbccfc":13067,"edccdee":13068,"ddbdef":13069,"becbcebe":13070,"bbbeecbe":13071,"dbcfef":13072,"ebbcebdc":13073,"ebbcbced":13074,"efcdebe":13075,"bbecbebbc":13076,"beefebf":13077,"bccfbcc":13078,"ffeeef":13079,"dbbebeebb":13080,"eebcfdc":13081,"dbbbbbbbf":13082,"ebeeac":13083,"bdcecec":13084,"beccbeee":13085,"dbecbbbe":13086,"adecc":13087,"bbcfecc":13088,"ebdeeebe":13089,"bbdfbbf":13090,"bbddbbee":13091,"eeecebcc":13092,"bedcbebe":13093,"ebcbcbcc":13094,"ebde</w>":13095,"bfcbcbf":13096,"eebceba":13097,"bcecbbcc":13098,"bbbbcbeee":13099,"bceeac":13100,"dcecff":13101,"efeac":13102,"ebcfbbf":13103,"bdceef":13104,"bdcdedc":13105,"bbececbc":13106,"beccfee":13107,"fbffbf":13108,"bcecddc":13109,"bebbbba":13110,"bbcbca":13111,"dfbba":13112,"bbebbbebf":13113,"bcbeeccc":13114,"becdbbbe":13115,"efcac":13116,"bedcbbbe":13117,"fddddc":13118,"bdeebeec":13119,"bfbebbec":13120,"ebdfbbbb":13121,"bbfbdbf":13122,"fecbeed":13123,"bebbeebbee":13124,"dccffc":13125,"eeeebebc":13126,"bebdebec":13127,"fbddef":13128,"bdecbef":13129,"edbcfcc":13130,"bcbbedcc":13131,"bbcbdef":13132,"ebdbea":13133,"eabeebb":13134,"bbeddef":13135,"edbdfbc":13136,"bfbcebbc":13137,"bfecdee":13138,"bbceeef":13139,"bbfecbf":13140,"ebfffc":13141,"dedb</w>":13142,"bbefbebc":13143,"bbebdbbee":13144,"bcefdbe":13145,"ddecef":13146,"fcbeebd":13147,"bccbddd":13148,"ecccbebc":13149,"ebbebbebbebb":13150,"bddefcc":13151,"dcbedcc":13152,"ebeecebe":13153,"bebdeebd":13154,"ebdcbbee":13155,"bbbbecbf":13156,"ebeeddd":13157,"ebebeeec":13158,"fcecbbc":13159,"fdddbd":13160,"fbbebccc":13161,"efeca":13162,"bbfecbe":13163,"dccbbdc":13164,"efcfbe":13165,"bcccbbd":13166,"bfecccc":13167,"dddcbd":13168,"ebcbfdc":13169,"bdcdbbf":13170,"bebedbbbb":13171,"ebbfdbf":13172,"bbbbdeec":13173,"bbbbecbbbb":13174,"fcbcdf":13175,"dfbdbf":13176,"bbebeecc":13177,"dbbcbeee":13178,"ebebfef":13179,"bbcdebf":13180,"bbebbebec":13181,"bbebbbcebb":13182,"eeebbbec":13183,"edeeddc":13184,"dcbfebe":13185,"ebeecebc":13186,"fcdbbbe":13187,"bbbebcdc":13188,"dbeeedc":13189,"debbebec":13190,"bedcbecc":13191,"dcbbebbc":13192,"dcbbba":13193,"eececbe":13194,"bbecbebf":13195,"ecbcebec":13196,"dbbdbdbd":13197,"ebbbcbfc":13198,"bbba</w>":13199,"bfbedee":13200,"fcdefc":13201,"bebdfcc":13202,"bcedff":13203,"efebbebe":13204,"dbebefc":13205,"decbebbc":13206,"bbedbcbc":13207,"dbbcbbcc":13208,"ecebebdbbbe":13209,"ebcecebc":13210,"ebfeeec":13211,"deebcf":13212,"bebebcbf":13213,"ecfbbbbc":13214,"ececbbee":13215,"ebebdebe":13216,"ebcbebbf":13217,"eccbcbbc":13218,"bbdbedf":13219,"bbedddc":13220,"eeeeeef":13221,"ac</w>":13222,"ebbbebbef":13223,"bbfeeec":13224,"edcbeebe":13225,"dbcbcbf":13226,"dbcbcdc":13227,"aaaa":13228,"ebbbeea":13229,"bbbbeba":13230,"ebed</w>":13231,"ebcbcbbd":13232,"bbcfebd":13233,"bbceebec":13234,"dbddeec":13235,"dbdeeec":13236,"fbddfc":13237,"ecfbbfc":13238,"ebbcbbfc":13239,"eebceccc":13240,"fedbcbc":13241,"becbedf":13242,"eecbbecc":13243,"deeb</w>":13244,"fccbccc":13245,"becebecc":13246,"ebdbedbe":13247,"bcceebbc":13248,"bbbcfdc":13249,"edbcebf":13250,"ffbeebe":13251,"bbeefbbc":13252,"dccdebe":13253,"fecbbbf":13254,"eebedebc":13255,"beebbbbec":13256,"beedeecc":13257,"bbbccbbcc":13258,"dcbcecc":13259,"ebceedbe":13260,"bebedebc":13261,"bbbbbebbf":13262,"beceba":13263,"fbfbcbc":13264,"beedba":13265,"ecedecc":13266,"effdee":13267,"edcbcbf":13268,"bebdbedc":13269,"eeddfbc":13270,"bbbbd</w>":13271,"fcebecc":13272,"fcbcbec":13273,"bbfdbcc":13274,"efcbbdc":13275,"dbecbdc":13276,"beedbef":13277,"bdbdff":13278,"befca":13279,"bbfbcbbc":13280,"edcbcdd":13281,"defdef":13282,"bcefbebe":13283,"ecdddf":13284,"bdeeded":13285,"bfedccc":13286,"bfdebcc":13287,"dbbedfc":13288,"efcfdc":13289,"ecebbbbbe":13290,"bfbcbef":13291,"bfbbbbebb":13292,"ebceebbd":13293,"bbfbfbf":13294,"bebddebe":13295,"eeccedcc":13296,"eebdbbec":13297,"bdeedbf":13298,"dbcda":13299,"deceeec":13300,"ecccbcbc":13301,"dbbbbbbcc":13302,"dbecbebc":13303,"febbbbd":13304,"beddbdc":13305,"bfeeebf":13306,"ebbcbcee":13307,"feedebb":13308,"ecbcdbf":13309,"bcccfec":13310,"edbedebb":13311,"ebdfeec":13312,"edcbebbc":13313,"baeea":13314,"feebcbd":13315,"bbedebec":13316,"dbececc":13317,"ecbdbfc":13318,"ecbdddc":13319,"beebebbbc":13320,"dcbfbbc":13321,"efecee":13322,"ddbbbdc":13323,"bbefebbc":13324,"dbbbbbbec":13325,"bdfbbbbc":13326,"bebbbebbc":13327,"edbcbebc":13328,"feeeeef":13329,"bbdcddc":13330,"eefbbdd":13331,"eeddff":13332,"ecdcbcc":13333,"bdccecc":13334,"efebeebe":13335,"dbcffc":13336,"defded":13337,"bbebcff":13338,"ebebbedc":13339,"bbdbcbec":13340,"dfdccc":13341,"fefeeee":13342,"edccdcc":13343,"bdfdebc":13344,"ebbeedee":13345,"edebfcc":13346,"bbbebeebc":13347,"bbbebdebb":13348,"bbfdbbf":13349,"ebdbcef":13350,"eececbf":13351,"bbbceeed":13352,"dbbeddf":13353,"acbbec":13354,"ecbcebcc":13355,"dedcdd":13356,"bddc</w>":13357,"bbbdfbf":13358,"eebcdebc":13359,"bcdcded":13360,"bded</w>":13361,"ebedebf":13362,"bbdeeef":13363,"dffebc":13364,"babbebe":13365,"efcbbbf":13366,"bbebbebbbbbb":13367,"eeccbbec":13368,"effdbc":13369,"eecbcfc":13370,"bdcbbfc":13371,"feebebd":13372,"debddec":13373,"aebfc":13374,"bbbbbebcc":13375,"eecc</w>":13376,"beeeebcc":13377,"bcbdbbec":13378,"ebbbcbbbbc":13379,"bbbbbddc":13380,"cccbecc":13381,"bbeebbbec":13382,"bebeeebd":13383,"debbebcc":13384,"bbdbdec":13385,"fddbcc":13386,"ebebcdf":13387,"acbba":13388,"acbac":13389,"fdcbef":13390,"acbbbd":13391,"bcccbef":13392,"eeeceebc":13393,"eacea":13394,"bfdea":13395,"edfebcc":13396,"efeebbbe":13397,"bbdbdbe":13398,"ebfebdc":13399,"bbebbbbebc":13400,"bcfcdee":13401,"afbcc":13402,"dceedcc":13403,"bbfbcdc":13404,"decebdc":13405,"bbbfbebf":13406,"beecbeebb":13407,"defbbcc":13408,"edeebef":13409,"edbeea":13410,"dfeced":13411,"feefebb":13412,"bbdddcc":13413,"dbecefc":13414,"bdbcbebd":13415,"ededdee":13416,"ebdecdd":13417,"ebdeddd":13418,"dbbbfa":13419,"eccceecc":13420,"dfcbfc":13421,"bfdebec":13422,"dccbcec":13423,"fbcdbbc":13424,"ecbcdebe":13425,"eedcded":13426,"aeebbc":13427,"ddbcebc":13428,"dbebded":13429,"daea":13430,"ebbbcebf":13431,"ebbbcbeee":13432,"bbbbfbbf":13433,"ddbedf":13434,"babebf":13435,"ebbcbcbe":13436,"ddcbebd":13437,"fccbeee":13438,"dcf</w>":13439,"bbbbbfbbbb":13440,"edcdbdc":13441,"bcebbbebc":13442,"bfcfef":13443,"beecdbbc":13444,"ecddbccffc":13445,"edbcbbec":13446,"abefc":13447,"bcebb</w>":13448,"eddbbebb":13449,"ddbbecc":13450,"eecfebd":13451,"bbcceeee":13452,"fddbdc":13453,"bbbbbfbf":13454,"ebeeeebc":13455,"bbbeeebbc":13456,"eedebccc":13457,"bebebdbd":13458,"bbfcdbc":13459,"bbeecdee":13460,"bdddddc":13461,"bbdebbbbbb":13462,"edcfebe":13463,"bebebdcc":13464,"bfcbebbc":13465,"fbeeba":13466,"beedbbee":13467,"fabbc":13468,"bbefebd":13469,"beedfbc":13470,"bcbfecc":13471,"bdbcbbebb":13472,"bcbbcbec":13473,"bfbcbbec":13474,
[...]
