{"<unk>":0,"<pad>":1,"a":2,"b":3,"c":4,"d":5,"e":6,"f":7,"d</w>":8,"b</w>":9,"c</w>":10,"e</w>":11,"f</w>":12,"a</w>":13,"bb":14,"be":15,"bc":16,"ee":17,"cc":18,"bd":19,"ec":20,"bf":21,"ed":22,"ebb":23,"dc":24,"bbbb":25,"ef":26,"ebe":27,"dd":28,"ebc":29,"bbc":30,"fc":31,"bec":32,"ecc":33,"ebd":34,"bcc":35,"eec":36,"bbd":37,"df":38,"bbbe":39,"bbf":40,"dbe":41,"ebf":42,"bdc":43,"edc":44,"ba":45,"ff":46,"bbbc":47,"dee":48,"ccc":49,"dbc":50,"bbee":51,"bebe":52,"bfc":53,"ebbc":54,"dbb":55,"dec":56,"dbd":57,"bef":58,"dcc":59,"ea":60,"bbbd":61,"bebc":62,"efc":63,"ded":64,"bbec":65,"fbc":66,"beee":67,"bbcc":68,"fee":69,"bbebb":70,"ebec":71,"bcbc":72,"ebcc":73,"fbe":74,"ddc":75,"dbf":76,"fec":77,"debb":78,"bbbf":79,"bbed":80,"fcc":81,"beec":82,"eeee":83,"ac":84,"bbbbc":85,"eebc":86,"bebd":87,"becc":88,"fbd":89,"def":90,"eccc":91,"ecbc":92,"ebdc":93,"fed":94,"eecc":95,"bbebe":96,"bbdc":97,"dbbc":98,"eebe":99,"debe":100,"eef":101,"ecbe":102,"debc":103,"bbef":104,"bcbe":105,"bcf":106,"eebd":107,"dfc":108,"bbdd":109,"bccc":110,"da":111,"dbbbb":112,"dbec":113,"bcbd":114,"fbf":115,"bcee":116,"beebb":117,"fdc":118,"bbbbbbbb":119,"bcec":120,"bbebc":121,"deec":122,"beed":123,"bba":124,"febb":125,"eeec":126,"bebf":127,"eba":128,"bbfc":129,"bdbd":130,"bedc":131,"cccc":132,"dbbd":133,"bbbec":134,"decc":135,"eedc":136,"ecbd":137,"ebfc":138,"debd":139,"dbcc":140,"ecf":141,"bced":142,"eeebb":143,"fef":144,"bbbcc":145,"fdd":146,"eebf":147,"ecec":148,"beebe":149,"bcbf":150,"bedd":151,"eeed":152,"bcebb":153,"bebbc":154,"ffc":155,"bebbbb":156,"bbebd":157,"dedc":158,"edcc":159,"febe":160,"beef":161,"fbbc":162,"edbd":163,"bcdc":164,"eedd":165,"bbeec":166,"ecdc":167,"dbdc":168,"dbbf":169,"dccc":170,"eeebe":171,"dbbbe":172,"bbecc":173,"fa":174,"bdcc":175,"ecbf":176,"ecee":177,"bdbc":178,"febc":179,"bac":180,"eced":181,"bcbbc":182,"bdbe":183,"bdf":184,"bfcc":185,"bea":186,"bded":187,"ecebb":188,"befc":189,"eeef":190,"bcbbbb":191,"bdbf":192,"beebc":193,"bcef":194,"bcdd":195,"dbbbc":196,"ecdd":197,"debf":198,"eac":199,"eebbc":200,"bb</w>":201,"ebbcc":202,"fbbbb":203,"bbbdc":204,"bbebf":205,"bdee":206,"bbccc":207,"ebbebb":208,"bebec":209,"bddd":210,"eddc":211,"fbec":212,"bcebe":213,"bddc":214,"efcc":215,"fecc":216,"bebbbe":217,"bdec":218,"fbcc":219,"dbbee":220,"bcfc":221,"bdebb":222,"eddd":223,"bcebc":224,"dbfc":225,"fdf":226,"bebbd":227,"eebbbb":228,"dcdc":229,"ecbbc":230,"bebcc":231,"bbedc":232,"edbf":233,"eea":234,"fbbd":235,"edbc":236,"ebecc":237,"febd":238,"debbc":239,"ebccc":240,"feec":241,"dddd":242,"bfbf":243,"bca":244,"bedf":245,"bedbe":246,"eefc":247,"defc":248,"beecc":249,"bcbec":250,"bbebbc":251,"dba":252,"eded":253,"bbba":254,"fbbf":255,"ecef":256,"fdbe":257,"ebbbbbb":258,"bebbf":259,"ebbee":260,"bdbbc":261,"bbbfc":262,"ecbec":263,"ebbbc":264,"beebd":265,"bdef":266,"bdbbbb":267,"eeebc":268,"ebbbf":269,"ecebc":270,"beeec":271,"bcbbd":272,"ecebe":273,"fccc":274,"dced":275,"ecfc":276,"fbbbe":277,"ecdf":278,"ddcc":279,"eebec":280,"fedc":281,"bcbcc":282,"ebbbd":283,"eebcc":284,"bebbee":285,"bcdf":286,"bceec":287,"bfdc":288,"dea":289,"deecc":290,"bebbbc":291,"dbbcc":292,"bfed":293,"eedbe":294,"fbdc":295,"ecbbbb":296,"ebbed":297,"dcbd":298,"bfbd":299,"eedf":300,"eca":301,"fdbc":302,"ebbbbc":303,"ecccc":304,"bfbc":305,"be</w>":306,"ebbebe":307,"eebbd":308,"beff":309,"eebbbe":310,"bd</w>":311,"febf":312,"debcc":313,"ecbcc":314,"debec":315,"bda":316,"bebdc":317,"bc</w>":318,"bdebe":319,"dcdd":320,"edbbc":321,"bedbc":322,"dcbc":323,"eebbf":324,"beccc":325,"efbf":326,"eeecc":327,"dcec":328,"acc":329,"beebf":330,"bcebd":331,"bcecc":332,"ecbbd":333,"dfcc":334,"dbecc":335,"fbbbc":336,"dcbf":337,"bdfc":338,"eebbee":339,"ebbef":340,"bbbbbbc":341,"bcbbbe":342,"bdebc":343,"dded":344,"eceec":345,"fbebe":346,"bedee":347,"fdee":348,"beedc":349,"bbefc":350,"bbea":351,"eeccc":352,"eb</w>":353,"bbbbcc":354,"efdc":355,"bfebb":356,"bbebec":357,"bcbbf":358,"bdbbd":359,"bcdbe":360,"bbcbbc":361,"fbef":362,"ececc":363,"bfef":364,"ecdbe":365,"ebdcc":366,"bdbec":367,"fbbee":368,"ebbdc":369,"ebeebe":370,"bfbbc":371,"bddf":372,"eeeec":373,"ecdee":374,"bedbb":375,"bcccc":376,"dac":377,"bffc":378,"fdcc":379,"edef":380,"eeebd":381,"edebb":382,"ffcc":383,"bcbbbc":384,"fdbd":385,"eebebe":386,"eddf":387,"bbdcc":388,"dddc":389,"bbbbebb":390,"fbfc":391,"ddbd":392,"bfec":393,"eebdc":394,"ebeebb":395,"fdbb":396,"bfdd":397,"eedbc":398,"eeff":399,"edec":400,"deccc":401,"dcef":402,"bfebe":403,"fdec":404,"bedbd":405,"bcdee":406,"edbec":407,"bbebcc":408,"edebc":409,"bfa":410,"eebeee":411,"eedee":412,"ebbec":413,"bcff":414,"dbbbbc":415,"debdc":416,"dbbbd":417,"efef":418,"bedcc":419,"edebe":420,"bbcbbbb":421,"bcdbc":422,"eda":423,"fba":424,"bebbbd":425,"fcdc":426,"eebbbc":427,"bebbebb":428,"ecebd":429,"bdeec":430,"ebbebc":431,"eeebf":432,"bedec":433,"bfbbbb":434,"bebbec":435,"ebbdd":436,"bbfcc":437,"edfc":438,"beba":439,"fbebc":440,"bbcbd":441,"febbc":442,"dcebe":443,"efdd":444,"ebba":445,"bcbdc":446,"bebfc":447,"eebef":448,"dcfc":449,"dcebc":450,"ebbbec":451,"bbac":452,"efbd":453,"fbeee":454,"eddee":455,"beebbc":456,"ee</w>":457,"bbbbbd":458,"ebebf":459,"bcbebe":460,"aa":461,"dcbbc":462,"bcedc":463,"ebbfc":464,"eddbe":465,"ecdbc":466,"eedcc":467,"bbbecc":468,"ecdec":469,"bdbcc":470,"bebbcc":471,"bbcbf":472,"ec</w>":473,"fbbbd":474,"bddbe":475,"dcebb":476,"ebfcc":477,"fefc":478,"dedcc":479,"edbcc":480,"dbbdd":481,"edee":482,"ecbbf":483,"bfebc":484,"ed</w>":485,"efebe":486,"ebbbbbe":487,"ecbbbe":488,"edbbbb":489,"fbbcc":490,"ecbdc":491,"ebebbc":492,"db</w>":493,"fbbec":494,"bbdbd":495,"dcbec":496,"dbccc":497,"fea":498,"eeedc":499,"fddc":500,"fdbf":501,"dceec":502,"bcbbee":503,"eefee":504,"bdebd":505,"befcc":506,"ecff":507,"ebac":508,"bbcebb":509,"dcccc":510,"edeec":511,"bbdbbbb":512,"bdecc":513,"fcbf":514,"bcdec":515,"ebebbbb":516,"dca":517,"efebb":518,"fded":519,"eedbd":520,"bbbccc":521,"bfbec":522,"efbbc":523,"dbbebb":524,"bcdbd":525,"dcecc":526,"effc":527,"ebebd":528,"bcebf":529,"bcbebc":530,"efed":531,"bbbebbbb":532,"efa":533,"bcbef":534,"edbbd":535,"fbecc":536,"dcdf":537,"dcee":538,"dbbbf":539,"ebbbbd":540,"bebecc":541,"ddbf":542,"dbbed":543,"bedbf":544,"eeba":545,"bcfbc":546,"fbbbf":547,"ebeef":548,"bcbbbd":549,"bdbbbe":550,"beded":551,"beea":552,"bebbbf":553,"ecbbbc":554,"ecded":555,"fcdd":556,"beddc":557,"ebedc":558,"ecedc":559,"bddee":560,"ebced":561,"bebbed":562,"bbb</w>":563,"ebcbf":564,"bbdbbc":565,"bbbbbf":566,"bcbfc":567,"eedec":568,"fbbebb":569,"ebcbbc":570,"bdbbf":571,"fcfc":572,"becbbc":573,"ebeed":574,"ebbbcc":575,"bbebdc":576,"ebedd":577,"ecdbd":578,"bf</w>":579,"bbdbf":580,"dd</w>":581,"eebebc":582,"bbbbbbbe":583,"dcbcc":584,"fbccc":585,"eebbec":586,"ebbeec":587,"bcbbec":588,"bedebb":589,"eefbe":590,"bbeecc":591,"becbf":592,"bbced":593,"ecced":594,"ecdcc":595,"bcded":596,"dbbdc":597,"bdff":598,"febcc":599,"ebcebb":600,"bcdcc":601,"bcebbc":602,"fac":603,"feecc":604,"eebbebb":605,"dda":606,"fcbbc":607,"bfbcc":608,"bddbc":609,"ddef":610,"eeebbc":611,"ecbebe":612,"ebea":613,"bdbdc":614,"ddbbc":615,"beefc":616,"ecbebc":617,"bfdf":618,"ecbef":619,"dcebd":620,"eebbbd":621,"bcbbcc":622,"edecc":623,"bbbbbbd":624,"dbbebe":625,"bbeccc":626,"ebbbbf":627,"ddebc":628,"bddbd":629,"febec":630,"fcdf":631,"bbbbbbbc":632,"bcba":633,"fdebb":634,"bebbbbc":635,"fbbed":636,"bebbebe":637,"bbbbebe":638,"ebcbec":639,"eefbc":640,"fcef":641,"ebbdf":642,"edebd":643,"eebfc":644,"bebccc":645,"ebcdc":646,"beebec":647,"fcbd":648,"eeddc":649,"bbcbec":650,"eebcbc":651,"dbdcc":652,"ebcbd":653,"ebbebd":654,"eddbc":655,"ecbfc":656,"ebcef":657,"bcfee":658,"ebbdbe":659,"ebcdd":660,"fdef":661,"bbded":662,"becbec":663,"dbbef":664,"bbcebe":665,"abf":666,"bcbeee":667,"bbcef":668,"ecebf":669,"fced":670,"ecbbec":671,"ebbbbbc":672,"ecbbee":673,"dcdbe":674,"ddebe":675,"cccccccc":676,"bfbbf":677,"debfc":678,"bdedc":679,"de</w>":680,"bcfec":681,"eeea":682,"edccc":683,"eebbcc":684,"dddf":685,"ebcebc":686,"beebcc":687,"beac":688,"bfecc":689,"ddfc":690,"dcbbbb":691,"bdbbbc":692,"bbbbbbbbbbbb":693,"dcbbd":694,"ddeec":695,"eedbf":696,"dbba":697,"bcced":698,"bcbbebb":699,"ddebb":700,"bcfbe":701,"dbbfc":702,"dc</w>":703,"bccbbc":704,"ddbec":705,"ecfbc":706,"ecbeec":707,"bbdebb":708,"bdccc":709,"dfdc":710,"aed":711,"ecebbc":712,"feccc":713,"bcfcc":714,"ebebec":715,"ecbcbc":716,"bcefc":717,"eecbf":718,"ebefc":719,"bbcdc":720,"ebbecc":721,"bdbebe":722,"ebbbebe":723,"eddec":724,"bbcfc":725,"bcbeec":726,"dbbbec":727,"efdf":728,"ebebbbe":729,"efbcc":730,"ebceec":731,"ebb</w>":732,"bfff":733,"defcc":734,"bedbbc":735,"ebcbbbb":736,"eeded":737,"bceebc":738,"bbcccc":739,"efbec":740,"bfdbe":741,"bbcdd":742,"bfbbd":743,"bfebd":744,"abd":745,"bfbbbe":746,"ebcfc":747,"edbdc":748,"eecdc":749,"fcccc":750,"bbcbcc":751,"fdbbc":752,"ecba":753,"fbbef":754,"ecbbbd":755,"eebeec":756,"adc":757,"eecbec":758,"bbbcbbbb":759,"edbbf":760,"ebebcc":761,"ddecc":762,"bebbef":763,"bcdebb":764,"bcdbf":765,"fbbdc":766,"bcbbed":767,"dcdee":768,"beeecc":769,"efbbbb":770,"ebcdf":771,"abbc":772,"bcbccc":773,"bebbdc":774,"eebbed":775,"add":776,"bcbebd":777,"fcbec":778,"fbbbbc":779,"eecdf":780,"edff":781,"ebcebe":782,"fda":783,"eeeecc":784,"deba":785,"edbbbe":786,"aef":787,"bedef":788,"bacc":789,"ecfec":790,"bddec":791,"bbebfc":792,"ddbbbb":793,"bbddc":794,"dbbebc":795,"bbeba":796,"bfeec":797,"becebb":798,"becdc":799,"bcfbd":800,"afc":801,"bbbbbbbbbbbbbbbb":802,"eacc":803,"bcbbbbc":804,"efebc":805,"fdfc":806,"bdbbbd":807,"bcbbbf":808,"dbfcc":809,"bbcebc":810,"bbcbbd":811,"eebbbf":812,"bdbbee":813,"ebbff":814,"dbbebd":815,"fedcc":816,"bcddc":817,"ecceec":818,"fbbebe":819,"bedebe":820,"aebe":821,"dbedc":822,"bcebec":823,"eebbebe":824,"ecfee":825,"bbbeebb":826,"dbbbcc":827,"dffc":828,"bccccc":829,"abbbb":830,"bcbecc":831,"eefcc":832,"dfed":833,"eebccc":834,"ecbecc":835,"bdebf":836,"dcedc":837,"ebddd":838,"bbdebe":839,"bbfbf":840,"ecdebb":841,"ebbbbee":842,"ecddc":843,"cccccc":844,"ebded":845,"bccbf":846,"bbdef":847,"fdebe":848,"deedc":849,"bbbebbc":850,"eebebd":851,"efdbe":852,"ebeebc":853,"eecdd":854,"ebebebe":855,"bebbebc":856,"aebb":857,"eecbbc":858,"bbbbbec":859,"febdc":860,"ecbbcc":861,"bbdbbd":862,"dfdd":863,"eebecc":864,"bdbef":865,"bccbcc":866,"efff":867,"bedbbbb":868,"eedebb":869,"dcff":870,"eddbd":871,"efecc":872,"ecefc":873,"ededc":874,"fcebe":875,"ecbeee":876,"efbbf":877,"dfbf":878,"ecfcc":879,"bcdbb":880,"bdbebc":881,"eefec":882,"ebdbf":883,"bcea":884,"eedbb":885,"fdebc":886,"ecbccc":887,"dddbe":888,"bedebc":889,"bbdbec":890,"fcbcc":891,"eccbec":892,"eefbd":893,"ecdbf":894,"ef</w>":895,"ecbebd":896,"bdfbc":897,"dcdbc":898,"edded":899,"dcbdc":900,"bbbdcc":901,"bceebe":902,"ddbcc":903,"fcebb":904,"bbcbbbe":905,"eeefc":906,"ebebbf":907,"bcebcc":908,"eccecc":909,"ebcbcc":910,"bbbbbbf":911,"bdded":912,"fca":913,"ecfbe":914,"bdbfc":915,"ecbbed":916,"ddebd":917,"bbceec":918,"bbbbed":919,"bddcc":920,"ebbebf":921,"bcfed":922,"fcebc":923,"bbbebf":924,"fbdcc":925,"dcdec":926,"bebbdd":927,"bcecbc":928,"bbbbbcc":929,"bedbec":930,"ebbdbc":931,"bcdef":932,"ecbbebb":933,"bbbbdd":934,"beced":935,"bceeee":936,"bebba":937,"eebbef":938,"fcdbe":939,"ecdef":940,"bcecbe":941,"eeebcc":942,"bbca":943,"bceecc":944,"bbcbbf":945,"eeebec":946,"ebbbdc":947,"ebbccc":948,"eccef":949,"debbcc":950,"bebbbec":951,"becebc":952,"eeac":953,"becdd":954,"eceebc":955,"becebe":956,"fbbdd":957,"efccc":958,"bceef":959,"bfccc":960,"bcdebe":961,"bceebd":962,"bbd</w>":963,"bbbeebe":964,"dbac":965,"bfbdc":966,"becbbbb":967,"beeccc":968,"dbedd":969,"ecebcc":970,"ebddc":971,"bfebf":972,"bbcbbbc":973,"eeecbc":974,"eddcc":975,"ecebec":976,"becef":977,"bbcdf":978,"bbbbbbbd":979,"bdba":980,"bbdebc":981,"ffdc":982,"bfbbbc":983,"bcac":984,"bbcdbe":985,"bedfc":986,"bbda":987,"ebebbee":988,"dbbeec":989,"beda":990,"bbbebbbe":991,"fbbfc":992,"becdf":993,"eccebc":994,"ebbdee":995,"deac":996,"edbebe":997,"bfbebe":998,"eccdc":999,"bbdfc":1000,"becccc":1001,"bccef":1002,"bccebe":1003,"eedbbc":1004,"becbd":1005,"bfedc":1006,"eecccc":1007,"bbbbebc":1008,"ebbbbbd":1009,"edbbbc":1010,"fdbec":1011,"ebbedc":1012,"deedd":1013,"bbcebd":1014,"dcbbf":1015,"bcbbdc":1016,"eebbbbc":1017,"edbef":1018,"ebedf":1019,"eedef":1020,"bfdbc":1021,"dcdcc":1022,"ebbbef":1023,"becfc":1024,"dddbd":1025,"ebdef":1026,"bbbbef":1027,"beebdc":1028,"bebbfc":1029,"bbc</w>":1030,"bdbbec":1031,"bdebbc":1032,"ebca":1033,"ecfbd":1034,"bebdcc":1035,"dfa":1036,"fdbbbb":1037,"eccfc":1038,"eecef":1039,"becbcc":1040,"bbebbcc":1041,"bbbba":1042,"bcdbbc":1043,"dddbc":1044,"eceecc":1045,"ecfed":1046,"ddedc":1047,"fbbebc":1048,"ddbbd":1049,"debecc":1050,"ebbbebc":1051,"dfef":1052,"bccfc":1053,"ebcebd":1054,"bbe</w>":1055,"eccbf":1056,"dbeed":1057,"fbba":1058,"bbbfcc":1059,"dbebf":1060,"bbebbbbbb":1061,"bccbd":1062,"bccdc":1063,"ececbc":1064,"ebebbd":1065,"eebbdc":1066,"edbbec":1067,"dfbd":1068,"ebcecc":1069,"eecbd":1070,"bccbec":1071,"bcbbebe":1072,"bbfbbbb":1073,"ddbdc":1074,"ffbf":1075,"ebbbeee":1076,"bbbcbbc":1077,"ecea":1078,"dcdbd":1079,"bcceec":1080,"ebddf":1081,"ebdbd":1082,"bbfef":1083,"ecdebc":1084,"ebeecc":1085,"edbebc":1086,"edbbee":1087,"ebedbe":1088,"bfdee":1089,"bccebc":1090,"ebdbbc":1091,"bccebb":1092,"ecdeec":1093,"ebebeee":1094,"bfbbee":1095,"beceec":1096,"bbdeec":1097,"fceec":1098,"eeecbe":1099,"bccdd":1100,"ebe</w>":1101,"bedbbd":1102,"bbfbbc":1103,"ebdebb":1104,"bbbac":1105,"ffdd":1106,"bbbb</w>":1107,"fcdee":1108,"eedbec":1109,"fbbbec":1110,"ebdbec":1111,"edebf":1112,"bbedcc":1113,"ffef":1114,"dfbbc":1115,"bdfee":1116,"eccbbc":1117,"bbbbdc":1118,"bcdebc":1119,"bedeec":1120,"eccdd":1121,"ecbbbf":1122,"bcbbdd":1123,"eebba":1124,"fdbcc":1125,"beca":1126,"ebbbbebb":1127,"ebeeec":1128,"ebdeec":1129,"fdbbd":1130,"ecdbb":1131,"eccbd":1132,"ebbebbc":1133,"bbbbfc":1134,"bfbef":1135,"bcbbef":1136,"dbebd":1137,"fbfcc":1138,"ebeff":1139,"efeec":1140,"bbdbbbe":1141,"eccccc":1142,"efbbbe":1143,"ebdebc":1144,"eccebb":1145,"bcdfc":1146,"edced":1147,"dddee":1148,"dbebbc":1149,"ebebbbc":1150,"ecdbec":1151,"bdddc":1152,"ebeebf":1153,"bccbbbb":1154,"bbfebb":1155,"fffc":1156,"dcbbbe":1157,"bdbeee":1158,"efbdc":1159,"eeeccc":1160,"dcded":1161,"bebebbbb":1162,"ddccc":1163,"edbfc":1164,"eeceec":1165,"ebd</w>":1166,"dfebc":1167,"bbbdbbbb":1168,"bcdbbbb":1169,"aebc":1170,"dbbbdc":1171,"ebbdec":1172,"fdeec":1173,"ecdfc":1174,"eccedc":1175,"ebc</w>":1176,"bebbbbbbbb":1177,"debccc":1178,"ebebdc":1179,"ebdbbbb":1180,"ebeccc":1181,"becdbe":1182,"eeda":1183,"dbb</w>":1184,"ebbdbd":1185,"bbffc":1186,"bdfbe":1187,"bedbcc":1188,"edddc":1189,"efbbee":1190,"efebf":1191,"ebeeeee":1192,"ebda":1193,"efbbd":1194,"ecca":1195,"efbebe":1196,"ebcbbd":1197,"ecdbbc":1198,"ecdebe":1199,"ebdfc":1200,"bffbc":1201,"bdbcbc":1202,"dbddd":1203,"bebbbcc":1204,"ebbfee":1205,"dcebf":1206,"ecbbdc":1207,"ebcdbe":1208,"ebcccc":1209,"bfbfc":1210,"edbeec":1211,"fdecc":1212,"eeca":1213,"edfbc":1214,"bceccc":1215,"efdbc":1216,"ebbbbec":1217,"bdfec":1218,"bbfdc":1219,"bebbeec":1220,"efdee":1221,"fcbbbb":1222,"ebcbbbe":1223,"ebeebd":1224,"eebbebc":1225,"ebebef":1226,"bddebb":1227,"baa":1228,"ecbbbbc":1229,"edceec":1230,"bdefc":1231,"bbfa":1232,"eebdcc":1233,"efebd":1234,"fbebf":1235,"ebbeeee":1236,"fcff":1237,"bdbbcc":1238,"bcbcbcbc":1239,"bbcdee":1240,"ddff":1241,"bcca":1242,"bdbeec":1243,"eedebc":1244,"fdebd":1245,"bbcbdc":1246,"edba":1247,"dbefc":1248,"ebbfbc":1249,"bbcdbc":1250,"eedebe":1251,"eccebe":1252,"bbeebbbb":1253,"bcebdc":1254,"becdee":1255,"eccdf":1256,"ecac":1257,"decdc":1258,"bedebd":1259,"ebbba":1260,"bebbebd":1261,"ececcc":1262,"ffa":1263,"eceeec":1264,"ebbbfc":1265,"edbbbd":1266,"efbef":1267,"bddbf":1268,"bcbbebc":1269,"bcdbec":1270,"fbbbcc":1271,"eefed":1272,"bbcbebe":1273,"bbdbcc":1274,"eceeee":1275,"beeba":1276,"eecebc":1277,"bbfed":1278,"eebbdd":1279,"bbbcbf":1280,"adf":1281,"beb</w>":1282,"eceef":1283,"bbbbdbe":1284,"dbbecc":1285,"ecdecc":1286,"eddef":1287,"ecda":1288,"dddec":1289,"feba":1290,"bbbcbbbc":1291,"df</w>":1292,"eceebd":1293,"eedbbbb":1294,"dbbccc":1295,"bbdebd":1296,"ebfbf":1297,"bbbbcbbbb":1298,"effee":1299,"bbdbbf":1300,"edebbc":1301,"ececbe":1302,"bcbbfc":1303,"befbf":1304,"edcdc":1305,"bcda":1306,"ebcdee":1307,"bbebecc":1308,"ebedbc":1309,"ffff":1310,"eecfc":1311,"fb</w>":1312,"bcdeec":1313,"bbcecc":1314,"dddcc":1315,"eddbf":1316,"bdbebd":1317,"bbbbbebe":1318,"edfee":1319,"eceedc":1320,"edcef":1321,"ebcbbf":1322,"febfc":1323,"ecfdc":1324,"bdbbebb":1325,"eeebdc":1326,"dfbec":1327,"fdbbf":1328,"bbbbbbebb":1329,"bdcdc":1330,"bdeebc":1331,"bbbebec":1332,"fcecc":1333,"bdfcc":1334,"bdfbd":1335,"bbeebf":1336,"eedfc":1337,"eeced":1338,"febbcc":1339,"dfecc":1340,"bbbedc":1341,"beedcc":1342,"bbcff":1343,"dfebe":1344,"abec":1345,"ebdebe":1346,"eecebb":1347,"eddebb":1348,"eebeebe":1349,"bedecc":1350,"eecbcc":1351,"deebf":1352,"bebebf":1353,"eccbcc":1354,"bebebbc":1355,"edbeee":1356,"ddddc":1357,"dbcdc":1358,"fcbbf":1359,"ecebdc":1360,"bebfcc":1361,"edcbec":1362,"dfbcc":1363,"bbeeebe":1364,"bbdbbbc":1365,"bdcbf":1366,"bdcdd":1367,"fcdbc":1368,"dbebbbb":1369,"eebbfc":1370,"edcdd":1371,"dcfbc":1372,"dbebec":1373,"bbeeebb":1374,"fdccc":1375,"dfebb":1376,"eeeeeeee":1377,"eecbbbb":1378,"bcbbbec":1379,"eceebe":1380,"dcbbbc":1381,"bdbbed":1382,"eedeec":1383,"eecdec":1384,"ebcdbc":1385,"bbfebe":1386,"bdced":1387,"ebcdec":1388,"abcc":1389,"dacc":1390,"bbfdd":1391,"bcbbbbbbbb":1392,"bbbedd":1393,"bbbcebb":1394,"fcbbd":1395,"becebd":1396,"dbeebb":1397,"bfdbd":1398,"becbbd":1399,"bbbebebe":1400,"ecbbdd":1401,"dfdf":1402,"bebbecc":1403,"ebcff":1404,"bdcef":1405,"bfdec":1406,"dbeebe":1407,"ebcedc":1408,"dcbfc":1409,"dbea":1410,"efbeee":1411,"edefc":1412,"eccebd":1413,"fbbeec":1414,"bedbbbe":1415,"efbbbc":1416,"fcebd":1417,"dcddc":1418,"bffee":1419,"eecdee":1420,"dcbebe":1421,"bbefcc":1422,"edfec":1423,"ebbbbcc":1424,"bddbb":1425,"bedbbf":1426,"bbcdbf":1427,"bdea":1428,"bfbebc":1429,"bdcebe":1430,"ecfbf":1431,"bcbdcc":1432,"bdebec":1433,"bbfbbf":1434,"eecdbe":1435,"bcdbbd":1436,"eecebe":1437,"bdbecc":1438,"eebbbec":1439,"ffbbc":1440,"bbbeef":1441,"dcfec":1442,"ebbfbe":1443,"bcbbbcc":1444,"bdcbbc":1445,"eeeba":1446,"bbeac":1447,"bbbbbbee":1448,"dbeef":1449,"fefcc":1450,"dbcdd":1451,"bbdbbbd":1452,"bbbeed":1453,"dcbef":1454,"bcbba":1455,"eedbcc":1456,"edcdf":1457,"ebcbbbc":1458,"beebfc":1459,"bebeebe":1460,"dbbebf":1461,"bbbbbbbbc":1462,"ecbbebe":1463,"bbbebbbc":1464,"bccdf":1465,"fdbdc":1466,"bbcbbee":1467,"bfdcc":1468,"ecbbebc":1469,"fe</w>":1470,"eecebd":1471,"ebbbcbc":1472,"bbbea":1473,"fcbdc":1474,"fcdec":1475,"ebfef":1476,"ebefee":1477,"bccecc":1478,"bccebd":1479,"deddd":1480,"dbcbbc":1481,"bfba":1482,"ecdedc":1483,"bbbbebd":1484,"bcdebd":1485,"edcebc":1486,"eedbbd":1487,"fbeef":1488,"bebebebe":1489,"fbbebd":1490,"adbe":1491,"bececc":1492,"bbdbdc":1493,"ebbbbbf":1494,"edbecc":1495,"becdbc":1496,"aff":1497,"bdbcbe":1498,"bddef":1499,"ecdebd":1500,"ecfebb":1501,"decccc":1502,"edbbcc":1503,"dcefc":1504,"eecdbc":1505,"ebfbbc":1506,"bdbbbf":1507,"edcbf":1508,"fbebbc":1509,"edbbebb":1510,"deebbc":1511,"bbbebbf":1512,"ebcbdc":1513,"dfdbe":1514,"ececbd":1515,"bbbddd":1516,"fbbecc":1517,"edbcbc":1518,"becdec":1519,"bbdff":1520,"bfbeee":1521,"dcbbee":1522,"efdcc":1523,"efedc":1524,"bfebbc":1525,"bcb</w>":1526,"bddbbbb":1527,"bebeebb":1528,"becbbbe":1529,"aba":1530,"dbedbe":1531,"bbebccc":1532,"ebdebd":1533,"bbeebbc":1534,"ebbded":1535,"bdbcf":1536,"ecbbef":1537,"bcedcc":1538,"bffbe":1539,"ebcbebe":1540,"bcdbcc":1541,"dfccc":1542,"dcbebc":1543,"ecbdbd":1544,"ebbdcc":1545,"bddebe":1546,"beebbcc":1547,"becbbf":1548,"ddded":1549,"edcebe":1550,"aecc":1551,"ddbbf":1552,"abbd":1553,"bdeebe":1554,"abbf":1555,"edcfc":1556,"bbbeebc":1557,"becff":1558,"bffcc":1559,"bbbebbee":1560,"bbcbbbd":1561,"bedccc":1562,"edfbe":1563,"bbbebbd":1564,"bddbbc":1565,"bfbbec":1566,"ebffc":1567,"befdc":1568,"fdbbbe":1569,"bdac":1570,"bdcfc":1571,"befef":1572,"ebddbe":1573,"bfbbbd":1574,"dbced":1575,"ececf":1576,"becbbbc":1577,"bdbbbbc":1578,"eecbbd":1579,"decdd":1580,"bbcdbd":1581,"bdbcbd":1582,"ebbeebc":1583,"bdbbdd":1584,"bdcebc":1585,"ebfa":1586,"bdebcc":1587,"ecbbfc":1588,"bccbbd":1589,"ebfdc":1590,"ebebebc":1591,"eddebe":1592,"ebbfec":1593,"ebbdebb":1594,"edbbed":1595,"ebbbbbbc":1596,"bbbefc":1597,"bcdecc":1598,"eececc":1599,"dbddc":1600,"ebcbebc":1601,"bbcbebc":1602,"edbebd":1603,"eeedcc":1604,"ebfebe":1605,"befdd":1606,"eecff":1607,"bbcdec":1608,"bdbcee":1609,"ebbbebd":1610,"ebbeebe":1611,"bdcbec":1612,"deddc":1613,"dbbedc":1614,"bedbdc":1615,"fbeebe":1616,"dbcbf":1617,"ecbedc":1618,"ccccccc":1619,"bdfed":1620,"bbdbebe":1621,"effbc":1622,"ebdecc":1623,"ecbdcc":1624,"dbcfc":1625,"ebedee":1626,"bebbebf":1627,"bdceec":1628,"accc":1629,"bdeef":1630,"bccdbe":1631,"dbbbbbbbb":1632,"edcecc":1633,"dbcef":1634,"eedebd":1635,"edfcc":1636,"fc</w>":1637,"ddfbc":1638,"bfbcbc":1639,"dcfee":1640,"dfff":1641,"ebbcbbbb":1642,"bbdecc":1643,"ebbcbbc":1644,"bdeeee":1645,"dfebd":1646,"dbcbbbb":1647,"ebfbbbb":1648,"dcfcc":1649,"fdedc":1650,"becbbec":1651,"bdbbdc":1652,"aebd":1653,"bccff":1654,"ebbea":1655,"deefc":1656,"aeec":1657,"bbbcebe":1658,"abbbe":1659,"efdbd":1660,"ecdbcc":1661,"bbcbef":1662,"dfbbbb":1663,"bbfbec":1664,"bbfebc":1665,"efba":1666,"eebbbcc":1667,"bfcbf":1668,"ebeedc":1669,"bdeecc":1670,"edeebc":1671,"ddbbbe":1672,"dfeec":1673,"deeccc":1674,"ebbbeebb":1675,"ebcded":1676,"eebbeec":1677,"ecdbbbb":1678,"efdec":1679,"bbcebf":1680,"bfbbcc":1681,"bbdbbee":1682,"ffebe":1683,"efbfc":1684,"dfedc":1685,"bdecbc":1686,"fbac":1687,"bedbbbc":1688,"bcbfcc":1689,"befebe":1690,"eceedd":1691,"dccccc":1692,"dbeebc":1693,"ebbefc":1694,"eccdec":1695,"bbbebcc":1696,"ffccc":1697,"fbedc":1698,"eeb</w>":1699,"bcffc":1700,"ebddee":1701,"ebbbbed":1702,"bbcbfc":1703,"eedecc":1704,"eedccc":1705,"ebbbeec":1706,"fbebbbb":1707,"dfdbc":1708,"deb</w>":1709,"bbdccc":1710,"eebeef":1711,"beeeebe":1712,"bdfdc":1713,"dbebcc":1714,"ebdbcc":1715,"fcbbbc":1716,"eccbbbb":1717,"bdbeed":1718,"dfbdc":1719,"bbeebbee":1720,"eecded":1721,"dcebbc":1722,"befbbc":1723,"babbbb":1724,"bee</w>":1725,"bdecbe":1726,"ecbbbec":1727,"becbdc":1728,"dbbdcc":1729,"bdeebd":1730,"eebbecc":1731,"fd</w>":1732,"eefbf":1733,"bdbcec":1734,"dcbbbd":1735,"edea":1736,"bbcbbec":1737,"debdcc":1738,"bccdee":1739,"eceeed":1740,"fdebf":1741,"bdcbbbb":1742,"bbbedbe":1743,"ddebf":1744,"befa":1745,"bccbbf":1746,"edebcc":1747,"eebfcc":1748,"edca":1749,"bbbcbec":1750,"edbcec":1751,"bbddcc":1752,"dbcebe":1753,"edfbd":1754,"bdfbf":1755,"dbbebbc":1756,"ebbbcbe":1757,"edebec":1758,"efebbc":1759,"bcbbebd":1760,"bbfff":1761,"eeeeebe":1762,"eebebf":1763,"bcfdc":1764,"bbcfbc":1765,"dbd</w>":1766,"dbbbfc":1767,"bbcbcbc":1768,"fddcc":1769,"ebbebec":1770,"bdbdcc":1771,"eebbebd":1772,"ebdbbd":1773,"dfbbd":1774,"bbcedc":1775,"bccbbbc":1776,"dbbba":1777,"ddbbbc":1778,"dcbbec":1779,"fbbebf":1780,"bebbbdc":1781,"eccff":1782,"bccbdc":1783,"ddbebe":1784,"bbbbccc":1785,"becbebc":1786,"bffec":1787,"fdbbbc":1788,"bcebbcc":1789,"fcdcc":1790,"ecdbbd":1791,"ebbbbebe":1792,"bcebfc":1793,"eddebc":1794,"bfdbf":1795,"eefef":1796,"ebbbecc":1797,"bddebc":1798,"eefebe":1799,"eaa":1800,"ebcebbc":1801,"bffbd":1802,"bbfbbbe":1803,"ddbbbd":1804,"feac":1805,"bdbeebb":1806,"dbedf":1807,"bfefc":1808,"ebcbbee":1809,"bccedc":1810,"beffc":1811,"bbcebbc":1812,"eebebbbb":1813,"fbefc":1814,"bdeeec":1815,"abbbc":1816,"decbec":1817,"dbeecc":1818,"ebcebf":1819,"ebcbfc":1820,"dccdc":1821,"fbbccc":1822,"edbeed":1823,"eecbdc":1824,"bebebbbe":1825,"deeebe":1826,"ebdccc":1827,"bcdedc":1828,"dccdd":1829,"dbc</w>":1830,"abba":1831,"bdbccc":1832,"bbeebbbe":1833,"ebdff":1834,"bcfdd":1835,"adbc":1836,"ebbdbf":1837,"facc":1838,"ebcdbd":1839,"ebddbc":1840,"bbbbeec":1841,"fcded":1842,"bcbbeec":1843,"dbe</w>":1844,"dfbbf":1845,"bbdedc":1846,"dcbcbc":1847,"bebeef":1848,"ebeba":1849,"fcfbc":1850,"febccc":1851,"ebddec":1852,"beeebbbb":1853,"bddfc":1854,"bccbbbe":1855,"bccdbc":1856,"abdc":1857,"ecbedd":1858,"bededc":1859,"adee":1860,"eddeec":1861,"fcdbd":1862,"bbcbbcc":1863,"dcbeec":1864,"bbbcbbbe":1865,"edeecc":1866,"feebf":1867,"edcbbc":1868,"ebbfbd":1869,"bebbccc":1870,"eccdbe":1871,"bbbbbdc":1872,"bbdbebc":1873,"bbbbbebc":1874,"dbbbbcc":1875,"bbbdbbc":1876,"efbebc":1877,"fcbef":1878,"ddcdd":1879,"bebbedc":1880,"bbacc":1881,"edcdec":1882,"eccbdc":1883,"edfed":1884,"bcdbbbe":1885,"bdfebb":1886,"fbedd":1887,"deebec":1888,"fbbbdc":1889,"fcbfc":1890,"bdda":1891,"dbeccc":1892,"ebfdd":1893,"febecc":1894,"dbdbf":1895,"bbfdf":1896,"bcfbf":1897,"bbbbdbc":1898,"ba</w>":1899,"bcbedc":1900,"ecbfcc":1901,"eeebbcc":1902,"ebbfcc":1903,"efeeee":1904,"fcbbbe":1905,"ebbebcc":1906,"ebebfc":1907,"ebcfbc":1908,"bebac":1909,"bec</w>":1910,"decbbc":1911,"eefa":1912,"bbbcdd":1913,"bcdbbf":1914,"bdbedc":1915,"bbfbcc":1916,"bcbedd":1917,"bed</w>":1918,"fcebf":1919,"edeeee":1920,"eddfc":1921,"ebdedc":1922,"ebebbbd":1923,"bbbfbbbb":1924,"becbebe":1925,"bdbebf":1926,"becded":1927,"efea":1928,"bfbbebb":1929,"eddbec":1930,"bbeedd":1931,"bedbbee":1932,"ffdf":1933,"bbeedc":1934,"bbecbbc":1935,"deea":1936,"bbdebf":1937,"bebbebbc":1938,"bbbbdbd":1939,"bfded":1940,"ebebbebb":1941,"eebeebb":1942,"eddbbc":1943,"bcdbdc":1944,"bedebf":1945,"beebecc":1946,"bcbbecc":1947,"bbfdbe":1948,"ecedcc":1949,"ebcbef":1950,"deedbe":1951,"cccdc":1952,"eebea":1953,"eedbdc":1954,"edbedc":1955,"ecbba":1956,"edbcf":1957,"ecbbecc":1958,"eedbbbe":1959,"dcba":1960,"bbbbbbec":1961,"dbcbec":1962,"effcc":1963,"fcbebc":1964,"ecdbdc":1965,"bcbebbc":1966,"eecbbbc":1967,"eecbebc":1968,"fbea":1969,"eceeebb":1970,"edda":1971,"ebeebbc":1972,"cccdd":1973,"efbbec":1974,"edecbc":1975,"bfbbbf":1976,"ebdbbbe":1977,"ebebbec":1978,"dffbc":1979,"ebcfec":1980,"ffbcc":1981,"ebdbbf":1982,"ebddbd":1983,"dfdbd":1984,"ebefbc":1985,"bddbbd":1986,"ebdbdc":1987,"dcbeee":1988,"bbeeef":1989,"ebedbd":1990,"bdb</w>":1991,"eedbbf":1992,"dbceec":1993,"ebedec":1994,"eebbebf":1995,"befbbbb":1996,"eccdee":1997,"ecdccc":1998,"fcedc":1999,"bcbebbbb":2000,"ebbfebb":2001,"dfdcc":2002,"bbbd</w>":2003,"edbdcc":2004,"bbeea":2005,"bfea":2006,"bbbebbebb":2007,"becdbd":2008,"bcccccc":2009,"edbbbf":2010,"bdbbebe":2011,"bfcbbc":2012,"dcfbd":2013,"deebcc":2014,"bbbcbbd":2015,"ecbbbcc":2016,"eecdbd":2017,"eccbbd":2018,"beefcc":2019,"dceebc":2020,"bdca":2021,"dbebbd":2022,"eecbbf":2023,"bddbec":2024,"fdbfc":2025,"feeebe":2026,"eebebbc":2027,"ebbbcf":2028,"dbcebc":2029,"bbbcef":2030,"edac":2031,"edbcee":2032,"ecebbcc":2033,"ebebcbc":2034,"bbbcebc":2035,"efcdf":2036,"dceecc":2037,"eddbb":2038,"bcc</w>":2039,"ebebbcc":2040,"bddeec":2041,"beeebf":2042,"becebbc":2043,"ebedcc":2044,"ebfebb":2045,"ebdbebe":2046,"bbbbbbcc":2047,"ddbfc":2048,"fbebcc":2049,"dfdee":2050,"dbebbbe":2051,"bcbebf":2052,"bebcbbc":2053,"ebcdcc":2054,"bdcebb":2055,"efcbf":2056,"fbcbf":2057,"dcebec":2058,"ebf</w>":2059,"dcdbf":2060,"aebf":2061,"fdbbee":2062,"decbf":2063,"bbbbdf":2064,"edcdee":2065,"ebcbbec":2066,"eccdbc":2067,"dbdbbc":2068,"ecebfc":2069,"bbbcbcc":2070,"bfcfc":2071,"bbfbbd":2072,"bcdccc":2073,"eecbbbe":2074,"bbbbebf":2075,"efddc":2076,"ebcbbbd":2077,"ebbddc":2078,"bbbcfc":2079,"feedd":2080,"ebbcbf":2081,"bbdfbc":2082,"beddcc":2083,"fbbbbbbbb":2084,"badd":2085,"bdbbef":2086,"ecbbeec":2087,"edbcbe":2088,"bbf</w>":2089,"edbcbd":2090,"efbcbc":2091,"effbe":2092,"edbeebb":2093,"eccfec":2094,"becbfc":2095,"ecb</w>":2096,"ebbbcbd":2097,"babbc":2098,"edbbdc":2099,"eccded":2100,"ebbecbc":2101,"edcedc":2102,"ebdbebc":2103,"bbbcdc":2104,"bcfbbc":2105,"dbebbf":2106,"dccfc":2107,"ebcbcbc":2108,"eceebf":2109,"ffbbf":2110,"ebbeef":2111,"bebebec":2112,"bccdec":2113,"bcfef":2114,"eeebfc":2115,"bebea":2116,"fcbbec":2117,"bdcdf":2118,"dcceec":2119,"edbccc":2120,"dedbbc":2121,"babf":2122,"dbeeec":2123,"dbedee":2124,"ecbbebd":2125,"becfbc":2126,"feedc":2127,"bbbbebbc":2128,"ecbebbc":2129,"bebbba":2130,"bedbfc":2131,"bbbbbcbc":2132,"ccccc":2133,"bbbbdee":2134,"bbbdbf":2135,"bbccbbc":2136,"bbebbbbc":2137,"ebbbebf":2138,"ebbeecc":2139,"bdebdc":2140,"fbebec":2141,"bebedc":2142,"bbbbbbbf":2143,"edcebd":2144,"bbdbbec":2145,"efdbf":2146,"bbbbff":2147,"dbca":2148,"bbeebbf":2149,"eccbbf":2150,"ebfbec":2151,"bbbbbef":2152,"ebceebc":2153,"deedf":2154,"eadd":2155,"edcbcc":2156,"dcdebb":2157,"eefdd":2158,"bcbbccc":2159,"cccfc":2160,"fbbedc":2161,"bedebbc":2162,"ebbeebd":2163,"becbef":2164,"dbeebd":2165,"eededc":2166,"ebbbbbbbbbb":2167,"bdcebd":2168,"bcefcc":2169,"bebedd":2170,"dbcdbc":2171,"dcfed":2172,"bbdbef":2173,"bbbc</w>":2174,"eecdcc":2175,"bdcbcc":2176,"ecedbd":2177,"fecdd":2178,"bbdbfc":2179,"beeebeee":2180,"bfddc":2181,"decdf":2182,"edfdc":2183,"efbbbd":2184,"ebbfed":2185,"aea":2186,"dee</w>":2187,"eebebbbe":2188,"bebcbec":2189,"dbcdf":2190,"bcdebf":2191,"bdcdbe":2192,"bcebecc":2193,"bbbbecc":2194,"decfc":2195,"ebbbcee":2196,"bceba":2197,"bbfbbbc":2198,"bbbbcbbc":2199,"feeef":2200,"eed</w>":2201,"bebefc":2202,"dcbbcc":2203,"ffed":2204,"ecceecc":2205,"becebf":2206,"eefbbc":2207,"bebcbf":2208,"decdee":2209,"bdbced":2210,"fbcbbc":2211,"bbdebbc":2212,"ebbeeebb":2213,"efbbcc":2214,"eeddcc":2215,"fbebbbe":2216,"adbd":2217,"ebdded":2218,"aedc":2219,"bebebcc":2220,"bdfdd":2221,"dcbecc":2222,"beeebbc":2223,"ffdbe":2224,"efefc":2225,"decebc":2226,"fdebbc":2227,"bbbbba":2228,"fbbbfc":2229,"ecbeecc":2230,"bfbeec":2231,"dcfbe":2232,"bccebf":2233,"abbee":2234,"ebbbbdc":2235,"becbbee":2236,"fcfee":2237,"ded</w>":2238,"ebbcebc":2239,"ebbbebbbb":2240,"dcebcc":2241,"bdeedc":2242,"dcbebd":2243,"bdecf":2244,"dfebf":2245,"bbeb</w>":2246,"bedefc":2247,"bdeccc":2248,"ebeea":2249,"efded":2250,"ffebc":2251,"bebbbfc":2252,"bbbdbbbd":2253,"bebcbbbb":2254,"fdba":2255,"becedc":2256,"ddbbee":2257,"dbcccc":2258,"fbcfc":2259,"ddfec":2260,"dbdbbbb":2261,"edeebd":2262,"beeebbbe":2263,"bebebbf":2264,"ebbbcec":2265,"beacc":2266,"bdcdee":2267,"bfac":2268,"bdfef":2269,"bbcded":2270,"eecedc":2271,"dec</w>":2272,"bcdbbbc":2273,"eec</w>":2274,"dfbbbe":2275,"bdcecc":2276,"bebebbee":2277,"ebcefc":2278,"fbebbf":2279,"beebccc":2280,"dbbfcc":2281,"bcbefc":2282,"eddecc":2283,"bedba":2284,"ebbdbbc":2285,"bbebbbbbe":2286,"ebbfbf":2287,"eecbfc":2288,"becdcc":2289,"bfbcf":2290,"ebdbbbc":2291,"becbeec":2292,"ddbef":2293,"ecbeebc":2294,"bbdba":2295,"ebbcebe":2296,"eedbbbc":2297,"bccbfc":2298,"ecffc":2299,"bceedd":2300,"bbecbf":2301,"fecccc":2302,"eefdc":2303,"bebeebc":2304,"eeeebeee":2305,"bbdbbcc":2306,"bdbebbc":2307,"abef":2308,"dbddbd":2309,"effec":2310,"ebbbccc":2311,"bdecbd":2312,"bbcbbebb":2313,"ebbdbbbb":2314,"bdcbdc":2315,"edcff":2316,"afbc":2317,"ddcdc":2318,"dbeff":2319,"bbbe</w>":2320,"dbcbcc":2321,"ebfbbf":2322,"ebfebc":2323,"bbbcccc":2324,"fcbeec":2325,"fcbcbc":2326,"bfdebb":2327,"edeeec":2328,"edbced":2329,"ebfff":2330,"deebbbb":2331,"fbeff":2332,"fecdf":2333,"ecceebc":2334,"edbbbbc":2335,"bbcba":2336,"bfbecc":2337,"bdffc":2338,"ebcbeec":2339,"ebfbcc":2340,"bbbcbbf":2341,"ebacc":2342,"eee</w>":2343,"ebcdebb":2344,"dbedbc":2345,"ebbcdd":2346,"fbcef":2347,"cccbcc":2348,"dcbbed":2349,"bddebd":2350,"ebcfee":2351,"fbbba":2352,"bbbeebd":2353,"beeebbee":2354,"dbebdc":2355,"bcfebe":2356,"bdbbfc":2357,"becbbbd":2358,"dccef":2359,"deeef":2360,"ebecbbc":2361,"bbdbbebb":2362,"edbbebe":2363,"bfcef":2364,"edbbdd":2365,"ddfcc":2366,"ebbbeebe":2367,"bcbbbdc":2368,"eecfec":2369,"dbebbbc":2370,"befdf":2371,"bfbbed":2372,"debfcc":2373,"bccbebe":2374,"ddbebc":2375,"edeef":2376,"cccbbc":2377,"bbecbbbb":2378,"bccdbd":2379,"abebe":2380,"eccbbbe":2381,"eebebbee":2382,"bffbf":2383,"eebbbdc":2384,"bcbcbbc":2385,"edbdbd":2386,"dbcdee":2387,"ecdbbbe":2388,"ebcba":2389,"ebbcfc":2390,"ebbdbb":2391,"cccecc":2392,"ddefc":2393,"dcea":2394,"ebcbebd":2395,"bce</w>":2396,"eebbedc":2397,"edeccc":2398,"afee":2399,"bfeebc":2400,"edcdbe":2401,"bcbeebe":2402,"ecdbbf":2403,"bdbbebc":2404,"fcfcc":2405,"bcbebec":2406,"ebbcbec":2407,"bccfbc":2408,"bbbebbbd":2409,"ffbec":2410,"dcdef":2411,"bbbebebc":2412,"ebbbbdd":2413,"bbcbeee":2414,"bdbedd":2415,"beeac":2416,"befbbf":2417,"bebbbbcc":2418,"eccbebc":2419,"eecbebe":2420,"fdefc":2421,"edcded":2422,"dfbfc":2423,"bbbca":2424,"ebcbecc":2425,"ebcbbcc":2426,"bbecbec":2427,"bfbebd":2428,"fbbebbc":2429,"ebbbbef":2430,"bdbcebb":2431,"decbcc":2432,"edbebf":2433,"bcebccc":2434,"bdfbbc":2435,"dbcdbe":2436,"dbcbbd":2437,"dbbefc":2438,"bfeeee":2439,"bbbeeec":2440,"bbbbfbc":2441,"ffecc":2442,"bdecec":2443,"bbcfee":2444,"ebfdf":2445,"ddfee":2446,"bcd</w>":2447,"ecbefc":2448,"ebdbfc":2449,"bbebbebe":2450,"ebbac":2451,"deeecc":2452,"ebbbedc":2453,"eceba":2454,"decdec":2455,"bdbcbf":2456,"bdcccc":2457,"bbbbbfc":2458,"bbfccc":2459,"ebcfbe":2460,"ebbdebe":2461,"bdcbbd":2462,"fcebbc":2463,"befbcc":2464,"bbbdbbd":2465,"edcccc":2466,"fcbbee":2467,"fecdc":2468,"eccdcc":2469,"bdcff":2470,"bdbebbbb":2471,"ecc</w>":2472,"eecbecc":2473,"bcdbbee":2474,"bcfebc":2475,"eccefc":2476,"bcfa":2477,"bffdc":2478,"edfbf":2479,"eddbbbb":2480,"decef":2481,"bbebdcc":2482,"befbec":2483,"bdeeebb":2484,"eccfbc":2485,"deeebc":2486,"bdbba":2487,"bbcdcc":2488,"dbcebd":2489,"bbfebd":2490,"dbbebec":2491,"ff</w>":2492,"eecbbec":2493,"bbeedbe":2494,"baebe":2495,"eecbeec":2496,"bdeebf":2497,"bfcdc":2498,"dbdef":2499,"dffcc":2500,"bbeebec":2501,"befebc":2502,"edeedc":2503,"dfdec":2504,"ebbbeed":2505,"bfcebe":2506,"ebbecbe":2507,"eddebd":2508,"ffbbbb":2509,"ecfdd":2510,"fcbebe":2511,"cccbf":2512,"bddbcc":2513,"bfcdd":2514,"bcbbebf":2515,"bbeebebe":2516,"fdfcc":2517,"effbd":2518,"badc":2519,"fcfec":2520,"dbfdd":2521,"efcdc":2522,"edebdc":2523,"dbcecc":2524,"bdbbbec":2525,"ebbdebc":2526,"bceedc":2527,"beeea":2528,"eecdebb":2529,"efcdd":2530,"eecebbc":2531,"efbbebb":2532,"eebac":2533,"decebe":2534,"decdbe":2535,"bfebcc":2536,"eecfbc":2537,"bfcdf":2538,"fbedf":2539,"bfebec":2540,"eecbef":2541,"bebb</w>":2542,"bbcbbbbc":2543,"ebebebd":2544,"bbdddd":2545,"bcbac":2546,"ebdfbc":2547,"bbdfee":2548,"cccef":2549,"bbcfec":2550,"bdbcdc":2551,"bdeeed":2552,"eebbccc":2553,"dbebebe":2554,"eebefc":2555,"bccbbee":2556,"bbfebf":2557,"eebedd":2558,"bbdbeee":2559,"ebebbbf":2560,"eadc":2561,"bbfbebe":2562,"ebebeebb":2563,"bccbef":2564,"bbbdbbbe":2565,"eeefcc":2566,"bfbccc":2567,"feddd":2568,"bfca":2569,"bbcbeec":2570,"eceeebe":2571,"edfebb":2572,"bccdcc":2573,"eecba":2574,"beeebebe":2575,"ecefcc":2576,"dbcebb":2577,"becbcbc":2578,"becfec":2579,"bbccbbbb":2580,"fbeebc":2581,"fbeebb":2582,"dbbbdbd":2583,"dbdebe":2584,"eebedc":2585,"bbbedf":2586,"ebfccc":2587,"feea":2588,"dbffc":2589,"dbdfc":2590,"bbecccc":2591,"eedbfc":2592,"fbeccc":2593,"bbeefc":2594,"eccebbc":2595,"bdfebe":2596,"bbccccc":2597,"dbda":2598,"bbbdebe":2599,"dbddf":2600,"bbbeebf":2601,"befdbe":2602,"beeeef":2603,"ece</w>":2604,"eeeeef":2605,"bfdef":2606,"bebebbbc":2607,"bfecbc":2608,"ebbbcebb":2609,"eddbbd":2610,"bcbcbbbb":2611,"eefbbbb":2612,"bddecc":2613,"dccecc":2614,"dcfdc":2615,"edbedd":2616,"debbbbbb":2617,"eebeebc":2618,"bfbcbe":2619,"dceebd":2620,"bbbeff":2621,"bdecee":2622,"bebcebc":2623,"bccded":2624,"bdbeebe":2625,"eccbbbc":2626,"ebbcef":2627,"bcddcc":2628,"bbeddd":2629,"bfcbec":2630,"fbebbee":2631,"eccebf":2632,"ecdeecc":2633,"bdcdbc":2634,"deedbc":2635,"bccbcbc":2636,"bbbfbbc":2637,"deceec":2638,"adcc":2639,"bccbebc":2640,"bbecebe":2641,"ecddcc":2642,"bbfeec":2643,"eebeebf":2644,"ebbbebbc":2645,"efcef":2646,"ebcfcc":2647,"ebdebf":2648,"ecfbbc":2649,"eeffc":2650,"ebdebbc":2651,"bccfec":2652,"abca":2653,"dbddbe":2654,"ebbdef":2655,"baef":2656,"cccccccccccccccc":2657,"bbebebbbb":2658,"deddf":2659,"dbbbecc":2660,"ebbebdc":2661,"deedee":2662,"bbeeebc":2663,"ebbeeebe":2664,"bdedbd":2665,"feebbc":2666,"bbbfbf":2667,"ecdebf":2668,"bbdbebd":2669,"befccc":2670,"bbbda":2671,"eccbfc":2672,"bdd</w>":2673,"baba":2674,"dccbbc":2675,"fbcdf":2676,"bbbceec":2677,"dcbcee":2678,"eccbebe":2679,"bcfccc":2680,"eaebe":2681,"efbeec":2682,"fdbbcc":2683,"ebceecc":2684,"bbbbdbbbb":2685,"ddfbd":2686,"dcbeed":2687,"bcbbbbcc":2688,"fcdbf":2689,"bdbbbbbbbb":2690,"bbbeccc":2691,"eebebbf":2692,"bfbcee":2693,"abfc":2694,"eebcbbc":2695,"bdcedc":2696,"eccfcc":2697,"bbbcdbe":2698,"dccebe":2699,"eeebecc":2700,"ebbeebf":2701,"dcced":2702,"abea":2703,"bcfbec":2704,"fbcbec":2705,"eecbcbc":2706,"bcbeef":2707,"bedbbcc":2708,"bbdbcbc":2709,"ecbeebe":2710,"fbbdcc":2711,"ecdefc":2712,"beecbec":2713,"bbbcbbbd":2714,"ecebecc":2715,"bebcebe":2716,"ecebccc":2717,"eebbbbbbbb":2718,"bbbced":2719,"deebbf":2720,"ecbeccc":2721,"bebcef":2722,"ebddebb":2723,"bdcdbd":2724,"bccbbcc":2725,"dbbea":2726,"ebbbbebc":2727,"dbeedc":2728,"dedbec":2729,"dbcbbf":2730,"ecfef":2731,"deeed":2732,"ebbbdbd":2733,"deca":2734,"dccbec":2735,"ddba":2736,"eccdbd":2737,"ebcddc":2738,"bfbbbbc":2739,"ecdebbc":2740,"ffebf":2741,"eedba":2742,"bbbebbec":2743,"eebebcc":2744,"dbebbee":2745,"eeeea":2746,"bbccebe":2747,"bbcbebd":2748,"dceeec":2749,"ebdbbee":2750,"bbfbbee":2751,"ecbea":2752,"ffbbd":2753,"efcfc":2754,"ebbfdc":2755,"ddebbc":2756,"ebdbbbd":2757,"ebcebcc":2758,"bdcdec":2759,"eedbbee":2760,"dcdebe":2761,"dcecbc":2762,"edbebbc":2763,"bebcfc":2764,"eddbcc":2765,"bedbecc":2766,"bcdbfc":2767,"bdbeef":2768,"bbdeebc":2769,"bbdbeec":2770,"efcbbc":2771,"ebfbbbe":2772,"dceeee":2773,"ebebecc":2774,"bbbcbebe":2775,"bbdbbed":2776,"fecbec":2777,"dedbf":2778,"dbcff":2779,"fceebc":2780,"deedcc":2781,"beebbbbbb":2782,"ebbeeec":2783,"ebcebec":2784,"dddbf":2785,"eecfee":2786,"bcbedbe":2787,"bcfdf":2788,"bcbebbbe":2789,"ebddcc":2790,"dcdfc":2791,"efcbec":2792,"bafc":2793,"bebbea":2794,"edbbebc":2795,"edbbef":2796,"aca":2797,"dcbcbd":2798,"ebfebf":2799,"dbdbec":2800,"eeeebf":2801,"fecbbc":2802,"ebcbeee":2803,"eaea":2804,"fecbf":2805,"bcbbedc":2806,"deebdc":2807,"ebbbbbec":2808,"bbedbbc":2809,"ddbeee":2810,"bbbbbeee":2811,"ebbdfc":2812,"eddedc":2813,"ddbbec":2814,"bbfecc":2815,"ebcecbc":2816,"bbbcebd":2817,"bbfbfc":2818,"ecbbccc":2819,"ebeded":2820,"dbcbbbe":2821,"edfef":2822,"bccbbec":2823,"eefdf":2824,"bbbcdf":2825,"ffbdc":2826,"eecbbee":2827,"eefccc":2828,"fdbecc":2829,"adec":2830,"ecdbbbc":2831,"ebcdbf":2832,"eccbecc":2833,"becbecc":2834,"bbffbc":2835,"bbbdbbee":2836,"eeeebbbb":2837,"fccef":2838,"fccccc":2839,"bffed":2840,"fbeebf":2841,"ffdcc":2842,"ecdbfc":2843,"bdedcc":2844,"dcbccc":2845,"ecbebcc":2846,"fbedbe":2847,"bdfa":2848,"eeceecc":2849,"eeeebbee":2850,"eebeecc":2851,"ebdeebc":2852,"ecfccc":2853,"ffdbc":2854,"eecbbbd":2855,"dceccc":2856,"bbfdbc":2857,"bbbebdc":2858,"beecbbc":2859,"fcbbbd":2860,"dddebb":2861,"ecbbedc":2862,"eedebf":2863,"ebebbebe":2864,"bfcbbbb":2865,"edcdbc":2866,"eecebf":2867,"ecbedbe":2868,"bfbcec":2869,"edbcebb":2870,"edecbd":2871,"deebbd":2872,"becdebb":2873,"bcbebcc":2874,"fccfc":2875,"bbceebc":2876,"edcbdc":2877,"dedccc":2878,"bfbcbd":2879,"dbdbbd":2880,"edcbbbb":2881,"efca":2882,"ebcfed":2883,"dcbcec":2884,"becfee":2885,"dcbbebb":2886,"eebbebbc":2887,"fbbbbcc":2888,"eaef":2889,"bcbea":2890,"eeeebebe":2891,"befbbbe":2892,"ebbbced":2893,"febdcc":2894,"fbebbbc":2895,"eeebccc":2896,"eedbecc":2897,"bbfdee":2898,"eecbebd":2899,"bcbeebc":2900,"ebdfec":2901,"ecbebbbb":2902,"fcbbcc":2903,"eefbeee":2904,"ecd</w>":2905,"ebebeec":2906,"becba":2907,"fcba":2908,"bfbebf":2909,"deddbe":2910,"becbbcc":2911,"bbcbbed":2912,"dfbbbc":2913,"edfdd":2914,"efbbbf":2915,"bbcbbbf":2916,"edcebb":2917,"bccebbc":2918,"fbcdd":2919,"defdd":2920,"bdfebc":2921,"bdbbebd":2922,"bbfbef":2923,"ecfa":2924,"bbdfbd":2925,"bcbbebbc":2926,"eeceebc":2927,"ffebd":2928,"bdbbbcc":2929,"bbbbbbed":2930,"edeebe":2931,"bbcdebb":2932,"bcfbcc":2933,"eecddc":2934,"bbcebec":2935,"bbbedbc":2936,"edbcdc":2937,"dbedbd":2938,"bbbbbebbbb":2939,"fcefc":2940,"dcac":2941,"dbebebc":2942,"fdac":2943,"bedebec":2944,"fbebdc":2945,"efac":2946,"dececc":2947,"bbfbdc":2948,"dfbebe":2949,"bccbbbd":2950,"bbbebeee":2951,"fdea":2952,"ebefcc":2953,"dfddc":2954,"bcfbbbb":2955,"ebbeccc":2956,"effbf":2957,"dbddee":2958,"bedebcc":2959,"bbecdd":2960,"efbbed":2961,"feeccc":2962,"bbcefc":2963,"bbbeecc":2964,"bbbcbcbc":2965,"fcdef":2966,"ebdbef":2967,"deddee":2968,"dccebc":2969,"bbecebc":2970,"ebbeedc":2971,"fcbecc":2972,"ebbdbec":2973,"bfcebc":2974,"edcfec":2975,"ecbebf":2976,"bcfbbf":2977,"ebbfef":2978,"fcddc":2979,"beceebc":2980,"eefbcc":2981,"abbbd":2982,"ddeebc":2983,"bbdfec":2984,"dccbf":2985,"ebbbbfc":2986,"ecbbbdc":2987,"bcdebbc":2988,"edbbfc":2989,"bcfdbe":2990,"ddeecc":2991,"ebebbed":2992,"bbdebec":2993,"ebfbebe":2994,"bddbdc":2995,"bbbebef":2996,"eeacc":2997,"dbbebcc":2998,"becbebd":2999,"ebbfebe":3000,"edecec":3001,"ebbbba":3002,"ebeeebc":3003,"bdeedd":3004,"decdbc":3005,"acba":3006,"fbb</w>":3007,"fbbefc":3008,"ecbeedc":3009,"edffc":3010,"bbebbbf":3011,"ebbca":3012,"ebedebb":3013,"eabf":3014,"ebbcbbbe":3015,"decbbbb":3016,"fbcbbbb":3017,"debac":3018,"ebefbe":3019,"bfcbcc":3020,"ebcfbd":3021,"bbccef":3022,"bbdbbbbc":3023,"bdecdc":3024,"ebceebd":3025,"becefc":3026,"ebbecbd":3027,"ecbac":3028,"bebbebec":3029,"eefbbf":3030,"dceedc":3031,"eebeccc":3032,"bccefc":3033,"eedebbc":3034,"ebfecc":3035,"ebcbbed":3036,"eebeff":3037,"eebbba":3038,"ebbbcdc":3039,"bbebfcc":3040,"bbdefc":3041,"dcdeec":3042,"edb</w>":3043,"bebbefc":3044,"fdebec":3045,"fcfbd":3046,"bebcbebc":3047,"eeeac":3048,"ddbcbc":3049,"bddbbbe":3050,"eebebec":3051,"dcbedc":3052,"bdecbf":3053,"eecbbcc":3054,"dcbbbf":3055,"ebeddc":3056,"dcbbdc":3057,"bfdbbc":3058,"dcdbbc":3059,"bbcbecc":3060,"fbcccc":3061,"bdeced":3062,"dbbb</w>":3063,"eefbebe":3064,"ecfecc":3065,"efecbc":3066,"ebcbbebb":3067,"edceecc":3068,"ebfbef":3069,"eecefc":3070,"bcbedf":3071,"ffdee":3072,"edbeebc":3073,"bebbdcc":3074,"dcdebc":3075,"eecdbf":3076,"eeeeccc":3077,"fcdebb":3078,"ebdbbec":3079,"ebbbeef":3080,"becebec":3081,"bedea":3082,"bffebb":3083,"abeee":3084,"fdebcc":3085,"bcdefc":3086,"fcebec":3087,"eecfed":3088,"efebcc":3089,"bdcbbf":3090,"bcfecc":3091,"bbbcbbee":3092,"ddbeec":3093,"ebefbd":3094,"bcbbbfc":3095,"bbbddbd":3096,"bbbcdee":3097,"feebbee":3098,"efbebd":3099,"ddbbcc":3100,"edcbbd":3101,"bebca":3102,"fbbea":3103,"dbedec":3104,"dccdcc":3105,"bbcfbd":3106,"ecbebec":3107,"eccfed":3108,"beecccc":3109,"ebeebcc":3110,"dddddddd":3111,"befbbee":3112,"eccebcc":3113,"bebebeee":3114,"bbdbbbf":3115,"dbbbccc":3116,"eccbbee":3117,"dfbbee":3118,"ebbbcbf":3119,"ecbedbc":3120,"ebbfbbc":3121,"ebbcbcc":3122,"ebdefc":3123,"ebbdbbd":3124,"fbca":3125,"bbbdef":3126,"ebbbebbbe":3127,"bceebbc":3128,"ebdbebd":3129,"bdddcc":3130,"ebdba":3131,"bdbdbdbd":3132,"bbbbbebd":3133,"bebcbbbe":3134,"ebedbf":3135,"dbeebf":3136,"ebebeebe":3137,"ebdddc":3138,"eedefc":3139,"ebebccc":3140,"bedeecc":3141,"bebeccc":3142,"bbecdf":3143,"eecfbd":3144,"feeff":3145,"dbdebc":3146,"bbbdbec":3147,"edceebc":3148,"efdef":3149,"bcbbba":3150,"efdebb":3151,"fbebbd":3152,"ebeefc":3153,"deebbbe":3154,"ddbebd":3155,"ebefec":3156,"bceac":3157,"ddbecc":3158,"bbbcdbc":3159,"ebebbbbc":3160,"bbccbf":3161,"ebbceec":3162,"dbfbf":3163,"bdbfcc":3164,"deda":3165,"bebceec":3166,"eeeebbbe":3167,"bdcbbbe":3168,"efbecc":3169,"bdebfc":3170,"dbbecbc":3171,"befebf":3172,"dcbcbe":3173,"bddbbf":3174,"fbeecc":3175,"bbcfcc":3176,"fbcebc":3177,"bbccbec":3178,"dccbcc":3179,"fbeed":3180,"ebbcbbd":3181,"bdbbeec":3182,"eefbbee":3183,"bcbcccc":3184,"feddf":3185,"bddedc":3186,"bbbcbebc":3187,"ecdbbee":3188,"ebdfee":3189,"fffbc":3190,"bceebf":3191,"ebbcdc":3192,"bedfcc":3193,"ecfbcc":3194,"ebdbecc":3195,"edcbebc":3196,"ebcea":3197,"eecbedc":3198,"bbfbbbd":3199,"bfcdbe":3200,"aac":3201,"ecdfcc":3202,"bbecfc":3203,"ebdbeec":3204,"befbebe":3205,"ea</w>":3206,"debbbbc":3207,"edbcbf":3208,"bbbbbbebe":3209,"edecbe":3210,"eecebcc":3211,"becbeee":3212,"dccdf":3213,"bbebbbbebb":3214,"ddebec":3215,"edbefc":3216,"dbddbc":3217,"ebcdebe":3218,"efbccc":3219,"bcbebbf":3220,"ebffee":3221,"deebbee":3222,"abbec":3223,"bebebbd":3224,"fbbfcc":3225,"dedfc":3226,"bfcff":3227,"ebbbbbcc":3228,"bbccfc":3229,"bfbbdc":3230,"ecdbecc":3231,"eabbc":3232,"ddfdc":3233,"edddcc":3234,"edbeebe":3235,"fdeecc":3236,"bccfcc":3237,"bbbedee":3238,"ddebcc":3239,"dbfdc":3240,"bcbcbf":3241,"edfbbc":3242,"beeeeeee":3243,"ebeeeebb":3244,"eefbec":3245,"eedeecc":3246,"dffec":3247,"bdcebf":3248,"bbbddbe":3249,"bbfbebc":3250,"bbbcbbec":3251,"ecfbec":3252,"eefbef":3253,"bdeebbc":3254,"bccbccc":3255,"ebdeecc":3256,"ebbda":3257,"fbcdc":3258,"dedef":3259,"bccfee":3260,"bbbebbcc":3261,"ebccbbc":3262,"ebeebec":3263,"edcdbd":3264,"deacc":3265,"bfbeebb":3266,"bbdbbdd":3267,"bfbbef":3268,"ddcfc":3269,"ebfdbe":3270,"bfcdee":3271,"bbbeebbc":3272,"ebebebf":3273,"bcfeec":3274,"ffdbd":3275,"becbbebb":3276,"beecdf":3277,"bbbddc":3278,"eccbbec":3279,"ebeecbc":3280,"ebbbedd":3281,"bcbcfc":3282,"bbdbecc":3283,"fccbec":3284,"bde</w>":3285,"fffee":3286,"dfbef":3287,"bbbcbbbbc":3288,"bbbcbdc":3289,"dcca":3290,"fbddd":3291,"bfbbebe":3292,"ebebcec":3293,"bcbeccc":3294,"bbeebcc":3295,"ebbcdbe":3296,"ecceebd":3297,"bcfebd":3298,"dbdeec":3299,"eebcbec":3300,"ecfebc":3301,"deddbc":3302,"ffbbbe":3303,"bebbebcc":3304,"ffbef":3305,"ecceccc":3306,"ebbcdf":3307,"efbcec":3308,"fcbebd":3309,"dbdccc":3310,"eccbef":3311,"bebcdf":3312,"dcfbf":3313,"effdc":3314,"dbdbdc":3315,"bbccebc":3316,"bbbbbcbbbb":3317,"ecfedc":3318,"bbbcbbebb":3319,"dbfbbc":3320,"bcfedc":3321,"bcacc":3322,"dbedcc":3323,"eefbbbe":3324,"ecbcbbc":3325,"ddbbed":3326,"dbded":3327,"efebec":3328,"ecbeebd":3329,"afcc":3330,"bbdbdbd":3331,"fbcebe":3332,"bebebdc":3333,"ecccccc":3334,"becebcc":3335,"deeebd":3336,"efeebc":3337,"dbcbdc":3338,"bbbdbbf":3339,"abebc":3340,"eccbeec":3341,"bffef":3342,"bbbbbeebb":3343,"bfeecc":3344,"eefebf":3345,"ebbcbbf":3346,"ebbcebd":3347,"efbbef":3348,"fcbbed":3349,"bbbddf":3350,"eccbcbc":3351,"decebd":3352,"ebcbedc":3353,"dbbeecc":3354,"bbdbbdc":3355,"ffbbee":3356,"badf":3357,"bcceebc":3358,"ddea":3359,"eecdebc":3360,"eebebdc":3361,"bccbeee":3362,"eebbbfc":3363,"eecbeee":3364,"ebcbbbf":3365,"fcebcc":3366,"fbedbc":3367,"bbbebcbc":3368,"edcdcc":3369,"ecbedcc":3370,"ecdebcc":3371,"bfcbbf":3372,"afec":3373,"edeeebb":3374,"bcceecc":3375,"edcefc":3376,"bdecebb":3377,"becfcc":3378,"eccecbc":3379,"bebbbecc":3380,"dcebdc":3381,"ebbbcbbbb":3382,"dbfef":3383,"fbdbf":3384,"edcbbf":3385,"ebcdebc":3386,"bbeebeee":3387,"becbbed":3388,"dcfdd":3389,"ebcbcec":3390,"bbecef":3391,"eecdfc":3392,"ecbeed":3393,"abbcc":3394,"bcbebbbc":3395,"decded":3396,"bebcdd":3397,"ecceedc":3398,"bcbeed":3399,"dcbbdd":3400,"edcebf":3401,"feebeee":3402,"eebbea":3403,"decbdc":3404,"beecbf":3405,"dbebef":3406,"deced":3407,"bbdfcc":3408,"ebecbbbb":3409,"ecbbebf":3410,"eceeccc":3411,"bdc</w>":3412,"feefc":3413,"dbbac":3414,"bcbcdd":3415,"deeeec":3416,"dbcbbbc":3417,"ebeeebe":3418,"feebbf":3419,"eefebc":3420,"ebfed":3421,"fecef":3422,"dffbd":3423,"dbcdbd":3424,"fbcbcc":3425,"eebbbbcc":3426,"bcbb</w>":3427,"bfdfc":3428,"dbebbbd":3429,"bbecdee":3430,"bbee</w>":3431,"fbcff":3432,"becdbf":3433,"ddfed":3434,"bfdbbbb":3435,"bcdba":3436,"ebeeeebe":3437,"afbd":3438,"eccbebd":3439,"ddbbdd":3440,"dddef":3441,"bbdfbe":3442,"dcdecc":3443,"bbbcff":3444,"dcdbec":3445,"ebbecec":3446,"ebdbcbc":3447,"fcbeee":3448,"ebebcbd":3449,"bebedbe":3450,"babbbe":3451,"bbbcebf":3452,"edbeef":3453,"bebcbcc":3454,"bbeeccc":3455,"effef":3456,"bbccbcc":3457,"ddddcc":3458,"ebebcee":3459,"bbcbccc":3460,"eccebec":3461,"ddbdbd":3462,"eabbbb":3463,"fcceec":3464,"bbedbbbb":3465,"becfed":3466,"edbbbec":3467,"fcdbec":3468,"dbfa":3469,"bbfdbd":3470,"bbeebbebb":3471,"bebbfcc":3472,"bcfebf":3473,"bbcddc":3474,"ebbbcbbc":3475,"bebebef":3476,"dcecbe":3477,"ebbeeef":3478,"bcbeeec":3479,"bbbdbbbc":3480,"eedbbcc":3481,"bdebbcc":3482,"dbebbec":3483,"bebcccc":3484,"ebbdeec":3485,"decbbd":3486,"dedbcc":3487,"fbdef":3488,"eccddc":3489,"bfdebe":3490,"bebeebf":3491,"edeeed":3492,"bfeebd":3493,"bdcfbc":3494,"ebedbbc":3495,"fbddf":3496,"dcecec":3497,"feebbbb":3498,"feedf":3499,"bbbedbd":3500,"bbeebbd":3501,"ebbbdbc":3502,"bfda":3503,"edfebe":3504,"bbeebbbc":3505,"efbcbd":3506,"bbeca":3507,"edbeecc":3508,"ebcbcbd":3509,"dcdcdcdc":3510,"eeeebbc":3511,"dccdee":3512,"ffedc":3513,"ebcdef":3514,"dcffc":3515,"dbcdec":3516,"beeebbf":3517,"bddccc":3518,"bcbeecc":3519,"ebecbec":3520,"bbbebbbbc":3521,"bbbbdebb":3522,"bbebbbbbc":3523,"bdbebec":3524,"bbbdfc":3525,"bbcfbe":3526,"fbcbbf":3527,"bbbbbbdd":3528,"bebeecc":3529,"efbcee":3530,"dbdbcc":3531,"bfceec":3532,"efbbebe":3533,"dddbbc":3534,"ddfbe":3535,"ebebbef":3536,"ffeec":3537,"ebccfc":3538,"bffdd":3539,"ebbcccc":3540,"beeefc":3541,"abcbc":3542,"ecbbbbbbbb":3543,"efbebf":3544,"ededcc":3545,"abda":3546,"ebefbf":3547,"eebeedc":3548,"beccbec":3549,"dceeed":3550,"bfeef":3551,"bcbebbd":3552,"bebedf":3553,"ecbebdc":3554,"bdbefc":3555,"befbef":3556,"bcbedee":3557,"efdbbc":3558,"dedebc":3559,"fecbcc":3560,"fbceec":3561,"bbbeba":3562,"eafc":3563,"bbbebbbf":3564,"bbecdbe":3565,"dccebd":3566,"bbbdebc":3567,"ebccebe":3568,"bbecbcc":3569,"bcbcbcc":3570,"bcbbdcc":3571,"eccdebb":3572,"bbeedf":3573,"ebbcbbbc":3574,"bbbebfc":3575,"bbbbedc":3576,"bebdbbc":3577,"feebebe":3578,"dcbced":3579,"bbccdd":3580,"ebfbbd":3581,"eeecccc":3582,"bfbeed":3583,"dccedc":3584,"eebcfc":3585,"dbcbebe":3586,"ececccc":3587,"eddbdc":3588,"efbeebb":3589,"ebbfdd":3590,"bdcded":3591,"bfeccc":3592,"bbcceec":3593,"beebdcc":3594,"ebfebd":3595,"ebbffc":3596,"bebdbbbb":3597,"bbabbbb":3598,"bbebebbc":3599,"bbecbbd":3600,"daa":3601,"efbcf":3602,"feebcc":3603,"fbeebd":3604,"ebbfbbbb":3605,"bbbbcbbbc":3606,"dfba":3607,"dfefc":3608,"befbbd":3609,"ebfeec":3610,"eddccc":3611,"bfbcbf":3612,"ebccebc":3613,"beeedd":3614,"deedbd":3615,"eefdbe":3616,"ccceec":3617,"ebebbdc":3618,"bebcdc":3619,"decbbf":3620,"cccbec":3621,"ebfbdc":3622,"bcdfcc":3623,"fbeeec":3624,"edecdc":3625,"bddebf":3626,"ecfeec":3627,"becceec":3628,"bdbbecc":3629,"dddebe":3630,"ebcdfc":3631,"aded":3632,"decdcc":3633,"bbebbbbf":3634,"aebbc":3635,"ddcbbc":3636,"ebddbf":3637,"fbbebec":3638,"feebbbe":3639,"edbba":3640,"edcfbc":3641,"bceefc":3642,"bdeba":3643,"babec":3644,"dfbebc":3645,"deebbbc":3646,"bbebac":3647,"bccebec":3648,"edeedd":3649,"ebcbccc":3650,"eefecc":3651,"ebbfebc":3652,"bdcfec":3653,"ecbeef":3654,"edcbfc":3655,"bfdbb":3656,"bdcbbbc":3657,"dcbcf":3658,"ededbd":3659,"ddeeee":3660,"dbebfc":3661,"bddbbbc":3662,"ffbebe":3663,"dcbbbbc":3664,"befebd":3665,"ebfbbee":3666,"beceecc":3667,"dddbbbb":3668,"ddcef":3669,"becfbd":3670,"fffcc":3671,"edcebbc":3672,"dedeec":3673,"eebcbbbb":3674,"dbdebd":3675,"dbefbc":3676,"eedea":3677,"ecbebbbe":3678,"dcbdbd":3679,"ebccef":3680,"dcda":3681,"ecfdf":3682,"edcfcc":3683,"dceebe":3684,"fbebfc":3685,"bcdbbcc":3686,"debb</w>":3687,"babcc":3688,"eceebbc":3689,"deddec":3690,"dcfebb":3691,"ebefebb":3692,"ebebcbe":3693,"ebbdebd":3694,"babba":3695,"bebebebc":3696,"addc":3697,"beccbbc":3698,"bcdebec":3699,"babbf":3700,"dcdbb":3701,"eadf":3702,"ebdfcc":3703,"dbebcbc":3704,"efcdee":3705,"bef</w>":3706,"bedbbbbc":3707,"bceebec":3708,"eccfbd":3709,"fecfc":3710,"bebddd":3711,"abbebb":3712,"abbbf":3713,"bcdeecc":3714,"bbbbdec":3715,"bbbbebec":3716,"beeeccc":3717,"ebcbbbbc":3718,"beecdd":3719,"aefc":3720,"fbbbecc":3721,"dcecbd":3722,"ebbeebbbb":3723,"bbbefbc":3724,"bdfdf":3725,"bbcbbdc":3726,"deeff":3727,"bebebbebb":3728,"ebbbbebd":3729,"befeec":3730,"bdeeebe":3731,"dcbebf":3732,"ccccccccc":3733,"eedebcc":3734,"ecbedf":3735,"feb</w>":3736,"bbeceec":3737,"bbfebbc":3738,"ebceedc":3739,"ebfbbbc":3740,"adbf":3741,"ebcbbdc":3742,"dbcedc":3743,"eccfee":3744,"ebdfbd":3745,"bbcbcbd":3746,"bbfbbbf":3747,"bbbbcbbbbc":3748,"ebceccc":3749,"bcbebbee":3750,"ffbfc":3751,"bdcdcc":3752,"ecdea":3753,"fccdf":3754,"fcbbbf":3755,"dbbcbbbb":3756,"bcbcef":3757,"ebcceec":3758,"bcfbbbe":3759,"edecf":3760,"bccbecc":3761,"bbdbcbd":3762,"ffbbbc":3763,"becfbe":3764,"dcbedd":3765,"bccbeec":3766,"bceedbe":3767,"fcfed":3768,"bebcebd":3769,"ebccdd":3770,"ebfdbc":3771,"debbdd":3772,"bbffee":3773,"eebbdcc":3774,"bcecccc":3775,"edd</w>":3776,"edcbeec":3777,"edcbecc":3778,"deeddc":3779,"fccbbc":3780,"eebeebd":3781,"acea":3782,"ebeeecc":3783,"bdcefc":3784,"bdcbebe":3785,"bebcbbd":3786,"ecbcccc":3787,"bdcbfc":3788,"ebcebdc":3789,"dbbcbbc":3790,"dcbeebb":3791,"eebebbbc":3792,"bfdebc":3793,"deebbec":3794,"bcbeebd":3795,"befecc":3796,"ecbcfc":3797,"bbebbbec":3798,"dbf</w>":3799,"effed":3800,"bbebbbbd":3801,"bcfbbd":3802,"fbdbbc":3803,"edfa":3804,"deedec":3805,"eeecbbc":3806,"bbed</w>":3807,"bebdbec":3808,"eeccccc":3809,"aeeee":3810,"dfdbf":3811,"badbe":3812,"befdbc":3813,"dceef":3814,"ebddebe":3815,"ebbcebb":3816,"bbbbcbbbe":3817,"bcbedbc":3818,"ebcbeed":3819,"bbfedc":3820,"bcecbbc":3821,"dbbbbbbc":3822,"edbebbbb":3823,"eccbbcc":3824,"ebccbec":3825,"eceac":3826,"bebeebd":3827,"bbfba":3828,"bdbbbdc":3829,"deeebb":3830,"ada":3831,"bcbcbec":3832,"bfecbe":3833,"bbbbbeec":3834,"ebceeec":3835,"dfded":3836,"bcfdbc":3837,"edcdebb":3838,"bbdea":3839,"bbbbfee":3840,"ddceec":3841,"edbbebd":3842,"bebeff":3843,"bbecbbbe":3844,"fcbccc":3845,"edfebc":3846,"befbdc":3847,"dfebbc":3848,"ecdba":3849,"eccfdc":3850,"fcbeed":3851,"bbebbef":3852,"befbbbc":3853,"ebbecf":3854,"ebbeeed":3855,"efcbcc":3856,"ebfbeee":3857,"bfbedc":3858,"edeebf":3859,"bbedbec":3860,"ebdbeee":3861,"fdbccc":3862,"eebebbd":3863,"bbbddbc":3864,"eebcebc":3865,"decff":3866,"eecfcc":3867,"eebcdd":3868,"bbbbbbdc":3869,"ecacc":3870,"dcbbef":3871,"edbebec":3872,"eecea":3873,"eeeebbf":3874,"dfbbcc":3875,"efbbdc":3876,"ecdebec":3877,"dedebe":3878,"bbebbbebe":3879,"bbbebbbbbbbb":3880,"ebbedbd":3881,"dcbcdc":3882,"eccbedc":3883,"bebcbbbc":3884,"bbbbdbf":3885,"edbea":3886,"ebdebec":3887,"ebbcdbc":3888,"bdecdd":3889,"ecbcdd":3890,"eddbbf":3891,"ebbdecc":3892,"bdbddd":3893,"bebcdbe":3894,"ebcdbbc":3895,"ebbbdbe":3896,"bbedbf":3897,"bbbdbcc":3898,"becbedc":3899,"bebedbc":3900,"eeeefee":3901,"bbceebd":3902,"bebcbbf":3903,"babbd":3904,"fceecc":3905,"dccdbe":3906,"effebb":3907,"eecebec":3908,"becddc":3909,"bbbcdbd":3910,"edbbecc":3911,"bbbcbbcc":3912,"ebdbbcc":3913,"beeebcc":3914,"bbec</w>":3915,"bfbced":3916,"bcfbdc":3917,"dccff":3918,"beebbebe":3919,"ebfbfc":3920,"eecdef":3921,"fcbcbd":3922,"ebcbcee":3923,"febfcc":3924,"dfbcbc":3925,"ecbebbd":3926,"bbbfbbf":3927,"ebfedc":3928,"beccccc":3929,"dffee":3930,"dffdc":3931,"fcbcec":3932,"ebbedcc":3933,"dcecdc":3934,"fedccc":3935,"decdbd":3936,"ebbdbcc":3937,"dbebbcc":3938,"befdee":3939,"ecbbbfc":3940,"eccea":3941,"eebeeec":3942,"ddac":3943,"ebdebcc":3944,"bcdbecc":3945,"efcff":3946,"bccddc":3947,"feca":3948,"fbe</w>":3949,"bfecbd":3950,"ecdeccc":3951,"ebdecbc":3952,"ebbcdee":3953,"bbbfbbbe":3954,"fcdeec":3955,"bcfdee":3956,"bbbbbcbd":3957,"bfcbbd":3958,"fcecbc":3959,"ebeca":3960,"ecceeec":3961,"dceedd":3962,"eedfcc":3963,"bbecbbf":3964,"fbbebcc":3965,"edbfcc":3966,"becbeed":3967,"bbbbbbbbcc":3968,"bfbbfc":3969,"ebbbdcc":3970,"bccba":3971,"dbbbddd":3972,"ecbbebbc":3973,"ebbfa":3974,"ebcfdc":3975,"bbcdef":3976,"dbdbbbe":3977,"bbbdbebe":3978,"fccdd":3979,"bcbcebe":3980,"edbebcc":3981,"bdcbbee":3982,"ebbb</w>":3983,"bbcdebe":3984,"bccfbd":3985,"dbcfbc":3986,"decbeec":3987,"edcbbbe":3988,"ebfdee":3989,"ebdfed":3990,"efbeebe":3991,"ecfebe":3992,"dcbbebe":3993,"fbeba":3994,"bbbbbbbbbbc":3995,"ebbcecc":3996,"dbdbbf":3997,"bebcdee":3998,"ebbecebb":3999,"bfbcebb":4000,"ebbeebbc":4001,"bdefcc":4002,"edcbebe":4003,"bdebbebb":4004,"eebcccc":4005,"efda":4006,"ffddc":4007,"dccdbc":4008,"bbbcecc":4009,"bdeeef":4010,"efbeed":4011,"bffbbc":4012,"fcdfc":4013,"bceebbbb":4014,"ebecbcc":4015,"bbcea":4016,"dbbebdc":4017,"efdfc":4018,"bbcfed":4019,"ebdea":4020,"befbeee":4021,"ebffbc":4022,"ebbcbebe":4023,"edcbbee":4024,"ecdedcc":4025,"edbcdd":4026,"bccccccc":4027,"ebecebc":4028,"bcecbec":4029,"bbcebcc":4030,"dcfef":4031,"edbcbbc":4032,"dcecee":4033,"bbbdeec":4034,"bcfbfc":4035,"bbebebbbe":4036,"bcbebdc":4037,"bbeddf":4038,"bdfbec":4039,"feefee":4040,"eeebeebe":4041,"ecbbdcc":4042,"bdfdbe":4043,"bccdbf":4044,"eddbbbe":4045,"cccebe":4046,"dbdecc":4047,"dbbecbe":4048,"bcecdd":4049,"beecbbbb":4050,"bbfbbec":4051,"dccbbbb":4052,"bbbddee":4053,"bbbbbbbbbbbc":4054,"fbcdbe":4055,"bebcbebe":4056,"ebcfebb":4057,"ebecdd":4058,"bbceeec":4059,"eececbc":4060,"bfeebe":4061,"dbcbbee":4062,"bbcdbbc":4063,"dbacc":4064,"eefbdc":4065,"fcbedc":4066,"bcbddd":4067,"afbe":4068,"efbbbbc":4069,"dbfdf":4070,"bebcecc":4071,"bceeccc":4072,"fbdbec":4073,"fcfbe":4074,"bfbbebc":4075,"efcdbe":4076,"efbeef":4077,"fcbbebb":4078,"bccebcc":4079,"bebe</w>":4080,"bcecdee":4081,"ebddebc":4082,"dbdbbbd":4083,"efeccc":4084,"ebcbebf":4085,"bfebdc":4086,"ddcebe":4087,"baff":4088,"bbeeebf":4089,"eddebf":4090,"bfffc":4091,"dedbbbb":4092,"becdef":4093,"eebb</w>":4094,"edbbbcc":4095,"bbcecbc":4096,"bbdeecc":4097,"bbfbbebb":4098,"ebbcbdc":4099,"eecdbbc":4100,"bebbeecc":4101,"eeceebd":4102,"dcdccc":4103,"beeb</w>":4104,"bdbcbbbb":4105,"bcfbbbc":4106,"ebbecdc":4107,"bedebdc":4108,"bbfdec":4109,"bdbebbbe":4110,"ebbcbbee":4111,"ebbeedd":4112,"bceeebe":4113,"bfeebf":4114,"bbedebe":4115,"bbdeebd":4116,"beffcc":4117,"fecdee":4118,"bcbcbbbc":4119,"bcbeff":4120,"bbfbbcc":4121,"bcdebcc":4122,"bceedf":4123,"dbcded":4124,"ddcecc":4125,"ecdbbcc":4126,"dbdff":4127,"efcebc":4128,"bbecbebe":4129,"eebca":4130,"fcea":4131,"beccebc":4132,"bebbbccc":4133,"edbcfc":4134,"dcbcbf":4135,"bccfed":4136,"dddddd":4137,"ebdeebd":4138,"bfbebbc":4139,"fcac":4140,"beccef":4141,"bdfbbbb":4142,"ecfbdc":4143,"bedac":4144,"dbbecbd":4145,"eecbbed":4146,"edcbbbc":4147,"bececbc":4148,"debbebe":4149,"bceeebc":4150,"bbceecc":4151,"bffebe":4152,"ddeebd":4153,"bdbea":4154,"bbebba":4155,"dedded":4156,"fbedee":4157,"edeced":4158,"fcdebc":4159,"bbcbeed":4160,"bbfbcbc":4161,"edcfee":4162,"dfbbec":4163,"eefba":4164,"ebbbebec":4165,"dcdbbbb":4166,"dddfc":4167,"dbebeec":4168,"edbcebc":4169,"bbbdebd":4170,"fecdec":4171,"bfdbec":4172,"dfac":4173,"ecbbbbcc":4174,"dcdedc":4175,"fbcdee":4176,"fcfbf":4177,"edcfed":4178,"bccbebd":4179,"dcdebd":4180,"bbbcbfc":4181,"bddbbee":4182,"dbeba":4183,"efcdec":4184,"dcedcc":4185,"eeebbbbbb":4186,"eebcef":4187,"bbebeebe":4188,"ddeccc":4189,"bbdebcc":4190,"ebbbeebc":4191,"bdcbbbd":4192,"edcebcc":4193,"edceebd":4194,"eccbccc":4195,"bfbba":4196,"ecfbbbb":4197,"efceec":4198,"eccbbbd":4199,"ebbbdebb":4200,"bbbedec":4201,"bbddbbbb":4202,"bbeedbc":4203,"bfcccc":4204,"bfcdbc":4205,"bdbedbe":4206,"ebfbebc":4207,"dcdbcc":4208,"bbbcebbc":4209,"bbceeee":4210,"bbbfef":4211,"ddcbec":4212,"ebecfc":4213,"bbdfed":4214,"ecbeeec":4215,"debbbec":4216,"ebeac":4217,"ddbbdc":4218,"bceea":4219,"eccbeee":4220,"bbeeebd":4221,"bdcbebc":4222,"babca":4223,"feebec":4224,"ddbbebb":4225,"bbeddbe":4226,"efcbbbb":4227,"eccdebc":4228,"ebbdbbbe":4229,"ddcdf":4230,"bbbffc":4231,"beecef":4232,"ebbbebbd":4233,"bcdea":4234,"bbcbcec":4235,"eebedbc":4236,"bbbfebe":4237,"ffdec":4238,"ecbcbec":4239,"dcb</w>":4240,"eccdbf":4241,"deebebc":4242,"beeca":4243,"bbbfa":4244,"bfbdbd":4245,"ddbcbd":4246,"edcebec":4247,"bcbbefc":4248,"eefbbd":4249,"ebccbbbb":4250,"bbcbeebb":4251,"feedbe":4252,"dbbbdbc":4253,"beeebec":4254,"fdeccc":4255,"cccebc":4256,"fdcdf":4257,"ddcddc":4258,"eefdee":4259,"bbbfbec":4260,"bcbbebec":4261,"efeecc":4262,"bbbcbef":4263,"cccdf":4264,"bbcbebf":4265,"bebbac":4266,"bbecbbec":4267,"ecfebd":4268,"bbeeff":4269,"bbeda":4270,"bfbbdd":4271,"dccbdc":4272,"eebeba":4273,"fbdfc":4274,"bbbeedc":4275,"beecdec":4276,"eefdbc":4277,"bebeeeee":4278,"fbcbbd":4279,"ebbcbbbd":4280,"bbcfbf":4281,"bbfdbf":4282,"eeceedc":4283,"ebbbcdd":4284,"ebbebfc":4285,"eecdecc":4286,"bcbcbcbcbcbcbcbc":4287,"eebbefc":4288,"eccedcc":4289,"ebebeef":4290,"eebedbe":4291,"bbcca":4292,"bfbeebe":4293,"eadbe":4294,"fbcbfc":4295,"fecff":4296,"feeeeee":4297,"fecdbe":4298,"edebfc":4299,"ecbcebc":4300,"ddb</w>":4301,"bfeeec":4302,"edeebbc":4303,"ddcbcc":4304,"ddeeec":4305,"fdbbbbc":4306,"ebbcff":4307,"fbda":4308,"edbebbd":4309,"ebbbcebe":4310,"edbcef":4311,"dbbbdbbbb":4312,"ebbbea":4313,"efcebe":4314,"fcca":4315,"dbfbbbb":4316,"bbecebd":4317,"fbefcc":4318,"bbbebeebb":4319,"ebbeba":4320,"eecfdc":4321,"dccdec":4322,"eebcdf":4323,"bbcbbef":4324,"bdcbef":4325,"dbdded":4326,"bbebbbbee":4327,"bfcebd":4328,"bfbbbec":4329,"ebbbefc":4330,"bbbedebb":4331,"bbebbebc":4332,"ede</w>":4333,"edcbebd":4334,"ebbbded":4335,"bbaa":4336,"ecbebbf":4337,"bbdeeec":4338,"dbcbef":4339,"dceebf":4340,"eebbfcc":4341,"bebeeec":4342,"bbcbbebe":4343,"ebeeebd":4344,"edc</w>":4345,"ebbcebbc":4346,"dfbbbd":4347,"bbccbbcc":4348,"ebccccc":4349,"cccbbbb":4350,"dceced":4351,"babbbc":4352,"dcccccc":4353,"bdebecc":4354,"bcbebbec":4355,"bceeeec":4356,"bbdb</w>":4357,"bbeddee":4358,"dbcbbbd":4359,"edbbeec":4360,"bccdebb":4361,"ffdbf":4362,"beccfc":4363,"ebecdf":4364,"ebbecbf":4365,"becdebc":4366,"edfbec":4367,"ebefef":4368,"bbeebdc":4369,"dbddec":4370,"bfcbbbc":4371,"eebceec":4372,"bedbccc":4373,"ebeeebf":4374,"dedbdc":4375,"ebbbdf":4376,"ebcfbf":4377,"ebebeed":4378,"bbffcc":4379,"eeccfc":4380,"eaba":4381,"fdebdc":4382,"dbcbcbc":4383,"dbcebf":4384,"fbcebd":4385,"bbecbbbc":4386,"ebefdc":4387,"eccdecc":4388,"dbcbebc":4389,"bbdcbbbb":4390,"ebebedc":4391,"bcecdf":4392,"eefebd":4393,"dbcdcc":4394,"bbbebbed":4395,"ecbedbd":4396,"deebebe":4397,"bbcbcee":4398,"bbdbeebb":4399,"becca":4400,"bfbdcc":4401,"eefeec":4402,"deffc":4403,"dcdbbd":4404,"dbebeee":4405,"defccc":4406,"bbdbeed":4407,"eccba":4408,"eedebec":4409,"ddbeed":4410,"ebefebe":4411,"dddbb":4412,"fbd</w>":4413,"eebedf":4414,"bbfbeee":4415,"eebeea":4416,"bebddf":4417,"eebcbcc":4418,"dddebc":4419,"deddbd":4420,"eecdeec":4421,"ebedebe":4422,"bbebebebe":4423,"deeedc":4424,"ecebdcc":4425,"ebcecbd":4426,"eccebdc":4427,"bdfccc":4428,"ddbccc":4429,"ebceeee":4430,"ecbbba":4431,"fbebecc":4432,"bccbbed":4433,"dbfbec":4434,"eceedbe":4435,"edfecc":4436,"bcbeedc":4437,"beecdee":4438,"fbeedc":4439,"dcbdcc":4440,"ddda":4441,"bbecdec":4442,"fbebbcc":4443,"eecbcbd":4444,"eecbeed":4445,"bbebb</w>":4446,"dbdbebe":4447,"eaccc":4448,"bdbac":4449,"ddecbc":4450,"ebdbbed":4451,"bfbeef":4452,"ddfdd":4453,"efdebe":4454,"bbbebebbbb":4455,"ebbeebbee":4456,"bcbcebc":4457,"bbdeeee":4458,"ecbeddc":4459,"fccff":4460,"fcdbbc":4461,"bdbebcc":4462,"bceebcc":4463,"bcbca":4464,"befbfc":4465,"def</w>":4466,"ebbebbcc":4467,"bbdfbf":4468,"bbbebebd":4469,"dbeded":4470,"efbced":4471,"ecccecc":4472,"ddfbf":4473,"ebedebc":4474,"efcccc":4475,"bcbedec":4476,"bdfbcc":4477,"bbffbd":4478,"ebebebbbb":4479,"fbc</w>":4480,"ebbbdbf":4481,"bbdcbbc":4482,"bebcdec":4483,"edcddc":4484,"edfbcc":4485,"bdbcbbc":4486,"bbbdbdc":4487,"ececbbc":4488,"bfbebbbb":4489,"ebcbbebe":4490,"ebbcdec":4491,"bfcecc":4492,"eecceec":4493,"bfcdec":4494,"efdbec":4495,"baccc":4496,"eebebbebb":4497,"fccebc":4498,"bfcbdc":4499,"ebbbbeec":4500,"dbbdbbbb":4501,"ebdbbebb":4502,"defa":4503,"bbbbbbbbbbbbbbbbbbbbbbbb":4504,"fedbec":4505,"ebeeccc":4506,"bebcff":4507,"bceedee":4508,"bfecf":4509,"acda":4510,"bcffcc":4511,"ebbecee":4512,"eeecbec":4513,"bbbbfbe":4514,"bbccebd":4515,"ebcbced":4516,"bfcbbbe":4517,"defdc":4518,"bebd</w>":4519,"bdcfee":4520,"ecbedee":4521,"ebbcbebc":4522,"bfeeebb":4523,"bcfdbd":4524,"edcbef":4525,"bebeba":4526,"fbcfbc":4527,"eeeebef":4528,"ebcbeebb":4529,"ebfba":4530,"fbbeecc":4531,"eecbccc":4532,"eeccbec":4533,"bbeebef":4534,"efebdc":4535,"ddca":4536,"bbeedee":4537,"effdd":4538,"bcbcdee":4539,"bbbbded":4540,"bebc</w>":4541,"eebcecc":4542,"bcfbebe":4543,"bbbfff":4544,"eaff":4545,"ddcdbe":4546,"fccbf":4547,"edbcebe":4548,"eebcebe":4549,"efeef":4550,"fbcecc":4551,"effebe":4552,"debebbc":4553,"bbbebbebe":4554,"dbdbbbc":4555,"feeebf":4556,"bdbeebc":4557,"ecbebbbc":4558,"eeeeebf":4559,"edecbf":4560,"beecbcc":4561,"fcbbdc":4562,"fccbcc":4563,"debba":4564,"efdebc":4565,"ecfdbe":4566,"eebbebcc":4567,"bcbcdf":4568,"dcdbdc":4569,"ddcdee":4570,"bbbbfbd":4571,"bbdbbebe":4572,"babea":4573,"bbdecbc":4574,"efeeebe":4575,"ccca":4576,"dedecc":4577,"dbfdbe":4578,"debbebc":4579,"eebbebec":4580,"bbffec":4581,"ebbcedc":4582,"fdcccc":4583,"fbedec":4584,"bebda":4585,"efbcbe":4586,"bbeeeec":4587,"bfcfbc":4588,"bbbbcbec":4589,"bebfbbc":4590,"ebbbdee":4591,"bbeebbec":4592,"bcfdec":4593,"ecdebdc":4594,"bebeedc":4595,"feceec":4596,"bbbfdd":4597,"bbbbbbbec":4598,"ebbeced":4599,"bdcebec":4600,"ebccbcc":4601,"bcebdcc":4602,"beeeff":4603,"bbeeecc":4604,"ebddbbc":4605,"beebbbbc":4606,"efeebd":4607,"bddddd":4608,"fbbac":4609,"bddbfc":4610,"bbbcfbc":4611,"badee":4612,"cccdcc":4613,"beecdbe":4614,"bebebbcc":4615,"cccff":4616,"edbeebd":4617,"bbecdbc":4618,"ddcebc":4619,"ecccdd":4620,"ebddef":4621,"ebbbebbf":4622,"bbdbbbbbbbb":4623,"bbebbbbbbbbbb":4624,"bcbbfcc":4625,"bbbefee":4626,"ebcca":4627,"eebcbf":4628,"eebcbbf":4629,"eeeca":4630,"deebef":4631,"debbfc":4632,"bcceebd":4633,"ebcac":4634,"ebebced":4635,"becbbbf":4636,"becdbec":4637,"ebddfc":4638,"bbecdc":4639,"ecccfc":4640,"fbbbccc":4641,"edebbcc":4642,"ebbdbbf":4643,"fffbd":4644,"ddcdcc":4645,"dbeebbc":4646,"bbccbbbc":4647,"bcbeebf":4648,"ebbbcebc":4649,"eecda":4650,"debbdf":4651,"fee</w>":4652,"eeebdcc":4653,"bcccbcc":4654,"bdcebbc":4655,"beccecc":4656,"eecdebe":4657,"ebbbebbee":4658,"bbcdbbbb":4659,"dbcbfc":4660,"bbdfebb":4661,"cccdee":4662,"deddcc":4663,"beeeebf":4664,"decbebc":4665,"ebebcebb":4666,"bdbbbbcc":4667,"fcfdc":4668,"efeebf":4669,"bfecbf":4670,"eceebcc":4671,"bcfbbee":4672,"bffa":4673,"dbebbebb":4674,"dbddcc":4675,"bbdbebf":4676,"ddbcee":4677,"ffba":4678,"ebefed":4679,"ebeeef":4680,"eecbbdc":4681,"decbbbe":4682,"dbedbf":4683,"eceeecc":4684,"acbbc":4685,"dcbded":4686,"bbfdcc":4687,"bdacc":4688,"eadee":4689,"eeccbbc":4690,"dcecbf":4691,"ebedef":4692,"ebedfc":4693,"debbbbbe":4694,"dedbeec":4695,"beeefee":4696,"dbbeccc":4697,"bebbeccc":4698,"beeeecc":4699,"bebdebc":4700,"befbebc":4701,"dceeebb":4702,"edcecbc":4703,"fbcbbbe":4704,"befba":4705,"eeccecc":4706,"becbeebb":4707,"fecbbbb":4708,"feebdc":4709,"fecebc":4710,"ececdf":4711,"dbefcc":4712,"efcdbc":4713,"bbdbcec":4714,"bdfbbf":4715,"ededbf":4716,"ebbcebf":4717,"dcbbfc":4718,"edceedc":4719,"beeebbbc":4720,"becbbbbc":4721,"bbcbbdd":4722,"fbcdec":4723,"eef</w>":4724,"ebebba":4725,"ebbbbbbcc":4726,"ebbbcef":4727,"edfdf":4728,"aeba":4729,"bbbbbbbcc":4730,"bfbcdc":4731,"ecbcbcc":4732,"edcdebc":4733,"baebc":4734,"ddbcec":4735,"ebdbedc":4736,"fbedcc":4737,"becbcec":4738,"bbbbbdbd":4739,"dbfccc":4740,"ebbbcfc":4741,"bbbfbbbc":4742,"becea":4743,"ffbcbc":4744,"bbdbedc":4745,"bbbbbbebc":4746,"beecebc":4747,"eefea":4748,"bbcbedc":4749,"dbebebd":4750,"bbeebebc":4751,"ebccecc":4752,"ebbfbec":4753,"bbeeeeee":4754,"bbbbbebf":4755,"eefbbbc":4756,"edeba":4757,"bbccbbbe":4758,"fccecc":4759,"fbebbebb":4760,"bdbbccc":4761,"ebbbfcc":4762,"edecebb":4763,"dddbbd":4764,"beceebd":4765,"efecbd":4766,"abdbf":4767,"ecfbbf":4768,"becdeec":4769,"dbeddc":4770,"afbf":4771,"bbbbdbbc":4772,"eeccebc":4773,"eecbbebb":4774,"dbfff":4775,"bbdfdc":4776,"beeebef":4777,"dbcfee":4778,"edeeebe":4779,"bbbbbcbe":4780,"fedbbc":4781,"ededdc":4782,"ebccebd":4783,"bebebcbc":4784,"bbecbebc":4785,"bcceeec":4786,"eeceeec":4787,"ebccbf":4788,"bdcddc":4789,"fed</w>":4790,"bccffc":4791,"dbedebb":4792,"bbedebc":4793,"ebbdedc":4794,"dcbeef":4795,"acdd":4796,"bbcbbbbbbbb":4797,"bdbebbd":4798,"fecdbc":4799,"decbef":4800,"beebfcc":4801,"bbbbdcc":4802,"beeeba":4803,"beecfc":4804,"edceccc":4805,"dcbcdd":4806,"bfcbfc":4807,"dbebecc":4808,"efcecc":4809,"bebebbbd":4810,"edcfbd":4811,"bbeeba":4812,"ecfdbc":4813,"bbebbbbbd":4814,"acdf":4815,"dcbbebc":4816,"eebcebd":4817,"bbccbbd":4818,"eceea":4819,"bbccdf":4820,"becbcbd":4821,"eecdbec":4822,"ebbbddd":4823,"deeebf":4824,"eecebdc":4825,"fbcdbc":4826,"ddbbbf":4827,"bdcbbec":4828,"fbebbec":4829,"deebcbc":4830,"bbbf</w>":4831,"ebecbf":4832,"eabcc":4833,"ebebcf":4834,"becbccc":4835,"bfcebf":4836,"bbbbcbcc":4837,"bdcfbd":4838,"efcded":4839,"becbbdc":4840,"dddecc":4841,"bbedef":4842,"defdf":4843,"ebcbbdd":4844,"ebcdeec":4845,"ebebebbc":4846,"eecca":4847,"ebbcfbc":4848,"beebba":4849,"bdbbedc":4850,"bbbbbccc":4851,"debbef":4852,"bdbedf":4853,"eedbccc":4854,"bcbbbccc":4855,"edbedbe":4856,"bbcbcbe":4857,"bdbb</w>":4858,"eececcc":4859,"bebdbf":4860,"bebdef":4861,"bddefc":4862,"bbbebeec":4863,"dbdbdbd":4864,"edceeec":4865,"bbbbeebc":4866,"beceedc":4867,"ddd</w>":4868,"bbbcdec":4869,"bbdbccc":4870,"eeeeff":4871,"eddefc":4872,"eebcbedf":4873,"bbbbbecc":4874,"bdbbebf":4875,"bdceebc":4876,"bcbbbecc":4877,"fec</w>":4878,"beeeebc":4879,"eccecdc":4880,"bcfdcc":4881,"dbbbbbbbd":4882,"bbbbfbf":4883,"ebecef":4884,"becdbbc":4885,"ebecebe":4886,"bdcbeec":4887,"edcdbf":4888,"defbbc":4889,"becdfc":4890,"edfeec":4891,"bbbedcc":4892,"beeddf":4893,"bddebbc":4894,"ecbedec":4895,"bbbbcbbd":4896,"feda":4897,"ebbbbecc":4898,"ddcdbd":4899,"dcbeebe":4900,"edcbbec":4901,"dcedbd":4902,"ddcdbc":4903,"ddcccc":4904,"efeeef":4905,"ebfdec":4906,"dcbcebb":4907,"bfcbebc":4908,"beceeec":4909,"ebbbdbbbb":4910,"bdceecc":4911,"ebcdbec":4912,"bcbbea":4913,"feebef":4914,"bbbacc":4915,"bdbebbf":4916,"dbbcccc":4917,"bbccdbe":4918,"bedeccc":4919,"ebbbebcc":4920,"bebdfc":4921,"bbcfebb":4922,"dbbbdcc":4923,"bccbbebb":4924,"bbccecc":4925,"edcbcbc":4926,"bcccfc":4927,"eebddd":4928,"edfbbbb":4929,"dedebd":4930,"bbfbbef":4931,"beccebe":4932,"dbbecec":4933,"bfcbef":4934,"bceeef":4935,"bddba":4936,"dedbbec":4937,"ecbcecc":4938,"ebbcdbd":4939,"eddbbee":4940,"beeceec":4941,"dbebbed":4942,"fbebbbd":4943,"bdfdbc":4944,"ebbdbdc":4945,"ebccedc":4946,"bcfbef":4947,"bebebbec":4948,"dbbbbbbbbbbbb":4949,"edefcc":4950,"fbcbbbc":4951,"bdcdbf":4952,"ddbedc":4953,"bebbbbbbc":4954,"bdbebbbc":4955,"bfdeec":4956,"ebcbedd":4957,"becdebe":4958,"bccdef":4959,"dedbbd":4960,"ebdbbdc":4961,"efbedc":4962,"eebdbbc":4963,"beebbbbbe":4964,"ebbcbbec":4965,"bccbbbf":4966,"dddeec":4967,"fceeec":4968,"ddcdec":4969,"bfecec":4970,"bcbedbd":4971,"fbeea":4972,"ebebbebc":4973,"dbefee":4974,"dbcbbec":4975,"bfdbbd":4976,"ebeebdc":4977,"dcfbbc":4978,"dfea":4979,"ddeedc":4980,"ebbbddc":4981,"dcfebc":4982,"eebbac":4983,"fdcef":4984,"ecbcbbbb":4985,"eecbcec":4986,"eceefc":4987,"bbbdccc":4988,"bbefbbc":4989,"eecdedc":4990,"eedeccc":4991,"bbfefc":4992,"ebbfbcc":4993,"eebbbecc":4994,"dedff":4995,"dfcfc":4996,"febbbbbb":4997,"ddebdc":4998,"cccccccccc":4999,"ebffcc":5000,"bbfbeec":5001,"abbed":5002,"dbcfec":5003,"dddbec":5004,"eecbedd":5005,"bbbebecc":5006,"eceedcc":5007,"eeebeeeee":5008,"bdbeebd":5009,"eddeecc":5010,"eefdcc":5011,"bdfecc":5012,"adebb":5013,"fbebbbf":5014,"ebccdf":5015,"dcfebe":5016,"fdbdcc":5017,"befdbd":5018,"edecdd":5019,"bebedee":5020,"fbedbd":5021,"edcea":5022,"dbfbcc":5023,"eebcdbe":5024,"dbfebe":5025,"bbcdebc":5026,"aebec":5027,"bcbebfc":5028,"babdc":5029,"befdec":5030,"dbbbded":5031,"bebefee":5032,"efbcbf":5033,"bceeecc":5034,"bbbcbeee":5035,"ebfebbc":5036,"bbffbf":5037,"bcfbebc":5038,"bebbebdc":5039,"ebbbdec":5040,"bbefbbbb":5041,"fcdebe":5042,"ebdbbbf":5043,"ffbbec":5044,"ebbbcbec":5045,"bdbeecc":5046,"ecffcc":5047,"bbeebbbd":5048,"edecbbc":5049,"afed":5050,"edcdfc":5051,"dcecf":5052,"bebbcbbbb":5053,"bbbcba":5054,"ebebdbd":5055,"ebfeeee":5056,"bdcbcbc":5057,"dccbbd":5058,"ebeeeef":5059,"fecded":5060,"eddbbbc":5061,"ebfbcbc":5062,"da</w>":5063,"fbdff":5064,"bdbeccc":5065,"dccdbd":5066,"bcbdbbc":5067,"ddbddd":5068,"ebfbbbd":5069,"bdfdee":5070,"bebcdbc":5071,"efeeebb":5072,"dcbcef":5073,"ecbebbee":5074,"ebcbcdc":5075,"bdcfcc":5076,"ebebbdd":5077,"eddebbc":5078,"fdb</w>":5079,"bbfdebb":5080,"bebeebbc":5081,"ebbeea":5082,"fbeebbc":5083,"becebdc":5084,"ebecebd":5085,"ebfdbd":5086,"edbeeec":5087,"eedebdc":5088,"dcc</w>":5089,"bbedfc":5090,"ebecdbe":5091,"bdfebd":5092,"ebedbbbb":5093,"eebcbbd":5094,"bdcbebd":5095,"bedb</w>":5096,"bccbbbbc":5097,"bfbcef":5098,"deeba":5099,"fbfbbc":5100,"bbeeebbc":5101,"edcbedc":5102,"bbccbbf":5103,"bebebeebb":5104,"dfbecc":5105,"fcda":5106,"dcecdd":5107,"bebbbbbbbe":5108,"bfdbcc":5109,"dedbebc":5110,"ebcdecc":5111,"bceebbf":5112,"bcbebbebb":5113,"edcbbbd":5114,"dbbedbd":5115,"ebfdcc":5116,"bbbbfec":5117,"ebbbbbdc":5118,"fbdccc":5119,"bcf</w>":5120,"beeedbc":5121,"bcccbbc":5122,"ecf</w>":5123,"bdfbbd":5124,"bebebfc":5125,"eedac":5126,"eccbbed":5127,"bcbcbbbe":5128,"ebeda":5129,"bbeefee":5130,"ebbfbbd":5131,"bbecff":5132,"fceccc":5133,"dcbdee":5134,"efbba":5135,"ebbfecc":5136,"fbcbdc":5137,"fbebccc":5138,"deeebbc":5139,"beeedbe":5140,"abeec":5141,"eebebbebe":5142,"fceebd":5143,"bdbcdd":5144,"eecfbe":5145,"debbbbd":5146,"debbdbe":5147,"eccbcec":5148,"ebbecbbc":5149,"effbbc":5150,"deebfc":5151,"bbbfdf":5152,"bdebccc":5153,"eceeebc":5154,"bcdbbbd":5155,"bfeedc":5156,"edbcbbbb":5157,"bbbdff":5158,"effa":5159,"bcbcdbe":5160,"eabbbe":5161,"ededbc":5162,"bbebbbcc":5163,"eddbfc":5164,"bcebbbbbb":5165,"ebecccc":5166,"bbdcdd":5167,"edcdecc":5168,"dbbbbbbbe":5169,"bcdbbbbc":5170,"eceedf":5171,"decbbbc":5172,"bbcfdc":5173,"ebbeebbbe":5174,"bcfebbc":5175,"dbbcdd":5176,"ebdfdc":5177,"beecbebc":5178,"ebebbbec":5179,"ebecdbc":5180,"dedbbf":5181,"ddcbbbb":5182,"eccbeed":5183,"dfcdf":5184,"ecbcdf":5185,"bcbedcc":5186,"cccdbe":5187,"bbbdbbebb":5188,"eabec":5189,"bbccff":5190,"ebecbbbe":5191,"ecbcbf":5192,"ebdeedc":5193,"ebecdee":5194,"fbcfec":5195,"ebedbec":5196,"efcbdc":5197,"ebeeeec":5198,"debbbf":5199,"bccfdc":5200,"fbdebc":5201,"befbbec":5202,"ecbbefc":5203,"fbcbebe":5204,"beeebbd":5205,"bfcdbd":5206,"dbfebc":5207,"beeebbebb":5208,"befdcc":5209,"eeccef":5210,"ebeecbd":5211,"eebcdbc":5212,"ebdeeec":5213,"ecbefcc":5214,"edeefc":5215,"bcbceec":5216,"fedbf":5217,"bdfeec":5218,"beccbcc":5219,"ebbfebd":5220,"eeebba":5221,"bcbbbbbbc":5222,"bdfebf":5223,"dcbddc":5224,"bcbdbbbb":5225,"efcbbf":5226,"badbc":5227,"bebfbbbb":5228,"dbbbdebb":5229,"eebedcc":5230,"dcbddd":5231,"decbbec":5232,"bcbcbbf":5233,"decedc":5234,"fecbdc":5235,"bbdbcee":5236,"bbdbbef":5237,"efbbdd":5238,"bbbcbbbf":5239,"bcecdbe":5240,"beeebdc":5241,"fecbbf":5242,"ffcdf":5243,"fcbbbbc":5244,"ebdbeed":5245,"debbccc":5246,"bbbbbbbbbbbbbbbbbbbbbbbbbbbbbbbb":5247,"bcbcbebc":5248,"ebbbbebf":5249,"bcbebbcc":5250,"deefbc":5251,"eabbf":5252,"bbbbbbbbbbbbc":5253,"ebdebdc":5254,"fcbeebb":5255,"bdbbdcc":5256,"dcbebbc":5257,"eceedbc":5258,"beccedc":5259,"dddbcc":5260,"ddbbbbc":5261,"ddcbf":5262,"eebcbbbe":5263,"eecbbbf":5264,"ebbbfbf":5265,"dbbd</w>":5266,"eccdfc":5267,"ebcbbef":5268,"bbebcbbbb":5269,"eeccedc":5270,"eebebbbd":5271,"ebbbedbe":5272,"fceedc":5273,"efeeec":5274,"decbebe":5275,"bcdac":5276,"ebbfbbbe":5277,"defbf":5278,"bbececc":5279,"bebdeec":5280,"bbbbbbbbbbbe":5281,"ebebbfc":5282,"eebefcc":5283,"babebe":5284,"debebbbb":5285,"debbbbf":5286,"fbdeec":5287,"ecbeff":5288,"ebbfbbf":5289,"bebddbe":5290,"ebcecdc":5291,"bdbeeec":5292,"eedcccc":5293,"ebdeccc":5294,"febba":5295,"fbdbbbb":5296,"dbdddc":5297,"ecbcef":5298,"beeedf":5299,"decbfc":5300,"bbbecbbbb":5301,"ececbcc":5302,"ebbdbbbc":5303,"eccfdd":5304,"acfc":5305,"beedbbc":5306,"befebbc":5307,"bbccbdc":5308,"bcbc</w>":5309,"befbbebb":5310,"eebcedc":5311,"fbcbebc":5312,"bcbbebcc":5313,"ebcdebd":5314,"deebeec":5315,"dcbdbc":5316,"bbbfbcc":5317,"bcfefc":5318,"eedbbbd":5319,"bfeeebe":5320,"edeeef":5321,"edbedf":5322,"debbbcc":5323,"eebeebbc":5324,"fccfec":5325,"dbbbdee":5326,"fffbf":5327,"bceddd":5328,"ebebcbf":5329,"ebdbcbd":5330,"deedbf":5331,"ebebcdc":5332,"bbbddbbbb":5333,"ffbbcc":5334,"ecbeebf":5335,"ebecbbd":5336,"bceedbc":5337,"feedbc":5338,"bbabbc":5339,"ebbbbccc":5340,"eefbfc":5341,"bcecfc":5342,"bffbbbb":5343,"ffbebc":5344,"edecee":5345,"bbbbbcbbc":5346,"dccbbf":5347,"deecdf":5348,"bebefbc":5349,"bbbdbebc":5350,"edfbbd":5351,"bfbfcc":5352,"ebeceec":5353,"eeecdf":5354,"ffbeee":5355,"efbbfc":5356,"beeddd":5357,"bbebbfc":5358,"cccedc":5359,"efffc":5360,"dbbbdbf":5361,"dbbecbf":5362,"bcfbbec":5363,"fdddd":5364,"dcdddd":5365,"ecbbfcc":5366,"faa":5367,"beebbbebe":5368,"dccded":5369,"ecbceec":5370,"dbefbd":5371,"dbfbbf":5372,"edbeccc":5373,"febbbbc":5374,"dbefec":5375,"beedbec":5376,"ecbcebe":5377,"ebfbbcc":5378,"ffefc":5379,"bbdcbec":5380,"edfebd":5381,"deebbbd":5382,"ebbedbc":5383,"bdcdebb":5384,"fffec":5385,"bbbbefc":5386,"deebbcc":5387,"bdcfed":5388,"bcccbccc":5389,"bfbbbcc":5390,"eccecbd":5391,"ebcbcbe":5392,"ebbcbfc":5393,"dfcdd":5394,"bedcccc":5395,"bcbcbbd":5396,"ebcda":5397,"afdc":5398,"bbfbbed":5399,"bfedcc":5400,"ebdbcec":5401,"bebcedc":5402,"bbbfbbd":5403,"bbfbbbbc":5404,"fbffc":5405,"befedc":5406,"bbbbbbef":5407,"dcfa":5408,"bcceeee":5409,"bbdddbd":5410,"ebdfebb":5411,"bbdcebe":5412,"edeea":5413,"bccbedc":5414,"eeebbebe":5415,"bdcbecc":5416,"eefdbd":5417,"fbfef":5418,"bceebbbe":5419,"bfbcbbc":5420,"bebdbbbe":5421,"bffbbd":5422,"ecbca":5423,"ecceedd":5424,"eddebcc":5425,"eccac":5426,"dbbbbbbd":5427,"eebda":5428,"ebbeddc":5429,"dbcebbc":5430,"feeba":5431,"bccea":5432,"bbbcbbbbbbbb":5433,"fcebdc":5434,"bbcac":5435,"dcebfc":5436,"eeccdd":5437,"fdddf":5438,"ddcff":5439,"bebcbbee":5440,"fcbebf":5441,"ebcbdbd":5442,"ebbbebdc":5443,"bbbbbebbc":5444,"bffebc":5445,"bcfdbf":5446,"efbbebc":5447,"bbbcbbed":5448,"eebebbbf":5449,"dccfec":5450,"bcdbccc":5451,"bcbebbbd":5452,"eebebbcc":5453,"fdcdd":5454,"bfbefc":5455,"dadd":5456,"dbdedc":5457,"ebebdcc":5458,"beecdbc":5459,"ececbec":5460,"efcebd":5461,"ecfbfc":5462,"feebbd":5463,"dcbefc":5464,"efbcebb":5465,"debbeec":5466,"ebecbbbc":5467,"bdfbdc":5468,"bbbbea":5469,"bfedbd":5470,"bbeebeebb":5471,"ebdbbdd":5472,"befbcbc":5473,"ebfbbec":5474,"edbebbbe":5475,"bbbecbbc":5476,"fccedc":5477,"bbefa":5478,"bbbbeeee":5479,"ecfbbd":5480,"beecded":5481,"ededdd":5482,"eefbebc":5483,"eebddf":5484,"bceeeecc":5485,"efbdbd":5486,"bbbbcebe":5487,"bcccdd":5488,"feeebc":5489,"bbfea":5490,"bbbeeeee":5491,"ebdfbe":5492,"eedbbbbc":5493,"bbeebfc":5494,"bdcba":5495,"eeecdd":5496,"fbbebdc":5497,"defbcc":5498,"bdeebec":5499,"dbdbebc":5500,"eebdfc":5501,"bbeddbc":5502,"bdbedee":5503,"efcbebc":5504,"bdbbba":5505,"bfbdbf":5506,"ebbbdbbc":5507,"befeeee":5508,"beeedc":5509,"beebeebe":5510,"ebdbdbd":5511,"beccdf":5512,"ddcbdc":5513,"bbdac":5514,"bbddbbc":5515,"feddc":5516,"bdeea":5517,"fceeee":5518,"bdeac":5519,"ebecbbf":5520,"fbfa":5521,"eebdbec":5522,"ebbbebbbc":5523,"dbfecc":5524,"fcfef":5525,"bbbbfebb":5526,"bfbdbc":5527,"fbcebf":5528,"bbedeec":5529,"bbbfebc":5530,"bfcbbec":5531,"ebececc":5532,"dbbbddc":5533,"efbdcc":5534,"dbbbbbbbc":5535,"eebdebc":5536,"bbebebbee":5537,"edbeedc":5538,"feeecc":5539,"bbffbe":5540,"bdfbbbe":5541,"fccebe":5542,"bfecdc":5543,"bdbebdc":5544,"dfebcc":5545,"efcbbd":5546,"fcbcf":5547,"defdbe":5548,"eecbeebb":5549,"edebecc":5550,"fedbcc":5551,"ececdd":5552,"bfcded":5553,"bbbbcbbf":5554,"bddeecc":5555,"babbee":5556,"ebdcbbc":5557,"dffbe":5558,"ddcebd":5559,"ebecdec":5560,"bbebbbebc":5561,"bbccdee":5562,"efdeec":5563,"abebd":5564,"ecccebc":5565,"dffbf":5566,"bbbcbeec":5567,"aeebc":5568,"bbbfdbe":5569,"ecbcdee":5570,"dbdfbc":5571,"ecfebf":5572,"bbedbbd":5573,"bdbebbee":5574,"befbbbd":5575,"dfbeee":5576,"debedd":5577,"ebccdbe":5578,"efbcdc":5579,"bcdebdc":5580,"eeccbcc":5581,"bdcbeee":5582,"baebf":5583,"dcfecc":5584,"babbbd":5585,"dbcbeee":5586,"bbbfbebe":5587,"bbbccbbc":5588,"bbbbbcebb":5589,"bcbefcc":5590,"bbbbcbbbd":5591,"eebebbec":5592,"bbbbbba":5593,"abecc":5594,"befea":5595,"bcbeebbc":5596,"bbfbebd":5597,"ebcffc":5598,"dfcbbc":5599,"dbbcbec":5600,"bbbbfcc":5601,"ebffec":5602,"fcbcee":5603,"ecdac":5604,"debcbec":5605,"bccbbdc":5606,"fcbced":5607,"dbbdbbc":5608,"debbbbbc":5609,"eebbeecc":5610,"bcceedc":5611,"bbbedbf":5612,"acbec":5613,"eeffcc":5614,"fdcbec":5615,"ffebbc":5616,"bebcebbc":5617,"ddfebb":5618,"bcecdec":5619,"ecdbccc":5620,"ddcded":5621,"ebbecdd":5622,"edbbedc":5623,"debe</w>":5624,"debcdf":5625,"ecccbbc":5626,"fbddbe":5627,"adef":5628,"bedcbec":5629,"dcbba":5630,"ececebc":5631,"ecbcdbe":5632,"acef":5633,"ebbeebeee":5634,"dceddc":5635,"eccedbd":5636,"edcdef":5637,"bebcded":5638,"bbeefbc":5639,"ebdbebf":5640,"ebdbccc":5641,"ebecbdc":5642,"bbccdbc":5643,"fedef":5644,"bbbeea":5645,"deebeee":5646,"ffea":5647,"decfbc":5648,"bbbbebcc":5649,"cccdbc":5650,"bebdebe":5651,"bbebbdd":5652,"ecbddd":5653,"baecc":5654,"bbbcfee":5655,"ebcbcf":5656,"eeecbcc":5657,"befdbf":5658,"bfeeed":5659,"eeeebcc":5660,"dbdebf":5661,"abbbbc":5662,"bfbedd":5663,"ecfdcc":5664,"beecbbd":5665,"fcbbfc":5666,"eebcbdc":5667,"bebdbbd":5668,"bebebbebe":5669,"baea":5670,"ebddeec":5671,"eebcdec":5672,"bebbcbbc":5673,"ebbbeebd":5674,"ebdcebe":5675,"eccdef":5676,"eccbedd":5677,"eebcff":5678,"ecccbcc":5679,"cccbdc":5680,"eebcdc":5681,"ddcbbd":5682,"edeeebc":5683,"bebcbdc":5684,"dbdbef":5685,"ecfbbbe":5686,"beccdd":5687,"dbdbbee":5688,"efdbb":5689,"dccfbc":5690,"bbedbbbe":5691,"bdbcfc":5692,"fbedebb":5693,"bbbbb</w>":5694,"afa":5695,"bdbcebe":5696,"cccdec":5697,"eefdec":5698,"bceeefc":5699,"fccdec":5700,"bbcbdbd":5701,"ffac":5702,"eecbbbbc":5703,"eefedc":5704,"dabca":5705,"fdcfc":5706,"bbebbdbe":5707,"eeccbbbb":5708,"beecebe":5709,"bbefdd":5710,"ecfbbbc":5711,"bbfded":5712,"bdbedbc":5713,"ecbebfc":5714,"bfeeef":5715,"bbbbbbbbbbbd":5716,"bebeea":5717,"eccdebe":5718,"eebe</w>":5719,"eebebfc":5720,"edbebdc":5721,"ebfea":5722,"bebebbbf":5723,"bcebfcc":5724,"bbeebbebe":5725,"bcbddf":5726,"bbdcef":5727,"ebdcebc":5728,"febac":5729,"fecdcc":5730,"bebddee":5731,"edbbbdc":5732,"beccebd":5733,"ebbcbcbc":5734,"ebfefc":5735,"bebcbfc":5736,"ebbcbef":5737,"ffded":5738,"eccceec":5739,"bdfdbd":5740,"becbebf":5741,"ebbfeec":5742,"ecfdec":5743,"ebccbdc":5744,"fececc":5745,"dcbfcc":5746,"bfdebd":5747,"fdd</w>":5748,"bbebbbbbbc":5749,"bbecded":5750,"edeebcc":5751,"eebcbbbc":5752,"bcecbcc":5753,"bbedbcc":5754,"fbdbcc":5755,"bdeefc":5756,"bebbb</w>":5757,"eddbecc":5758,"ecbcebd":5759,"abccc":5760,"fbedbf":5761,"ecbcbbf":5762,"bddbbcc":5763,"bffdf":5764,"ddffc":5765,"bbebcbbc":5766,"dcbbbec":5767,"ecceddc":5768,"bdeebbbb":5769,"bcecebc":5770,"eeeeba":5771,"dbebccc":5772,"efcbbbc":5773,"eecbebf":5774,"dffed":5775,"defbec":5776,"dbbecebb":5777,"fbdebe":5778,"eeeebeebe":5779,"ecbbebec":5780,"ebfbbbf":5781,"fbcbef":5782,"eccfebb":5783,"fcbcbf":5784,"ecbb</w>":5785,"fcfebb":5786,"edbac":5787,"bbecbdc":5788,"eecac":5789,"bdfedc":5790,"eebcdee":5791,"ecdcccc":5792,"bdbcbec":5793,"bbcdfc":5794,"dcd</w>":5795,"eeeedd":5796,"bdbdbbbb":5797,"bcbebecc":5798,"dbbeced":5799,"ebdcdd":5800,"efeebe":5801,"dcefcc":5802,"eefebbc":5803,"abcbd":5804,"dbcfcc":5805,"eccbbdc":5806,"eeeeeeebe":5807,"dcbdbf":5808,"bceebdc":5809,"ebddbbbb":5810,"fecbbd":5811,"bfebfc":5812,"dbfdee":5813,"eccbcbd":5814,"bfcbeec":5815,"ebbedbf":5816,"bbbcedc":5817,"ebdda":5818,"bbedccc":5819,"dcbeebc":5820,"ebbefcc":5821,"bebdbebe":5822,"fbfff":5823,"bbecbbee":5824,"fcdecc":5825,"bcbeba":5826,"ebcecec":5827,"bbfcbbc":5828,"eecdebd":5829,"dbedef":5830,"bebcbcbc":5831,"beccbbbb":5832,"bccbcbd":5833,"bdbcef":5834,"ebceebf":5835,"bbbccbbbb":5836,"ebceedd":5837,"bbecbeec":5838,"ebceeed":5839,"ebddecc":5840,"ebceebe":5841,"ecccedc":5842,"eeeb</w>":5843,"feedcc":5844,"dbcbeec":5845,"fbacc":5846,"bbccedc":5847,"dbfba":5848,"ebcbcebb":5849,"ddedcc":5850,"ebbfdf":5851,"fbcded":5852,"dfdebb":5853,"deefcc":5854,"ebdbbbbc":5855,"bccbeed":5856,"bfcbcbc":5857,"ebcbebbc":5858,"bfbded":5859,"eccecec":5860,"ecebfcc":5861,"decebbc":5862,"efcdcc":5863,"bbbefbd":5864,"ebbeebebe":5865,"eceebbbb":5866,"ebccff":5867,"cccbccc":5868,"eebbbccc":5869,"fcbbef":5870,"bbbeebec":5871,"afebb":5872,"bccfbe":5873,"ebffbd":5874,"fecebe":5875,"dfbebd":5876,"debd</w>":5877,"ebcfdd":5878,"bdecbec":5879,"bbbcbebd":5880,"beebbef":5881,"bfdbbf":5882,"dbfbbd":5883,"eeecbbbb":5884,"bcedbbc":5885,"bcbcff":5886,"ecccbec":5887,"edcba":5888,"deeded":5889,"bbbeded":5890,"decbecc":5891,"bbbbcdd":5892,"bbeedbd":5893,"bcbcdbc":5894,"fbfccc":5895,"ebcdedc":5896,"bbbebebf":5897,"ebbebbbbbb":5898,"edfdbe":5899,"bbcbcbf":5900,"bbcdbec":5901,"bba</w>":5902,"bccbcee":5903,"decebf":5904,"dfbccc":5905,"efbebbc":5906,"bbbcded":5907,"bbbdbbec":5908,"bddebec":5909,"efcbfc":5910,"bccbcec":5911,"eceedee":5912,"ebefdd":5913,"bdcbbcc":5914,"ebcbbfc":5915,"ebbdccc":5916,"eecfebb":5917,"dcfbec":5918,"edbbccc":5919,"fbfbbbb":5920,"ecfdee":5921,"eebfa":5922,"bbedbbf":5923,"debc</w>":5924,"acdee":5925,"decfec":5926,"ebdcfc":5927,"dbeea":5928,"edcfdc":5929,"ddbedd":5930,"bbeebbcc":5931,"ebfbbebb":5932,"bcbcecc":5933,"debbebd":5934,"ebbbbebbc":5935,"bfcdcc":5936,"bfbcbbbb":5937,"bbdbebbbb":5938,"bebfa":5939,"bdbeff":5940,"becbedd":5941,"dbcddc":5942,"bcbbcbbc":5943,"dcbdec":5944,"dcbbbcc":5945,"bdceebd":5946,"edcbeee":5947,"dbbebfc":5948,"bebdbebc":5949,"bdfdcc":5950,"ebcedcc":5951,"ebcbbebc":5952,"edfedc":5953,"bbefebe":5954,"ecbebbcc":5955,"bccecbc":5956,"bbeedec":5957,"bdbbebbc":5958,"bfcebbc":5959,"eccdedc":5960,"eebc</w>":5961,"beecbbbc":5962,"ebddbec":5963,"dbbbbdd":5964,"edeebbbb":5965,"efcfec":5966,"ecbdbbc":5967,"ebccdee":5968,"fcffc":5969,"eeebebeee":5970,"ebccbbd":5971,"fbcedc":5972,"bfbebec":5973,"eebedbd":5974,"bcecded":5975,"edbedbc":5976,"dbbcebe":5977,"edecebc":5978,"ebdeeee":5979,"bcfba":5980,"bdfdec":5981,"eddea":5982,"bbbebccc":5983,"bcbedbf":5984,"eeceeee":5985,"dfdef":5986,"bdeeccc":5987,"dbbcef":5988,"dbcba":5989,"bfdecc":5990,"bceddee":5991,"dcddcc":5992,"dcfeec":5993,"ecbeebbc":5994,"bfbcfc":5995,"befefc":5996,"eecbbdd":5997,"becfbf":5998,"dbeeebc":5999,"eccdeec":6000,"debcbbc":6001,"bedbdcc":6002,"bbeebbbf":6003,"bbbefec":6004,"beecff":6005,"fefa":6006,"dbbdddd":6007,"bdbcbbd":6008,"befbbcc":6009,"dccfcc":6010,"bceddf":6011,"bbbbfbbbb":6012,"dbcefc":6013,"bccfbf":6014,"bebebbbbc":6015,"bbeacc":6016,"bbebebbbc":6017,"edcebdc":6018,"dbcbebd":6019,"bceebbec":6020,"dbcdebb":6021,"dbebcbd":6022,"ebdfbf":6023,"ffbbbd":6024,"fbeefc":6025,"dcbcbbc":6026,"efdbcc":6027,"bceebbd":6028,"bcbd</w>":6029,"bbcbbebc":6030,"eeccdf":6031,"eceebdc":6032,"dbdba":6033,"bebcbbec":6034,"dceddd":6035,"ddbebf":6036,"bbeebcbc":6037,"fde</w>":6038,"fecfec":6039,"bbeddec":6040,"beebebbbb":6041,"dbcbbcc":6042,"fbf</w>":6043,"eddfcc":6044,"bebcbbbd":6045,"edecfc":6046,"bdbebbbd":6047,"ffeeee":6048,"bbcbebbc":6049,"feddee":6050,"beeebeebb":6051,"edebccc":6052,"dbcfbd":6053,"dbbbdbbc":6054,"bbebebbf":6055,"bfbbeec":6056,"fdceec":6057,"bffbcc":6058,"eebd</w>":6059,"bddfcc":6060,"ebbdbbee":6061,"abcec":6062,"deecbec":6063,"bbcbbfc":6064,"bcfbbcc":6065,"bcfbbbd":6066,"bceebbbc":6067,"feebbbc":6068,"dce</w>":6069,"ebecff":6070,"bebdbbf":6071,"ecceeee":6072,"bbdcfc":6073,"bbedefc":6074,"bffbec":6075,"dbbc</w>":6076,"ebbbedf":6077,"cccbbf":6078,"eebbebdc":6079,"bbceedc":6080,"dfecbc":6081,"ebbebecc":6082,"bebedec":6083,"ebbcbbebb":6084,"bbdeedc":6085,"bdeedbe":6086,"cccebd":6087,"dbbecf":6088,"bebcebf":6089,"fdedcc":6090,"fccbbf":6091,"ebccbbbe":6092,"deebecc":6093,"feddbe":6094,"bcdeccc":6095,"bebedbd":6096,"dfbcec":6097,"eceebec":6098,"dedddc":6099,"bddbbbd":6100,"fedff":6101,"bbbbcbbbbbbbb":6102,"dfeccc":6103,"feddec":6104,"ececfc":6105,"fbcbcbc":6106,"ebbdebf":6107,"edeebec":6108,"ddbced":6109,"bbdeeebb":6110,"beecbbbe":6111,"bfcfee":6112,"bbebebec":6113,"ebcdbbbb":6114,"ebbfdbe":6115,"bdbeedc":6116,"beebac":6117,"bcbe</w>":6118,"eebedee":6119,"bccdebe":6120,"beeda":6121,"eececbd":6122,"beecebd":6123,"ebaa":6124,"dbeefc":6125,"bbdca":6126,"bbdebdc":6127,"bbecdbd":6128,"eefbbebb":6129,"fcbbdd":6130,"dbcbbed":6131,"bcdbbdd":6132,"dbbebbebb":6133,"ecbcdec":6134,"ebebea":6135,"bebdebd":6136,"dbcdbf":6137,"bbcbbbec":6138,"bcdcccc":6139,"ecbedbf":6140,"fffbe":6141,"fbddee":6142,"dddccc":6143,"bceebbee":6144,"bceedec":6145,"ebccbbf":6146,"bbbdba":6147,"dbceebc":6148,"dbbecdc":6149,"bfbeebc":6150,"bbecbef":6151,"ebccdec":6152,"defef":6153,"dccebf":6154,"bcbdef":6155,"bbbefbe":6156,"bcbeded":6157,"bbbdebf":6158,"beee</w>":6159,"bbbfccc":6160,"beed</w>":6161,"ebbeddd":6162,"acca":6163,"becfebb":6164,"bdbbbfc":6165,"dbbdbbd":6166,"bbbedfc":6167,"eeccebd":6168,"dddebd":6169,"bbbeeebc":6170,"bbeeedc":6171,"dbbebbbbbb":6172,"bcbbac":6173,"ebbecebc":6174,"acbcc":6175,"eccccccc":6176,"bfb</w>":6177,"bbbbbdbbbb":6178,"bfbbebd":6179,"dbbecee":6180,"fdcff":6181,"ecceeed":6182,"beecbbf":6183,"bbcbced":6184,"edfccc":6185,"bfbcebc":6186,"bcecebe":6187,"dffdd":6188,"fccfcc":6189,"bcfded":6190,"edeeecc":6191,"bbbbcef":6192,"ebbecbbbb":6193,"dccddc":6194,"feacc":6195,"eccdbbc":6196,"ecbebbec":6197,"bceceec":6198,"becdecc":6199,"dfebec":6200,"bebebebd":6201,"ebcfef":6202,"ddbeebb":6203,"bbefef":6204,"debceec":6205,"beec</w>":6206,"bfecebb":6207,"fecbfc":6208,"efcdbd":6209,"ebfbecc":6210,"eabba":6211,"bddbecc":6212,"bdceeec":6213,"ebbcded":6214,"baeec":6215,"bfbcebe":6216,"eabbee":6217,"eebdbbbb":6218,"eccffc":6219,"edcbbcc":6220,"dbecbbc":6221,"beeebeebe":6222,"ebbbebbebb":6223,"fdbfcc":6224,"bbdceec":6225,"bdfbfc":6226,"ebbeebbf":6227,"bdcbbed":6228,"bebebeec":6229,"fcfbbc":6230,"bbbcdebb":6231,"ecbcbbd":6232,"bbbdded":6233,"dbfebd":6234,"eefbbec":6235,"fccebd":6236,"ecbbbecc":6237,"adbbc":6238,"bbbcdcc":6239,"debeccc":6240,"ebcbcbf":6241,"efcfbc":6242,"bcbcebd":6243,"eddebec":6244,"eefbbcc":6245,"febbebe":6246,"beeebbebe":6247,"dfbbbf":6248,"febbef":6249,"bdcebcc":6250,"eeebbeeee":6251,"fcbedd":6252,"dfbcbd":6253,"ecbbebcc":6254,"bedceec":6255,"bebcfbc":6256,"bcdbbebb":6257,"ebcedbd":6258,"debebec":6259,"bbceeed":6260,"bbbbebbbbbb":6261,"ebcfebc":6262,"bbcbcebb":6263,"edebbebb":6264,"decdebb":6265,"ebcfbbc":6266,"bcfddc":6267,"ebcbbbec":6268,"fccfbc":6269,"bddea":6270,"bbefbbf":6271,"dbbbdbe":6272,"bcecef":6273,"ebbbac":6274,"dfbbed":6275,"eedbbdd":6276,"bdfbbbc":6277,"bceb</w>":6278,"debcef":6279,"bcccecc":6280,"befbbbf":6281,"edbebbf":6282,"bbbbca":6283,"bbbedbbbb":6284,"bebebecc":6285,"dceeef":6286,"bcbbbbbbbc":6287,"deebbebb":6288,"ddeeed":6289,"dbbcbbd":6290,"badbd":6291,"bcbebbed":6292,"bebdbcc":6293,"bebcfec":6294,"ebbe</w>":6295,"bfcbbee":6296,"ecccef":6297,"fbbeccc":6298,"ddecbd":6299,"ddfef":6300,"ebbbbba":6301,"ddbdcc":6302,"ebbecbec":6303,"bebbbbbbbbbbbb":6304,"bbddbbd":6305,"dedbef":6306,"ebbeefc":6307,"edcbeed":6308,"eeccebe":6309,"eedbbbf":6310,"decbcbc":6311,"baebd":6312,"bbbdbdbd":6313,"dbbe</w>":6314,"fdca":6315,"dcecebb":6316,"bcccef":6317,"bfeba":6318,"bfcbebe":6319,"dccbbbe":6320,"eddba":6321,"eebdecc":6322,"bbebea":6323,"bfeebbc":6324,"bbfbecc":6325,"fccdee":6326,"ebebebbbe":6327,"bdcdef":6328,"bbbbeeebb":6329,"bbbcfec":6330,"ebefbbc":6331,"fedfc":6332,"bdbcccc":6333,"ebbbeff":6334,"ebdbeebb":6335,"ebccdbc":6336,"edecbec":6337,"bbfbebf":6338,"fbeeecc":6339,"dbedbbc":6340,"decddc":6341,"fbcbbee":6342,"bbbebbdc":6343,"fefef":6344,"ebcdbcc":6345,"ebbcbbcc":6346,"feedee":6347,"becfdc":6348,"dbebbbf":6349,"bfecee":6350,"eefbbbd":6351,"bbceeebb":6352,"bdbceec":6353,"fefff":6354,"edcdebe":6355,"bbebeef":6356,"bbbbcfc":6357,"bbefff":6358,"acbbbb":6359,"bdbca":6360,"dbfca":6361,"bcbbcbbbb":6362,"bebebebf":6363,"dbbeba":6364,"becda":6365,"dbebcec":6366,"ebbecebe":6367,"ebbbca":6368,"dfeecc":6369,"deebbed":6370,"bbdbbebc":6371,"bfbea":6372,"defff":6373,"dfbeec":6374,"edcdeec":6375,"bfeced":6376,"eafee":6377,"bbecbbbd":6378,"ebcbeebe":6379,"ebfdbf":6380,"bbecebbc":6381,"fbcefc":6382,"eebcbebc":6383,"beccff":6384,"ebedbcc":6385,"dccbebe":6386,"bcfbecc":6387,"dbdbfc":6388,"bbdbbfc":6389,"becbbdd":6390,"ebefa":6391,"ebdca":6392,"eedbbebb":6393,"eebcebbc":6394,"eefdbf":6395,"dedbbbe":6396,"ebffbf":6397,"bbebbccc":6398,"bccdbbc":6399,"bcbedebb":6400,"fecbebc":6401,"bccceec":6402,"bebffc":6403,"ebecdc":6404,"dbddebb":6405,"fdebfc":6406,"ecbebbbd":6407,"bbecbfc":6408,"bccdfc":6409,"eefbbbf":6410,"ebddebd":6411,"edebbbc":6412,"bebdccc":6413,"edccccc":6414,"bbcbebbbb":6415,"ecececc":6416,"ecfbebc":6417,"bbdbedd":6418,"bbecfbc":6419,"fbdbbf":6420,"dafc":6421,"ebeeedc":6422,"efcbef":6423,"bcbcbebe":6424,"bebddbc":6425,"dbbcfc":6426,"bbdbebbc":6427,"becbbebe":6428,"bcbdfc":6429,"bdbedbd":6430,"bdecbbc":6431,"dcdbbf":6432,"bffbbf":6433,"bbdcdf":6434,"bbbfbbbf":6435,"bcceccc":6436,"bbebbeec":6437,"ddcedc":6438,"aebcc":6439,"bbbbbbfc":6440,"dbfdbc":6441,"bfcbbbd":6442,"ecbcdbc":6443,"dcfdf":6444,"bbdcebc":6445,"bdcbeed":6446,"efbded":6447,"dbbebbcc":6448,"bfeedd":6449,"fecebd":6450,"edeeccc":6451,"becbebbc":6452,"feddbc":6453,"ecbebecc":6454,"bcdbbed":6455,"bbdbced":6456,"bbccbebe":6457,"dceeebe":6458,"ecbbea":6459,"ebbcbeee":6460,"dcecef":6461,"bbcbbbcc":6462,"edfbbf":6463,"decbbee":6464,"fbcdbd":6465,"bbcebdc":6466,"abebf":6467,"bbdbba":6468,"eadbc":6469,"bebdecc":6470,"eebdeec":6471,"bbdcdbe":6472,"ebccbbbc":6473,"eebebecc":6474,"bbedff":6475,"ddcbbf":6476,"fbcebbc":6477,"ebdac":6478,"bfcbbef":6479,"adba":6480,"bbbbbbbbbbbbbbbbbbbb":6481,"bedcdf":6482,"edbcccc":6483,"eebebbef":6484,"dededc":6485,"efdbbd":6486,"bfcfcc":6487,"dbfbbbe":6488,"bdbcbcc":6489,"bececcc":6490,"eeebfcc":6491,"eccbcee":6492,"ebfbebf":6493,"bebcbef":6494,"fbbcccc":6495,"bddebcc":6496,"eedbbed":6497,"bbebbebd":6498,"dbfbdc":6499,"beccdec":6500,"dfcdee":6501,"ebbd</w>":6502,"bfbdee":6503,"bebdbbbc":6504,"ebbbeeec":6505,"bbbbcdbe":6506,"ecbcedc":6507,"bcdb</w>":6508,"bbcdeec":6509,"fcdedc":6510,"bbbbbbcbbbb":6511,"bbcbcbbc":6512,"ebedbbd":6513,"fecdbd":6514,"bbdbcbe":6515,"bbcfbbc":6516,"eccfbf":6517,"bbbedbbc":6518,"ebdceec":6519,"ecfdbd":6520,"fefccc":6521,"bbfeebc":6522,"bbdfbbc":6523,"eccfbe":6524,"bccbebf":6525,"bbcbcf":6526,"eebdedc":6527,"dbecbec":6528,"bebedcc":6529,"eaebc":6530,"bbbefebb":6531,"bebbbbbbbc":6532,"bbcccccc":6533,"ebfded":6534,"dbfeec":6535,"bbbfbbee":6536,"fccdbe":6537,"ecbdebc":6538,"ffdef":6539,"bbbeefc":6540,"bbbddec":6541,"ecfeecc":6542,"ebfbebd":6543,"bbeddbd":6544,"dcfbcc":6545,"bdbcdf":6546,"bfcefc":6547,"debea":6548,"bedcef":6549,"bbbdbef":6550,"ebebcbbc":6551,"babef":6552,"deebcec":6553,"becac":6554,"bbdda":6555,"deefee":6556,"dbbbdec":6557,"eedcfc":6558,"dbbcdf":6559,"eabdc":6560,"bdfbebe":6561,"bccbeebb":6562,"bbfebec":6563,"beecbeec":6564,"bbbbcbcbc":6565,"ebebbbcc":6566,"ddbcdc":6567,"dddcdc":6568,"becbbef":6569,"ebedeec":6570,"bbbebebbc":6571,"ecfefc":6572,"ebeecbe":6573,"bbdcbbd":6574,"ecdbdcc":6575,"dcbcebe":6576,"bcdedcc":6577,"eccbbebb":6578,"becbced":6579,"eebcbebe":6580,"ebcdbbd":6581,"ebbbeecc":6582,"ebcecbe":6583,"bfcfec":6584,"ebdecbd":6585,"eebcfbc":6586,"bcdbbbf":6587,"ffbccc":6588,"ebebedd":6589,"fccbdc":6590,"eefbbef":6591,"eebdef":6592,"bbbcebec":6593,"bbbbddc":6594,"bcbffc":6595,"ddecdc":6596,"becbbebc":6597,"edfbdc":6598,"bbecebf":6599,"edbbebf":6600,"eccbbbf":6601,"bfedbf":6602,"fbfdf":6603,"edecef":6604,"bbdcdee":6605,"dceded":6606,"fffdc":6607,"bbebbebf":6608,"bbbebbef":6609,"bbccbcbc":6610,"bbeedcc":6611,"dfca":6612,"dbbbbdbbbb":6613,"eebfef":6614,"ddecec":6615,"debbdbc":6616,"dbeebec":6617,"fbebbebe":6618,"fbeded":6619,"bcecbbbb":6620,"bbbdfbc":6621,"dbbca":6622,"bdeedf":6623,"bceedcc":6624,"dceebbc":6625,"eecdbcc":6626,"bbebbbeebb":6627,"eabebe":6628,"ebdcebd":6629,"bebcbeec":6630,"debbdee":6631,"bfbdebb":6632,"bbdbcebb":6633,"beccbecc":6634,"fccbbbb":6635,"babeee":6636,"fedbdc":6637,"bfcedc":6638,"bebddec":6639,"bbbebbebc":6640,"fcecbd":6641,"fecbebe":6642,"bcbdbec":6643,"eabef":6644,"ebeeba":6645,"bbbbcbebe":6646,"beebebebe":6647,"eedbdcc":6648,"dbbedcc":6649,"fcbbebe":6650,"fddef":6651,"eebdccc":6652,"dbecdf":6653,"beefa":6654,"ddeedd":6655,"bbebbff":6656,"ecbcff":6657,"eaebf":6658,"ebddbbd":6659,"bcbda":6660,"bfcba":6661,"eededcc":6662,"ebbfebf":6663,"bbdeebe":6664,"dcbcfc":6665,"bcbddee":6666,"efcfee":6667,"bbbceebc":6668,"efbbbec":6669,"fcbcdc":6670,"bededcc":6671,"debbff":6672,"bdbcdbe":6673,"bbffdc":6674,"bceeff":6675,"bbdeeed":6676,"ecbcbbbe":6677,"ecfebbc":6678,"bbebbebbc":6679,"eeebbbbc":6680,"bcccbec":6681,"efdbbbb":6682,"fbdebd":6683,"debbbebe":6684,"dabba":6685,"ebbbcbbbe":6686,"beedccc":6687,"bbbbdebe":6688,"ebfebcc":6689,"bedcbbc":6690,"eefddc":6691,"debbbbbd":6692,"debbecc":6693,"decdef":6694,"ddedbd":6695,"bbbbdbbd":6696,"beccbdc":6697,"dbbcdee":6698,"beecbdc":6699,"beeeebd":6700,"dcbbeec":6701,"fccdbc":6702,"eeceedd":6703,"dcceecc":6704,"bebceebc":6705,"fbddbc":6706,"edbedee":6707,"ebcfebe":6708,"dcdbbbe":6709,"bedca":6710,"ecdbbbd":6711,"ececdbe":6712,"bccac":6713,"bbbbcbf":6714,"dedbebe":6715,"bdbedec":6716,"ebdcbec":6717,"eabea":6718,"fbdbdc":6719,"ddbbebe":6720,"bbcfef":6721,"edbcdf":6722,"ebbbeebf":6723,"bcbeddc":6724,"bebcdbd":6725,"ebdedcc":6726,"fbebbef":6727,"bbeebbed":6728,"decfee":6729,"dcedbf":6730,"eabbd":6731,"bcbebccc":6732,"dcfebd":6733,"bebcbebd":6734,"beebebbbe":6735,"befbebf":6736,"fbcfee":6737,"fcfdd":6738,"bbceebe":6739,"bbecbbebb":6740,"fcbbebc":6741,"eeebebebe":6742,"bedbfcc":6743,"eebddbe":6744,"acebe":6745,"bbfbccc":6746,"ebbbbbfc":6747,"edcecbd":6748,"bedd</w>":6749,"edecbcc":6750,"beebea":6751,"fbeddc":6752,"dceefc":6753,"eedca":6754,"dbceeee":6755,"fbcfcc":6756,"bbbdbbed":6757,"dccbbbc":6758,"dbbbfcc":6759,"dfcef":6760,"efcbeec":6761,"eeebeef":6762,"dbecdd":6763,"ebbc</w>":6764,"edcbbed":6765,"bbabba":6766,"bceebecbbec":6767,"bceeebd":6768,"bbdddbe":6769,"dbbbdbbd":6770,"bccdebc":6771,"bdbcebc":6772,"bbffebb":6773,"ebdcef":6774,"bbbbbeed":6775,"bafee":6776,"eeebbbbbe":6777,"dbdfee":6778,"bfebbcc":6779,"edbcecc":6780,"bebbcccc":6781,"deeefc":6782,"ebbebccc":6783,"dbbcebd":6784,"dbbcdbe":6785,"edebbbf":6786,"ebffdc":6787,"bccbbef":6788,"bceca":6789,"bcfbbbf":6790,"eedcbec":6791,"ebdcedc":6792,"bbebbdf":6793,"bbecbcbc":6794,"bbdbbbec":6795,"acbbf":6796,"ecbcbdc":6797,"ebbbdef":6798,"bbbdbeee":6799,"eddeccc":6800,"bbbcbcbd":6801,"ebeecdc":6802,"defbbf":6803,"dbdbeee":6804,"bcebbbbc":6805,"bcbbeecc":6806,"ddbddc":6807,"fecbbbe":6808,"bbbbcebc":6809,"dccefc":6810,"fbfbf":6811,"bcfbccc":6812,"ebdbedd":6813,"bdeebcc":6814,"dbbbdf":6815,"fbddec":6816,"ebbcefc":6817,"bdccccc":6818,"acff":6819,"ddbbef":6820,"fccbfc":6821,"bcbcbdc":6822,"edbedcc":6823,"ebcbcdd":6824,"ecfbecc":6825,"bbcda":6826,"fbdbbd":6827,"eebebccc":6828,"bcfea":6829,"bbbbbcbf":6830,"bafbc":6831,"bbebbbeee":6832,"eccbced":6833,"dcbebec":6834,"dccbfc":6835,"beebbbbee":6836,"becbcee":6837,"debebcc":6838,"beecbebe":6839,"bebdff":6840,"bbddbbbd":6841,"bbebebcc":6842,"eebcded":6843,"bbbfbbbd":6844,"ececdec":6845,"bbccbbee":6846,"edbcebd":6847,"eefbecc":6848,"acebc":6849,"bbedbebe":6850,"dbcfed":6851,"eecbced":6852,"edeedbe":6853,"beceeee":6854,"edfdbc":6855,"ecbeded":6856,"bddbbdd":6857,"dcbbebd":6858,"eecbebbc":6859,"bebbbebbbb":6860,"dbddbf":6861,"bffdbe":6862,"bbbebcbd":6863,"bfdbbbe":6864,"bebbeba":6865,"beececc":6866,"bedebfc":6867,"dcebbcc":6868,"ebecbebe":6869,"fcdbcc":6870,"becffc":6871,"eabeee":6872,"eedcdd":6873,"beecbfc":6874,"ebbcdcc":6875,"eeecdbe":6876,"eeeda":6877,"dbbcbcc":6878,"debcdd":6879,"fcceecc":6880,"eeebbef":6881,"fbfbbf":6882,"bfbbecc":6883,"bfbcbec":6884,"bbcb</w>":6885,"beeddbe":6886,"bbccdec":6887,"ecbcbbbc":6888,"eeeddd":6889,"eecffc":6890,"deebcbd":6891,"ebecfbc":6892,"ebbecef":6893,"debebbbe":6894,"bbcbedd":6895,"feeebd":6896,"fcdebd":6897,"bbbbbcec":6898,"bbcffc":6899,"bfbcdd":6900,"fccefc":6901,"bbccdbd":6902,"eccbebf":6903,"fcbdbd":6904,"ebccebf":6905,"dfcdbe":6906,"ebbfedc":6907,"fcecec":6908,"ebbdebbc":6909,"bfbddc":6910,"dcbebbbb":6911,"eeecef":6912,"bbedbbbc":6913,"dcbdef":6914,"bdfefc":6915,"defebc":6916,"eabca":6917,"bbedebd":6918,"eeecdec":6919,"fecbbbc":6920,"bfebbebb":6921,"bbfddc":6922,"bdcbcbd":6923,"eefbbebe":6924,"beccdbe":6925,"befddc":6926,"bbbdbebd":6927,"dbffbc":6928,"dbecef":6929,"bbccebf":6930,"fccded":6931,"bcfebec":6932,"bebcdebb":6933,"ffbbbf":6934,"bbdcbcc":6935,"dccfee":6936,"ebccfbc":6937,"bbdbddd":6938,"eccbcdc":6939,"bbfbeebb":6940,"bdbcdee":6941,"ebbcbebd":6942,"decceec":6943,"dfdfc":6944,"fccfed":6945,"dfbbebb":6946,"dfbcee":6947,"eeecdbc":6948,"dfeebc":6949,"befded":6950,"bccca":6951,"bbbdbbbbc":6952,"befbeec":6953,"dbbbb</w>":6954,"bbbebbbec":6955,"ebbcdebb":6956,"ecdbbbbc":6957,"eefded":6958,"fffef":6959,"dbdbcbc":6960,"eebbeccc":6961,"debddd":6962,"bdbeebf":6963,"beccfec":6964,"eeecbdc":6965,"cccbbbc":6966,"ecccebd":6967,"bcccebc":6968,"fddbec":6969,"bdbcbbbc":6970,"edcbcbd":6971,"eceeddc":6972,"bebfef":6973,"dcbdebb":6974,"ececdee":6975,"dbbceec":6976,"bcbbbbbcbbbb":6977,"eedbbdc":6978,"eeccbdc":6979,"acdbe":6980,"ecbdfc":6981,"edebbbd":6982,"ebbeded":6983,"ecccebe":6984,"edcedcc":6985,"dbbcbbbc":6986,"bbbeddc":6987,"cccbbd":6988,"dccfed":6989,"bccfebb":6990,"eceedbd":6991,"bbfeeee":6992,"fdc</w>":6993,"fbcfed":6994,"ebdcecc":6995,"ebccbebe":6996,"afef":6997,"bbbebcebb":6998,"ebeebbebb":6999,"ebbcfec":7000,"edbcbec":7001,"bcbcdec":7002,"dbfdbd":7003,"debefc":7004,"fbfdd":7005,"beecbbec":7006,"bfbebbbe":7007,"efbcef":7008,"ebbcfee":7009,"efeba":7010,"fbcbbec":7011,"dfda":7012,"bbedbbed":7013,"bbebbbbec":7014,"bfbdec":7015,"bdeeecc":7016,"edeedf":7017,"bbbfdbc":7018,"dfcbec":7019,"bbebebeee":7020,"dcbeecc":7021,"dbbcebc":7022,"bbfbcbd":7023,"bbbbeebd":7024,"deecdd":7025,"babfc":7026,"eabbbc":7027,"eebcebf":7028,"bcceeed":7029,"bfbdf":7030,"baac":7031,"cccded":7032,"ecbe</w>":7033,"dcebecc":7034,"bceebebc":7035,"bcbbcccc":7036,"edfbbbe":7037,"beebeeeee":7038,"bbbbecbc":7039,"edbddd":7040,"bdbddbd":7041,"bbcecbd":7042,"eebcbbee":7043,"cccdbd":7044,"decbbbd":7045,"abbef":7046,"bbbfbfc":7047,"dbefbe":7048,"edeac":7049,"bbdfdd":7050,"cccfcc":7051,"eeccdbc":7052,"eeecfc":7053,"bbddebe":7054,"bbccbebc":7055,"bbccbfc":7056,"deebccc":7057,"decefc":7058,"bfbbbbbbbb":7059,"beebebeee":7060,"bbbefcc":7061,"ecfbef":7062,"dbfda":7063,"bbbbcbbebb":7064,"debedf":7065,"beebebbee":7066,"bbccfbc":7067,"bcbeefc":7068,"eeec</w>":7069,"bcfeecc":7070,"eeeebec":7071,"dccbef":7072,"eefbccc":7073,"dbfebf":7074,"edbebbbc":7075,"ebbdcdc":7076,"bfbebcc":7077,"eccdbec":7078,"eecbbebe":7079,"ebecbebc":7080,"bbbcbeebb":7081,"dbbcbbbe":7082,"abeebb":7083,"edeebbd":7084,"bbbddebb":7085,"ebbfbbbc":7086,"dbdbbec":7087,"bedddd":7088,"fcbebbc":7089,"bccbbdd":7090,"dcbbecc":7091,"edececc":7092,"edcffc":7093,"deebebd":7094,"fcbefc":7095,"eebddbc":7096,"fecbeec":7097,"eefefc":7098,"bdeeebc":7099,"bbebbbef":7100,"bebacc":7101,"dcbedbe":7102,"dbebeebb":7103,"ebbceebc":7104,"bbbdbfc":7105,"dbeac":7106,"dcbedf":7107,"ebdbbebe":7108,"eecbdbd":7109,"efb</w>":7110,"decbeed":7111,"ecdcecc":7112,"dedbbbc":7113,"abbdc":7114,"ebbbbedc":7115,"fbeebcc":7116,"fbdfbc":7117,"bcbbb</w>":7118,"fbbcbbc":7119,"ecbdbec":7120,"bbef</w>":7121,"dbefdc":7122,"bfecbbc":7123,"bbeebeec":7124,"eeeebeebb":7125,"ebdcdf":7126,"eddbbcc":7127,"dbcbcbd":7128,"ebecdbd":7129,"ebedbb":7130,"eedb</w>":7131,"fbdecc":7132,"ebfdebb":7133,"deeeecc":7134,"bedcdd":7135,"bebbebfc":7136,"babebc":7137,"eeeebbbc":7138,"fccbebe":7139,"beeebcbc":7140,"eeedbbc":7141,"ebbdced":7142,"eeecbbbc":7143,"bdecdf":7144,"bbbbbbbbbbebb":7145,"edcdedc":7146,"bcccbbbb":7147,"bedcebc":7148,"bdfbbee":7149,"bcbbbbbbbbbbbb":7150,"dedbfc":7151,"bbdfef":7152,"fbebbed":7153,"bebddbd":7154,"ecbcbebc":7155,"ebedecc":7156,"bbcbba":7157,"fbcdcc":7158,"bbccbef":7159,"bbcbcbbbb":7160,"bbdbcbf":7161,"ecbebccc":7162,"becdedc":7163,"eceebbf":7164,"bbccbbbd":7165,"efedcc":7166,"bbeffc":7167,"bdcfdc":7168,"debcccc":7169,"debcfc":7170,"eeccdec":7171,"abbebe":7172,"dbfedc":7173,"bebdedc":7174,"debcebc":7175,"fecbef":7176,"efbea":7177,"ebbcbbbf":7178,"dcbea":7179,"eedcdf":7180,"bceedbd":7181,"ecfbebe":7182,"edacc":7183,"defecc":7184,"bbdbbebd":7185,"bdbcbbbe":7186,"dbfbbbc":7187,"bacba":7188,"bfdccc":7189,"beeddee":7190,"ebdcdbe":7191,"bfecdd":7192,"efcbbbe":7193,"ebcbebbbb":7194,"ecbdecc":7195,"eecfbf":7196,"ebecded":7197,"eedddd":7198,"bbceebf":7199,"bcbebbbf":7200,"bcbdebe":7201,"bdecdee":7202,"eebeddc":7203,"defebe":7204,"bbceccc":7205,"bdcbbdc":7206,"debbbebc":7207,"bbbdbbdd":7208,"eecbcdc":7209,"ebbfbebe":7210,"fecfbc":7211,"fbbb</w>":7212,"bbbdebbc":7213,"bdbcebd":7214,"bcbddbe":7215,"afdd":7216,"bbebbbbbf":7217,"debbbbee":7218,"bbfcbbbb":7219,"efdebd":7220,"bfecef":7221,"bbccfee":7222,"bbefdbe":7223,"ecedccc":7224,"dfcebe":7225,"fecbecc":7226,"beedbbbb":7227,"eebdbcc":7228,"bbcdbbd":7229,"beecdbd":7230,"eebfebe":7231,"ebcbdcc":7232,"decba":7233,"defbdc":7234,"dfcbcc":7235,"decfcc":7236,"ebbecfc":7237,"dddbdc":7238,"eeeeea":7239,"bbbeebcc":7240,"ebecbbee":7241,"ebecebbc":7242,"bbbcbbdc":7243,"bceeedc":7244,"bedcfc":7245,"bdf</w>":7246,"bebdbdc":7247,"eebdebd":7248,"beebbbbf":7249,"bdebdcc":7250,"ecfbbec":7251,"dbcbbebb":7252,"eeccdbe":7253,"fdebbcc":7254,"bbfcdf":7255,"bdbebbec":7256,"decdeec":7257,"dbeceec":7258,"bbfcfc":7259,"beecbecc":7260,"bbedbebc":7261,"bfcdbf":7262,"bcbebbbbc":7263,"bebfbec":7264,"bbbdecc":7265,"bbdecbd":7266,"fffed":7267,"bbcbcdc":7268,"babbbf":7269,"deeeebc":7270,"dbbbfbf":7271,"bbeeea":7272,"efbefc":7273,"bbedbdc":7274,"fecbcbc":7275,"bbbefbf":7276,"efcedc":7277,"eeeceec":7278,"dcfedc":7279,"aceec":7280,"bceebebe":7281,"ecccdf":7282,"bbdffc":7283,"debeebc":7284,"dceba":7285,"efcebf":7286,"ebdbced":7287,"debbbdc":7288,"ecbbbccc":7289,"eccbbdd":7290,"ebecdcc":7291,"bcfbeee":7292,"dbbecbbc":7293,"beceedd":7294,"bebbbdcc":7295,"bcdbbdc":7296,"eeecebc":7297,"bbdeebf":7298,"efecdc":7299,"ddeebf":7300,"eccca":7301,"defdbc":7302,"decbebd":7303,"dcbcccc":7304,"debbedc":7305,"babbebb":7306,"bbbcbecc":7307,"bcdbdcc":7308,"bcecdbc":7309,"eeebbbebe":7310,"defbbbb":7311,"ebdffc":7312,"bfbebbd":7313,"defdee":7314,"fdcdee":7315,"eccfecc":7316,"efcbcbc":7317,"bdbebbcc":7318,"ddbcdd":7319,"bbbcbccc":7320,"bedefcc":7321,"dcceebc":7322,"fbdbebe":7323,"bdfbef":7324,"fbdbfc":7325,"ebffbe":7326,"eeeeebeebe":7327,"eccecdd":7328,"dcbcebc":7329,"ecbcbebe":7330,"ecfddc":7331,"eeeebeef":7332,"bebfbbf":7333,"bebbbbbbebb":7334,"fceeed":7335,"bebcbecc":7336,"bccfdd":7337,"bbeefbe":7338,"ebfbeec":7339,"ecbdccc":7340,"febbff":7341,"edfdee":7342,"bcccccccc":7343,"eebdebe":7344,"bbbdbcbc":7345,"beeeea":7346,"bacea":7347,"bccbbebe":7348,"dbebbebe":7349,"bceebfc":7350,"bdcea":7351,"bccbced":7352,"ebffef":7353,"bbdcff":7354,"bbedded":7355,"dbbecdd":7356,"efcbebe":7357,"bbeebbbbc":7358,"befbbef":7359,"beeebebc":7360,"ebeffc":7361,"bccebdc":7362,"bdbdbbc":7363,"bfdbdc":7364,"ecbddf":7365,"ddfbbc":7366,"bbfdbbc":7367,"becceecc":7368,"dbecdee":7369,"becdebd":7370,"fdcbbc":7371,"eebedec":7372,"efbedd":7373,"debbdbd":7374,"ecbcfbc":7375,"ecbebbebb":7376,"ebceeebb":7377,"edcbedd":7378,"bffebd":7379,"deccccc":7380,"ebfbeebb":7381,"fdcdec":7382,"bbdd</w>":7383,"dccbebc":7384,"ebbfbdc":7385,"fcecdc":7386,"edbceec":7387,"eedcecc":7388,"debedbe":7389,"bbbbac":7390,"bdcfbe":7391,"fdeba":7392,"bbdfebe":7393,"ebffebb":7394,"ebecbbec":7395,"fbddbd":7396,"beeddec":7397,"babda":7398,"bedebbcc":7399,"bcbcbbec":7400,"eeccff":7401,"bbbebcec":7402,"beeeebbc":7403,"bcdbbebe":7404,"dabbc":7405,"eceb</w>":7406,"ebedebd":7407,"ebeedcc":7408,"beccdee":7409,"ecfded":7410,"bffecc":7411,"befbeebb":7412,"eaecc":7413,"dcfdbe":7414,"bbefbec":7415,"edceedd":7416,"fdcebc":7417,"dceeebc":7418,"edceeee":7419,"bbedbbec":7420,"eceddd":7421,"debebebe":7422,"fedeec":7423,"bbdcebd":7424,"ecccdee":7425,"dccbbee":7426,"bcfbbebb":7427,"eeebac":7428,"bcbcdbd":7429,"ebbcbeec":7430,"eebcdbd":7431,"bcbeebec":7432,"bbbbcdbc":7433,"eeebea":7434,"bbbbbcee":7435,"fcbdcc":7436,"fbfbec":7437,"bbbcfbd":7438,"feeea":7439,"bbbfbbebb":7440,"bbbeeeebb":7441,"febea":7442,"dbfbfc":7443,"fbfbcc":7444,"bbbbfbbc":7445,"bbefdf":7446,"dbbda":7447,"debcdee":7448,"debeef":7449,"defdcc":7450,"ecfbbcc":7451,"befbbed":7452,"ddeebe":7453,"dbceebd":7454,"bbfbbebe":7455,"dcecdee":7456,"bbdddf":7457,"bcbfbbc":7458,"dcbdf":7459,"dadf":7460,"edcfebb":7461,"bfeddc":7462,"ebbcebec":7463,"eedceec":7464,"fefdf":7465,"dbcbecc":7466,"ebccbfc":7467,"bbbcdbbbb":7468,"beebeef":7469,"ebeecec":7470,"bbbbbbebd":7471,"bbbbcbbee":7472,"eeed</w>":7473,"dbcebec":7474,"ebfbccc":7475,"fecfed":7476,"dcdebf":7477,"eebcbfc":7478,"ebcbbbcc":7479,"dcecebe":7480,"bbccbbec":7481,"ddeeebb":7482,"bdcbbebb":7483,"ebcbefc":7484,"ebcbeef":7485,"eaeec":7486,"bceddbe":7487,"bcedbec":7488,"beebebbc":7489,"dedbecc":7490,"fecedc":7491,"bbbcbbebe":7492,"bdbebfc":7493,"bcbcbccc":7494,"bebfebe":7495,"bfbca":7496,"debeebe":7497,"fdefcc":7498,"fcbcbe":7499,"decdbf":7500,"eeedccc":7501,"eccdebd":7502,"aeecc":7503,"ecbeba":7504,"fefdd":7505,"ebfddc":7506,"ecccdcc":7507,"dbbcbbf":7508,"befbebd":7509,"efcbecc":7510,"dbecdbe":7511,"fbbbdcc":7512,"bbeebebd":7513,"ecdbbdd":7514,"ebbeedbe":7515,"edecbbbb":7516,"ebbdddd":7517,"dbbedbf":7518,"ecdefcc":7519,"dcfbbd":7520,"bbbfebd":7521,"eeeddf":7522,"bdbcdbc":7523,"effdf":7524,"dcecdf":7525,"debca":7526,"bececbd":7527,"ffbbef":7528,"bbeedbf":7529,"ebbdbfc":7530,"bdceeee":7531,"efbcbbc":7532,"edcbccc":7533,"bcdbbef":7534,"ebbfdbc":7535,"bcececc":7536,"bbbfebf":7537,"bbbfbebc":7538,"bbfebcc":7539,"bbffed":7540,"fccbbd":7541,"befdebb":7542,"bbbbcdf":7543,"feedbd":7544,"ebdcccc":7545,"bedeba":7546,"deecbbc":7547,"beeebbbd":7548,"efcebbc":7549,"ebbfbbee":7550,"fbdedc":7551,"fecba":7552,"becbcebb":7553,"edbeff":7554,"edbbbbbbbb":7555,"dcbcbec":7556,"efecbf":7557,"eccfebc":7558,"ecbcded":7559,"fbfebe":7560,"bccecec":7561,"dbbcdbd":7562,"efbbbcc":7563,"beeeeeebe":7564,"ebdbcee":7565,"ffbecc":7566,"bbbebcbe":7567,"eceebbd":7568,"efdecc":7569,"ebcbba":7570,"bbdcdbc":7571,"beaa":7572,"edbedbd":7573,"bbbfeec":7574,"dbbbdebe":7575,"bcbcbbbd":7576,"dcbebcc":7577,"bbffef":7578,"bcfac":7579,"eebcbbec":7580,"ebbbcdbe":7581,"deecdec":7582,"eebebba":7583,"deedebb":7584,"dbfbebe":7585,"ebbfccc":7586,"fbbebfc":7587,"fbcba":7588,"ecbdeec":7589,"deeceec":7590,"fceef":7591,"ebebcbbbb":7592,"fedded":7593,"ebdecdc":7594,"ecfbccc":7595,"fecefc":7596,"bccbdbd":7597,"ebbcba":7598,"bbebebbebb":7599,"bebbebbcc":7600,"eceeedc":7601,"bbdbcbbbb":7602,"bbfdef":7603,"edebbed":7604,"ddeef":7605,"fccebf":7606,"eedbbebe":7607,"bbdeef":7608,"bfbdef":7609,"bcbcbef":7610,"eeeeeeef":7611,"bcfebcc":7612,"bbdbdcc":7613,"feeeec":7614,"dbbcdbc":7615,"ebdfdd":7616,"ebcbcbbc":7617,"abcbf":7618,"bbeebbef":7619,"bfe</w>":7620,"ecbcbbec":7621,"bcbcded":7622,"bdeedbc":7623,"dcfccc":7624,"febeebe":7625,"beebbbec":7626,"dbebeed":7627,"febbdf":7628,"bbddbec":7629,"aeea":7630,"bbbcefc":7631,"bbbbbebbbe":7632,"dbbeddd":7633,"dcbcdf":7634,"eeeebbebe":7635,"ddc</w>":7636,"dbebbdc":7637,"bbfcbec":7638,"ebfeebc":7639,"bdbcdbd":7640,"beecdebb":7641,"bbbbcbbec":7642,"edecebe":7643,"edcecdc":7644,"bbedbbbd":7645,"fbdbebc":7646,"ab</w>":7647,"dbbcff":7648,"bceeebbc":7649,"febbfc":7650,"ddbcbf":7651,"bbfac":7652,"eeccfbc":7653,"ecbcdbd":7654,"bbcecec":7655,"fecfee":7656,"ebdbbef":7657,"bbbfdee":7658,"edefdc":7659,"bbbfbef":7660,"fcccccc":7661,"bdfbebc":7662,"eebeebcc":7663,"eccbdcc":7664,"ddbded":7665,"eeee</w>":7666,"bbebcbec":7667,"bbbecbec":7668,"eeebbbeee":7669,"edbedbb":7670,"bdfebbc":7671,"eeeebdc":7672,"bbdcbdc":7673,"bbceef":7674,"dbedebe":7675,"fcbcebb":7676,"dcbcbbbb":7677,"ebbeac":7678,"beccbebc":7679,"ebbbedbc":7680,"bbcfdd":7681,"ebceef":7682,"eeeebbebb":7683,"bbbcdbf":7684,"ebebfcc":7685,"cccbfc":7686,"fecddc":7687,"eecdbbd":7688,"adfc":7689,"feddcc":7690,"ebbeebbebb":7691,"ecbcdcc":7692,"bbdbcf":7693,"bbdbcdc":7694,"bccbedd":7695,"ecfbbee":7696,"bbedbbee":7697,"babbec":7698,"feefbc":7699,"ecbbeecc":7700,"abfa":7701,"bedcdec":7702,"bcecbeec":7703,"cccbbbe":7704,"bfefcc":7705,"bbbdbbcc":7706,"ebcebfc":7707,"ddbcbe":7708,"bdbcbbf":7709,"dcbdbe":7710,"dbdebbc":7711,"dbdbbdd":7712,"feebebc":7713,"ffbbebb":7714,"bfeebbbb":7715,"dbbbbbbf":7716,"ebbdcbd":7717,"bbdecec":7718,"bffccc":7719,"bdeebbf":7720,"dedbbcdbf":7721,"ecbddee":7722,"bddb</w>":7723,"bcbcbbee":7724,"daba":7725,"feeddc":7726,"bbbbfed":7727,"eebeac":7728,"bbbffbc":7729,"ebefbbbb":7730,"ebceced":7731,"ebbbcbbf":7732,"bebebccc":7733,"ebecbfc":7734,"edeca":7735,"ecccdec":7736,"efecec":7737,"fbebbbbc":7738,"eebcdcc":7739,"dbcdebe":7740,"ecbeebcc":7741,"ebbbedbb":7742,"dbbebbbd":7743,"fccbebc":7744,"efeedc":7745,"bccfef":7746,"bcbcfbc":7747,"ffcccc":7748,"dbcdef":7749,"ecceebf":7750,"dbdbeec":7751,"bbbdbbbbbbbb":7752,"bcbcbbcc":7753,"fddeec":7754,"ebebefc":7755,"dcecbbc":7756,"effebc":7757,"dccccccc":7758,"bebdded":7759,"bbbbbeebe":7760,"efcba":7761,"ecdbbbf":7762,"dddedc":7763,"bbecdebb":7764,"eccbdbd":7765,"dadbe":7766,"bfbebbf":7767,"ebecedc":7768,"febbbbbe":7769,"becbcbe":7770,"bccbcbf":7771,"bbbbdef":7772,"ebecbbbd":7773,"bceefbc":7774,"aecbc":7775,"eeeeeeebb":7776,"bbcdbcc":7777,"feedbf":7778,"ebddedc":7779,"bcbeeecc":7780,"bbcbeef":7781,"edbbebbc":7782,"eebceebc":7783,"ecfebcc":7784,"bebebeebe":7785,"bbbfbdc":7786,"dbbbbbbebb":7787,"efbbeec":7788,"dedfbc":7789,"bbabbbe":7790,"beedeec":7791,"ebebdbc":7792,"ddcfbc":7793,"bcfdef":7794,"dbebced":7795,"bfcbbcc":7796,"bbbbcbebc":7797,"bbbcdbbc":7798,"bceebeec":7799,"fbbbfcc":7800,"efbdbf":7801,"dfbbdc":7802,"eebdbbf":7803,"ffbeec":7804,"debbebbc":7805,"bbdbbbcc":7806,"eeebebbee":7807,"bebdbbee":7808,"ffbbed":7809,"bffeec":7810,"edbca":7811,"fbdbbbe":7812,"beeddbc":7813,"efecbe":7814,"befbbebe":7815,"dedba":7816,"beebbbbbc":7817,"bfbcccc":7818,"bbcbeebe":7819,"dbbbba":7820,"fbebbdc":7821,"becbbbec":7822,"deeea":7823,"efeeed":7824,"ebccbbee":7825,"ebeeebbbb":7826,"fbdfec":7827,"ebdbebbc":7828,"debbdec":7829,"bfbdbe":7830,"dfcff":7831,"bbdbeef":7832,"fbedbbc":7833,"ebeecbf":7834,"fcbeebc":7835,"ffcdd":7836,"dcfbbbb":7837,"bbccdcc":7838,"dbdbebd":7839,"eeececc":7840,"eedbfcc":7841,"bbdbbeec":7842,"edbebbee":7843,"dceedf":7844,"becbcbf":7845,"bcceedd":7846,"bebefcc":7847,"dfdebe":7848,"eeecbbbe":7849,"eeceeed":7850,"bfcbecc":7851,"bcbdebc":7852,"bdecccc":7853,"ecbbac":7854,"bddbbbbc":7855,"bdceedc":7856,"ebbbcbbbc":7857,"febbbbf":7858,"eedd</w>":7859,"eeecdee":7860,"bdcbedc":7861,"bdbd</w>":7862,"dbbddbd":7863,"dacea":7864,"dedebf":7865,"becfbbc":7866,"fedebc":7867,"ecfba":7868,"edccecc":7869,"edcdebd":7870,"ebebbebd":7871,"dcbfed":7872,"efcefc":7873,"bebfff":7874,"bede</w>":7875,"ebbefbf":7876,"bbbbbedc":7877,"ebecbcbc":7878,"fecbbec":7879,"bebcba":7880,"bceebef":7881,"edfebf":7882,"ddecbe":7883,"edcdbbc":7884,"eba</w>":7885,"dbeca":7886,"bbdbeebe":7887,"dfdbbc":7888,"cccfbc":7889,"eceebbbe":7890,"feebcbc":7891,"ebebcebe":7892,"beccbbf":7893,"dcdbbbc":7894,"bbeeddc":7895,"dbdfbd":7896,"bbdcbbbc":7897,"bdfddc":7898,"dcbeeec":7899,"dfbced":7900,"beccbbbe":7901,"bcecbbf":7902,"bbfca":7903,"bbebbbdc":7904,"dcbebbd":7905,"ecdbbed":7906,"bfbac":7907,"ebebeebc":7908,"ebceebbc":7909,"efbebbbb":7910,"bbbbceec":7911,"ecbcbfc":7912,"dcbeebd":7913,"ebceddc":7914,"ecfeccc":7915,"ebbcbbed":7916,"bbebbbebbbb":7917,"edbcdbe":7918,"bcceeebb":7919,"bebfbbbe":7920,"ececdbc":7921,"ebdbcdc":7922,"becceebc":7923,"bbecbeee":7924,"bcbdeec":7925,"becbeebc":7926,"bbebefc":7927,"eebddee":7928,"ebccdbd":7929,"bbdcbbbe":7930,"dceedbe":7931,"ecbffc":7932,"bbebbdee":7933,"ebdebbcc":7934,"fbcbeec":7935,"bfcdebb":7936,"efdccc":7937,"ebbcbbbbc":7938,"bfeea":7939,"ddfebe":7940,"bcbcebf":7941,"dbbebecc":7942,"eecceecc":7943,"bbdcccc":7944,"ebdfbbc":7945,"eecfef":7946,"beedfc":7947,"dbbbebbbb":7948,"dcecbec":7949,"ebcbded":7950,"dbefbf":7951,"bdcdfc":7952,"ebbcfbd":7953,"eeefa":7954,"bebbedcc":7955,"deddebb":7956,"bbbdedc":7957,"edbeebf":7958,"bbccfec":7959,"eadbd":7960,"eececdc":7961,"bcfbbed":7962,"bdbcff":7963,"bbecfec":7964,"ecbcbbee":7965,"bedcdee":7966,"bebcbeee":7967,"bebfbebe":7968,"bbdddbc":7969,"bcccebe":7970,"ecceddd":7971,"ebbeefee":7972,"bbdfbbbb":7973,"bfdebf":7974,"efcdbf":7975,"bbecbebd":7976,"dcebccc":7977,"ecbeac":7978,"ebbbebbbd":7979,"beceeed":7980,"bcdddd":7981,"dfffc":7982,"dbefebb":7983,"ecbc</w>":7984,"fccdcc":7985,"bbbdfee":7986,"bfeefc":7987,"ebecbef":7988,"fbcdebb":7989,"bbcfebe":7990,"debcdec":7991,"bffbbbe":7992,"edccfc":7993,"efbcfc":7994,"cccbcbc":7995,"fbcfbd":7996,"fcceebc":7997,"eebdbdc":7998,"dabea":7999,"bdfdbf":8000,"beebbebc":8001,"eedcebc":8002,"eeeefc":8003,"bcfdebb":8004,"badcc":8005,"dbeebcc":8006,"dbebcee":8007,"badec":8008,"bebcfee":8009,"bcccdee":8010,"bbefbbbe":8011,"bcbebbebc":8012,"bfbddd":8013,"bbdbded":8014,"eebdff":8015,"ebecebf":8016,"edebbbbc":8017,"bdbcbdc":8018,"eadcc":8019,"debebbf":8020,"dbebbbbc":8021,"efbfcc":8022,"becdbbbb":8023,"ddbcebb":8024,"bbebbdbc":8025,"ebdfebe":8026,"edceeed":8027,"bbbdddc":8028,"efcdef":8029,"aeca":8030,"efcdebb":8031,"bbbbebbebb":8032,"bbcdebd":8033,"eebebbbbc":8034,"dbbcbebe":8035,"ebeedbd":8036,"becbbfc":8037,"bbebe</w>":8038,"bdbbefc":8039,"edecbbd":8040,"dedebbc":8041,"debebdc":8042,"beccbebe":8043,"dcbcdee":8044,"bebcbbcc":8045,"dcbceec":8046,"bdeedee":8047,"ebccfec":8048,"bbcbbcbbcbbc":8049,"ebebded":8050,"bfcbebd":8051,"beedebc":8052,"ebeecebb":8053,"ecbda":8054,"dbddbbbb":8055,"bfebbbf":8056,"ebbddcc":8057,"bfbcbbf":8058,"bcbdbcc":8059,"ecfdbf":8060,"ebbbb</w>":8061,"beccdbc":8062,"dbbebbbc":8063,"eccdbcc":8064,"bbefbbee":8065,"ebeeea":8066,"efbfbeee":8067,"bcbdff":8068,"bcecbcbc":8069,"ececbbbb":8070,"eceeef":8071,"bdbebbebb":8072,"babbcc":8073,"bcbbebdc":8074,"ecceebe":8075,"bbecdcc":8076,"fceedd":8077,"ebdbdcc":8078,"edbbbfc":8079,"bbddef":8080,"bbecedc":8081,"babcbc":8082,"ebdfebc":8083,"bdeebbbe":8084,"bebcefc":8085,"eefac":8086,"ebbecbcc":8087,"decbedc":8088,"bfecbec":8089,"ebddbcc":8090,"bebebebbbb":8091,"ebcecdd":8092,"bbdedbd":8093,"bdfbbbd":8094,"decbeee":8095,"fcebfc":8096,"feebfc":8097,"ddfa":8098,"dbbbdef":8099,"abdbd":8100,"ebcfa":8101,"ebbeeebf":8102,"abcee":8103,"ebeb</w>":8104,"bedc</w>":8105,"eceebbbc":8106,"ebefebc":8107,"fbdbbbc":8108,"bbfbcbf":8109,"bebf</w>":8110,"bdffcc":8111,"bdeeeec":8112,"ebebcef":8113,"fbcbbbd":8114,"bfbcdf":8115,"dedbbee":8116,"bbecbbcc":8117,"fef</w>":8118,"ebdcdee":8119,"baedc":8120,"bcccdf":8121,"ebbecbbd":8122,"eeecff":8123,"ebdeedd":8124,"bccdeec":8125,"eeebebbbe":8126,"bbcecbe":8127,"bebcbbebb":8128,"ebbeeff":8129,"beeebbbf":8130,"fbeebec":8131,"bbadd":8132,"eceebbee":8133,"becbdbd":8134,"dabbbb":8135,"ebcbebec":8136,"ebebebbee":8137,"decbbcc":8138,"bebdbbbd":8139,"dceea":8140,"bccdbec":8141,"beeeeec":8142,"bbecfee":8143,"ebccdcc":8144,"edebbbbbb":8145,"bbdfebc":8146,"eeecbbf":8147,"edbcdbc":8148,"edcdbec":8149,"beeedee":8150,"fcbded":8151,"bcbcbfc":8152,"bccbcbe":8153,"dbbeddc":8154,"bbdbdbbbb":8155,"bbbbcdee":8156,"debcbbbb":8157,"ebbceebd":8158,"bcbbbbbbbe":8159,"ebeeeed":8160,"fbdebf":8161,"eeeeecc":8162,"edecdf":8163,"ebdedbd":8164,"bbaba":8165,"ebdfef":8166,"efcfed":8167,"ebcecbf":8168,"febbeec":8169,"bcecff":8170,"ececeec":8171,"bbdbcbbc":8172,"deddef":8173,"bcceebf":8174,"ececa":8175,"dfbebf":8176,"bbdcdbd":8177,"beeedcc":8178,"decbbed":8179,"effbcc":8180,"becfef":8181,"ececbdc":8182,"bdbeba":8183,"bbbddcc":8184,"ecbdedc":8185,"bfecdf":8186,"ebebbeec":8187,"ddeced":8188,"ebfbbed":8189,"bceebcbc":8190,"bbabbbc":8191,"bbecbecc":8192,"bcbdccc":8193,"fedbbbb":8194,"deeca":8195,"beeebbcc":8196,"dbdbbed":8197,"febbccc":8198,"ebccefc":8199,"eeebefee":8200,"dbbeded":8201,"dcecebc":8202,"bccbbbcc":8203,"fecdbf":8204,"bbeedebb":8205,"bcecbbd":8206,"bbddbdc":8207,"ebbeeccc":8208,"bdeebdc":8209,"dde</w>":8210,"fdda":8211,"ebccbebc":8212,"ebdcff":8213,"ebfac":8214,"bdbeebbc":8215,"fbbedcc":8216,"deceecc":8217,"bbecba":8218,"bdbedcc":8219,"deddbf":8220,"bdeceec":8221,"fdcdbe":8222,"efebfc":8223,"bcceebe":8224,"edeedbc":8225,"eeebbbbf":8226,"ecccbdc":8227,"ebdeebf":8228,"bedcecc":8229,"edecccc":8230,"bbefccc":8231,"daccc":8232,"efedbd":8233,"bfcbeed":8234,"bfcebec":8235,"efeea":8236,"befbccc":8237,"dedbbbd":8238,"bbcbebec":8239,"bbebcbbbe":8240,"dcecfc":8241,"edbcdee":8242,"fbedef":8243,"bbdecbe":8244,"bebebbed":8245,"eceeebd":8246,"beeefbc":8247,"bbccebbc":8248,"ebebebec":8249,"debcdbe":8250,"ebbbcccc":8251,"adebe":8252,"ecfac":8253,"ebcdbdc":8254,"adbbbb":8255,"ffdebb":8256,"bbfecbc":8257,"ecceced":8258,"bfbbebf":8259,"decbcec":8260,"bceeebf":8261,"fcdbbd":8262,"bfceebc":8263,"eceeeec":8264,"beecbcbc":8265,"cccccccccccc":8266,"fbbeba":8267,"ebebcebc":8268,"eefeecc":8269,"bdbcbebe":8270,"decfed":8271,"bdfba":8272,"ebcbcfc":8273,"eedcedc":8274,"bfbbccc":8275,"bbbebbdd":8276,"becdbcc":8277,"deefec":8278,"fccbef":8279,"dbeeecc":8280,"ffcff":8281,"bccbcdc":8282,"fbceebc":8283,"ddcfec":8284,"eccbbebe":8285,"bbbdbbbf":8286,"bbdeccc":8287,"fcfebc":8288,"ebbcbecc":8289,"debddf":8290,"bebbbbbebbbb":8291,"eaebd":8292,"acccc":8293,"bfbceec":8294,"ebcceecc":8295,"fcbfcc":8296,"edfbbbc":8297,"dcdefc":8298,"bcbccccc":8299,"debcbbf":8300,"edcbcec":8301,"dbceecc":8302,"ecec</w>":8303,"bbbcfcc":8304,"beeebeef":8305,"bebceecc":8306,"ebcfecc":8307,"ffebec":8308,"beddbec":8309,"efbeebc":8310,"ebcbfcc":8311,"dbcbeed":8312,"dbfbef":8313,"fcbeef":8314,"ebbcfcc":8315,"eedda":8316,"edbcbcc":8317,"ebffed":8318,"edcbbdc":8319,"ebccded":8320,"dbbdbbbd":8321,"ebdbcebb":8322,"efcbbec":8323,"dbbebbbf":8324,"dcfbbf":8325,"ebeeebeee":8326,"dffebb":8327,"bbbcbeed":8328,"bbbbcbbcc":8329,"efdbdc":8330,"fefbbc":8331,"dcdbbee":8332,"dbfbbee":8333,"deecdee":8334,"edbdbbc":8335,"ebcbeebc":8336,"ececdcc":8337,"edbedec":8338,"ffbcbd":8339,"bfdbbbc":8340,"bbbbcbdc":8341,"bdcceec":8342,"bdbddbe":8343,"bbbebcee":8344,"beeedbd":8345,"bfdedc":8346,"eedcbbc":8347,"dbffcc":8348,"befbeef":8349,"edcceec":8350,"bebdbebd":8351,"ebbfbef":8352,"beeebbec":8353,"bccdecc":8354,"decebec":8355,"ebfdef":8356,"ebfbcbd":8357,"bfcfbd":8358,"fdcfec":8359,"dceebec":8360,"abeed":8361,"beecfec":8362,"ebdeebe":8363,"beecdcc":8364,"eddedcc":8365,"bedcebe":8366,"bcbcdcc":8367,"dbcdbbc":8368,"deeac":8369,"bbbebeebe":8370,"bdeebbbc":8371,"fbeecbc":8372,"bbdcbbf":8373,"bbedbef":8374,"bdbcbbbd":8375,"bfbdbbc":8376,"ebbbeccc":8377,"eefdef":8378,"ebdb</w>":8379,"ebfebec":8380,"bdecfc":8381,"bdfded":8382,"deceebc":8383,"bbeebeebe":8384,"bcee</w>":8385,"dcbfbf":8386,"decebcc":8387,"bbbccccc":8388,"abbdd":8389,"debcebe":8390,"fbbcbbbb":8391,"dcbfdc":8392,"ecccdbe":8393,"dbccbbc":8394,"fceebf":8395,"bbefbebe":8396,"bcecbebc":8397,"edf</w>":8398,"bdcfbf":8399,"ebeeebbee":8400,"bdbeded":8401,"effbbbb":8402,"ebbcdbf":8403,"dbbbbdbe":8404,"efceecc":8405,"bdcbbdd":8406,"eccbeebb":8407,"bbedbfc":8408,"bbebbba":8409,"beecbef":8410,"ecccff":8411,"eccecbe":8412,"ecdbbdc":8413,"dcbbbdc":8414,"ddfebc":8415,"bebfdf":8416,"eebdfbc":8417,"fdcebe":8418,"bbbfba":8419,"ddcbbbe":8420,"bcfdfc":8421,"bebbcbec":8422,"bedcff":8423,"bebbbebbbe":8424,"befeebc":8425,"bbffdd":8426,"deedef":8427,"bbbfdbd":8428,"ebdeeed":8429,"dbbecef":8430,"fbeac":8431,"debebbbc":8432,"bbeebecc":8433,"debcff":8434,"bcbeea":8435,"beedbcc":8436,"dceeecc":8437,"beebbebf":8438,"ecee</w>":8439,"befcdf":8440,"feedec":8441,"bcccdcc":8442,"bececec":8443,"eeeedbe":8444,"dedfec":8445,"cccddc":8446,"bbbbeebbbb":8447,"efdbbf":8448,"dcbdbbc":8449,"dcbbccc":8450,"eecdbdc":8451,"eefdebb":8452,"edcac":8453,"eefbbed":8454,"bfcdef":8455,"febbdd":8456,"bebedebb":8457,"feffc":8458,"eebeefc":8459,"feddbd":8460,"edbb</w>":8461,"efbcdd":8462,"bbdfa":8463,"bbfbbdc":8464,"bcdbbfc":8465,"ebbcebcc":8466,"fbbbbbbc":8467,"bbefbcc":8468,"bcccff":8469,"beebbbeee":8470,"ebbdba":8471,"eecfa":8472,"dbeecbc":8473,"bdfbbec":8474,"eecbcbf":8475,"eebdbbbe":8476,"fddff":8477,"becbeebe":8478,"eeddfc":8479,"bbebeccc":8480,"ecebbbbbb":8481,"ebbbebbec":8482,"ebfbbbbc":8483,"bbbcbbdd":8484,"eebceecc":8485,"ecccdbc":8486,"bbfbcec":8487,"eaeeee":8488,"ebdcbcc":8489,"dbfbeec":8490,"decfbd":8491,"efbdec":8492,"dbecebc":8493,"bebfccc":8494,"ecedbbc":8495,"dcbcbcc":8496,"bbebd</w>":8497,"bdbddf":8498,"eebeeecc":8499,"bedcbcc":8500,"ebecfec":8501,"becbebbbb":8502,"dbbecebe":8503,"edebbdc":8504,"bfbedf":8505,"bdcdbbc":8506,"efbdebb":8507,"eedbbfc":8508,"ebebdbf":8509,"affc":8510,"bbdbdbf":8511,"eccbbbbc":8512,"befbecc":8513,"debcbcc":8514,"ddcfcc":8515,"ecfbbbd":8516,"bbbcbebbbb":8517,"bcdcdee":8518,"ddbbfc":8519,"ecdbbebb":8520,"fbddcc":8521,"ebccebcc":8522,"fdcbcc":8523,"bbfeebd":8524,"bbecefc":8525,"fbedfc":8526,"bbecbbed":8527,"edeebdc":8528,"edbbdcc":8529,"debcded":8530,"eebcbbbd":8531,"efbbebd":8532,"eecfebc":8533,"ebfbbebe":8534,"ebdcbbbb":8535,"bebcdcc":8536,"abced":8537,"dbdfec":8538,"ecbedebb":8539,"beecba":8540,"dbdfcc":8541,"ecfea":8542,"dbfdec":8543,"dbbdbec":8544,"efbcbec":8545,"bcbddbc":8546,"eecedcc":8547,"ddeddc":8548,"dbecff":8549,"bebcbbed":8550,"eeebbbbee":8551,"ecbd</w>":8552,"beccded":8553,"eebebbed":8554,"feffee":8555,"bcbcfee":8556,"ccccccccccc":8557,"bdcdebe":8558,"befdef":8559,"ecbdbbbb":8560,"eeccdee":8561,"ddbbebc":8562,"ebfeebf":8563,"dbdbbcc":8564,"edeeeec":8565,"fedbbf":8566,"bbbcbebf":8567,"bdbbebec":8568,"bbdbefc":8569,"fbcbbcc":8570,"bceeddc":8571,"bdcdeec":8572,"eebeebec":8573,"dbcbbbf":8574,"beecbebd":8575,"bbbecbbbe":8576,"bcbcbcbd":8577,"dbecfc":8578,"eedbbbec":8579,"ddbeef":8580,"bcbedef":8581,"ebebddc":8582,"ffebcc":8583,"deedbbc":8584,"dbeeebd":8585,"befebec":8586,"bccdbcc":8587,"fdcecc":8588,"dceac":8589,"eecbbebc":8590,"eedbba":8591,"bdcbbbf":8592,"bebeeebc":8593,"ebeebfc":8594,"aeeec":8595,"ffdbbc":8596,"ebebcdd":8597,"eeeebbef":8598,"ebabbbb":8599,"ecdbfcc":8600,"dbcea":8601,"fffdd":8602,"bbbddbf":8603,"bbebbbbebe":8604,"badbf":8605,"dcbca":8606,"bbfdbbbb":8607,"feebbbf":8608,"ebcdbb":8609,"becbcdc":8610,"beccebbc":8611,"bcbbeccc":8612,"dccfbd":8613,"bdbcecc":8614,"bdebbbbbb":8615,"bbbedebe":8616,"eceedec":8617,"bfbbbdc":8618,"edeeebd":8619,"bbceedd":8620,"eecbeebe":8621,"bdbbfcc":8622,"bedebecc":8623,"bada":8624,"bccbbfc":8625,"ecbeefc":8626,"bdeebbee":8627,"bfecfc":8628,"dffef":8629,"deebced":8630,"fbbcfc":8631,"fbcdbf":8632,"efbddc":8633,"bbbbbbbbbbbbbbc":8634,"ddbcf":8635,"edeceec":8636,"eecbcee":8637,"bdcbccc":8638,"ebeebbbbbb":8639,"ebccbbec":8640,"ebeebbebe":8641,"fbcbebd":8642,"effbec":8643,"beccbbbc":8644,"edcecec":8645,"edcfbe":8646,"bbbbcebd":8647,"eebcfec":8648,"bcecbbec":8649,"dcdbfc":8650,"edbbba":8651,"dbebedc":8652,"ebbbedee":8653,"ebccebbc":8654,"fbdded":8655,"bcecbef":8656,"bfcbbed":8657,"efbcebc":8658,"ebeeebbc":8659,"debcecc":8660,"eeecbbd":8661,"dbdbbebb":8662,"edfdec":8663,"dfbcf":8664,"bcdebfc":8665,"ebdcdbc":8666,"ddcebf":8667,"dfcebc":8668,"debeecc":8669,"bcdbbbec":8670,"debbebf":8671,"eeccbbf":8672,"bdfbbcc":8673,"eeeebebf":8674,"eeecdcc":8675,"ecdcfc":8676,"ffcfc":8677,"afbbc":8678,"bfbcbcc":8679,"beccbbd":8680,"eeecded":8681,"edcfdd":8682,"eecbcbe":8683,"dfedcc":8684,"bbfcbbf":8685,"eebdbbd":8686,"fffebb":8687,"eecbbef":8688,"bbcbcef":8689,"fbfbbbe":8690,"eecceebc":8691,"ebbbcbbd":8692,"dbebebf":8693,"bddac":8694,"ebbfbfc":8695,"bbedecc":8696,"bcbdbbf":8697,"dddcdd":8698,"bdceeed":8699,"ebdbbebc":8700,"acdbf":8701,"ebdbcbe":8702,"edeebbbe":8703,"beccfbc":8704,"efcbebd":8705,"edfdcc":8706,"feebeef":8707,"decdecc":8708,"efcfcc":8709,"bffbebe":8710,"dfcccc":8711,"ececded":8712,"edfdbd":8713,"dbebdbd":8714,"eeeebbd":8715,"ebeeebbbe":8716,"fbdbef":8717,"bcdbba":8718,"ebebcfc":8719,"eebffc":8720,"ebcbbebd":8721,"bbbbbced":8722,"bbcdecc":8723,"dbcbbbbc":8724,"beecfbc":8725,"ebbbcbcc":8726,"eecbbfc":8727,"bdeebbd":8728,"feebbcc":8729,"aeeebb":8730,"cccbebe":8731,"dbbbbbbbbc":8732,"ddeddd":8733,"dfbcbf":8734,"decdebc":8735,"bbbcddc":8736,"bbeebebf":8737,"dbefed":8738,"bceebbebb":8739,"bceedbf":8740,"febebebe":8741,"ebbeca":8742,"beceeebb":8743,"bfedbc":8744,"dbbebbed":8745,"ebedbbbe":8746,"ebbdcbc":8747,"bfcebcc":8748,"bceeded":8749,"bfbcff":8750,"cccebf":8751,"bbdcecc":8752,"efbcebe":8753,"bebbcbbbe":8754,"edebdcc":8755,"bfcbeee":8756,"feebbebb":8757,"bbddebc":8758,"deecccc":8759,"ebecbbcc":8760,"abbebc":8761,"bfeddd":8762,"bbddfc":8763,"bddbbebb":8764,"bccbdcc":8765,"bcbcedc":8766,"eedbbef":8767,"cccbbee":8768,"beecbedc":8769,"ddbba":8770,"eecbeef":8771,"eebcbef":8772,"eecdbbbb":8773,"fbbebbcc":8774,"bdecdec":8775,"fddfc":8776,"efcbbee":8777,"fecdebb":8778,"dbccccc":8779,"bdeb</w>":8780,"eedc</w>":8781,"bdcdebc":8782,"dbbdcbd":8783,"ecfedcc":8784,"ebfbbef":8785,"eebfbbc":8786,"bebbbfcc":8787,"dbdb</w>":8788,"dbebcbe":8789,"bebebcbd":8790,"beecebbc":8791,"eadec":8792,"bdbdbbd":8793,"beeebbef":8794,"bfbcbbd":8795,"bfcbbbf":8796,"ebfecbc":8797,"bbebbecc":8798,"dbfdcc":8799,"fecebbc":8800,"bbbcbbbcc":8801,"bbbeeebd":8802,"eefcccc":8803,"cccbef":8804,"efceebc":8805,"beecbbee":8806,"bbebdbbbb":8807,"edeedee":8808,"bcbfbbbb":8809,"dbedbec":8810,"ebdcbdc":8811,"bdbc</w>":8812,"deefbd":8813,"bbccded":8814,"fecdfc":8815,"feeedc":8816,"eefebcc":8817,"bbddeec":8818,"bfecebc":8819,"ebfbcec":8820,"eebbeba":8821,"fcbcef":8822,"beebbeeee":8823,"bceeba":8824,"bcfcccc":8825,"ddbebbc":8826,"bebceebd":8827,"dbbebbbbc":8828,"ddfecc":8829,"ebbdded":8830,"debedbc":8831,"dfecbd":8832,"dcceedc":8833,"ffbebf":8834,"bdbedebb":8835,"fbceecc":8836,"bcfdbbc":8837,"ebbbbbbbbbe":8838,"bcbedbbc":8839,"febbbec":8840,"ebbeebcc":8841,"dedceec":8842,"dcedbc":8843,"bdcdbec":8844,"bbebbbcbc":8845,"bebbbbbbf":8846,"aeebd":8847,"dccbcbc":8848,"ebdcdec":8849,"bebdebbc":8850,"ebebebcc":8851,"feebbbd":8852,"ebbecdf":8853,"eddebdc":8854,"bdecdbe":8855,"bffebf":8856,"fcdbdc":8857,"eeeeebc":8858,"bbcbdcc":8859,"bdbdbbbd":8860,"eebcbccc":8861,"dfeebd":8862,"bebeeeebb":8863,"ebdbbfc":8864,"bbcbdbf":8865,"dcdeecc":8866,"acdbc":8867,"efbbecc":8868,"bbdbebec":8869,"eefebec":8870,"dceebcc":8871,"ebebdebb":8872,"eccda":8873,"eafbc":8874,"aeebf":8875,"ebbeceec":8876,"bebbbbbbbd":8877,"ebbecdbe":8878,"ddbeebe":8879,"fcbbbec":8880,"eccceccc":8881,"bbccbccc":8882,"ebbcbbebe":8883,"dfceec":8884,"fdf</w>":8885,"bcebbbec":8886,"ebbfdee":8887,"ebfbeebe":8888,"feebeebe":8889,"bbbebba":8890,"dbddbbc":8891,"bbdbddc":8892,"ebcecebb":8893,"ffbbdc":8894,"fedddc":8895,"dbbecbec":8896,"bedcebd":8897,"bbbcbcbbbb":8898,"feebbebe":8899,"bcecbdc":8900,"fcfbec":8901,"dbcbbdc":8902,"bdfea":8903,"bebcebec":8904,"ebbeebbec":8905,"bebdfbc":8906,"fccbecc":8907,"debcebd":8908,"bcccedc":8909,"dbecdec":8910,"bbdfbec":8911,"eeeebbbf":8912,"bfebecc":8913,"eeeedf":8914,"ecbdbcc":8915,"dbcecbc":8916,"bbfdfc":8917,"bcecdbd":8918,"efcdfc":8919,"beeacc":8920,"baeba":8921,"bbfdebe":8922,"beebbbbebb":8923,"dbceeec":8924,"eeeeeebf":8925,"bfeded":8926,"ebeeebebe":8927,"bbdeedd":8928,"bbcbefc":8929,"beeebebf":8930,"ebffebe":8931,"efebbcc":8932,"bcbebbebe":8933,"bcedccc":8934,"dcceebd":8935,"ddcbebe":8936,"fccbbbe":8937,"ecbeeccc":8938,"befebcc":8939,"ecbddbe":8940,"ebbbcbebe":8941,"eecfdd":8942,"bbecebec":8943,"bcbeac":8944,"ebcbcebe":8945,"bbebc</w>":8946,"bffdbc":8947,"bbbcfbf":8948,"bbcbded":8949,"befac":8950,"bdbbea":8951,"baded":8952,"ecdcdd":8953,"eecfecc":8954,"ebebebbf":8955,"dbbbbbec":8956,"bbbbeebe":8957,"fbcbecc":8958,"bddebdc":8959,"bfdced":8960,"bbbbeeec":8961,"bcbddbd":8962,"bcdcdd":8963,"efbdbc":8964,"dfbbef":8965,"bbcfebc":8966,"edfdbb":8967,"bbcfbec":8968,"fcbcfc":8969,"eedefcc":8970,"eedcebd":8971,"ecbebbed":8972,"bfcbbebb":8973,"dcbac":8974,"bbeebebbbb":8975,"bbddbbbe":8976,"ebbddbd":8977,"eeccfec":8978,"fccebbc":8979,"bbbceebd":8980,"bccbbebc":8981,"dbbbda":8982,"bceddec":8983,"ebbfdbb":8984,"dbecebe":8985,"ecbcbeec":8986,"dcfdee":8987,"bcceef":8988,"efcbbbd":8989,"fdcded":8990,"eaac":8991,"ddcbbbd":8992,"dcecdec":8993,"edcda":8994,"bfcfed":8995,"bbbbda":8996,"deccbec":8997,"fcbeebe":8998,"dbbbbdbd":8999,"bdbebbed":9000,"dfbdbd":9001,"ebfbeef":9002,"bbbfecc":9003,"bdbe</w>":9004,"bebcbedc":9005,"edbbcdbf":9006,"fcfa":9007,"bbbcdef":9008,"bcbcbeec":9009,"bcbedebe":9010,"edfbfc":9011,"beedef":9012,"dfbbdd":9013,"ebebebbd":9014,"bbbcfbe":9015,"ebcdccc":9016,"bbbbdbbbe":9017,"ebbbeedc":9018,"bebcebcc":9019,"bfc</w>":9020,"dccbeee":9021,"dbcbccc":9022,"eecbdcc":9023,"dbcebcc":9024,"bcbdbebe":9025,"dbdeebc":9026,"bbdbdbc":9027,"bcdd</w>":9028,"eccbbfc":9029,"ddbcef":9030,"ebfdbbc":9031,"afebe":9032,"ffda":9033,"ffbcec":9034,"bebcfed":9035,"bdeedec":9036,"feebbef":9037,"bbedfbc":9038,"ebcfbec":9039,"ebdecec":9040,"efcddc":9041,"bbcbeebc":9042,"dfbedc":9043,"edcbcee":9044,"debbded":9045,"febbbebe":9046,"bfbeff":9047,"aeccc":9048,"ebcbedbe":9049,"bccdbbbb":9050,"debebbee":9051,"dcdfcc":9052,"eccefcc":9053,"bcbdbbbe":9054,"bbecbeed":9055,"beccbfc":9056,"fecbedc":9057,"bcec</w>":9058,"edecdbe":9059,"eccfef":9060,"dfdebc":9061,"feeebbc":9062,"dfcdec":9063,"bccedcc":9064,"dbbcbbbd":9065,"ebbbbebec":9066,"dfbdcc":9067,"dbbbac":9068,"beebbfc":9069,"dbecbbbb":9070,"bbfbbfc":9071,"bcccdbe":9072,"bbccefc":9073,"eabbbd":9074,"edebeebb":9075,"edefbf":9076,"ebdbebbbb":9077,"bccfbbc":9078,"bbdbcdd":9079,"fccdbd":9080,"edeedcc":9081,"efeebbc":9082,"ffecbc":9083,"bbccbeee":9084,"ebbcddc":9085,"dbbcbdc":9086,"bddbccc":9087,"bbecbedc":9088,"ebebcbec":9089,"fecbbee":9090,"dbbedbbc":9091,"bbcbbeec":9092,"dccbbbd":9093,"ebedccc":9094,"dcbcbbd":9095,"ebcbbeec":9096,"fccfee":9097,"deecded":9098,"dbbdcdc":9099,"eccdccc":9100,"dbfbebc":9101,"acdec":9102,"bbebbbebd":9103,"efeced":9104,"ebbdcec":9105,"ecbeeecc":9106,"bbbbbebec":9107,"bbedbeec":9108,"efe</w>":9109,"edcfbf":9110,"bbeebba":9111,"bccbbbec":9112,"dbebcebb":9113,"dcfbdc":9114,"ffbebd":9115,"ffdfc":9116,"eeeeeeeeeeeeeeee":9117,"bbecbeebb":9118,"bbcfbbbb":9119,"bbbcfed":9120,"eeecebd":9121,"debebbd":9122,"bbbbcdbd":9123,"dbbdced":9124,"bbebbfbc":9125,"eeaa":9126,"bffbdc":9127,"eeeedbc":9128,"bbeceebc":9129,"ebcfebd":9130,"bbebebbebe":9131,"ecccded":9132,"bfcbeebb":9133,"feebeebb":9134,"deeecbc":9135,"bccbcbbc":9136,"bbbcea":9137,"ebbeebef":9138,"ddbfcc":9139,"bfeeebc":9140,"dfbeebb":9141,"bcbacc":9142,"ddecbf":9143,"eeebeeeebe":9144,"dcbedee":9145,"edcfebc":9146,"edfbebe":9147,"bcecebd":9148,"eefbbdc":9149,"fcdccc":9150,"deedbec":9151,"bdcebdc":9152,"adbec":9153,"ebfeecc":9154,"dcbfbd":9155,"ebcebbcc":9156,"bebcbbbf":9157,"eebddec":9158,"becbcf":9159,"feebebf":9160,"bebbbbbebe":9161,"ebbdcbf":9162,"edebbebe":9163,"bbffbbc":9164,"bbeeeecc":9165,"edcbced":9166,"cccfec":9167,"ecbcbccc":9168,"bbdeebbc":9169,"beefbbc":9170,"ebccbef":9171,"dbddef":9172,"dbebbdd":9173,"bbeefebb":9174,"dccbecc":9175,"ffffc":9176,"dbbbfbd":9177,"bdcffc":9178,"baebbc":9179,"fceeebb":9180,"ffbbebe":9181,"bbbcbbebc":9182,"eccbcbf":9183,"bbdcdec":9184,"ecdb</w>":9185,"bccecbd":9186,"bcbcebbc":9187,"beedded":9188,"ebcbcebc":9189,"bbfbebbc":9190,"dbcfbe":9191,"fbfebf":9192,"bbeeded":9193,"bebcfcc":9194,"dbedebc":9195,"dbddebe":9196,"ebbdefc":9197,"bbdcbbbd":9198,"dbbecebc":9199,"dbcfdc":9200,"ebcbdbf":9201,"eccfbbc":9202,"dccbccc":9203,"beeebfc":9204,"ddcbbbc":9205,"debbdebb":9206,"bbceebbc":9207,"fbcbbbf":9208,"edbdfc":9209,"bdeeeecc":9210,"becdbbd":9211,"ebbbcdee":9212,"feebbec":9213,"dffbbc":9214,"deccef":9215,"bdbdbdc":9216,"dfebdc":9217,"dbbefcc":9218,"bbbbbedd":9219,"dfbbbbc":9220,"bfbeecc":9221,"ebefbcc":9222,"bbddbbdd":9223,"bbbdbeec":9224,"edbcbbbe":9225,"ebcdbbbe":9226,"efcbbcc":9227,"fccfdc":9228,"dbffbd":9229,"ecceeebb":9230,"ebcbcef":9231,"eedcef":9232,"acfa":9233,"becbeef":9234,"bceebbcc":9235,"bbcebfc":9236,"eccbbef":9237,"bccb</w>":9238,"ecbcbef":9239,"bbebbdbd":9240,"dfeeee":9241,"eebcbebd":9242,"efcbedc":9243,"ecbbeccc":9244,"eccecbf":9245,"abeef":9246,"dfbeed":9247,"fedbfc":9248,"ebebbecc":9249,"fcecbf":9250,"fcdbbbb":9251,"ebdfa":9252,"bcbdbcbd":9253,"bddd</w>":9254,"feefbe":9255,"bbbcdebe":9256,"dfcdbc":9257,"eceefbc":9258,"abcebb":9259,"bfeebcc":9260,"eefda":9261,"eeefef":9262,"bcfbbbbc":9263,"bbbcbbbec":9264,"ebbceecc":9265,"eedcdbe":9266,"beebb</w>":9267,"fecbebd":9268,"bcebac":9269,"bbdbdebb":9270,"bdcfebb":9271,"bbbcebcc":9272,"bbdeced":9273,"adebc":9274,"dbbddcc":9275,"bebfbcc":9276,"bbbdb</w>":9277,"eebbcccc":9278,"dddbbbe":9279,"bbcecbf":9280,"edcedbd":9281,"bbfbeed":9282,"bbfcdbe":9283,"bfd</w>":9284,"bbbcbbef":9285,"beddeec":9286,"edbebfc":9287,"fcbcdd":9288,"deebeebb":9289,"ebebbbbbbbb":9290,"eebacc":9291,"fbcebec":9292,"eada":9293,"debbbbebb":9294,"ddecdd":9295,"ddfbec":9296,"dccbbec":9297,"bbeefbd":9298,"bfbeeec":9299,"eedbbebc":9300,"efbebcc":9301,"fecebf":9302,"bebebebbc":9303,"bbbbeecc":9304,"bdecbcc":9305,"bcecbbbe":9306,"ffeccc":9307,"ebbdcdd":9308,"becfebc":9309,"ecbebbbf":9310,"bbbbbddd":9311,"bbebebebc":9312,"bbedebf":9313,"bfceecc":9314,"becbefc":9315,"eceefcc":9316,"eecbbbec":9317,"eebcfcc":9318,"bbfbcebb":9319,"ebbbcebd":9320,"beccefc":9321,"deecdbe":9322,"ebbbedbd":9323,"fcbcbbc":9324,"beeeedc":9325,"becbba":9326,"aebdc":9327,"dccfdc":9328,"ebbfdbd":9329,"bbbbeebf":9330,"abcf":9331,"bcbbbbbbbbc":9332,"dcbeedc":9333,"befbcbd":9334,"dcebbebb":9335,"deebbbf":9336,"bbdcbbdc":9337,"eecfbbc":9338,"ebbbbdbbbb":9339,"dbbdef":9340,"bbebbbbcc":9341,"bbfda":9342,"eeecdbd":9343,"deebeed":9344,"ddbbbec":9345,"befdbbc":9346,"becfdd":9347,"abedc":9348,"ebcbdbc":9349,"bdcac":9350,"bceebbbd":9351,"ebcbddc":9352,"befecbc":9353,"ecbddbc":9354,"becbbbcc":9355,"ebfeef":9356,"eeecbebe":9357,"bbeeefc":9358,"bbffebe":9359,"bfacc":9360,"debddbe":9361,"bddeccc":9362,"bbbebeed":9363,"bdcecbc":9364,"bcbebbdc":9365,"bbbeac":9366,"dbbecbbbb":9367,"ebbdbbcc":9368,"ebdbeebe":9369,"edebbee":9370,"bbfbba":9371,"bbeebbebc":9372,"ebdbcbf":9373,"bdcbdbd":9374,"befbcec":9375,"ebbbbdcc":9376,"bfcddc":9377,"deecef":9378,"eedcbcc":9379,"fecfcc":9380,"fbdefc":9381,"dccdef":9382,"beeceecc":9383,"bcbeebcc":9384,"bbbebcbf":9385,"deeebcc":9386,"eebdbebe":9387,"eebeeccc":9388,"fdebecc":9389,"ecfebec":9390,"ebdcedbbec":9391,"debbfbc":9392,"bbedebbc":9393,"bbbfbbec":9394,"bcfbbef":9395,"eebddbd":9396,"fbfdbe":9397,"bccbcebb":9398,"fcbeecc":9399,"bfbebbbc":9400,"fcedcc":9401,"ebdbbbec":9402,"bfecebe":9403,"eebedbf":9404,"dbecdbc":9405,"efbebec":9406,"bedcdbe":9407,"fcbbbcc":9408,"ebfbbdc":9409,"dcefdc":9410,"dccebbc":9411,"febebbc":9412,"bbbbbbbdc":9413,"eadbf":9414,"ebeeced":9415,"ebedbbf":9416,"adca":9417,"fcbba":9418,"eefdbbc":9419,"bbdebfc":9420,"dcbebbf":9421,"bbfbbbec":9422,"bbdbebbd":9423,"febbebc":9424,"ecdebfc":9425,"cccbbcc":9426,"dbbdded":9427,"dbdefc":9428,"edeebbf":9429,"ebfdfc":9430,"eeefeeee":9431,"bbbedebc":9432,"dedefc":9433,"edcfecc":9434,"febbdbe":9435,"eccbcf":9436,"bebefbe":9437,"beeeeeebb":9438,"eeebebeebe":9439,"beecbbbd":9440,"decbcbd":9441,"befbeebe":9442,"bbdddee":9443,"eecbcebb":9444,"bebebbef":9445,"bbbfebbc":9446,"bafcc":9447,"bfdbbee":9448,"bbfeebf":9449,"debbbbec":9450,"edfbef":9451,"bedddf":9452,"bbeeeebc":9453,"becbded":9454,"eeebebbbb":9455,"bfcfbf":9456,"dbecebd":9457,"bcecbbbc":9458,"bceebbed":9459,"eebebbdc":9460,"dbddbbd":9461,"bedda":9462,"bcdbfcc":9463,"ecfcccc":9464,"deffbc":9465,"bbbebcbbbb":9466,"bcccbcbc":9467,"bebeddc":9468,"bebefbd":9469,"dedbbed":9470,"bbbebdbd":9471,"dbbebbee":9472,"fddccc":9473,"fdcbdc":9474,"ebcbddd":9475,"bbfcef":9476,"befbbbbc":9477,"feceecc":9478,"eede</w>":9479,"ebecba":9480,"fdcebd":9481,"becbcbbc":9482,"edbbbbcc":9483,"bccecbe":9484,"dcbebbbe":9485,"bccfebe":9486,"beecedc":9487,"edbcedc":9488,"ebeeedd":9489,"dabda":9490,"bcbdbbbc":9491,"dbebebbc":9492,"fbedebc":9493,"bbcbbebd":9494,"ebbfebbc":9495,"ecdbbebe":9496,"ebcbebcc":9497,"dccbbcc":9498,"febbdbc":9499,"feefbf":9500,"ebeebbcc":9501,"becbdcc":9502,"bfbebbee":9503,"ecbbebdc":9504,"bebeded":9505,"edccedc":9506,"fbecccc":9507,"fbdfbd":9508,"bccbebbc":9509,"bbbedef":9510,"bebebbdc":9511,"bbcbcdd":9512,"bccda":9513,"ebdeeebb":9514,"bdbcdec":9515,"bbbbbdebb":9516,"eebfff":9517,"eccbddc":9518,"bebcecbc":9519,"edbcfbc":9520,"eabbec":9521,"dfcbbf":9522,"bccbcf":9523,"bfeac":9524,"dcdebbc":9525,"edccebc":9526,"ecdbbef":9527,"bccbeef":9528,"fbedebe":9529,"eecbfcc":9530,"dccdbf":9531,"ecbddec":9532,"dcfdbc":9533,"bbbebbfc":9534,"eccfebe":9535,"bbeefcc":9536,"bbbeecbc":9537,"bceebccc":9538,"bbbebebbbe":9539,"fceced":9540,"bcccdbc":9541,"bfdcdc":9542,"ecdddd":9543,"efeedd":9544,"eeedbec":9545,"bbdbeebc":9546,"bebddebb":9547,"beccebf":9548,"bbebedd":9549,"dbeeeee":9550,"bebdbfc":9551,"bfbedbe":9552,"bbbbcccc":9553,"eaddc":9554,"eebbedcc":9555,"bbbbcbbbf":9556,"eeecdbbc":9557,"bbddebd":9558,"ffcbbc":9559,"ecdcdcc":9560,"efcdebc":9561,"ffcbec":9562,"bdbedbf":9563,"bfebbbbbb":9564,"bfbbedc":9565,"bcccebd":9566,"fadd":9567,"eeefbeee":9568,"ebfcdf":9569,"dedbcbc":9570,"dbbdebe":9571,"edbcbbf":9572,"abeebe":9573,"eeebeebf":9574,"eceeeecc":9575,"bcedeec":9576,"bebeebcc":9577,"bcdbbebc":9578,"abcbe":9579,"bbdecebb":9580,"bafbd":9581,"bfdbfc":9582,"bdeedbd":9583,"ebcfeec":9584,"dbcbedc":9585,"eccbcdd":9586,"eceedbf":9587,"efecf":9588,"bebbbbbbee":9589,"bddddbd":9590,"bebcfbd":9591,"bfbebdc":9592,"dcbbedc":9593,"fbfbbbc":9594,"eedcdec":9595,"ebffdd":9596,"debeebd":9597,"eeecfec":9598,"bbfbbebc":9599,"bbcecebb":9600,"febb</w>":9601,"defdec":9602,"ebbbcbbee":9603,"bdeedcc":9604,"bbebeebc":9605,"ebbbceec":9606,"ebefbec":9607,"bbededc":9608,"ecbeebec":9609,"eeeeeebe":9610,"bebdbef":9611,"bbedbbebb":9612,"bbbdfbd":9613,"ebccebec":9614,"efbfbf":9615,"bceebecc":9616,"fdcdbc":9617,"ddcfee":9618,"eceebcbc":9619,"bbbbbcf":9620,"bbbfdec":9621,"eeccdcc":9622,"eabfc":9623,"febbebf":9624,"bdbefcc":9625,"bbbcbcebb":9626,"cccbebc":9627,"bbfbcf":9628,"fbeda":9629,"defdbd":9630,"eddddd":9631,"bcdcdf":9632,"bbbbcebbc":9633,"bdbebecc":9634,"effbbf":9635,"bcbfdd":9636,"bfbeebd":9637,"ebebbebf":9638,"eceebbcc":9639,"bbbebced":9640,"beecfee":9641,"ecdcebc":9642,"fcfbcc":9643,"ecdcedc":9644,"edfbbee":9645,"bbceced":9646,"eccbcbe":9647,"bcbfa":9648,"eddbccc":9649,"bebfbbee":9650,"bbbbcff":9651,"dcebbed":9652,"eeccbbd":9653,"ebfeccc":9654,"eebcefc":9655,"bcbdbdc":9656,"fcfebe":9657,"eeecbecc":9658,"bedcbbbb":9659,"eebcebcc":9660,"beecbbcc":9661,"eebbbdcc":9662,"fccfbd":9663,"dbcceec":9664,"ddcefc":9665,"bbeddebb":9666,"bedcded":9667,"dbcfbf":9668,"bfeebbbe":9669,"befdfc":9670,"bbeecbec":9671,"bdeca":9672,"dbfdbf":9673,"dbecbcc":9674,"eaedc":9675,"fccbbbc":9676,"bebdebf":9677,"dbbbfed":9678,"acbdc":9679,"bcbfdf":9680,"bdeddd":9681,"fedbebc":9682,"bbfcdee":9683,"eefbba":9684,"eeebebef":9685,"bddbbed":9686,"fbcbeee":9687,"bbdcedc":9688,"debeedc":9689,"bebeebec":9690,"dececbc":9691,"fbcebcc":9692,"dbedbbbb":9693,"cccfee":9694,"bbebbfee":9695,"dcbeccc":9696,"bbeeebec":9697,"bcbcba":9698,"eebcdebb":9699,"bdbddee":9700,"eeeeeec":9701,"eebdbebc":9702,"eebbb</w>":9703,"ebcbcbbbb":9704,"bbfbeef":9705,"bbcdbbbe":9706,"ddcbfc":9707,"ecddecc":9708,"bbfbced":9709,"ebcb</w>":9710,"bbbcbcbbc":9711,"ecfbbbf":9712,"bbcedbd":9713,"fedecc":9714,"bbbbbbbbbbd":9715,"ecbdef":9716,"beeebba":9717,"ebdbebec":9718,"bbebbbfc":9719,"acecc":9720,"ecbedbbc":9721,"edeebbbc":9722,"bfddcc":9723,"bbbdbcbd":9724,"fefebe":9725,"bbbbfdc":9726,"ebbececc":9727,"bcceced":9728,"bbbcecbc":9729,"bebdbbec":9730,"bbbeeecc":9731,"dbbecfc":9732,"bcdefcc":9733,"bcbbbdcc":9734,"bbbeebbebb":9735,"bebefebb":9736,"bdbda":9737,"ebcdbbf":9738,"febeff":9739,"ecbfccc":9740,"bbbabbbb":9741,"dbcbcec":9742,"beceebf":9743,"ebbbeba":9744,"deefbe":9745,"bbbcbebbc":9746,"fcbdbf":9747,"fdcedc":9748,"dbccdd":9749,"bebbdbbbb":9750,"ebddbdc":9751,"bdcbeebb":9752,"ebecbecc":9753,"fcbbecc":9754,"eceeff":9755,"bebfdd":9756,"ebcefcc":9757,"eabcec":9758,"ebbbeebbc":9759,"debdbec":9760,"eeebbebf":9761,"bfdebbc":9762,"fbcddc":9763,"edffcc":9764,"bcfeccc":9765,"beefff":9766,"bdcdecc":9767,"ebedbdc":9768,"dbbbbbcc":9769,"effbbd":9770,"dbcbbdd":9771,"fbdfee":9772,"eebcbecc":9773,"eecbefc":9774,"bbfbebbbb":9775,"bebefec":9776,"bcbfbec":9777,"bcbcbeee":9778,"bcbcbbbbc":9779,"bdfdebb":9780,"fedbbd":9781,"eedbbbcc":9782,"dbefdd":9783,"bebebba":9784,"bdeebebc":9785,"ebbeebec":9786,"edbeebbc":9787,"fbdebbc":9788,"decdbec":9789,"bcbfff":9790,"ebeeddc":9791,"beecebf":9792,"fbbbbbbbe":9793,"fa</w>":9794,"bbbfbbcc":9795,"bbebcccc":9796,"ebbbcdf":9797,"dbbdbbbe":9798,"bdbcebf":9799,"eebdebbc":9800,"beedbebc":9801,"eecdccc":9802,"bdcbcec":9803,"eeccfcc":9804,"bfbdbbbb":9805,"deecdbc":9806,"bbbbbbeec":9807,"bcdbbbcc":9808,"beebbccc":9809,"dbbecdf":9810,"bebfbbbc":9811,"bdbdbec":9812,"ebbacc":9813,"ebdbddd":9814,"eeccded":9815,"ffca":9816,"dbbdfc":9817,"ebfcbbc":9818,"febcdf":9819,"dbdbcbd":9820,"bebedbf":9821,"bdbbbecc":9822,"fbdba":9823,"ddcbbee":9824,"eeccebbc":9825,"bced</w>":9826,"febbbcc":9827,"edebbef":9828,"eedcff":9829,"dceedee":9830,"ecbcebbc":9831,"bdcbbbbc":9832,"ebdbcf":9833,"dbedfc":9834,"faccc":9835,"daebe":9836,"beedff":9837,"bdcfdd":9838,"eeebeff":9839,"efcebcc":9840,"ebecfee":9841,"bcbedebc":9842,"edbcdec":9843,"beebbff":9844,"eebdbbbc":9845,"bedcedc":9846,"dedcdf":9847,"eebedebb":9848,"befeebf":9849,"bceebeee":9850,"bebdeebc":9851,"bbbccbbbc":9852,"dbebbef":9853,"edbcbbd":9854,"efecebb":9855,"ddefcc":9856,"ddfdf":9857,"bbebebbd":9858,"abebbc":9859,"dddbbf":9860,"deebbdc":9861,"bebedbbc":9862,"eecbcdd":9863,"bdeeebd":9864,"ebcccccc":9865,"bbeeeeebb":9866,"dccbeec":9867,"eebedbbc":9868,"bbbbbeef":9869,"febebeee":9870,"ecbfecc":9871,"dbbbfdc":9872,"bdebfcc":9873,"deccdf":9874,"bbeeebcc":9875,"eeecbebc":9876,"bdcbedd":9877,"bcbebbbec":9878,"edbefcc":9879,"aeef":9880,"ebcbdec":9881,"bdfbeee":9882,"dceebbbb":9883,"ddbefc":9884,"ebdcfbc":9885,"bbebedbe":9886,"ecbdebd":9887,"fecdef":9888,"fcceedc":9889,"bcbdbbd":9890,"eeeffee":9891,"dbfbcbc":9892,"baeeee":9893,"febeef":9894,"babbbbc":9895,"decbced":9896,"beeddbd":9897,"befbbdc":9898,"bbbbfef":9899,"fbebdcc":9900,"ebbfbeee":9901,"ddcfed":9902,"bcfdebe":9903,"bbbddbbc":9904,"bebdbeec":9905,"dabec":9906,"dcbeff":9907,"eecbded":9908,"bebebcec":9909,"bbecfed":9910,"ecdbbfc":9911,"bceebecbbecbbdbbc":9912,"fbebbfc":9913,"bbecfbd":9914,"bbbcbcec":9915,"dcecded":9916,"badebb":9917,"eebfccc":9918,"bffdee":9919,"deeebec":9920,"eddac":9921,"bbbecdbe":9922,"bfefbf":9923,"decdebe":9924,"bffbbbc":9925,"eecbeebc":9926,"ebfeebd":9927,"abbba":9928,"bbeefbf":9929,"fbcfdc":9930,"fccbcbc":9931,"bbecbbbbc":9932,"dbccfc":9933,"beebbbeebb":9934,"becebbcc":9935,"dbbbdebc":9936,"bbbccbcc":9937,"dbbedebb":9938,"eececec":9939,"bebeeeebe":9940,"ebcbebbd":9941,"dfcbbbb":9942,"bbcbcebe":9943,"bbddccc":9944,"ffcef":9945,"bdfbbbf":9946,"bbfdebc":9947,"dadee":9948,"dedfee":9949,"bfccccc":9950,"dbdbecc":9951,"eedbbebd":9952,"ebebdec":9953,"bbebebbbd":9954,"ecbdbdc":9955,"bcbcbcbcbcbcbcbcbcbcbcbcbcbcbcbc":9956,"acbbbe":9957,"bdbcbebc":9958,"bfebbbd":9959,"bfcbedc":9960,"bbccbbbbc":9961,"bebbbbbbbbc":9962,"bffbef":9963,"defebd":9964,"bbdbcef":9965,"baca":9966,"bbbcbdbd":9967,"bfebccc":9968,"bfeebec":9969,"eceddf":9970,"febeccc":9971,"edcbbebb":9972,"bbfcbcc":9973,"efdedc":9974,"bebebcebb":9975,"dbdda":9976,"bcbbebfc":9977,"bbfcff":9978,"bbfffc":9979,"ecebac":9980,"dceeccc":9981,"eecbcbbc":9982,"ebdecbe":9983,"bceedebb":9984,"fdacc":9985,"fbcea":9986,"ddcbef":9987,"eebbcbbc":9988,"ebbbcdbc":9989,"fbebbebc":9990,"ddccccc":9991,"efdbbbe":9992,"defbfc":9993,"dbbdcdd":9994,"fbfbef":9995,"deccedc":9996,"bbbbebdc":9997,"dbbbbebe":9998,"beedbdc":9999,"febbbbbc":10000,"ebccbbbd":10001,"eeeebcbc":10002,"eedcdbc":10003,"efcfbd":10004,"dcbbbbbbbb":10005,"ebcceebc":10006,"edbddee":10007,"ebcdcdc":10008,"eedebbcc":10009,"dbccbec":10010,"eeceebf":10011,"ebdbeef":10012,"fecbbcc":10013,"bfbbbfc":10014,"dbeeccc":10015,"bcccbdc":10016,"dbdbbdc":10017,"fefbcc":10018,"dedbeee":10019,"bbbebedc":10020,"eeddedc":10021,"eecbcf":10022,"ebdbefc":10023,"acac":10024,"eeeceecc":10025,"beecbeee":10026,"bbbbdebc":10027,"eefdfc":10028,"ebfcfc":10029,"beebbbcc":10030,"ebecdebb":10031,"dedbbcc":10032,"ecbcebf":10033,"eccbded":10034,"efbddd":10035,"bceefcc":10036,"ecfdebb":10037,"fbcdfc":10038,"bcbcbbebb":10039,"fbfbfc":10040,"bebdbecc":10041,"ecbdebe":10042,"dbebdcc":10043,"bdbbb</w>":10044,"edbebbbd":10045,"ebceddd":10046,"ebcfbcc":10047,"bbcfa":10048,"bececdc":10049,"bbeeeeebe":10050,"dbebbebc":10051,"dbbedbc":10052,"bbbceecc":10053,"bdbeddc":10054,"bbbeeebbbb":10055,"fcbea":10056,"ebbeebbebe":10057,"dbcdfc":10058,"bbbddbbd":10059,"bbbdbbdc":10060,"eebcbbcc":10061,"beebebbf":10062,"dfbcbe":10063,"efbdef":10064,"bebecbbc":10065,"bbbfbcbc":10066,"ebbcbcbd":10067,"dedbcec":10068,"dbcbdbd":10069,"dcceccc":10070,"bceefec":10071,"deccecc":10072,"efbebbbe":10073,"ecde</w>":10074,"edecdee":10075,"fbcbbed":10076,"bebfbef":10077,"fbcdef":10078,"fdcefc":10079,"bebbbbebe":10080,"eeedbcc":10081,"dbcdebc":10082,"bcbfccc":10083,"babbed":10084,"edcbbdd":10085,"fbeeccc":10086,"febbeeee":10087,"bfbcdbe":10088,"dbbebbebe":10089,"bfeca":10090,"ecbcfcc":10091,"debedee":10092,"eeceba":10093,"ebdeddc":10094,"bcccdec":10095,"becbeecc":10096,"ebdbcdd":10097,"bbfeecc":10098,"bbcdbdc":10099,"bebeefc":10100,"bebcdbf":10101,"bbbebbbcc":10102,"beccfed":10103,"eefeccc":10104,"ebdbba":10105,"bebcbeed":10106,"ddbdbc":10107,"bfebbed":10108,"baddc":10109,"bbbcfebb":10110,"ebbbebfc":10111,"ddebfc":10112,"ebfeeebe":10113,"ebecbeec":10114,"eeefebe":10115,"eedebfc":10116,"bbbefbbc":10117,"bfeebbee":10118,"bbbefbbbb":10119,"eced</w>":10120,"edbdecc":10121,"bbdbebbbe":10122,"debbbfc":10123,"bdcbebf":10124,"bbbbecbd":10125,"ddbdbf":10126,"deddeec":10127,"eecbcef":10128,"ecbedef":10129,"abbbec":10130,"dbecccc":10131,"ebdcdbd":10132,"bebdba":10133,"beccebcc":10134,"bbfcebe":10135,"ebbcbeebb":10136,"beeedec":10137,"efecbbc":10138,"bbeebccc":10139,"eddbbbd":10140,"edcbdbd":10141,"bebcbcbd":10142,"ebbbbbbbbc":10143,"bbbbdbec":10144,"bdfdef":10145,"bbbbecebb":10146,"efbcbbbb":10147,"dbbebccc":10148,"bbecfcc":10149,"bbebcdf":10150,"bbdecbf":10151,"bebdfec":10152,"eaded":10153,"dcfebf":10154,"ebcbea":10155,"dbebcdc":10156,"bfcdbec":10157,"eeddecc":10158,"ecbbcccc":10159,"bcbcfec":10160,"ececbbf":10161,"dcbb</w>":10162,"eebcfbd":10163,"ebcdebf":10164,"bbeecbbc":10165,"daecc":10166,"fcb</w>":10167,"becb</w>":10168,"dcbbebf":10169,"fcdbbf":10170,"febeeeee":10171,"beefebe":10172,"ebdbddc":10173,"bfcdebc":10174,"bbbffee":10175,"ebbbcff":10176,"becdbdc":10177,"bccecbf":10178,"edcdbcc":10179,"fbbcdf":10180,"bbbbbdbc":10181,"bfcdeec":10182,"bebcbbbbc":10183,"bbbbbbbbbbbbbbbc":10184,"edbddf":10185,"dcfbbbe":10186,"bfebbee":10187,"bfebbebe":10188,"dbfbbbd":10189,"bbebebdc":10190,"eeeddbc":10191,"bbdbfcc":10192,"bbdcbebe":10193,"eebcecbc":10194,"ebfbedc":10195,"ebcfbbbb":10196,"dbbbdbec":10197,"daff":10198,"ddceecc":10199,"eebbebfc":10200,"ecdceec":10201,"bbddbbf":10202,"efdced":10203,"bfcfbe":10204,"dbfded":10205,"ebbdebec":10206,"bbebeff":10207,"febbfee":10208,"ecbdff":10209,"fbffee":10210,"bdeddee":10211,"edbeddc":10212,"decdfc":10213,"eeecbcbc":10214,"edcbebf":10215,"eabebc":10216,"dceeeec":10217,"bbeefec":10218,"ebfeeebb":10219,"eabbebb":10220,"bdeeff":10221,"ebbdfcc":10222,"ebcbbecc":10223,"bbbfbeee":10224,"eefbbbbc":10225,"ededccc":10226,"ebbbebbbf":10227,"dcbcff":10228,"bfbcbbbe":10229,"bddbdcc":10230,"fcecbe":10231,"fbcbedc":10232,"fdebccc":10233,"eebeebbebb":10234,"bfbcbbbc":10235,"ecbcecbc":10236,"bfcbccc":10237,"daef":10238,"bdecdbc":10239,"ebbfbebc":10240,"eebcba":10241,"bcecdcc":10242,"bccc</w>":10243,"bdfac":10244,"ebbbebbebe":10245,"bbeedbbc":10246,"debeff":10247,"beedbbd":10248,"bcbfbbf":10249,"bfeebbf":10250,"ebccfcc":10251,"feccccc":10252,"bbccfcc":10253,"eccbcebb":10254,"bbbbbebbd":10255,"ececebd":10256,"bfcdbbc":10257,"beefbeee":10258,"bbbccbec":10259,"ebeecbbc":10260,"fbfbebe":10261,"fededc":10262,"bbadbe":10263,"eebeded":10264,"bdeebebe":10265,"decbbebb":10266,"eebcdbf":10267,"fbbcbec":10268,"fcfdf":10269,"dcbdbbbb":10270,"bebcbedd":10271,"bbcdedc":10272,"bbbbcbef":10273,"defeec":10274,"dbedefc":10275,"decbccc":10276,"abbfc":10277,"deecff":10278,"dbbdbbf":10279,"dfbcdc":10280,"bbbdefc":10281,"bcdc</w>":10282,"ececedc":10283,"bbcdbbf":10284,"fedbebe":10285,"efc</w>":10286,"bbebcbbbc":10287,"bffbbee":10288,"ebbdbbbd":10289,"ebbfbbbd":10290,"dcbebdc":10291,"bdbebbbf":10292,"bafec":10293,"bdeeedc":10294,"eeecfbc":10295,"ebdbbebd":10296,"fbfdbc":10297,"bbabbd":10298,"edbcbdc":10299,"bbddff":10300,"bddbbdc":10301,"dfcecc":10302,"aecbe":10303,"bdccfc":10304,"bbefebc":10305,"eedcbdc":10306,"edbcdbd":10307,"bccedbd":10308,"fbfbdc":10309,"deeeeee":10310,"fbdbbee":10311,"bbebebef":10312,"ececdbd":10313,"decceecc":10314,"ebebddd":10315,"eeecedc":10316,"bcfbbdc":10317,"ebdbded":10318,"bbedba":10319,"bbdc</w>":10320,"fbdbbbd":10321,"debdccc":10322,"dbecded":10323,"bcedfc":10324,"eebfebf":10325,"bbebbdebb":10326,"bbbbbcdc":10327,"beeefcc":10328,"dfcbdc":10329,"beedbbbe":10330,"fbbca":10331,"edbcff":10332,"ebeebbbf":10333,"bbdedcc":10334,"ebededc":10335,"becceebd":10336,"deecbcc":10337,"ebeefcc":10338,"bbbbfebe":10339,"eebeebeebe":10340,"ddcbcbc":10341,"dbbdccc":10342,"decbeebb":10343,"ecbfdd":10344,"bfebbbc":10345,"dcbcdbe":10346,"dcbedbc":10347,"ebecebcc":10348,"eeeedcc":10349,"fbfebc":10350,"dbcdbbbb":10351,"bbefbef":10352,"debddee":10353,"ebbcdebe":10354,"dbfea":10355,"fbebba":10356,"fefbbf":10357,"bfcea":10358,"dbbbdfc":10359,"dbbdbdc":10360,"eeeacc":10361,"fedba":10362,"bdbcded":10363,"edbbfcc":10364,"eedcdee":10365,"becebfc":10366,"bbdbea":10367,"eeefff":10368,"ebbcbeed":10369,"edbdccc":10370,"effecc":10371,"fcfeec":10372,"bdeebbec":10373,"eecbba":10374,"bbdfbbd":10375,"ecccdbd":10376,"bccbefc":10377,"bbcbfcc":10378,"fbbcbbf":10379,"eccebfc":10380,"edcbbbf":10381,"fecbbbd":10382,"ecbcbbcc":10383,"debcdbc":10384,"ebccbbcc":10385,"febbbbee":10386,"eeebbfee":10387,"dcccdd":10388,"bbcecdc":10389,"bbdbbbdc":10390,"bdfebec":10391,"eeecbfc":10392,"fceebbc":10393,"ebcecbbc":10394,"ebebfbf":10395,"bbcebbcc":10396,"eebcbeee":10397,"ffcdbe":10398,"bbcbbbbbbc":10399,"edceebf":10400,"dfdbec":10401,"bebbd</w>":10402,"ebdeebbc":10403,"bbefbbbc":10404,"dbbbbbdc":10405,"bbeebcebb":10406,"fdcfbc":10407,"bbebcef":10408,"bbebceec":10409,"efcdeec":10410,"ececbbbe":10411,"eebbbbbbbe":10412,"eceebccc":10413,"bbbfbbbbc":10414,"efcbeed":10415,"dccdebb":10416,"fbbefcc":10417,"eebecccc":10418,"befda":10419,"eeccbbbe":10420,"dbbbbbebe":10421,"bbbecdee":10422,"fcfecc":10423,"bfbbebbc":10424,"ebdbfcc":10425,"fedfbc":10426,"bcdbbebd":10427,"dbeda":10428,"debcbebc":10429,"dcebbbd":10430,"bbbbdfc":10431,"eccbebbc":10432,"dbcbebf":10433,"ffcdee":10434,"bbddbbbc":10435,"ecccfbc":10436,"bccbded":10437,"dbffee":10438,"ebccbcbc":10439,"bbebca":10440,"bccecdc":10441,"dcebbbf":10442,"bbcbbecc":10443,"bdceedd":10444,"ebbdddc":10445,"bfcbcbd":10446,"ebcebbebb":10447,"ecceef":10448,"fcbddc":10449,"ebfbeed":10450,"becbfcc":10451,"dbbbfebb":10452,"beeebbbbc":10453,"fbffbc":10454,"fccbeec":10455,"efccccc":10456,"ccccccccccccc":10457,"efecdd":10458,"bddbbbf":10459,"bbfbcee":10460,"bebcea":10461,"bebcbeebb":10462,"ecbcbecc":10463,"fedfec":10464,"ecfdfc":10465,"dbcb</w>":10466,"fedbef":10467,"bbbdebec":10468,"edceced":10469,"dbbbcbbbb":10470,"becbebec":10471,"bccfebc":10472,"eeccbbbc":10473,"bdecbbbb":10474,"defbbbc":10475,"fbfdee":10476,"ebbcbbdc":10477,"ebcbebbbe":10478,"eebffee":10479,"eceebbec":10480,"dffa":10481,"eebeeba":10482,"ececbbd":10483,"bebeecebc":10484,"adbbd":10485,"fbedbec":10486,"bdfbbebb":10487,"abdcc":10488,"defbbbe":10489,"bbbccbbbe":10490,"acbbbc":10491,"eecbebbbb":10492,"dfbcebb":10493,"dedbebd":10494,"eebcfee":10495,"abcdc":10496,"bfdba":10497,"bbcdbfc":10498,"ecbeea":10499,"dceebbd":10500,"adbcc":10501,"fbbbbbbf":10502,"efcea":10503,"debbbcbc":10504,"ecbcfec":10505,"ebdcbbf":10506,"bceddbc":10507,"ebbbbea":10508,"edccdd":10509,"eebcbeec":10510,"dcecdbe":10511,"bfecbcc":10512,"edbebbcc":10513,"ebbcdbbc":10514,"eebfbbf":10515,"bbccbecc":10516,"debbba":10517,"bbcbcfc":10518,"ecbebbbbc":10519,"bcbebbef":10520,"efbbebf":10521,"debbbef":10522,"bbccebec":10523,"bdeefbc":10524,"dbbbfbc":10525,"bcecbccc":10526,"becfbec":10527,"deebbbbc":10528,"eebfbbbb":10529,"bdbeea":10530,"ebbebbbbbe":10531,"defddc":10532,"eceebebc":10533,"bedbac":10534,"dbbbfbbbb":10535,"bfbbba":10536,"bcccbbbc":10537,"eeecebe":10538,"bccbcef":10539,"bebefdc":10540,"bbecdbf":10541,"bbabbf":10542,"eedcebe":10543,"bdbcbbee":10544,"ecbacc":10545,"bbecbbbf":10546,"beebbdbe":10547,"bbbccbbbcc":10548,"fcdcdc":10549,"debebebc":10550,"dcbfbc":10551,"ecccddc":10552,"bcebbbbbe":10553,"eeecebbc":10554,"bebbcbbbc":10555,"bbde</w>":10556,"dbbdbbbc":10557,"bdcbced":10558,"dbcbbef":10559,"fccbedc":10560,"ebbccccc":10561,"effccc":10562,"befbeed":10563,"bebbe</w>":10564,"bcbbbbbbbd":10565,"fdbac":10566,"efbca":10567,"bdfebcc":10568,"ebbcfed":10569,"ebceeebe":10570,"bbccba":10571,"dedeecc":10572,"fecdebc":10573,"ecfdbbc":10574,"ecefccc":10575,"ebcbedf":10576,"eeecea":10577,"ebbbcbbbd":10578,"dcecccc":10579,"bdbbbebbbb":10580,"bbebcebe":10581,"ebbfdec":10582,"eeceeebb":10583,"bbecbbdc":10584,"ddcfbd":10585,"bdeddf":10586,"beceebbc":10587,"bcbfdbe":10588,"ecccfcc":10589,"ecdcdee":10590,"bbccbbebb":10591,"fecebcc":10592,"febebbbb":10593,"bbeddcc":10594,"beecefc":10595,"dceca":10596,"ffbcf":10597,"ebbecdee":10598,"beecfed":10599,"eceebebe":10600,"fbceebd":10601,"bcbdebd":10602,"ecebbbbc":10603,"bcecbebe":10604,"defebf":10605,"aecbd":10606,"beecdebc":10607,"eccfedc":10608,"dbbbfbbc":10609,"bebcfebb":10610,"beefbbbb":10611,"bbecebcc":10612,"ebecea":10613,"ebcbdebb":10614,"eccdbdc":10615,"becbbecc":10616,"deccfc":10617,"deceedc":10618,"ddfbcc":10619,"beebbeec":10620,"fdcbbf":10621,"bcecbfc":10622,"ddbbbcc":10623,"dceddee":10624,"bbebcbbf":10625,"bbdbcebe":10626,"eebceebd":10627,"ebbfdcc":10628,"dbbbbbbee":10629,"efeddc":10630,"bbccfbd":10631,"bbddddc":10632,"ffcbcc":10633,"ebbcfbe":10634,"beedbecc":10635,"ecbebbdc":10636,"aeebe":10637,"ebddbbbe":10638,"fbcfbe":10639,"fcceebd":10640,"ebdcbbbe":10641,"edfebbc":10642,"efbdee":10643,"ebbbbbbbbbc":10644,"eddcccc":10645,"dcebbee":10646,"ebbcecbc":10647,"dcecbcc":10648,"eccfa":10649,"ebbcbccc":10650,"dbdea":10651,"ecdebbcc":10652,"bdfbbed":10653,"bfcdfc":10654,"feefef":10655,"bdbddbc":10656,"adea":10657,"edfcdc":10658,"eeeddbe":10659,"dbccdf":10660,"eebfeeee":10661,"bbebeebf":10662,"ebecfcc":10663,"eeecbccc":10664,"edcbcdc":10665,"ebbcbebf":10666,"debcbebe":10667,"eceddee":10668,"bdecded":10669,"dcedbbc":10670,"bcbddec":10671,"beefbbbe":10672,"ebdfecc":10673,"beeefbe":10674,"edbeded":10675,"dbffec":10676,"eeddccc":10677,"ebcfedc":10678,"dbbcbbee":10679,"eeeddee":10680,"ebeecdd":10681,"defbbd":10682,"bbddbcc":10683,"ebfcccc":10684,"bdcbbef":10685,"dbcfebb":10686,"fddbbc":10687,"eeebebbf":10688,"eeecba":10689,"ebccddc":10690,"deeceecc":10691,"debeeec":10692,"bdcdbbbb":10693,"eccbfcc":10694,"bebbbac":10695,"ebbcea":10696,"bbcceebc":10697,"ebbbbbbbbebb":10698,"fbdddc":10699,"bebbbbbec":10700,"ebdcdcc":10701,"eedeba":10702,"eccbbebc":10703,"dbdeecc":10704,"ececbcbc":10705,"febebbbe":10706,"dbbdff":10707,"ebfbcebb":10708,"bdbcbef":10709,"ebdeef":10710,"beccfcc":10711,"bfecbbbb":10712,"bbeebbdc":10713,"ecbecccc":10714,"dceeebd":10715,"dcccdcc":10716,"ebdcbbd":10717,"debbeebc":10718,"edcbbebe":10719,"edeebbee":10720,"edebeebe":10721,"edcbeebb":10722,"dadbc":10723,"adeec":10724,"bdbdbbbe":10725,"bcbbebbcc":10726,"acded":10727,"fdcbfc":10728,"bbeebebbc":10729,"eebebdcc":10730,"dfcded":10731,"bebbc</w>":10732,"eeebbff":10733,"ddddddc":10734,"ebecefc":10735,"ddbcbbc":10736,"fdceecc":10737,"bbbdbeebb":10738,"bbccbeec":10739,"ddeded":10740,"fbddebb":10741,"bbfbcef":10742,"ebccbeee":10743,"dbbcdbf":10744,"aecbf":10745,"eddbbdd":10746,"dccba":10747,"bdceccc":10748,"bebecbbbb":10749,"bebfebf":10750,"bbbecbbbc":10751,"bbbddebe":10752,"bbcceecc":10753,"bbabcc":10754,"ebefbbf":10755,"efd</w>":10756,"fadf":10757,"bcdcfc":10758,"bececbe":10759,"bcecfbc":10760,"eccbefc":10761,"edccebd":10762,"bbeffee":10763,"eebdded":10764,"ebceefc":10765,"dcacc":10766,"ebecfbd":10767,"bebdbcbc":10768,"fbbe</w>":10769,"effdbe":10770,"ddfbbbb":10771,"eedcfbc":10772,"dfcdcc":10773,"beedbbf":10774,"bedcfec":10775,"dfecbf":10776,"feeded":10777,"bbecdef":10778,"ebfbced":10779,"bcfedcc":10780,"ebabbc":10781,"ececff":10782,"bffedc":10783,"beeceebc":10784,"bbbceeee":10785,"edbda":10786,"fccebcc":10787,"bbebbbbed":10788,"beccbbee":10789,"eebfbeee":10790,"debf</w>":10791,"debcbbbe":10792,"bfebbef":10793,"edbddbe":10794,"edeeff":10795,"bcccbbf":10796,"bcccdbd":10797,"bdecebc":10798,"bebcdebe":10799,"debcedc":10800,"ebbdebcc":10801,"fcbebcc":10802,"bdbcfbc":10803,"edfbebc":10804,"eecbebcc":10805,"dfbbebe":10806,"dfecbe":10807,"edcfef":10808,"bbefdee":10809,"bfcbbbbc":10810,"efecef":10811,"bfeebbd":10812,"eecbbbcc":10813,"dbbeca":10814,"efcecbc":10815,"bdbebbbbc":10816,"beccdbd":10817,"dbbbbccc":10818,"efdcdc":10819,"bebfebc":10820,"bbeeecbc":10821,"eabbbf":10822,"feefcc":10823,"bbefbdc":10824,"bdeeba":10825,"ddbddbd":10826,"bebcbcec":10827,"dcceeee":10828,"ecfbeee":10829,"ebefdf":10830,"acbbd":10831,"bccdedc":10832,"febcccc":10833,"eebbcbbbb":10834,"eccbbbec":10835,"bebeecbc":10836,"bbebcfc":10837,"bebebeef":10838,"bbebbeeee":10839,"ebbbcdbd":10840,"bbfbcbe":10841,"ecddccc":10842,"eccdcdc":10843,"bebefbf":10844,"eebeebdc":10845,"bcbcbbed":10846,"bbeebcbd":10847,"bdbbebcc":10848,"bcfbbfc":10849,"bbebcebc":10850,"bbbcbedc":10851,"bfbcdee":10852,"fecfbd":10853,"bcedbcc":10854,"dccebcc":10855,"beebbbbd":10856,"bfebbbbc":10857,"dabbbe":10858,"edbdbec":10859,"bdeebef":10860,"bcdcdbe":10861,"ecdcdec":10862,"fedbbbe":10863,"bcde</w>":10864,"deecebc":10865,"dbbdcbc":10866,"edbdebc":10867,"bceda":10868,"bbcbea":10869,"dbbbbdbc":10870,"ddbebbbb":10871,"dbbcded":10872,"beddedc":10873,"dccbebd":10874,"ebfbcbf":10875,"efcbeee":10876,"bbebbdec":10877,"eebfbbee":10878,"ebecebec":10879,"bfdefc":10880,"bfeedf":10881,"ddbbebd":10882,"ecdbbbec":10883,"bcbdbbbd":10884,"dddddbd":10885,"bbbbbcebe":10886,"dbbdeec":10887,"dbbdbcc":10888,"ecedbcc":10889,"bdeebfc":10890,"bedebccc":10891,"effeec":10892,"edbbefc":10893,"eeecbbbd":10894,"efebbebb":10895,"ffbcbf":10896,"bdcbbebe":10897,"bbeebcec":10898,"bdbcbbec":10899,"bfeceec":10900,"febefee":10901,"eabda":10902,"bbcbddd":10903,"ebebcbbd":10904,"fdcfee":10905,"dbebcbf":10906,"efefcc":10907,"eceeebbc":10908,"dceddf":10909,"eebcddc":10910,"bbebbbeec":10911,"decca":10912,"eedddf":10913,"ebbbebbcc":10914,"dbbdcbf":10915,"ecbdfbc":10916,"bcccded":10917,"bcdcbec":10918,"bdedbec":10919,"bdcfef":10920,"dbdbbbf":10921,"bebbbbbcc":10922,"bfccfc":10923,"ebebca":10924,"beefccc":10925,"bfcbbdc":10926,"bbfbdbd":10927,"fbddbf":10928,"eeccbebc":10929,"edfefc":10930,"ebbbedec":10931,"dbbcdec":10932,"fdddec":10933,"ebebbbdc":10934,"eeeefef":10935,"dabcc":10936,"ebfdebe":10937,"ebbeebbbc":10938,"ececbbbc":10939,"bdbedebe":10940,"bbcc</w>":10941,"ebbecccc":10942,"efbeff":10943,"dbdeebd":10944,"bfcecbc":10945,"bbbbbdcc":10946,"bbbebcbbc":10947,"bcebbbbbc":10948,"bcdeba":10949,"edbbbbbbc":10950,"ddbdebb":10951,"bebebbebc":10952,"bebcbbdc":10953,"bbbecebc":10954,"ddeebbc":10955,"bcbedbec":10956,"eeebbbef":10957,"bcdceec":10958,"ebbebdcc":10959,"bbcbdebb":10960,"ecccbbf":10961,"ebbcdef":10962,"ecdcdf":10963,"dbebcf":10964,"fbfbbee":10965,"bbbdfec":10966,"bebcbbebe":10967,"ebbbbbbbbbbbbbb":10968,"eeccbfc":10969,"ececebe":10970,"dcdba":10971,"feefec":10972,"dbfbbcc":10973,"dbeecbd":10974,"ebbfba":10975,"eebebbebc":10976,"bebbcfc":10977,"fbbbac":10978,"bbbbbcbbd":10979,"eeccdbd":10980,"ebbdbecc":10981,"bbbecebe":10982,"dcbddf":10983,"eddcecc":10984,"edcecdd":10985,"eeccefc":10986,"edccbec":10987,"dbfbbec":10988,"befdbec":10989,"dedfcc":10990,"dbcbced":10991,"fbebdbd":10992,"bdbbbccc":10993,"dbedeec":10994,"beeedbbc":10995,"debbfec":10996,"debbbebd":10997,"eeeebba":10998,"ebecbebd":10999,"fbdbecc":11000,"faff":11001,"fbcfbf":11002,"ecfbbed":11003,"beddbbc":11004,"ddfbbd":11005,"eceeebf":11006,"ecececec":11007,"bebbbbbbd":11008,"ebcbcbec":11009,"fdcfed":11010,"febebbee":11011,"eceeba":11012,"beecddc":11013,"deedebc":11014,"beeffee":11015,"bdbeefc":11016,"dabdc":11017,"bbbbbdbbc":11018,"bbfbedc":11019,"ebcedbf":11020,"eeecbbec":11021,"eebbebbcc":11022,"dbbbddf":11023,"ebecbbebb":11024,"bbbecdf":11025,"bbbdeebc":11026,"dedbeed":11027,"eebfbebe":11028,"fafc":11029,"becbebcc":11030,"dbbdebd":11031,"bcbedfc":11032,"bcdcbbc":11033,"ebbcbbef":11034,"bebcdebc":11035,"bddcdd":11036,"bcbcfcc":11037,"bbbecbcc":11038,"beebbbef":11039,"ebceebbbb":11040,"bffdcc":11041,"beeebeec":11042,"acebd":11043,"dbccbcc":11044,"edbcbbbc":11045,"deddbec":11046,"bdbebbdc":11047,"defedc":11048,"dccfdd":11049,"bbbbbeebc":11050,"ecbddbd":11051,"ecbfa":11052,"ebccfbd":11053,"bbbeeebe":11054,"bbbdbbebe":11055,"dbccef":11056,"ecbfbbc":11057,"eacea":11058,"ebbcfbf":11059,"becbbeec":11060,"eebfecc":11061,"dbbecbbd":11062,"dfbcef":11063,"cccefc":11064,"bdbdfc":11065,"dbdcdd":11066,"decbedd":11067,"fbcdebe":11068,"deccdd":11069,"debdeec":11070,"cccbbec":11071,"bbbbbebbbc":11072,"dcfdcc":11073,"beccbbec":11074,"febbbef":11075,"ebffbbc":11076,"ecbcddc":11077,"dceceec":11078,"edbddbc":11079,"bececebb":11080,"beebbfee":11081,"febefc":11082,"fedebe":11083,"fecea":11084,"fbbd</w>":11085,"bcbebbfc":11086,"deddebe":11087,"fdcdbd":11088,"bedcbdc":11089,"ebfdebc":11090,"edbcbebe":11091,"dccebec":11092,"bbadf":11093,"bcccfcc":11094,"bedcdbc":11095,"bbfdbec":11096,"deecfc":11097,"bedcbebc":11098,"decbbbf":11099,"fbcecbc":11100,"ebbdbbbbc":11101,"deebcdc":11102,"ebdeced":11103,"deebbef":11104,"efbceec":11105,"ffbbbbc":11106,"bbdebbebb":11107,"eceebfc":11108,"becfa":11109,"bceebebd":11110,"bbbbdbbf":11111,"defbef":11112,"efedbf":11113,"beccdcc":11114,"bbbcb</w>":11115,"bbdfdf":11116,"decbbdc":11117,"bbedbebd":11118,"bdfdfc":11119,"bcbcdebb":11120,"dbeeeebb":11121,"bbdecdc":11122,"febbbeee":11123,"bbebedf":11124,"ebbcbcec":11125,"fbcbbebb":11126,"becccccc":11127,"debceebc":11128,"bbedbeee":11129,"bfbeebf":11130,"bbdebbcc":11131,"dbceedc":11132,"beefbbf":11133,"ddeeef":11134,"edcbdcc":11135,"fbfecc":11136,"bbbbbbbbbebbbb":11137,"bdbcfee":11138,"ebbeebdc":11139,"bbbebbeec":11140,"bbdbcbbd":11141,"debcbdc":11142,"ebdcded":11143,"ebecbeee":11144,"fcbbeec":11145,"ffdbec":11146,"eeccebcc":11147,"beefbbee":11148,"bcbfbcc":11149,"beebeccc":11150,"aeda":11151,"decdbbc":11152,"bbbefed":11153,"beceebe":11154,"beedbebe":11155,"bebbbb</w>":11156,"deefdc":11157,"beecdfc":11158,"fbdfcc":11159,"ebdcebf":11160,"efbeecc":11161,"fcbbebd":11162,"ffeebc":11163,"bebfbdc":11164,"beecdbf":11165,"bbebebbcc":11166,"ebecddc":11167,"deeeccc":11168,"dbcac":11169,"beccbebd":11170,"bceeea":11171,"bbebebeebb":11172,"bccbba":11173,"ebbbebbed":11174,"bfceebd":11175,"bebfdbe":11176,"fbdfed":11177,"bcdebbcc":11178,"bbbbbcbbbc":11179,"bdeeebbc":11180,"ecdd</w>":11181,"bbdcebf":11182,"ececfbc":11183,"fcbdec":11184,"fefbeee":11185,"fecda":11186,"beefef":11187,"dfbedd":11188,"bdeebbcc":11189,"edbcdcc":11190,"edceddc":11191,"fbeebdc":11192,"bbbecbbf":11193,"ecbcbeee":11194,"fbdeebc":11195,"ddcbebc":11196,"deebbebc":11197,"debbfee":11198,"babebd":11199,"bbebbeebc":11200,"bbdfeec":11201,"eecfebe":11202,"bcbcbebd":11203,"bcbfef":11204,"eccfebd":11205,"befeecc":11206,"bdfbecc":11207,"ebebac":11208,"acfee":11209,"bdbbbbbbbd":11210,"eecbeecc":11211,"dbeecbe":11212,"debbbbcc":11213,"dfcdbd":11214,"beebbebd":11215,"acfbc":11216,"fbbcff":11217,"fcc</w>":11218,"efcbcbd":11219,"bbddded":11220,"bebebcbe":11221,"edccbbc":11222,"bbefebf":11223,"ebcfbbd":11224,"ecbcbbbd":11225,"bdcb</w>":11226,"eaeba":11227,"ebedebbc":11228,"ecfebdc":11229,"aeedc":11230,"bcebbccc":11231,"deccdec":11232,"fbedbbbb":11233,"bececed":11234,"eeecbbee":11235,"dbceeed":11236,"bebbbbbbbbbbbbbbbb":11237,"edbebbec":11238,"bbdcbbee":11239,"bebeeebf":11240,"bbebcbebc":11241,"ecddedc":11242,"bbebebbec":11243,"bbbcbbfc":11244,"dbbcdbbc":11245,"bffbfc":11246,"bbbbcebf":11247,"bbebcbcc":11248,"fbcbccc":11249,"ecccbbbb":11250,"bbebbdbbbb":11251,"eeebbccc":11252,"efbac":11253,"eabbcc":11254,"bebebebbbe":11255,"bbcbdbc":11256,"ebccbeec":11257,"ebbbbdbd":11258,"ebeebbee":11259,"eecfedc":11260,"bbbedbec":11261,"ebbccfee":11262,"dadbd":11263,"dbbebbdc":11264,"eccbeebe":11265,"fbebbbec":11266,"edbdbbbb":11267,"ecdcbec":11268,"bfbcdbc":11269,"efbcdf":11270,"ebcbeecc":11271,"bdeebbbd":11272,"fecdecc":11273,"eeecbbcc":11274,"ecfdef":11275,"bbedbecc":11276,"efbebbd":11277,"bcfebdc":11278,"ebceeef":11279,"eecdbbbe":11280,"dceeedc":11281,"fedebd":11282,"bbfbeebe":11283,"bbebbedc":11284,"ecfbbdc":11285,"bfbddf":11286,"eecefcc":11287,"bbabbbd":11288,"ddecebb":11289,"bbfeeebb":11290,"beebbdf":11291,"bcfdebc":11292,"bbbeebbbbbb":11293,"bdbbac":11294,"fbcfebb":11295,"eecfeec":11296,"eaebbc":11297,"eeccebf":11298,"bbdeba":11299,"bebeeebe":11300,"feebccc":11301,"fdddbe":11302,"bebbefcc":11303,"bbefbeee":11304,"bbcbebbbe":11305,"fdcdcc":11306,"feceebc":11307,"ecccbfc":11308,"ddbebec":11309,"efcbccc":11310,"eefbdcc":11311,"edfded":11312,"ebefbbd":11313,"bebfbebc":11314,"ebbbbcbbbb":11315,"fcfccc":11316,"ddfdbe":11317,"bcecdeec":11318,"abbbcc":11319,"fbdbbec":11320,"bceeebcc":11321,"bceacc":11322,"bffdbd":11323,"fcfbbbb":11324,"ecbcdebb":11325,"dbdeeee":11326,"bcedded":11327,"ebedbbbc":11328,"bcbbbbbbbbbbbbbbbb":11329,"feeeeebe":11330,"dcdbecc":11331,"ebbbbefc":11332,"ebbebbebbebb":11333,"bcbecccc":11334,"efbbccc":11335,"eeceebbc":11336,"bbabec":11337,"bebbebecc":11338,"ffbcdc":11339,"dbbdbebe":11340,"daeca":11341,"deebbebe":11342,"fdcbbbb":11343,"ebebeebf":11344,"dbdebec":11345,"fcebbcc":11346,"bcecebf":11347,"beeeddc":11348,"fccddc":11349,"bccbeebe":11350,"bbfbbdd":11351,"fbdea":11352,"bbdeebbbb":11353,"befcccc":11354,"ecbccccc":11355,"bcbdecc":11356,"deebcebb":11357,"bfbcbfc":11358,"bbffa":11359,"bfdded":11360,"babeebb":11361,"befdebe":11362,"deefebb":11363,"bcecdebb":11364,"effebf":11365,"ecbedebe":11366,"bddcccc":11367,"efcdbbc":11368,"bbbdbecc":11369,"debdbbc":11370,"bbbebbebd":11371,"bcbcbecc":11372,"bbedfee":11373,"bdfdebe":11374,"bcfcdf":11375,"bcfdbec":11376,"bbbfdbf":11377,"bebebedc":11378,"edbeba":11379,"fffa":11380,"bbdcded":11381,"ddbdec":11382,"bccccccccc":11383,"dececcc":11384,"dbdbeed":11385,"efceedc":11386,"dfcebd":11387,"bfbeccc":11388,"bebebbbec":11389,"dbddebc":11390,"acdcc":11391,"ffbeebb":11392,"beceef":11393,"efcbbebd":11394,"beeebebd":11395,"bbdcfbc":11396,"dbebebbbb":11397,"dbcdbec":11398,"decfdc":11399,"dbdfed":11400,"bbecdebe":11401,"bdccbbc":11402,"bdbcbfc":11403,"efbebbf":11404,"bccebfc":11405,"bfeebebe":11406,"bfeeff":11407,"deecebd":11408,"bdeebcbc":11409,"ececbccc":11410,"bbedbbcc":11411,"bbbcbcbe":11412,"eecccccc":11413,"dbcfdd":11414,"eeeeeebeee":11415,"befdebc":11416,"bcbdbebc":11417,"deceebd":11418,"ecceebbc":11419,"bbbffbd":11420,"dbccebe":11421,"bbdbdbbc":11422,"bbedfec":11423,"bececbf":11424,"bbbefdc":11425,"bfbcfbc":11426,"dedeebc":11427,"bbdcbebc":11428,"becfebe":11429,"dbcbeebb":11430,"dbbecdbe":11431,"dedcccc":11432,"fbebbdd":11433,"fceebe":11434,"fcbebec":11435,"bbffbbbb":11436,"beedbfc":11437,"bdeeddc":11438,"ebccbecc":11439,"ebbeedf":11440,"dbbdddc":11441,"ffbeef":11442,"ecfbbebb":11443,"bbdbbecc":11444,"dbbbfdd":11445,"fccfdd":11446,"bcfbbbec":11447,"fcecebb":11448,"bdbdccc":11449,"dbebbfc":11450,"ecfbdcc":11451,"eabcbc":11452,"bbbdbbeec":11453,"acebf":11454,"bbbbcbfc":11455,"bebfecc":11456,"dbccbbbb":11457,"dbbeceec":11458,"fcefcc":11459,"dbeb</w>":11460,"eedcdcc":11461,"abded":11462,"aeeef":11463,"ddecee":11464,"bdcbcee":11465,"fbccccc":11466,"edcdccc":11467,"defba":11468,"bdbcdcc":11469,"bccdebd":11470,"fbecbbc":11471,"bbecddc":11472,"feddbf":11473,"ddbeebc":11474,"bbbceeec":11475,"bbbcbcbf":11476,"dedebec":11477,"deddebc":11478,"beeeeeef":11479,"bebbcebe":11480,"bfeddf":11481,"becbbebd":11482,"bebebeed":11483,"bfbcebd":11484,"fccbbee":11485,"beecbbed":11486,"febbebd":11487,"efbcbbd":11488,"becbea":11489,"bcbdbef":11490,"dedbedc":11491,"fcbcebe":11492,"effebd":11493,"debbdcc":11494,"bbbbbbbbdbbbb":11495,"bbecdebc":11496,"bffdbb":11497,"bcecfec":11498,"bebbbebbee":11499,"eecedbd":11500,"acbef":11501,"edbe</w>":11502,"ecbddcc":11503,"eebeebbebe":11504,"ebbfbbebb":11505,"beeebecc":11506,"bcbedbbbb":11507,"ebbbbbecc":11508,"bbcbebcc":11509,"ecbdbbf":11510,"beddccc":11511,"ebbfbbec":11512,"efbebbee":11513,"bbcebbebb":11514,"eccdbbd":11515,"eecb</w>":11516,"bbbeeebf":11517,"dbfebbc":11518,"eecbea":11519,"feecdf":11520,"edbbbbbd":11521,"dbebeebe":11522,"ddbcebe":11523,"dbbcbebc":11524,"bedddec":11525,"edbbbbebb":11526,"dcebbbc":11527,"ffbced":11528,"bbccebcc":11529,"edfbbbd":11530,"dcdcccc":11531,"dedcbec":11532,"eacba":11533,"ebceba":11534,"efcebec":11535,"ebbfbbcc":11536,"efddcc":11537,"bbbbecbe":11538,"fceefc":11539,"cccccccccccccc":11540,"bbbfedc":11541,"efceebd":11542,"bdbcedc":11543,"bbbbbdbf":11544,"bcbceebc":11545,"ebcfdf":11546,"bbefba":11547,"eccbcef":11548,"bbdcbfc":11549,"edfea":11550,"dcdbbcc":11551,"ebdbdbf":11552,"bcfbdcc":11553,"efbdf":11554,"eeeefebe":11555,"bcecedc":11556,"feebeec":11557,"ebdcbebe":11558,"ebbceeec":11559,"eccbddd":11560,"eccfbcc":11561,"fceeebc":11562,"ebfda":11563,"ebfeeef":11564,"ebdbebbd":11565,"dfecdc":11566,"eeddbec":11567,"bbcbddc":11568,"bbbbcdbbbb":11569,"bbbefef":11570,"bbccddc":11571,"bcecbbee":11572,"ebbdea":11573,"ebefbbbe":11574,"ebefecc":11575,"dbfddc":11576,"bbefdbc":11577,"ebbbbfcc":11578,"fcbcebc":11579,"ddfeec":11580,"fffbbc":11581,"febebcc":11582,"fccea":11583,"fedbbbc":11584,"bceedbec":11585,"efeebbbb":11586,"bbbbbded":11587,"ecbedbec":11588,"eeebbbbbc":11589,"fdddee":11590,"edfba":11591,"eeecbef":11592,"edfddc":11593,"eeeebbbd":11594,"fecbccc":11595,"bebbcbbf":11596,"bebeac":11597,"afbbbb":11598,"dbebbbec":11599,"abcbbc":11600,"bcbdbbee":11601,"eccedbf":11602,"bbebebcbc":11603,"dbedbbd":11604,"bbccbebd":11605,"dbbedebe":11606,"bbeceecc":11607,"edfbeee":11608,"dcfdbd":11609,"bbcbfbf":11610,"bfbcbebc":11611,"bafbe":11612,"feddfc":11613,"dddbbbc":11614,"aeeed":11615,"befeebd":11616,"bbebcbebe":11617,"beeebccc":11618,"deffcc":11619,"bdecebe":11620,"ebddbbf":11621,"fbcbbbbc":11622,"defdbf":11623,"ecbeebdc":11624,"bceeecbc":11625,"eccecebb":11626,"bbcbcbec":11627,"bccbcdd":11628,"dbcecbd":11629,"beebbbbbd":11630,"beebbbbcc":11631,"bbfcebc":11632,"eeddeec":11633,"ebbcdebc":11634,"dcfdec":11635,"bbcfbcc":11636,"ebbcbedc":11637,"eefeba":11638,"bcbdebf":11639,"efdcbd":11640,"fce</w>":11641,"deebedc":11642,"efbdbbc":11643,"bceefee":11644,"eceeded":11645,"bfbedbc":11646,"beecfbd":11647,"ebeebbef":11648,"bbceeebc":11649,"bafbf":11650,"bcedebc":11651,"ebbcfebb":11652,"becbcef":11653,"dfdbcc":11654,"bebddcc":11655,"bbbffec":11656,"aecec":11657,"eecbedbe":11658,"bbbbeebbc":11659,"bcecfee":11660,"bccbfcc":11661,"eebcebec":11662,"beefbebe":11663,"bbebeeeee":11664,"bdccdd":11665,"beebebef":11666,"febebbf":11667,"bcbbcbbbc":11668,"ecbcefc":11669,"ebbeebbd":11670,"bbcbebbd":11671,"dfcbef":11672,"bcccbbbe":11673,"bbbbbbbbbcbbbb":11674,"beccbeec":11675,"ebfbebbc":11676,"defbcbc":11677,"bbeecdf":11678,"bebcddc":11679,"deedeec":11680,"eebfbbbe":11681,"bbcedcc":11682,"dbcdeec":11683,"dbdbbbbc":11684,"bcbdfbc":11685,"deccebc":11686,"defcdf":11687,"bbcbcebc":11688,"edcefcc":11689,"dcbcdec":11690,"bccdccc":11691,"bbcbcbcc":11692,"eecebfc":11693,"ecdeac":11694,"ebbbcbdc":11695,"ffdbcc":11696,"bbfcbbbc":11697,"ebbbedcc":11698,"acbfc":11699,"bbfcdd":11700,"ecdbba":11701,"ebdecbf":11702,"eebddcc":11703,"bbecfbe":11704,"bbeecbbbb":11705,"ebecdbf":11706,"eceebbbd":11707,"ecdc</w>":11708,"bfecbbd":11709,"dbeeeec":11710,"ecfdebc":11711,"bdeeebf":11712,"effbef":11713,"bab</w>":11714,"decda":11715,"edbcded":11716,"ecbebdcc":11717,"fddedc":11718,"bbebbcbbbb":11719,"acdbd":11720,"ebcebecc":11721,"eecbebec":11722,"febbfbc":11723,"bebcbebf":11724,"ebbffcc":11725,"efebbbf":11726,"bbcbbccc":11727,"eecebbcc":11728,"eeeecccc":11729,"dcbeebf":11730,"ebccfdc":11731,"ececbfc":11732,"efbbbdc":11733,"efcdbec":11734,"fedbecc":11735,"bcccbbcc":11736,"dbeebdc":11737,"bbbbbbbbbbf":11738,"bbdbebcc":11739,"beedbbbc":11740,"dbceebe":11741,"debda":11742,"bcbdbcbc":11743,"ebccfee":11744,"bbbffcc":11745,"bdbdbbbc":11746,"efbfed":11747,"dbdbddd":11748,"beecbbebb":11749,"ebceeebc":11750,"ebeedbf":11751,"ebebceec":11752,"ebebdbbc":11753,"bbddbebe":11754,"ebbbebbbbc":11755,"fbcbcec":11756,"ecbebbbec":11757,"eeefbbee":11758,"ecedbec":11759,"dbcbbebe":11760,"eddbdcc":11761,"bcdcdebe":11762,"ebebeff":11763,"dcfdbb":11764,"bbcbbbdc":11765,"bdbedbbc":11766,"dbefef":11767,"bacda":11768,"ebdbbbcc":11769,"eeeedee":11770,"bbdcfec":11771,"ebee</w>":11772,"eecbddc":11773,"debbbeee":11774,"ebdebfc":11775,"bbcfeec":11776,"dbbebbef":11777,"bebfbeee":11778,"ecbdbebe":11779,"bddbbebe":11780,"efdbbbc":11781,"dedda":11782,"ebbbcbebc":11783,"bbbeda":11784,"fbcffc":11785,"beccbcbc":11786,"beadd":11787,"fccbebd":11788,"dcefbf":11789,"dfbebbc":11790,"beddfc":11791,"abebbbb":11792,"bbbdea":11793,"eccbeef":11794,"ececbebc":11795,"deddfc":11796,"ebabba":11797,"dcdeccc":11798,"decdedc":11799,"beddebc":11800,"ffbdcc":11801,"ebdbeebc":11802,"fbdbeec":11803,"fbdbcbc":11804,"ebeecf":11805,"bbdcdcc":11806,"dbbedbbbb":11807,"bdbeebec":11808,"eebcbbebb":11809,"befcfc":11810,"bebffee":11811,"fbbcbcc":11812,"becceedc":11813,"acbebc":11814,"fdcebf":11815,"bcbebdcc":11816,"cccbeec":11817,"ebcceebd":11818,"eceecccc":11819,"eefdebc":11820,"efcdecc":11821,"efbda":11822,"fbeecbd":11823,"fefbef":11824,"aeeebe":11825,"bdcdbcc":11826,"bebdbbebb":11827,"ecbcfee":11828,"bcecdef":11829,"adda":11830,"dbbedebc":11831,"deddecc":11832,"becedcc":11833,"bbebeba":11834,"bcbbbfcc":11835,"efdebf":11836,"ebddccc":11837,"bbfecbd":11838,"deebebbc":11839,"bdbdbebe":11840,"bbbefebe":11841,"dbddddd":11842,"bbebddf":11843,"ebeeebbf":11844,"bbeceedc":11845,"bbccbbbf":11846,"ccceccc":11847,"beebbdd":11848,"bbbceeebb":11849,"bbdeeebc":11850,"deeda":11851,"eebcfed":11852,"ebbbcbbebb":11853,"bbbbebbbbbe":11854,"fbdeecc":11855,"eebebbbec":11856,"beefbef":11857,"bcdcdec":11858,"eacdbf":11859,"ebebbccc":11860,"bbeedbec":11861,"becfecc":11862,"dbcbedd":11863,"ebccfed":11864,"efbeba":11865,"dcdebcc":11866,"bbdeebec":11867,"ffcdec":11868,"bdfdbbc":11869,"ebbeeba":11870,"bbdeefc":11871,"ebdfbec":11872,"ebbcbbdd":11873,"ebcecf":11874,"ebdbdbc":11875,"ecdcbcc":11876,"dcffcc":11877,"edbbdbd":11878,"beccbedc":11879,"defbebc":11880,"fffebe":11881,"effbbbe":11882,"dbbedef":11883,"deefbf":11884,"bdecbdc":11885,"debeebf":11886,"dcabdbf":11887,"bddedcc":11888,"beecbeed":11889,"eeeefbe":11890,"febca":11891,"bbbbeef":11892,"fbdbebd":11893,"efceccc":11894,"fbbc</w>":11895,"fbcbebf":11896,"fcbfdc":11897,"eeedbdc":11898,"eebcea":11899,"efbcbcc":11900,"bfcceec":11901,"bdecdbd":11902,"bbbbebbbbbbbbbb":11903,"deececc":11904,"bdedccc":11905,"bbbeebdc":11906,"eeddebc":11907,"bbeddbf":11908,"beebeebf":11909,"dfbbfc":11910,"ffbeed":11911,"edbbea":11912,"eeccbecc":11913,"dbbcebf":11914,"ecdcdbc":11915,"becfeec":11916,"ffbbfc":11917,"dcbedbb":11918,"eeceef":11919,"fcedbd":11920,"bccbdbf":11921,"bccfbec":11922,"dbbcbbec":11923,"eececdd":11924,"dbbbfef":11925,"defbbec":11926,"fddfec":11927,"bbcceebd":11928,"bceeebec":11929,"ad</w>":11930,"bdcda":11931,"bcfbbebe":11932,"bbdddec":11933,"ecbfedc":11934,"ebdd</w>":11935,"dccecbc":11936,"bdbebbebe":11937,"bbbbbcdd":11938,"bbbbbcbbbe":11939,"becbdbf":11940,"ebbbbebcc":11941,"bdececc":11942,"fbcdebc":11943,"bbbbbbccc":11944,"befbced":11945,"bbccfed":11946,"ecbdded":11947,"ebebebdc":11948,"ebfbdcc":11949,"eebcbbed":11950,"dfeedc":11951,"bfbcbebe":11952,"bfbbbbcc":11953,"ebebcbcc":11954,"bcbcddc":11955,"fbbebecc":11956,"dcebbdc":11957,"bebbcebc":11958,"ffeecc":11959,"eceddbe":11960,"ebebdbec":11961,"bbbfdebb":11962,"dbdd</w>":11963,"fbffbf":11964,"edeb</w>":11965,"dffdf":11966,"eccbcfc":11967,"dbbdebc":11968,"ebdbcbbc":11969,"bbbbdbbbc":11970,"deecbebc":11971,"ebebeebd":11972,"bdceebf":11973,"ebecbbed":11974,"bbbeca":11975,"cccbeee":11976,"ebdcebbc":11977,"bdbdbbf":11978,"dceebbf":11979,"ebefdbe":11980,"babeec":11981,"eceddbc":11982,"bbbebeef":11983,"ebdcfec":11984,"bcbdded":11985,"bbceeebe":11986,"eeceddc":11987,"bbcdbbbc":11988,"fedfee":11989,"fedbeec":11990,"bdceeebb":11991,"ecdcdbe":11992,"dcbddee":11993,"decea":11994,"bdbcbeee":11995,"ebddddd":11996,"bcceddc":11997,"edeebebe":11998,"bccbbccc":11999,"bbddedc":12000,"bbabea":12001,"bdecbbd":12002,"bebeeecc":12003,"debedbd":12004,"bebfbbd":12005,"ebbbcecc":12006,"bbebbfebb":12007,"dcbcbbf":12008,"eedbac":12009,"bbebbeeebb":12010,"fccbbec":12011,"bdbcfec":12012,"beeeeebe":12013,"bbdcbef":12014,"bcfda":12015,"ebdcbfc":12016,"eecbdbf":12017,"bbbbbcef":12018,"bbafc":12019,"eecdbbf":12020,"dbceccc":12021,"bbceefc":12022,"debebfc":12023,"bebfbfc":12024,"beccbef":12025,"dbbbd</w>":12026,"bbcfbbd":12027,"fbcbcbd":12028,"ddcdbf":12029,"bbceebbbb":12030,"ebbbcbbec":12031,"ebbcfdc":12032,"bebcbccc":12033,"beccebec":12034,"eebdebf":12035,"bbcbedbe":12036,"bcbfbbbe":12037,"bedeac":12038,"ecbbb</w>":12039,"bbccbbed":12040,"fedefc":12041,"dbbcbef":12042,"dcceeec":12043,"ffbedc":12044,"eeceebe":12045,"dccecdc":12046,"bcfbbebc":12047,"bbdddbbbb":12048,"dbbcbcbc":12049,"debebbbd":12050,"beedecc":12051,"debdfc":12052,"bbbbeccc":12053,"bbfeccc":12054,"bebfdbc":12055,"ffbcee":12056,"efeefc":12057,"dffebe":12058,"bbdfbcc":12059,"bbfcccc":12060,"bebebced":12061,"ebceebec":12062,"eecdcdc":12063,"debebcbc":12064,"beebefee":12065,"bbeffbc":12066,"edfbbcc":12067,"bccdbbd":12068,"bbeeac":12069,"beeddebb":12070,"bbeebbbec":12071,"bcbbeba":12072,"edbddbd":12073,"ddedbf":12074,"dbbcbfc":12075,"beebbebbc":12076,"bebbcdbe":12077,"bbbcac":12078,"bccbebbbb":12079,"dccbedc":12080,"eeecdebb":12081,"dbfefc":12082,"efeebbee":12083,"becbcdd":12084,"ececbbec":12085,"dbcdbbd":12086,"dbbcecc":12087,"ecbbbdcc":12088,"bbeebeef":12089,"bdbebccc":12090,"efbcecc":12091,"fcbdebb":12092,"ebbbbbbbbbd":12093,"ecbcfbd":12094,"eebfbef":12095,"bdeddbe":12096,"eeeebbcc":12097,"edcebfc":12098,"efdded":12099,"eceeac":12100,"feecccc":12101,"ebdbcfc":12102,"beeefebb":12103,"bbbfbebd":12104,"fecdeec":12105,"dedebcc":12106,"bdecff":12107,"ebebcbbbe":12108,"ccceecc":12109,"ddbea":12110,"bdcdebd":12111,"eddb</w>":12112,"bbfbbbcc":12113,"eafbe":12114,"eeebbeeebb":12115,"becbedbe":12116,"bbdbedbe":12117,"bcbebbeec":12118,"ddebbcc":12119,"eadef":12120,"beecebcc":12121,"fdcbebe":12122,"ebbbddbe":12123,"ebeceebc":12124,"ebecbcbd":12125,"bbcecbbc":12126,"bccbcbbbb":12127,"eefdbec":12128,"fcdbfc":12129,"becbdebb":12130,"dccbbed":12131,"bbbcbced":12132,"bcccfbc":12133,"ecbdbbbe":12134,"dbbbbdf":12135,"bbbbbbba":12136,"bebbebccc":12137,"eebdbbbd":12138,"debcebbc":12139,"debceecc":12140,"ebfbbfc":12141,"debbeecc":12142,"deefbbc":12143,"feebecc":12144,"bcccddc":12145,"afdf":12146,"bbbbdbcc":12147,"ebefebd":12148,"bbbbfdd":12149,"efbdebc":12150,"dbdecbc":12151,"bebceedc":12152,"bcebbfc":12153,"bbddbdbd":12154,"bceedef":12155,"edbcbfc":12156,"dedbcbd":12157,"bbefecc":12158,"bdbbcdbf":12159,"ae</w>":12160,"eebdbfc":12161,"bcecebbc":12162,"dccbeed":12163,"eebbbfcc":12164,"deebdcc":12165,"edbbebec":12166,"bbbbebbcc":12167,"fccffc":12168,"bfdbecc":12169,"ebec</w>":12170,"bbbebdcc":12171,"ebbdeecc":12172,"ebecbedc":12173,"bcbcefc":12174,"bbbbbdbbbd":12175,"bbdbdbbd":12176,"eeeddec":12177,"bdecebd":12178,"dbcbcdc":12179,"fccdfc":12180,"dbbebbdd":12181,"bbbbeeebe":12182,"bbbbbbbbbbbbbbbe":12183,"deecbdc":12184,"febbecc":12185,"ebbbcbef":12186,"feefbd":12187,"fbbbbbbbc":12188,"deedfc":12189,"dbbecbcc":12190,"debebbcc":12191,"ecbfebc":12192,"eddbbbbc":12193,"dceebdc":12194,"dbbeac":12195,"bbfcbef":12196,"bccbebec":12197,"fccdbf":12198,"debcbbbc":12199,"dbecdbd":12200,"eeecddc":12201,"febcfc":12202,"becbebbd":12203,"bbfdbbd":12204,"bbcfdf":12205,"feceedc":12206,"cccccccccccccccccccccccccccccccc":12207,"eceacc":12208,"bbfebdc":12209,"debbdbf":12210,"bbbecfc":12211,"ebbbdbbbe":12212,"beeebbed":12213,"bfeedbe":12214,"eecfbec":12215,"bbebbbebf":12216,"dddebf":12217,"ebcdced":12218,"ecceeef":12219,"bdcbcdc":12220,"fbedbcc":12221,"beccbbbd":12222,"bccbddc":12223,"bbebbebbebb":12224,"bbdbeebd":12225,"dfbbebc":12226,"ddeeebe":12227,"bbecdeec":12228,"fbceedc":12229,"bfeeecc":12230,"efbdfc":12231,"bceefbd":12232,"fdddbc":12233,"dbefbbc":12234,"eceebef":12235,"ddbbeec":12236,"efbdebe":12237,"ebecbbbbc":12238,"ecceefc":12239,"beccbbcc":12240,"dcbebbbc":12241,"ebbcbebbc":12242,"ebbceedc":12243,"ecfdbec":12244,"ebdfbcc":12245,"cccba":12246,"bbbffbf":12247,"bececbbc":12248,"abcef":12249,"dccea":12250,"bcbcdbf":12251,"bcebbebc":12252,"bedddbe":12253,"fabba":12254,"bccbcbcc":12255,"bfbeedc":12256,"bdbffc":12257,"bebdeecc":12258,"daebc":12259,"bcbcbcec":12260,"adbbf":12261,"bdbbeecc":12262,"ddbb</w>":12263,"ebfecbd":12264,"eeefbebe":12265,"bcfbba":12266,"fdcbebc":12267,"edecdbc":12268,"bdcecbd":12269,"bbefbfc":12270,"deecdbd":12271,"deebdbd":12272,"efdbfc":12273,"fddecc":12274,"bbeedbbbb":12275,"dcbebbee":12276,"beebcbbc":12277,"ebebedbe":12278,"ddfebd":12279,"beedebd":12280,"dedfbd":12281,"ebaba":12282,"bbdbcfc":12283,"debbbbbbc":12284,"eceebeee":12285,"ecdbbebc":12286,"bbecdbec":12287,"bdecbbf":12288,"dfcfbc":12289,"edbedbf":12290,"ebbdbbdd":12291,"bbbbffc":12292,"ffebdc":12293,"fbebfcc":12294,"dcbcdbc":12295,"bfecdec":12296,"edceeebb":12297,"bebdefc":12298,"fdeac":12299,"bbdcfee":12300,"acbebe":12301,"edeedbd":12302,"bedceecc":12303,"ddeefc":12304,"edbcbbee":12305,"bcbdfee":12306,"bfbbbbbbc":12307,"edcfbbc":12308,"bbbeb</w>":12309,"ecebbccc":12310,"ebbbcdec":12311,"fccbbcc":12312,"dcdea":12313,"baefc":12314,"dbccebc":12315,"ebeceecc":12316,"bfeebeee":12317,"bebbcbebe":12318,"befbcbf":12319,"eceedbbc":12320,"becbcebc":12321,"eccfbec":12322,"bbdfecc":12323,"beef</w>":12324,"bbecbbebe":12325,"eceddec":12326,"edbdebd":12327,"dfb</w>":12328,"ffdebe":12329,"ffeebf":12330,"ecbcbbed":12331,"fefdbe":12332,"edbc</w>":12333,"becefcc":12334,"ddcdebb":12335,"fddebc":12336,"ecdcebd":12337,"edecdec":12338,"bbbbbbebbc":12339,"ecbedebc":12340,"bbfceec":12341,"bdfda":12342,"ebbfea":12343,"defded":12344,"bcbedeec":12345,"bbdbeeec":12346,"ebbeedbc":12347,"bcebbeec":12348,"becfedc":12349,"fecdbec":12350,"bbdcebbc":12351,"afba":12352,"defbbee":12353,"ddddccc":12354,"fecbeee":12355,"acbeec":12356,"ebecbbbf":12357,"ecccbbbe":12358,"beebbecc":12359,"eabeec":12360,"bbeccccc":12361,"deedebe":12362,"dcedccc":12363,"dceeddc":12364,"bbefbbebb":12365,"bccbbeec":12366,"bdcecec":12367,"bcbeda":12368,"bbfcbbbe":12369,"bcbbbbbbebb":12370,"bebfebd":12371,"eebcbedc":12372,"beedbeec":12373,"bbbecbbee":12374,"becfbbbb":12375,"bbebebbbbc":12376,"ebbfbbbf":12377,"edceebe":12378,"eeccbebe":12379,"ddeba":12380,"dbffdc":12381,"dcbedec":12382,"bebdfee":12383,"eeecfee":12384,"beddbbbb":12385,"eadebb":12386,"efcbbed":12387,"ddbcfc":12388,"bbececbc":12389,"bbebcdbe":12390,"edbcfcc":12391,"ebbeeebc":12392,"bbdeeebe":12393,"ecccbccc":12394,"efbbedc":12395,"eebcebdc":12396,"fbbcbbbe":12397,"ecccbebe":12398,"bebffbc":12399,"ffecbd":12400,"deebcbf":12401,"bebcdbbc":12402,"bbebedbc":12403,"bbdecbbc":12404,"bdeefcc":12405,"aecdc":12406,"ecccfec":12407,"eeedeec":12408,"dbbbebbbe":12409,"bcebebbbb":12410,"bdcdbbd":12411,"bfcac":12412,"bebddbf":12413,"ebbbcebbc":12414,"dcebdcc":12415,"bbefdbd":12416,"ecddebc":12417,"eaefc":12418,"eeeeebd":12419,"fcbfed":12420,"eabbed":12421,"ebecfed":12422,"edbdeec":12423,"dcfbef":12424,"bbcbedf":12425,"bcecbecc":12426,"edeeddc":12427,"bbbbcba":12428,"becdbbf":12429,"deeeebd":12430,"ffbeebe":12431,"ebebcebd":12432,"efbedf":12433,"bbbddef":12434,"dfcfee":12435,"bfbcecc":12436,"bdceebe":12437,"ebccdebb":12438,"dcfbbbc":12439,"bbebeebd":12440,"eefdebe":12441,"bdcbdcc":12442,"ebfebdc":12443,"befebdc":12444,"dbceebf":12445,"fbebdbf":12446,"beededc":12447,"abdac":12448,"bebbbebebe":12449,"ecdeba":12450,"dbbefbf":12451,"bbecbcbd":12452,"befbbebc":12453,"beeefbf":12454,"dba</w>":12455,"abedd":12456,"eebdfec":12457,"dcfbfc":12458,"bbdbfbf":12459,"dfdbbbb":12460,"fefbbee":12461,"bfecff":12462,"bcbbc</w>":12463,"ebfbcf":12464,"babecc":12465,"beeebbdc":12466,"bebfedc":12467,"becfbcc":12468,"befbcebb":12469,"bebfeec":12470,"becdccc":12471,"fbdbbcc":12472,"deddbbc":12473,"eeebbbcc":12474,"eceebecc":12475,"dbddbec":12476,"fedbcbc":12477,"dedcdec":12478,"bbebefee":12479,"bbbbbbbbbbbf":12480,"eefebdc":12481,"dbbdbebc":12482,"ebcfbdc":12483,"fcdbbbe":12484,"ecceded":12485,"dbcebdc":12486,"efecbec":12487,"bdbdbcc":12488,"bfebeebe":12489,"edbdedc":12490,"ddcdef":12491,"dcdebec":12492,"bbcbeeec":12493,"dceedbc":12494,"dbccff":12495,"bdfeecc":12496,"befbedc":12497,"debbbbed":12498,"bdbcebbc":12499,"edbebecc":12500,"bfcdebe":12501,"dbdebcc":12502,"bdbedef":12503,"edddccc":12504,"ebebebbbc":12505,"bbfbdcc":12506,"fddfbc":12507,"bdee</w>":12508,"bebbbbdbe":12509,"ebdefcc":12510,"bcecfcc":12511,"bffdec":12512,"ecbcba":12513,"ebbbcfbc":12514,"aedcc":12515,"bcccebf":12516,"edfbbec":12517,"dcdcdcc":12518,"bdcfbbc":12519,"dbdfdc":12520,"beebcbbbb":12521,"bbdfebd":12522,"dfcebf":12523,"eeddbbc":12524,"afebc":12525,"febe</w>":12526,"fecbcbd":12527,"bbefeec":12528,"ebfcbcc":12529,"bbbcfbbc":12530,"dbbdcbbc":12531,"dbdfbe":12532,"dcfcdc":12533,"daedc":12534,"beecbedd":12535,"efbeebf":12536,"ebfcbec":12537,"eabeebb":12538,"edbbebcc":12539,"bbeebeed":12540,"beecfcc":12541,"bceebbbf":12542,"ddbdbbbb":12543,"eeedbbbb":12544,"dcfbebe":12545,"eccbbbcc":12546,"eeebbbbebb":12547,"acbcbc":12548,"bbbebcf":12549,"dcbbbfc":12550,"dfbded":12551,"bbcbdef":12552,"efeebeee":12553,"ebedced":12554,"efacc":12555,"cccbecc":12556,"dabbf":12557,"bdeebbebb":12558,"fcbebbbb":12559,"dfecec":12560,"bfceeec":12561,"decebdc":12562,"bbdfdbe":12563,"bafa":12564,"eecceccc":12565,"bbdcbbec":12566,"edecbdc":12567,"dfeebf":12568,"ebbcbbebc":12569,"eccebbcc":12570,"ebceebcc":12571,"bbbbcbbed":12572,"bbeedebc":12573,"befeeebe":12574,"dbcfef":12575,"bdbcbbcc":12576,"ebcbebbf":12577,"babcbd":12578,"ecdebecc":12579,"beecdecc":12580,"ecbedfc":12581,"efbeebd":12582,"becbcebe":12583,"dcbbdcc":12584,"fcecf":12585,"bbbdbebbbb":12586,"ecbfdbe":12587,"beeeeebf":12588,"bfceedc":12589,"ebdbbeec":12590,"ebcbbbdc":12591,"eecfbcc":12592,"bdcdbdc":12593,"fbcbeed":12594,"bccfecc":12595,"bcdcff":12596,"ebcceedc":12597,"debedec":12598,"bbbbebbbbc":12599,"bbfbcbbc":12600,"dcceedd":12601,"becdbbbe":12602,"ebcecebc":12603,"bbdedbf":12604,"bbadbc":12605,"dbfdebb":12606,"debcfec":12607,"dbccdbc":12608,"dfdbbd":12609,"becbcbec":12610,"beecebec":12611,"afbec":12612,"bbbbbb</w>":12613,"fefbebe":12614,"efecfc":12615,"beebbbebc":12616,"bcbfbbbc":12617,"dccbcbd":12618,"dfedbd":12619,"ecbebbebc":12620,"deebcee":12621,"bbeceebd":12622,"defebbc":12623,"feddebb":12624,"dbbbbbebc":12625,"fefebf":12626,"daea":12627,"bdbdeec":12628,"bfbcfec":12629,"dcbbdfdd":12630,"fcdebf":12631,"fbddfc":12632,"debeebbc":12633,"fedebf":12634,"becbeebd":12635,"fbfeec":12636,"dbccebd":12637,"eebf</w>":12638,"bbdbcebc":12639,"ddecf":12640,"fcecbbc":12641,"fbfbebc":12642,"edcbbef":12643,"dbbecdee":12644,"bbbedbbd":12645,"bbccdbf":12646,"bbadee":12647,"bbecceec":12648,"ebebedf":12649,"eeccfdc":12650,"ececbebe":12651,"bfdddd":12652,"fcbcdf":12653,"eccbedf":12654,"bcbcbbbf":12655,"bebbbebbc":12656,"bbbdbebf":12657,"ebdecebb":12658,"dedbbebb":12659,"bebbcbcc":12660,"edbcebbc":12661,"bfbcebf":12662,"eebfbcc":12663,"fefbbbb":12664,"edbd</w>":12665,"bbbdfbe":12666,"bdbeac":12667,"bbbeceec":12668,"deccff":12669,"bbddbbee":12670,"bcebbbbf":12671,"dcbcdbd":12672,"fbcbbdc":12673,"eeeeeef":12674,"eddcedbbc":12675,"ebbbbbccc":12676,"dfdeec":12677,"bdbcbebd":12678,"deebebf":12679,"eceeebcc":12680,"becebecc":12681,"ebdcefc":12682,"eeccfbd":12683,"bffebbc":12684,"dbbbffc":12685,"abac":12686,"ecdbbbcc":12687,"eebeedcc":12688,"dbbdcebe":12689,"debdded":12690,"dccffc":12691,"bdeedbf":12692,"eebbbbbbc":12693,"fcceccc":12694,"ecdcbbc":12695,"ebcbbbbbbbb":12696,"ebcfdbe":12697,"debbbbbf":12698,"febcbbc":12699,"dcbedbd":12700,"bbbbcecc":12701,"beecea":12702,"beccfee":12703,"ecbebbebe":12704,"deeecbd":12705,"bbbbcfbc":12706,"bcbdedc":12707,"bbbcdebc":12708,"eebcbbbf":12709,"bceecccc":12710,"eedddbc":12711,"ebbbedebb":12712,"ebefbbee":12713,"ebbcdfc":12714,"ddcbbec":12715,"bbbbbbecc":12716,"fccebec":12717,"bceedbbc":12718,"ecebebdbbbe":12719,"eddbbed":12720,"defbebe":12721,"ddecef":12722,"deebbdd":12723,"dbbdcef":12724,"deffee":12725,"ebfca":12726,"ebcbcbcc":12727,"fcdefc":12728,"efeeff":12729,"bebdbbed":12730,"eeccbbee":12731,"dbebedd":12732,"ddcbbed":12733,"bcccbebe":12734,"becbcbbbb":12735,"bdedbbc":12736,"fdfccc":12737,"deccbcc":12738,"edbcbbbd":12739,"bbbbfa":12740,"bdcbcbf":12741,"dffbcc":12742,"ddbdbbc":12743,"beccfbd":12744,"decceebc":12745,"bedcbbf":12746,"dcbcded":12747,"deccbbc":12748,"edbeebcc":12749,"ffcdbc":12750,"edcfa":12751,"bebdbbcc":12752,"eccbedbe":12753,"ebceded":12754,"bffba":12755,"effbdc":12756,"ffffffff":12757,"dcebbbbc":12758,"ebefbebe":12759,"eebebbdd":12760,"bbaccc":12761,"ecdbbebd":12762,"edeeebf":12763,"bbbeeebbc":12764,"bebbdbbc":12765,"eccbbeec":12766,"debeba":12767,"bfececc":12768,"bbebebbbf":12769,"ebddebf":12770,"ebbcebdc":12771,"ffdebc":12772,"decbeebc":12773,"deceeec":12774,"bbbbcbeee":12775,"febbfebb":12776,"ebbebbbbc":12777,"efdcbf":12778,"fdcfcc":12779,"befeccc":12780,"bebcdef":12781,"bcbbcbcc":12782,"befeeebb":12783,"befca":12784,"bbbeeeebe":12785,"edccbcc":12786,"ebcbfbf":12787,"fbfbcbc":12788,"eebfedc":12789,"ebceedbe":12790,"efcda":12791,"dbbebbbbbe":12792,"ecbceebc":12793,"befbebbc":12794,"bcdcdcc":12795,"ebebdbbbb":12796,"bbbeecebb":12797,"eedcfec":12798,"ebdbcebe":12799,"bbbdeebd":12800,"bbdcbeee":12801,"bbdeded":12802,"dbccdbe":12803,"dcbbba":12804,"bedcbebe":12805,"bddbbef":12806,"eafcc":12807,"feefebe":12808,"ebeeefc":12809,"ebffa":12810,"dbbedec":12811,"dfeeec":12812,"bebdbeee":12813,"deebbfc":12814,"ecdebccc":12815,"bbbecbbebb":12816,"bbbbdebd":12817,"bfcfbbc":12818,"ebbbbbbbbbbc":12819,"dcedbcc":12820,"efcdedc":12821,"beebeff":12822,"bdfbbef":12823,"beecdef":12824,"ebdcbbbc":12825,"edeebeee":12826,"ebcdbbbc":12827,"bdccecc":12828,"edcca":12829,"feddef":12830,"bdbdff":12831,"dfdebd":12832,"ddceebc":12833,"bedcfbc":12834,"ebefebf":12835,"ebcbeebd":12836,"bdcdedc":12837,"bcefccc":12838,"bbbbbea":12839,"bcbbcbbbe":12840,"ddbebbd":12841,"ddcdfc":12842,"dbbcbbcc":12843,"bbbbbcbec":12844,"ddcbeee":12845,"bfdbbcc":12846,"efbcebd":12847,"eecbebbd":12848,"ebeecef":12849,"bcdcecc":12850,"febd</w>":12851,"decfbe":12852,"bedceebc":12853,"bedddee":12854,"bbfecbf":12855,"dbbbebbc":12856,"bbeebced":12857,"ddcba":12858,"bebdfbd":12859,"bcbbedcc":12860,"ebeecbec":12861,"bccecebb":12862,"bbdbdec":12863,"dbbdcec":12864,"ebdcebec":12865,"bbbbbfbbbb":12866,"eebdfcc":12867,"bcecbbed":12868,"bbecea":12869,"dcbedcc":12870,"bbbbfbbbe":12871,"bcccbebc":12872,"debcbfc":12873,"ebcecbec":12874,"beebbba":12875,"dcebbef":12876,"bcbcebec":12877,"bbbfbbed":12878,"bceffc":12879,"fbbebccc":12880,"bbbbeeed":12881,"bfecdbe":12882,"efcdebe":12883,"bbecbebbc":12884,"ebfffc":12885,"fddbdc":12886,"ebcbcecc":12887,"dbceedd":12888,"fbebbbcc":12889,"eedeac":12890,"febbbdc":12891,"bcebebbc":12892,"beeddcc":12893,"beeffc":12894,"ebbbeea":12895,"fecdbbc":12896,"dbbbbebd":12897,"becbebbbe":12898,"bccbddd":12899,"bbebbbcebb":12900,"eafbf":12901,"bbbbebfc":12902,"ebcbcbbd":12903,"beccdebb":12904,"febbbbd":12905,"ebbfcdc":12906,"eebdbbee":12907,"efeddd":12908,"decbebf":12909,"bbecbbebc":12910,"beccfdc":12911,"fefbdc":12912,"edccfbc":12913,"beecdeec":12914,"bddbba":12915,"dfbbbec":12916,"edbdfbc":12917,"dbbedbec":12918,"ebbeebbbd":12919,"bcbcfbd":12920,"bfcfdc":12921,"edbeefc":12922,"bbfeef":12923,"bbbbcbcbbbb":12924,"dbbbbfc":12925,"beddecc":12926,"ebeeddd":12927,"eeecdebc":12928,"decdebd":12929,"bcecbeee":12930,"bdfbbdc":12931,"bcbfdee":12932,"bcdebecc":12933,"ecccbebc":12934,"ebbcbdbd":12935,"ebccbbed":12936,"dbcca":12937,"bfbdbec":12938,"ebcbbccc":12939,"dbbebbec":12940,"ecbcebec":12941,"ededbbc":12942,"dbececc":12943,"beebbdbc":12944,"dbddfc":12945,"ecddbccffc":12946,"bbbcbcee":12947,"ddcbebd":12948,"bbbcfdc":12949,"fefdee":12950,"befcbec":12951,"ebeecee":12952,"bdccbec":12953,"bbba</w>":12954,"eeeceebc":12955,"bebebcee":12956,"eebdfbd":12957,"feebebd":12958,"fefbec":12959,"bbdebbbbbb":12960,"beecbbdc":12961,"effbebe":12962,"dbecbdc":12963,"eeebbbec":12964,"edcdbdc":12965,"ebefeec":12966,"beebebcc":12967,"eddcdd":12968,"ecbcdbf":12969,"dbecbbf":12970,"edccdee":12971,"efebbebe":12972,"bbccbbdc":12973,"ebdfebd":12974,"bdfbccc":12975,"ebcbceec":12976,"ecbcbebd":12977,"fbffcc":12978,"ececfcc":12979,"bfbcbdc":12980,"dedbced":12981,"bdbcba":12982,"bfdfcc":12983,"ebcbfdc":12984,"bbbebcdc":12985,"ddcb</w>":12986,"bbecdbbc":12987,"ebccbebd":12988,"dcbcbdc":12989,"acbba":12990,"eeeddbd":12991,"dbcdebd":12992,"dada":12993,"bdbcdebb":12994,"edccdf":12995,"ecccebf":12996,"bbbeecbe":12997,"eeecdbf":12998,"bbbebdebb":12999,"dbbebbebc":13000,"fabbc":13001,"edeebef":13002,"bbbbecbf":13003,"bdbdded":13004,"ebdcbbbd":13005,"dbbecebd":13006,"beecdbbc":13007,"efecbcc":13008,"fbedeec":13009,"dcecbbbb":13010,"ebdbea":13011,"fbfbbd":13012,"bebbca":13013,"fecdedc":13014,"ebebbebbc":13015,"bdeebecc":13016,"dbbbbbbcc":13017,"ebcebccc":13018,"bfcbebf":13019,"acedc":13020,"dfcbbd":13021,"ebdcbebc":13022,"fcecdd":13023,"dbecbebc":13024,"bdecbebe":13025,"beedefc":13026,"bea</w>":13027,"bbbbbbdbbbb":13028,"ebbcbcebb":13029,"bebbcdf":13030,"badef":13031,"ebcbdef":13032,"bbcbcbbd":13033,"ebfbcbe":13034,"beddbdc":13035,"efbeeec":13036,"ebeeefee":13037,"fcebecc":13038,"bccdbdc":13039,"dbbebeebb":13040,"dcecff":13041,"ebeeac":13042,"eccbba":13043,"decbbbbc":13044,"ecfbbbbc":13045,"bccbcccc":13046,"babccc":13047,"bcbdbeee":13048,"feedbbc":13049,"cccfbd":13050,"bebbceec":13051,"bdccdf":13052,"edcfebe":13053,"cccbbbd":13054,"ecbdbbd":13055,"bebbcbbee":13056,"bbecbebf":13057,"fbbcdbe":13058,"ebebdef":13059,"edcbcbf":13060,"ebbceeee":13061,"fecbeed":13062,"edccdbc":13063,"bbebbded":13064,"ebfbcee":13065,"bbfcfbc":13066,"bebbeebbee":13067,"bbfbdbf":13068,"bbecbccc":13069,"eccfeec":13070,"bcbcbeed":13071,"ebbcbbbec":13072,"eeddfbc":13073,"efbfbd":13074,"abbeec":13075,"ebdecdd":13076,"fcbeebd":13077,"deebcf":13078,"bbfcbbd":13079,"ebbcdbbbb":13080,"bbebbebec":13081,"bcecddc":13082,"edcbeebe":13083,"ecccefc":13084,"ebcecfc":13085,"ececddc":13086,"ebbbcbeee":13087,"bbfecbe":13088,"edcbbbbc":13089,"eebceba":13090,"bcefbebe":13091,"ecbbedcc":13092,"dccdfc":13093,"bcecbbcc":13094,"ebeeeebc":13095,"bfbcdec":13096,"dfbdbf":13097,"debebeee":13098,"ebebeeec":13099,"ebefccc":13100,"bbbbdeec":13101,"dbddeec":13102,"bbceba":13103,"bbbbbebbf":13104,"fceba":13105,"fbfdec":13106,"dbdceec":13107,"bcbcdef":13108,"bbbbbbebf":13109,"ebdbcbbbb":13110,"bfcffc":13111,"dbbbfebe":13112,"bcdcdbc":13113,"ddbcbbbb":13114,"ebbcbced":13115,"ebbcbcee":13116,"dbeeedc":13117,"fddbcc":13118,"deccfec":13119,"bfecdbc":13120,"bfbbcbbc":13121,"bdbcddc":13122,"bbfeebe":13123,"fcdced":13124,"eebcdbbc":13125,"dfbba":13126,"eafbd":13127,"bbebbbbebc":13128,"beddff":13129,"bdecbbbe":13130,"bebefebe":13131,"efecee":13132,"ebdfbbbb":13133,"beebbbbbf":13134,"febc</w>":13135,"efefbf":13136,"eefbbdd":13137,"fcbddd":13138,"edbcebf":13139,"ebebeecc":13140,"bbbbfbec":13141,"dccdebe":13142,"bedcbbbe":13143,"bbbbbfbf":13144,"effdbc":13145,"eebddebb":13146,"eebcfdc":13147,"debdff":13148,"eeeebebc":13149,"febcbec":13150,"bfcbbefbedd":13151,"bebddebc":13152,"befcbbc":13153,"dbbbbbbdd":13154,"dfeced":13155,"bbebcdee":13156,"eeefbef":13157,"dbfbecc":13158,"fcbcbec":13159,"bfbbbbebb":13160,"fcecfc":13161,"bbdbb</w>":13162,"dfcbbbc":13163,"dbeffc":13164,"edbebbebb":13165,"edcbcdd":13166,"bbeefbbc":13167,"bbedbcbc":13168,"eecfebd":13169,"ebccba":13170,"dcbcecc":13171,"bfebeebb":13172,"ebbdbbebb":13173,"bbebbbeebe":13174,"dbecbbbe":13175,"efeca":13176,"bcedff":13177,"bdecbeec":13178,"dbefebe":13179,"bbbbbbbebbbb":13180,"dddddddddddddddd":13181,"ebbfdbf":13182,"ebdeeebe":13183,"dbbaa":13184,"bbbbeba":13185,"ebcdebbc":13186,"dbedbcc":13187,"bfcbcec":13188,"bdeebeec":13189,"ebcbeeec":13190,"fcbebbd":13191,"befcff":13192,"bbdeddc":13193,"bcebbbebc":13194,"eecbbecc":13195,"eafec":13196,"bbcdccc":13197,"bbcfebd":13198,"bbfdbbf":13199,"beeebcbd":13200,"bccfbcc":13201,"bbbbbddc":13202,"ac</w>":13203,"bbeddef":13204,"beeefebe":13205,"eecbcfc":13206,"ebcfbbf":13207,"ebcc</w>":13208,"bccbcebe":13209,"dbdfbf":13210,"dbbcfbc":13211,"bcbbd</w>":13212,"dbbdbbee":13213,"eeddff":13214,"ebebfef":13215,"ddbdef":13216,"beedba":13217,"eccbdbf":13218,"becbcfc":13219,"ecdbbeec":13220,"ebdbdebb":13221,"bbbebebec":13222,"beeefbd":13223,"ecbedbcc":13224,"bcbeeccc":13225,"bbaff":13226,"dbebded":13227,"ebdbebcc":13228,"eeeebbec":13229,"dbbbbbbbf":13230,"eedcded":13231,"bdbebbdd":13232,"bbbcca":13233,"bdecbef":13234,"bdbeebcc":13235,"ebebcecc":13236,"bdbcbbed":13237,"becedbd":13238,"bbdeeef":13239,"bbabbee":13240,"edceef":13241,"dfdecc":13242,"eeeefbf":13243,"dbbebbbec":13244,"dcdcdd":13245,"fceddc":13246,"bddefcc":13247,"bdeeded":13248,"eedebccc":13249,"eeccbbec":13250,"bdeedebb":13251,"bbbbcdebb":13252,"bbccccccc":13253,"bbccdebb":13254,"eebbeebbee":13255,"edfdbf":13256,"bfcbcbf":13257,"efcbedd":13258,"bbfcdbc":13259,"bbdfbbf":13260,"bddc</w>":13261,"eececbbc":13262,"bbbcdbec":13263,"deedbcc":13264,"bbbecccc":13265,"beecbeebb":13266,"bcebbbcc":13267,"bfbcbef":13268,"bbbecbebe":13269,"eeebbdd":13270,"ebed</w>":13271,"eececed":13272,"bbceebec":13273,"eecdebbc":13274,"bded</w>":13275,"bcecbbebb":13276,"dbebefc":13277,"ddcebbc":13278,"edcdbbd":13279,"bdcfebc":13280,"deebded":13281,"defbbcc":13282,"acbbee":13283,"bfcca":13284,"bfbebfc":13285,"ddcbccc":13286,"fccba":13287,"fccbeee":13288,"becceccc":13289,"dcfbbee":13290,"efeac":13291,"fceebcbfdbbbb":13292,"bccefcc":13293,"deecdcc":13294,"eceebbebb":13295,"dcbbebbc":13296,"feedbec":13297,"fefbbbe":13298,"eeedff":13299,"bfbda":13300,"bbbdda":13301,"eebceccc":13302,"feccefebbc":13303,"decfbf":13304,"ecbcdebe":13305,"eebfbec":13306,"edecdcc":13307,"bbedebec":13308,"bceebbbbc":13309,"efcfbe":13310,"dbcbcbf":13311,"dbbf</w>":13312,"bcebba":13313,"ebbfefc":13314,"bebdebcc":13315,"eedceecc":13316,"dfdccc":13317,"dbeecbf":13318,"eebedebc":13319,"beedeecc":13320,"ebcbdbbc":13321,"bdecbebc":13322,"edebfcc":13323,"dedcdd":13324,"efcbbdc":13325,"beefebf":13326,"bbebcbbd":13327,"ebdbcef":13328,"deeb</w>":13329,"feebcbd":13330,"fdddbd":13331,"bfcebdc":13332,"dedcecc":13333,"bbcfbbf":13334,"efcac":13335,"dbcdbcc":13336,"ffcbdc":13337,"bdfdebc":13338,"fdcddc":13339,"bcecba":13340,"beebebbbc":13341,"bbfdbcc":13342,"fccdef":13343,"bebbbba":13344,"bceeac":13345,"dfbfcc":13346,"fccbccc":13347,"eecbbeec":13348,"bebedbbbb":13349,"eecbcbec":13350,"bfeeccc":13351,"ebedcdc":13352,"bebceedd":13353,"bccfa":13354,"bbcbdbbc":13355,"ebfbcdc":13356,"ecbcebcc":13357,"ebabbbe":13358,"bbcbdbbbb":13359,"bbfbbbbbbbb":13360,"fbeb</w>":13361,"eebdbbec":13362,"eccdbbbb":13363,"bcebb</w>":13364,"ebebcdf":13365,"dbebba":13366,"ecbfff":13367,"debddbd":13368,"cccfdd":13369,"bedddbd":13370,"bbdbcbec":13371,"bfcbbfc":13372,"bdeebbed":13373,"bebcbced":13374,"bbbbbebcc":13375,"dbffbf":13376,"bbbfded":13377,"ebbbcebf":13378,"bbeedbbd":13379,"eccbcebe":13380,"dccdccc":13381,"bcfdbbbb":13382,"bdbedbbbb":13383,"deccebd":13384,"debddec":13385,"bfeebdc":13386,"ebeecbbbb":13387,"bebdbedc":13388,"bfcfebb":13389,"ebecbccc":13390,"bbfeeec":13391,"bafebb":13392,"dbfac":13393,"bbbbcdec":13394,"fefdbc":13395,"beeceedc":13396,"debbebcc":13397,"bbbfbeebb":13398,"bfecccc":13399,"edcfeec":13400,"fbcbced":13401,"eefbbfc":13402,"bbefbebc":13403,"eceefee":13404,"dcbdccc":13405,"bedbb</w>":13406,"efebccc":13407,"dcebbbbbb":13408,"babebf":13409,"bbcfecc":13410,"fecfdc":13411,"beebebeebe":13412,"bbbbbefc":13413,"ebedbbee":13414,"ebeecebe":13415,"dbbeddf":13416,"bbbdeeee":13417,"bbebcff":13418,"dbbdbdbd":13419,"bdccbcc":13420,"efdcec":13421,"bebcdfc":13422,"bbebcbbee":13423,"ebebdebe":13424,"dbfdef":13425,"febeebf":13426,"bbcbca":13427,"bbbdbeed":13428,"ecbdddc":13429,"ebdbedbe":13430,"bbbebeebc":13431,"bfcbebbc":13432,"eebdeebc":13433,"eeecebf":13434,"bebbeac":13435,"ebcfccc":13436,"bdcdbbf":13437,"ebeebecc":13438,"dceedcc":13439,"bbceeef":13440,"fbeeba":13441,"bcbddebb":13442,"dcbcbebe":13443,"edfeecc":13444,"ecccbbd":13445,"bdec</w>":13446,"edbcbbec":13447,"bbbbecbbbb":13448,"dbcffc":13449,"decbebbc":13450,"bbbdfbf":13451,"ebbbda":13452,"ebdeddd":13453,"bcebbdf":13454,"bcdcbcc":13455,"eeebeeeebb":13456,"ebdfeec":13457,"beccbeee":13458,"bbddebf":13459,"beceba":13460,"fedeecc":13461,"ececbbcc":13462,"fcfebd":13463,"ebbcdbec":13464,"ecccbbee":13465,"ebbbebbef":13466,"bbcbebbf":13467,"ecbbebfc":13468,"dbdbccc":13469,"bbebeecc":13470,"beebbedc":13471,"beebbbdc":13472,"eeecebcc":13473,
[...]
