#version: 0.2 - Trained by `huggingface/tokenizers`
b b
b e
b c
e e
c c
b d
e c
b f
e d
e bb
d c
bb bb
e f
e be
d d
e bc
bb c
f c
be c
e cc
e bd
bc c
ee c
bb d
d f
bb be
bb f
d be
e bf
bd c
ed c
bb bc
b a
f f
cc c
d ee
d bc
bb ee
be be
bf c
ebb c
d bb
d ec
d bd
be f
d cc
e a
bb bd
be bc
ef c
d ed
bb ec
f bc
be ee
bb cc
bb ebb
ebe c
f ee
bc bc
ebc c
f be
d dc
d bf
f ec
d ebb
bb bf
bb ed
f cc
bbbb c
be ec
a c
ee bc
ee ee
be bd
be cc
f bd
d ef
ecc c
ec bc
ebd c
bb ebe
ee cc
d bbc
bb dc
f ed
ee be
d ebe
ec be
d ebc
ee f
bc be
bb ef
bc f
ee bd
d fc
bb dd
bc cc
d a
bbbb bbbb
d bec
bc bd
d bbbb
bc ee
be ebb
f bf
bc ec
f dc
bb ebc
d eec
be ed
bb a
f ebb
ee ec
be bf
e ba
bb fc
cc cc
bd bd
be dc
bb bec
d bbd
d ecc
ec bd
ee dc
ebf c
d bcc
d ebd
ec f
bb bcc
bc ed
ee ebb
f ef
ec ec
f dd
ee bf
be ebe
bc bf
bc ebb
be bbc
be dd
ee ed
be bbbb
f fc
bb ebd
d edc
f bbc
ed cc
bb eec
f ebe
be ef
bc dc
ed bd
ee dd
ec dc
d ccc
d bdc
d bbf
d bbbe
bb ecc
ee ebe
bd cc
f a
ec bf
ec ee
bd bc
f ebc
ba c
bc bbc
ec ed
bd be
bd f
bf cc
ec ebb
be a
bc bbbb
be fc
bd ed
be ebc
ee ef
bd bf
d bbbc
bc ef
bc dd
ee bbc
ebb cc
ea c
ec dd
d ebf
f bbbb
bb bdc
bb ebf
bb ccc
be bec
ebb ebb
b b</w>
bd ee
bd dd
bc ebe
ed dc
f bec
ef cc
bd dc
f ecc
be bbbe
bd ec
f bcc
bc fc
bd ebb
d bbee
bc ebc
ed dd
d bfc
be bbd
ee bbbb
ec bbc
f df
be bcc
dc dc
bb edc
ed bf
f bbd
ee a
ebe cc
ed bc
d ebbc
f ebd
ebc cc
f eec
bc a
dd dd
bb ebbc
bf bf
bc bec
be dbe
be ecc
be df
ee fc
d efc
bb ba
ebb bbbb
d ba
ed ed
f bbf
ec ef
f dbe
be bbf
ebb ee
bb bfc
ebb bc
bd bbc
ec bec
bd bbbb
be ebd
ee ebc
bd ef
ebb bf
ec ebc
be eec
f ccc
ec ebe
bc bbd
ec fc
f bbbe
dc ed
dd cc
ec df
bc bcc
ee bec
f edc
be bbbc
ebb bd
ee bcc
bf bc
be bbee
bf dc
ec bbbb
dbb cc
d ea
dee cc
ee dbe
bc eec
bf ed
ebb bbc
bc df
ebb ed
f bdc
dc bd
ecc cc
ec a
bf bd
ee df
f dbc
ec bcc
ee bbd
ebb ebe
d ebcc
ee bbbe
d ebec
be ff
bd a
f ebf
be bdc
b e</w>
bd ebe
b d</w>
dc dd
be dbc
ed bbc
b c</w>
be ccc
dc bc
ee ecc
a cc
ee bbf
dc ec
ef bf
bc ecc
bc ebd
be ebf
f bbbc
bc bbbe
bbbb bbc
ec bbd
dbe cc
df cc
bd fc
dc bf
bd ebc
ec eec
ebb ef
bb efc
bbbb cc
ee bbee
f bebe
bb ea
be edc
dd ed
be dee
ee ccc
bb ebec
f dee
bbc bbc
bc bbf
ef dc
bf ebb
ec ecc
bd bbd
bc dbe
bd bec
ec dbe
ebd cc
f bef
e b</w>
bf ef
f bbee
bf bbc
ebb dc
bc bbbc
bc ccc
d ac
be dbb
ee eec
ec dee
ebe ebe
bd df
f dcc
bf fc
ed ebb
ee ebd
bbbb ebb
ed ef
ff cc
bbd cc
f dbd
dd dc
ee bebe
ed df
f bfc
bf ec
dd bd
ee bdc
ebe ebb
f dbb
ee dbc
ed ec
d eccc
bf dd
bb ebcc
dc ef
ee ff
f dec
be dbd
bf ebe
bc dee
ed bec
ed ebc
bbc bbbb
ebb ec
d bbbbc
bf a
bc ff
be dcc
ee dee
d ebdc
dbb bd
ee beee
be bbebb
bc dbc
bf bbbb
ee bbbc
ed ebe
ef ef
be bbbd
ebb ebc
ed a
f ba
be bbec
fc dc
be dec
ec ebd
bd eec
bbf cc
ee ebf
f bebc
bbc bd
ed fc
be ba
ebb dd
f ebbc
be bfc
dc ebe
bc bdc
ebb bec
ebb a
bb ac
dc fc
ef dd
dc ebc
be ebbc
bc bebe
ee bef
ef bd
bbbb bd
f beee
ed dee
dc bbc
bbbe cc
a a
ebe bf
ebb fc
be bbcc
bc edc
ec dbc
ee dcc
e e</w>
ed dbe
bbc bf
bd bcc
ec dec
ebb bbbe
ec bbbe
ebf cc
ed bbbb
f bbbd
bd dbe
ebe bbc
ed bcc
ed ee
ded cc
ec bbf
f efc
bf ebc
dc ebb
f bbcc
dbb dd
ec bdc
e c</w>
f bbec
bbd bd
ebe bbbb
dbc cc
dc bec
bc bbee
e d</w>
ebe ef
bbc ebb
ee edc
f ea
dc eec
dcc cc
eba c
f ddc
ebe bd
bbd bbbb
bef cc
bf bec
f dbf
d b</w>
bbc bc
bbbc cc
ec ff
ed eec
bbbe bbbb
bd ecc
ee fee
dc a
dbb ebb
bd ebd
bc dec
fc bf
ee dbd
f ded
dc ecc
ef ebb
bc bebc
bc ebf
ef fc
ed bbd
bc dbd
ef ebe
ef bbc
dc ee
fbe cc
bebe cc
ef a
dc df
ebb bbd
ef ed
dbb bf
bc bef
ec bbbc
dbb ed
be dbf
ee ba
be bbbf
f bbbf
dd bf
bd bbbe
bc fbc
bbbbbbbb bbbb
be ded
ebe dc
ec ded
ec edc
be ea
fc fc
be bbed
bc bbbd
be ddc
ebc ed
ebc bf
f bbebb
bd dee
bbc ed
fc dd
bbbb bf
ebb bcc
ee dec
bbc bec
bd bbf
bc bfc
bb ebdc
dc bcc
ee bebc
bb b</w>
ebe dd
ebe ed
ec dbd
ebc ebb
bbd bf
fbc cc
ee bbec
bbd bbc
be debb
bbee cc
ebc bbc
bc bbec
ec dcc
ecc ed
bbbb bbbe
ebb eec
bf bcc
dbb dc
f ebcc
b f</w>
d d</w>
ee fbe
bc ebbc
bec bbc
bd ff
f ac
fee cc
ee bbebb
bc ded
ec bebe
bc dcc
ee ebbc
bebc cc
dd a
bec bf
bd dbc
be efc
bbbc bbbb
dd ef
bd bdc
bb eccc
ebe a
f ebec
be bbbbc
fc bbc
ec bef
ebb bbf
ed ecc
bc bbcc
dc ebd
bf df
ee bbbd
ebc bec
dbb ebe
bd dbd
dd bbc
ebc dc
bc ba
be bbebe
f debb
fc df
ec bebc
be ebec
fc ef
ee fbc
f bbed
bbd ed
ebc bd
bbbb ebe
ee bfc
ee bcbc
ebb df
ebc dd
fc bd
dbd cc
fc ed
ebc ef
ee ddc
ebb ebd
bbc ebe
bbbb bbd
cccc cccc
ebb dbe
ec bfc
bec bec
bbc ef
ed ebd
ec bbec
f def
bbc dd
ec ebf
dbb ef
bf bbf
ebc ebc
ec bbee
dc bbbb
ee bbcc
ed dbc
ebb bbbc
bc fee
ed ccc
bf ecc
bc beee
dc dbe
d ebfc
be ebcc
be ac
bd edc
ee ea
a dd
a bf
dc bbd
bbc bcc
bc fec
ebe bec
ebb ecc
ec ebbc
bd bbbc
bc bbebb
ebc bbbb
df dc
ee dbf
ec bcbc
d e</w>
ec fbc
bd ccc
dbb fc
a ed
bbc fc
ec beec
eec dd
bcc ed
bbc dc
ebb bebe
ebe bbbe
eec bf
bc fbe
f eccc
ebe fc
df dd
bec dd
fcc cc
ef bcc
dbb a
bbd ebb
bbcc cc
d c</w>
bd bebe
be dbbc
ebd dd
eec dc
ebe bcc
bec dc
bbc ebc
df ed
bc efc
bec ebb
bc beec
def cc
bf bbbe
bf bbd
bf ff
ed dec
ee ded
bbbb bbbc
ebc fc
ec ba
bf dbe
bc eebc
a bd
ec bbbd
a dc
f dbbc
dbb bec
bc fcc
ebc eec
dd fc
bf ebd
ef df
f bbef
ee beec
e bb</w>
bcbc cc
beee cc
be bbef
ed bdc
ef bbbb
f bbbbc
dbb ebc
be bbdc
bbbbbbbb bbbbbbbb
bbc bbd
f bbdc
ef bec
ba cc
ed bbf
bb ebfc
eec bec
df fc
ef ebc
dbf cc
ee bbed
bc debb
dd ebe
bc bbed
dd ebc
dc dee
f da
eebc cc
dd ebb
d eba
bbbe ebb
ec fec
eeee cc
a fc
be def
bb eba
bc bebd
ebe ebc
ea cc
bd dec
bf eec
a bbc
a ef
f dfc
dbb bcc
ecc eec
ed ff
ed bbbe
dd df
bd bbbd
dd bec
bc bbbbc
bc bbbf
bbd dc
dd eec
bccc cc
bc dbf
a bbbb
bd bbee
ee bbbf
bc fbd
fed cc
bc ebec
cccc cc
be debe
ec becc
f bbebe
bcc bcc
dbe dc
bbc bbbe
bbf bf
ebb ff
ec fee
ee fcc
dd bbbb
dbb ebd
bc ddc
bd ebf
ee bbebe
fc bec
dd ecc
bc becc
ebb bbee
ebc ebe
dc edc
ec debb
a ebe
ec ddc
bbd ef
bbd ebe
bec bbbb
ebd ed
bcc bf
be bbebc
bcc bbc
dee dc
eec df
ec bbcc
ebc df
f debe
a ebb
ecc ecc
ee becc
ee bebd
ef dbe
bbd bbd
fc ebe
f ebdc
ee debb
ec efc
bd bef
ebe bebe
ecbc cc
bbf bbbb
bbc eec
bec ed
dc ff
ec beee
ef ecc
ec fcc
df bf
bd bebc
ef ff
fc bcc
ee dbb
bbbe bbc
be debc
ed dbd
f debc
ebd bf
ed edc
bbbd cc
dc dbc
ee fec
ebc bcc
fc ebb
ef bbf
bc dbb
ec bebd
eec bbc
dc bdc
ec dbf
bc ea
bd fbc
fbd cc
be dbbbb
bec ebe
dd dbe
fc a
bec ebc
ec fbe
bc ebcc
ee efc
bbebb bbbb
d bbbbbbbb
dd bcc
bec bd
ec bbed
bc eebe
ed ded
fc ebc
bbbe bf
e f</w>
ebb ebf
ebe bbf
bd ded
bd bfc
bd dcc
ee fbd
bbc a
dc dec
ebb ccc
be dbec
bc ecbc
ebb dbc
bec ef
be bbbec
be bbdd
ec bbebb
ee ebcc
ecc ef
be bba
bbc bbf
ebb bdc
bc fed
debb cc
fc dbe
ee ebec
dd ebd
ec def
bbc bbbc
ec eebc
bc ecbe
bbbb bcc
bbbb ed
ee bbef
bc eecc
ee ac
bbbe bbbe
bf ccc
bc def
bf bbbc
be eccc
ec ebcc
bbbb bec
ee eebc
d bac
bbc dbe
ec ebec
f bbdd
dd bbd
ecc bec
ef ccc
ee ecbc
bf bdc
bbbe ebe
ebd dc
dbb eec
bbc df
ed dcc
bbbb bbf
becc cc
bc eebd
ebc ecc
bbd bec
bf bebe
bf ebf
bc debe
bcc ebe
ff dc
bc eef
be dfc
f bbfc
bd ba
bc ac
eecc cc
bcc ef
be da
dd dbd
bbbd bbbb
ee bbbbc
d eac
bbd ebc
ee dbbc
ebb dee
bb d</w>
ed bbbc
dc dcc
ed bebe
bbd a
ebe bbee
bec df
dbe dd
bbc ebd
bbd fc
ebb edc
bf edc
bec fc
f dbec
ebc a
dc bbf
bbebb cc
bf dbc
be bbfc
ecc ebc
bec bcc
bd ebbc
ebb bbbd
be ebdc
bd bbec
ed bef
ebb bef
ebd ef
dee dd
bc bbdc
bebd cc
ee def
bbbb dd
ebe df
ecc dc
eec ef
bbbb ebc
ec fbd
bc eeee
ebb bebc
f bbebc
df a
ecc fc
ec eecc
bcc fc
bbbb ef
debe cc
bbbf cc
ec fed
dd dbc
ec ecbc
df ef
dd edc
bb c</w>
ebc ebd
bc dbbc
dbe ed
f bba
bcc dc
ebe bbd
bcc bd
bf dee
bcc bec
bcc eec
f dbbbb
ee bbdc
bbbb a
bc bbebe
ebe ecc
bf bbee
ed bbec
df bd
bcc ebb
bbbc bbc
ec ea
ebe dbe
bb e</w>
bec eec
bcc ebc
dd bdc
dc dbd
ec debc
bbd eec
bbf ef
ed bebc
bb bac
bcc bbbb
fc eec
dbe bf
bebe bbbb
ebd bd
bcc dd
ee ecbe
ecc bf
ebb beee
ebd df
ed bbee
fc bbbb
ebb bbebb
bcbc bcbc
ec deec
f bbbec
ebb ebbc
ff bf
bec a
bbf bbc
bbed cc
be dbbd
ff dd
fc dee
eec bd
ec bbbf
ee dbec
ebd bbc
ecc dd
ecc bd
ebe beee
be deec
ecc bbc
bbbb bbbd
ff ef
ec dbb
ecc ccc
ed ebf
ebd ebb
ebd bec
f dbcc
ebe bbbc
ebd eec
ebe eec
dbe bd
bc debc
fbf cc
bbd bbbe
ecc ebb
f dbbd
bf bef
e be</w>
df bbc
ee bba
bb bb</w>
bc bbef
dc bbbe
ebd ebc
ebd bbbb
bc bbdd
ef eec
ec dbec
bd fee
ef bbbe
edc ed
be bbbbbbbb
df ebc
ebe ff
bbf ebb
ee eccc
dd dee
bd ddc
dbe bbc
dd ccc
a ebc
ebe ccc
dc ded
ef bdc
eec eec
bd beee
bc dfc
ff fc
be bbbcc
ebe ebf
dbb bdc
ebb dec
ed bfc
debc cc
ecc edc
f deec
ec dfc
ecc a
be dbcc
bec dbe
ee da
ebe bdc
ebc bbd
dbd dd
ec dbbc
bd fbe
bbbb dc
bf bfc
ebd a
ebb bbec
ef bbd
e bd</w>
bbbb fc
ec debe
ef bbee
ec bbdc
ed ddc
bf fbc
ebc ccc
bd bcbc
ebc bbbe
ec bbbbc
ebb dbd
ebd fc
bbf fc
e bc</w>
eec a
bbf dc
ef ebf
ebc dbe
ebb fee
f decc
be bbeec
ef bebe
bc eccc
d bb</w>
ed beec
ee bbebc
bd fec
ed fbc
dc ebf
ef dbc
bbee bbbb
bcc a
ebe ebd
ef dee
bd bbcc
bd efc
dbe fc
bbc dee
bd debb
bbbbc bbbb
edc eec
eebd cc
ba a
bbc bdc
bbf a
ebe eeee
bd beec
bbc dbc
bbc bebe
bbbc bbbc
ebe bef
ee debc
ff a
ec eccc
dbb ecc
bc dbbbb
ebb fbc
ef ebd
fbe bf
ec ac
ebb ba
ebb bfc
f debd
bbc ecc
ed ba
bbd bcc
f bbbcc
bec dee
dec dc
fc ff
bbbc bf
be bbebd
ee debe
ec eeec
eec ebc
dd ff
bbbe bec
be debd
bbebe cc
df ecc
bc bbebc
fc ecc
ed bbbd
bc ebdc
dbb ccc
ebe dbc
be eba
ec decc
bd dbf
dbe bbbb
ef bef
ec da
ebc bbf
ed ebbc
ee bbdd
ee fed
bc dbec
ec eef
bbd bbf
ec ecbe
df bec
ebb eeee
bbbb bebe
ed def
ec eebd
f eba
edc ef
ebf bf
bc bbfc
dd dec
bbd ebd
bd bbebb
edc dc
ec eedc
dd dcc
bef bf
eec bbbb
bd bebd
ebc dee
ec fdc
eec ed
f ebfc
bbc ff
ecc ebe
a df
bc da
eec fc
be b</w>
bdc dc
eec bcc
ed fee
ee dbbbb
bd fcc
febb cc
bd eebc
ed dbf
eec ebb
bbbe dc
ee ebdc
ecc bcc
beed cc
ee dfc
a bec
ef fee
f dbbf
bbbc ebb
df ebe
d f</w>
be decc
bc deec
bd fbd
bbee bf
df bcc
fc bbf
ed debb
bbbb bbebb
ff ff
bebe bbc
ebd ebe
dee bf
f b</w>
bdc dd
bebf cc
bec bbd
fc dbc
bebe bf
ec eeee
bbbb dbe
ec ebdc
ed beee
ec eebe
edc dd
dc bbbc
df ebb
ebc dbc
bc bbbec
a bcc
edc bec
bbd bbbc
be bbecc
bdc bf
bbee ebb
dc fbc
ee bbfc
f dccc
da cc
ee deec
eec dec
ecc df
bd bbed
ef bbbc
bbbe dd
dbe bec
ebc dec
bbf dd
bbee ebe
bbbe bebe
bdc ed
fc bbd
bbf ed
eebe ebe
dbe ebb
bec ebd
bbf ebe
eeee eeee
dd ddc
bf dbd
ebb bbcc
dc ddc
ec bbdd
bf dec
df df
bf bebc
ebc edc
dc bfc
ebc ff
bc bbbbbbbb
dc bebe
bbbe bbbc
f bbeec
be dbbbe
bbef cc
dbe a
bbc bbee
dbe ebe
bdc ef
bcbd cc
be dbbf
ed efc
ecc ebd
eec dee
fc ebd
bd ea
ebc bbbc
dbe ef
bd dbb
ed fec
bbbe ef
ee bbbec
bb eac
bdc ebe
bd ebec
ec fbf
bbc dbf
bd becc
dbc dc
bf fee
bc bbbcc
bbf bbf
ebb bcbc
ec bbebc
fef cc
bbbb bbee
eec ebe
ec bbebe
ebb fbe
bbd bbbd
dbc dd
ebf ef
dc fec
eec dbe
bbbe ed
ee dbcc
be ebfc
bbc bbbd
bcc ecc
dc bef
fc bdc
ee eba
bc bba
bbbe a
bc dbbd
bcc df
bebe ebe
bf dcc
edc df
bcc ebd
bec dbc
f dbdc
fbe ef
bbbb bbbbc
bf ba
fc dec
bec ecc
eec ebd
dbb ebf
ebb bbbf
bbc ebf
ded dd
bbd bdc
bec bbbe
edc ebc
ec dedc
eec dbc
f bbebd
bd bcbe
ed becc
decc cc
a ff
ee dbbd
ed bbcc
bebe bebe
bbbb ebd
ebe fee
a dbe
ebc bdc
ec febb
bbc bebc
bf ebbc
bd bbbf
ed bcbc
dc efc
ec debd
bbc dbd
f e</w>
ef beee
ec ecbd
a ba
bbbe bbf
bbebc cc
f bbecc
bd def
bbc dec
bbd ff
bbc bef
bc debd
bec dec
df dbe
ed bbebb
ef edc
bf fbe
dc bbee
bbbd dd
bbbe ebc
bebe ebb
dbe dbe
bf beee
df ccc
beebb cc
ef dcc
bced cc
bbbe bbd
ec bbef
a ecc
ebb ded
bd bcf
ebb dcc
bec bbbc
bbbe bbee
dc bebc
ec bdbd
ebd ebd
bf bbec
bec bbf
a bbd
bec ff
ebc bebe
be dccc
bf fcc
bc dbcc
a bbf
dec dd
ed fbe
edc ebe
bd debe
bd eebe
bbc bfc
ec bbfc
ebb bbbbc
bf bbbd
bd bbbbc
f dbbbe
edc fc
bd dbbc
bcc bbd
bd ac
bdc fc
eec bbd
ebe bebc
dd ded
bbbe fc
ebc bebc
ebb eebc
dd bbf
bd ebcc
eec ecc
bbc bbec
ec ecf
ebf fc
bd bcbd
dbc ed
cccc ccc
a ccc
ebbc bbbb
ebe dee
bef dc
ebd dbe
ebb debb
edc bf
bd bcee
bd bbdd
ebb fec
bdc ebc
ebf dc
bc b</w>
eec ff
ebb bebd
bef ef
eeed cc
ed bbed
dbb edc
bdc bbc
bf bcbc
dbd dc
ecbe dc
bdc bec
ed debe
bbbc ebe
bef dd
dbc bbbb
bd dbbbb
bbd bebe
ebd ecc
dbc bbc
bbbe bcc
ed bebd
bc decc
ecbd cc
dbc fc
edc ecc
be dbdc
bdc eec
be bbebf
ebb eebe
dbc ef
ded dc
bd fed
bcc dee
bbd ecc
bbf bec
ebf a
df ff
dbc bf
bcc dbe
bbc bcbc
bd eef
bbc fbc
df bbbb
ebf bbbb
bcc ff
ee bbbcc
bbc ebbc
ec dbcc
ebd dee
ef fbc
bec bbec
a eec
ed fcc
ebe edc
ee debd
bbf ebc
bd bbdc
dc fee
bf bbcc
dc fcc
a bbbe
fc bbbc
f dedc
dcc ccc
ebb ea
f bac
dd fbc
ebf ebe
bbd bbee
fbe ebe
bbc edc
a ebd
df ebd
ecc bbbb
df eec
bd eecc
fbe bbbb
ef bfc
ebb beebb
ba bbbb
ef dbd
be dbbbc
ee bbeec
bcbf cc
ed eebc
dbe ebc
ef dec
f c</w>
dc ebbc
bd ecbc
df edc
ef ba
bdc bbbb
ec dbbbb
ec bbbec
ebb efc
ecc dec
dd bbbe
dee ccc
dee fc
ebc ded
ebf bbc
ec eedd
ebb beec
ff ccc
bbd ccc
df dbc
ee dccc
bbbc bec
bcc bbf
ebb bbed
dbb ebbc
bcf fc
ee decc
ff bbc
fbe bbc
dbbd cc
fbe dc
ff ebe
bbbe dbe
bfc bf
bcc bbbc
bef ebe
bd beed
bd fdc
eec ded
ef ebbc
bbee bbee
ee bbecc
bd bcec
bd ecbe
dee bbc
ebb bcbe
dc bbbd
df bdc
bcc bdc
bec bdc
bd eebd
debd cc
eebe ef
eebf cc
ed ea
ec eeed
ed bcec
beee ebe
bbee bbc
dcc dd
ebb ebec
eef bf
dc bbec
ee b</w>
bbdd cc
f debf
bbbb ccc
bcc edc
bdbd cc
bbbc bbbe
bcebb cc
dbc ebe
dbb bfc
ed ebcc
d eb</w>
ebc ebbc
ed ebec
bd fbf
bd eeee
bef a
bbbc dd
bebe bbbe
be bbbdc
ed fbd
fdd cc
bbf ff
ebd bcc
ebd bbd
dbb ba
bec bebc
bf fec
ebb bbebe
bbbb bebc
df bbd
ebb becc
be e</w>
ee bbebd
bcf dc
bf efc
ebc bbee
dbe bcc
ecc ff
bbbb eec
f d</w>
bbf bbbe
f dbbbc
bbc bbcc
edc a
dcc dc
dd ebf
fbe fc
bef fc
f bbccc
bf dbf
f bbebf
f eac
bc ebfc
bd debc
ebe ba
bd beebb
bf fbd
a dbc
dbe ecc
ecbe dd
ec dbbd
ed debc
bd eeec
bc bbebd
bd bccc
bcf dd
bcc bbbe
ebc ebf
eef ef
bfc fc
a bbbc
ebd ccc
bba cc
a dee
d bd</w>
bbbf bbbb
eec bdc
dc bcbc
df bbf
bcc dbc
be bbccc
eebe bbbb
bbee bbbe
dec bec
fa cc
eebe bf
ed beed
ddc dd
febc cc
ebc bfc
dbe df
eeee ebe
a bdc
fbe dd
ebd dbc
ebb dbf
bc bbeec
bef bbc
bebe ef
dbbbb cc
fc fbc
ebd ff
beee bbbb
ebf dd
dc beec
bc dedc
dbe ccc
ebc dbd
fc ded
bcbe dd
ebd dec
ebe bbbd
be dedc
bbd edc
bcbe bbbb
bef bbbb
bd dfc
fc dcc
bf bbebb
ebb ebcc
ea a
bbd bebc
ebbc bbc
eef ebe
ecc bdc
ed eecc
fc dbd
ef bebc
bbee dd
eeebb cc
ed deec
bbf bcc
be bbedc
fc bbbe
bec bebe
ebb fbd
edc dec
be bbebbc
dbd bbbb
febe cc
ebb fcc
ecbf cc
be bac
d bc</w>
ebe bfc
ebe bbec
a bba
bcbe dc
f bbbdc
ebc fbc
bf ded
ecc dbe
ccc dd
ebe bbebb
d be</w>
ebd edc
bd febb
dec bbc
ed fed
bbf df
bd da
dc ba
fc bef
fc ebf
bc dbbbe
bbbc bbd
bd bebf
fee bf
bd bedc
bbbc ebc
ecc dee
bcf bf
bbbe bbebb
bebc bbbb
beebe cc
bbbd bbc
bec ded
fc bfc
bbbc ef
ec bbecc
ebe ebbc
ec bba
be dbbee
eef a
df dee
bbd ebf
ed dbec
ed dfc
bbec bbbb
be debf
bbee dc
edc bbc
ec edcc
ccc dc
bbf dbe
ed dbbc
bc bbecc
dbc eec
dbc bec
bbee ef
bf bbbf
ee dbdc
bc dbbf
ec eeebb
df fbc
b a</w>
eebe ebb
dec ebc
dbd bf
ed bedc
eebe a
ebe bcbc
bbbb bdc
ed ecbc
fc bebc
ee dbbbe
ed bcf
dd bbbd
ebe fbc
bbec bbc
dbc ebc
bbbc bcc
be d</w>
ec bbbcc
be c</w>
ec dbdc
ff bcc
edc dee
bccc ccc
bec ebbc
bbbc dc
eec bebc
ec dccc
dd bebe
ebe bbcc
ed da
df dcc
bc dbdc
ef ea
ebd bbbe
ebd bdc
bbc bbebb
fbe a
ebd bbf
bd dbbd
ee dbbf
ebe dbd
dee a
ef fcc
bd bbebe
ebe dec
ff df
ecc bbd
ecebb cc
ebe dcc
dbe bbd
bbbc fc
beef cc
ebb bcf
ebc bef
edbd cc
ebb febb
dc beee
bcbe bbc
dee bec
bdc a
bbbb dbc
df dbd
ebc fec
bbee a
ed bbbf
bf ea
ef bbec
ebd dbd
dee dbe
dc eebc
bd dbec
ee bbebf
ed bcee
eec bbf
bec dbd
f dbfc
bbc ba
fc edc
bcbe bf
ef eeee
bdc ebb
dee bcc
eec bbbc
eec bbbe
eec dbd
fbe bcc
ebd bebe
dbe bbbe
ed ac
dc fbd
ecc dbc
ec ebfc
dc eecc
bbbb bbec
bbf bbd
f bbbbbbbb
bd deec
ed dbb
bd b</w>
a ebf
ed eeee
bb bd</w>
bec bfc
beee bf
dee ebe
fbc bf
ebc dcc
ebb ddc
dd bbbc
bbbb bbcc
ebb ecbc
bbbb ebf
ebc bbec
efc df
dc ebec
dec bf
ec bbeec
bbbb dbd
ebb bcbd
bbc ded
efc bf
ebbc bf
dd bfc
ef bcbc
ebc bbbd
ebc bcbc
f dbbee
ebd bebc
bbd fbc
bedd cc
dc dbf
bebe bec
fee dd
ed bcbe
bc dccc
bbc beee
ecc fec
bbf bbbc
ed bcbd
bd bbef
dcc fc
fee ebe
edc edc
bcf ef
fbe bec
ed bbdc
ba dd
bebc bec
ed beebb
dee bbbb
ecc ded
fc bbec
ef ddc
bcc dec
dbe eec
a ea
ebb eef
e bf</w>
ec eebf
cc ccc
dcc eec
ed bccc
ebb bebf
ebb eecc
bfc bbc
ec bbebd
ee ebfc
bebe dc
be bbba
dbe bbf
bdc df
bec fbc
bebc bbc
eebe bbc
fee dc
bbbd bf
dbc a
bcc ebf
be dbfc
bc c</w>
bbbb df
ebb bbbbbbbb
bcc bebe
bbbb ebbc
bec ebf
ebb eebd
be debbc
bb f</w>
ec b</w>
ef fbe
ff bbf
ba bf
dbe dee
bd ebdc
ebc eebc
dbc dbc
eef dd
ecc bbf
ccc fc
bbbb bcbc
f bbedc
ea dd
ebb bcee
dc debb
edc ebd
bcef cc
eec dcc
bcebe cc
bebe a
bbd bbec
ef dbf
edc bcc
dbd bbc
bbd bfc
dc bbcc
bec bef
dbe ebd
bdc ebd
bdc bcc
bc bbccc
bbd bef
fec dd
bbee bbf
ee dedc
ec edbd
dee df
bbc bbbbc
ef bbcc
bbbb bbbf
dc fed
ff ed
bebe dd
bbd ebbc
dec fc
bf ddc
bdc dbe
ecc eecc
ebb fed
bcf bbc
bec bbee
ef bbbd
ebb bebbbb
ebb bcec
bbbb bef
fc bcbc
bebc bf
bbbb ff
df ebf
eebe bbbe
df bbbe
bd bced
dc becc
ebd ded
a edc
fbe bbbe
ecbe ecc
ebb bbdc
bc eba
ebbc ebc
f bbbfc
ebb eeebb
ba bbc
bbebb bbbe
ed fdc
bd eccc
eedd cc
fee ef
be bbbfc
dec dee
bebe fc
bbbb ecc
ecbe bbc
bbbb dee
dec df
bec edc
f debbc
bebe bcc
bf beec
bd fdd
dbc ccc
bb bc</w>
beee beee
a bbee
a dbd
ff dbe
bc debf
bea cc
dbc df
ef efc
bd ecf
ebf bec
dc fbe
bbbc ccc
bbbd bbbd
bbebb bbc
ebb dbbc
d ee</w>
dc bebd
dc ebcc
bbec bf
bdc bdc
ebc efc
bcee dd
beebc cc
bd eedc
ef ded
be defc
fc fee
ebbc ebe
bec beec
bbbc bbf
ebb bccc
ee d</w>
eec bfc
ebb fbf
eec edc
ff ebc
bbcc bbc
bbbc a
bec dcc
f dba
dbbf cc
ebe ea
fc beec
bdc ecc
bcc bfc
be dba
bf ac
bcc fbc
bd fef
ebbc dd
a fbc
ed decc
bf bcf
ecbe ebc
bebe bbf
bbbb ba
ee dbbbc
fbe bbf
bd bebbc
ed bbbbc
bcbe fc
ed eebd
bbbe bebc
bbd bbcc
bbc dcc
bdc dee
bc dbbbc
fecc cc
d ed</w>
ddc dc
dbd dbd
bebe ebc
ebd bbbc
bebe bbee
bbd ba
bbc fee
ff ecc
bf becc
dd bbee
eef dc
ccc ecc
beee bbbe
dbc bcc
fec df
ebc fee
a bef
ebc beec
bb eb</w>
fc ebbc
eba cc
bd ecbd
ebc debb
ded bbc
bf debb
bcbe bec
ccc bcc
fc fcc
ed bced
edc dbe
dd bef
ebf bbf
eef bbbb
ff bec
ee c</w>
dc bbed
bfc ef
dd fec
bd bbfc
ed eeec
d ec</w>
bbd bbebb
bd ffc
bbbe ebd
dbc dee
bf bbed
ecc eebc
fbc ef
f bbba
ebf bcc
bbbe eec
dbc dbe
ebb beebe
eeee beee
bebbbb cc
dcc ef
ebf ebc
ecf fc
bec bbbd
edc ff
ebb dbbbb
fbc fc
ebb dbb
bd bbebc
bd debd
debf cc
eef bbc
bbbe bbbd
bcc dbd
bfc dd
ed bbebe
ec dbbbe
efc dd
bbee dbe
ebf ff
fbe ff
fec dc
bcc bef
dee ef
ee bbbdc
ebc ba
bebe bbbc
fbc bbc
f bbebbc
ed bbdd
bcf ebe
ed eccc
dbc ecc
ebc bebd
ebc bbcc
bb be</w>
ee bbedc
dee ecc
bf fbf
bfc ebe
bc bbbdc
dbc bbd
dbc ebb
bf eebc
be eac
ed bdbd
bcebc cc
bd bcebb
dbe bdc
bcbe ebe
ebbc bec
ee e</w>
dbe bbbc
ec dbbf
a bebe
dc ea
bbec bec
ebb bbef
df dec
ebc becc
ebbc fc
bbf ccc
ff bbbb
df bfc
eec fec
ed eef
beee bbee
dd bebc
f defc
bd bedd
dcc ecc
ef fec
bd ecec
bf bebd
beee bbc
bd fbbc
ebb ac
eec bef
bbbd bbd
dbb efc
ecbe fc
dd fcc
ebb bbdd
edc ded
bbebb ebe
eebe bbee
bbbbc bbc
eec bebe
bbcc bbbb
ecc bbbe
dec bcc
ecc bebc
a fee
dc def
bd bebbbb
ebec bbc
bcbc bbbb
bdc bbd
dbe ff
df fcc
bd cccc
bd bcbf
ed cccc
ec eba
bbee bec
eec bbec
eec becc
ebb bedc
dbc ebd
dd efc
bfc dc
ed bebf
eec ebbc
bcf ebc
dbb ebec
ebb debe
bbf ebd
bbcc ccc
dee ebc
eec beec
bd eeebb
bbebd cc
bbbb fbc
bcc bbee
ebb bcebb
fbe ccc
bbc beec
bbc fec
ecf dd
dbd ef
bf fdc
bec bcbc
dec dbe
dec ef
bd bba
bcf a
efc dc
ebb ecbe
ebf ccc
bef df
bdc ff
fc bbee
bef bbf
bd dbcc
ecc fbc
bd eebf
bc e</w>
ed fbf
dbf dd
bd bbbec
bf ebec
ebb debc
ebf df
bc bbebf
fdf cc
bbbe ccc
ba ebe
ba dc
debb bbbb
ee bbccc
bf ebcc
bbebe bbbb
ebb beed
bfc a
ebc fbe
fc bebe
bc dbbee
ecc dcc
bbdd dd
fc fec
eebe dd
dbe dbc
bbbd bbbe
ed eedc
bcee dc
ee bac
ed ebdc
eec fbc
dec ebe
ed debd
bef bcc
bf bccc
bfc df
bef ebc
bef bec
beee a
eec debb
bbd fee
bbf bebe
bcc bcbc
bbecc cc
bd bcdc
dec dec
bc bac
ec c</w>
ecc efc
ed dbbbb
ef bbebb
ebe bbbf
ebd fbc
ebe bebd
bbf ebf
ea dc
cccccccc cccccccc
bcc dcc
bc d</w>
ef fbd
fbe df
bbee bebe
fed dd
eebe fc
bd eeed
bfc bec
bf eeee
bcc bebc
f f</w>
eec ba
eeebe cc
bcf ccc
ec efcc
fbe ebc
ebb bebbc
bfc bbbb
bbbe ebf
bbd beee
bf ecbc
ecc ebbc
bf bcbe
bef ccc
ed febb
bbee fc
eeef cc
bcbc bbc
ebe beebb
ecc bbbc
dd fee
dbe bebe
eebe dc
bec fec
dbb bdbd
a dcc
bbbe df
bf bbbbc
fbe bbbc
dbd fc
ebe becc
dbf fc
bf def
bd ecee
bebc ebc
ecc ebf
be bb</w>
ee dbfc
eebe ebc
ef beec
eec bcbc
bbbd ebe
bdc dbc
bbc efc
bbc eebc
bbee ebc
fbe ebb
bcbbbb cc
bef dbe
bbc bbbf
dbd a
ecbe ccc
bcdd cc
bd decc
bd febe
bbec ebe
bcc ded
dbbbe cc
bd beebe
ebd ebbc
bf bcee
bbed dd
dec eec
bbbe ff
dbd ebe
ec deecc
dc eebd
ebb def
ebd bfc
ba ba
bbbd a
dbd df
dee dee
bbc bebd
beee bebe
ed dbbd
bcc fec
dc fdc
fee a
ecdd cc
ebd ebf
ed bedd
ebb ebdc
ebb bbebc
eebe ebf
dc bcee
bbf eec
bbc ebec
bbf ecc
bbbc eec
beee ef
bec becc
bbbc bbbd
eeee ef
ec eeebe
ebc fcc
fbe bbee
dec a
bbbc dbe
bbd bebd
dbd dbe
ebbc ef
ac a
bbd bcbc
dee dbc
dbb ea
eef fc
bbbe bbec
beebb bbbb
bd bbbbbbbb
ecc bebe
bbc bbed
ee bbbbbbbb
efc ef
bcc bbcc
be dbbcc
bd edbd
bcf bec
ec e</w>
f dbbcc
bbf bbee
ec ebccc
bbf bfc
ebe ded
ba ef
ec ebecc
ccc ef
ecc bfc
bbbc ed
ebb eebf
ebc eecc
dcc ed
ec debf
bbbb bfc
bebc ef
bbbc bebe
fc dbf
bdc edc
dc beed
bcbe ef
a bca
ded df
ecc fcc
fbbd cc
fbc df
ebd bbee
bec bbcc
ebb eeebe
bbbf bf
bebc ebe
bdc dbd
ec defc
bcbe dbe
ec debbc
ebb bbbec
bbc debb
bbf dbc
ebb bdbd
eebe bcc
ebd dcc
dee dcc
beec bec
ebc ebcc
a bfc
ecc dbd
ff ebf
ecbe ebe
fbc bec
ed bebbc
dd fbd
bbd eebc
ebd debb
bbbe dbc
bbbe bdc
dc ecbc
ebc ddc
bd d</w>
fc eebc
ebb fdc
ecf ef
dd ebbc
dc eeec
ed dbcc
ebb eeec
ee dba
dbe bbee
dbe edc
ecbe a
bbcc ebe
bedbe cc
ff dcc
fcc ccc
ebd bbbd
bcc bbec
bbd beec
bebc fc
bbd bbed
eef ccc
dd ba
bf bcec
bbf dee
eec fee
ebc ebec
bbf fbc
ecf ccc
ec bbccc
ebc ecbc
eeee a
efc fc
ee dbbee
bec fee
bdc dec
ed bbebc
df bbbc
ea ebe
bcbe bbbe
eeee bbbb
dc debe
ff dbc
ba fc
bec debb
bd beef
ecbe bbbb
bf fed
be bbea
dc bcbd
dc bccc
ebf bbbe
ebc beee
ebb dfc
ec dbbbc
ecbe bcc
ebd eebc
edc bbbb
ecc becc
a bea
dee ed
bec ba
bf bcbd
eec bbee
ebd fec
fc bbbd
dc dfc
eebe bbf
dcc ebe
dd dbf
bbc fcc
ff bdc
ebf ebf
bc dbfc
a dec
dd bbec
ff bbd
bbc becc
bcbe bcc
eec bbbd
bcf bbbb
dc eccc
bcbe ebc
ed bbef
dd beee
bc bbedc
edc dbc
bf bebf
dee bdc
bcf df
fdbe cc
fc bbcc
ded ccc
ed dedc
ebe bbebe
eec eecc
ec bbedc
ec dbfc
ded bec
eec ebf
fbbbb cc
bd edcc
ed bcebb
fcc ef
fc efc
bbbc bcbc
bbd fec
dec bbbb
ee bbebbc
bbbc ebd
eec ddc
fbe ebf
ea ea
bbbf bbc
bcc ebbc
fbc bbbb
ed fef
fbe dbe
ebc dbf
bf eef
dc bcec
ebb bced
eec eebc
dee bbf
eebe ecc
dc bbebb
ecbe dbe
bd fa
ebe beec
fc ba
bec eebc
edc bdc
dbd bbd
bbbd ef
ee ebccc
bebc bebc
bec efc
bbbe ecc
febd cc
ebb eccc
dee bbd
dd debb
ed ecbd
bcbe a
bcc efc
ecf bbc
bbbc df
bc bbebbc
ee debf
bd febc
bbf bef
dec ecc
bd bbbcc
edc fec
eec bebd
eeee bbee
bbec ebc
bbbd bbee
bbf bdc
eebe ccc
bbbb bebbbb
bcf bcc
eedbe cc
def dd
bf dbbc
ebe fcc
ebbc bbbe
ebb bbfc
bbcc ef
fbc dd
ebc fed
f dac
fc becc
dbe dbd
dbc ff
ea ef
eef df
bbd fbd
ac ba
dbc bbbe
be debec
bbbb beee
ded bf
bbec dd
dbe bebc
ed bcdc
fee ccc
ebd bef
bbc fbd
dcc bec
fbe bdc
edc ebb
bfc ebc
dbc bbf
bd bbebd
ecf a
bcc bbbd
ebe bbed
df bebe
dbd bec
ef bbbf
be debcc
dcc ebc
eeee bebe
ed fdd
bbbe bef
be bbebec
bbbb bbed
fcc fc
bbbe beee
dc ac
ded dbe
dbb ebcc
efc a
ff ebd
ebb eedc
fee bbc
ebb dbec
f dea
ded dee
bf febb
df ddc
bec bebd
dd eebc
bbd bbbbc
dcc bbc
bbd ebec
eeee ccc
ebe eebc
ec bbbdc
bec ebec
d ebac
fc def
ec bac
ebb bba
fbc ccc
ef bbed
bbbc bbee
bebe ccc
ebbc dc
bfc bcc
ebb fef
ebbc a
dbd dee
ed ecec
ed bbfc
bcf bbf
eec bbcc
bbd efc
ebc bbebb
eea cc
bd dbdc
bbbb dbbbb
ecbe edc
dec dbc
eef beee
fc ddc
f bbefc
bcf dbe
ec d</w>
ebe debb
fec bec
ef ac
ed eebe
bbebf cc
ebb ecbd
ebc bbed
ecc bbee
bd ecdc
eec efc
ee debbc
dbf dc
eeee bf
dd eecc
ebb febe
fc ebec
ebf bebe
bbbc bebc
be bbefc
eef bcc
bc debbc
ebb bcdc
bcbc ccc
bd eedd
bd dbbbe
ebc eebd
a bbbd
ebe fbe
ebf ecc
ef fbf
fec bf
ebe bbbbc
bbbc dee
ebc fbd
ecbe bf
f debec
bbbe bbcc
ebb fbbc
bbebb bf
ebbc bcc
ebb bcbf
ed ffc
bebbd cc
dcc bf
bd ecbf
ebb bebbbe
bd eced
ff dee
ecc ebcc
bdc bbf
ebe ddc
fbc dc
ebd bbec
beecc cc
fc fbd
ebe ebcc
ebd efc
eebe bec
bef bbbe
ee eac
bbbc bbec
bebc a
dcc dcc
fc debb
ecf ecc
ecbe bec
f bb</w>
ee bbba
eebc bbc
edc eecc
f debcc
dbbbc cc
bdbd bdbd
bc bbbfc
dd beec
bebc bbbe
df bbee
f bbea
ebb beef
bbbd dbd
bbbd dc
ebe efc
edc bbd
ecbe dbc
ef ecbc
ebe bccc
ebe fec
ed beebc
be dea
ea bf
ccc bbc
dd bcbc
dbe ebf
ebbc eec
bebc eec
fbe bbd
dd bbcc
fbc a
bcf ecc
eebe ff
beec bbc
ef ebcc
ebb bbbcc
bef bbee
ebe fbd
bebe bbd
dc deec
ebb dbbd
bcbe bbf
dbe dec
dc bbdc
dbb ecbc
bbbc dbc
bcbe df
ebbc bbd
eef bbf
bbbc bbbbc
dc bbbf
ee defc
bec bbebb
ed b</w>
ecc fed
bdc bbbe
bddd cc
bef ebf
dc eedc
eec fed
a beee
bebe beee
edc eebc
dc dbbc
dbb b</w>
bf bbdc
fbc ebc
ebd ba
dbd ebc
bc defc
dc bedc
dcc bcc
bbbb bbebe
ebd bebd
fee bbee
bbbc bbebb
a bbec
bbcc bec
bc bbba
bd bbeec
dddd dddd
ef debb
bbbe dee
bbbb bebd
df fec
be deecc
bbbd bec
bd ebfc
ebe dbf
ef becc
eec dbf
bbcc bf
dc debc
ebd fee
ec dbbee
ef bebd
ebd ddc
efc bec
ecf bcc
fbe ecc
bd bfcc
bebc dd
bbbe bcbc
bd dbbf
ebe beebe
a ac
eec ebcc
bbed bbc
bbd bbbf
bedf cc
bbee bcc
bbebb bbebb
ef def
fbe ed
ebc ea
bc eac
bfc ff
bfc dbe
ebd becc
dd becc
bbbe ebbc
ebec bbbb
ccc bf
bdc ebf
ebd beec
bbf bbbd
eec fbd
ecdf cc
bd dedc
dd bebd
fec bbc
bbec fc
eec bedc
ef bccc
ed ecbe
edc bebc
efc bbc
ec dbecc
ded a
bbec df
dc eeee
bec ebcc
bec beee
bcbe ccc
ed befc
bcee bf
bef bebe
dbf bf
fc bebd
ebe bcec
eef bbee
fee ff
bcee bbc
eef bebe
bbbd dbe
bbf bebc
ed bcbf
ebc debe
bcc bccc
dbd eec
fbbf cc
fed df
bbbc bdc
dbd dbc
be bbebcc
ff fbc
dee bbbe
eddd cc
bbcc fc
ebf bef
ebd bcbc
ded fc
ecc bbec
dbe dcc
ebb da
bf beebb
ebe ecbc
bd eebbc
dbd ccc
bcf eec
bcc fcc
ebbc df
f deecc
ecc eccc
ecc bcbc
fbd dd
ebd eecc
bfc dee
bcc fee
ed fbbc
ee deecc
ed beebe
eeee bbbe
ebbc bbf
ebb bedd
bf bbef
ecc cccc
dd ebcc
dea cc
bbcc ebc
bca cc
eebc bec
bf bbebe
ded ef
dd ebec
bbd becc
bbbc ebf
ebe ebec
a fcc
ecc beec
dcc df
dee bbee
dc bcbe
ecf bec
bbd bbdd
debb bbc
bbed bbbb
ebf fee
dbd bdc
bf eecc
ebe eeebb
ebe bebf
ebb bcbbbb
ef bcec
ea bbc
bebe bdc
ecf edc
dd fdc
ecf ebc
ebbc dbe
fc ebcc
df bef
bbbe bbbbc
e a</w>
fcc bec
a bebc
bcc eebc
dbc bdc
ecc eebd
dbd ed
ecc bef
ddc fc
ebf dbe
ecbe dcc
bbec ef
bbc bccc
ecc ecbc
eef bec
bcc beee
df fbd
bbbc ff
bebbbe cc
edc efc
dc fbf
ebc bbbf
bbd bdbd
ebc bcec
fc bbed
ded dbc
dbf ef
a fec
ee bbbfc
bbc fbe
dbbee cc
ebc bedc
bbbb beebb
beec df
eef bef
edc dcc
bf fef
fbc ff
ecbe ebd
fbc ebe
bbbd bbf
bcf ebd
bd ecebb
a bbcc
ed bbbec
bcbcbcbc bcbcbcbc
eebe bdc
eec beee
bcbc fc
ecee ccc
eec debc
bcc eecc
bcbe bbbc
bbbb bcbbbb
eebbbb cc
bf dfc
bbee beee
ebc debc
ba df
ff fee
bfc bbf
ec debcc
ebbc ebd
bbd bbdc
fec ef
edc bbf
ff bef
bec fcc
bebc bcc
dd bbed
dc ebdc
dec ebd
fbe dbc
edc ebf
bcbc bf
bebc df
ebb bcbbc
bbec dee
ec bbebf
dbb ac
bec bbed
bbbd df
bbc ddc
ff bbbe
fbc bcc
bd e</w>
ebb ecec
bbebb bbbc
bebc ccc
ecbe ed
bbee ccc
dcc a
bcbc dd
eec dfc
ef ebec
dec ded
bbcc bcc
dec bdc
ef fdc
edc dbd
bcbe ed
ea bbbb
ef eebc
fee beee
bbd fcc
bbc ebcc
dbc dbd
fee fc
ecc eedc
dbc bbbc
dee ebd
ff dbd
dec ed
eef ebf
bbcc dd
bebe dbe
eef bbbe
bbd fbe
bebc dc
ebe bcee
bec dbf
ef bbef
ebe bcbd
bcf edc
ef dbbc
bbee bbbc
bcc ebec
ecc ebec
bbbe bfc
bbbd bbbc
bebd bbbb
dee eec
eebc bbbb
bcf ebf
ed eeebb
bcbe eec
fee bbf
beec bf
ee bbea
dc bbdd
beee dd
dbe bef
bbbd fc
ebe dbbc
bebbf cc
ebe eebe
bbbe ba
bcbe ecc
bbec a
bba bbbb
dddd cc
dc fdd
bbee bbebb
dc decc
bebe ecc
ee dbbcc
ef bcee
dec bbd
bebd dd
bbbe bbbf
bebe ebf
bbee bbd
fee bbbb
fcc eec
ebc bcbd
bbbe dbd
bdbe bec
a fbd
ebb bdbc
bbc bbdc
ebb cccc
fbc bbf
bf dbbbb
bbec dbe
ebb deec
dcdc dcdc
ecbe bdc
bd ebbcc
a bcbc
bf da
bf debe
dd ea
dc dbec
bbbd ebc
beee fc
ec bbbbbbbb
ebbc bbbc
bc dba
ded bcc
dec dcc
bd c</w>
bf eebd
dbc bebe
beee eeee
eef ebc
bbc bcbd
bbcc eec
ed beecc
becc bec
df ba
bdbe fc
ef bcbd
ed beef
bbbbc bbbbc
ebe eeebe
dbbc bbbb
bbec bcc
bcbe bbd
dbf a
df efc
ebec bec
dd bbdd
bd dccc
bf fdd
bbf dbd
eebc fc
ecbc bbc
ebb eeef
dc ecec
ff bbee
bcbc bcc
ed edcc
ed eeed
bbf ba
ecc bebd
ff edc
ebcc fc
ecc ddc
ea fc
ded ebc
ebb fbbbb
ebcc bbc
df bebc
ed febe
ebe bbef
fbc eec
bebe bef
bebe bebc
dbd bcc
ec ecccc
bb ee</w>
debb dd
bcbe dee
beec dd
ecbe ef
ebe bbdc
dbc dec
ebf bdc
bbec bbd
dc bced
ee ecccc
ccc bec
dbe bbbd
bfc eec
f bbebec
fbd ef
fec bcc
dcc dee
bf eccc
bdbd dd
bb ebac
fbe eec
bcbbd cc
bbbbc bbbc
eebe edc
ebbc ebb
beee bbf
bef bef
dbf bbc
ebc def
beebd cc
ef fef
ebc bccc
ed edbd
a bbbf
bdc fbc
ff eec
ecbe bbbe
dc ffc
bbebb bbf
bec fed
dcc edc
ebe fbf
ed dbdc
bf beed
dcc ebd
dc eeed
bf bcbf
dbe bbec
ccc eec
ecc debb
fee bbbe
ebb ffc
bec fbd
a bda
bbbbc bbbe
bcc ba
fbe ebd
fc dbec
bd bbecc
ddc ef
ed dccc
ed ecdc
a ebbc
fee df
dd fed
bef bbd
ded eec
dd def
bf dbb
ebe bcbe
ed bba
bbbb ebec
bdc bbbc
dbe bcbc
bcee fc
bec eecc
fee bcc
becc eec
ebb fdd
ebf bbd
ebcc ebc
ecc fbd
ef bebf
bebe bbebb
bc bb</w>
bbf edc
a da
dc bbbbc
bd dbbbc
ef bbebe
ebf eec
ff fcc
cccccc ccc
fbe bfc
dc da
a efc
dc ecbe
dbe bfc
dee bbbc
ded dec
bd debf
ebf ebd
bbbb edc
beee ccc
bd eba
bdc fec
bbc eebd
dbc edc
ebb febc
dbe fbc
dee dbd
ecf eec
ebcc dd
ebcc ebe
bbbb dec
a ddc
bcee bec
ebc dfc
bcbe bbee
bbbe bbbbbbbb
eef ecc
bbbb debb
bbc ecbc
ebd fcc
bbbe fbc
dc bcf
ebf bbee
a bbebb
fee bebe
ebf bbbc
fbd df
fec fc
bcc becc
ef bcf
bbbb bbdd
ebb debd
bdc ded
ebb bbebd
bbf bbbf
a ded
fbbbe cc
ebc eccc
ef beebb
ebd dbf
ebc bbbbc
bebe df
bbc ea
be dbbbbc
dc dbb
dc ecbd
ed eedd
edc fbc
dc febb
bbc dbbc
bebc bbd
ed ecf
eef dbe
bbec eec
ba bbbe
bbc def
ebb eebbbb
eebe bbbc
ebe febb
eecc ccc
ee dea
bbc bcee
bcc beec
edc ebbc
fc beee
bbc bcec
bbf ebbc
bec fbe
edc bfc
df ebbc
bc dbbcc
df dbf
edc fcc
bcdf cc
df bcbc
bef ecc
dbd ebd
bbec bbbe
bef ebd
ebcc ef
df ded
ff bebe
ac ea
bbc eeec
eebc dd
bbebb bbd
bbc bbbbbbbb
efc dee
bdc dcc
bbebb bec
bc debec
ff bbbc
eebc ebc
bbc debe
ba bec
a dbf
eebbd cc
eebe ebd
bef eec
ba bba
ff bfc
df bbcc
beec bbbb
bbc fed
ee debcc
dd bdbd
fc bbbf
dc bebf
dc bdbd
bebc ebd
ecbc ccc
dec bbf
ecc fee
fbd bf
ebf ed
ecc bbcc
ebc bbdc
dd dbbc
bd eeebe
bc ecccc
bcf bbbe
bbbc bbcc
edc becc
bdc bebe
ecbc fc
ec dea
ebb ecf
ebc eedc
bdc efc
bbd bcbd
eec fcc
dc beebb
bcbe dbc
bcee dbe
bf debc
dc bedd
bbf fee
df fdc
dee ddc
bdc bfc
bec ddc
edc debb
ebf dbc
bcbc ef
ecbc dd
bc deecc
bcbe ebd
fc fed
ebc ebdc
bebc bbbc
ba bcc
ebcc eec
d ebb</w>
ebc eeec
dc eebe
bcf bbd
dee ff
ebe eecc
bbebb ef
ec eac
bf ecbe
dee dec
bef dbc
bebd bec
edc beec
fc bccc
dd debe
bbc bbebe
be f</w>
bcbc bec
bd ecdd
ed bebbbb
ebc beed
ebf ebb
bbebb bebe
df fee
bcc ddc
dc eef
bcf dbc
bd bbbdc
bbf bbec
ebc dbbc
bbbc ecc
bbd ea
bef bdc
bbc eecc
dee bbec
eec ea
eeebe ebe
dc bbef
f eb</w>
bbee df
eca cc
bebe ebd
bebe dbc
bef ebb
ec dba
dd fbe
bbbd dbc
dcc bbbb
fc bcec
dbe bbcc
dee ebb
bbbc ebbc
efc bcc
bbbc dbd
bf bedc
bcee bbbb
bbc beed
eebe bbd
ed fa
bec bedc
bbc beebb
ef fed
dec ff
fdbc cc
becc ccc
ba bbf
dc bcdc
ebd fbd
ebec ebc
bdbc bbbb
bbc bebf
ed bebec
ed febc
ed d</w>
bebc bbf
ba dbe
beee bcc
ec bbebbc
eec bbed
fc beed
eebc ccc
bbbd bcc
bf bced
ecbe bbd
ebd debe
ebcc bec
bcf bdc
ebb decc
ec bbbfc
ed bbebd
ebbc ecc
ed bbecc
bbbc bbbbbbbb
fc ecbc
fc bcbd
fc eecc
fcc dd
ed eebf
bebe ff
ebf bfc
dbd ecc
dcc ff
ebb bdbe
ec debec
bbbf bbbe
ebb eeed
ebf edc
ebb edcc
ebbc dbc
eec dbbc
ebd bbcc
ebec bcc
ba bbd
bebc dbe
ed bea
bdf df
bebc ecc
da a
bb ed</w>
ebec a
ebec dd
ec deccc
bf ecbd
ef bbdc
ecbe df
eeee bbf
ebb edbd
dcc dbe
fec a
bf bcebb
eec def
bf bbfc
bef bbbc
d bf</w>
ebb ecebb
febf cc
bfc bbd
dc ecdc
eeee fee
bbc fbf
bcbc ebe
ecf bbbb
ded ebe
bcbd dd
bec ecbc
ebc bcee
ed dbbf
ebd ebcc
dc bbebe
ebd ecbc
ebb dbcc
bccc cccc
ecc fdc
ebbc bebe
ebd beee
becc ef
bec beed
ecf df
ebf beee
bbbf bbf
fc deec
bd ebbebb
ded bbbb
bef dee
bcf dee
bbbd bebe
ed edbf
dbd bbbe
bcec dd
dcc dbc
fed ccc
bbc bbef
bcf bfc
f bbebcc
ebbc dee
dbb ebdc
fcc df
eec ecbc
ecc ea
dddd dd
bf fbbc
bebc dee
bbbb beec
edc bbbe
eedf cc
bebc bebe
bf bbebc
bbf dec
bdc bbee
bbed bec
ef febb
efc ff
bcf bbbc
ed bfcc
beebb ebe
ecc bedc
bf bebbc
bcc fbd
bbebe bbbe
ebec fc
ebb eebbc
bc dbecc
dec beec
ed bebcc
ebb bdcc
bbf bbebb
dc eedd
bcee ccc
ebc febb
a fbe
bbbb fee
ebd ea
dbb ecbe
dbc fbc
ec dedcc
bcbe bdc
edc bebe
bbf bbcc
edc bbee
bd efcc
bbbb bbdc
eebc ef
bf eebe
ecbbbb cc
dc ecee
ff ddc
ed bcbbc
dbb bddd
fc bbebb
bcc ebcc
ebd fed
ecbbd cc
df bbec
eec ebec
dec dbd
fc fbe
bebbbc cc
ecc eeec
dbc bbee
ebc fdc
ccc ebe
bbbbbbbb cc
ebd ebec
ecf bdc
bbbc bfc
ebf fbc
eccc dd
bbf bcbc
bbbd dee
ebf dee
bec def
df ac
bbbb dbf
bbc bcbe
bef beee
ecf ebe
dba cc
ebb fa
bb ec</w>
fc dfc
bcc dbf
ef dfc
bf ffc
dc fef
ebc bebf
ed dbbbe
bbbd eec
bdf dbe
bec bbbf
ed bcdd
f be</w>
bd eeef
ddc eec
ef bbbbc
eeee bbc
bebd bbc
dc dccc
ef da
fbc dbe
ebbc bbee
eebe eec
eeebb bbbb
ecc bccc
bdf bbbb
ef beed
fc bedc
bbdd bbbb
fc ea
ebcc bbbb
ebbc bdc
ed bbbcc
ba ff
bbbe bbed
bbbe bebbbb
ddc ddc
eebd dd
bcec bec
ef beebe
ebf bebc
efc dbe
eef bdc
bbec bebe
bbec bbf
bbbd ebd
bbbe edc
bf ebdc
eebc a
bcbc bbbc
dbb ecbd
be dac
efc bbbb
bf eebf
becc ebc
fee fee
ebb ecdc
bebbee cc
ebb bebec
fc ac
bbbe dec
ec dbbcc
dd dbbbb
ebb b</w>
ddc ecc
bbd eecc
ebe ac
bcec dee
fec dee
ebb bdebb
dbc ded
bf cccc
ebd debc
dd ac
dbd ff
bf dbec
bbebb a
bdf bec
ea df
bbee ebf
bcc fed
bbbe debb
bcc bebd
beff cc
be debdc
dc bcbf
ed bcebc
fbe ba
bdbe a
fec dec
dbd bbf
efc ebc
ded ded
ebd bbed
dbd bbbd
ed bcfc
ecc bbbd
eec eebd
ed debf
bbebe bbc
ef eccc
ccc bbbb
ed eced
fbe dee
bdc bbbd
fc debc
bf bba
bbd eebd
bcbe ff
dc dbcc
bfc dbc
bc debcc
bcc bbed
fbc dee
bfc bbbc
ccc ebc
ebb eedd
dbe beec
dbf df
bbebb bbee
ecf ebd
ddc ebe
a eeee
bc bbebec
dbe ba
bf febe
bbd ebcc
fc fbf
dc edcc
bbdc bbbb
edc fed
eccc ecc
bdc bebc
fbd bec
edc bbbc
eebe dbc
bbec bbbc
ebb beebc
bbcc a
bcc debb
bddd dd
bbbbbbbbbbbbbbbb bbbbbbbb
dc dedc
bd dbbee
eec decc
ef beef
dbe ebbc
dbf bbbb
bcee ebc
bbee dbc
bbec ebd
bbbe beebb
df bbbd
bbd fed
ebb bcebe
bbbf fc
bf bbbec
efc dec
becc bbc
dc debd
ef eecc
ebb bebbd
ba bca
bbebb ebc
ecbc bec
edc fee
ecbe eec
efc eec
edc ebcc
bbbf a
ecc debc
be bbac
dc dbbbb
dcc bdc
ebbc ebbc
dbb bdbc
bf bbdd
ecc beee
ebe beef
ff dec
dbe beee
bbcc bbcc
eef ba
ebd eebd
dee bebc
dcc cccc
bbed df
ecee bbc
ebb dbbbe
bdbe bbbe
bbf beee
edc ebec
bf bdbd
ee bb</w>
eef bbd
be be</w>
ebe fdc
fbc bbd
bf eeec
bec debc
ebb ebfc
f deccc
beec a
bbbc bef
beec dec
bcee a
be eb</w>
ebe bedc
eef dbc
bcbc ebc
bc bbefc
bbc dbbbb
ebe bebbbb
edc eebd
f dbbbbc
eef dee
ecbc ebc
beec ef
ecc edcc
ebb bcdd
bbbf ef
bc dea
d bbbbbbbbbbbb
bbbf bec
bbbf dd
dbbc dd
fec ff
eec eedc
ed ebfc
ebe beed
bbec bbec
ecbe bbf
bbdc dd
edc ddc
bbd eeec
ba ccc
ebe eebf
eebc bcc
ee bbefc
bf bebbbb
ec bbba
ed eebbc
dcc dec
fbef cc
bcee df
ba bbbc
ea dbe
bfc ecc
ebe eebd
bbee ff
bbee bdc
eebbf cc
ea ccc
bdf ccc
bbee ebd
dbd ded
fcc bbc
dbb bdbbbb
eebc eec
fbd a
ebe fef
bbbb bcbd
dee bebe
ebe febe
fbd fc
bf beebe
fcc a
fee bec
bf bdcc
ddc bcc
ebbc bbbd
ddc bec
becc fc
bbed a
ecc dbf
dc eebf
bedbc cc
dbe ded
eec bcbd
ac dd
ebe debc
dbc ebf
ed bebbd
eec fdc
ed bcef
bd ebecc
dbc bbbd
ed bbeec
ebe debe
bbc bbdd
debb bec
ebb befc
ebc cccc
bcc def
bbd bbbbbbbb
ebb ebbcc
bba a
edc bebd
dbc bcbc
bfc ebd
bdc bef
bbf dbf
ebe eccc
ecbe dbd
bcbe bbec
ebb eba
eebc df
fee dbe
fbe bbcc
ebb bea
ebbc ff
dd eeec
bbbe bbebe
becc a
dd dfc
bbd beebb
dbc bef
dbc dcc
dbc bebc
eebe dbe
ebb bded
bbebb bbbbbbbb
eecc fc
ebc bbebe
def ccc
eec deec
eebc ecc
ea ba
ddc df
eec beed
fec dbe
bdbe dbe
dc b</w>
bbed dbe
dc eced
beee bec
fbebe cc
eebe ba
ebb ecbf
ed fbec
bbf fcc
ddc bbc
bcbc a
ff dbf
bbbe bebd
eec bccc
fbc bfc
dbbd bbbb
ec ebdcc
dd eebd
bbec dec
ebb ecee
beec dee
dbd dec
dd eeee
ebec df
ebc ecbd
bcec bbc
fc dbbc
dc bdcc
f debdc
bebe bbcc
bcc eeec
ebc fbf
fbc ecc
fdc df
bebc dec
ef cccc
dd bbebb
bbc bedc
ded bdc
bd bac
fbc ebd
ee debec
bebe eec
dbf bec
bcee ebe
ecbe ddc
bef bfc
ccc df
bf ecf
bbd beed
ecc ba
bebe bcbc
ebb bbeec
dee edc
fcc ff
ebb bdf
eef ebd
fee eeee
dd eccc
fcc ebc
bcbe dec
dc dbbd
bcec df
ebe bcebb
ecc decc
fbe edc
ecbc bbbb
bbc eeee
ecbe bbbc
def fc
ebbc dec
dd bcbd
bbd fbf
bbf fbd
ded dbd
bebc ff
ac da
bcee bcc
fec bbbb
bec bbbbc
bbd bbebe
bbbd bdc
bcbe edc
eebe ea
eebe df
bebbc bbbb
bbed dee
bf beef
ecc ebdc
ed c</w>
ebe bced
ed e</w>
bdbe ebc
bfc dec
bfc bdc
ed fecc
ba ebc
bbbc fbc
dd bbdc
bbd b</w>
ebbc bebc
bdbe bcc
ebd bbebb
eecc eec
ccc ff
bcf bebe
bfc bbbe
ed fbcc
bbebc bbbb
bebd df
ebbee bbee
ecbe dee
ef debe
fbbee cc
fbd bbc
dbd bebe
ebb bdbf
eef eec
ccc a
bdf bcc
debb ebe
ef bced
bfc fbc
bcee dee
bcee eec
fc bbdc
ef dbec
bbbec bbbb
bbed ebe
beec bcc
febb bbbb
debb ebc
eeee ebf
bbebe bebe
f bd</w>
bcf bbee
bdc fee
eebe bbebb
bbed bf
ecee dbe
fbe dec
ed bcebe
efc ebe
def a
bcbc dee
bec beebb
fec eec
ded ecc
bcf dbd
dd beed
fdcc cc
bbbf ebe
bbec dbc
bcbe ebf
ed ecbf
bbee ecc
ebc beebb
bec dbec
dbbbb bbc
ee bbebcc
ddc a
ebbc edc
bebd a
def dc
bbee dee
bbec dc
bcebb bbbb
dbbc bbc
bebe ba
dcc bbd
bbcc ebd
bbbf ff
dbe fcc
fbc fbc
bbef bbbb
eebc bbf
dbb eccc
ebbc ebf
ee bbebec
ebc bced
bcf dec
bec bcec
bf eeebb
dbe bbebb
fbbbc cc
dd bccc
ecec bbc
bbbc dec
ba bea
debb a
bec ea
eeee bef
bcbbf cc
bb ebb</w>
dd ecbc
bdc ebec
bdbbbb cc
dbe ddc
d ef</w>
beee ecc
becc ecc
f bc</w>
ef ebdc
eebc edc
ebb bdee
f bbac
bc ffcc
dd debc
ccc dcc
bbcc bbbe
eebc ebe
ebcc a
bf ecbf
bbd ecbc
fee ebf
ebcc bcc
ba dee
fec ebc
dc dbdc
eec da
ebbbbbb cc
ecee bcc
dd b</w>
fbc bbbe
bebe edc
bcebd cc
ccc dee
ef fdd
bbc debc
ef debc
dbe dbf
bbcc bbd
bbc febb
bbee bbec
bccc bcc
bbcc bbbc
bcbc df
eec eeec
bef bebc
ebb bcebc
dbd bbbc
ec debdc
ebb eced
ea ff
debb bbbe
bd dbfc
fcc bcc
eec debe
ddc dee
ddc ebc
dbe bebd
ebd dbbc
fcc bf
ddc dcc
bebf bbbb
ebb bebbf
ed ebbcc
bdbe bbd
ef eef
bdc ebbc
dbc bfc
bbf fec
ebe fed
fc fdc
be bd</w>
dec bebc
bec bccc
ecee ecc
bbee eec
dd da
ebd def
ed beebd
bef ba
eebc bf
dbe debb
dec bbbe
ef bcbe
bbbbc bbd
dd fbf
be bbeccc
ee ebdcc
bbbcc bbbb
dd fdd
beec ebc
bcbd bbbb
bebe eeee
be bc</w>
bcc bbebb
ef febe
bbbc beee
fc eeec
bec deec
bebd ebc
ff fbd
bda cc
dd dbb
ebe bba
bec bbdc
eec bbdc
bec eeec
dbe becc
ebd dfc
bbee bef
ded dcc
eecc ecc
ff ba
bfc ebf
bd bbccc
bbbf bbbc
ded beec
bec bcbd
bdbd bbbb
bdf bbf
fbe bbec
bbed ebc
a eba
edc debc
fee bdc
ebe def
dc eeebb
bf bcdc
ecbc bcc
dbf ccc
ebe dfc
ebcc ecc
ebb fbec
efc dbc
dbd dcc
ef eeebe
ddc bbbb
ea dee
ebe eef
bbee bebc
ebb dbbf
bbc fdc
eec eccc
dc bbfc
eecc ebc
bec eebd
fcc ecc
fbc dec
debb fc
bdc bbec
ebb bcfc
bbd bebf
eec bbebb
beee ebf
bf fa
ebb bebbee
bbbe fee
ebd bedc
ecf dbe
dc ecbf
ef eebd
ff bcbc
bbc ac
edc bef
fbe dcc
bbbbc bcc
ef eebf
edc ecbc
fbe bbebb
bbd bcec
dc bded
dee bef
fbd bbbb
ebb bcef
ddc dbe
ed ecebb
eccc fc
a ebec
bcc eebd
bbf dcc
eef bbbc
bbbe beec
debe bbbb
fec dbc
bbec bebc
eec dbec
ebe bebbc
beee bbbc
beee ff
bcbbbc cc
bbed ef
df ea
ded bbd
bec dbbc
ebb dedc
edc eedc
bbbe becc
beebf cc
bebe bbbd
bdc eecc
bdbc dd
a fbf
ebc ac
bbcc ecc
fbc dbc
bbebb bbbd
ecf dbc
ebf ba
bcbbbe cc
debb df
dc bcdd
bfc bfc
bdbc bbc
bbba cc
ed fdf
bbbbc bec
edc eccc
bebe bbec
eebc bbd
bdc beec
ebe bcf
bbcc df
dbf dbe
ecf bbf
edc eeec
efc ecc
beee ebc
dd bcee
bbbc ba
bbee ba
ebcc bf
ebb bfcc
bcc ffc
ed eba
dee bcbc
a bdbf
dbf ff
bfc bebc
dee ebf
beee fee
ebcc ebd
ea bcc
bec dfc
be deccc
a debb
bebd ef
a fed
bec eedc
dbb ecec
dc beef
dc bbebc
ed eddc
ebbc dbd
eec ebdc
eebc ebd
bf ecec
f ee</w>
ddc dbd
ddc dbc
eedbc cc
beec fc
ebb bbecc
ebb fbcc
bbbd ccc
dbb cccc
cccccccc cc
ed eeebe
bd bbedc
ebbc fbc
bec debe
bbd febb
beee dbc
beebb bbbe
ebbc bbec
ebb bebcc
bbebe ebe
bcbe bfc
bbbbc ebe
eef ea
bbcc dbe
dd bcec
ee f</w>
beee ba
eeee ff
bcbc bebc
ecbc ecc
beec dbe
bef dec
bd defc
bbd bedc
debb ef
eebc dbe
ecbe dec
ebf dec
becc bbbb
eec bcec
bd bbebf
bbf efc
ebec bf
bbbe dcc
ebec ef
ebcc edc
bcc bbbf
dbc fee
eeec bbc
bdbe df
ebb bdbbbb
eecc a
bbec ecc
bbbc bbbf
bef dbd
ebc deec
bdc fbd
fbe bbbd
dbbbb bbbd
bd debbc
bebbbb bbbe
ebb bddd
ecee a
ebc dbec
ac df
bbd bccc
dbb bdcc
eeec a
bcee ef
edc bcbc
ebc bbdd
ed bedbe
becc ebe
ecc ecdc
eebbbe cc
bdc ddc
ed feec
bbdc bbc
fdc ef
ed defc
efc ded
dc bcebb
edc fbd
fec ded
dbc bbec
bcf dcc
f ed</w>
dc beebe
bccc fc
ebc bedd
beed dd
bebd bf
ebe bbebc
fed bec
bebd fc
ed fbbbb
bc bbea
bdbe bbf
ed efcc
a bbed
beebb bbc
beee bef
bcbc bbbe
bbcc bbf
dd cccc
bbbbbbbbbbbbbbbb bbbbbbbbbbbbbbbb
ded ebd
eecc bec
beec eec
edc bbec
fbc bbbc
fbe ebbc
bcee ecc
dc edbd
bbbbc bbbbbbbb
bcbe dbd
be bbebdc
bf deec
bdc eebc
ebec ebe
debe bbc
bf dbbd
bbd eeee
bcbc bbf
bb bf</w>
bcbbc bbbb
dbf bcc
bbebb bcc
bdbe ecc
dcc dbd
dd dbbd
beebb a
bdee bbbb
bcf bebc
ef ecbd
bdf ecc
bdf dbc
dbe fee
dbe bbed
dfc fc
bd dba
beed df
ebb bcbec
dd bbbf
fbe bbbf
ed ecbbc
fbe ea
dd decc
ed dbbee
ebe ebdc
bebe ebbc
dc fbbc
dc febc
ecbe bbee
ecee fc
ded bbec
fbe dbd
ebc eeee
eebc bedf
def df
ecee dcc
eec dedc
ba bdc
bcf bef
bbd fdc
ee deccc
bebe bfc
bec ebdc
becc edc
bbf bbef
bbbd ff
bcbe bbebb
ebf ebbc
fbf bbbb
ddc dec
ebb ecbbc
f ec</w>
bdbe bbbc
ebec bbbe
ef bedc
ebe bbbec
ebcc df
eecc bbc
ebb dbdc
bbed fc
ebd bbbf
ebb bdec
bd bb</w>
bebbbb bbc
dec bef
fbd ff
dee ebbc
bebc dbc
ebd bbdc
ebf fcc
bcbc eec
bebf bbc
fec bdc
ded ff
bbbd bbebb
ebe bbdd
bbee ebbc
dee ba
bebe fee
ecec df
becc bcc
edc ea
ebc bcdc
bdbe ccc
fdd dd
ebd eeec
ed dbbbc
ef bcbf
dbbbb bbbe
ac bbc
fbd ccc
bcee bbf
bcbe bbcc
dbb bded
bdc dbf
fdbd cc
ef eeef
bbbbc bf
bbee eeee
eef dcc
ec ffcc
ebc decc
eec bedd
bfc bef
ebec dbe
ed debbc
a beec
bcbc dbe
dc febe
ed edbc
ebbebb bbbb
bbec ff
ed deecc
ee bbac
dc ecf
ebb bddc
bbee bbbd
bbebb fc
ebe bdbd
ded bebc
eebc dbc
bdbe ebd
dee fbc
bdc fcc
ed ecdd
edc dbf
dbd bdbd
ebe cccc
eebc bbbe
debb ccc
bcf ebbc
ecee bbbb
bcec fc
bbf beec
fed a
bbd bbef
ed bcbbbb
bf bcef
bccc dd
ecbe ebf
bcc bbbbc
bcbe dcc
eecc bbbb
bdc bebd
fbebc cc
bdf ebf
da dd
dc ecdd
bced dd
fc debe
ba dbc
ebb bbbdc
fbc bebe
ebd fdc
beec bebc
debb bbd
dfc dd
ee dac
ebc bbef
ebec dbc
ecc bbed
eeec bec
fee bef
fc eccc
bdc bcbc
bf dbcc
ebe dbbbb
dee bfc
debb dbe
dc bcef
eecc ef
ed beeec
ecc bcec
ebb fecc
eec bbbf
ebec ebd
ebe dbec
eecc edc
beee dbe
fc eebd
bbd bcee
bbcc ff
eeec bbbb
bd ebccc
fbf ef
eec fbe
ebe eeef
dbb edbd
ecee ebc
dc bdee
bbc bbebc
dec edc
ecbc ef
ebf dbd
dbc fec
ecbc bf
ebe ecbd
ee debdc
df becc
dec bbbc
efc bbf
bbbd bebc
dbc ebbc
fdc dd
bebe beebb
debb bf
eecc dd
bdf ebd
dcc bbf
fbd ebc
bbbbc bbf
beee bbd
fc da
ec bbefc
ded bbf
ea bbbe
ebe da
ff bbec
dc bebbc
ebb eea
ec befcc
ebb fbbd
ea bec
bbbbbbbb bbbc
bbbb bbbec
ebd eedc
bbc bebbc
dbb bdebb
debb bbf
ccc dbe
eeec dd
ebb bbebf
eebe bbebe
bef bbec
fbc bdc
bdbe eec
ecec bcc
beee bdc
fbc fec
bef dcc
ebf dcc
bbc dfc
dec bbec
ebf bbbd
eebe dcc
bdf bbd
ed dbfc
bc dbbbbc
ebf bcbc
ecbc df
f db</w>
ebbee bbbe
bf bfcc
ebd eccc
bdf dee
d a</w>
ecee df
edc bedc
ebec dee
efc bdc
eeebb a
ef bba
dbf ebc
ebe bbfc
bbbf bcc
ecee dbc
eeebe eeee
ed eefc
ef fbbc
bdf eec
bbbb fbd
bf eedc
debb bcc
fec bbf
bdbbd cc
dec bebe
ebec bbd
bcec dbe
be bbbbbbbbbbbb
bbc bbbec
dc bddc
bf bbbcc
bfc dbd
ea bbf
ac fc
bbcc bdc
bbbbbbc bbbb
bbee fee
bebc edc
dfc df
dd bedc
bbc bbfc
beee bbebb
bbbf df
bf bcbbc
be db</w>
eebef cc
ebb febd
fbf fc
ebe eeec
ecc beed
bef ebbc
dbbbb bbd
bbc bdbd
ebb bfbf
bebe dee
bc dbbbd
dbd ddc
dc bddd
ebd bcbd
bbbbbbbb bbbe
dc bdbc
dc c</w>
ebc ecdc
ebe bcbf
eedcc cc
ebd ebdc
fbd eec
bc bbebcc
ebb bedbe
bc dac
ef fa
bcbc bbd
bbc bcbf
ef eeebb
bf edcc
bbbb ded
bbbbc dd
bebc bbee
bf fbbbb
bbbb bebf
ccc edc
bccc bccc
ebb bebbbc
ebe bcdc
ebec bbbc
ec bbfcc
ebb dbbbc
ecec dd
bcf efc
ecbe ff
fc beebb
ecc dfc
ec f</w>
eebe ebbc
bcbe bbbd
dee beec
ebf bbcc
dec bfc
bef bbebb
ba bebe
bebd dbe
dcc ded
ebd febb
dc dddd
edc bbbd
ebd bcec
bebd eec
ef bbdd
ecbc a
bedcc cc
dbf ecc
ebb bbccc
fc bbbbc
fcc fec
ebb fbbbe
bcc fdc
ffc df
ebd beed
bcf bbec
edc decc
ff bbcc
ebc debd
bebe fbc
bbc bced
bbc bbbcc
ebec eec
bcc ea
ebe bdcc
dbf bbf
bbebb dd
beee df
ecbc eec
eeee dd
bbbb fbe
deec df
bcee dbc
becc dd
ebb fbbf
bdc fed
dbe fbd
beee dc
bbbf bbd
eebe bbcc
ee dbbbd
fee dbc
edc dfc
eebe bbbd
ecbc bbf
dbe fec
dbb ecbf
eef bfc
fbc bebc
ddc ff
debe dd
ed bedf
febb a
dee bbbd
ed beccc
dbb bdee
bbc dbec
ebbc bfc
bc f</w>
dbb bdbf
bbbb bbebc
dee bbcc
bbbb dbbc
ecbd dd
ed eeef
ebf eeee
ebb edbc
bbbc bbed
ac ef
bbf fbe
bcc bedc
fc eedc
ebc bcbe
ebc da
bbbbc bbbd
bef edc
eebd a
ecbc ebe
eeec df
ba ecc
bbbb bccc
ed ecee
bcee bbbe
dbf ebe
beebb bebe
dbb d</w>
bdc debb
beec dbc
bbdc bec
bbc bcebb
fee ecc
bbbb dcc
ef bbfc
bf eeebe
bbf bbed
ff fec
ecf bfc
fa a
bf fbbd
debc bec
bbc bebbbb
bcdbc cc
ed febd
bf febc
ebec ecc
bbbf ebc
ed fbbd
bbdd dbd
bf bdbc
bbbf bebe
ff efc
eebc dc
bdc becc
bebc ebbc
bf befc
bbf fbf
bcbc ecc
fc ebdc
bbef a
bbbc beec
bbc bcf
bebd bbbe
ecf bbd
fee bbd
ed debcc
dbd edc
ed bebbbe
bdc ba
ef bbebc
ef ffc
bfc bbec
ff fbf
dcc fec
debb eec
bbdc ebe
bf edbd
ee dbbbbc
bf ecdc
bbc bcbbc
ed eea
ebf bbec
df ebcc
efc bbd
beebe bbbb
beed bec
bebc bcbc
dee dbf
ebf fec
ebec bbf
fcc edc
ecc fdd
bd bbba
dbbbb bbbc
bdbe bbee
bf bdbf
bef bcbc
eeee bcc
bbed dbc
bcbe ebbc
ecec bec
ddc bdc
ebb eddc
bbc eeebb
ebc bcf
dd dbec
bbbf dbe
ef eeec
dc ebfc
ef bcebb
ebb bdbbc
efc ebd
eecc bcc
ecc ecbd
fc bcf
dd eedc
ff beee
bbcc dbc
ba bbee
fc bebf
bd eac
def bcc
eccc ebc
ecdbc cc
df fbf
bbbbbbbb bbbbbbbbbbbb
bbc ebdc
bdf bdc
a becc
bbc eedc
eebc bbbc
df fed
ebd fbe
ecc ac
eef dbd
dd ebdc
fc fef
beec ded
a bebd
ecec ebc
ebb bebdc
bbbb bbbcc
f bbebdc
efc bebc
ff bebc
eebc bdc
df fbe
bbbb fec
bbbb becc
bbed bbd
a fdc
bbee beebb
bdbe bdc
fee ebc
dbbbb dd
bbebb bebc
dc befc
df beee
eef bebc
eebd bec
fbc ebf
eeebb ebe
bbcc dee
fee ba
ed ebecc
bbbb bdbd
bdbe dee
fc bcee
ebd bebf
bcc bcec
a def
eebd ebc
bbd ac
bbf debb
dc fa
bbbb fbf
eec beebb
ebcc dbe
dd deec
ed eddd
ecbc dee
bdf bbbe
dbb bddc
bfc ded
ed beedc
bbf ea
eebc dec
ebd bbdd
dbd bebc
ccc dbc
ecc eedd
bbf bbbbc
eccc bcc
beebe ebe
bbdc ef
ebec bdc
fc bced
ba bbbd
bbebe bbee
ebec dec
debb bbbc
bbef dd
eebd bbc
eebc ff
ebd bccc
eebe bbec
ecf bbbe
ecf bbbc
ec dac
bdee bec
a bccc
bbed eec
ecc def
ecf ebf
bc bc</w>
dc bba
bef bbbd
bcc bcbd
fed bbc
bbee bfc
ac bec
dbd fbc
fcc ebe
eeee ba
bbee fbc
dc fecc
eebbee cc
bdbc fc
ef bdcc
bbbb ea
ecbc dbe
dd d</w>
ebd bdbd
bbc bcbbbb
dbbc bec
ef bdbd
ddc bf
eebd fc
bd deecc
bef ea
eeec bcc
bebd bbd
ccc bdc
dbc beee
dec ebbc
ee ffcc
eebe bbbf
dc bbbec
fdd df
efc bbbc
ebc bdbd
a bbbbc
bbed bbbe
edc def
dec fbc
dbbc ebd
bcf dbf
ef deec
ddc ded
a fa
dec becc
bebc bdc
eec bbbbc
bfc bcbc
bebc ded
bbc eeed
dbe def
bbbb eebc
fed bcc
beec bbd
bebd ebe
bbbb bebbc
ba ea
a bcbd
bc debdc
ebbc bcbc
bef dbf
a eebc
dbe bccc
ef bcdc
fdc bec
dd dbcc
ba ebf
bebe bbebe
ddc ebd
dbd ebf
bbed bcc
ed bbedc
ebc ffc
fbe debb
dee beee
ebb feec
fc bbfc
bbbb bbef
dd bddd
bbbe dbf
bc eeeecc
fc febb
ecf dcc
fc bcbf
bbc deec
bcbebe cc
bbec bbee
fec ecc
ddc bbd
dbb ecebb
ebcc bdc
beec bbbc
bbec bdc
eebd df
fed dc
ec dcccc
bcc eedc
ebc bcebb
bbbe ea
edc ebdc
bf bedd
ebd deec
fbd dbe
bebd dee
bdee a
bc befcc
fec dcc
bebc bfc
bbbb efc
dec ebf
dbd bbee
bcc bcee
ebb ecdd
bec bebf
ebb beebd
ff ea
bbebe bbbc
ccc bccc
ff ebbc
bbbe ebec
ecc edbd
bbec ded
bcc bbdc
ec bbebec
eccc eec
ff ac
ecc bcbd
becc df
fed ef
bdbc ebe
ff ded
ecbe bfc
debc df
ebc bebbc
dc eddc
ecc bedd
edc ba
ebc ecec
bdbe dbc
dcc fbc
bbebb bbbbc
bf bcbbbb
bcbe ba
bbf bebd
beec ebe
ebc eebe
bbbd dbbbb
ccc dec
bedc bec
ed eebcc
bcc fbe
def dbe
bdbc ef
bcec dec
bbf ded
dbb eced
ed eeebc
bdc beee
dbc fcc
bf eeef
ecbe bbcc
bbbd ebf
bcc beed
eebbbc cc
bbebb dbe
dee fcc
bbc eebe
bbbc bebd
ecbc ebd
bd dbbcc
ecc febb
bc ebfcc
ebdc dd
ed bbbdc
dc bfcc
bebe bbbf
bbee bbebe
bf debd
dbd bef
fec bbd
bbbd bbec
becc ebd
ed bebdc
bf eeed
fbc bef
eef dec
eec ac
bf fdf
ebc bbfc
df debb
bbbc fee
bbed ccc
bfc beec
bebe bbbbc
bdee fc
eec bebf
fdc fc
ecf dec
ecc debe
bf ebfc
f ebac
eeee eeebe
dbf dee
bbbb bba
eeee beebe
bbbbbbbb bbbbc
dbb ebfc
fbd ebe
bbc fbbc
bbee bbcc
bcc fbf
bbbb febb
bec fbf
bbd bebbbb
bebe ea
bfc ebbc
da bca
ebc eebf
ecc eddc
bdf dbd
eef ebbc
df bccc
ecc bbdc
eebc dee
bcc ecbc
bfc dcc
ebbee beee
bcbc dbc
bcee bdc
ed dbecc
fcc dec
beec bbbe
ebb efcc
ed bac
ebc bbebc
dc beebc
ebc eedd
bbbc edc
def bbc
bf bded
fc bbef
d ebe</w>
df bebd
bcbc ff
eef edc
dc efcc
ecc ecec
ebc eeed
ebcc bbbe
fba cc
ebdc ebe
ec ebfcc
eebd bbbb
efc dcc
bdc bbcc
eccc edc
ebf bbbf
fee dcc
ebcc ff
fec bebe
dbbc ef
ebd da
dc bdbf
fbe dbf
ebf ea
beebb ef
dbc beec
fc decc
ebb bbebbc
a bcec
bdf edc
bbec beec
bbea cc
bebd bebc
bdbc bec
bbbbbbbb bbbd
a febb
df bcec
dbf ba
ebc dedc
ebb dccc
bd bbebbc
ebf efc
fbf ccc
bf dbbf
bbef bbc
eec debd
ebbc bef
dc bbbcc
bbbc ded
bcee efc
dc bdec
def bec
bd debec
ebbc bbebb
ebc edcc
bbbe bebf
dbb ecee
ebd decc
ebd bbbbc
ecccc ccc
bbee dbd
dd febb
fbc ded
dd bbbbc
eccc bec
ebc fdd
bbbe fbd
bbbb fcc
bf bebec
bbbb bcebb
bbbe bccc
bbbe ded
ebf fbd
ac dee
dd ffc
bbee bcbc
fec ebe
ebb edbf
a ebcc
dbf bbd
bbee dec
ef bebbc
eec febb
bebc bbec
dbe ea
eebe bfc
dbc efc
bcec bcc
ecf dee
bbcc edc
ebb fdf
bbbb bcbe
ebd dbec
ee be</w>
fc ffc
fbf bbc
bebd bebe
bf bcfc
bcf ba
dd edcc
ed bbccc
df def
fbc edc
bbbf ccc
dc fbec
bbed bbf
ecc dedc
f dd</w>
be bbb</w>
dbb bdbe
dbc ba
bec bedd
ecbe ebbc
beec ff
fbf ff
ecee dee
ebcc bbd
fbf a
fdc eec
dc d</w>
fbc bcbc
bf bbeec
bbc fef
fbd bcc
dbc bbcc
ef eebe
dbe bcbd
dbbc ebe
ed eebbbb
bef eeee
ebf bbebb
bdf dec
dc ddcc
dbb ebbebb
ec bb</w>
fbe efc
bef bbcc
fec fec
dc bcbbc
bef efc
bbbb bcbbc
ebbee bebe
bf decc
bdee ccc
ed bedbc
debb ebd
dee ded
dcc fcc
ed fdbe
ed fedc
ed ecebc
bbee bbbf
bcec eec
debe ccc
df ecbc
bf fbcc
bbd eeebb
edc beee
ebe fdd
dbc ddc
df eccc
dbb bdbbc
ebc bbbec
eebe dbd
bbbbc ef
ebb ecbbbb
dbb ebbbbbb
dbe eebc
bbec ebbc
bbbe eeee
bebc ebf
df bcbd
bcee bbbc
bbbe fec
bbf bebf
bebe dec
dbb ecf
bedbd cc
dbc debb
ed ebccc
bcee bbd
ebec ff
bdc bbed
bcbe dbf
bbebe bec
bbdc fc
ee eb</w>
bdf dcc
a bebf
dbb dddd
bbbd ba
edc fdc
bdbe ff
ebcc dee
ebdc fc
d ebd</w>
ef dbcc
ecc deec
bf fbec
bdc eebd
bcec ded
bf bcebc
edbc ebd
bc bbbbbbbbbbbb
dbc bebd
bbcc bebe
fee bbbc
bcbc bebe
ac bbbb
eec bbdd
dec fec
bbf becc
bcec ebc
bdec bec
bced dee
bd dfcc
dbe efc
ac bcc
dbb ecdc
bf beebc
a dbbc
df ebec
ed ecfc
dc feec
bdbc bbd
dd bedd
fbd dee
ecee bdc
ecbc bbd
bbc ecbd
bbbe bebbc
bcee bbec
ccc ebd
fed dee
dbd ba
bbee edc
bccc ecc
ebdc ebc
bbef ebe
eef bbebb
bbed dec
bec febb
ecbc dec
ec bbbecc
bbbc dcc
efc bfc
ebb ebecc
bebc bbbd
ed dea
ebd dbbbb
ebcc dbc
ecec fc
bebbbe bbbb
d ebc</w>
bdf bfc
bcee dec
efc fec
fcc fcc
ed dfcc
ec bbebcc
bbbc debb
bbbbc fc
bbebe bbf
bebd bbf
df bbbf
beee beebb
bbc eccc
bcbe ded
bbbe eebc
bbbe fbe
bec decc
be ebac
ebb bedf
bbbd ded
bbc bedd
f dedcc
bbc da
df bbed
bc deccc
bcc debe
ff fbe
bcf bbcc
bbdc eec
def ef
bbc bba
bf bbebd
ebcc dec
dbbd bbd
ebb debf
ebb dbbee
dcc ddc
bbbbc a
dd bebf
bf bcebe
bfc bebe
dcc ebf
eebf a
bbebb ccc
dbbc bbd
bb a</w>
ba eec
ebcc bbf
ecbe bbec
dbc bbed
bbef ef
df fdd
ebb ecebc
ee bc</w>
fc bbdd
bcbd ef
dd bced
ea bba
bbdc a
fed ff
dbc fbd
bebd bcc
ebe bea
ed fccc
bcec bbbb
df eecc
bbdc ebc
beec bbf
beec ebd
ed eeecc
bec bbebe
fcc bbf
bd bbbfc
dc eddd
dee becc
ee bbebdc
eebc bebc
bcf ded
ddc edc
bbbe dfc
debc eec
bf ecebb
bdee ecc
eebd ecc
bdee dbe
ed eebec
bebd ebd
ccc bbbc
bccc ef
bbec dbd
bcbc ebd
beed a
bc dcccc
fed dec
fdc ff
ebbc ded
bbec bef
bbc eef
ebe fbbc
ebf becc
bc bbac
ccc bbf
debc ef
ebc dbbbb
eebe dee
dd dccc
fea cc
bfc fee
bdbe edc
bebe dbd
ecbe dbf
ebc bcbf
bd dbbbd
bcec ef
dbc dbf
ebb bebbebb
bbc ffc
efc fbc
bf ecee
dbc eebc
eec ecbd
fcc ebd
bebe becc
bcf bbbd
bdc eeec
bd dbecc
bbd bbebc
bbbb fbbbb
bcc eccc
bfc bbbd
ebe bcbbc
bec bebbc
efc dbd
f bf</w>
ebb fdbe
bebc fbc
ea bbee
bfc bbee
eecc ebd
bbbc fec
dbb c</w>
fdbf cc
bec fdc
bbc dbbd
bcee bbee
ee bd</w>
eeebe beee
bbd eedc
ebe dbcc
bf eba
fed dbe
fc fbbc
bbec fbc
bbbb ebcc
bebf a
ecc ffc
bebc fec
ff bbbd
ebb eddd
bdc ebcc
bbbc ebec
ebc fef
edc bbcc
bbec bbbd
bf eebbc
ebb bbba
bbd ebdc
bbbf bbbf
dbb eba
fcc fbc
bdbe bbbd
df beec
bebe beec
bbc b</w>
ecc eeed
ebe bbbcc
ebc fbbc
fc bedd
f de</w>
dd beebb
bedc eec
acc a
ba ebd
fcc bbbb
bec eccc
ed debec
bbbe febb
fc eeee
eebc ebbc
f bbeccc
bbc ecec
dec bcbc
bec bbdd
bcbe bbed
dbb ebbcc
bf b</w>
dbf ebd
bc dbbdd
ba dbd
bdbc ccc
ebb ecbec
bbbe bbdc
dee bbed
bec da
ecc dbbc
bd dea
ebc febc
bdbc eec
ebc edbd
ed ebbebb
ebb bac
dc e</w>
bc dbbebb
bebe bebd
bbec ebf
bbbe efc
ed ecbec
ded ddc
bbd bbfc
bec ac
bbed efc
bcec ebe
bdc def
dd debd
ebbc bbcc
bf eced
dc ecebb
bbd bebbc
beee bbebe
ff def
bbbe bbebc
bef bbbf
bcc eeee
dec debb
fef a
febb ef
bbbe dbbbb
bdbc a
fed fc
bbc bcdc
bbbbc dbe
bcc dbbc
bbebb eec
bbbbc bcbc
edc debe
bccc eec
edc beed
fcc dee
bbd bba
bbec bfc
ebd fbf
ecbe bbbd
eef bbcc
dd bdcc
bbd bced
eccc ef
ee dbbdd
bec bbebc
dcc bebe
ed dba
fbeee cc
bcc dfc
fbc bbee
bbebb ebf
ebbee bbf
be ed</w>
dc eeef
bcbd df
fec bfc
fee dee
ebc dbcc
ebb eefc
bec bced
bbef bbf
ecf bebc
beee beebe
fef ef
becc ff
bebbbb bbbc
ebd beebb
ebe fa
ecec ecc
eeebf cc
bcc beebb
fdc a
ebe eedc
eba a
ebe bebbbe
dec ddc
ec bbea
be ee</w>
bbbb eeebb
ebb ecebe
bcbd bbc
bbbe dbbc
dd ecbd
edc deec
bdf bbbc
be ec</w>
f debfc
bbebe ef
ded bef
bbbd bdbd
ee dbbbf
dbe bbbf
eebc bebe
bcbe debb
dbe dbbc
fec bebc
dbe bcec
bbebb ebbc
ed bebbf
bebd ccc
ebe dbbd
bcbd fc
dbb bdec
ebb bca
bbbbc bebe
ed ebbbc
eebebe cc
edcc ccc
ecbc dbc
ee dbbebb
bf bea
ebec dc
ebf dbf
dcc bbbe
bcc bebf
bbc eebf
bdbe dbd
bbbb ebbbbbb
df bcee
bc bd</w>
bf fbbf
bec bcee
ecc bcee
bdc beed
bec bbef
dbb e</w>
fbc efc
df dfc
ed eeccc
fef ff
a eca
ec bebecc
bcf ddc
ebe ecbe
fbc ebbc
fbc dbd
bbbf bbee
fc dedc
fbbcc cc
fec ebd
dd eeed
fc ecbd
eebd eec
edbc ccc
eebd edc
bcbbbb bbbc
fc bbebe
eef bbec
ebb e</w>
bbbb b</w>
dec bbee
bebc bef
bccc bbc
a dba
ebc ecbe
bbdc dbe
ea dbc
bbcc bcbc
bbdc bbd
ebcc bbbc
dee bbebb
bbcc cccc
bbdd bbd
fc bcdc
bfc fcc
fbd bbf
df bbebb
bcbbbb bbc
bbbe bcebb
bc be</w>
fed bf
ebc beebe
bebd ecc
ecf dbd
becc dec
ea fee
bc fbecc
bbef ff
ebbc beee
dc dbbf
dbf dbc
bdbc bcc
beed bbc
dcc eecc
ebe deec
bcbe efc
bbf ebec
def ff
fc bbebc
bbed ff
dc eeebe
beed bbbb
ebb beeec
ebb beff
bd debcc
dc fdf
dbf eec
bbbe bbbec
ecc bbebb
bbebe a
fcc dbe
eef bbbd
bf eedd
fbe ded
bbfc bbbb
ecbc edc
ebdc a
debb dee
bfc efc
ebd debd
eebc fbc
ebd ac
fed dbc
ea ebc
debe a
eec eeee
eecc df
fcc bdc
bdf bebe
bbec bbebb
fec dbd
ccc bbd
dc ecef
ecf efc
bfc ba
eeed dd
ef bbbec
eef bbbf
bbbbc ebc
bebc beec
debb ecc
bebd dbc
bbbbbbbb bbc
bbbe bcbd
bbdc dee
bebe bebf
bbbd dec
ebb beecc
bcc ac
dbf bdc
bebd bbbc
ff bccc
ebf ded
ef bded
ecdbd cc
ebf fbf
dbec dd
eedc dd
ed fbbf
ebdc eec
ec feecc
dfc dee
bfc fec
bbc beebe
bbd bedd
dcc bbbc
debc dd
bf bdee
dbbc fc
dc bcebe
beec ecc
deec bec
da fc
ef dbbd
ebbbc bbbe
ebe bedd
dbb edcc
bccc bbbb
ebec bebe
bfc bbef
ff fdc
bbdc df
debb dbc
bbd fbbc
bbed dbd
bbbb eeee
ddc bbf
bc eb</w>
fef ccc
debe bec
ac bbf
ff eeee
bbbe bbef
efc bef
ecee bec
beec bdc
becc becc
bbbd bef
bbebb beebb
ded edc
fbe bbebe
ebf bebf
ecbd ebc
eef dbf
bbdd a
bbd bcebb
bf bdebb
ea bdc
ebbc bebd
dc fbcc
eec dbcc
bedc ef
ecbc bbbe
bbec bcbc
ebf fdc
dbbc a
dbe ebec
ed fbdc
ebd eeee
bbcc bbee
debb bebe
bc dbbed
bfc edc
bebc dbd
bbbc bcbd
bced df
eebd ef
bc dedcc
ee dbbed
bf edbf
ebc dbbd
bbebe bcc
ebb bbbfc
dee bcec
ba beee
ecc bbbf
ebf bebd
ebe eba
ed bbebf
bebf fc
eeebb eeee
bbbd bbbbc
bbd bcbe
ebd dbbd
dc eebbc
debd dd
eebd ccc
dc bcfc
bedc df
eedbd cc
bbbc eebc
eecc ebe
ecc fbf
eebe bbef
bebbcc cc
dc eded
ebec fbc
edbd dd
dc bbeec
ecbc ff
fed bdc
bebe dcc
debb ff
bccc bec
bbd bbbec
beed ccc
bbf eebc
ebd ecbd
bbbd fbc
bf ebbcc
bbee dcc
dec fee
be dedcc
bba bbc
ecc fbe
beec beec
becc bdc
bebc eebc
bf bbbbbbbb
ef dbbbb
ecf ebbc
bbcc ebf
bbbbc bbebb
deec dd
ba bef
ed ecef
ea ebf
eedc fc
fcc dbc
bbd eebe
bcbf fc
a beebb
dbb bfcc
bbbc beebb
edbc ecc
ded bbbe
bcbd dee
dbbc dee
ecec dbe
ee dedcc
eec bced
ea bebe
bbebb ff
eef bbef
bdbc ebc
bdbe dec
df da
fbd dbc
eec eedd
efc fee
ded bebe
fdd ef
eec bebbc
bcc debc
bdbc dbe
bbebb ebd
febb ebe
bcbbbb bcbbbb
bbf bccc
dbec bec
debb bbbd
bc dbbbf
bcc bbef
dec def
bbbb bdbbbb
edc ecbd
ebd edcc
ea bea
efc beec
bcbd a
dc dbbbe
bcbbee cc
bbbb bbfc
ebdc ef
bebc bebd
bedc a
df eebc
bcbc bdc
bbbf bfc
ecbc bdc
ebb d</w>
dbd bfc
bedd dd
fbf dd
ac ebe
bbed bebe
bbf fdc
bcbe ddc
ec dbbbd
eebd dbe
bbbec bbc
eebf ef
fbc fcc
bbbe fcc
bcee dcc
bcbd bec
bcec a
ebb ebccc
bbbd beee
ebbc dcc
ea bbd
dbb bdbbd
bdcc ccc
dbbc dbe
bedbf cc
dfc a
dee fee
ed bedee
dc bebec
debe fc
eedc a
bf bbecc
bf bcdd
ed ecbcc
bba bba
bf bcbec
dc bedbe
dbbc df
bebbbb bbebb
dfc ef
ebe ecdc
dbf bbbe
bcc bbdd
bbed ebd
dee efc
beebe bebe
bbcc dbd
bbcc dec
eccc bbc
ecbc bebc
ebb ecef
ebdc edc
fbe ddc
dbb bdf
ec fbecc
fbd ebd
ebdc ebd
fbe bbef
dc ebbcc
ac ebc
ee fbecc
eeec dec
ebb febf
bedc dd
ebf ebcc
ea bef
bcbebc cc
ac ff
eebebc cc
ba fbc
ecc eeee
bbed bbbc
ecbc bbbc
dc eefc
eef ddc
ed ebbbf
bf ebbebb
ffc dd
ebc febe
beee bcbc
beef a
bdee bcc
fc ecec
bdbc df
dc febd
febb bbc
dbbc bcc
debe bcc
bccc a
dc edbf
fbf df
bbbb ddc
dcc bfc
bbbd bbdd
beebe a
ebdc bec
fcc eecc
ed deccc
fbd bbd
fbd bdc
eedd dd
bbcc fbc
dbd bbec
dbd bcbc
bef bebf
ecc bced
dc bbebd
dbbbb dbbbb
bbebb bbbf
bf dbbbe
fef dd
bf bebcc
dbd debb
eeebe ef
bdee df
bcee bebc
bcee ff
bbbc bbdc
bcf bbbf
dbd beee
beec bebe
ebdc bbc
dcc efc
bbbd bebd
eebc ded
eeebb bbbe
be bbeba
ebbc efc
bbf beebb
ba fee
ebb beebf
bd dbbdd
bf bdec
bc db</w>
becc fec
ebcc ebf
ebc bcdd
eebc bbee
dbc fed
bf bddc
bbdd bbc
bbbd bbed
bf fdbe
ccc fcc
bbf febb
bbdd dbe
ebcc fbc
bcf ea
fc fdd
ee bbeccc
bbf ddc
fbd dec
bbd eeed
dc bebbbb
bec ecbd
bebd dec
bbbc bccc
ebb bdef
ebd bedd
beed dbe
dbd fee
bec ffc
eeec ef
ebc bebbbb
bbee bbed
ecc bebf
ed bedcc
dc beecc
bebd ff
bbbb bcec
eecc bdc
dd dcdc
be debfc
beec bfc
dbc bcbd
bbbb dbbd
eeebb ef
fc bebbc
ed fdbc
ed eedbe
bf bebbbe
ebec bebc
fbc bbec
bbcc bebc
dfc bbc
ecdc ecc
ecbe ded
ebb fedc
bbcc bfc
bcc eeed
decc eec
ba bbbf
bdf efc
eeec dbe
fc dbcc
ebcc bebe
bef ddc
bbebb bbec
dbbc bbbc
fcc bfc
dbec df
ecec dec
ebbc debb
ebb debbc
bbf bcbd
bcfbc cc
dbec ef
ec dbbbbc
bcc febb
beebb bbee
becc dbe
bbbb bcbf
bcbc dec
edc bbed
fcc efc
fbc fee
beec bbec
ecec dee
bbbb debe
edc bcbd
bdc bcbd
ac dbe
bbebb beee
dbbc eec
da bba
bbcc bef
ebbc fee
bdbe ebf
dc bdef
ecc bcdc
fec bbbc
eebc ebf
bebf ef
bcee ebd
dc bdebb
dbbc ebc
be bbebfc
bbbe ddc
ebe ebbebb
bbbd debb
ee dbbdc
bbdc bcc
be dd</w>
fc debd
eeebe bebe
eeec dbc
bccc ebc
bbbd bfc
ecee ddc
beee ebd
ebe dbb
dfc dbe
bdbc dee
dd fef
bbc fdd
bbbd ebbc
fec bbbe
dcc fee
bcf ebec
ea bca
ebb c</w>
ccc dbd
bf ecbbc
ba bfc
eedc bec
fbf bbf
dcc bef
dcc fed
bdbc bbbc
bebc debb
fcc ded
ecee dbd
ebd bbebe
ea beee
eeee bec
eecc dbc
eeec bdc
eeec fc
ed bebbbc
bbbe ebcc
ccc ded
ebb eded
bdbd dbd
bf bdf
ea bbbc
dbf dbd
edc edcc
bcee becbbec
ff bbbf
eec ffc
ebdc ecc
bbbd ecc
dee bcbd
edbc df
ec bebccc
fcc fed
bbc ecbe
bcbe bbbf
bbef fc
dd bcdc
ed ebbbd
bbee bbbbc
eec bbebe
eeee bbbc
edbc bec
ebb fbbbc
ebe decc
dbbc bbbe
ecbd fc
dbf ebf
fbe ebcc
bcbe bbbbc
bbc dbcc
dbf fbc
ecbd ecc
eccc ebd
dd ecdc
bef beec
a bbdc
dc bbecc
fec beec
dee bccc
def bbf
dc ebecc
bbbb beed
bef ded
ebbc bbbf
bbebb df
ebe bcbbbb
bbed bbed
eeec bbbc
beba cc
def ebc
a fef
ed fbbbe
bbfc fc
efc bbbe
ff fef
eecc dec
beebe bbbe
bbd fdd
eebd dbc
ef bcef
bbc beef
ebbc fec
bbc febe
dc bea
a bbebe
bbd bddd
debe bbbe
ee fbccc
bebd dbd
bdee ebc
debc ccc
bbee beec
eef bbebe
dbf da
bbbd bcbc
bdbc bbbe
bbef dbe
ed eedf
bbbb ecbc
fbc fed
ac eec
eef ded
beebb bbf
bec dedc
ba bebc
bf ecdd
bbc dbb
bedc ebc
ed eac
ebb dcdc
bf ecef
bbd bcbf
fbd ecc
bbbbbbbb bbebb
fec bcbc
ebbc ebec
bbbc bbebe
ebb bbedc
dec efc
dbe fbe
ef eba
ed ececc
bcc bbebe
ebbc eebc
bcbbcc cc
dbc bbebb
bbbc becc
a dca
ea ecc
beebe bbee
debb bdc
ebd bced
ecf bebe
fc befc
ba ac
eccc ebe
f dc</w>
ebec dbd
fbd fbc
dfc bec
def ecc
eec bdbd
eeed a
beed dee
fc bdbd
ccc bcbc
beee bebc
bbbf dbc
fec fbc
dd ecec
eec fbf
bcee edc
bbc bebec
ecf bef
debb bebc
fdebb cc
eecc dbe
bdec dee
ebdc dbe
eeee beebb
fdc dec
bf dccc
beed dec
efc bcbc
ecee bbf
bebd bdc
ed eebbd
ed acc
ecbc bebe
ebec bbee
bebd edc
ebec ded
ed dbbcc
ec bbbccc
ebbbc dbe
debc ebc
ebbc beec
ebb dced
ecf bbec
bbbb eebd
becc dee
a fdd
df bbdc
bbcc fee
a bbef
eced dd
bbed bdc
dbf bbbc
dbb bb</w>
ecc dbec
eced ccc
dbf edc
eebe dec
bbbcc bbc
bbcc bbbd
bbbb bcee
bec bbbec
eec bcdc
fbc dcc
bec bcebb
debc fc
dc bedf
bbd ecbd
dcbc ccc
bbed bebc
ebdc df
bbbe bcec
bedc fc
bdbe bbec
ebe ecec
bbebb bef
debb bbee
dbf bfc
ebc bdcc
eebe ddc
ebe edcc
ebf beec
ebc eeebb
fee ebd
debe df
ebb ecfc
dbb ecbbc
bc feecc
ebe ffc
ebbee dbe
becc eecc
efc edc
eeee ea
bbd fef
bcc bced
ef edcc
def dee
ba bbebb
dd bbebe
dd eedd
fec bef
bbbbc bbee
bdbc ebd
bbbe fbf
def bdc
bbebc bbc
ded bbbc
fcc bebe
bccccc ccc
bbbf bbbd
ebe debd
bbd bbebd
eeee bdc
ec be</w>
bdf bbee
bdbe bbcc
bebf bec
debc bbc
bf bebbd
fbe bbed
bcbd dbe
dc bcebc
ebf debb
fdc dee
bcbc bbec
dbc eebd
bcbcbcbcbcbcbcbc bcbcbcbcbcbcbcbc
fc eeed
ecc bbdd
bd ebdcc
dcc eebc
dcc bebc
bebbebb cc
bbbf bebc
ef dbb
dd edbd
bac ba
dd bddc
edc ffc
f bbebfc
debe ebc
bdf bef
dec bbbd
dc eba
edc dedc
dbbd bbc
eedc ecc
ee ec</w>
eeec ebc
decc ccc
dbe ac
a bcbf
def bbbb
bba bbbe
bcc fdd
becc bbf
bec debd
dec ba
ef befc
beebe beee
bec eedd
bcc ebdc
bcbe ebec
bf fecc
eef efc
becc bebc
bbfc bbc
ebb fbebe
ded bfc
bebbbd cc
dec fcc
beec dbd
bcee dbd
bbbf bbebb
bf dbdc
dcc bbee
dbc ebec
bdec df
dbbc dbd
eeec eec
dbe beebb
bcf beee
bbcc bbec
bbbd bbbbbbbb
fbe bbbbc
ebb fbdc
bcee bebe
eebc dbd
bb ef</w>
a eecc
ef ecdc
bebf bbf
dbec eec
ebe bfcc
ef bea
bbdc bdc
dd bbef
bbbf ebf
fc ecdc
fbd bfc
ecf ddc
bcec ecc
ecbd ccc
eebd ebd
fdc ebc
dbec dee
efc ebf
eebd bcc
dbbc bbf
bebbc bbc
ecec bbbb
bbdc ff
a ecbc
eccc dee
dec deec
dbec bbc
debe dbe
debb edc
bbdc ebd
bdbc dbc
ecee edc
bbed bbec
eebc bbec
dec beed
bbd eebf
ebec ebbc
fbd bebe
ecc fecc
eebc bfc
edbc eec
bbbe eeebb
ef debd
ff fed
ebe fbbbb
ef b</w>
bf febd
ebc bbbcc
bcee bfc
bbee ea
be defcc
eeee beef
bcf bbebb
bec bcbe
dfc bcc
fbd edc
eccc dcc
dbb bfbf
def dbc
debb dbd
eeee bbebe
ed ecbbbb
bcdd dd
bdc ea
fc bcbe
bcec dbc
bcbc dbd
ebcc bfc
efc bebe
dc fedc
ecbe bbebb
a eea
ebc bcbbc
bdc fdc
eecc ff
ebd ffc
f bbb</w>
bedebb cc
debc dee
eccc df
ee db</w>
ecf ded
bcbc bccc
becc bbd
ecf bbcc
dbb ecdd
eeed ccc
bac ea
ef bcbbc
eedc df
fcc bbd
ef bbeec
bbdd bbbd
bbc debd
ecbc fbc
fec fed
ecee bbd
bf bca
beebb bbbc
bec fbbc
bbfc df
bcbd ebe
eccc a
ecc ecdd
bbed ded
bf eddc
ebf bccc
bcbc bef
bbbb fbbc
dbbc dbc
fbe bbdc
deec eec
ebec dcc
bcee ebbc
febb ff
ebec bbec
bbf bbebe
bbbb ac
ef bedd
f deba
bbbbc dbc
fec becc
bbbbc bbec
bbbf ebd
ebb dbfc
bbbc fbd
edc bedd
bbdd ebe
eeee ebeebe
ed fdee
fbf bcc
bbebb bebbbb
bec bcbf
dec bebd
bcdbd cc
ecbe ba
fc bdcc
ea eec
beec becc
fed eec
dee eecc
ef bbbcc
bc dbbdc
bbbd bbcc
beee ebbc
dbf bebe
eebc dcc
dd dbdc
ebbbc bbf
bbdc dbc
bef beebb
fec edc
fbd dbd
bced dbe
fc bcebb
debe bebe
bebc fee
ee ebac
ebf beebb
bcbc bbee
bbd bcbbbb
dc eeebc
dcec dee
ebe bbebd
ebe bdbc
def dcc
bbebb bdc
bbbc dbbbb
ebbc ba
ebcc bbee
dd eeebb
ebc beef
bef bbef
bbbe bcbe
bec bbfc
fec ba
ebbc bbed
dc ecebe
dbbbe bbbb
fec efc
dc bdf
dc fdbe
fdef cc
dbe fdc
ebc befc
bc dbbebe
ebec bcbc
dd eebf
bc bbb</w>
fbc ba
ebd cccc
fcc ebf
bcf ac
dc bcbbbb
dc debf
bdbe bfc
bcc bdbd
ecc febc
bd f</w>
bcc eeebb
bcc ecec
df dbbc
beec bcbc
eeebe a
bbd ffc
bbbc efc
ebe bcebe
beee ea
eeee eeef
dc bebcc
dbc becc
edc febb
bebc ba
dee bebd
fcc cccc
dbbd a
edc bccc
fdd bec
def bf
ecbd bec
ed bbbbbbbb
ec defcc
ebd bbef
dbec dbe
ebf febb
eedc eec
bbd febe
ef decc
fee ea
ecbc bbec
dc fbbd
bdc fbe
bbbf eec
dc bcbec
ed ebbed
def ebe
dbbbb bbf
ecbc ded
bbebe bbebb
ec fbccc
ef fdf
dcccc ccc
fee dbd
bebe bccc
bebc becc
deec dec
fbbbd cc
ec bbeecc
da ba
fed ded
bebc bbebb
bfbc df
bfc bbcc
bebd bbee
dbb edbf
bdbc bbf
a bfa
bef bbed
bfc dbf
bdc bbdc
be deba
bbbf fbc
debe ef
ebb fccc
bbebe beee
bf fccc
ebb fbbee
dfc ebe
ebf ddc
bbef bec
ebb fdbc
ec dbbdd
eecc fbc
ccc bbbe
ecf bbee
becc bbbe
bbdd df
ebf fbe
dbb ebbbd
fee eec
ebb bedbc
ebec bbbd
eeee eeebb
bcec bcbc
bdec bbc
edc eedd
bef debb
ecc debd
dd fbbc
dc ecdf
ebe eebbbb
ebe ecbf
ebd bcee
febe a
dec dbf
dee debb
ecec dbc
ecbd df
ebb dddd
bcf ebcc
bbf dbbc
dd eebe
ebc bba
fbf bec
dbd dbf
edc ecdc
ebe befc
bced bbc
fc eef
bdc bbebb
bcbc bbbd
ecbd eec
bbbbc df
fef df
dbb eddd
ebd ecdc
bf eebbbb
bbd bdcc
bbf fed
bbf ebcc
beec debb
debc a
dbd bbdd
dbb bdebe
efc ebbc
bbebc bec
dbe febb
ff bbef
bbee fbe
bf efcc
bbbc dbf
bef bebd
ebb eac
eeee bbebb
ee dbbebe
ba bda
ed bedbd
beee bbbd
ecbd bbc
ebc eef
dc fccc
bbec debb
dbe bbebe
fee bcbc
dbd ebbc
dbe bbdc
ecc eebf
fee bbbf
ded becc
bebc bbcc
da df
bcc bcbf
ebd fdd
dbe debe
efc becc
debc bbbb
eeebb bebe
bbbc bebbbb
eeee fc
dd bcdd
bf bdef
ecc bdcc
ecbc dcc
ec eb</w>
ebf fef
bcf def
ed ecebe
ebec edc
bbf ac
bc dbbef
ebe ecebb
ecbc bbee
bcec beec
bdee dbc
bbef df
dbbc ff
ef ecbf
bbcc dcc
eccc dec
ee ed</w>
ccc bfc
efc ba
ed eca
ecbc dbd
bbbf dee
eebc eebc
bedc bbc
febb fc
dc bcdf
bf bebbf
bbbb bebbbe
ed efdc
bcc fef
beee eeebe
bcebb bbc
dc ecbbc
bbd eef
eebe ebcc
bbbf bef
ecc bdbd
dbc debe
bcc bedd
eeed df
dbe beed
bbf def
ed beff
ef ecbe
bbd bbbcc
bbed bbee
fbc fbd
bbd d</w>
ebbc bbbbc
a dfc
dbe bced
bbbb bbebd
bbbf bdc
bbcbbc bbcbbc
bec beebc
bebe beebe
bdbc dbd
bbed bbbd
eec dbbd
bf bac
dee eebc
dc eedbe
eebe bba
ba bbec
bfbc ccc
fee fbc
bcbbc bbc
ebd bebbc
ebc eced
ebec bfc
bcbc ded
bebe fcc
ebc ebfc
bebd ded
bec dbbbb
bbd beebe
debe bdc
bea a
fbe dbbc
dbd beec
ed bedbb
ebe bcef
fec ddc
bcbc bbcc
edbc a
fbbbf cc
bcee fbc
fee bebc
ebbee bbebb
ebb dcbd
ebbc eebd
fed dcc
dc bdbe
eec ecdc
fed bbbb
bedc dec
ec bbac
bbc dbfc
bdee bbf
bf e</w>
ff bbebb
bbbc dbbc
ff becc
ebf eebc
bec eeed
bf bdbe
bcbbbb bbbe
bbef bbee
ba edc
fbc debb
ef eeed
eec eeed
edcc ecc
bdf bebc
ecbd dee
beed dbc
bd ecccc
febb bbf
fec bbec
ff cccc
ebe beebc
dd eef
ebbc fbd
bbd ecec
ecbe ebcc
bbbbc bebc
dbbbb bbebb
eeec ecc
df bced
bbd bcdc
dc fbbbb
ded bbcdbf
fee ddc
ba bcbc
ecee bbbe
eedbf cc
dbb ebbbc
bebe bebbbb
ef bebbbb
bcee bcbc
bebbed cc
eedc ebc
beee bbec
ded fbc
ecf ebcc
bbbb beebe
bbee dbf
fed ebc
bebf bbbe
bbebe fc
bbbec bec
eebe ac
fcc bebc
eeee ecc
bbcc fec
df debe
bba dd
bdf ebbc
dbc def
debb dec
bbd bbeec
bbdc bbbc
ec dbbbf
bbdc bbbe
bbee bebd
eeec dee
bd dbbbbc
a b</w>
ccc fbc
fbbc bbbb
ebb bedbb
bbd cccc
ecbf fc
dfc ff
eebe bbbbc
bbef bbbe
ef febc
eebd bdc
ea dbd
fbd bbbe
ebe eea
eebd bbf
ba dcc
bcbd ebc
bcbeee cc
bcbe bbebc
eeec bbbe
bbbd edc
beebb bec
bcee beec
ef ecec
beebb ebc
bbd bcf
ed ebbbbc
ed bbebbc
dc bebbd
bebc efc
dbe ebcc
fdd eec
debb ebbc
ebe edbd
bcec bbf
ebd dedc
bcec ff
ecf eccc
eeebb bbc
ebe bded
fc beebc
dbe fbf
dc bfed
bbbbc eec
bf eea
fbc beec
a debe
bf feec
dd bcbf
eebd dee
da bbbb
beed eec
dc dbbbc
bedc dee
bbec bebd
dc ecbec
edc debd
bbf fef
ba dec
bdbc bdc
bdbc ff
dbbc bebe
bbdd dbc
df ffc
ecebb bbbb
dc beeec
beee bbcc
bbebc bbbe
becc eebc
ee ee</w>
ea dcc
ddc fbc
bbdd bec
ebb fbfc
fee bfc
ebd febc
febb bbbe
ded ebf
dbd bebd
ebbbc bbbc
bf eefc
becc dbc
ecbc bfc
bbdd ef
ecee bbbc
fee dbf
ebd fbbc
dbe bcee
ebe bebbee
bbbbc dee
bef bbebe
fbd bebc
bcc eedd
bced bec
eeebe bbee
eecc eecc
bdbe bbebb
bbec fec
bebf ff
beee dcc
ebe febc
fbd fec
dc ebccc
bbec edc
bbec bbcc
bedc ecc
dbbbb a
bf ecbec
ebf eef
ec dbbed
bcf bbed
ebc eebbc
bd bbefc
ebd bcdc
bf ebbbf
fcc eebc
bcbd eec
ecec bdc
bcbc fbc
dc bceec
ef eedc
efc efc
bbfc bec
dd bded
dc eedf
bbf bcbf
bcbc ebf
bbd beef
ef dccc
edcc fc
ebe bcebc
ed bebbee
bebf bebe
ba bbcc
fcc dcc
da dbe
bbebb dee
bbebb dbc
bbfc a
bbee ddc
beed fc
bebbbb bebbbb
bccc dee
dbb ddbd
ebb ddcc
beed ebc
bfc bebd
ecc dbcc
edc dbbc
ebcc dbd
bbd fbbbb
ecbe ac
ef bcfc
bbbd ddc
dd bcbe
bfc debb
dec bbcc
ed febf
ff beec
ebd ebbcc
bf debf
bf fbbbe
ebe bbeec
eeebb beee
bcc deec
ded ba
eec fef
a cccc
bdf ddc
ef bdbf
ed ebbbbbb
dc beebd
febb df
ff bbed
bfc ebec
bcc dbec
bf bbccc
dbe bbbbc
bbbd bbbf
ebc bebec
dbb ebecc
a bcee
ebe eeed
fc ebfc
dbd fbd
ebcc fec
bd db</w>
bcc bcbe
fbe ebec
ebb ecbcc
dd dedc
ebbbc ccc
bfbc bbf
fee dec
becc bebe
bbbb def
bdee bbbe
ecbd edc
eebc bbbd
bbee bbef
bdee dee
bbec beee
debc dec
bcbc cccc
bcf debb
dac ea
bf bddd
bebc beee
ecf dbf
cccccccc cccc
dd c</w>
ebcc dcc
ed ecbbd
ebf bcbd
bbcc ebbc
bcec bbd
bcc bbbcc
ecbd a
ebd febe
febb ccc
ecbd bbbb
eebd ff
dcbc dee
bebe bebbc
debe bbf
bdf dbf
beebe ef
fbbc bbc
ebb efbf
edbc dbc
ebe bebec
bfc becc
beebe eeee
ebcc efc
ebc eddc
ebb bebbbd
ecc eebe
bbbf ba
da bbc
bdee bdc
eefee cc
bebe bbed
bef bccc
eef ac
a bdbd
ded debb
bbbd dcc
ecf ba
ebc ecdd
eccc bdc
bbbc cccc
beee dee
ef fbcc
ded ebbc
ebbee ccc
dbb bdef
bba ba
bcc eebf
bbd bcbbc
bbdd bdc
da bea
ed beebf
dbe eebd
ff debb
edc eeed
bbbc bebf
bbebe ccc
ebc bded
bbec dcc
beee dbd
ebe b</w>
be de</w>
eeec bbf
ebcc bebc
ecc eddd
bbbd fee
ee dd</w>
bbec becc
bdbe ba
ebe eebeee
dd febe
dec bedc
fec fee
ebf ac
df bebf
dbe eecc
ebf bbed
bbc fbbbb
ebd dbcc
bbef ccc
bcee bef
dd ecbe
bbbbc bbcc
bd ffcc
fbd bbbc
ed bbbfc
efc dbf
bdec eec
bbd bdbbbb
ebdc dee
bcbd ccc
da ccc
bec bdbd
ebd bdcc
dbd bbed
dec bbed
ecee bbee
dbec a
ded bbee
bbbb ebbebb
ed ecccc
ecee ef
bbc bdcc
fbc bbbd
bbc eedd
bcec bebc
dbc eecc
bdbe ebbc
bdee eec
bbbc fcc
bdec fc
ec bc</w>
ebf ebec
dc ecfc
bbbbc bdc
bec ecec
bbdc dbd
e ba</w>
bf bbebf
bf dbbbc
ecc beebb
bd bd</w>
dec eecc
edbc dbe
bcc eebe
bbbe bcee
ff ebec
ebc bcfc
bb ebe</w>
bbc befc
ff ebcc
bbc decc
bcbc bfc
febb eec
ebc fa
bbc bcef
ebe bdbf
bebc bbed
bc bbebdc
bdf bbbd
bbc fbec
ebb ecbbd
ebc dbb
beee bbbf
dee ea
bdbc bebe
ebdc bbbb
bec dbcc
edc dbec
ecc bbebe
ff bcbd
bbee debb
bbec ba
ef bfcc
bbd eccc
ebe eebbee
bbd bded
ed ecdf
dc ecebc
bdc bedc
dc eea
a beed
ecec eec
bcc bcdc
eeebb bbf
bbc bdbf
efc debb
ebc ecbf
ebbee ebf
bebbbe bbbe
ebd edbd
fc bded
bec fef
bec eeee
ecc eced
fc eedd
ebd bcebb
bdc eedc
ebd fef
ebbc becc
bbd febc
bdc dfc
bcc decc
bbbc bcbbbb
bf ecdf
bdf ba
bdebb bbbb
bbec fee
dbe ecbc
bbd edbd
beee fbc
ded def
beee eec
ebd eedd
df febb
ccc ddc
ebc fecc
ebec bef
ebbee fee
eeef a
fc dbbd
dec ebcc
bdbe dcc
bcbc dcc
ed eedbc
edbc dee
dd bcebb
bfc eebc
bbdc bbf
ebd eebe
fc bfcc
bebd bbbd
ebe dbbbe
bfc beed
bec bebbbb
eba bbbb
fbe def
fbe ecbc
dbf fcc
fc febc
ebf bcec
bbebb bbebe
bcbf bbbb
ebd eebf
bbd ecbe
bbee becc
bbbc beed
f bbeba
fbc eebc
ebb bb</w>
fbbed cc
eeec ff
edbc bcc
dee fec
bdf ded
efc fed
ebbc fcc
ecf ac
ef edbd
bec beebe
eeee dbe
edc bbdc
eebd ebe
bbf ecbc
bcdc dd
dbb eddc
bebc eecc
deec a
ed bedec
bbbc bbdd
dec bcec
ebbc dbf
ebf fed
eccc dbc
bbbe beebe
ddc fec
bcc dbcc
bf bdbbc
efc bbec
ebcc eecc
dbb eded
bdc fbf
dec ebec
bf dedc
bcc eef
ecec a
efbf beee
ecc bbbbc
bbbe bbdd
edcc eec
bcc bbfc
bccc dcc
dec fed
ecc da
bcee ebf
debc dbe
ef fbbbb
ebb beccc
dd eced
bfc fbd
ded dbf
bebd bebd
ef ebfc
dc defc
dbc beed
bbc bbeec
ed fbbbc
fbe ac
bbbc bbbcc
bbc febc
ecc ecbe
beec fec
bcbd ff
ebc dbdc
ecee eec
cccccccc ccc
ecec dcc
fc beef
bebe debb
bcbe ea
bccc ebe
bbc beebc
be bf</w>
dd fa
bef becc
bcdc dee
ebc beebc
ffc ff
ebf bbbbc
bcec bbec
bdcc eec
f ef</w>
eebc eecc
beec dcc
bcf dfc
fdd a
ebcc bbec
dc eebec
bbbec bbbe
bbbb bedc
fdc fec
fc eebf
dbd dbbbb
bccc df
ded bbbd
dc bdbbc
dbc eeee
deec dee
bef ebec
eedc edc
dc bbbdc
febb dd
dc bcbcc
ebb bebbec
dbd bbebb
ec dbbebb
ef beebc
ebe ebfc
bdbc bbbd
dc bbccc
dec beee
dbc dbbc
ebdc ff
fdc dbe
bdbd dbe
bbf eeee
ebe bcdd
bfc def
ebcc ebcc
ebbee ff
dbec ebc
a dbbbb
debe bbbc
ecdc dd
ded fec
bbc bded
ed dedcc
bd dbbebb
be dc</w>
bef eebc
dc bfdc
bdc bbdd
ebec ebf
dbbd bbbd
ef eea
bba bbbc
edc bcec
a bbdd
bbf bcec
ebd eeed
bbed bfc
bedd bec
ebbbbbb bbbe
bcbc bcbd
bbebd bbbb
ec dbbdc
dee def
bd bbebec
ebe ebbebe
ebc bfcc
eccc dbe
eec bcbf
bf bbbdc
ecee ebd
bcbc beec
efc eecc
efc def
fec dfc
ff dbbc
dbd fcc
bebf ccc
bdee bbbc
dec debc
bbbb fed
dbc bbbf
bdc dbbc
a bced
bebc dcc
ebcc ebbc
ef bdec
ebec bbcc
becc bbbc
dbbbb dbe
debd df
bcc bbebc
eebd fbc
dbf bbee
ebf def
dc bfbf
bbf bbdc
dec eebc
bf bcbcc
dbb ebbbf
ea ebd
dc eeecc
ef dbdc
ebe bddc
dee ac
dc fbbf
bbebb ba
eeebe fee
ebcc ded
bdbe ded
df fef
ddc bbbe
bbc eebbc
eeebe bbbe
eec bcee
bf bedf
ebb fbef
ff fdd
a ffc
edc ac
ebe ebbbbbb
eec bbef
bec bcdc
dbf beec
fbe dfc
fbd ebf
bdbc ecc
bbbc fbf
ebe bcfc
fc bbbec
eebd bbd
eebe bbed
bbc ebfc
bec bba
bbee beebe
ebe eebbc
edc eeee
bbec efc
bef def
df cccc
bbec bbed
bbf fdd
beee beef
dbd bbcc
bf ecfc
bdc bbbf
dbd fec
dbbbb bbbbc
ebbbc bcc
ebe bebcc
eec dbdc
eec bcbe
eebc fec
bbc ecebb
ecf ea
eec edcc
dbf dcc
bef beef
bdc deec
bebbc bbbe
beec ba
dc dbbee
eec fa
bbebb bcbc
ed bbdcc
eef def
bdc bccc
dbf dec
dbe bedc
fbc bbcc
bdc debe
eccc ff
ef bcbec
ebdc bcc
eebe efc
fc bcef
bbef bebe
fdc bcc
eeec bbd
ebd b</w>
ecbe debb
dbc bbbbc
ecf bbbd
dc bca
ebf eebf
becc ebbc
bbf dfc
ebf bbebe
ecee dec
bdc debc
eebeee cc
bbf debe
bbed ecc
ddc fcc
bdf bbec
eecc dee
fdc bbc
ebbbc bbd
fdc ecc
bbbb eebbbb
ebe eebbbe
ebe bbbbbbbb
eec bbfc
bebbc bec
fbd ded
fbd dcc
a fbbc
ef dbbf
dbb ecef
becc ded
ebe bbecc
ebec fec
bbef bcc
bebe bcbd
bbbe debe
bef ac
dbc ea
ee dbbfc
eef debb
bebbbf cc
dc eac
eeebb bbee
df bcf
bbebb ecc
eec bbebc
dbec bbbb
eec febc
ed eebdc
ebb dba
eeec dcc
bbbc ddc
fa dd
bbcc bccc
df edcc
dbb ecebe
ef bdebb
bbc ecbf
bcbd bcc
bbbbc bbbf
ed ebbdc
dee bced
ccc bebe
bedc ff
eedd a
ba da
fec ebbc
fef fc
becc fbc
bedebe cc
ef bcebe
bedc bcc
debc ff
ebd bbebc
beebb beee
bef ebcc
beec bebd
eeee bbd
eddd dd
bcbc fee
eec beebe
eebd bbbe
dbc cccc
eeee ebc
dbe bebf
ef bcdd
bec eeebb
df bcbf
fc fbec
ef bbebd
dbb ebbbbc
bc fcccc
bebbbb bbf
ecbe efc
bebe eebc
fbc dbf
ec dbfcc
ec ec</w>
fc beebe
debc ecc
ebbc ebcc
eccc eccc
bccc ff
fbf bbbc
dbe bcebb
bc bbeccc
ebe bdebb
eebe ebec
bfc bbbf
fed dbd
bdec dec
ebf ecbc
beec bef
dee cccc
edc fdd
bdee bbd
bcbe def
a bbebc
ed eceec
eef bbed
bfbc ff
ba dbf
dee dbbc
bc dbbfc
fee bbcc
bdbd bbd
bbbd dbf
beed bcc
bbbbc ebd
ccc bbee
debc bbf
bcee ddc
bbbc fbe
ebe bcbec
ecec ded
ebbbc bebe
eeee bebf
ebbc bbebe
debb ebf
eecc eebc
ebe eebebe
eecc bbf
bdbd bbc
bfc bbed
bdf bbcc
ed f</w>
df ecbd
bcbe bbebe
ef bcebc
bfc ebcc
bcbe ac
ebdc dbc
ebe bebbf
efc fcc
ed eeebd
dec fbd
ed bb</w>
bbbf dbd
fbbebb cc
eebcbc cc
ed eeeec
bd bbfcc
ebe bebbd
fbc bebd
dd e</w>
bf bcbbd
bb ebd</w>
debe ecc
dcc bcbc
bf ecebc
bbbe bcbbbb
dbec ff
ec ee</w>
bf edbc
dd febc
bbebb bbcc
dbec fc
bbd befc
df eebd
ebb dcbc
fec dbf
ffc fc
bbee bebbbb
bdc eeed
bbec ebec
ecbc beec
ed bbba
bbee bebf
bbbd beec
bcbd bbf
eeec ded
bbc eced
dbbd bec
fbf bbbe
beebb ebf
bbfc bbf
bebc ebec
bedc bbbb
dfc ebc
bc ee</w>
debc bcc
dbe fed
edc da
fdd ff
dcc fbd
fbc fbe
bcbd dbc
a eebf
debc ded
ea dec
efc bebd
a eeec
dd bbebc
bbed bef
bcbe debe
dc dbfc
ebb bbebec
ed fdec
fee bbef
ed eebbbe
edc ecec
df bbdd
edc fbe
bcbe dbbc
dc bac
bdee bbee
bd dac
ebd bbfc
ecbe eccc
fc dbdc
bbdc ecc
becc bfc
ddc ebf
fc bcfc
bbcc ded
fed bbf
edc bcee
ebe dccc
bbbb bced
bcc bdcc
bbebb fbc
fcc bef
dbf bef
ed fdcc
ebdc bdc
ebb bedee
eeee bbef
dc deecc
bbd fa
ebc bcebe
bdec dbe
ee dbbef
dbec dec
ed ebdcc
efc eebc
dee fbd
bbd bebec
bebc eebd
ef fbec
bdbd bbbd
bbd bdbf
ebf bbef
ebb eca
a eebd
eec beef
bf fdbc
bbbe eebd
bebbbb bbbd
efc bbee
eeee eebf
dbc bccc
bf fbebe
dbb ecbec
bcec bef
bbc edbd
dbb ebbed
bbbe bba
bbf eebd
dd bbfc
bbec beebb
bebd ebbc
fbc eecc
eec fecc
dbc ecbc
dec decc
ebc ecebb
bcc bbbec
dbb dcbd
ef bddc
ff bbdc
dbd debe
ec fedcc
beec ebbc
dbc ebcc
df bbef
ccc ebf
eeee bbbf
dbbc bdc
ea ac
beea cc
fee beef
bd bbea
bc debfc
bbbbbbbb bbbbbbc
dd eddc
bbbc bbebc
dcc bccc
ee dbbbec
fec debb
ccc bef
bbbc def
dd beef
bebbbb bebe
beec fbc
eedd fc
bbbc bbef
ba eba
dbc eeec
bebc ebcc
beec bbee
ff febb
ebb eceec
bcec bdc
eeeeeeee eeeeeeee
fcc bbbe
fbbc fc
ecdc fc
a eeebb
beee bfc
ee fcccc
bbbc bbbec
dcc eedc
bcbc edc
df bdbd
bcee ded
bbbb bebec
dbbbb bec
edbc bbbe
beec bedc
bcee dbf
ee dbba
bbc bbebd
bf febf
dc eebcc
dbc bbdc
eebc bef
bbc dbbbe
df debc
dbe bdbd
ebd ecec
bf bebbbc
bbdd eec
fcc ebbc
ac dbf
ebb ecdbe
ea fbc
bbf bbfc
eeec bebe
bbebb bebd
bbebe bebc
beed ef
bcc bcbbc
bbdd ebc
df bedc
bbd bddc
ebb fdee
fee edc
bbc bcebe
ebb ecdf
bdbe debb
a febe
bebbd bbbb
fee bbbd
bf eddd
bcc ecbd
eec fdd
a eccc
bcba cc
febb bec
ec bd</w>
ff bebf
bcf dbbc
fee bbebe
debc ebe
ebdc dec
ed eedee
eec bdcc
bbbf ecc
dbd dbbc
efc dfc
bbed fbc
fbd bef
bbd fbec
bfc beee
fbf ebe
ba ded
fcc becc
bbdd fc
dcc eebd
ef ebbcc
df bdcc
bcc bcebb
ecdd dd
bcc edcc
ebd bcbe
bec bbbcc
bcee bbebb
bebc bedc
ebc bcebc
ef bbecc
bcc fbbc
ed debdc
ee bbeba
dbe dbec
eec dbbbb
fbc becc
ee defcc
dbd eebc
ebc bbebd
bcbc ebbc
ebbee bbec
bbbf bbec
bbdc bbdc
bbc bcdd
beebb fc
ebc bbeec
ecbcbc cc
bcee ba
ee dbbebc
ecbe bbed
bd dbccc
dc edbc
bf dced
ebd bebbbb
bcc dbbbb
debe dbc
bf eded
bcbd bbbe
bccc edc
eecc fec
dd bcf
fee ebbc
eeee dbc
bdee dec
bf ebecc
bbbc fed
ff bcec
bebc fcc
bbf bebbc
bd debdc
bec bcf
ebc ebbcc
ebc fbec
bebd fbc
bbbc ebcc
bcbd bebe
bbba bbbb
dfc bbbb
beee bbef
bebc bbbf
bdf ea
ed fdbd
bbcc efc
fee bbebb
ecc eeebb
bedc ebe
fee beebe
bebc fed
ddc bebe
beebb bbebb
bbd bdbc
bbbc eebd
bbbc ea
ebc dccc
ecc efcc
beee bebf
fc eeebb
ecc dccc
ff ecbc
febe bebe
bbd eedd
ecc fef
bfc bbebb
dcc ebbc
dbbc bbbd
eec bbbec
ccc fec
a bcebb
ed fbfc
bcbd dbd
bbebe dd
decc bec
bdc ac
dbb bac
ebb dded
bbec beed
dcc beee
ebd bbbec
fdc ded
bf eeebc
bbec eebc
ecc bbfc
ecbd dbe
df bbbbc
bbf dbbbb
bcec dbd
fc dccc
eec fbbc
eccc ded
eedc ef
bdc dbec
ebbbc dee
ebf beebe
ee dc</w>
bdbe bbed
efc bbbd
bcbf dd
ec bbeccc
eeebe bbbb
ed fdbb
dcec dec
a dbec
deec ded
bced dec
bebec bbbb
fc bbbcc
df beed
debb ded
deec bbc
bfc fed
ebb ddbd
df fbbc
dbb bda
ec beeecc
bbd eced
bd bc</w>
eebc fcc
bded dd
dbb edbbc
bbebe bbebe
bcee bbcc
bced ccc
ddc bbbd
bbdc dec
ed eedcc
ebe ebbcc
bbf fbbc
bcbc ba
bbbc debe
ecc bbef
ac dec
bd eb</w>
ef bdbc
dbe debc
bec dbbd
bbec bedc
df ebdc
bf fbdc
dbe bcbe
ebf dbbc
ebb beedc
ebbbc bbee
ebb fdbb
ebe fbcc
eecc dcc
ff dfc
bbdd dee
ed ebbebe
dbf bebc
ff da
fec bedc
dc dfcc
fc fa
febb bebe
fee bebf
bdbd bdc
fcc dbd
bb ebc</w>
ed ebbee
ebbbc ebd
df beebb
fbc bbbf
bbed beec
bcec bbbe
bf eebcc
ecc fbbc
fc bcbbc
ebf febe
dedc eec
bcbf bbc
bbf bcebb
dc bcbbd
dbbbb dbd
ebc bedbe
dd bebbc
dbc fdc
bbcc beee
eef ebec
dbb ecbbbb
dcc bbbd
bbee bba
bdec bbbb
fc ecbf
bec beef
ef eced
eebc bebd
fed ddc
bcf bbbbc
becc efc
eeed bbc
bdc ebdc
ba ebbc
debb debb
bf beecc
dc fdee
bbbe bebbbe
eef ebcc
bbbc bcebb
dbb dcdc
ac dbc
ebb bbbbbbbbbbbb
bc dbba
bcc bebbc
fc dbbbb
bc ebac
bf beff
bef ecbc
bccc dbe
ff bebd
dc bedee
dd bba
eebbcc cc
eecc bbd
debc ebd
bbee ded
ecc bcbf
bec befc
bfc beebb
dfc dec
ea da
fbc ebec
bef bcec
eebd dec
bbed ebbc
ed ecdbe
dc ebbebb
bbbe ecbc
ebf beef
eedc ebd
fbd efc
fc bcdd
bbbbc dbd
bebe eeebb
bec bcbbc
fec bbee
fc bba
edbbc dbf
f df</w>
eeec ebd
ff ffc
dbcc dd
fee beebb
fed bfc
dee ecbc
debe bbee
dbe bbdd
debe bbd
bebf dd
fcc fdc
bef bcbd
bbebe ebc
bf c</w>
decc ef
ebb dcec
a debc
ebb dcbf
dfc dbc
fee bbec
fbe cccc
ebf eecc
bebf bcc
febb ebc
edc febc
eec bcebb
a beef
deec ef
eebf ebe
dbbd ef
dee beed
ccc bbcc
dcc becc
dbe bebbc
bbbbc ebbc
bddd dbd
bdc ffc
fc eced
a bcf
dbb ecebc
dfc eec
bbdd bbbe
fec ebf
dc fbdc
ea eeee
edc fbf
bbdc bbbd
ebc febd
bdc ecbc
bbbc bebbc
dd dcdd
eebf bbbb
bf beeec
bbd bcdd
dbbbc bbbb
edc edbd
dbb ddcc
bbdc bebe
bdbd df
bbebb dbd
bbbf ebbc
a ebdc
bbee bbebc
efc ddc
dbb bfbd
fdc ebe
bc dbbbec
bbf febe
bef bbbbc
ebc bcef
bec febc
bbbc bcbbc
dc bfbd
ecc ecbf
bbf bba
ebbee bcc
ecee fcc
ed efbf
ecbd bcc
bef dbbc
bbbe ac
bedc ebd
fbe debc
bcec ebd
bbfc ef
ecbd dbc
ecdc dcc
ed fbebe
bbf da
dbb efcc
bbd bdebb
edc bced
eebe eccc
bebe ebcc
dbd def
eebf fc
ebe eced
ebc bdbf
bcbe ebcc
ff eccc
dd beebe
ebc bcbbbb
ebe dbbf
dee beebb
bbbe bcbf
bebf df
bebbbb bbee
debb bbebb
bdc febb
fbf ebf
ebb dbbcc
dbb dced
bbbe beed
bf ecebe
fcc fee
eeef ef
bbd eebbc
befc df
bec fdd
dd fecc
bebd bfc
dbec dbc
dbec bcc
bdc eeee
bbf beed
efc bedc
ebec becc
bbfc dbe
bdec bcc
bbed ebf
ed bebfc
dbf fbd
ecee fbc
bcec bbbc
bbbd bcbd
ecbe bbbf
dcc bbec
dec bcbd
bd be</w>
ebbc ddc
bbee febb
efc bbcc
eebc ebcc
a bedc
bf ebbbbbb
ed ebeebb
eeba cc
debb bbec
bebe ded
bbf bbbec
ebc dbbbe
dc beedc
ea bbbd
ebb dcdd
bcbe bbdc
bcee bbbd
ebb bedbd
edbc edc
ba fcc
bfbc eec
fc beecc
bbee eecc
ebc bdbc
fec bebd
bd eeeecc
bfc eecc
bbbb eeec
ebd fa
ec debfc
bccc bcbc
ebbc eecc
bebc ecbc
ebb defc
bedd a
ec fcccc
bdc bdbd
eebe dbf
da ef
dd eddd
eef dbbc
ecdd ecc
dbc fbf
ecee bbcc
eef bbdc
ebe fbec
ff bbebe
fc edcc
dee bbbf
dbd b</w>
ecbd ef
bf bebbee
beee edc
bf dbbee
beec edc
deec dbe
dcc bbcc
ed bbbbcc
fec fcc
fdebe cc
eedc bcc
eedc dbe
ebb bbdbbbb
dd bcef
ebd beebe
fef fee
fc febe
bcbbbb bbbbc
ddc bbbc
debb fbc
becc ebf
bf dbfc
beec bbbd
bbc fa
dc bebbf
ecc bcf
be dbbbbbbbb
ebd bcbf
bbd beebc
bedd eec
ebe bbebf
dee dbec
bd deccc
eeee df
ebb fdbd
bbbe debc
bbbe bbfc
eebbc bbbb
bef beebe
ebc bebcc
ded efc
ebc bddc
bbf bebbbb
bf acc
dee ebcc
bbd ecebb
dbc fbe
bbf bbebc
bedc dbe
dbd efc
ecf ebec
bbbc ecbc
def fbc
bbf bcf
ecee bcbc
ea dbf
bc ec</w>
ebb bbdcc
dc bebbbe
bebe fbd
bcee becc
bbc dbdc
bbee fcc
dbd bcbd
fdd ccc
bbdd bbdd
dbc bcec
bc dbbebc
bbd ebfc
bfc ddc
eeebe beebe
a bcbe
bec bdcc
bcc febe
bbc bcfc
ebc feec
debe ebe
ebec ba
bfc fbf
eebe bbdc
bf bedbe
fdd fc
fdc bdc
bcee bbed
bbc bfcc
dbec ebe
bcc bcf
bfc fbe
bbee fbd
fec eecc
dbb ebbee
ea bbec
bbbbc ff
ebbc beebb
ded bcbc
ec dbbef
eef da
eeee eebe
eebd dbd
beec eecc
bbf eebf
eebc bbcc
ac fa
ec dbbebe
eeec dbd
dec ecbc
bcc ecbe
bbbc bcec
fee fbe
efc debc
bebc fbd
ecc febe
bbc bbbbbbc
bebe bbdc
bf eac
febb dbe
bf bebdc
ef bebcc
fbbbb bbbe
ebb febbc
ebe eedd
bf d</w>
eec bfcc
edcc edc
ebcc bef
bcebb bec
bd dd</w>
bcc eced
eebbed cc
eeebe ebf
bbc dedc
ebd bcf
fbf dbe
bebe ddc
eebc becc
eea a
bebd ebf
dc efdc
beec bbcc
bcc da
dc debbc
dbb dded
bbee efc
ebd eeebb
bbebc ccc
eeee eec
eccc bbbb
bbd bebbd
edc bbebb
eeec dbbc
bbbe def
bbebc ef
ecdc ebc
debd dbe
ecc bcbe
dcc def
ed fbef
beed ded
bedd df
ac bdc
dd bfcc
bbf bced
be ebb</w>
bbc ebbcc
bbbe bced
dc bbedc
bebc bbbbc
bbbf bbcc
ebbbc eec
bbbc febb
dd ecbf
ecec ecec
ecc bddc
bbbb da
ddc fee
ecc bcdd
bcbf bec
bbbb eebe
ed dbccc
bbed bbebb
bf beebd
bdee dcc
edcc ebc
ee dbbbcc
dc beccc
bccc dbc
a bebbc
edbc fbc
eebd bebe
bebc bcbd
bf dcdc
bbbb dbbbe
bbed edc
eebc efc
eebc debb
ecee dbf
fbd ebbc
bbec bbbbc
bcc beef
bbbd b</w>
eedc dec
fc fbcc
ebbee bef
ef eebbc
bd bebecc
ec bbebdc
fdc dbc
eec bded
ba debb
ecbc ebf
beee eeebb
bbbe ebbebb
bc dbfcc
bf bbedc
bbc bea
beebb ccc
fc bbecc
bbee ebcc
bbc dbbf
eecc fcc
bbbf dec
bec ebbcc
eeec fec
eec dccc
bdbc ebf
bdc bbbbc
bbf beef
eec befc
bbbc bdbd
ecbe dbbc
bebd bef
bc dd</w>
eeec becc
ed eebbf
bbc ecdc
bcc b</w>
fdc ebd
ddc efc
bebf ebe
bbbe bdbd
bebe bbef
bbdd ebd
dbd dbbd
a beebe
bbbe eecc
ecbd dec
bebd debb
ac ecc
edc fecc
febe ef
ebcc ebec
bceebc cc
bbebb bfc
bcbc bbbbc
bebbbb bbbbc
bdc beebb
bbc bbecc
beee fcc
eebbbd cc
fbd fbd
ebb ececc
debe ebd
beee bba
beec fee
eeed bec
bbfc dee
dbc bedc
ec db</w>
bbbbbbbb bbd
bcbd bcbd
ea edc
a dea
ea ddc
ebdc edbbec
bebe bcebb
dfc bbf
bebe fbe
bf bdbbbb
ccc bebc
ebe dbdc
bebe dbbc
bebe ebec
beee dec
dd bbbec
bf eebbbe
bbebe bbd
ecbc bef
bd befcc
def dec
bbed debb
bccc ebd
bbc bdbc
ec eeeecc
df bcbe
bbbb eecc
ea bfc
ef bebec
bbbb eebf
edbc bbf
bec bded
bebe bcec
bdf debb
dbf bcbc
bd bbbecc
dbbbb bcc
bbbd dbbc
fee fbf
bdec a
fbc ebcc
dcc beec
bbef ebc
dbec ebd
bedc ded
bbebe dbe
dc ebbed
def dbd
bf ddcc
da bda
bebf bbbc
ebf bbdc
fed ecc
dbc bbdd
ddc bfc
ef ecf
fcc bbbc
bf debbc
eecc ded
dccc dd
bd dbbed
bbbd fbd
ac ac
bbbb cccc
bc dbbbcc
bac a
ebb beebbc
bccc bdc
ed beebbc
edc dbcc
bcbc bbebb
eebf ff
edbc dec
ebb acc
dbb ecfc
ebc efcc
eec bcf
bdee dbd
febb ebf
bcbbbd cc
bef dfc
bdbd dee
eec beebc
bec ecdc
fbe debe
eebd bebc
ebe ecbbc
bec ebfc
bcbe bbbec
bbbe bedc
eec bcbbc
dd fbec
bebf bbee
eebd ebbc
ba fbd
fc bdbf
bebe fec
ecbf ccc
bbbcc bbbc
eecc ebbc
ea bcec
febb dbc
dd dbbbe
ebccc ccc
bbbe eebbbb
bdbd a
dc bbbbbbbb
fcc fbd
bbec fbd
bcbd bbd
dbf dbf
da dee
bdbc dec
ffc ef
eebe dbbc
ddc fed
ecbd bdc
fbc beee
dc fdbc
decc ecc
bbbf bcbc
eebc ecbc
bcbf a
ebf dfc
bcbf df
debe edc
ecee ff
ed fbbee
fdc edc
ee de</w>
ed eebbbc
deec dbc
bbbcc bcc
ecbe ebec
ded bbed
bbcc bbbbc
edbd fc
bf eca
ebd bddd
bf fbbbc
bebd bbec
ba bbbbc
fcc eedc
ffc bec
ddc bbee
dcc dbf
bcbd bdc
ecbc ebbc
bbbb bcf
bbbd dbbd
ddcc ccc
ecf bbbf
bbbe fbbbb
bbdc edc
bbdd ccc
da ebe
ecdc edc
a bbba
bdee bebc
fa ccc
edbc bbd
bfcc ccc
bec eebf
ebd bebec
bdbe dbf
dbe bbef
dc eeccc
bcbd bbbc
eeebe bef
bebd beec
ebf eccc
bbcc ebec
ecbf ecc
ebc bddd
ebb beba
ebc dbbf
dbb bfdc
febb bcc
dc eebbbb
dbcc eec
a eef
eeebb ebf
bdc bcec
ebbbc df
fcc bcbc
dbe dfc
ef e</w>
ebd dbdc
dbbd fc
bcf eccc
dcc eccc
ebe bdec
eeef beee
dbd becc
febe ff
ecbf dd
bfc bedc
dcc fdc
bbc bebbbe
dee ebec
bc bbebfc
eebd bbbc
ebbbc dbc
ebbbbc bbbb
eeee bcbc
ebe eddc
bbfc ff
fbc ea
bbfc bcc
fda cc
dee fbe
bcbf ff
eebe debb
eebf ccc
beed bebc
ed ffcc
fbc ddc
bdee ebd
bebe febb
dec dbec
ef eedd
bbee ebec
bf ebbbd
eeec bebc
bbeec bec
fec def
bf bbbfc
eedc bbc
ed befcc
eec bcdd
bfc bccc
bbec fed
bbbe bbbcc
ebfc df
beebb eeee
beef bbbb
bf ebbee
bbbd bbdc
ec ebac
bbeec bbbb
fbd fee
efc ebcc
ecbc ecbc
dc eedee
bdc decc
bebe dbf
eebc ba
fec bbcc
dcec ded
bf fdee
bf efbf
ebf fdd
dd befc
dbe dbbbb
bbf ffc
bf ebccc
bbf bcee
bcbe debc
ef ecebb
dbe bbebc
bbebb fee
ac bbbe
fbe bbebc
dbb bdebc
febe bbbb
dbe fdd
eef bba
ecbd ebd
dbb ecdf
beec ebf
eedc ff
beed ff
bd ebfcc
bf eebec
bdf beee
dbb bfed
dfc bdc
ebdc fbc
dee bbdc
bbee fbf
fed bebc
dbe cccc
bec ecbe
ebbc bcbd
f ebb</w>
bebe bba
fbd ba
eedebb cc
bcbc beee
fed bbd
bbebe bbbd
dfc ecc
df bcdc
bced eec
ef bfbf
bbbc eecc
bcf debe
ded bbcc
fdc efc
d bbbbbbbbbbbbbbbb
ebcc bbbd
dbbd ebe
eedd ecc
beebb ff
bc defcc
dbe eccc
ebc dcdc
bbc eeebc
fbe bdcc
ebd beef
fbf bfc
bef bbdc
bbbe ebbbbbb
a bbbec
dbc bdbd
ebc bebbd
eeebe eeebe
dc beff
bdbc bebc
dbb bfbc
dbcc fc
beebb bcc
ebb fbeee
beed bdc
