{"<unk>":0,"a":1,"b":2,"c":3,"d":4,"e":5,"f":6,"e</w>":7,"c</w>":8,"d</w>":9,"f</w>":10,"b</w>":11,"a</w>":12,"bb":13,"be":14,"bc":15,"ee":16,"cc":17,"bd":18,"ec":19,"bf":20,"ed":21,"ebb":22,"dc":23,"bbbb":24,"ef":25,"ebe":26,"dd":27,"ebc":28,"bbc":29,"fc":30,"bec":31,"ecc":32,"ebd":33,"bcc":34,"eec":35,"bbd":36,"df":37,"bbbe":38,"bbf":39,"dbe":40,"ebf":41,"bdc":42,"edc":43,"bbbc":44,"ba":45,"ff":46,"ccc":47,"dee":48,"dbc":49,"bbee":50,"bebe":51,"bfc":52,"ebbc":53,"dbb":54,"dec":55,"dbd":56,"bef":57,"dcc":58,"ea":59,"bbbd":60,"bebc":61,"efc":62,"ded":63,"bbec":64,"fbc":65,"beee":66,"bbcc":67,"bbebb":68,"ebec":69,"fee":70,"bcbc":71,"ebcc":72,"fbe":73,"ddc":74,"dbf":75,"fec":76,"debb":77,"bbbf":78,"bbed":79,"fcc":80,"bbbbc":81,"beec":82,"ac":83,"eebc":84,"eeee":85,"bebd":86,"becc":87,"fbd":88,"def":89,"eccc":90,"ecbc":91,"ebdc":92,"bbebe":93,"eecc":94,"dbbc":95,"bbdc":96,"fed":97,"eebe":98,"debe":99,"ecbe":100,"debc":101,"eef":102,"bcbe":103,"bbef":104,"bcf":105,"eebd":106,"dfc":107,"bbdd":108,"bccc":109,"da":110,"bbbbbbbb":111,"dbec":112,"bcbd":113,"dbbbb":114,"bcee":115,"beebb":116,"fbf":117,"bcec":118,"fdc":119,"bbebc":120,"deec":121,"beed":122,"bba":123,"febb":124,"eeec":125,"bebf":126,"eba":127,"bbfc":128,"cccc":129,"bdbd":130,"bedc":131,"bbbec":132,"dbbd":133,"decc":134,"ecbd":135,"eedc":136,"ebfc":137,"dbcc":138,"debd":139,"ecf":140,"bbbcc":141,"bced":142,"eeebb":143,"fef":144,"ecec":145,"fdd":146,"eebf":147,"beebe":148,"bcbf":149,"bcebb":150,"bebbc":151,"bedd":152,"eeed":153,"bebbbb":154,"ffc":155,"bbebd":156,"dedc":157,"fbbc":158,"edcc":159,"bbeec":160,"febe":161,"beef":162,"bcdc":163,"edbd":164,"eedd":165,"ecdc":166,"dccc":167,"dbdc":168,"dbbf":169,"dbbbe":170,"bbecc":171,"eeebe":172,"bdcc":173,"fa":174,"ecbf":175,"ecee":176,"bdbc":177,"febc":178,"bac":179,"bcbbc":180,"eced":181,"bdbe":182,"bdf":183,"bfcc":184,"ecebb":185,"bea":186,"bcbbbb":187,"befc":188,"bded":189,"beebc":190,"eeef":191,"bdbf":192,"dbbbc":193,"bcef":194,"bcdd":195,"eebbc":196,"ebbcc":197,"eac":198,"ecdd":199,"debf":200,"fbbbb":201,"bbbdc":202,"bbebf":203,"bbccc":204,"bebec":205,"ebbebb":206,"bb</w>":207,"bdee":208,"bddd":209,"bcebe":210,"eddc":211,"fbec":212,"efcc":213,"bddc":214,"fecc":215,"bebbbe":216,"bdec":217,"fbcc":218,"bcfc":219,"bdebb":220,"dbbee":221,"bcebc":222,"eddd":223,"dbfc":224,"bebbd":225,"eebbbb":226,"ecbbc":227,"fdf":228,"bebcc":229,"dcdc":230,"bbedc":231,"edbf":232,"fbbd":233,"eea":234,"ebecc":235,"edbc":236,"debbc":237,"febd":238,"ebccc":239,"feec":240,"bca":241,"dddd":242,"bbebbc":243,"bfbf":244,"bcbec":245,"bedbe":246,"beecc":247,"bedf":248,"eefc":249,"defc":250,"bbba":251,"ebbbbbb":252,"dba":253,"eded":254,"fbbf":255,"ecef":256,"fdbe":257,"bebbf":258,"ebbee":259,"bbbfc":260,"ebbbc":261,"bdbbc":262,"ecbec":263,"bdbbbb":264,"beebd":265,"eeebc":266,"bdef":267,"ebbbf":268,"ecebc":269,"beeec":270,"fccc":271,"ecebe":272,"bcbbd":273,"ecfc":274,"fbbbe":275,"dced":276,"ddcc":277,"ecdf":278,"bcbcc":279,"eebec":280,"fedc":281,"bebbbc":282,"ebbbd":283,"eebcc":284,"bfbc":285,"bebbee":286,"bfdc":287,"ecbbbb":288,"dbbcc":289,"dea":290,"deecc":291,"eedbe":292,"bceec":293,"bfed":294,"ebbbbc":295,"bcdf":296,"ebbed":297,"fbdc":298,"dcbd":299,"ecccc":300,"eca":301,"bfbd":302,"eedf":303,"fdbc":304,"ecbcc":305,"eebbd":306,"ebbebe":307,"debcc":308,"eebbbe":309,"debec":310,"beff":311,"bda":312,"febf":313,"bebdc":314,"be</w>":315,"bdebe":316,"bd</w>":317,"dcdd":318,"bedbc":319,"edbbc":320,"bc</w>":321,"beccc":322,"dcbc":323,"eeecc":324,"acc":325,"eebbf":326,"dcec":327,"efbf":328,"bcecc":329,"bcebd":330,"beebf":331,"fbbbc":332,"bcbbbe":333,"bbbbbbc":334,"ecbbd":335,"dbecc":336,"dfcc":337,"bdfc":338,"dcbf":339,"bdebc":340,"eceec":341,"ebbef":342,"bbefc":343,"bbbbcc":344,"eebbee":345,"fbebe":346,"bbea":347,"beedc":348,"dded":349,"bedee":350,"eeccc":351,"bbebec":352,"fdee":353,"bbcbbc":354,"bcbbf":355,"efdc":356,"bfebb":357,"ececc":358,"bdbbd":359,"bcdbe":360,"bdbec":361,"ecdbe":362,"ebdcc":363,"fbef":364,"eb</w>":365,"bfef":366,"fbbee":367,"bfbbc":368,"ebbdc":369,"bcbbbc":370,"bcccc":371,"dac":372,"bedbb":373,"eeeec":374,"ecdee":375,"ebeebe":376,"bddf":377,"fdcc":378,"bffc":379,"edebb":380,"eeebd":381,"bbbbebb":382,"edef":383,"ffcc":384,"bbdcc":385,"fdbd":386,"dddc":387,"eebebe":388,"eddf":389,"fbfc":390,"bfec":391,"ddbd":392,"eebdc":393,"ebeebb":394,"fdbb":395,"eedbc":396,"edec":397,"deccc":398,"bfdd":399,"bbebcc":400,"dcef":401,"eeff":402,"fdec":403,"bedbd":404,"bfebe":405,"bcdee":406,"edbec":407,"edebc":408,"bbcbbbb":409,"ebbec":410,"dbbbbc":411,"bfa":412,"bcff":413,"bedcc":414,"eedee":415,"debdc":416,"dbbbd":417,"eebeee":418,"bebbebb":419,"bcdbc":420,"bfbbbb":421,"eebbbc":422,"edebe":423,"efef":424,"bebbbd":425,"ebbebc":426,"eda":427,"fba":428,"bebbec":429,"fcdc":430,"bedec":431,"ecebd":432,"bdeec":433,"bbfcc":434,"eeebf":435,"fbebc":436,"bbcbd":437,"edfc":438,"beba":439,"ebbdd":440,"febbc":441,"bebfc":442,"dcebe":443,"bcbdc":444,"ebbbec":445,"ebba":446,"bbac":447,"dcfc":448,"efdd":449,"dcebc":450,"beebbc":451,"bcbebe":452,"eebef":453,"efbd":454,"bbbbbd":455,"fbeee":456,"eddee":457,"dcbbc":458,"bbbecc":459,"aa":460,"ebebf":461,"ebbfc":462,"bebbcc":463,"bcedc":464,"ecdbc":465,"eedcc":466,"ee</w>":467,"eddbe":468,"bbcbf":469,"bdbcc":470,"ecdec":471,"ebbbbbe":472,"ecbbbe":473,"ebfcc":474,"edbbbb":475,"fbbbd":476,"bddbe":477,"ebebbc":478,"edbcc":479,"edee":480,"dedcc":481,"ecbbf":482,"fefc":483,"bfebc":484,"dcebb":485,"fbbcc":486,"dbbdd":487,"ecbdc":488,"ec</w>":489,"fbbec":490,"bbdbd":491,"ebebbbb":492,"dbccc":493,"dcbec":494,"bcbbee":495,"ed</w>":496,"ebeef":497,"bbcebb":498,"eeedc":499,"fea":500,"dceec":501,"dcccc":502,"ebac":503,"fddc":504,"ebebd":505,"bbdbbbb":506,"befcc":507,"bfbec":508,"fdbf":509,"db</w>":510,"bbcbc":511,"bbbccc":512,"ecff":513,"edeec":514,"bbbebbbb":515,"bdecc":516,"eefee":517,"dca":518,"dbbebb":519,"bdebd":520,"bcdec":521,"fcbf":522,"eedbd":523,"fded":524,"dcecc":525,"efebb":526,"bcbebc":527,"bcebf":528,"effc":529,"edbbd":530,"bcdbd":531,"efebe":532,"efbbc":533,"dcee":534,"fbecc":535,"bebecc":536,"efa":537,"dcdf":538,"ebbbbd":539,"efed":540,"dbbbf":541,"bcbef":542,"ecbbbc":543,"dbbed":544,"bedbf":545,"eeba":546,"bebbbf":547,"fbbbf":548,"ddbf":549,"bdbbbe":550,"bcfbc":551,"bbbbbbbbbbbb":552,"beded":553,"ebedc":554,"ecded":555,"ecedc":556,"beea":557,"fcfc":558,"bebbed":559,"bcbbbd":560,"beddc":561,"ebced":562,"ebcbf":563,"fbbebb":564,"bddee":565,"bbced":566,"fcdd":567,"bbbbbf":568,"ebbbcc":569,"eedec":570,"bbcbec":571,"bdbbf":572,"bcbfc":573,"bbebdc":574,"dcbcc":575,"eebebc":576,"bbb</w>":577,"ebedd":578,"ebeed":579,"ecdbd":580,"ebcebb":581,"bbdbf":582,"fbccc":583,"eebbec":584,"bbdbbc":585,"bedebb":586,"bbeecc":587,"ebcbbc":588,"bcbbec":589,"ecdcc":590,"ecced":591,"bbbbbbbe":592,"ebbeec":593,"bfbcc":594,"dbbdc":595,"febcc":596,"bf</w>":597,"dd</w>":598,"eefbe":599,"bcebbc":600,"becbbc":601,"bdff":602,"fac":603,"feecc":604,"eebbebb":605,"bcded":606,"ecbebe":607,"bcdcc":608,"eeebbc":609,"bebccc":610,"dda":611,"becbf":612,"bddbc":613,"beefc":614,"bbbcbbbb":615,"ddef":616,"bdbdc":617,"bbeccc":618,"ebea":619,"febec":620,"bebbbbc":621,"fcbbc":622,"ecbef":623,"ebbbbf":624,"edecc":625,"bcbbcc":626,"dcebd":627,"bfdf":628,"eebbbd":629,"ebcbec":630,"dbbebe":631,"bddbd":632,"ddbbc":633,"ebcdc":634,"bcba":635,"bebbebe":636,"fdebb":637,"fcdf":638,"ecbebc":639,"beebec":640,"fcef":641,"eefbc":642,"fbbed":643,"bbded":644,"ebcbd":645,"bbbbebe":646,"eebfc":647,"eebcbc":648,"ebbdf":649,"ebcdd":650,"fcbd":651,"dbdcc":652,"fced":653,"ebcef":654,"eeddc":655,"ebbebd":656,"bbcebe":657,"bbbbbbd":658,"cccccccc":659,"ebbdbe":660,"ecbfc":661,"becbec":662,"bbcef":663,"edebd":664,"ecbbec":665,"fdef":666,"bbcdd":667,"ecebf":668,"dbbef":669,"bfbbf":670,"ebcebc":671,"ecbbee":672,"dcbbbb":673,"eebbcc":674,"eddbc":675,"ebbbbbc":676,"bcfee":677,"edccc":678,"bfecc":679,"bcbeee":680,"dcdbe":681,"debfc":682,"beebcc":683,"beac":684,"bdedc":685,"eeea":686,"add":687,"abf":688,"dcbbd":689,"bbcbcc":690,"bcfec":691,"ebebec":692,"ebbecc":693,"ecebbc":694,"bdbbbc":695,"bcbbebb":696,"ebcbbbb":697,"dfdc":698,"eedbf":699,"ecbcbc":700,"de</w>":701,"ecfbc":702,"bdccc":703,"dbbfc":704,"aed":705,"bbcfc":706,"ecbeec":707,"eecdd":708,"bcced":709,"bbcdc":710,"ebbbebe":711,"ebebbbe":712,"eecbf":713,"bcfbe":714,"feccc":715,"ebefc":716,"dfdd":717,"becdd":718,"fcccc":719,"efbcc":720,"dbba":721,"bbdebb":722,"bbcccc":723,"dc</w>":724,"bdbebe":725,"bedbbc":726,"ebddd":727,"eecdc":728,"ebebcc":729,"becdc":730,"bbcebc":731,"dfed":732,"bcefc":733,"becebb":734,"bcbeec":735,"defcc":736,"bfbbbe":737,"bfbbd":738,"bfff":739,"eddec":740,"eeded":741,"bbbbbbbc":742,"ebcfc":743,"ecba":744,"bfdbe":745,"bceebc":746,"abd":747,"ecbbbd":748,"adc":749,"fdbbc":750,"dbbbec":751,"bcfcc":752,"ebceec":753,"ddfc":754,"bfebd":755,"efdf":756,"fbbef":757,"eebeec":758,"ebb</w>":759,"bcbccc":760,"beeecc":761,"bebbef":762,"edbdc":763,"efbbbb":764,"fbbbbc":765,"dbbebc":766,"bebbdc":767,"bbbbbbbbbbbbbbbb":768,"bbcbbd":769,"fbbdc":770,"efbec":771,"bacc":772,"edbbf":773,"bbebfc":774,"eecbec":775,"dffc":776,"efebc":777,"dbfcc":778,"eebbed":779,"bcdebb":780,"ddebe":781,"bcbbed":782,"ddebc":783,"dcdee":784,"fda":785,"eebccc":786,"ddebb":787,"deba":788,"bbbeebb":789,"ecfec":790,"eeeecc":791,"afc":792,"bedef":793,"bbeba":794,"bcbebd":795,"ebeebc":796,"eacc":797,"bddec":798,"bfeec":799,"abbc":800,"aef":801,"fdfc":802,"dbbbcc":803,"ecceec":804,"edff":805,"edbbbe":806,"dddf":807,"bdbbbd":808,"ddbec":809,"bcbbbbc":810,"bcbbbf":811,"bbddc":812,"ddeec":813,"bccccc":814,"bcdbf":815,"abbbb":816,"bdbbee":817,"eebbbf":818,"bcfbd":819,"fedcc":820,"bcebec":821,"cccccc":822,"bedebe":823,"ecbecc":824,"fbbebe":825,"bccbcc":826,"dbedc":827,"bbcbbbe":828,"bbfbf":829,"ebbff":830,"ecfee":831,"eefcc":832,"ddbbbb":833,"dbbebd":834,"bcddc":835,"bdebf":836,"eebbebe":837,"fcbec":838,"ddecc":839,"bcbecc":840,"ebbbbee":841,"ebcebe":842,"dcedc":843,"ecdebb":844,"aebe":845,"ecddc":846,"bbdef":847,"bbdebe":848,"becbbbb":849,"ebded":850,"bccbf":851,"bebbebc":852,"bccbbc":853,"deedc":854,"eecdf":855,"ecbbcc":856,"ebcdf":857,"fdebe":858,"aebb":859,"eccecc":860,"eebecc":861,"eebebd":862,"efdbe":863,"bbdbbd":864,"fcebe":865,"febdc":866,"eedebb":867,"ecefc":868,"bdbef":869,"ebebebe":870,"ecbccc":871,"bbfbbbb":872,"bbceec":873,"beced":874,"dcff":875,"ecbeee":876,"efecc":877,"ecfcc":878,"dfbf":879,"bdbebc":880,"efff":881,"fcbcc":882,"eedbb":883,"bbbebbc":884,"bedebc":885,"eddbd":886,"fdebc":887,"ebdbf":888,"ededc":889,"bbbdcc":890,"dcdbc":891,"eefec":892,"ebcbcc":893,"fcebb":894,"efbbf":895,"bcdbb":896,"ecbebd":897,"eecbbc":898,"dcbdc":899,"ecdbf":900,"bcea":901,"bdfbc":902,"fbdcc":903,"bedbbbb":904,"becebe":905,"dddbe":906,"fca":907,"becebc":908,"ecfbe":909,"bcebcc":910,"eeefc":911,"bbebbbbbb":912,"dbbbbbbbb":913,"ddbcc":914,"becbd":915,"ecbbed":916,"bceebe":917,"edded":918,"fcebc":919,"bbbebf":920,"ef</w>":921,"ebbebf":922,"ebebbf":923,"bdded":924,"bdbfc":925,"bddcc":926,"eefbd":927,"bbca":928,"dcdec":929,"ebbccc":930,"bedbec":931,"bcecbc":932,"ebbdbc":933,"becef":934,"bebbbec":935,"bebbdd":936,"ecbbebb":937,"eeebcc":938,"eccef":939,"bebba":940,"bbcbbf":941,"ebbbdc":942,"bcfed":943,"debbcc":944,"fcdbe":945,"eeebec":946,"ddebd":947,"ecdef":948,"bbcbbbc":949,"eceebc":950,"bcecbe":951,"bbbbbcc":952,"bbbbed":953,"eebbef":954,"bceecc":955,"eeac":956,"bbbebbbe":957,"bfccc":958,"bcdef":959,"bfbbbc":960,"beeccc":961,"ecebcc":962,"bbbbbec":963,"eeeebc":964,"dbac":965,"bbcdbe":966,"ecebec":967,"fbbdd":968,"ddbbd":969,"eccbec":970,"efccc":971,"eeecbc":972,"bfbdc":973,"bbbeebe":974,"ebddc":975,"dbbeec":976,"bbcdf":977,"eddcc":978,"bbbbbbf":979,"becccc":980,"bceebd":981,"ebcecc":982,"bbdbec":983,"bfbebe":984,"bfebf":985,"bcdebe":986,"bccebe":987,"ffdc":988,"bceef":989,"bedfc":990,"fbbfc":991,"bdba":992,"bcac":993,"eecccc":994,"bccef":995,"beda":996,"dddbd":997,"bbbdbbbb":998,"eebbbbc":999,"deac":1000,"bbdebc":1001,"eedbbc":1002,"ebbdee":1003,"bbd</w>":1004,"edbbbc":1005,"dcdcc":1006,"edbebe":1007,"bbda":1008,"ebebbee":1009,"becdf":1010,"dbedd":1011,"bbcebd":1012,"bbdfc":1013,"ebbedc":1014,"bfedc":1015,"becfc":1016,"fdbec":1017,"ebca":1018,"dcbbf":1019,"bbebbcc":1020,"bfdbc":1021,"bebbfc":1022,"eccebc":1023,"becbcc":1024,"bdebbc":1025,"ebbbbbd":1026,"beebdc":1027,"bdbbec":1028,"edbef":1029,"ebbbef":1030,"ebdef":1031,"deedd":1032,"bcbbdc":1033,"bebdcc":1034,"eedef":1035,"bbbbdd":1036,"ebedf":1037,"eccdc":1038,"eecef":1039,"bbbbebc":1040,"ecfbd":1041,"bceeee":1042,"ebbbebc":1043,"fbbebc":1044,"dfa":1045,"eccfc":1046,"eceecc":1047,"bccfc":1048,"bbbbef":1049,"debecc":1050,"bbbfcc":1051,"ecfed":1052,"dddbc":1053,"ececbc":1054,"dfef":1055,"ddedc":1056,"bbc</w>":1057,"ebcebd":1058,"bcdbbc":1059,"dbeed":1060,"fbba":1061,"bccdc":1062,"ebebbd":1063,"bccbd":1064,"bfdee":1065,"bccbec":1066,"bcceec":1067,"fdbbbb":1068,"eebbdc":1069,"bbbba":1070,"bcbbebe":1071,"ebeecc":1072,"bfbbee":1073,"edbbec":1074,"dfbd":1075,"bccebb":1076,"bbbcbbc":1077,"ecea":1078,"ebedbe":1079,"bbe</w>":1080,"beceec":1081,"bccebc":1082,"ddbdc":1083,"dcdbd":1084,"ecdebc":1085,"bbdeec":1086,"bbfef":1087,"edbebc":1088,"bbbac":1089,"bccbbbb":1090,"fceec":1091,"dbebf":1092,"bebebbbb":1093,"ebdbd":1094,"bccdd":1095,"eeecbe":1096,"eccbf":1097,"ebbbeee":1098,"ebddf":1099,"edbbee":1100,"fcbbbb":1101,"ebbbbebb":1102,"bcbcbcbc":1103,"ecdeec":1104,"fbbbec":1105,"ebbebbc":1106,"ffbf":1107,"beca":1108,"bbfbbc":1109,"bbedcc":1110,"bedbbd":1111,"ffdd":1112,"fcdee":1113,"eecbd":1114,"ecbbbf":1115,"eedbec":1116,"ebdbbc":1117,"eccdd":1118,"eccbd":1119,"ebebeee":1120,"bedeec":1121,"eccbbc":1122,"bbbbbbbd":1123,"ffef":1124,"ecdbb":1125,"eccccc":1126,"edebf":1127,"ebdebb":1128,"ebdbec":1129,"fdbcc":1130,"ebebbbc":1131,"ebdeec":1132,"ebeeec":1133,"dbebd":1134,"bcdebc":1135,"fbfcc":1136,"bbdbbbe":1137,"eccebb":1138,"fdbbd":1139,"bfbef":1140,"ebe</w>":1141,"dfbbc":1142,"eebba":1143,"bbbb</w>":1144,"bcbbef":1145,"dcbbbe":1146,"ebdebc":1147,"ebdbbbb":1148,"bcbbdd":1149,"efeec":1150,"ecdbec":1151,"bdfee":1152,"efbbbe":1153,"edced":1154,"bebbbbbbbb":1155,"dfebc":1156,"ebeff":1157,"bbfebb":1158,"eeeccc":1159,"dddee":1160,"bdddc":1161,"dbebbc":1162,"ddccc":1163,"aebc":1164,"ebeccc":1165,"dcded":1166,"efbdc":1167,"eeceec":1168,"bdbeee":1169,"bcdfc":1170,"fffc":1171,"bebbbcc":1172,"ebeebf":1173,"dbbbdc":1174,"ebbdec":1175,"edbfc":1176,"debccc":1177,"eccedc":1178,"fdeec":1179,"ecdfc":1180,"ecca":1181,"bedbcc":1182,"becdbe":1183,"eeda":1184,"ebebdc":1185,"ebcbbd":1186,"dbddd":1187,"ecdbbc":1188,"bdfbe":1189,"bbbbdc":1190,"bfbfc":1191,"ebda":1192,"ebbbbec":1193,"efbbd":1194,"ebd</w>":1195,"bbbbfc":1196,"ecdebe":1197,"efbbee":1198,"ecbbdc":1199,"edddc":1200,"bffbc":1201,"ebcccc":1202,"bdbcbc":1203,"ebcbbbe":1204,"ecbbbbc":1205,"ebbdbd":1206,"ebdfc":1207,"bbffc":1208,"ebc</w>":1209,"eeca":1210,"bbfdc":1211,"efebf":1212,"ebcdbe":1213,"ebbfee":1214,"fdecc":1215,"bebbeec":1216,"efbebe":1217,"bceccc":1218,"dbb</w>":1219,"edbeec":1220,"eebbebc":1221,"bdfec":1222,"edfbc":1223,"dcebf":1224,"efdbc":1225,"bbeebbbb":1226,"bcca":1227,"ebeebd":1228,"efdee":1229,"bdbbcc":1230,"bdefc":1231,"dbefc":1232,"bbcdee":1233,"bddebb":1234,"bbbbcbbbb":1235,"edceec":1236,"eebdcc":1237,"baa":1238,"bbcbdc":1239,"bbfa":1240,"ebeeeee":1241,"bdbeec":1242,"bbcdbc":1243,"bbcbebe":1244,"bbbcbbbc":1245,"ebebef":1246,"eedebc":1247,"ffa":1248,"ececcc":1249,"dbbecc":1250,"bcdbbbb":1251,"ebbfbc":1252,"efebd":1253,"fbebf":1254,"ecac":1255,"ebbba":1256,"ebbbfc":1257,"fdebd":1258,"bbcecc":1259,"edba":1260,"bbdbcc":1261,"fbbbcc":1262,"becdee":1263,"decdc":1264,"fcff":1265,"bbbcbf":1266,"bebbebd":1267,"eedebe":1268,"eceeec":1269,"eecebc":1270,"ddff":1271,"bbbebec":1272,"bedebd":1273,"bbebecc":1274,"dfecc":1275,"bcbbebc":1276,"fcecc":1277,"edbbbd":1278,"bcebdc":1279,"dbbccc":1280,"ebedbc":1281,"beeba":1282,"ecdecc":1283,"bddbf":1284,"dbebbbb":1285,"efbef":1286,"ecda":1287,"ebcbbf":1288,"edebbc":1289,"eebbdd":1290,"eefed":1291,"bcdbec":1292,"eceef":1293,"bbdbbf":1294,"ececbe":1295,"dfbec":1296,"ebbeeee":1297,"bbbbbebe":1298,"eddef":1299,"eceebd":1300,"feba":1301,"edcef":1302,"ebfbf":1303,"bcbbfc":1304,"dddec":1305,"bbdebd":1306,"bdbbebb":1307,"edcdc":1308,"eceedc":1309,"dddcc":1310,"befbf":1311,"eecbbbb":1312,"bdbebd":1313,"ebcdee":1314,"ecfdc":1315,"eeced":1316,"febfc":1317,"bbcff":1318,"eccebe":1319,"adf":1320,"bcda":1321,"eecfc":1322,"beb</w>":1323,"bdcdc":1324,"eecbcc":1325,"edfee":1326,"eedbbbb":1327,"bdfcc":1328,"febbcc":1329,"bdeebc":1330,"eddbf":1331,"eecebb":1332,"bbbedc":1333,"eeebdc":1334,"eccbcc":1335,"beedcc":1336,"eedfc":1337,"abec":1338,"effee":1339,"fdbbf":1340,"bbbcebb":1341,"dfebe":1342,"df</w>":1343,"bedecc":1344,"bcdeec":1345,"bdfbd":1346,"bbeebf":1347,"dfbcc":1348,"fcbbf":1349,"eddebb":1350,"bbbbbbebb":1351,"ffff":1352,"bebebbc":1353,"ebdebe":1354,"deebf":1355,"fb</w>":1356,"bdcdd":1357,"bebfcc":1358,"becbbd":1359,"fcdbc":1360,"bebebf":1361,"eceeee":1362,"bbbbdbe":1363,"ecebdc":1364,"edbeee":1365,"eceebe":1366,"edcdd":1367,"dcbbbc":1368,"dfebb":1369,"ebcdbc":1370,"bcbbbec":1371,"abcc":1372,"edcbec":1373,"bbdbbbc":1374,"bebbecc":1375,"bdcbf":1376,"bbeeebb":1377,"dcfbc":1378,"eebbfc":1379,"fdccc":1380,"dacc":1381,"eedeec":1382,"eecdec":1383,"eccdf":1384,"bdbbed":1385,"efbbbc":1386,"bbbedd":1387,"dbebec":1388,"ebcdec":1389,"bbfdd":1390,"bbeeebe":1391,"bbbebebe":1392,"bdced":1393,"fcbbd":1394,"bbfed":1395,"eebeebe":1396,"dbeebb":1397,"becebd":1398,"bbfebe":1399,"eeeeeeee":1400,"ddddc":1401,"bfdbd":1402,"ebbbbcc":1403,"dcddc":1404,"ecbbdd":1405,"bfdec":1406,"dfdf":1407,"bfbebc":1408,"ebcedc":1409,"dcbfc":1410,"ebcff":1411,"bcbbbbbbbb":1412,"dcbebe":1413,"bbbebbbc":1414,"fbbeec":1415,"bedbbbe":1416,"bbefcc":1417,"dbea":1418,"bbcbbee":1419,"dbeebe":1420,"bdcef":1421,"bcbdcc":1422,"bedbbf":1423,"edefc":1424,"eccebd":1425,"eecdee":1426,"fcebd":1427,"bdea":1428,"ebcbbbc":1429,"dbeef":1430,"bddbb":1431,"edfec":1432,"bbbeef":1433,"eebbbec":1434,"bbeac":1435,"bdcebe":1436,"bdebec":1437,"ecfbf":1438,"bbcdbf":1439,"bdbecc":1440,"dbcdc":1441,"bffee":1442,"bcbbbcc":1443,"bbfbbf":1444,"ebbbcbc":1445,"ecbbebc":1446,"fefcc":1447,"bbbbbbee":1448,"eecebe":1449,"ecbbebe":1450,"ebbfbe":1451,"bbdbbbd":1452,"dbcdd":1453,"ebfef":1454,"dcfec":1455,"eecdbe":1456,"bbbeed":1457,"eedbcc":1458,"beebfc":1459,"bbcbbbd":1460,"bccecc":1461,"dcbef":1462,"fcbdc":1463,"eeeba":1464,"bcbba":1465,"bbbea":1466,"bcdbbd":1467,"bccdf":1468,"bebeebe":1469,"bfdcc":1470,"edcdf":1471,"bccebd":1472,"becdbc":1473,"fdbdc":1474,"fbeef":1475,"bbbbbbbbc":1476,"bfba":1477,"fcdec":1478,"bececc":1479,"eecebd":1480,"dbbebf":1481,"ebbbbbf":1482,"bbcebf":1483,"deddd":1484,"bbdbdc":1485,"becbbbe":1486,"edcebc":1487,"ecdedc":1488,"eecdbc":1489,"fbbebd":1490,"bdbcbe":1491,"edbecc":1492,"decccc":1493,"aff":1494,"eedbbd":1495,"edbbcc":1496,"bebebebe":1497,"bbbbebd":1498,"ebefee":1499,"adbe":1500,"ebcbdc":1501,"ecfebb":1502,"bbcbebc":1503,"bfebbc":1504,"bdbbbf":1505,"edbcbc":1506,"dcefc":1507,"ecdebd":1508,"bbcdbd":1509,"fe</w>":1510,"efbeee":1511,"ececbd":1512,"aba":1513,"bbbebbf":1514,"bbebccc":1515,"fbbecc":1516,"bddef":1517,"bbcdec":1518,"bbdff":1519,"bbcbef":1520,"bcdebd":1521,"becdec":1522,"dfdbe":1523,"edbbebb":1524,"efedc":1525,"bffbe":1526,"dcbbee":1527,"bbbddd":1528,"bbbeebc":1529,"bebeebb":1530,"dbedbe":1531,"bfbeee":1532,"dfccc":1533,"beebbcc":1534,"efdcc":1535,"bcedcc":1536,"bbbebbd":1537,"ecbbef":1538,"aecc":1539,"ebbded":1540,"bdbcf":1541,"ebbdcc":1542,"becbbbc":1543,"bbbebbee":1544,"dcbebc":1545,"ecbdbd":1546,"ebdebd":1547,"bfbbec":1548,"becbbf":1549,"abbd":1550,"becff":1551,"ebcbebe":1552,"bedccc":1553,"bffcc":1554,"bcdbcc":1555,"abbf":1556,"decdd":1557,"edfbe":1558,"edcebe":1559,"bddebe":1560,"bdeebe":1561,"bbcbfc":1562,"ecbbfc":1563,"ebbbbbbc":1564,"bfbbbd":1565,"bdbbbbc":1566,"fdbbbe":1567,"edcfc":1568,"bddbbc":1569,"bccbbd":1570,"bdac":1571,"bdcfc":1572,"eecbbd":1573,"ebebebc":1574,"ddded":1575,"bbbefc":1576,"ebcbebc":1577,"ebbeebc":1578,"ddbbf":1579,"bdebcc":1580,"eececc":1581,"bbcbbec":1582,"ececf":1583,"ebffc":1584,"bdbcbd":1585,"dbced":1586,"ccccccc":1587,"accc":1588,"ebbcbbbb":1589,"ebedee":1590,"befdc":1591,"ebddbe":1592,"ebbdebb":1593,"edcbf":1594,"bdbcee":1595,"bdbbdd":1596,"ebbfec":1597,"bdcebc":1598,"ebfdc":1599,"bcb</w>":1600,"eecff":1601,"ebbbebd":1602,"befef":1603,"eeedcc":1604,"edbbed":1605,"dbbedc":1606,"bdcbbc":1607,"bfbcbc":1608,"dbddc":1609,"ecbedc":1610,"bdcbec":1611,"eddebe":1612,"bbbcebe":1613,"befdd":1614,"dbcbbbb":1615,"bddbbbb":1616,"bbdbebe":1617,"ebdecc":1618,"dbcbbc":1619,"bbbebcc":1620,"edbebd":1621,"bcdecc":1622,"ecbdcc":1623,"dbcfc":1624,"edcecc":1625,"bedbdc":1626,"bdceec":1627,"bebbebf":1628,"ebbeebe":1629,"dbcef":1630,"deddc":1631,"bdfed":1632,"bccdee":1633,"bbdecc":1634,"bbfbec":1635,"ebfa":1636,"dfff":1637,"dbcbf":1638,"bccdbe":1639,"bbcbcbc":1640,"bdeef":1641,"bbcfbc":1642,"dfbbbb":1643,"ebfbbbb":1644,"bccff":1645,"eebbbcc":1646,"bbcebbc":1647,"ecdbcc":1648,"ebddee":1649,"effbc":1650,"becbbec":1651,"aeec":1652,"edfcc":1653,"ebeedc":1654,"eedebd":1655,"bbfebc":1656,"bdbbdc":1657,"dcfee":1658,"bfbbcc":1659,"dcfcc":1660,"abbbe":1661,"fcbbbc":1662,"fdedc":1663,"dccccc":1664,"ebbea":1665,"fbac":1666,"ddfbc":1667,"ebfebe":1668,"bbdbbee":1669,"fbeebe":1670,"bbcedc":1671,"aebd":1672,"dfebd":1673,"eccbbbb":1674,"dfeec":1675,"bdeecc":1676,"fbebbbb":1677,"efbfc":1678,"ebbbeebb":1679,"babbbb":1680,"efdbd":1681,"bedbbbc":1682,"eebbeec":1683,"bcbfcc":1684,"edeebc":1685,"dbeebc":1686,"efdec":1687,"fc</w>":1688,"dcebbc":1689,"bdecbc":1690,"dfedc":1691,"efba":1692,"bdcbbbb":1693,"ecdbbbb":1694,"ecbbbec":1695,"ebbefc":1696,"eccdec":1697,"ddbbbe":1698,"deeccc":1699,"deefc":1700,"ebcded":1701,"ebfbbc":1702,"eceedd":1703,"ebbbeec":1704,"ffccc":1705,"bbdccc":1706,"dfdbc":1707,"eedccc":1708,"bbbcbec":1709,"bccbbf":1710,"ebbbbed":1711,"dbbebbc":1712,"bcffc":1713,"eedecc":1714,"ffbbc":1715,"fbebbc":1716,"dbbdcc":1717,"fbedc":1718,"ffebe":1719,"bbbedbe":1720,"bfcbf":1721,"bccbbbc":1722,"befebe":1723,"bdbeed":1724,"bdfdc":1725,"eecded":1726,"efebbc":1727,"bbeebbee":1728,"eebbecc":1729,"bdbcec":1730,"bdecbe":1731,"deebbc":1732,"ebbbcbe":1733,"dcbbbd":1734,"dfbdc":1735,"bccbdc":1736,"becbdc":1737,"bdeebd":1738,"debdcc":1739,"eebeef":1740,"eebfcc":1741,"edea":1742,"eceeed":1743,"edbcec":1744,"beeeebe":1745,"bbeebbc":1746,"dccdd":1747,"ebbebec":1748,"eefbf":1749,"dcbbec":1750,"eeb</w>":1751,"bbddcc":1752,"fdebf":1753,"bbbbccc":1754,"bccedc":1755,"bdbdcc":1756,"bbbcbbbe":1757,"bcebbcc":1758,"dbcebe":1759,"dbbbfc":1760,"edebcc":1761,"deb</w>":1762,"ebcebbc":1763,"edebec":1764,"bdfbf":1765,"bdeeee":1766,"befa":1767,"bbbcdd":1768,"bebebbbe":1769,"bebbbdc":1770,"edfbd":1771,"fddcc":1772,"bbfff":1773,"ebdbcc":1774,"ebdbbd":1775,"dbbba":1776,"becbebc":1777,"bffec":1778,"ebbbbebe":1779,"bbbbbebc":1780,"dfbbd":1781,"ebbbecc":1782,"bee</w>":1783,"eebbebd":1784,"bcfdc":1785,"bfefc":1786,"ebcbbee":1787,"dbebcc":1788,"eccff":1789,"bbbbeec":1790,"fd</w>":1791,"bbfbbbe":1792,"fdbbbc":1793,"bbcbbcc":1794,"edca":1795,"dccdc":1796,"ddebf":1797,"fbefc":1798,"beffc":1799,"fbbccc":1800,"bfdbf":1801,"fbbebf":1802,"feac":1803,"bcebfc":1804,"bddebc":1805,"ebeba":1806,"bdbeebb":1807,"bffbd":1808,"adbc":1809,"dbeecc":1810,"ecbedd":1811,"ecdbbd":1812,"eddebc":1813,"bdeeec":1814,"bcbbebd":1815,"bdbccc":1816,"bcfdd":1817,"bccbbbe":1818,"ebcebf":1819,"eefef":1820,"bfcfc":1821,"abbbc":1822,"ebdccc":1823,"bbacc":1824,"adee":1825,"dbd</w>":1826,"bbbfbbbb":1827,"eecbdc":1828,"dcbcbc":1829,"dfbbf":1830,"bccdbc":1831,"bebbccc":1832,"eebebbbb":1833,"bbeebbbe":1834,"decbec":1835,"facc":1836,"eebebf":1837,"edbeed":1838,"ddcdd":1839,"febccc":1840,"ebcbfc":1841,"dbedf":1842,"eeeeebe":1843,"abdc":1844,"fbedd":1845,"ebddbc":1846,"ebbdbf":1847,"bcbbeec":1848,"befbbc":1849,"bebeef":1850,"dbbbbcc":1851,"fcfbc":1852,"ebdff":1853,"beeebbbb":1854,"ebfdd":1855,"dcbeec":1856,"bcdedc":1857,"dbeccc":1858,"ebcdbd":1859,"fcded":1860,"bcbedd":1861,"ebddec":1862,"ebebbbd":1863,"bededc":1864,"bbdedc":1865,"bcbebbbb":1866,"befbbbb":1867,"bddfc":1868,"fcdcc":1869,"bfbbebb":1870,"ebbebcc":1871,"eaa":1872,"bbdbebc":1873,"ebbcbbc":1874,"eefebe":1875,"eccbdc":1876,"edeecc":1877,"fcdbd":1878,"efbebc":1879,"bbeedd":1880,"eeebbcc":1881,"eddeec":1882,"bbfbcc":1883,"bebbedc":1884,"fcbbbe":1885,"becbebe":1886,"ebbfbd":1887,"edcdec":1888,"bebbebbc":1889,"dbdbbbb":1890,"febecc":1891,"ebbfcc":1892,"ecbfcc":1893,"bebac":1894,"dbc</w>":1895,"ebebfc":1896,"ebebbec":1897,"abba":1898,"bcbedc":1899,"fbbbdc":1900,"ebcfbc":1901,"bfded":1902,"eccdbe":1903,"cccdd":1904,"ebebbebb":1905,"dbe</w>":1906,"ebdedc":1907,"bdfebb":1908,"decbbc":1909,"edfed":1910,"bbfdf":1911,"bdda":1912,"dcba":1913,"fcbef":1914,"fcebf":1915,"bcdbbbe":1916,"bbbcbbd":1917,"bdbebf":1918,"feebf":1919,"bdbedc":1920,"bbbcebc":1921,"eccdee":1922,"bcfbf":1923,"bbbebbebb":1924,"bebcbbbb":1925,"beebecc":1926,"bbbdbbc":1927,"becded":1928,"fcbfc":1929,"bbbcef":1930,"ecbbecc":1931,"ebeebbc":1932,"ecbba":1933,"bedbbee":1934,"eefa":1935,"dfdee":1936,"bbdebf":1937,"eddbec":1938,"eddfc":1939,"bbecbbbb":1940,"bedebf":1941,"bbeedc":1942,"edcbbc":1943,"ecedcc":1944,"cccdc":1945,"bbfdbe":1946,"eddbbc":1947,"bcbbecc":1948,"dbceec":1949,"dbcbec":1950,"bbeeef":1951,"bfbbbf":1952,"eedbdc":1953,"bcdbbf":1954,"eceeebb":1955,"dffbc":1956,"ba</w>":1957,"eebeebb":1958,"decebc":1959,"dbdbf":1960,"edbedc":1961,"eebea":1962,"ebebcbc":1963,"bbbbbdc":1964,"edecbc":1965,"fcbebc":1966,"eedbbbe":1967,"edbcf":1968,"ddbbbd":1969,"ebefbc":1970,"bbecbbc":1971,"dbcebc":1972,"bbbcbcc":1973,"bed</w>":1974,"ecbbbcc":1975,"bec</w>":1976,"ecdbdc":1977,"ffbcc":1978,"edcdee":1979,"bcccccc":1980,"becebbc":1981,"bbbcdc":1982,"eecbebc":1983,"ecdccc":1984,"ddbebe":1985,"ebebbcc":1986,"edda":1987,"dfdcc":1988,"bcdbdc":1989,"efea":1990,"ebdbbbe":1991,"ebdbdc":1992,"bbcbbebb":1993,"fbea":1994,"ebdbbf":1995,"bddbbd":1996,"eedbbf":1997,"ebedbd":1998,"deea":1999,"effcc":2000,"bdbbebe":2001,"ebedec":2002,"ffdf":2003,"eccbbd":2004,"ecebbcc":2005,"ebedcc":2006,"dbebbd":2007,"bbbcfc":2008,"beefcc":2009,"ebbbcf":2010,"ebcbef":2011,"edbdcc":2012,"ebbfebb":2013,"dcbeee":2014,"bcbebbc":2015,"deebec":2016,"bdca":2017,"bbbbdbc":2018,"dfdbd":2019,"ebcfec":2020,"bbeea":2021,"edbbbf":2022,"bfea":2023,"efbbec":2024,"ebddbd":2025,"deedbe":2026,"dceebc":2027,"bddbec":2028,"eebbebf":2029,"edbcee":2030,"eecbbf":2031,"becdbd":2032,"fdbfc":2033,"bbcba":2034,"fcedc":2035,"bcbebf":2036,"efeeee":2037,"bdcebb":2038,"deebcc":2039,"eecbbbc":2040,"eecbbbe":2041,"eecdbd":2042,"fbebcc":2043,"ebdbebe":2044,"dbebbbe":2045,"edac":2046,"dcfbd":2047,"eccdbc":2048,"ecebfc":2049,"dceecc":2050,"bbbbbbec":2051,"bbfbbd":2052,"fbbbbbbbb":2053,"bddeec":2054,"eddbb":2055,"bdb</w>":2056,"aebf":2057,"edeeee":2058,"bbbd</w>":2059,"becbfc":2060,"beeebf":2061,"deeebe":2062,"fbcbf":2063,"ebcdcc":2064,"ebbddc":2065,"ddbbbc":2066,"bbbbbbcc":2067,"ebbecbc":2068,"bbbbebf":2069,"ebcbbec":2070,"efcdf":2071,"dcebec":2072,"decbf":2073,"ecbbeec":2074,"bbbbdbd":2075,"ebbbcbd":2076,"bbcded":2077,"efcbf":2078,"ebbcbf":2079,"ddbfc":2080,"efbcbc":2081,"ebcbbbd":2082,"ebcbcbc":2083,"fdbbee":2084,"ebdbebc":2085,"bbdfbc":2086,"beddcc":2087,"dcdbf":2088,"bebebec":2089,"feedd":2090,"edbcbe":2091,"bcdccc":2092,"bbcbeee":2093,"eccfec":2094,"bbfbbbc":2095,"edbcbd":2096,"bdbbef":2097,"dccfc":2098,"feeebe":2099,"edcedc":2100,"bcfef":2101,"fbebec":2102,"edbbdc":2103,"badd":2104,"bebcbec":2105,"edbeebb":2106,"deebbbb":2107,"eccded":2108,"fcbbec":2109,"efddc":2110,"bccdec":2111,"dbeeec":2112,"aea":2113,"ebbeef":2114,"ebf</w>":2115,"eceebf":2116,"ccccc":2117,"dcceec":2118,"edbccc":2119,"ebbbebf":2120,"ebbeecc":2121,"bfcbbc":2122,"ecbbebd":2123,"eeebfc":2124,"bebedc":2125,"bebbba":2126,"dbebbf":2127,"bdcdf":2128,"becfbc":2129,"bebcbbc":2130,"eebebbc":2131,"feedc":2132,"bbbdbf":2133,"dbca":2134,"bccebf":2135,"bedbfc":2136,"bcc</w>":2137,"bbbbdf":2138,"ebbbbbbbbbb":2139,"bccbebe":2140,"bbbbebbc":2141,"becebf":2142,"ebbeebd":2143,"bedebbc":2144,"bbf</w>":2145,"ecb</w>":2146,"effbe":2147,"ffbbf":2148,"babf":2149,"dbedee":2150,"bdebdc":2151,"ebceebc":2152,"dbcdbc":2153,"eefdd":2154,"eccbbf":2155,"cccfc":2156,"bbbbbcbc":2157,"fbbedc":2158,"eadd":2159,"ebbbcee":2160,"dcdebb":2161,"edcebd":2162,"bcefcc":2163,"eecdcc":2164,"bcebecc":2165,"bebea":2166,"bbdbbec":2167,"efdbf":2168,"edcbcc":2169,"dbdbbc":2170,"bbdbfc":2171,"dcbbcc":2172,"becbef":2173,"dbeebd":2174,"bdcebd":2175,"bdcbcc":2176,"bcbbccc":2177,"bbdbef":2178,"fecdd":2179,"bbeebbf":2180,"eededc":2181,"ecedbd":2182,"deedf":2183,"bbcbbbbc":2184,"efbbcc":2185,"bbbbbbbf":2186,"dcfed":2187,"ffed":2188,"bebedd":2189,"bbdebbc":2190,"decfc":2191,"bfddc":2192,"bdcdbe":2193,"ecceecc":2194,"ebbfed":2195,"bcfbbc":2196,"becbbee":2197,"efbbbd":2198,"ebbbebbbb":2199,"ebbbcec":2200,"bbbbbef":2201,"fcbcbc":2202,"bebcbf":2203,"bbbbff":2204,"dfebf":2205,"eebebbbe":2206,"dfbbbe":2207,"bdbced":2208,"dcbecc":2209,"ebdded":2210,"aedc":2211,"fbebbbe":2212,"ecbeecc":2213,"ebbbbdc":2214,"bceba":2215,"ebbcebc":2216,"fbbbfc":2217,"ebbeeebb":2218,"babbc":2219,"bbebbbbbe":2220,"edfdc":2221,"bdeccc":2222,"eeddcc":2223,"feeef":2224,"bebbbfc":2225,"decdee":2226,"bebefc":2227,"bbbbecc":2228,"ecbebbc":2229,"bbbbdee":2230,"decdf":2231,"becedc":2232,"fdebbc":2233,"bebebcc":2234,"bfbeec":2235,"bdfdd":2236,"dbcccc":2237,"bbbc</w>":2238,"beeebeee":2239,"abbee":2240,"adbd":2241,"ffdbe":2242,"bcdebf":2243,"beacc":2244,"dbcdf":2245,"efefc":2246,"bdecf":2247,"ebfbec":2248,"dcfbe":2249,"bbbcccc":2250,"bbbdbbbd":2251,"bbebbbbc":2252,"ebbdbbc":2253,"dee</w>":2254,"dcbebd":2255,"dcebcc":2256,"bbecbf":2257,"bdcbdc":2258,"ebcefc":2259,"bceedd":2260,"beebccc":2261,"bdeedc":2262,"efded":2263,"bedefc":2264,"fcfee":2265,"ebbcebe":2266,"becbeec":2267,"bbbcbbf":2268,"ebbbccc":2269,"eed</w>":2270,"eecbfc":2271,"ebbfbf":2272,"eecedc":2273,"ffebc":2274,"bbccbbc":2275,"bbbca":2276,"becdcc":2277,"fdba":2278,"dbbfcc":2279,"ebeea":2280,"fcbeec":2281,"bdcecc":2282,"bccbfc":2283,"bedba":2284,"bfac":2285,"bccfbc":2286,"bdfef":2287,"ebbcdd":2288,"afbc":2289,"eddecc":2290,"bfbcf":2291,"ecbeebc":2292,"bebebbf":2293,"bbbbba":2294,"eedbbbc":2295,"fbebbf":2296,"bdbebbc":2297,"edbbbbc":2298,"bcbefc":2299,"edeebd":2300,"bbbebebc":2301,"bbdbbcc":2302,"bbcdcc":2303,"bdcdee":2304,"bcdbbbc":2305,"fecccc":2306,"ded</w>":2307,"ddcdc":2308,"dbddbd":2309,"bebeebc":2310,"ebdbbbc":2311,"bebebbee":2312,"bbdba":2313,"bbcfee":2314,"ffecc":2315,"bfbecc":2316,"ddbbee":2317,"eefdc":2318,"cccecc":2319,"beeebbbe":2320,"dbcbcc":2321,"fecdf":2322,"ebcfee":2323,"abef":2324,"ebcbeec":2325,"bbeb</w>":2326,"fcebbc":2327,"ebacc":2328,"bdecbd":2329,"ebcdebb":2330,"dedbbc":2331,"bfdebb":2332,"bcbebec":2333,"cccbcc":2334,"fcfcc":2335,"edbced":2336,"edcdbe":2337,"ddbef":2338,"ebfbbf":2339,"eefbbbb":2340,"ffbec":2341,"eec</w>":2342,"dcbbed":2343,"bfcef":2344,"ddfec":2345,"bdbbfc":2346,"edeeec":2347,"dec</w>":2348,"bbdbbebb":2349,"bdffc":2350,"bbbeebd":2351,"dbcdee":2352,"bfbbed":2353,"ecceebc":2354,"fbcef":2355,"fbbba":2356,"ebfbcc":2357,"bbbeeec":2358,"dbcdbe":2359,"ebbbeebe":2360,"eeeebeee":2361,"bebbbbcc":2362,"dccef":2363,"ebfebc":2364,"ecffc":2365,"becbbbd":2366,"edcff":2367,"ebbdbbbb":2368,"fbcfc":2369,"ebbdbb":2370,"bdbbebc":2371,"bddebd":2372,"debfcc":2373,"eefbbc":2374,"bbbebbbd":2375,"bccdbd":2376,"bfcdd":2377,"edbbebe":2378,"ecdbbbe":2379,"efcdd":2380,"bbeedbe":2381,"ebfff":2382,"fbeff":2383,"fecdc":2384,"bccbef":2385,"deeef":2386,"eebbbdc":2387,"ebcba":2388,"bebebbbc":2389,"fbcbbc":2390,"fbbebbc":2391,"edbbdd":2392,"bcfebe":2393,"edeccc":2394,"dbcecc":2395,"ebcbebd":2396,"ebcbbcc":2397,"bbbe</w>":2398,"eebbedc":2399,"deeecc":2400,"bffbf":2401,"bfcebe":2402,"bcbbbdc":2403,"dbcbbd":2404,"dbcebb":2405,"bfeebc":2406,"beeac":2407,"edbdbd":2408,"bcebccc":2409,"bdbcebb":2410,"dbebdc":2411,"bcbeebe":2412,"ebbcbec":2413,"eee</w>":2414,"dbebbbc":2415,"ecdbbf":2416,"abebe":2417,"dcea":2418,"bbecbec":2419,"ebbbbef":2420,"dfdec":2421,"ebcbecc":2422,"ebbcfc":2423,"bbfccc":2424,"ffbbbb":2425,"dfbfc":2426,"eecfec":2427,"edeef":2428,"beeebbee":2429,"ddbebc":2430,"fdefc":2431,"bdbedd":2432,"dccecc":2433,"effec":2434,"bdecec":2435,"bfbebd":2436,"beeebbc":2437,"bdfbbc":2438,"ebbac":2439,"eecbef":2440,"bbbdbbd":2441,"dbbefc":2442,"ecbefc":2443,"ddfcc":2444,"ebbbbdd":2445,"edcded":2446,"bbebbebe":2447,"eebebbee":2448,"bbbbcbbc":2449,"eecbebe":2450,"bbccbbbb":2451,"eccbbbe":2452,"decbcc":2453,"eccbebc":2454,"afee":2455,"dcdef":2456,"bdbebbbb":2457,"ebecbbc":2458,"bcbcbbbb":2459,"bdcbbd":2460,"dbeff":2461,"dffcc":2462,"bdcccc":2463,"bdbcbf":2464,"edcccc":2465,"eceba":2466,"bbeebec":2467,"eecbbec":2468,"eecbecc":2469,"ebbbedc":2470,"dbcebd":2471,"ddefc":2472,"bfcdc":2473,"edbebf":2474,"eecebbc":2475,"bcfebc":2476,"dbbebec":2477,"ebbdebe":2478,"bbfebd":2479,"bbccccc":2480,"deeebc":2481,"eecbeec":2482,"bdeeebb":2483,"bbebdcc":2484,"bbbbfbc":2485,"bccbbee":2486,"ebbbcebb":2487,"fbeccc":2488,"bbcbeec":2489,"bbcfec":2490,"ecfdd":2491,"dbdef":2492,"bffdc":2493,"becbcbc":2494,"decdbe":2495,"decef":2496,"bdbba":2497,"bcfa":2498,"efcdc":2499,"ebbecbe":2500,"ebfccc":2501,"befdf":2502,"bdcff":2503,"fcbbee":2504,"befbbf":2505,"bddbcc":2506,"eccfbc":2507,"bdeebf":2508,"bce</w>":2509,"edfbf":2510,"dbfdd":2511,"bdbbbec":2512,"bfebec":2513,"ebbdebc":2514,"ebfdf":2515,"bcbbebf":2516,"fdfcc":2517,"bbbeccc":2518,"baebe":2519,"badc":2520,"debbbbbb":2521,"eebbccc":2522,"bfebcc":2523,"bbebebbbb":2524,"ebbbeed":2525,"bfca":2526,"ebcfbe":2527,"fcbebe":2528,"bcdbbee":2529,"eccdcc":2530,"bbdddd":2531,"fcfec":2532,"eebedd":2533,"dbedbc":2534,"bbbdbbbe":2535,"edeedc":2536,"bceedc":2537,"eebac":2538,"edebdc":2539,"eecfbc":2540,"decebe":2541,"eddebd":2542,"befbcc":2543,"bfbccc":2544,"bfcdf":2545,"befebc":2546,"befbec":2547,"beeea":2548,"eecdebb":2549,"bbdfee":2550,"bbfbebe":2551,"bccbcbc":2552,"bbecccc":2553,"bdbcdc":2554,"decdec":2555,"bcbac":2556,"ecc</w>":2557,"eccefc":2558,"eddbbbb":2559,"efbbebb":2560,"ebebbbf":2561,"ebdfbc":2562,"ebebebd":2563,"bbfebf":2564,"eadc":2565,"cccccccccccccccc":2566,"bccdcc":2567,"bcd</w>":2568,"effbd":2569,"fbedf":2570,"bbeebebe":2571,"feddd":2572,"eebefc":2573,"bdeeed":2574,"bfcbec":2575,"bfeeee":2576,"bccbebc":2577,"ff</w>":2578,"eecba":2579,"eeebecc":2580,"bcfccc":2581,"ecefcc":2582,"fbeebc":2583,"ebbbebbc":2584,"bfcbbbb":2585,"bbbeebf":2586,"bbdbeee":2587,"bfecbc":2588,"eccebbc":2589,"bfbcbe":2590,"befccc":2591,"edfebb":2592,"bbeefc":2593,"eeefcc":2594,"bcbcbbc":2595,"ebebeebb":2596,"eccbbbc":2597,"ddfee":2598,"dbebebe":2599,"eebedc":2600,"becfec":2601,"dbbbdbd":2602,"adcc":2603,"bbbedf":2604,"bfbbbbc":2605,"fbebbbc":2606,"dbdfc":2607,"ebebecc":2608,"dbffc":2609,"bfdef":2610,"bdecee":2611,"bebcebc":2612,"eccebf":2613,"bebb</w>":2614,"eedbfc":2615,"eebeebc":2616,"efbeec":2617,"eecbcbc":2618,"bbbdebe":2619,"bdcdbc":2620,"bbcefc":2621,"bbceebc":2622,"bbeeebc":2623,"fbeebb":2624,"bcbbbbcc":2625,"befdbe":2626,"bbcbbbf":2627,"dbda":2628,"ecbeccc":2629,"bcddcc":2630,"bddecc":2631,"bdfebe":2632,"bbecebe":2633,"bccded":2634,"dbbbecc":2635,"bdbeebe":2636,"ebdebbc":2637,"bfbcee":2638,"bbeddd":2639,"deceec":2640,"bbbeff":2641,"dbdebe":2642,"ecdeecc":2643,"dceebd":2644,"ebbdef":2645,"ebdbfc":2646,"baba":2647,"bbbda":2648,"dbddf":2649,"deedee":2650,"bbcbebd":2651,"beeebebe":2652,"eddbbd":2653,"bccfec":2654,"dcfdc":2655,"feea":2656,"ecddcc":2657,"ebdebf":2658,"edbedd":2659,"ebbebdc":2660,"ebbbbebc":2661,"eebeebf":2662,"dcbcee":2663,"bbfeec":2664,"bbcebec":2665,"bbfecc":2666,"bbbceec":2667,"beeeef":2668,"becbecc":2669,"bbbcbbbd":2670,"eeeeef":2671,"eceeebe":2672,"ebcfcc":2673,"fbebbee":2674,"deca":2675,"bbbcdbe":2676,"bbdbebd":2677,"dbddbe":2678,"ebbcef":2679,"aca":2680,"bbdbcbc":2681,"deedbc":2682,"dbbea":2683,"eeffc":2684,"bbbebbec":2685,"beebbbbbb":2686,"bdbbbbbbbb":2687,"eccbebe":2688,"bbcbbed":2689,"eebbbbbbbb":2690,"efcef":2691,"bccbbcc":2692,"bedbbcc":2693,"bdedbd":2694,"bcfbec":2695,"ece</w>":2696,"fdbbcc":2697,"bbfbbee":2698,"ecebccc":2699,"bbfbfc":2700,"ebeded":2701,"baef":2702,"ecebecc":2703,"cccef":2704,"eccbfc":2705,"bbbced":2706,"ebbeebf":2707,"ebceecc":2708,"dcced":2709,"ecdebf":2710,"bbbbbfc":2711,"bebcef":2712,"bbbcbebe":2713,"fcdbf":2714,"bdcedc":2715,"dcbeed":2716,"bcbeef":2717,"abca":2718,"deddf":2719,"eccfcc":2720,"fbbdcc":2721,"fbcdf":2722,"ebdbbee":2723,"becbbcc":2724,"ebbeeebe":2725,"bbbfbf":2726,"bebcebe":2727,"bdcdbd":2728,"ecdefc":2729,"bcbedbe":2730,"ecdebbc":2731,"ebbbbbec":2732,"bbcdebb":2733,"bbfdbc":2734,"ebbbdbd":2735,"eebebcc":2736,"ebddcc":2737,"deedcc":2738,"beecbec":2739,"ebcebcc":2740,"abfc":2741,"eccdbd":2742,"ffebf":2743,"ecbeebe":2744,"fbcbec":2745,"edbebbc":2746,"ddfbd":2747,"bbdeebc":2748,"ebddebb":2749,"bbbedbc":2750,"bbbebdc":2751,"dcecbc":2752,"ebcddc":2753,"bdd</w>":2754,"fceebc":2755,"ebbfdc":2756,"ecfef":2757,"ddebbc":2758,"dceeec":2759,"eddbcc":2760,"ebbeeec":2761,"eedba":2762,"dbebbee":2763,"dbeedc":2764,"ecbea":2765,"bbccebe":2766,"bedbecc":2767,"ffdcc":2768,"fccccc":2769,"ebdbbbd":2770,"bccbbec":2771,"bbdbeec":2772,"bebcfc":2773,"bbdbbed":2774,"eefccc":2775,"ddba":2776,"bfbcec":2777,"bbfdee":2778,"eecfee":2779,"ebcebec":2780,"bbffbc":2781,"ecfccc":2782,"ecbbccc":2783,"ebcecbc":2784,"eeeea":2785,"efcfc":2786,"eedbbee":2787,"becfee":2788,"bdcdec":2789,"edbbebc":2790,"dfbbbc":2791,"eaebe":2792,"bcbebbbe":2793,"eeeebbbb":2794,"dcdebe":2795,"ffdbc":2796,"bafc":2797,"becdebb":2798,"bdbeef":2799,"ecbebbbb":2800,"bffed":2801,"bebbea":2802,"dcbcbd":2803,"dcbccc":2804,"ebfbbbe":2805,"ebcbeee":2806,"ebbdfc":2807,"ecdbbbc":2808,"ecbebcc":2809,"ebdeebc":2810,"edcbbbb":2811,"eccbecc":2812,"abea":2813,"deeed":2814,"becba":2815,"bfbcbd":2816,"eecbbee":2817,"ebdfec":2818,"fcbbbd":2819,"dcdfc":2820,"eebebbf":2821,"dccebe":2822,"dddbf":2823,"bbcfcc":2824,"ffbdc":2825,"ebfebf":2826,"bcdbfc":2827,"adec":2828,"ddbbec":2829,"ffbbd":2830,"bbcbecc":2831,"bcbebcc":2832,"eecbbbd":2833,"bcfbbbb":2834,"dceccc":2835,"bcbeebc":2836,"edbbef":2837,"ddbeee":2838,"bcbbedc":2839,"edcdbc":2840,"bfbebf":2841,"deebdc":2842,"bcfdf":2843,"fdbecc":2844,"fcbbcc":2845,"dedccc":2846,"eddedc":2847,"ebebbebe":2848,"eeceecc":2849,"ecbbedc":2850,"ecdbfc":2851,"dedbec":2852,"eecebf":2853,"fbbbbcc":2854,"bdedcc":2855,"edbcebb":2856,"fccef":2857,"fcefc":2858,"bbbcbcbc":2859,"bbdfec":2860,"decbbbb":2861,"eebbebbc":2862,"bbbcebd":2863,"eecddc":2864,"fbeebf":2865,"eaea":2866,"bbbfbbc":2867,"bccebbc":2868,"fbcbbbb":2869,"edfef":2870,"fbedbe":2871,"ebcdbf":2872,"bfeef":2873,"dcbcec":2874,"ebbbced":2875,"eeceebc":2876,"deebbf":2877,"eebeecc":2878,"dcbbebb":2879,"ecbedbe":2880,"bdfa":2881,"ebebeec":2882,"fcba":2883,"beceebc":2884,"edcbdc":2885,"dbdbbd":2886,"bbbdef":2887,"eeebccc":2888,"bebcbebc":2889,"becefc":2890,"bbbeecc":2891,"febdcc":2892,"ebbeccc":2893,"deebbd":2894,"dddebb":2895,"edecbd":2896,"bcbea":2897,"bccefc":2898,"ecfbbc":2899,"bbbcdf":2900,"bcbbebbc":2901,"eedebf":2902,"bdfebc":2903,"bbfbef":2904,"dececc":2905,"bdbbbcc":2906,"edcfec":2907,"eecbebd":2908,"eeeebbee":2909,"bbecebc":2910,"bbbdbbee":2911,"bbfbdc":2912,"eebeccc":2913,"bbbbbebbbb":2914,"bcfbcc":2915,"eedbecc":2916,"defdd":2917,"bfdbbc":2918,"ebefcc":2919,"ebbcbbbe":2920,"ebbbbfc":2921,"bbccef":2922,"fbcdd":2923,"ebcfed":2924,"fdac":2925,"fcbecc":2926,"dbedbd":2927,"dbcff":2928,"eaef":2929,"eefdf":2930,"bbdfbd":2931,"acba":2932,"dbcbbbe":2933,"bedebec":2934,"bbbbbeee":2935,"dedbf":2936,"bbecdd":2937,"dbebebc":2938,"edbcdc":2939,"feeccc":2940,"ebdbef":2941,"bbcfbd":2942,"dccbec":2943,"fbebdc":2944,"edcebb":2945,"bfcebc":2946,"dbcbbf":2947,"bdbbebd":2948,"ecfa":2949,"bccbbbd":2950,"ebebbed":2951,"dfbebe":2952,"dbdbec":2953,"efbbbf":2954,"bedebcc":2955,"dccebc":2956,"eeeebebe":2957,"edfdd":2958,"bbbebef":2959,"bebbebec":2960,"bbbbbbed":2961,"fccfc":2962,"bbbebeee":2963,"dcac":2964,"deddbe":2965,"dbbebcc":2966,"efca":2967,"ffebd":2968,"ebbeedc":2969,"feebbc":2970,"ebbdbec":2971,"fdea":2972,"deddee":2973,"bffebb":2974,"dfddc":2975,"becbebd":2976,"ddeebc":2977,"bbdbbbbc":2978,"dccbbc":2979,"bbdebec":2980,"eeeeccc":2981,"ebeeebc":2982,"ecbbbdc":2983,"becebec":2984,"debac":2985,"fcdef":2986,"ecbac":2987,"ebbbba":2988,"fbcccc":2989,"efbbed":2990,"bbbcbbee":2991,"bebeccc":2992,"ebbcdc":2993,"bfcbcc":2994,"ebbfef":2995,"ebbca":2996,"dbddee":2997,"edecec":2998,"edbbfc":2999,"bcfbbf":3000,"eecbbcc":3001,"bbdefc":3002,"ebcbbebb":3003,"eeacc":3004,"bddbdc":3005,"bbbbdbbbb":3006,"ecbeedc":3007,"decdbc":3008,"eefbeee":3009,"fcddc":3010,"fbbefc":3011,"bcfdbe":3012,"ecd</w>":3013,"ebedebb":3014,"fecbec":3015,"efac":3016,"edeebe":3017,"bbebfcc":3018,"ebbecbd":3019,"ebcbbed":3020,"eccbbee":3021,"bdecdc":3022,"eecefc":3023,"eedebbc":3024,"dbfdc":3025,"eeeebf":3026,"ddeecc":3027,"ebbfebe":3028,"fcebec":3029,"ebfbebe":3030,"bbbcbebc":3031,"bebbefc":3032,"eefbcc":3033,"bcdebbc":3034,"ebbbcdc":3035,"bcbcccc":3036,"bdeedd":3037,"bddbbbe":3038,"ebceebd":3039,"abbbd":3040,"ebefbe":3041,"ebfecc":3042,"effbf":3043,"fecbf":3044,"ebebbbbc":3045,"bbbcdee":3046,"ebcfbd":3047,"ecbebf":3048,"fdebec":3049,"bbbebbcc":3050,"ebbfbbc":3051,"bbebbbf":3052,"ebbcbcc":3053,"ebbbcbf":3054,"edffc":3055,"bebbdcc":3056,"dccbf":3057,"bdecbf":3058,"ebbbebbbe":3059,"bdeced":3060,"ffdee":3061,"eccebcc":3062,"bdcbbf":3063,"ebeddc":3064,"fbcdc":3065,"ebdbbec":3066,"beecccc":3067,"fcfbd":3068,"ebeebcc":3069,"ebdefc":3070,"eebebec":3071,"befbbbe":3072,"eeeac":3073,"bbbcbbec":3074,"bebca":3075,"dccdcc":3076,"fcdebb":3077,"ecfecc":3078,"ecbebec":3079,"fbb</w>":3080,"eebbba":3081,"eebcbbc":3082,"edceecc":3083,"fdebcc":3084,"dbbbccc":3085,"bdbdbdbd":3086,"bcbbbfc":3087,"ddbeec":3088,"bebcbbbe":3089,"dfbbee":3090,"fbbea":3091,"ebbbeef":3092,"bbbddbd":3093,"bbbddc":3094,"ebeefc":3095,"edcbbd":3096,"ecbedbc":3097,"efecbc":3098,"ebebccc":3099,"ebefec":3100,"edbeebc":3101,"bedea":3102,"eabf":3103,"cccbbc":3104,"ddbcbc":3105,"dbeebf":3106,"ebbceec":3107,"bebceec":3108,"fbebbd":3109,"ddbbcc":3110,"fbca":3111,"bcfecc":3112,"eebeff":3113,"beecbbc":3114,"efebcc":3115,"ebbbbbcc":3116,"befbbee":3117,"ebefbd":3118,"bebebbd":3119,"dcdeec":3120,"ebbdbbd":3121,"bcbebbf":3122,"dbedec":3123,"dcbbdc":3124,"dbbecbc":3125,"bbbcdbc":3126,"bcbedf":3127,"ebbcbbd":3128,"eefbbf":3129,"bbbcbbbbc":3130,"dcbbbf":3131,"eedefc":3132,"becbbebb":3133,"edb</w>":3134,"eccfed":3135,"bdcbbbe":3136,"bdddcc":3137,"befebf":3138,"dceedc":3139,"eecfed":3140,"abeee":3141,"bebebeee":3142,"edceebc":3143,"dcdbbc":3144,"dbbb</w>":3145,"bfbbdc":3146,"fbcebc":3147,"ebdba":3148,"dbdebc":3149,"bcdefc":3150,"dcbedc":3151,"dccbcc":3152,"bbbbbbebe":3153,"ebdbebd":3154,"feebbee":3155,"bbbcbbebb":3156,"abbec":3157,"bbccbec":3158,"bcbbba":3159,"bdbbeec":3160,"dddddddd":3161,"efdebb":3162,"bbbedee":3163,"bbbbbebd":3164,"dffec":3165,"bedeecc":3166,"bbbdbec":3167,"bdebfc":3168,"ebedbf":3169,"efbecc":3170,"eecdbf":3171,"bbccbf":3172,"dcdebc":3173,"ebdfee":3174,"ecdbbee":3175,"efbebd":3176,"ebdddc":3177,"efcbec":3178,"ecfbcc":3179,"fbeecc":3180,"bdbfcc":3181,"bebcdd":3182,"bbbebcbc":3183,"bddbbf":3184,"ebebeebe":3185,"aac":3186,"eecebcc":3187,"bbedbbc":3188,"bbdbbbf":3189,"bedfcc":3190,"bbeebcc":3191,"bbebbbbebb":3192,"efdef":3193,"fbeed":3194,"ebcea":3195,"bceac":3196,"bfcff":3197,"bfcdbe":3198,"ebdbecc":3199,"ddbecc":3200,"bbbeebbc":3201,"ebecbbbb":3202,"cccbf":3203,"bdcebf":3204,"ebdbeec":3205,"bbfbbbd":3206,"eecfbd":3207,"ecdfcc":3208,"bddedc":3209,"ddbebd":3210,"fecbbc":3211,"bbecfc":3212,"eecbedc":3213,"efbccc":3214,"edecbe":3215,"edcbebc":3216,"efcbbc":3217,"ecdbecc":3218,"deda":3219,"bbecdf":3220,"dceeee":3221,"becebcc":3222,"becbeee":3223,"bcbeccc":3224,"edbefc":3225,"bceebf":3226,"befbebe":3227,"dbfbf":3228,"fcbebd":3229,"ebebcec":3230,"eefbbee":3231,"feeff":3232,"bceebbc":3233,"eefbebe":3234,"bbbddbe":3235,"bbfbebc":3236,"edbcbf":3237,"ebcdebe":3238,"bccbccc":3239,"dbdeec":3240,"fbbfcc":3241,"feddf":3242,"bbbcbdc":3243,"dbddbc":3244,"bebbebcc":3245,"fffbc":3246,"deebbbe":3247,"edddcc":3248,"bbccfc":3249,"ebfbef":3250,"ebdbcbc":3251,"dedfc":3252,"eccbbec":3253,"dbedcc":3254,"ebbda":3255,"bfbeebb":3256,"ebeecbc":3257,"bdeebbc":3258,"dbdccc":3259,"bcfeec":3260,"bccfcc":3261,"ebbcdf":3262,"fdeecc":3263,"ecceccc":3264,"eccbcbc":3265,"fbddd":3266,"ebdeecc":3267,"bfcdee":3268,"bccfee":3269,"edfbbc":3270,"eedeecc":3271,"edbeebe":3272,"eeeebbbe":3273,"ebbcbbf":3274,"ebbbedd":3275,"bfbbef":3276,"ecccccc":3277,"ddebcc":3278,"deacc":3279,"bbccebc":3280,"bcacc":3281,"eebcbec":3282,"bfbbebe":3283,"dedef":3284,"ddebec":3285,"bbdbecc":3286,"bbbcebf":3287,"ebeebec":3288,"afcc":3289,"eccbeec":3290,"dccdf":3291,"deebbee":3292,"dcbcbe":3293,"ecfbec":3294,"bbdbbdd":3295,"debbbbc":3296,"bbedbbbb":3297,"ebffee":3298,"dbdbdc":3299,"bfeecc":3300,"ebeeeebb":3301,"ebebebf":3302,"ebbbcbbbb":3303,"efbcec":3304,"eabbc":3305,"bebebdc":3306,"ecfedc":3307,"ddfdc":3308,"ecfebc":3309,"ebbcdbe":3310,"fcebcc":3311,"dfbef":3312,"bbbebbbbc":3313,"ea</w>":3314,"fccbec":3315,"abebc":3316,"bcceebc":3317,"dbcbdc":3318,"ecceebd":3319,"dbded":3320,"eccbef":3321,"ddcfc":3322,"ebfdbe":3323,"ecbedcc":3324,"bbecef":3325,"bbcbccc":3326,"eccecbc":3327,"eefbec":3328,"bccbeee":3329,"dffbd":3330,"bbbcff":3331,"bebbbecc":3332,"edcefc":3333,"dcfbf":3334,"ebcbbbf":3335,"bbdbdbd":3336,"ebcbcec":3337,"fcbbed":3338,"deddbc":3339,"dbfef":3340,"afec":3341,"eebbbfc":3342,"bbcfbe":3343,"dbbeecc":3344,"ebcbedc":3345,"bbbbbeebb":3346,"beecdf":3347,"eefbef":3348,"edcdcc":3349,"bffef":3350,"fbcff":3351,"ecbeebd":3352,"fbcebe":3353,"bbbdbbf":3354,"bcfebd":3355,"bdecebb":3356,"abbcc":3357,"edbbbec":3358,"bcbcbcbcbcbcbcbc":3359,"eebebdc":3360,"eecbeee":3361,"bcbcfc":3362,"eceeccc":3363,"eecdebc":3364,"bcceecc":3365,"bcbebbbc":3366,"bbbbbcbbbb":3367,"eebbbbcc":3368,"bfdfc":3369,"bbeebeee":3370,"ebcdebc":3371,"badf":3372,"fffee":3373,"bfcbbf":3374,"ecdebcc":3375,"ebbcebd":3376,"bbdbbdc":3377,"fecef":3378,"edcbbf":3379,"ffbef":3380,"becfcc":3381,"bebcbcc":3382,"ddbbed":3383,"dcebdc":3384,"decebd":3385,"fbedbc":3386,"edcebf":3387,"bcbcbf":3388,"bebcdf":3389,"ebbbcbbc":3390,"bbecdee":3391,"ecbbebf":3392,"dbbac":3393,"becbbed":3394,"bbbddf":3395,"bbcddc":3396,"ffbbbe":3397,"fbcbcc":3398,"bde</w>":3399,"ebbecec":3400,"bbebbbbbc":3401,"bebcccc":3402,"ecbeed":3403,"bbeeccc":3404,"dcca":3405,"bcbcdd":3406,"eecdfc":3407,"efebec":3408,"decded":3409,"bbccbcc":3410,"decbdc":3411,"effdc":3412,"edcdbd":3413,"bcbeed":3414,"eabbbb":3415,"efeebc":3416,"feebeee":3417,"bbdfcc":3418,"bbcebcc":3419,"dbcdbd":3420,"feefc":3421,"ecceedc":3422,"dbcbbbc":3423,"deeebd":3424,"ffdbd":3425,"deced":3426,"eefebf":3427,"bbccdd":3428,"bebedbe":3429,"eefbbbe":3430,"bbdfbe":3431,"bebcdc":3432,"ebebcee":3433,"becdbf":3434,"efbbef":3435,"ebebcbd":3436,"bcfedc":3437,"efdbbc":3438,"bbeebbbc":3439,"bccebec":3440,"eccebec":3441,"bbbebfc":3442,"bbbdbbbc":3443,"bebdbbbb":3444,"deeeec":3445,"eebcbbbb":3446,"bcfebf":3447,"edeeebb":3448,"bcbeeec":3449,"feebbf":3450,"beecbf":3451,"eebbea":3452,"dcbbdd":3453,"beeedd":3454,"dbebef":3455,"bbbdfc":3456,"ebedbbc":3457,"bebbfcc":3458,"ebeeebe":3459,"bbbeba":3460,"bcbeecc":3461,"bbeca":3462,"bbabbbb":3463,"ddddcc":3464,"dcfdd":3465,"bbeebbebb":3466,"dcdecc":3467,"bebeecc":3468,"eedbbcc":3469,"efbcee":3470,"decbbd":3471,"bebddd":3472,"bbbebbbf":3473,"bebeebf":3474,"bbeebbd":3475,"feebbbb":3476,"fcceec":3477,"ebcbcbd":3478,"bbbedbd":3479,"bdbebec":3480,"afbd":3481,"ebbbdbc":3482,"bbcbbdc":3483,"ebbcccc":3484,"fbcbbf":3485,"bfdbbbb":3486,"bbecdbe":3487,"ebbdeec":3488,"dcdcdcdc":3489,"ecbebdc":3490,"bdebbcc":3491,"abcbc":3492,"bfda":3493,"bfdebe":3494,"ddea":3495,"dcdbec":3496,"bbbdebc":3497,"beeefc":3498,"ecbbbbbbbb":3499,"ebbcbbbc":3500,"bcdba":3501,"dedbcc":3502,"decdcc":3503,"bdc</w>":3504,"bfeebd":3505,"dbcbebe":3506,"beeeeeee":3507,"eefebc":3508,"bbcbcbd":3509,"bbcceec":3510,"edbeecc":3511,"beccbec":3512,"dfba":3513,"bdbefc":3514,"efbcbd":3515,"edbeef":3516,"bbbbcbbbbc":3517,"ebeeeebe":3518,"dbbcbbbb":3519,"bbecbcc":3520,"bcbebbd":3521,"dbfa":3522,"dfefc":3523,"ebecbec":3524,"ddbbdd":3525,"bddccc":3526,"bffdd":3527,"bbfdbd":3528,"eebcfc":3529,"ecbcbbc":3530,"ebbeeef":3531,"dcecec":3532,"ffbbee":3533,"bcbcbcc":3534,"ededcc":3535,"edeeed":3536,"bbfba":3537,"eccbebd":3538,"ffedc":3539,"ebccfc":3540,"eccddc":3541,"eafc":3542,"dedebc":3543,"ebbfbbbb":3544,"ebccbbc":3545,"dfbebc":3546,"edfebe":3547,"ebebbef":3548,"fbceec":3549,"bebebef":3550,"bebebebc":3551,"dbdbcc":3552,"ececccc":3553,"bbee</w>":3554,"debbdd":3555,"bcbedee":3556,"beecdd":3557,"ecbeef":3558,"ebebbdc":3559,"dbcdec":3560,"ebfbdc":3561,"bbecbbd":3562,"dcbced":3563,"eeecccc":3564,"cccbec":3565,"dbebbbd":3566,"bfceec":3567,"fbbebec":3568,"fbdef":3569,"fecbcc":3570,"dccdee":3571,"bfeccc":3572,"bdbddd":3573,"bbebac":3574,"fbeeec":3575,"bcbbdcc":3576,"bbbbcbbbc":3577,"eebeedc":3578,"ebbcebb":3579,"beeebbf":3580,"befbef":3581,"dbfbbc":3582,"ebcdef":3583,"beebdcc":3584,"effef":3585,"ebcbccc":3586,"ededbd":3587,"abbbf":3588,"bdcfbc":3589,"ffeec":3590,"ecbebbbe":3591,"dcffc":3592,"bbebbbbf":3593,"becfed":3594,"dccedc":3595,"ebefbf":3596,"eddbdc":3597,"bfbeed":3598,"dccebd":3599,"dceeed":3600,"bfbcbf":3601,"dbebbec":3602,"ccceec":3603,"eccdebb":3604,"feebbbe":3605,"ebbffc":3606,"becfbd":3607,"abda":3608,"bbbbcbbbe":3609,"bccba":3610,"fbeebd":3611,"fcdbec":3612,"bdbbecc":3613,"ddcef":3614,"eddccc":3615,"edecdc":3616,"aebbc":3617,"feedf":3618,"ddfed":3619,"befbbd":3620,"dedeec":3621,"dddef":3622,"bfdbb":3623,"ebebcbe":3624,"edbba":3625,"bbbbebec":3626,"bdcbbbc":3627,"dbebcbc":3628,"bceefc":3629,"beceecc":3630,"feebcc":3631,"becceec":3632,"ebbfdd":3633,"ebfbbd":3634,"ebccebc":3635,"eccfbd":3636,"efbebf":3637,"bebebbebb":3638,"bcbb</w>":3639,"bbfedc":3640,"ada":3641,"dcbbbbc":3642,"bddbbbc":3643,"efbbebe":3644,"ebfeec":3645,"fffcc":3646,"ccccccccc":3647,"fbebfc":3648,"dcda":3649,"aefc":3650,"dcecbe":3651,"dbebfc":3652,"deebbbc":3653,"deddec":3654,"bddebf":3655,"ebfebd":3656,"bbbbedc":3657,"beeeccc":3658,"bdeba":3659,"bdcfec":3660,"bbceebd":3661,"dbcedc":3662,"ebbfebc":3663,"dbefbc":3664,"deedbd":3665,"ecfeec":3666,"ebccdd":3667,"ebccebe":3668,"bbbbdec":3669,"addc":3670,"bceebec":3671,"ebcdfc":3672,"bcbebbee":3673,"bbbebbbbbbbb":3674,"eefecc":3675,"bbbbdebb":3676,"bbcecbc":3677,"ebdfcc":3678,"bbbefbc":3679,"dcbcf":3680,"ebfbbee":3681,"abbebb":3682,"feebebe":3683,"ebfbbbc":3684,"fbddf":3685,"fecfc":3686,"bccbecc":3687,"efbcf":3688,"bbbbbbdd":3689,"ebbdebd":3690,"bdcded":3691,"ebbbbebd":3692,"bbfbbbf":3693,"aded":3694,"fbbbecc":3695,"ebceccc":3696,"efbeebb":3697,"ebddbf":3698,"ebcbbbbc":3699,"bebedf":3700,"bbcea":3701,"bedbbbbc":3702,"dcdbb":3703,"dcecbd":3704,"edeedd":3705,"edcfbc":3706,"dcfebb":3707,"bbcdbbc":3708,"bebcbbd":3709,"edecf":3710,"eefdbe":3711,"bbeceec":3712,"babbbe":3713,"bbcdef":3714,"ebbeebbbb":3715,"eebebbbc":3716,"ebefebb":3717,"eeccccc":3718,"eedea":3719,"bbcbcee":3720,"bccbeec":3721,"edcebbc":3722,"fcbeee":3723,"bbcbcec":3724,"bbfebbc":3725,"becfbe":3726,"edcbfc":3727,"dfebbc":3728,"bcdbbcc":3729,"dfdbf":3730,"edcfcc":3731,"bcdfcc":3732,"dfbcbc":3733,"befecc":3734,"dbdebd":3735,"bbecbbbe":3736,"befebd":3737,"ebccef":3738,"dfded":3739,"ffbebe":3740,"acea":3741,"bbceeec":3742,"eebcdd":3743,"bbebbbbd":3744,"bbcbbbbbbbb":3745,"efcdee":3746,"bdcdcc":3747,"bbebbbec":3748,"bcdebec":3749,"ffbbbc":3750,"eebcebc":3751,"bbcdebe":3752,"babec":3753,"adbf":3754,"eebbdcc":3755,"eebeebd":3756,"befeec":3757,"babba":3758,"ffbfc":3759,"dfbbcc":3760,"beecbbbb":3761,"bbcfed":3762,"eedebcc":3763,"ddbdbd":3764,"fcbbbf":3765,"dcbebf":3766,"dcbdbd":3767,"bebcebd":3768,"ecbcccc":3769,"decbbf":3770,"eccfee":3771,"fbdbf":3772,"ebfed":3773,"eccbbcc":3774,"ebcbbdc":3775,"dddbbc":3776,"bdeeebe":3777,"bcecccc":3778,"bcfbbbe":3779,"bbbcbbcc":3780,"edcbecc":3781,"bdcbebe":3782,"ecbcfc":3783,"ecdea":3784,"ebbecf":3785,"ebceedc":3786,"bdcefc":3787,"bbdbcbd":3788,"eecfcc":3789,"dcbeebb":3790,"bcbedbc":3791,"bceedbe":3792,"bfdebc":3793,"dcbedd":3794,"bbffee":3795,"dffdc":3796,"deeddc":3797,"bdcbfc":3798,"becddc":3799,"edcdebb":3800,"ebfdbc":3801,"bcbcef":3802,"ecbcdd":3803,"bcdeecc":3804,"bcbeebd":3805,"fcfed":3806,"ebcebdc":3807,"bebcbbbc":3808,"babcc":3809,"ebcceec":3810,"debb</w>":3811,"ebceeec":3812,"dceebe":3813,"bcfbbd":3814,"deeff":3815,"ebeeecc":3816,"bbebbef":3817,"eceac":3818,"bfecbe":3819,"deedec":3820,"befdbc":3821,"bebdbec":3822,"edcbeec":3823,"fcbccc":3824,"dddebe":3825,"bbcbbebe":3826,"bef</w>":3827,"bcbcbec":3828,"bdecdd":3829,"edbebbbb":3830,"ebcbeed":3831,"ebfebb":3832,"bbebbbebe":3833,"dffee":3834,"bccddc":3835,"dceef":3836,"bcfdbc":3837,"bdbbbdc":3838,"bbfbbec":3839,"ebcdbbc":3840,"bbbcecc":3841,"bbdea":3842,"befbdc":3843,"bbceecc":3844,"deebbec":3845,"eecea":3846,"eeebeebe":3847,"dcbbef":3848,"feb</w>":3849,"bbeedf":3850,"ecacc":3851,"bebeebd":3852,"bebedbc":3853,"befebb":3854,"ecdba":3855,"ddfbe":3856,"bbbddbc":3857,"dccbbbb":3858,"fcbcec":3859,"dbebbcc":3860,"deeebb":3861,"bbbcebbc":3862,"efcbcc":3863,"bbbcdbd":3864,"bfbedc":3865,"bceebbbb":3866,"bbcbeed":3867,"eebebbd":3868,"edfa":3869,"becbedc":3870,"bbcbeebb":3871,"effed":3872,"decff":3873,"fdbccc":3874,"beccccc":3875,"babbf":3876,"dcbcdc":3877,"ebdfbd":3878,"ebecebc":3879,"bdbcbbbb":3880,"bbcbebf":3881,"edbebec":3882,"edfebc":3883,"edd</w>":3884,"bebcbbf":3885,"badbe":3886,"beeebcc":3887,"ecbbebbc":3888,"eecbbed":3889,"fcbeed":3890,"eebcccc":3891,"bbbdbcc":3892,"bfbced":3893,"ecbebbd":3894,"ebddebe":3895,"ebccbec":3896,"bcfbdc":3897,"ebbdecc":3898,"ecbbbfc":3899,"edbbebd":3900,"ebbcecc":3901,"edbbecc":3902,"bbbcbbbbbbbb":3903,"fcecbc":3904,"fcbcbd":3905,"fceecc":3906,"fccdd":3907,"edeebf":3908,"bebeff":3909,"ebfbfc":3910,"dbdecc":3911,"dccff":3912,"ebbbdbe":3913,"ecdebec":3914,"bbbfbbbe":3915,"ebbeeed":3916,"ebfedc":3917,"ebbedcc":3918,"ebbcdbc":3919,"eecdbbc":3920,"ebdbbcc":3921,"ebecbcc":3922,"babbd":3923,"bebcdbe":3924,"edbea":3925,"bdfdf":3926,"bebcecc":3927,"daa":3928,"bbed</w>":3929,"ebeca":3930,"ebecdd":3931,"ecdeccc":3932,"bfecbd":3933,"efbbdc":3934,"ecbedf":3935,"eeeebbf":3936,"ebbedbd":3937,"dccdbe":3938,"feca":3939,"bfbcebb":3940,"eecdef":3941,"bfbbfc":3942,"befbbbc":3943,"dbf</w>":3944,"ebbecebb":3945,"febfcc":3946,"bfcbbd":3947,"dcecdc":3948,"eeeefee":3949,"bbcfbf":3950,"bcbcebe":3951,"ecfbbbb":3952,"dedebe":3953,"bcbddd":3954,"bececbc":3955,"ebcbcee":3956,"eddbbf":3957,"ebdebcc":3958,"dcbbebe":3959,"ebdecbc":3960,"ebbdbcc":3961,"bccccccc":3962,"eccfdc":3963,"ebbcbebe":3964,"ebdbeee":3965,"beccef":3966,"becbeed":3967,"ecfdf":3968,"ebfbeee":3969,"bbbfbbf":3970,"fcdeec":3971,"bdebbebb":3972,"dedbbbb":3973,"befdee":3974,"bcfdee":3975,"bbbdbebe":3976,"ededbf":3977,"dbdbbbe":3978,"bcecdd":3979,"dccdbc":3980,"fedccc":3981,"bbcbbef":3982,"bcfbfc":3983,"fbbebcc":3984,"ebbcdee":3985,"dbbebdc":3986,"fccdf":3987,"eececbc":3988,"eccea":3989,"dddddd":3990,"bffbbc":3991,"bebcdee":3992,"bbbbbeec":3993,"edcbbbe":3994,"eedfcc":3995,"bebcbebe":3996,"bfbbebc":3997,"bbfdec":3998,"bdcbbee":3999,"bbedbec":4000,"effebb":4001,"efcff":4002,"bcfbbbc":4003,"edbfcc":4004,"beebbebe":4005,"eccbedc":4006,"bfbebbc":4007,"bccfbd":4008,"bbebebbbe":4009,"ebecfc":4010,"ebbeebbc":4011,"bcdbecc":4012,"decbeec":4013,"edbebcc":4014,"ebbbdcc":4015,"bbfbbebb":4016,"dceedd":4017,"bceeccc":4018,"ebcfebb":4019,"afbe":4020,"bbbbfee":4021,"ebdea":4022,"dbbecbe":4023,"dbcfbc":4024,"ecdedcc":4025,"bcbebdc":4026,"edcbebe":4027,"bbfbbcc":4028,"edcbbee":4029,"bdefcc":4030,"bbbbbbdc":4031,"eebcef":4032,"bfeebe":4033,"ecbbbbcc":4034,"dcecee":4035,"ffddc":4036,"edbcbbc":4037,"dbbbddd":4038,"fcbbebb":4039,"bccebcc":4040,"ebdfed":4041,"ecbbdcc":4042,"dfbbec":4043,"eecebec":4044,"decdbd":4045,"fcfbe":4046,"bebbbccc":4047,"ecceeec":4048,"dbcbbee":4049,"ebcfdc":4050,"cccebe":4051,"bbbbbbbbcc":4052,"ebdebec":4053,"ecfbdc":4054,"bbbcbfc":4055,"ebffbc":4056,"ecccdd":4057,"bbfbcbc":4058,"bbbddee":4059,"ebfdee":4060,"becdef":4061,"dfac":4062,"bbbbdbf":4063,"bbcbcbe":4064,"befbeee":4065,"ecfebe":4066,"dbacc":4067,"ebbfa":4068,"bbec</w>":4069,"fcdfc":4070,"bccdbf":4071,"efdfc":4072,"bfffc":4073,"dcfef":4074,"ebcbebf":4075,"eddbbbe":4076,"bbbdeec":4077,"bdfdbe":4078,"becbbbf":4079,"edbcdd":4080,"fbe</w>":4081,"bdeeef":4082,"ddceec":4083,"efbbbbc":4084,"eeeebbc":4085,"bebdbbc":4086,"dcdccc":4087,"efda":4088,"fbcdbe":4089,"ebbcbbee":4090,"eebeeec":4091,"eeebbbbbb":4092,"eccbccc":4093,"bdfbbbb":4094,"efbeed":4095,"fcbedc":4096,"bbddbbbb":4097,"fcea":4098,"ebccbbbb":4099,"ebbcbdc":4100,"edbbbcc":4101,"baff":4102,"bbbebbed":4103,"bbbebebbbb":4104,"ddcddc":4105,"eebddd":4106,"bcecbec":4107,"efbeebe":4108,"ebfbebc":4109,"efcdbe":4110,"eefbdc":4111,"bbecbebe":4112,"bbecbbf":4113,"bbbdebd":4114,"bbbeedc":4115,"bfebdc":4116,"eebca":4117,"bcbcbbbc":4118,"dbbecbd":4119,"bedac":4120,"efcbbbb":4121,"bfeebf":4122,"beccebc":4123,"feefee":4124,"ebbecdc":4125,"bebbeecc":4126,"ebbbebec":4127,"fcac":4128,"bbbedec":4129,"ecdbbcc":4130,"dddbbbb":4131,"ebbb</w>":4132,"ddcecc":4133,"bbdeecc":4134,"ebeac":4135,"bcecdee":4136,"fecdee":4137,"ebbbdebb":4138,"dbcded":4139,"bfcccc":4140,"ebddebc":4141,"ddac":4142,"dbdff":4143,"bfdbec":4144,"bbebba":4145,"bdfbec":4146,"eadf":4147,"bbeeebf":4148,"bccfed":4149,"bbbedebb":4150,"bccbebd":4151,"beffcc":4152,"bedebdc":4153,"dcbcbf":4154,"edbcebc":4155,"fbeba":4156,"bdbea":4157,"fecdec":4158,"dbdbbf":4159,"efcebc":4160,"dedded":4161,"ebdbbed":4162,"dbdbbbd":4163,"edbcfc":4164,"eccbbbd":4165,"eeceebd":4166,"eddebf":4167,"bbebebbc":4168,"efeccc":4169,"cccbbbb":4170,"edeced":4171,"fbedee":4172,"bdcbbbd":4173,"fcdebc":4174,"bfbba":4175,"bbdeebd":4176,"bcbeff":4177,"dcdbcc":4178,"bfcdbc":4179,"bcdebcc":4180,"bccbbed":4181,"fbcdee":4182,"bfcbbbc":4183,"cccebc":4184,"ebbeedd":4185,"dbebeec":4186,"dbfdf":4187,"bbebbbbee":4188,"ecfebd":4189,"ddcebe":4190,"aeeee":4191,"bcbbebec":4192,"dbeba":4193,"bffebe":4194,"bbdebcc":4195,"fcfbf":4196,"dcedcc":4197,"bbdcbbbb":4198,"edcfed":4199,"ecccecc":4200,"bdcbebc":4201,"fbdbec":4202,"edcbbbc":4203,"eebedbc":4204,"bbecbbbc":4205,"ebbbeebc":4206,"bbcca":4207,"bccdebb":4208,"bddddd":4209,"bbbbbbbbbbbbbbbbbbbbbbbb":4210,"dcdedc":4211,"bddbbee":4212,"eecdecc":4213,"efbeef":4214,"dbeebbc":4215,"dbfbbbb":4216,"bceeebc":4217,"bbeedbc":4218,"bbecebd":4219,"bbbebeebb":4220,"dfbbbd":4221,"bbdfed":4222,"ebbbcebe":4223,"bbbffc":4224,"bfbbbec":4225,"efcdec":4226,"beccbbc":4227,"dcdebd":4228,"efeecc":4229,"ebbbebbd":4230,"babca":4231,"bbebbebc":4232,"ecbcbec":4233,"edcfee":4234,"ecbeeec":4235,"efceec":4236,"edcebcc":4237,"bbbfa":4238,"eccdebc":4239,"bebbac":4240,"dcdbbbb":4241,"dccbdc":4242,"ebbcebbc":4243,"dbbbdbc":4244,"bfbbdd":4245,"eccbeee":4246,"ebebeef":4247,"ffdec":4248,"dbebeee":4249,"bbccbbcc":4250,"eefba":4251,"ebdeebd":4252,"deebebc":4253,"dcccccc":4254,"bbeddf":4255,"eceebbc":4256,"ebbdbbbe":4257,"bdbebbbe":4258,"bbfbeee":4259,"edcebec":4260,"bfbdbd":4261,"eebb</w>":4262,"eefbbd":4263,"bebe</w>":4264,"ebefdc":4265,"fbcbbd":4266,"bfeeec":4267,"becdebc":4268,"ebbebfc":4269,"fdeccc":4270,"beeca":4271,"bbbcbef":4272,"beecdec":4273,"bceea":4274,"beeb</w>":4275,"ebebedc":4276,"eefdbc":4277,"bcbcebc":4278,"bcbbefc":4279,"bbcdbbbb":4280,"ebebebbbb":4281,"edceebd":4282,"fdbbbbc":4283,"eefdee":4284,"ecbcebc":4285,"beecef":4286,"eccedcc":4287,"ebbbcdd":4288,"bbbfef":4289,"bcdea":4290,"dbbbbbbbbbbbb":4291,"bbbfbec":4292,"bbbfdd":4293,"dbbcdd":4294,"fecff":4295,"eeceedc":4296,"edebfc":4297,"ebebeed":4298,"bbecbbec":4299,"ecbebbf":4300,"bbdcdd":4301,"edcddc":4302,"bbdeeec":4303,"baccc":4304,"ebeeebf":4305,"eebcbcc":4306,"eebbefc":4307,"bfbebbbb":4308,"ecbbba":4309,"edeebbc":4310,"dccdec":4311,"fbefcc":4312,"bceedf":4313,"babbbc":4314,"eadbe":4315,"bfcecc":4316,"ebeeebd":4317,"bbeeff":4318,"bbeebdc":4319,"eebbfcc":4320,"eaccc":4321,"bdfccc":4322,"bbeeebd":4323,"dbdded":4324,"fccbbc":4325,"dbbbdbbbb":4326,"eebceec":4327,"fbda":4328,"ebefef":4329,"bbbbbcbd":4330,"deebebe":4331,"ebefebe":4332,"fbdfc":4333,"bfbeebe":4334,"fcca":4335,"feebec":4336,"bfbdcc":4337,"ddcbcc":4338,"ebbcbbbd":4339,"ddcbec":4340,"beccfc":4341,"bbeda":4342,"eccdbf":4343,"dceebf":4344,"bedbccc":4345,"dbeded":4346,"eecbcbd":4347,"acdd":4348,"ebedebc":4349,"dbcebf":4350,"edbebbd":4351,"eecfdc":4352,"edbcef":4353,"bdebecc":4354,"dbcbbbd":4355,"edbbeec":4356,"ebedebe":4357,"bbcbbdd":4358,"debbbec":4359,"ebbbefc":4360,"ebccccc":4361,"bccdef":4362,"bbdbbbbbbbb":4363,"ebbebbcc":4364,"bbaa":4365,"edcbebd":4366,"dbcbcbc":4367,"bfcebd":4368,"bdcbef":4369,"bbfdbf":4370,"ebeeccc":4371,"ecbedbd":4372,"bcbebbec":4373,"ebbeba":4374,"eebcdf":4375,"feedbe":4376,"fbebbcc":4377,"ebbbea":4378,"ebbcff":4379,"ddeeec":4380,"bbbebbebe":4381,"becca":4382,"dddfc":4383,"bbdbeebb":4384,"dbcbef":4385,"dbcdcc":4386,"dbcbebc":4387,"eebedbe":4388,"ebbbded":4389,"bbebbbbbbbbbb":4390,"eeccfc":4391,"ebcbbebe":4392,"defccc":4393,"eecdeec":4394,"eebcecc":4395,"eaba":4396,"ddcdf":4397,"eecbeed":4398,"fecdbe":4399,"bdbedbe":4400,"dcb</w>":4401,"bbeddbe":4402,"dceced":4403,"beeebec":4404,"fbebecc":4405,"eebeba":4406,"ebbecbf":4407,"edfbec":4408,"bbffcc":4409,"ddcbbc":4410,"bcbca":4411,"ffdbf":4412,"bbbebebd":4413,"eecbccc":4414,"fbcbfc":4415,"dbbdbbbb":4416,"ecebdcc":4417,"ddeebd":4418,"bbecdec":4419,"ebbecee":4420,"beecdee":4421,"dbddec":4422,"ddeeee":4423,"ebecdf":4424,"ebcecbd":4425,"bcecbbc":4426,"fcdbbc":4427,"dcbdcc":4428,"fdebdc":4429,"bebebbcc":4430,"bcceeec":4431,"ebcfbf":4432,"fbcecc":4433,"fdcdf":4434,"bebcdec":4435,"efcccc":4436,"ddbbebb":4437,"bbcbedc":4438,"dedbdc":4439,"bdbac":4440,"fbcebd":4441,"eedebec":4442,"bebeeec":4443,"dbfbec":4444,"bceeebe":4445,"ecbeddc":4446,"befbfc":4447,"cccdf":4448,"bfecf":4449,"bbdbeed":4450,"eccba":4451,"bebebcbc":4452,"ebbbbeec":4453,"deeedc":4454,"fccff":4455,"ebbbdf":4456,"eefebd":4457,"feeeeee":4458,"ddeccc":4459,"fccebc":4460,"bcbedec":4461,"dcdbbd":4462,"bcecdf":4463,"ebebcebb":4464,"eccdecc":4465,"fbeedc":4466,"ecbcbbbb":4467,"bbceeee":4468,"ecbebbbc":4469,"deffc":4470,"ebbcdec":4471,"ddbcbd":4472,"bbdfbf":4473,"bbffbd":4474,"deddbd":4475,"bebcff":4476,"acda":4477,"bceebcc":4478,"fecbbbb":4479,"becbbbbc":4480,"bbdbbebe":4481,"bbbdbdc":4482,"bcbeedc":4483,"eebeea":4484,"eebedf":4485,"bebbcbbbb":4486,"bbeddee":4487,"bfbeef":4488,"eccebdc":4489,"edc</w>":4490,"ebebced":4491,"ede</w>":4492,"bdbeebc":4493,"bfcdec":4494,"bfcbdc":4495,"edfecc":4496,"baebc":4497,"bbbcfbc":4498,"ddbbdc":4499,"bbdb</w>":4500,"ebbcbebc":4501,"bdbebcc":4502,"ebdbbebb":4503,"eecceec":4504,"cccff":4505,"bcfbebe":4506,"bfcbbbe":4507,"edfbcc":4508,"bbebcbbbb":4509,"bebddf":4510,"ebbeebbee":4511,"ecbedee":4512,"efdebe":4513,"fbbeecc":4514,"fbdbbc":4515,"dbdbebe":4516,"ebbbdbf":4517,"eefeec":4518,"ccca":4519,"bdfbcc":4520,"debbebe":4521,"efbced":4522,"bfcfbc":4523,"bceedee":4524,"bceeeec":4525,"fcbbdc":4526,"efdbec":4527,"bbbecbbbb":4528,"bbedebe":4529,"beecbcc":4530,"febbbbbb":4531,"debbebc":4532,"eeeeebf":4533,"bbebebebe":4534,"fbd</w>":4535,"bcfbbee":4536,"bdcfee":4537,"eebebbebb":4538,"bbedbf":4539,"eceedbe":4540,"fbedec":4541,"edbcebe":4542,"efcebe":4543,"defa":4544,"bcbcdee":4545,"becbeebb":4546,"feceec":4547,"dedecc":4548,"bcfdbd":4549,"ddbeed":4550,"fdcccc":4551,"bbbfebe":4552,"bbecdbc":4553,"bcbeebf":4554,"edecbf":4555,"bbeeecc":4556,"ebcbeebb":4557,"becdbec":4558,"dbbbbbbc":4559,"eebbebcc":4560,"ddca":4561,"ebbcedc":4562,"bebda":4563,"defdc":4564,"bbeedee":4565,"bbecdc":4566,"bcebbbbbb":4567,"dbbcbbc":4568,"bebeba":4569,"dccbbd":4570,"bbccebd":4571,"bbbfff":4572,"dbefcc":4573,"fbcfbc":4574,"bbefbbbb":4575,"eebcbbf":4576,"dbbeccc":4577,"ebbcebf":4578,"eebbebec":4579,"ebcbced":4580,"bcfdec":4581,"becbcec":4582,"bfeeebb":4583,"dbebbebb":4584,"fbbbccc":4585,"ddbccc":4586,"ececbbc":4587,"bbbcdec":4588,"babea":4589,"debba":4590,"becea":4591,"eeeebef":4592,"bcbbfcc":4593,"bbebb</w>":4594,"ddecbc":4595,"bdcebec":4596,"bdbbbbcc":4597,"dbeddc":4598,"def</w>":4599,"beeeecc":4600,"beccecc":4601,"fbc</w>":4602,"efebdc":4603,"eebcedc":4604,"ebbbdee":4605,"fbbac":4606,"bcffcc":4607,"dddebc":4608,"cccdcc":4609,"bbccbbbe":4610,"eebcebe":4611,"ebcca":4612,"bfecbf":4613,"bbdecbc":4614,"feeebf":4615,"ebccbcc":4616,"badee":4617,"fecebc":4618,"dcdbdc":4619,"eecda":4620,"ebbbbbbcc":4621,"eceebcc":4622,"ddb</w>":4623,"fbcbbbe":4624,"bebeedc":4625,"bcebdcc":4626,"cccdee":4627,"effdd":4628,"bbcdebc":4629,"efdebc":4630,"dbedbf":4631,"bbccbbd":4632,"bbcfebb":4633,"bbeebbec":4634,"bcccbcc":4635,"bbccbbbc":4636,"bcbcdf":4637,"eeceeec":4638,"befbebc":4639,"ebbbcebc":4640,"dbdbbbc":4641,"ecdebdc":4642,"ebbeced":4643,"eaff":4644,"debbbbbe":4645,"bddbfc":4646,"fccbcc":4647,"eecdebe":4648,"ddcdee":4649,"ddcebc":4650,"dbebebd":4651,"ebddbbc":4652,"fccbf":4653,"ddcdcc":4654,"bebfbbbb":4655,"ebbbebbf":4656,"edebbcc":4657,"bdbebbd":4658,"efeef":4659,"bdcebbc":4660,"dbcbfc":4661,"bbffec":4662,"ebefed":4663,"fcfdc":4664,"bebd</w>":4665,"decbebc":4666,"becbccc":4667,"eceeecc":4668,"bbeeeec":4669,"ddda":4670,"ebddef":4671,"edbeebd":4672,"befba":4673,"eebcbf":4674,"dbedebb":4675,"decbbbe":4676,"efbcbe":4677,"bbbbcbbd":4678,"ddfbf":4679,"bebbeccc":4680,"eeebdcc":4681,"bbbccbbbb":4682,"ddfdd":4683,"beecebc":4684,"bcbdbbbb":4685,"bebeeeee":4686,"bebc</w>":4687,"bccbbebb":4688,"effebe":4689,"bbbcbeee":4690,"fceeec":4691,"becdeec":4692,"bebdebc":4693,"fffbd":4694,"bdacc":4695,"dddbb":4696,"ebebba":4697,"becbbdc":4698,"eecbbdc":4699,"beceeec":4700,"dbebecc":4701,"ebddfc":4702,"bbeebef":4703,"deddcc":4704,"eeccecc":4705,"ffba":4706,"bfcebf":4707,"bdbbccc":4708,"bbbfbbbc":4709,"dedbeec":4710,"becbcbd":4711,"bdbdbbbb":4712,"bdfbbf":4713,"fbebbec":4714,"bbedebc":4715,"aeba":4716,"edcdebc":4717,"feebdc":4718,"ebedef":4719,"dceeebb":4720,"bfbcdc":4721,"ecbcbcc":4722,"dbfccc":4723,"ebedfc":4724,"ebccecc":4725,"ebbfbec":4726,"efcdbc":4727,"dbddcc":4728,"efeeebe":4729,"ddcbbbb":4730,"eadee":4731,"ebeeef":4732,"bbeebebc":4733,"ebbdbbf":4734,"bbcfdc":4735,"eececcc":4736,"dcbbfc":4737,"eeccebc":4738,"beceebd":4739,"fccecc":4740,"fbcdec":4741,"debbfc":4742,"bdcbbec":4743,"ebbbcfc":4744,"bbdbebf":4745,"eecbbebb":4746,"beeeebf":4747,"bffa":4748,"ebbbebbee":4749,"bbbefee":4750,"ebdbedc":4751,"ecfdbe":4752,"dcecbf":4753,"efeebd":4754,"ffbcbc":4755,"bbcac":4756,"edcbef":4757,"fbedcc":4758,"bbbbcbcc":4759,"efeebf":4760,"edcecbc":4761,"fbebbebb":4762,"bbdbcec":4763,"dcbded":4764,"deebef":4765,"fbdbbbb":4766,"ebbbcef":4767,"ddcdbe":4768,"edecebb":4769,"ecccfc":4770,"aebec":4771,"bcceebd":4772,"bbfdcc":4773,"eefbbbc":4774,"bbbebeec":4775,"debebbbb":4776,"fecdbc":4777,"bbecbebc":4778,"eecdbec":4779,"ebebebbc":4780,"beeebbbc":4781,"beeeff":4782,"bcbbbccc":4783,"bbedef":4784,"dfea":4785,"dedbbd":4786,"becdbbc":4787,"ebbdedc":4788,"edceedc":4789,"bbbebecc":4790,"beebfcc":4791,"bebebbbd":4792,"bdceecc":4793,"bdbcdd":4794,"afbf":4795,"ebcac":4796,"bbccecc":4797,"fbcdbc":4798,"bbebbbbbd":4799,"ecfdbc":4800,"ebfba":4801,"bcbbbecc":4802,"debbdf":4803,"dcbcdd":4804,"bfcbfc":4805,"bdbcbbc":4806,"bbbacc":4807,"edfdf":4808,"bbbbcbec":4809,"edceccc":4810,"bebebbec":4811,"eebcbbd":4812,"bdcbeec":4813,"ebebcf":4814,"bbccdf":4815,"dbfdbe":4816,"ecfbbf":4817,"edceeec":4818,"efcecc":4819,"beeeebc":4820,"ddbcee":4821,"bbbcba":4822,"bbeeba":4823,"ebccbf":4824,"ebbbfcc":4825,"bccffc":4826,"edeba":4827,"deebcbc":4828,"abdbf":4829,"dbfff":4830,"bfcbebc":4831,"deeebf":4832,"beeefee":4833,"ebccebd":4834,"eabcc":4835,"becdfc":4836,"bedeccc":4837,"adebb":4838,"bebdef":4839,"afed":4840,"beceedc":4841,"dbbecec":4842,"dcbeef":4843,"dcbbebc":4844,"ededdc":4845,"ebbcdbd":4846,"eecebdc":4847,"eebcebd":4848,"bfecec":4849,"fee</w>":4850,"ddcdbd":4851,"ddcdbc":4852,"eedbccc":4853,"beecfc":4854,"ebbbbecc":4855,"ebbfbcc":4856,"bbbdccc":4857,"dbbcccc":4858,"cccccccccc":4859,"edeeebe":4860,"bdbbedc":4861,"ebbcfbc":4862,"becdebe":4863,"bbdfebb":4864,"beeedbc":4865,"beebbbbbe":4866,"ebbcbbec":4867,"ebbbebcc":4868,"bbebeebe":4869,"bcbebfc":4870,"bbbbcebe":4871,"eefea":4872,"bbccdbe":4873,"ddbcec":4874,"eef</w>":4875,"beeeba":4876,"eeeeff":4877,"bcbcbebc":4878,"ecbcecc":4879,"beecdbe":4880,"befdec":4881,"bddefc":4882,"bbdbedc":4883,"debbef":4884,"eebcdbe":4885,"ecbedec":4886,"ebfdec":4887,"beccbbbb":4888,"eecbcec":4889,"bdbbebf":4890,"bbfefc":4891,"ebecbf":4892,"bbbedcc":4893,"ebecef":4894,"ebccedc":4895,"bccbbbf":4896,"dbcfee":4897,"eeecbbc":4898,"bdbedf":4899,"ebbbdbbbb":4900,"eecca":4901,"bbececc":4902,"bbbcbbbf":4903,"befdbd":4904,"ebcdeec":4905,"bdcfbd":4906,"fbebbbd":4907,"dbbbbbbbd":4908,"bddebbc":4909,"bebbbbbbbe":4910,"ebbbddd":4911,"eceea":4912,"ebcdbec":4913,"acdf":4914,"bbdbccc":4915,"dbbbdcc":4916,"eeeca":4917,"bceeef":4918,"edcbcbc":4919,"ebcbbdd":4920,"edbedbe":4921,"beccebe":4922,"eccecdc":4923,"eebbbecc":4924,"bdcddc":4925,"edfeec":4926,"bbdcbbc":4927,"fdcef":4928,"eddefc":4929,"efcded":4930,"dcbcebb":4931,"edcfbd":4932,"fecded":4933,"dbcbbec":4934,"bcfdcc":4935,"fed</w>":4936,"dcbeebe":4937,"bcccfc":4938,"ebcbedd":4939,"beeddd":4940,"bebdbf":4941,"ebebbebc":4942,"fedbec":4943,"bebdfc":4944,"edfbbbb":4945,"bcbbea":4946,"bdbebbf":4947,"edefcc":4948,"abbed":4949,"beebbbbc":4950,"beeebef":4951,"bcbcbbbe":4952,"bbccbbf":4953,"ddcccc":4954,"bbbbbbbbbbbbbbbbbbbbbbbbbbbbbbbb":4955,"dedebd":4956,"eeccbec":4957,"beeceec":4958,"edcbbec":4959,"fbcbbbc":4960,"fbeebbc":4961,"bceeecc":4962,"dcedbd":4963,"bbbbcbbbbbbbb":4964,"bcbedbd":4965,"bebbebdc":4966,"bfdeec":4967,"bdceebc":4968,"ebecebe":4969,"debebbc":4970,"bfdbbd":4971,"bbdeeee":4972,"bcbcbbf":4973,"bbbf</w>":4974,"bcbbcbbbb":4975,"dbfbcc":4976,"bbebbbcc":4977,"bdbeecc":4978,"dccdbd":4979,"dddbbd":4980,"beebba":4981,"bdeebbbb":4982,"bcfbebc":4983,"efecbd":4984,"bdfecc":4985,"bdfdbc":4986,"dbefee":4987,"dbebbed":4988,"dfcfc":4989,"bddba":4990,"beeddf":4991,"ebbbcbec":4992,"ddbbbf":4993,"fbebbbf":4994,"edecbbc":4995,"fbeea":4996,"dddecc":4997,"eddbbee":4998,"ebeebdc":4999,"bebeebbc":5000,"dcfbbc":5001,"dcfebc":5002,"ecbebbee":5003,"eceefc":5004,"dedbbec":5005,"fbedbd":5006,"ebceeee":5007,"eebcbedf":5008,"defdf":5009,"eceedcc":5010,"eecdedc":5011,"babdc":5012,"bcfbef":5013,"bbdfdc":5014,"eedeccc":5015,"bebebfc":5016,"becebdc":5017,"beccedc":5018,"bbfbbef":5019,"bbbdff":5020,"bcbebbebb":5021,"ebfebbc":5022,"fbfbbbb":5023,"ddcdec":5024,"ebbecbbc":5025,"fec</w>":5026,"bdbebbbc":5027,"ebecbbbe":5028,"efbedc":5029,"ebebbbec":5030,"ebccdf":5031,"eeccbbc":5032,"ebbdbdc":5033,"bbedfc":5034,"ebdbbbf":5035,"ebbbdec":5036,"bdbb</w>":5037,"bebbbbbbc":5038,"decbef":5039,"fbdff":5040,"deeebbc":5041,"bebcdbc":5042,"ebdbbdc":5043,"ebffcc":5044,"bcbceec":5045,"bebfbbc":5046,"fecbdc":5047,"dedff":5048,"bbbdbbebb":5049,"ebebbdd":5050,"bbeeebbc":5051,"deeba":5052,"bebefee":5053,"ececdf":5054,"beccbcc":5055,"edcea":5056,"ebcbcdc":5057,"bdbeccc":5058,"fdddd":5059,"ebdeeec":5060,"eddbbbc":5061,"efbcbf":5062,"dbbbbbbbe":5063,"acbbc":5064,"fbdccc":5065,"bceebbf":5066,"bcbebbcc":5067,"dbbbded":5068,"bdcdbf":5069,"fdbdcc":5070,"efeeef":5071,"bbbbcbf":5072,"bbeeeeee":5073,"eefdcc":5074,"ecffcc":5075,"ebcdecc":5076,"eecbedd":5077,"bfcbef":5078,"ebecdbe":5079,"eddebbc":5080,"abeec":5081,"bcbcdbe":5082,"dcfebe":5083,"ededbc":5084,"ebbebbbbbb":5085,"bbecff":5086,"eddeecc":5087,"eebbac":5088,"dcecf":5089,"ebbbddc":5090,"bbeebbbd":5091,"bbebbfc":5092,"ebebdbd":5093,"dedbebc":5094,"eebcdbc":5095,"bdbeebd":5096,"deefbc":5097,"bdcfcc":5098,"edecdd":5099,"edcdbf":5100,"dbdbdbd":5101,"ebecccc":5102,"eebcbbbe":5103,"debbccc":5104,"bcfebbc":5105,"eceebbbb":5106,"bcecfc":5107,"bbfbeec":5108,"feda":5109,"bbdbbef":5110,"edbcbbbb":5111,"bfbcef":5112,"bcccdd":5113,"ecbeebf":5114,"bccbbbbc":5115,"bcbedcc":5116,"eeccbbbb":5117,"bdcbebd":5118,"fbebccc":5119,"bdfebf":5120,"dadd":5121,"dcecdd":5122,"bceddd":5123,"fcdebe":5124,"badbc":5125,"ebbbbbdc":5126,"fbcbebe":5127,"ebdfdc":5128,"beecbebc":5129,"debbbbd":5130,"dfcdd":5131,"eedac":5132,"ebcbbef":5133,"ebecdbc":5134,"eccbbed":5135,"eeecbec":5136,"feebef":5137,"fceccc":5138,"bdcbcbc":5139,"bfdbcc":5140,"ebedbbbb":5141,"deebfc":5142,"debbdbe":5143,"dcbcef":5144,"eeccef":5145,"edbeeec":5146,"eccbcec":5147,"ebbfecc":5148,"eecbbbf":5149,"ebecebd":5150,"ebedbec":5151,"eeccedc":5152,"beeedbe":5153,"fceebd":5154,"bbdbcee":5155,"bbccff":5156,"eeecbbbb":5157,"bdebccc":5158,"fbfef":5159,"eecfbe":5160,"ebeeeef":5161,"dbbedbd":5162,"eceeebc":5163,"dcbdee":5164,"bbcbbebc":5165,"decedc":5166,"ecbcef":5167,"ebfdbd":5168,"dbcfec":5169,"ecbcbf":5170,"ebeecbd":5171,"eedebdc":5172,"dfbecc":5173,"decbbbc":5174,"efcbbf":5175,"bbbdbebc":5176,"dbcebbc":5177,"fdcdd":5178,"bebebeebb":5179,"debbbf":5180,"eeccdd":5181,"bdfebd":5182,"dccbbf":5183,"fbdebc":5184,"bbbbcbbf":5185,"beeebbd":5186,"fcda":5187,"ecbbefc":5188,"dedbbf":5189,"eabbbe":5190,"ebeda":5191,"ffbbec":5192,"dcbebbc":5193,"ebbeea":5194,"ecbefcc":5195,"ebbfbbd":5196,"eabec":5197,"bbbbbbbbbbbc":5198,"bbbbbbbec":5199,"ebdeedc":5200,"bbcbebbc":5201,"dbbbdebb":5202,"debbbbf":5203,"cccdbe":5204,"eeecdd":5205,"ebbbbebf":5206,"eebebbebe":5207,"befbbec":5208,"fbcbdc":5209,"bdbeeec":5210,"ececbcc":5211,"beeebdc":5212,"fbcfec":5213,"befdcc":5214,"ebfdcc":5215,"bbcdfc":5216,"decbbec":5217,"ebfbbbd":5218,"eebedcc":5219,"bdfbbd":5220,"eddbfc":5221,"bcdbbbbc":5222,"ebfbcbc":5223,"ecbcdf":5224,"fdb</w>":5225,"ebbeebbbe":5226,"bfbfcc":5227,"ebdeccc":5228,"bdfdee":5229,"da</w>":5230,"eceedf":5231,"edcbedc":5232,"ebecdee":5233,"efcbdc":5234,"eeebba":5235,"efbba":5236,"dbfebc":5237,"ebebbfc":5238,"bbbfbcc":5239,"eceedbc":5240,"eeebeeeee":5241,"edeefc":5242,"effbbc":5243,"bdfeec":5244,"bbbbfbd":5245,"bfeedc":5246,"debbbcc":5247,"fecbbf":5248,"bdbbdcc":5249,"decbebe":5250,"ebecbbd":5251,"bcecdbe":5252,"bebbbbbbbbbbbb":5253,"bbcbbbec":5254,"dcbddc":5255,"bfbbbcc":5256,"bfcdbd":5257,"eabbf":5258,"acfc":5259,"bbccbdc":5260,"bbbbbbcbbbb":5261,"bbeefee":5262,"bebcedc":5263,"dfcdf":5264,"ddbedc":5265,"bbcbbfc":5266,"beeebbebb":5267,"bbbfdf":5268,"bfbcbbc":5269,"bedb</w>":5270,"eebefcc":5271,"ebbfebd":5272,"fbffc":5273,"ebeeeec":5274,"eccbeed":5275,"befebbc":5276,"dbbbbbbd":5277,"bbcbdbd":5278,"ebbbfbf":5279,"bebedee":5280,"bcdbbbd":5281,"dbdddc":5282,"dcbddd":5283,"ebdbcbd":5284,"bbbbbbbbbbbe":5285,"dcbdbc":5286,"dcc</w>":5287,"ebcecdc":5288,"ebebcbf":5289,"eedcccc":5290,"ebdebdc":5291,"fbdeec":5292,"bcbbebcc":5293,"ebbbedbe":5294,"bcdac":5295,"effa":5296,"bcbcbbd":5297,"bbcbcbf":5298,"efeeebb":5299,"bfedcc":5300,"bbbbded":5301,"bbbbcdd":5302,"bebcbbee":5303,"bffbbbb":5304,"bbbbbebf":5305,"cccedc":5306,"bcccbccc":5307,"ebbbebbbc":5308,"ebebcdc":5309,"ebecbbbc":5310,"ecbbfcc":5311,"ebbdbbbc":5312,"ececdd":5313,"bcfefc":5314,"ecbeff":5315,"fcbeebb":5316,"eccdfc":5317,"ecf</w>":5318,"eebeebbc":5319,"bcbebbbd":5320,"deebeec":5321,"ebfbbcc":5322,"decbfc":5323,"befbbebb":5324,"babebe":5325,"bebddbe":5326,"dccded":5327,"ebdfebb":5328,"dcdddd":5329,"edcbbbd":5330,"ebdbcec":5331,"bebdeec":5332,"efbbdd":5333,"ecbca":5334,"bedcccc":5335,"dbfecc":5336,"ebbbbccc":5337,"fcbbbbc":5338,"fccfec":5339,"ebbfbbbe":5340,"bccfdc":5341,"ffcdf":5342,"ebdbeed":5343,"bcfbbec":5344,"edcdecc":5345,"ffbbcc":5346,"ebcdebd":5347,"bebefbc":5348,"bbcbced":5349,"bbcbbbcc":5350,"ebeceec":5351,"bccea":5352,"ebebdcc":5353,"dbfbbf":5354,"bbebbdd":5355,"beeedf":5356,"ecbceec":5357,"eeeedd":5358,"bbbbfbe":5359,"deecdf":5360,"bceedbc":5361,"beccdd":5362,"ebbfbbf":5363,"bdcfed":5364,"dbefbd":5365,"beeedc":5366,"bbbfbbd":5367,"eebebbcc":5368,"eedbbbd":5369,"feedbc":5370,"edcdfc":5371,"eebebbbd":5372,"ecbcbbf":5373,"dbefec":5374,"dbbecbf":5375,"eefbfc":5376,"fbcbebc":5377,"ddcff":5378,"debedd":5379,"edbedf":5380,"febba":5381,"deebbbd":5382,"edbeccc":5383,"dbbbdee":5384,"bbcdbec":5385,"ebbcbfc":5386,"bcf</w>":5387,"dbbbdbf":5388,"bbbbbbebc":5389,"deebbcc":5390,"bbbbdbbc":5391,"ecbddd":5392,"edeeef":5393,"ebfeeee":5394,"ebbedbc":5395,"bbbcbbed":5396,"acef":5397,"bbffbe":5398,"bccbedc":5399,"fceedc":5400,"ebcbcbe":5401,"ebcda":5402,"bbbbcbbbd":5403,"befedc":5404,"eebda":5405,"ecbcebe":5406,"eeecdf":5407,"baecc":5408,"bbbbbccc":5409,"edecee":5410,"bceebbbe":5411,"dbfebe":5412,"beebbbebe":5413,"dbbd</w>":5414,"bdcdebb":5415,"beecdbc":5416,"bbdcbec":5417,"bbcbcebb":5418,"feeecc":5419,"bbbbdcc":5420,"efbbfc":5421,"bfeeebe":5422,"bbfbbed":5423,"fffec":5424,"ecfbfc":5425,"faa":5426,"bffbbd":5427,"debcbec":5428,"bbcbebbbb":5429,"bcdbccc":5430,"edfebd":5431,"bffebc":5432,"ebececc":5433,"bbbfebc":5434,"edfbbd":5435,"bbdddbd":5436,"bfbdbc":5437,"bbbfbebe":5438,"ffefc":5439,"eebcdc":5440,"bdcbecc":5441,"bebcebbc":5442,"bfbefc":5443,"bbffbf":5444,"bcbcecc":5445,"fcebdc":5446,"bbefa":5447,"bbbcbeec":5448,"bbcbcf":5449,"bebdbbbe":5450,"ecfbbd":5451,"feebbd":5452,"eddebcc":5453,"dbdedc":5454,"edbebbbe":5455,"bdcba":5456,"efbbebc":5457,"efffc":5458,"bfcbbec":5459,"fffbf":5460,"dccfec":5461,"debbeec":5462,"bbdcebe":5463,"bfedbd":5464,"eedbbbbc":5465,"bfecdc":5466,"bbcbcbbc":5467,"edeea":5468,"ebfbbec":5469,"dfebcc":5470,"efcbbd":5471,"beebebbbb":5472,"beedbec":5473,"bebcbcbc":5474,"deedbf":5475,"ebffec":5476,"ebecbbf":5477,"fccedc":5478,"eccfdd":5479,"bdbbba":5480,"dbbbbbbbc":5481,"bdbebbee":5482,"bfbdbf":5483,"befbcbc":5484,"eeeebcc":5485,"bbeddbc":5486,"bcbeebbc":5487,"ececbec":5488,"ddcbdc":5489,"ebbeddc":5490,"bbceeebb":5491,"ebcbcf":5492,"dddbec":5493,"bbbfdbe":5494,"efeeec":5495,"dcebfc":5496,"efbcebb":5497,"ebbbdbbc":5498,"efcebd":5499,"eeccbcc":5500,"eccecbd":5501,"fcbcf":5502,"ddeedc":5503,"ffbeee":5504,"bbccdbc":5505,"babbee":5506,"fcbebf":5507,"bdeac":5508,"defbcc":5509,"ecccebc":5510,"ecdbccc":5511,"dffbf":5512,"bbbbbbbbbbbbbbbbbbbb":5513,"bbcebdc":5514,"bdfbdc":5515,"abecc":5516,"bbceedc":5517,"eebcbbbc":5518,"dffed":5519,"ebdfbe":5520,"eccac":5521,"eefdbd":5522,"ddebdc":5523,"fcfef":5524,"beecded":5525,"abebd":5526,"ececebc":5527,"ebbbebdc":5528,"bbbbbbbcc":5529,"fbbebdc":5530,"efcbebc":5531,"ffbebc":5532,"eebcbdc":5533,"dffbe":5534,"bbbbfec":5535,"bbbbbecc":5536,"bbedbbd":5537,"afdc":5538,"bbeebeebb":5539,"bdbebdc":5540,"feeebc":5541,"dbbbbdd":5542,"bbebbbebc":5543,"dcbefc":5544,"dfbeee":5545,"eefbebc":5546,"eebdbec":5547,"fbcebf":5548,"eeebbebe":5549,"bbccdee":5550,"feeba":5551,"edebecc":5552,"bbbbbdbd":5553,"bdbedee":5554,"fcbcee":5555,"ebdbebf":5556,"bccbcec":5557,"adef":5558,"eebdebc":5559,"bbdac":5560,"bbfdebb":5561,"dcfa":5562,"bbbbfbf":5563,"eecbeebb":5564,"ebccdbe":5565,"dddeec":5566,"ededdd":5567,"ecbcdee":5568,"bdfbbbe":5569,"dbbbddc":5570,"bfcded":5571,"edbeedc":5572,"bbfea":5573,"eebcdec":5574,"ebdbbdd":5575,"dbdbebc":5576,"cccdbc":5577,"ecceedd":5578,"bbfbbbbc":5579,"ecccbcc":5580,"beebeebe":5581,"bbdcef":5582,"ebecbdc":5583,"fcbced":5584,"babbbd":5585,"bbebebbee":5586,"ebecdec":5587,"debbbbbc":5588,"bbefdd":5589,"eebdbbc":5590,"eebcff":5591,"ebdbccc":5592,"eebebbec":5593,"ecfbbbe":5594,"ecfbbbc":5595,"ecdac":5596,"bdeebec":5597,"abccc":5598,"bbedeec":5599,"eccdef":5600,"ecfebf":5601,"bcbc</w>":5602,"dcbba":5603,"befbbbd":5604,"bccbcbd":5605,"fedbbc":5606,"bbeebfc":5607,"acbec":5608,"dbdfbc":5609,"fccebe":5610,"eeeeba":5611,"bbeefbc":5612,"dcfecc":5613,"eebbeecc":5614,"bdbcfc":5615,"efbdcc":5616,"bbbbea":5617,"ecbcdbe":5618,"ddd</w>":5619,"ebdbdbd":5620,"bbcbcbbbb":5621,"dbbcbec":5622,"efbdbd":5623,"ddcbf":5624,"eebdfc":5625,"bddeecc":5626,"befea":5627,"eeecbcc":5628,"bebdbbd":5629,"cccbdc":5630,"dbcbeee":5631,"decebbc":5632,"eeffcc":5633,"eebebbbf":5634,"dcbbbec":5635,"fdddf":5636,"efcbbbc":5637,"ebcbdbd":5638,"abbbbc":5639,"bbedbbbe":5640,"edcdef":5641,"decfbc":5642,"dbbcebd":5643,"bcfdbf":5644,"efdeec":5645,"ddcded":5646,"afa":5647,"decbecc":5648,"bebcbdc":5649,"eecbbbbc":5650,"bfcbcbc":5651,"bebcded":5652,"bbceeed":5653,"dbedef":5654,"bbbbeebc":5655,"fedbcc":5656,"beecbbd":5657,"bebdebe":5658,"bbbbbebbc":5659,"baea":5660,"abcbd":5661,"bcdebdc":5662,"ebbcbcbc":5663,"befdbf":5664,"aeebc":5665,"dbebccc":5666,"efbcdc":5667,"fdcbec":5668,"dddbcc":5669,"baebf":5670,"bebebbebe":5671,"ddcebd":5672,"dbdebf":5673,"bbedbcc":5674,"edbbedc":5675,"ebcffc":5676,"fbedebb":5677,"deebeee":5678,"ebbfeec":5679,"fcbbfc":5680,"bbbbbbef":5681,"ddbddd":5682,"bbbedbf":5683,"bceeeecc":5684,"fcfebb":5685,"ecfdcc":5686,"fcbcbf":5687,"bbcdeec":5688,"bcbebecc":5689,"bbecbbee":5690,"fececc":5691,"ddcbbd":5692,"dbbecebb":5693,"ebccbdc":5694,"beecbbbc":5695,"bbecbdc":5696,"eebddf":5697,"feddc":5698,"ecdcccc":5699,"bcceedc":5700,"ebcbcebb":5701,"bbbeea":5702,"edcebdc":5703,"bfbedd":5704,"ebddeec":5705,"fbddbe":5706,"bebddee":5707,"bdeea":5708,"bcbefcc":5709,"fecdcc":5710,"bebcbfc":5711,"bbbbefc":5712,"decebf":5713,"dbdbbee":5714,"bccbcee":5715,"ebbecdd":5716,"becbebf":5717,"ebbbeebd":5718,"ffea":5719,"bbebebbbc":5720,"cccbccc":5721,"ffebbc":5722,"bbbeebec":5723,"eccedbd":5724,"bbecded":5725,"bccbbdc":5726,"ecbbebec":5727,"eccceec":5728,"ffac":5729,"eccbcbd":5730,"beccdf":5731,"fedef":5732,"bdbcebe":5733,"ffded":5734,"ecbebfc":5735,"debcdf":5736,"ebcbebbc":5737,"dceddc":5738,"eccbedd":5739,"edcba":5740,"ebcecec":5741,"bdbedbc":5742,"dccfbc":5743,"bbebbbbbbc":5744,"bfbcbbbb":5745,"bcbeba":5746,"bbfbebd":5747,"beecebe":5748,"ebceebe":5749,"bbbddbbbb":5750,"cccdec":5751,"bedcbec":5752,"edeebcc":5753,"bccfbe":5754,"defdbe":5755,"bdbcef":5756,"bcecdec":5757,"bbfded":5758,"dbbeced":5759,"edeeebc":5760,"bdcbeee":5761,"dbcfcc":5762,"bfeeef":5763,"ecbebbcc":5764,"bbbdebf":5765,"bccbeed":5766,"eebbbccc":5767,"bbebbdbe":5768,"deefcc":5769,"bbceebe":5770,"bbbcbebd":5771,"ecbcebd":5772,"bddbbcc":5773,"eccfebb":5774,"bcebfcc":5775,"ebdcdd":5776,"edbbbdc":5777,"dcbfcc":5778,"bebebbbf":5779,"bbeebbebe":5780,"bfdebd":5781,"dbdbef":5782,"fecbbd":5783,"bbbdbbec":5784,"beccebd":5785,"edbebdc":5786,"bfeeed":5787,"fbcbef":5788,"eefdec":5789,"eecac":5790,"bffdf":5791,"ebcbbfc":5792,"dfdebb":5793,"bbbcfee":5794,"bbedccc":5795,"bfcbeec":5796,"bebebbbbc":5797,"bdeefc":5798,"eecbebf":5799,"fdcfc":5800,"ecfdec":5801,"eccdebe":5802,"bfebfc":5803,"febac":5804,"eeeeeeebe":5805,"dbfdee":5806,"bbbbbba":5807,"eeeebeebe":5808,"bbbbbbbbbbbbc":5809,"dbbebfc":5810,"fbdebe":5811,"bbcfbbc":5812,"bbeebbcc":5813,"bccfbf":5814,"bbbbfebb":5815,"becfbf":5816,"bbdbebbbb":5817,"bebeea":5818,"bfcebbc":5819,"dabca":5820,"ebceebf":5821,"ecceddc":5822,"bdfdbd":5823,"eefebbc":5824,"dfbccc":5825,"eccbbdc":5826,"eebcdee":5827,"bccecbc":5828,"bfcdcc":5829,"ebbeebeee":5830,"bcbcdbc":5831,"bceebdc":5832,"eddbecc":5833,"fccdec":5834,"beecbbbe":5835,"ebbefcc":5836,"edbac":5837,"ebcbbebc":5838,"dcbeebc":5839,"ebceedd":5840,"bbbcedc":5841,"defbbc":5842,"bfbded":5843,"fcbbef":5844,"debe</w>":5845,"dfbebd":5846,"bcbcff":5847,"eefedc":5848,"dcefcc":5849,"eccecec":5850,"ebceeed":5851,"ebccbbbe":5852,"fbacc":5853,"ebdcebe":5854,"ecebfcc":5855,"eebdbbbb":5856,"efcdcc":5857,"bdcbbcc":5858,"ecccedc":5859,"ebfbbbf":5860,"feedcc":5861,"ebccff":5862,"fecbebe":5863,"dbbcef":5864,"ebdda":5865,"dcbdbf":5866,"fbedbf":5867,"ebfea":5868,"beebbef":5869,"dbcbeec":5870,"fcdecc":5871,"ebbbbebbc":5872,"abcec":5873,"bdfedc":5874,"bbecbeec":5875,"bbeacc":5876,"bebdbebc":5877,"bdbcbec":5878,"bbbbbbbbbbbd":5879,"afebb":5880,"dfbcec":5881,"dbfba":5882,"ebcdedc":5883,"ebbdccc":5884,"bdbbebbc":5885,"ebfefc":5886,"fbfccc":5887,"bfdbbf":5888,"bbefbbc":5889,"eecdebd":5890,"ebbcbef":5891,"dcbbbcc":5892,"bbbcded":5893,"bceeefc":5894,"dcbdec":5895,"defbec":5896,"bddebec":5897,"ebbcbbebb":5898,"ebcedcc":5899,"bbbebebf":5900,"dbbecee":5901,"ebddecc":5902,"ebdbbbbc":5903,"eccccccc":5904,"bbeedbd":5905,"ddfebb":5906,"fbcded":5907,"ddbbbbc":5908,"ecccbec":5909,"ebcfdd":5910,"bbbefbd":5911,"bbbbfcc":5912,"bfbebec":5913,"bbbbbcebb":5914,"bbbebccc":5915,"bbbeded":5916,"ebffbd":5917,"acdee":5918,"ddffc":5919,"bbeebcbc":5920,"fecebe":5921,"ebbedbf":5922,"aebcc":5923,"dbfbbd":5924,"bbeedec":5925,"efbebbc":5926,"eecfebb":5927,"bebcbbec":5928,"dbeea":5929,"eebebfc":5930,"dbcefc":5931,"bcecbcc":5932,"ecfdee":5933,"bbccedc":5934,"ebbfdf":5935,"bbbbbcbe":5936,"ebddbec":5937,"eebe</w>":5938,"fcffc":5939,"fbfbbc":5940,"bebdbebe":5941,"bfbcfc":5942,"bcfba":5943,"ddedcc":5944,"edbbccc":5945,"dfdef":5946,"fbcedc":5947,"bbbfccc":5948,"dcfbec":5949,"bbedbbf":5950,"eccdedc":5951,"fdd</w>":5952,"bebbb</w>":5953,"dbbbdbe":5954,"dbcba":5955,"becbedd":5956,"ecbeebbc":5957,"beecff":5958,"fbfff":5959,"eceedee":5960,"ebccbbd":5961,"fbfa":5962,"fdceec":5963,"dcd</w>":5964,"fbcbcbc":5965,"bfbbeec":5966,"bbcfef":5967,"fbdbcc":5968,"dbcbbcc":5969,"efeebe":5970,"dbebcbd":5971,"dbbcebe":5972,"edeebbbb":5973,"befeeee":5974,"ebfbbebb":5975,"bdfdec":5976,"dcddcc":5977,"dbbebbebb":5978,"ecbb</w>":5979,"fbeefc":5980,"befbbcc":5981,"fecfec":5982,"dcbcbbc":5983,"befefc":5984,"bbbbbcbbc":5985,"ebbeebebe":5986,"bfdecc":5987,"bdeeccc":5988,"edbedbc":5989,"debbebd":5990,"deeded":5991,"dccfcc":5992,"edfdbe":5993,"edfedc":5994,"edecebc":5995,"bbeebbbf":5996,"bceceec":5997,"debeccc":5998,"dfecbc":5999,"bffbcc":6000,"bbdeeebb":6001,"edcbeee":6002,"ebefdd":6003,"dbcddc":6004,"dfeccc":6005,"dbbbdbbc":6006,"ebcbbbec":6007,"eebedbd":6008,"bbbbcef":6009,"ebbecbbbb":6010,"dbbebbbbbb":6011,"dbeeebc":6012,"bbecebbc":6013,"bbbeeeee":6014,"bebcebf":6015,"dfbcbd":6016,"bceebbbc":6017,"bbbefec":6018,"bbfbebf":6019,"bebedec":6020,"dbbecf":6021,"bedbdcc":6022,"dbcdebb":6023,"edebccc":6024,"bceebbd":6025,"ebecff":6026,"bdcbbed":6027,"bcbedbf":6028,"bbebebec":6029,"bbdcfc":6030,"eeeb</w>":6031,"bdfdcc":6032,"abebf":6033,"dbbdddd":6034,"bbbdba":6035,"edcfdc":6036,"bdbeff":6037,"ebccdee":6038,"ebdcfc":6039,"debd</w>":6040,"efdbcc":6041,"eccdeec":6042,"bffbec":6043,"bdceebd":6044,"bcecded":6045,"bfbcebc":6046,"edbcebd":6047,"bcbbbbbbbbbbbb":6048,"dbcbebd":6049,"bbccbebe":6050,"feebbbc":6051,"bcbcbebe":6052,"acbbbb":6053,"eecbbdd":6054,"decfec":6055,"bbfbecc":6056,"bcecebc":6057,"bdecbec":6058,"bceddee":6059,"bddfcc":6060,"dbeefc":6061,"acbcc":6062,"dbbecdc":6063,"bfbeebc":6064,"adbbc":6065,"dfebec":6066,"edecfc":6067,"dcfeec":6068,"bdbcbbd":6069,"ddbedd":6070,"fbddee":6071,"eceebdc":6072,"ecbcbbd":6073,"bbcecbd":6074,"bbbebebbc":6075,"bceebbec":6076,"cccebd":6077,"feddee":6078,"dbdba":6079,"bbeeedc":6080,"bcccecc":6081,"ebdcebc":6082,"bbefebe":6083,"eefbbebb":6084,"bbeddec":6085,"becfebb":6086,"ecbcdec":6087,"ecbbbecc":6088,"bbbcdcc":6089,"efcbfc":6090,"ebbebecc":6091,"bebcbbbd":6092,"eddea":6093,"ebddbbbb":6094,"ebccdbc":6095,"ececfc":6096,"bebbbebbbb":6097,"debc</w>":6098,"bdfbfc":6099,"bceedec":6100,"efcfec":6101,"fccfcc":6102,"eddfcc":6103,"ecbbebcc":6104,"bbbcdebb":6105,"bbbbcfc":6106,"bbebebbf":6107,"bebdbbf":6108,"dfbbbf":6109,"beeebeebb":6110,"bbceccc":6111,"bcbeded":6112,"bbbeeebc":6113,"bbbefbe":6114,"becdecc":6115,"beebac":6116,"ebbbedf":6117,"bbbdded":6118,"bbcbedd":6119,"fdedcc":6120,"bbcda":6121,"dfbbed":6122,"bcdeccc":6123,"bccdebe":6124,"fffbe":6125,"bcfbbcc":6126,"bbdceec":6127,"defef":6128,"bbcbba":6129,"bfbbebd":6130,"ebccdec":6131,"dbbdbbd":6132,"ebbdebf":6133,"ebbdbbee":6134,"dccddc":6135,"bbbbca":6136,"ddbebf":6137,"bfbcebe":6138,"bfcbebe":6139,"dccebf":6140,"eebfa":6141,"bbebbccc":6142,"dbbcbbd":6143,"bba</w>":6144,"baeec":6145,"ebccbbf":6146,"ecbebbec":6147,"dbcbbed":6148,"bbefef":6149,"dffdd":6150,"ebbecebc":6151,"eebc</w>":6152,"fcbbdd":6153,"bcbdef":6154,"ddbced":6155,"eabba":6156,"bbdca":6157,"fedff":6158,"dbcfbd":6159,"bebdbcc":6160,"ebebea":6161,"edfccc":6162,"bcecbbbb":6163,"dfeecc":6164,"bbdcebc":6165,"beecbbf":6166,"beecebd":6167,"edeeecc":6168,"becbbebe":6169,"fccbbf":6170,"bdbbbfc":6171,"dceddd":6172,"deebecc":6173,"eebbebdc":6174,"eebcbebc":6175,"bcfded":6176,"ddcedc":6177,"bbbedfc":6178,"debceec":6179,"bfecebb":6180,"bdeeecc":6181,"eebdecc":6182,"bdeedbe":6183,"edeebec":6184,"bebdebd":6185,"cccbbbc":6186,"bcccef":6187,"bbecdbd":6188,"bcbcebd":6189,"beeda":6190,"bcdcccc":6191,"feddec":6192,"fdcff":6193,"ebbcded":6194,"bbecbef":6195,"bbceef":6196,"ebefbbc":6197,"ebfbecc":6198,"bcbbac":6199,"cccbbf":6200,"debcef":6201,"ebcdbbbb":6202,"eebedee":6203,"dddccc":6204,"feacc":6205,"bfcfee":6206,"bdbeedc":6207,"bebedbd":6208,"ecbedbf":6209,"ebcbcbf":6210,"bddbbbd":6211,"bcecef":6212,"dbcdbf":6213,"ebbbebbebb":6214,"bbcffc":6215,"efcfbc":6216,"bfecee":6217,"dbceebc":6218,"eececbd":6219,"fccebd":6220,"bebebecc":6221,"bcfbbbd":6222,"bdceeec":6223,"bddbecc":6224,"bbdbbebc":6225,"bbbbfbbbb":6226,"bcceccc":6227,"bfcbbbd":6228,"ebebcbbc":6229,"becbebbc":6230,"efcdbd":6231,"fbf</w>":6232,"ebbfdbe":6233,"bebcfbc":6234,"eabbee":6235,"bfcbbee":6236,"eeccebd":6237,"bbbcfec":6238,"dbbc</w>":6239,"fdbfcc":6240,"becfdc":6241,"bbcdbbd":6242,"bceebbee":6243,"eebd</w>":6244,"eeebebeee":6245,"bbdeedc":6246,"ebedbcc":6247,"bfeba":6248,"feddbe":6249,"fcfbbc":6250,"bbecfbc":6251,"bbbbebcc":6252,"bebfa":6253,"eccffc":6254,"bebcfec":6255,"ffbbbd":6256,"ebbeddd":6257,"bdcebcc":6258,"bbbcebec":6259,"ebcfef":6260,"edcbbcc":6261,"bbecbbbd":6262,"bfeebbc":6263,"ebbbbba":6264,"bbdebdc":6265,"bbbfbbbf":6266,"dbbeba":6267,"fccfbc":6268,"bdbebbbd":6269,"dfbeec":6270,"bebebeec":6271,"bbcb</w>":6272,"ecceeed":6273,"ebebbbcc":6274,"ebcfbbc":6275,"fcbedd":6276,"fde</w>":6277,"ddbeebb":6278,"bedceec":6279,"acca":6280,"baebd":6281,"fccbbbb":6282,"bececcc":6283,"eddebec":6284,"bbbefebb":6285,"fceeee":6286,"eebcebbc":6287,"fbbeccc":6288,"bbcecec":6289,"decbcbc":6290,"becbbdd":6291,"bcbebbed":6292,"dbbebbcc":6293,"bfb</w>":6294,"dbfebd":6295,"bcdbbdd":6296,"badbd":6297,"bdbcccc":6298,"ebbecbec":6299,"bbbebbdc":6300,"deebbed":6301,"becda":6302,"eccdbbc":6303,"bddea":6304,"ebcfebc":6305,"bdbceec":6306,"ebcedbd":6307,"edebbebb":6308,"ebbbac":6309,"dce</w>":6310,"bcdbbebb":6311,"bebebebd":6312,"bbecebf":6313,"bbbeefc":6314,"edecbec":6315,"dedddc":6316,"bbdbbfc":6317,"becac":6318,"bbedefc":6319,"bcecebe":6320,"bdcdef":6321,"dddebd":6322,"ebbcbbcc":6323,"bfeced":6324,"dcecebb":6325,"bbdbebbc":6326,"beeebbebe":6327,"ffdef":6328,"bbbebbebc":6329,"befbbbf":6330,"bcceeee":6331,"decdebb":6332,"fefa":6333,"febbef":6334,"bbbedbbbb":6335,"bdbca":6336,"fedfc":6337,"bbcbcdc":6338,"bbbbcdbe":6339,"bccdbbc":6340,"bbebbeec":6341,"bbbbcbcbc":6342,"edcdebe":6343,"bccceec":6344,"edcbeed":6345,"fccdee":6346,"bbdbba":6347,"bbecbfc":6348,"ebdfbf":6349,"ecbebbbd":6350,"eefbbcc":6351,"ddbdcc":6352,"bbdbced":6353,"ecccef":6354,"eedbbdd":6355,"becbbebc":6356,"dccbebe":6357,"eddba":6358,"fbeeecc":6359,"bccdfc":6360,"fbcbbee":6361,"bbebbebf":6362,"ebbeebbf":6363,"beed</w>":6364,"dceeef":6365,"bcbddf":6366,"fecbfc":6367,"feedee":6368,"ebcdbcc":6369,"ebbeefc":6370,"becbced":6371,"bbefbbf":6372,"ecfbebc":6373,"beeebeebe":6374,"fefef":6375,"beccff":6376,"bebbbbbbbc":6377,"ebdbeebb":6378,"ebefa":6379,"ecececc":6380,"eeebfcc":6381,"bccbeebb":6382,"fdca":6383,"ebeeedc":6384,"ebaa":6385,"ebebebbbe":6386,"decddc":6387,"ecbbea":6388,"beee</w>":6389,"bbbbeeebb":6390,"ebbecebe":6391,"bcbdbbc":6392,"bbbedbbc":6393,"ddecbd":6394,"edcdeec":6395,"bdfbbbc":6396,"beec</w>":6397,"fdebfc":6398,"bbebeef":6399,"dedbef":6400,"bbbdbdbd":6401,"eedbbbf":6402,"dbebbbf":6403,"eebcbebe":6404,"bcbedebb":6405,"dbedbbc":6406,"fecbebc":6407,"dbebcec":6408,"bbebbebbc":6409,"edbebbf":6410,"bebdccc":6411,"ebedbbd":6412,"bcbdfc":6413,"dbbbdec":6414,"ebbbca":6415,"bbbbcbebe":6416,"edebbbc":6417,"eebebecc":6418,"edccccc":6419,"ecbcdbc":6420,"eedbbebb":6421,"bfbea":6422,"ebecdc":6423,"ebfdbf":6424,"dccbbbe":6425,"bccbebf":6426,"bbceebf":6427,"bdbedbd":6428,"bbbbebbbbbb":6429,"dfbcee":6430,"bcbd</w>":6431,"bffbbf":6432,"becbcee":6433,"eccbcee":6434,"bdcbeed":6435,"becbbef":6436,"dbbe</w>":6437,"fbcefc":6438,"dfdfc":6439,"edeeccc":6440,"fefff":6441,"aeca":6442,"ecbebecc":6443,"bcfddc":6444,"ebeecbe":6445,"fbcebbc":6446,"fbcdbd":6447,"bbbfbbee":6448,"fcdedc":6449,"fbbcccc":6450,"fecebd":6451,"ddeeed":6452,"fcecbd":6453,"eebdeec":6454,"edbcccc":6455,"eebdedc":6456,"bcbbbbbbbc":6457,"fcbbebe":6458,"eefbbec":6459,"ebbe</w>":6460,"bbbbb</w>":6461,"decbbee":6462,"bebcbef":6463,"bcccbbc":6464,"adba":6465,"ebcecbe":6466,"bbdcdbe":6467,"eadbc":6468,"bbccbcbc":6469,"bbdcbbd":6470,"ebccbbbc":6471,"deebbebb":6472,"bbcccccc":6473,"bbddbbd":6474,"fcbcdc":6475,"bfcfcc":6476,"fbdbbf":6477,"dfbbebb":6478,"bcbbbbbbc":6479,"bbbebcebb":6480,"bcbe</w>":6481,"fedbf":6482,"ebcbeebe":6483,"bebdecc":6484,"ecfdbd":6485,"beccdec":6486,"eafee":6487,"bcfbecc":6488,"bbefff":6489,"ebbcbeee":6490,"dcdbbf":6491,"dbfdbc":6492,"bdbcbcc":6493,"beedbbc":6494,"dcceecc":6495,"ebedeec":6496,"bcbeefc":6497,"bbfebec":6498,"defff":6499,"fcbbebc":6500,"bbedff":6501,"dceeebe":6502,"beedbbbb":6503,"ebbbeeec":6504,"ebbbeff":6505,"bddebcc":6506,"dcfdf":6507,"dbfeec":6508,"bbbebbbec":6509,"eccbbebb":6510,"bbebea":6511,"fccdbe":6512,"eefbbbd":6513,"bfeedd":6514,"fbeded":6515,"bbfcbbbb":6516,"ecbcedc":6517,"ebdca":6518,"debbdee":6519,"bfcefc":6520,"ebddebd":6521,"eebcfbc":6522,"ebdac":6523,"feddbc":6524,"eaebc":6525,"debea":6526,"eeceeee":6527,"eeccdf":6528,"fccbdc":6529,"bdfbebe":6530,"bbecbbebb":6531,"fecdbd":6532,"cccbbd":6533,"dcecef":6534,"ecfefc":6535,"bfcba":6536,"eeeddd":6537,"efbbbec":6538,"eefbbbf":6539,"bbbbcebc":6540,"bebcbeec":6541,"debbecc":6542,"bebddbc":6543,"bbbbbbbbbbc":6544,"bbbebcbd":6545,"bbdcdee":6546,"bebebebf":6547,"bbbddec":6548,"ebbbeecc":6549,"bccac":6550,"dbfbdc":6551,"bebdbbbc":6552,"ffbccc":6553,"ebfded":6554,"efbded":6555,"ecdbdcc":6556,"ebffbf":6557,"dbecdd":6558,"eedcdd":6559,"edfbbf":6560,"ebdceec":6561,"ecfeecc":6562,"dfcdee":6563,"bfcfec":6564,"bbcbeebe":6565,"bbdbedd":6566,"dccbbbc":6567,"debcdd":6568,"bfbdee":6569,"dbbcfc":6570,"dcbcebe":6571,"beececc":6572,"deecbec":6573,"dafc":6574,"efdbbd":6575,"ebbbcbbbe":6576,"ebebedd":6577,"dbbedcc":6578,"bcccbbbb":6579,"ebecbebe":6580,"bfcbbef":6581,"fffdc":6582,"bbdcdf":6583,"debbdbc":6584,"bbdfbbc":6585,"bbeddbd":6586,"bbbbeeee":6587,"ddcbbf":6588,"bceb</w>":6589,"fefccc":6590,"debebec":6591,"acbbf":6592,"ffeeee":6593,"bbbebbef":6594,"efcbef":6595,"eceebec":6596,"beecbdc":6597,"beccbecc":6598,"bbbdbef":6599,"bbebbbeebb":6600,"dededc":6601,"fbebbebe":6602,"ebfbebf":6603,"ecbdebc":6604,"eefdbf":6605,"bbdda":6606,"bbdbcebb":6607,"bfbdebb":6608,"eabdc":6609,"ebbcbebd":6610,"dcfbcc":6611,"eecdbcc":6612,"bedcef":6613,"ecbcbbbe":6614,"bbecbcbc":6615,"ebffdc":6616,"dbbca":6617,"dbeebec":6618,"edfbdc":6619,"ebdeeee":6620,"bbccbbee":6621,"debbbebe":6622,"bcdbbed":6623,"bfcedc":6624,"bebcdbd":6625,"bbbcbcbd":6626,"bceddf":6627,"eebdef":6628,"bcdedcc":6629,"eedbbed":6630,"bfedbf":6631,"ebcdbbd":6632,"bbebebcc":6633,"ebbbbbfc":6634,"deebcec":6635,"babeee":6636,"eccbbbf":6637,"ebfbebd":6638,"ebeeba":6639,"edbbebf":6640,"bebffc":6641,"eeebbeeee":6642,"bbbdbbbbc":6643,"bbdbcbe":6644,"ebddbbd":6645,"dceebbc":6646,"debddd":6647,"eebdccc":6648,"dcbcfc":6649,"bedcdf":6650,"eedbdcc":6651,"bbbceebc":6652,"eeccebe":6653,"eccfbf":6654,"eebebbef":6655,"bebbcccc":6656,"dceded":6657,"ebecfbc":6658,"edbddd":6659,"dcbbeec":6660,"ecbcff":6661,"fedbdc":6662,"bebedcc":6663,"debbff":6664,"bcccbec":6665,"bbdbbbec":6666,"beedccc":6667,"bbfeebc":6668,"ebdecbd":6669,"bbbdfbc":6670,"bfebbcc":6671,"bbeedcc":6672,"decfee":6673,"bededcc":6674,"bbabbc":6675,"eccfbe":6676,"beecbeec":6677,"beccbdc":6678,"bebceebc":6679,"bfbbbbbbbb":6680,"efdbbbb":6681,"ecfebbc":6682,"bbccebf":6683,"bbbbcbbebb":6684,"deecdd":6685,"babef":6686,"edecef":6687,"eaebf":6688,"eedcfc":6689,"fccdbc":6690,"bbdeebe":6691,"bcbffc":6692,"abeebb":6693,"dbbbfcc":6694,"bbbcbeebb":6695,"edbcecc":6696,"dedbbbe":6697,"bcbddee":6698,"dbbcdee":6699,"ececdbe":6700,"eededcc":6701,"eecbced":6702,"eabebe":6703,"bbebbff":6704,"eefbbef":6705,"bdbcebc":6706,"bdbedec":6707,"dfda":6708,"fbddbc":6709,"eeceedd":6710,"efcfee":6711,"dedbebe":6712,"fddef":6713,"eecbebbc":6714,"bccdebc":6715,"bdbcdbe":6716,"bbebbebd":6717,"febbebe":6718,"bcbbbbbcbbbb":6719,"bbfbccc":6720,"dbecbec":6721,"debbbbbd":6722,"bcdbbbf":6723,"bccbbef":6724,"decdef":6725,"bbbbbdbbbb":6726,"edcecbd":6727,"ebdedcc":6728,"eabea":6729,"efcbeec":6730,"bcbda":6731,"dcdbbbe":6732,"bcbbeecc":6733,"bbbbbbfc":6734,"ebdcef":6735,"bebcbebd":6736,"bedca":6737,"dfeebc":6738,"bcbcbdc":6739,"bbbfbfc":6740,"ecbcbdc":6741,"ebbd</w>":6742,"dbdbfc":6743,"bedddd":6744,"fbfdd":6745,"acebe":6746,"bbedbebe":6747,"bbffdc":6748,"bcbeddc":6749,"ecdbbbd":6750,"eebddbe":6751,"bbbecbbc":6752,"eebfef":6753,"fbcfcc":6754,"bbbefcc":6755,"bceedcc":6756,"bcbdbec":6757,"bceca":6758,"ebbebccc":6759,"bbbdbeee":6760,"ebbcdcc":6761,"eabbd":6762,"dbbbdbbd":6763,"bdccccc":6764,"dbbcdbe":6765,"bedbfcc":6766,"dfca":6767,"deefee":6768,"edbedee":6769,"dcbebec":6770,"debefc":6771,"eedca":6772,"bfbbecc":6773,"bfbcdd":6774,"edecbcc":6775,"bbabba":6776,"bfbcbec":6777,"dcbedbe":6778,"dbbcdf":6779,"bebbbbbbebb":6780,"dfcef":6781,"ebeecdc":6782,"dbfbbbe":6783,"bccbbdd":6784,"bbedebd":6785,"deeefc":6786,"beebebebe":6787,"bbccdbd":6788,"bbccdec":6789,"ecccbbc":6790,"ecbcbebc":6791,"ebbecef":6792,"ebdcedc":6793,"fbeddc":6794,"dbbbdf":6795,"ecfbecc":6796,"fbdebd":6797,"ebdcebd":6798,"fbebbef":6799,"dcebbcc":6800,"acebc":6801,"eefbecc":6802,"eeecdec":6803,"ebbfebf":6804,"bedcdd":6805,"ebfebcc":6806,"eabef":6807,"bcbebccc":6808,"acff":6809,"eebebccc":6810,"bafbc":6811,"ecceeee":6812,"bbedbbbc":6813,"ecbcbbbc":6814,"dceefc":6815,"eefddc":6816,"edebbbf":6817,"bfebbebb":6818,"ffcdd":6819,"ebcfebe":6820,"beeebcbc":6821,"beefa":6822,"bdeebcc":6823,"fcecec":6824,"bdbcdf":6825,"dcfebd":6826,"febbbbc":6827,"dbbcbcc":6828,"debebcc":6829,"bccca":6830,"dcedbf":6831,"fbfdf":6832,"bbbbddc":6833,"dccbfc":6834,"bbbdbbdd":6835,"beebea":6836,"ebdcbec":6837,"fcceecc":6838,"eddeccc":6839,"fbdbbd":6840,"fbdbdc":6841,"eedddd":6842,"bbccfbc":6843,"dbdbbec":6844,"dbdbcbc":6845,"befbebf":6846,"eccbced":6847,"dcbbebd":6848,"dbbbbdbbbb":6849,"bbebbbbbf":6850,"bfdbbbe":6851,"fefdd":6852,"bfbebcc":6853,"dbddebb":6854,"eeebeef":6855,"bdeedf":6856,"bceebebc":6857,"bceeff":6858,"bbbcbbdc":6859,"bcfbbbf":6860,"dbdbeee":6861,"beecbebe":6862,"ebdcbbc":6863,"dccefc":6864,"bbbdbebd":6865,"eebcded":6866,"eeebbbbbe":6867,"bebbeba":6868,"ebbcefc":6869,"bbfbeebb":6870,"bafee":6871,"ebbbeebf":6872,"bddbbdd":6873,"bfbdec":6874,"bcdb</w>":6875,"beccfec":6876,"ebccebf":6877,"ebcbcdd":6878,"eebcbbee":6879,"dbcfed":6880,"bfbddc":6881,"bbddbbc":6882,"bbbdbbed":6883,"bffdbe":6884,"cccfcc":6885,"bbffebb":6886,"bbdddbe":6887,"ebccfbc":6888,"bcfea":6889,"fcfdd":6890,"eebbeccc":6891,"bbfddc":6892,"fbddec":6893,"bbdeeed":6894,"dcbebbbb":6895,"bececbd":6896,"bebddec":6897,"bbbcbccc":6898,"ebbbdef":6899,"ebdbedd":6900,"beeddbe":6901,"dbdfee":6902,"becffc":6903,"eeecef":6904,"ebcbebbbb":6905,"bbeebbed":6906,"eccbebf":6907,"edbedcc":6908,"dcbeecc":6909,"bebdff":6910,"bbbbbcec":6911,"eeccbdc":6912,"dddcdc":6913,"bedebfc":6914,"beecbfc":6915,"dbcbcbd":6916,"bbbbdbbd":6917,"eeebbef":6918,"fcbebbc":6919,"edfdbc":6920,"edeedbe":6921,"bfbebbbe":6922,"ebecbebc":6923,"fbcbbec":6924,"bbccbebc":6925,"dfcbbc":6926,"ecdcecc":6927,"ecbeded":6928,"ebbfedc":6929,"bbccbfc":6930,"bcceeed":6931,"decceec":6932,"babbbf":6933,"bdfefc":6934,"eeecdbe":6935,"fcdbcc":6936,"ebccbebe":6937,"befddc":6938,"bbebbbbec":6939,"dbbcbbbc":6940,"fccbfc":6941,"dbecdf":6942,"ececdec":6943,"ebbcdebb":6944,"ebbdebbc":6945,"bbfbcbd":6946,"bcfbccc":6947,"dbecef":6948,"ecdbbbbc":6949,"bccfebb":6950,"beebbbbee":6951,"beccdbe":6952,"bbbbbcbf":6953,"bcbcdec":6954,"edcbbed":6955,"fccefc":6956,"fbcfee":6957,"beecbbec":6958,"ececdee":6959,"bbbbdebe":6960,"edcbcbd":6961,"bdcbcbd":6962,"acdbe":6963,"bbebbbeee":6964,"dbbceec":6965,"dabba":6966,"bbccbef":6967,"ebbcfee":6968,"bdbeebf":6969,"dcbdef":6970,"eccbcdc":6971,"fecbbbc":6972,"eebcebf":6973,"bebfef":6974,"bceeebd":6975,"dcbdebb":6976,"dbbcebc":6977,"bebbebfc":6978,"bbbeddc":6979,"ebeebbebb":6980,"bbbddebb":6981,"eedbbdc":6982,"bbdcbcc":6983,"bedd</w>":6984,"fcdebd":6985,"eeebebebe":6986,"eeecdbc":6987,"bcccebc":6988,"bbbdbfc":6989,"eceeddc":6990,"beeeebd":6991,"ebedbb":6992,"dfcdbe":6993,"bdbcdee":6994,"ddfef":6995,"bbcfdd":6996,"bbbdebbc":6997,"fecbbbe":6998,"dccfee":6999,"bcfebec":7000,"eabca":7001,"ebbc</w>":7002,"cccdbd":7003,"bfecbbc":7004,"babfc":7005,"eedcbec":7006,"fbfbbf":7007,"dccbef":7008,"dccfed":7009,"bdbcbbbc":7010,"bebcdebb":7011,"fccded":7012,"eceedbd":7013,"ebdbbebe":7014,"eabeee":7015,"eeeebec":7016,"eeccdbc":7017,"eeecbdc":7018,"eeecfc":7019,"edbebbbc":7020,"bbbeebcc":7021,"cccded":7022,"ebbeded":7023,"bdbddbd":7024,"bfbdf":7025,"eabbbc":7026,"dbfdbd":7027,"edcedcc":7028,"bceebecbbec":7029,"ffbbbf":7030,"eecffc":7031,"ebdcecc":7032,"bbbdecc":7033,"deebcbd":7034,"edbcdf":7035,"ecbebccc":7036,"fccfed":7037,"bbcecbe":7038,"bcbebbbf":7039,"bbeffc":7040,"ddbcdc":7041,"edebbbd":7042,"bbeebbbbc":7043,"eecbbebe":7044,"eeeebbbc":7045,"edbcbec":7046,"ebbfbbbc":7047,"ebedecc":7048,"dbbcbbbe":7049,"ecbdfc":7050,"dbfebf":7051,"fbeebcc":7052,"bcbebbbbc":7053,"bbcdbcc":7054,"dbffbc":7055,"ecbdecc":7056,"ecccebd":7057,"ddecdc":7058,"befbeec":7059,"abbdc":7060,"dcbbecc":7061,"fecbeec":7062,"deebccc":7063,"defbbf":7064,"dcebecc":7065,"bbbbbeed":7066,"befded":7067,"ebbcbbbf":7068,"bbebbdf":7069,"ebebcbbbb":7070,"bbedbbed":7071,"eeecbbbc":7072,"bebacc":7073,"defebc":7074,"afef":7075,"edfbbbe":7076,"bbfcfc":7077,"efcbbbe":7078,"fffef":7079,"eeccdec":7080,"beebebbbe":7081,"bbdfdd":7082,"eebddbc":7083,"efbcef":7084,"bbcbeef":7085,"ebbcfec":7086,"bbcfebe":7087,"dcbea":7088,"abbebe":7089,"bbdbddd":7090,"debebbbe":7091,"eefbccc":7092,"bebddbd":7093,"bdeeebc":7094,"debcccc":7095,"bbeebeec":7096,"eefbbebe":7097,"dbfda":7098,"bbbdbcbc":7099,"bdbcbbbe":7100,"bbefdbe":7101,"edeedf":7102,"bbbbecbc":7103,"fbcfed":7104,"aceec":7105,"eefded":7106,"beebbbbf":7107,"becdedc":7108,"babebc":7109,"bfecdd":7110,"bbcdbb":7111,"bedcebc":7112,"edeac":7113,"ebbdcdc":7114,"bfecef":7115,"bbdbcbf":7116,"fbdecc":7117,"bbbbbbbbbbebb":7118,"fecbcbc":7119,"ebbcebec":7120,"bbbcbbebe":7121,"ebbbbedc":7122,"decefc":7123,"dbefbe":7124,"efeba":7125,"edececc":7126,"bccbbebe":7127,"ebbceebc":7128,"bcbbcccc":7129,"dbcbbebb":7130,"bbbcbecc":7131,"adca":7132,"eaecc":7133,"beebebbee":7134,"debbbdc":7135,"ebdbced":7136,"ecfbebe":7137,"fcbefc":7138,"baac":7139,"ecccebe":7140,"fdc</w>":7141,"ebecdbd":7142,"fbdfbc":7143,"dfcbec":7144,"defecc":7145,"eecbdbd":7146,"eeeda":7147,"beeddee":7148,"fcbdbd":7149,"cccbcbc":7150,"beeebebc":7151,"bbbfdbc":7152,"fecfbc":7153,"ddecec":7154,"eecfbf":7155,"bceeedc":7156,"bbcbebec":7157,"ecfbef":7158,"debbbebc":7159,"fdebbcc":7160,"eeccdbe":7161,"bdecdee":7162,"ebdcdbe":7163,"eeeebeebb":7164,"fdcdec":7165,"bfdccc":7166,"beeddec":7167,"efcbcbc":7168,"eceebbf":7169,"bebdbdc":7170,"edeebbd":7171,"edacc":7172,"ecbcbebe":7173,"ebecbbee":7174,"bebdedc":7175,"ebecded":7176,"eddbbcc":7177,"ecbbbccc":7178,"ebbbcdbe":7179,"debcebc":7180,"ebbcbeec":7181,"ebbdced":7182,"ecfbbec":7183,"bbbbeebd":7184,"beccdee":7185,"afdd":7186,"dfbbdc":7187,"bbccfee":7188,"abbef":7189,"eceddd":7190,"bbedbdc":7191,"dbfbbbc":7192,"dbbbb</w>":7193,"eccdbec":7194,"ecedccc":7195,"dbfedc":7196,"eebedec":7197,"bbbccbbc":7198,"bbccbbbd":7199,"bbbbbcee":7200,"becbbbec":7201,"eecbcdc":7202,"fbcdcc":7203,"becbcebb":7204,"debcfc":7205,"dcbedf":7206,"bbdecbd":7207,"dcbcccc":7208,"bbedbebc":7209,"ebdcdf":7210,"bbbebcec":7211,"bedcfc":7212,"bdbebbec":7213,"ebeecec":7214,"bbebbbef":7215,"debbbbee":7216,"dbfbfc":7217,"ebcbdcc":7218,"eebeddc":7219,"ebeedcc":7220,"ebfbeec":7221,"ebceeebb":7222,"feeebd":7223,"debedf":7224,"ebbecfc":7225,"dbbecbbc":7226,"bcfeecc":7227,"ebeffc":7228,"ebbeedbe":7229,"becceecc":7230,"efcedc":7231,"eeeeea":7232,"bbdfef":7233,"bccbced":7234,"efedcc":7235,"defdee":7236,"babbebb":7237,"ddbbebe":7238,"ddeedd":7239,"fecbef":7240,"bbbbcbbee":7241,"bdbcebd":7242,"bbbefbf":7243,"defbdc":7244,"bbebcbbc":7245,"dedbbbc":7246,"fccbebe":7247,"bcccccccc":7248,"bbbfbbbd":7249,"ebedebd":7250,"bbdbbebd":7251,"eeeebdc":7252,"ecbe</w>":7253,"bdfbbee":7254,"bdbebbcc":7255,"bebfbec":7256,"debcbbc":7257,"bfbebbd":7258,"fbebbed":7259,"bcbddbe":7260,"dcbcebc":7261,"ebfdebb":7262,"fdcdee":7263,"bcbcbbec":7264,"dbceebd":7265,"bcbcbcbcbcbcbcbcbcbcbcbcbcbcbcbc":7266,"fceeed":7267,"eccbbdd":7268,"bdebdcc":7269,"dcceebc":7270,"dccbebc":7271,"bebbebbcc":7272,"bbbfbebc":7273,"efdbb":7274,"ddedbd":7275,"bacba":7276,"ddbddc":7277,"edcffc":7278,"fbbebfc":7279,"debeebc":7280,"bdfbef":7281,"decbbbd":7282,"dceba":7283,"edcdedc":7284,"dbbdbbc":7285,"eedcecc":7286,"eeec</w>":7287,"eeecebc":7288,"deccccc":7289,"dbeac":7290,"abcbf":7291,"defbbbb":7292,"bbabbbe":7293,"bccfdd":7294,"beccbbf":7295,"becdebd":7296,"decba":7297,"efbefc":7298,"beebebeee":7299,"beceedd":7300,"bccebdc":7301,"bcbeebec":7302,"bffecc":7303,"eefefc":7304,"beccbebc":7305,"bbfcbbc":7306,"ebbfbebe":7307,"dedbfc":7308,"bebbbdcc":7309,"decfcc":7310,"beecdbd":7311,"bceedbd":7312,"bbbfbbebb":7313,"bfdbdc":7314,"dccbbee":7315,"dbcebec":7316,"bdecdf":7317,"dbbcdbd":7318,"eeeceec":7319,"dbebeebb":7320,"bcfbeee":7321,"bbccbbec":7322,"bbbdbbbbbbbb":7323,"fbebbbbc":7324,"ebbfbdc":7325,"bceebebe":7326,"eebcdbd":7327,"bbef</w>":7328,"aeecc":7329,"efecdc":7330,"bebfbbf":7331,"dbeceec":7332,"ebebfcc":7333,"efbea":7334,"bbdcbdc":7335,"ddbbef":7336,"bbbfebf":7337,"fcecdc":7338,"fbdbfc":7339,"ecfddc":7340,"bcececc":7341,"ecbdccc":7342,"eebdebd":7343,"fdcebc":7344,"dbecdee":7345,"efcebf":7346,"eebdbcc":7347,"dbbcbbf":7348,"bebbcbbc":7349,"ececbbbb":7350,"bbdcff":7351,"aecbc":7352,"ecccdee":7353,"decdeec":7354,"dbecbbc":7355,"debedbe":7356,"debbedc":7357,"bbdcebd":7358,"bdbcdbc":7359,"eceeedc":7360,"bbedbbec":7361,"eebcbbec":7362,"decbeed":7363,"bbdeebf":7364,"ebecebbc":7365,"fbdbebe":7366,"eccfecc":7367,"eebcbfc":7368,"edbceec":7369,"bbbeeeebb":7370,"efdebd":7371,"fffed":7372,"ebefbbbb":7373,"efb</w>":7374,"bffebd":7375,"ebcbbbcc":7376,"bceebfc":7377,"bbeeea":7378,"bedefcc":7379,"eeeebeef":7380,"bcfbbebb":7381,"becbcbe":7382,"dfcbcc":7383,"fbdedc":7384,"ecccdcc":7385,"dbbbfbf":7386,"defdbc":7387,"debbdbd":7388,"eeeebbebe":7389,"edecbbbb":7390,"bcdddd":7391,"bdcea":7392,"fcbcbe":7393,"bcecdbc":7394,"bcbcdbd":7395,"ebccbfc":7396,"efcbebe":7397,"dcfedc":7398,"ecbebbebb":7399,"aeea":7400,"ebcbcbbc":7401,"bdcfdc":7402,"eeccff":7403,"ebdffc":7404,"fbbb</w>":7405,"bedebbcc":7406,"debcdee":7407,"ecccdf":7408,"eedb</w>":7409,"ecfded":7410,"bcbcbccc":7411,"beccbbd":7412,"ecfbbcc":7413,"dbbecdd":7414,"eeedccc":7415,"bacea":7416,"efbcbbc":7417,"eedcdf":7418,"fccbbd":7419,"efbbeec":7420,"bbddbbbd":7421,"bbcdebd":7422,"ecbcfbc":7423,"fecfed":7424,"eceebbd":7425,"bfbca":7426,"beebbbbbc":7427,"becfbbc":7428,"bbfcdf":7429,"bcbdebe":7430,"eccca":7431,"eccecdd":7432,"bbedded":7433,"bfeddc":7434,"ebfbccc":7435,"bcbcbef":7436,"bbbbfbbc":7437,"dbbcdbc":7438,"fbebbdc":7439,"deeceec":7440,"ebecdcc":7441,"bceeebbc":7442,"febbff":7443,"ebecbbec":7444,"bbfbbebe":7445,"bbbbac":7446,"efbedd":7447,"fdeba":7448,"bbbbcdbc":7449,"fecbecc":7450,"bbbbcbbec":7451,"bbbfebd":7452,"ebbdbfc":7453,"bbbcfbd":7454,"edcbedd":7455,"bbddebe":7456,"eeeeebeebe":7457,"edfdee":7458,"fbfbcc":7459,"bbebbbebbbb":7460,"becbcbf":7461,"decbebd":7462,"bcdbdcc":7463,"ecbeba":7464,"fcbdcc":7465,"eaeec":7466,"beecbecc":7467,"fedeec":7468,"deeeecc":7469,"efbbbcc":7470,"bcdbbdc":7471,"bbbdbbcc":7472,"beeeebbc":7473,"dbfbebe":7474,"eebcdcc":7475,"dddbdc":7476,"ebbbcbbf":7477,"bbdcdbc":7478,"befbeebb":7479,"fecedc":7480,"fbddbd":7481,"bceddbe":7482,"fcbcebb":7483,"debebebe":7484,"bebcfee":7485,"eeebac":7486,"ebfbeebb":7487,"bcbcbbee":7488,"bbdbcbbbb":7489,"dceeebc":7490,"dcecdee":7491,"ebebbebd":7492,"ebebdbc":7493,"defdcc":7494,"bbebbbdc":7495,"bbbcdbbbb":7496,"ebbcba":7497,"ebccbbee":7498,"ddeeebb":7499,"ebcbeef":7500,"befbbef":7501,"bbbebcbe":7502,"becbbfc":7503,"fecba":7504,"ebbcbbed":7505,"dcecebe":7506,"dbbbebbbb":7507,"fecefc":7508,"dcbdf":7509,"dcfdbe":7510,"fdefcc":7511,"dbefdc":7512,"ebcbefc":7513,"bcdbbebe":7514,"ebecbcbc":7515,"ddeebf":7516,"bcbbb</w>":7517,"fbcba":7518,"ebdcccc":7519,"fccebf":7520,"bcfac":7521,"dcbcbbbb":7522,"dcdebf":7523,"bdbebfc":7524,"bccbdbd":7525,"eccfebc":7526,"bdf</w>":7527,"bcceeebb":7528,"bccecec":7529,"dfdbbc":7530,"beecbcbc":7531,"eeebea":7532,"bbdffc":7533,"bbbcefc":7534,"ebebcebe":7535,"beeeea":7536,"eeeeeeef":7537,"dcbebcc":7538,"dbcbecc":7539,"edcfebb":7540,"bebcba":7541,"deebebd":7542,"fcccccc":7543,"dbbda":7544,"edcbccc":7545,"fddbec":7546,"defbf":7547,"ecbdbec":7548,"edbbbbbbbb":7549,"ecdefcc":7550,"ebdbbef":7551,"dbecdbe":7552,"ebffebb":7553,"eedceec":7554,"bbdfebe":7555,"efdecc":7556,"feeea":7557,"ecbcbbec":7558,"dcfbbd":7559,"bdcfbe":7560,"bbbfeec":7561,"dcbcbec":7562,"edebbed":7563,"defebe":7564,"dbbbbbbf":7565,"ecbcded":7566,"bbebebbebb":7567,"ecfbccc":7568,"effdf":7569,"dccccccc":7570,"feedbd":7571,"bebebccc":7572,"bebcbecc":7573,"deecdec":7574,"fbbbdcc":7575,"ecbbeecc":7576,"daba":7577,"fedded":7578,"bebcbbebb":7579,"bfbcdf":7580,"bfcbbcc":7581,"bebdbbee":7582,"dbbedbf":7583,"bdbcbbf":7584,"abfa":7585,"befbbed":7586,"bfcdbf":7587,"bdcbbdc":7588,"bedeba":7589,"bbbffbc":7590,"debeef":7591,"ebbfccc":7592,"bbebebeee":7593,"bffccc":7594,"ebbfbbee":7595,"dfcebe":7596,"ebfddc":7597,"bbefbec":7598,"ebbfdbc":7599,"ecdbbdd":7600,"eeccfbc":7601,"cccbbbe":7602,"ecfbbee":7603,"beccbbbe":7604,"bbdddf":7605,"ebffbe":7606,"dbbebbbd":7607,"feeeec":7608,"ebbbedbc":7609,"ebecbbbd":7610,"eeeeeeebb":7611,"bcecbcbc":7612,"bdecbbc":7613,"edceedd":7614,"befdebb":7615,"eccdebd":7616,"ddfbbc":7617,"dcecdf":7618,"ebeeebbbb":7619,"ebeecbf":7620,"ebdbcee":7621,"febea":7622,"decdbf":7623,"deedebb":7624,"ececdbc":7625,"ecbddf":7626,"ebbdddd":7627,"bcfebcc":7628,"bbfdbbc":7629,"ddeebe":7630,"ebcbba":7631,"fbfbec":7632,"dbddbf":7633,"edcecdc":7634,"ebebefc":7635,"bcedbbc":7636,"fceef":7637,"bdcbbebb":7638,"bcbcbbbd":7639,"ecbdeec":7640,"bbbbcdf":7641,"fefdf":7642,"dbbeddd":7643,"ebdecdc":7644,"bfeebbbb":7645,"bbdbdcc":7646,"bbffed":7647,"bbfebcc":7648,"beecdebb":7649,"debca":7650,"dbdbbdd":7651,"dbbbdebe":7652,"efcebbc":7653,"bbebcbec":7654,"dbefebb":7655,"ffbbef":7656,"bbeefbe":7657,"bfefcc":7658,"bbbcdbf":7659,"befbebd":7660,"ebbeac":7661,"eeeebbebb":7662,"eedbbebe":7663,"babda":7664,"edbedbd":7665,"beeebbbd":7666,"ecbdbbc":7667,"ebceef":7668,"dcfccc":7669,"bbecdebb":7670,"dbebbebe":7671,"feebcbc":7672,"dbdebbc":7673,"dbebbdc":7674,"ecceebf":7675,"feebbbf":7676,"dedbecc":7677,"bebcbbcc":7678,"dadf":7679,"bccbcbf":7680,"ebdfdd":7681,"dbedebe":7682,"efcbecc":7683,"debcbbbb":7684,"eeebbbebe":7685,"bbbcbebbbb":7686,"eeeefc":7687,"ddbcdd":7688,"bfbdef":7689,"eccbdcc":7690,"ecbcdcc":7691,"eceb</w>":7692,"ebffef":7693,"bcfdef":7694,"edecebe":7695,"ebecedc":7696,"bbfac":7697,"bcdbbef":7698,"ebeecebb":7699,"ecbcbbee":7700,"bcecbeec":7701,"bdeedbc":7702,"bbefdf":7703,"dbbcff":7704,"efecbf":7705,"bbccdcc":7706,"ecccdec":7707,"eeed</w>":7708,"cccbfc":7709,"efcba":7710,"edeca":7711,"ecbcdbd":7712,"bbbfdee":7713,"eebceebc":7714,"bedcbbc":7715,"febbfc":7716,"dcbcdf":7717,"bfbebbf":7718,"bbbbbebbbe":7719,"edefdc":7720,"bccfef":7721,"beeeeeebe":7722,"bcebbbbc":7723,"dcecbbc":7724,"bbdeef":7725,"eebeebcc":7726,"bbbfbef":7727,"eccbdbd":7728,"dbcdebe":7729,"bccbedd":7730,"eeeddf":7731,"dbebeed":7732,"bbfdef":7733,"edbeff":7734,"efecbe":7735,"bbdbbbcc":7736,"bbedbbee":7737,"fbcfbd":7738,"bbdd</w>":7739,"ebbcbbbbc":7740,"adfc":7741,"dbebced":7742,"bbbbbbebd":7743,"bbbfbdc":7744,"bbcbbcbbcbbc":7745,"becbeebc":7746,"bebebeebe":7747,"bdbcdbd":7748,"bbedbbbd":7749,"eecdbbd":7750,"bfbac":7751,"deeeebc":7752,"dceedbe":7753,"eebebba":7754,"babbec":7755,"bfbcccc":7756,"feefbc":7757,"bcbbcbbc":7758,"ebdbebbc":7759,"ebceced":7760,"ebecbfc":7761,"bcbcded":7762,"bebefcc":7763,"ebcebfc":7764,"bebdded":7765,"becdbbbb":7766,"bbdbeebe":7767,"debebdc":7768,"beaa":7769,"fbedbbc":7770,"dbdbeec":7771,"edbedbb":7772,"ebebcef":7773,"fecddc":7774,"bcbcbbcc":7775,"edbca":7776,"fbbbfcc":7777,"bceefbc":7778,"feebebc":7779,"ebbeebbebb":7780,"ebbdcbd":7781,"ebbceebd":7782,"feddcc":7783,"dcbdbe":7784,"eececdc":7785,"fedbbbb":7786,"bedcdec":7787,"ecbbac":7788,"bbcdbfc":7789,"bdeebbf":7790,"bfe</w>":7791,"ffbbebb":7792,"bbbcdbbc":7793,"ffbecc":7794,"ebfeebc":7795,"beceeed":7796,"bfbdbe":7797,"bcbbbbbbbe":7798,"bbefbbee":7799,"baedc":7800,"fbcdebb":7801,"efeeed":7802,"eeceeed":7803,"edccecc":7804,"bdfbebc":7805,"ecbddee":7806,"beeddbc":7807,"bdecccc":7808,"febbbbf":7809,"fecbbec":7810,"ffcccc":7811,"ebebeebc":7812,"ddeef":7813,"ebbcfbd":7814,"bbdecec":7815,"ecbeebcc":7816,"bbbbcbebc":7817,"dbbbbbbebb":7818,"eeececc":7819,"dfbced":7820,"bbdbcdc":7821,"dcfbbbb":7822,"dedbbcdbf":7823,"feeddc":7824,"babcbc":7825,"eceebbbe":7826,"eedbfcc":7827,"dbbebbbc":7828,"bebebebbbb":7829,"efbebbbb":7830,"bceebcbc":7831,"bebbedcc":7832,"eedcebc":7833,"beeebbec":7834,"dedfbc":7835,"ecfebcc":7836,"bbbbbeebe":7837,"bbeedbf":7838,"fedebc":7839,"bebfbbbe":7840,"bbebefc":7841,"bbbecbec":7842,"eebeac":7843,"fccbebc":7844,"eeeeecc":7845,"bbccfec":7846,"dfdebe":7847,"bbadd":7848,"bdfebbc":7849,"dbcdef":7850,"debbdec":7851,"bbdbbeec":7852,"bbdcbbbc":7853,"ecdbbbf":7854,"bbdcbbbe":7855,"bbeebebd":7856,"eeecdee":7857,"bddbbbbc":7858,"ab</w>":7859,"cccfbc":7860,"fbbcbbbb":7861,"ebbbedbb":7862,"bbdcccc":7863,"ecbffc":7864,"dfcff":7865,"eebebbbbc":7866,"bbefbbbe":7867,"effebc":7868,"eebdbdc":7869,"eadbd":7870,"fbdbbbe":7871,"ebeeea":7872,"eebdbbf":7873,"badcc":7874,"bcbdebc":7875,"bcbeeecc":7876,"bcbebbebc":7877,"eeecbbbe":7878,"bbbdedc":7879,"beebbbec":7880,"bceebeec":7881,"efecec":7882,"beebbebc":7883,"bbdbcf":7884,"edebbbbc":7885,"edbbebbc":7886,"dcbebbd":7887,"bebcefc":7888,"dbeebcc":7889,"fddeec":7890,"debbebbc":7891,"ebeedbd":7892,"bcecbbf":7893,"ebddedc":7894,"bcecff":7895,"ecfeccc":7896,"eeebbbbc":7897,"ebebded":7898,"fcbeebc":7899,"dbefbf":7900,"dcbfed":7901,"bbbbceec":7902,"bfeea":7903,"fbcbeec":7904,"adebe":7905,"bffeec":7906,"ddbcbf":7907,"eebddee":7908,"dabbbb":7909,"beedeec":7910,"dcdbbbc":7911,"bedcdee":7912,"bbecbebd":7913,"dcecbec":7914,"edcdebd":7915,"bbffef":7916,"badec":7917,"bdbcbdc":7918,"bdbcff":7919,"dbbcbebe":7920,"bbdddbc":7921,"dfffc":7922,"ecebbbbbb":7923,"dcbeeec":7924,"beeebbcc":7925,"bbebcbbbe":7926,"becceebc":7927,"eeee</w>":7928,"eadcc":7929,"ddcfbc":7930,"bbddbec":7931,"ebbfbfc":7932,"feebfc":7933,"ebdfebc":7934,"febbbbbe":7935,"dedebf":7936,"dbdbebd":7937,"ebbbcbbbc":7938,"bfeefc":7939,"beccdbc":7940,"ecbcbfc":7941,"bbddef":7942,"eceebbbc":7943,"feedbf":7944,"ebdfbbc":7945,"dbebcee":7946,"ebebebbee":7947,"bbbbcdee":7948,"befbbebe":7949,"fbdbebc":7950,"bcceedd":7951,"bcedbec":7952,"eeebebbee":7953,"eecceecc":7954,"bdbebbebb":7955,"bbecfec":7956,"bebfff":7957,"beeedcc":7958,"ebefebc":7959,"fbdfec":7960,"dcebccc":7961,"bbecedc":7962,"bbecbbcc":7963,"bedcecc":7964,"dbbbba":7965,"bfecbec":7966,"ebfeef":7967,"ecdbbed":7968,"bcfbbed":7969,"ebceebbc":7970,"bdbbefc":7971,"ebdbcdc":7972,"bfebbbf":7973,"fcceebc":7974,"bcbdeec":7975,"ececbdc":7976,"bcbcfbc":7977,"dcbceec":7978,"efeedc":7979,"efcefc":7980,"bbfcbec":7981,"ddbded":7982,"dceedf":7983,"bbfbcbf":7984,"bcbcebf":7985,"bbdbeef":7986,"efdccc":7987,"edccfc":7988,"ebebcebc":7989,"edbebbee":7990,"bebfbebe":7991,"babbcc":7992,"fccdcc":7993,"dadbe":7994,"bbebbdee":7995,"bbebbdbc":7996,"bbfca":7997,"bbeeddc":7998,"beedfc":7999,"bebbbbbebbbb":8000,"bcccdee":8001,"dbbddbd":8002,"ebbddcc":8003,"beedebc":8004,"bfcbebd":8005,"eccdbcc":8006,"edcdbbc":8007,"ebccdbd":8008,"bbdfbbbb":8009,"ecbeac":8010,"efbcfc":8011,"bbbdddc":8012,"ddbcbe":8013,"bfcdebb":8014,"decbbcc":8015,"edfebf":8016,"ffbeec":8017,"ebdebbcc":8018,"bfdebf":8019,"bffbbbe":8020,"ebebbeec":8021,"eeebbbeee":8022,"bccdeec":8023,"dedba":8024,"eecfef":8025,"acccc":8026,"bdfddc":8027,"efbdbf":8028,"edebbbbbb":8029,"dcbeebd":8030,"febbdf":8031,"ffbbed":8032,"bfcebec":8033,"bccdbec":8034,"bfbbccc":8035,"dbebbbbc":8036,"bbbdbbbf":8037,"ebcbebec":8038,"dbbebecc":8039,"abcee":8040,"ebeeeed":8041,"fcebfc":8042,"dbdfbd":8043,"ebccfec":8044,"bddb</w>":8045,"bccbcbe":8046,"fbeebec":8047,"ebbecbcc":8048,"dddedc":8049,"ebbbcccc":8050,"bfbcbbf":8051,"feedec":8052,"beccbebe":8053,"bbbbdef":8054,"bdeebbbe":8055,"ecbdedc":8056,"eebcbbbd":8057,"bbeebbef":8058,"bdeedee":8059,"bbecbeee":8060,"debcdec":8061,"bcbccccc":8062,"bcfdebb":8063,"dacea":8064,"bfbddd":8065,"bebcbeee":8066,"ecfdbf":8067,"cccccccccccc":8068,"ddc</w>":8069,"ebccdcc":8070,"edecbbd":8071,"ebfbcbd":8072,"bbccebbc":8073,"bcecbbd":8074,"bccbbbcc":8075,"ecbda":8076,"ebdfebe":8077,"febbccc":8078,"ecbdbbbb":8079,"eebdff":8080,"dcbcdee":8081,"bebebebbc":8082,"debebbf":8083,"bdfdbf":8084,"beebeef":8085,"fbbcbbc":8086,"ebbefbf":8087,"edbcdbc":8088,"ebebebec":8089,"bfcbecc":8090,"beebeeeee":8091,"ebccefc":8092,"ebceddc":8093,"ebbbebbbd":8094,"ecceebe":8095,"bbbfba":8096,"dabbc":8097,"bdeebdc":8098,"eefeecc":8099,"bebebbed":8100,"befbccc":8101,"eefac":8102,"abdbd":8103,"deddebb":8104,"bbbddcc":8105,"ecfba":8106,"ebcecdd":8107,"ecccbdc":8108,"bbbccccc":8109,"beeedee":8110,"effbcc":8111,"dedebbc":8112,"ebbeeccc":8113,"dbbbdef":8114,"bbaba":8115,"bcceebf":8116,"bbdbcbbc":8117,"bbddbdc":8118,"dabea":8119,"edbeebf":8120,"dbeeebd":8121,"ffdebb":8122,"edceeed":8123,"bbbcbebf":8124,"bbebeccc":8125,"ebcbded":8126,"bbecdcc":8127,"beeedbd":8128,"ebeb</w>":8129,"bede</w>":8130,"eeecbbf":8131,"ebccbebc":8132,"ecceddd":8133,"bbbdfee":8134,"eedd</w>":8135,"bbecbecc":8136,"bdbeba":8137,"ebeeebeee":8138,"ddfebe":8139,"decbedc":8140,"fecfee":8141,"ebfac":8142,"dfbebf":8143,"dbeeecc":8144,"ebfbbed":8145,"bbcfbbbb":8146,"ebddbcc":8147,"bbefccc":8148,"bceebef":8149,"ddecbe":8150,"bbbbcbbcc":8151,"bdffcc":8152,"fbdbbbc":8153,"edbbbfc":8154,"efcdbf":8155,"bdeceec":8156,"bbdbdbbbb":8157,"ebdcdee":8158,"bcbdccc":8159,"daccc":8160,"becbdbd":8161,"ebdbdcc":8162,"dbdbbed":8163,"decbbed":8164,"eceebbee":8165,"dbeca":8166,"dedbbee":8167,"bbbbebbebb":8168,"edecccc":8169,"eceeef":8170,"bbcbdcc":8171,"fbcbbbd":8172,"bbceedd":8173,"bcecbebc":8174,"dbceecc":8175,"bdbeebbc":8176,"bdeeeec":8177,"bbbcfcc":8178,"bdecfc":8179,"ecbc</w>":8180,"ebfebec":8181,"dcecfc":8182,"bbbbcbdc":8183,"bececec":8184,"bbdcdbd":8185,"eba</w>":8186,"bfbbebf":8187,"bfdbbbc":8188,"eccbeebb":8189,"bdbd</w>":8190,"deceecc":8191,"edbcdbe":8192,"bcceebe":8193,"bbbebcee":8194,"ffebec":8195,"ebcbcfc":8196,"bbebe</w>":8197,"bbcbefc":8198,"ffebcc":8199,"bbcdecc":8200,"bcbcbfc":8201,"febbeec":8202,"ebcfa":8203,"bbcbcef":8204,"ebebdbf":8205,"bebcbbed":8206,"bcbbebdc":8207,"bdfbbbd":8208,"bbcfbec":8209,"ebbecbbd":8210,"ebcdbb":8211,"beeebbbf":8212,"deeea":8213,"bdbcbebe":8214,"ebdcbbbb":8215,"becdbcc":8216,"edcdbec":8217,"eccbbebe":8218,"ffbcbd":8219,"bbeedebb":8220,"bbecba":8221,"efbfcc":8222,"bbdeccc":8223,"ebeeebbee":8224,"bbdbded":8225,"edecdf":8226,"dcecebc":8227,"bdcbedc":8228,"dceea":8229,"abeed":8230,"ececeec":8231,"bccbcdc":8232,"eeebbbbf":8233,"bbcbdbf":8234,"efcdebb":8235,"ebcecbf":8236,"ebbeeebf":8237,"bebbbebbbe":8238,"ebdedbd":8239,"fcbded":8240,"becfef":8241,"beceeee":8242,"ecceced":8243,"fceedd":8244,"ebdbcebb":8245,"bdceedc":8246,"ebdfef":8247,"ebbcbecc":8248,"bbdfebc":8249,"bdcdfc":8250,"bccdecc":8251,"bbbcbcbbbb":8252,"bfecdf":8253,"bdfba":8254,"bdebbbbbb":8255,"bbecfee":8256,"dbeecbc":8257,"bbdedbd":8258,"beeefbc":8259,"deddef":8260,"beeeeec":8261,"ebdeedd":8262,"dffebb":8263,"cccddc":8264,"ebcfecc":8265,"ebecbef":8266,"ebbeefee":8267,"eeefa":8268,"fcdbbd":8269,"decebcc":8270,"bdbedcc":8271,"bcbcdcc":8272,"edeedbc":8273,"edbcdee":8274,"ddbcebb":8275,"bfceebc":8276,"bbdcbbf":8277,"ebdeebe":8278,"fcbfcc":8279,"bebdbbbd":8280,"ebedbbbe":8281,"bfcbeed":8282,"becbebbbb":8283,"ebabbbb":8284,"fbedef":8285,"fbeecbc":8286,"dbffcc":8287,"fcfebc":8288,"ebfbcec":8289,"bbebbbbebe":8290,"bcbfbbbb":8291,"ebdeebf":8292,"bbdecbe":8293,"bbeebecc":8294,"bbbcbeed":8295,"fbbeba":8296,"fbceebc":8297,"ebbbb</w>":8298,"fbbedcc":8299,"eeecff":8300,"edbcbcc":8301,"deefec":8302,"bdfded":8303,"efcfed":8304,"ebbcfcc":8305,"ecfac":8306,"efedbd":8307,"becbeebe":8308,"eeeedbe":8309,"edcbbdc":8310,"eebdebe":8311,"bbfecbc":8312,"bcdcdd":8313,"dbbeddc":8314,"bebceecc":8315,"deeca":8316,"edbedec":8317,"bbbcbbdd":8318,"decbcec":8319,"ebbcdbf":8320,"ebffed":8321,"ecccdbc":8322,"bbbebeebe":8323,"ddcfec":8324,"bccdbcc":8325,"bfbdbbc":8326,"efcbbec":8327,"ebcceecc":8328,"dbbeded":8329,"bdcfbf":8330,"decebec":8331,"bfdedc":8332,"bcceef":8333,"ececa":8334,"efbfbeee":8335,"eccbbbbc":8336,"bbbebbdd":8337,"edcceec":8338,"bccbbfc":8339,"bcccdcc":8340,"decfed":8341,"eccda":8342,"bceeebf":8343,"debcdbe":8344,"effbbbb":8345,"ebbbeccc":8346,"ddeced":8347,"bfcfbd":8348,"deddbf":8349,"bebdbebd":8350,"efebfc":8351,"dcdefc":8352,"dbcbeed":8353,"bbcbbeec":8354,"edfbbbc":8355,"fbeac":8356,"bbbcbbbcc":8357,"bbcfebc":8358,"eccecbe":8359,"beecfec":8360,"bcbdff":8361,"ebcdbdc":8362,"eceeeec":8363,"ccccccccccc":8364,"ececdcc":8365,"fcbeef":8366,"bebedebb":8367,"bcbeea":8368,"bcccebe":8369,"bbcbeebc":8370,"bebf</w>":8371,"ddfa":8372,"befbecc":8373,"bcdcdee":8374,"ebcbeebc":8375,"ffcff":8376,"ebfbbbbc":8377,"bcecbbec":8378,"bdcceec":8379,"fef</w>":8380,"eebceecc":8381,"beecdcc":8382,"bcfdfc":8383,"fdda":8384,"ebccbbec":8385,"dceebec":8386,"bbbecbbbe":8387,"bbbbbedc":8388,"fdcfec":8389,"fceebf":8390,"dbddbbbb":8391,"bcccdf":8392,"dedbbbd":8393,"dcbdbbc":8394,"dbceeee":8395,"deecdee":8396,"befebec":8397,"eedcedc":8398,"dcbbbdc":8399,"febbdd":8400,"dcbcbcc":8401,"ebbbebbec":8402,"dbdbbebb":8403,"ecdbbebb":8404,"efbeebc":8405,"ebeebfc":8406,"bdbcbbbd":8407,"dcbbccc":8408,"decbeee":8409,"dbcdbbc":8410,"ebdcff":8411,"fdcdbe":8412,"bdbddbe":8413,"bbfeeee":8414,"ebebcdd":8415,"bfcdef":8416,"ebccebcc":8417,"ebbeeff":8418,"dbecebc":8419,"adbbbb":8420,"debebbbc":8421,"ecdcdd":8422,"dedfec":8423,"bbcbded":8424,"eddedcc":8425,"bddbbebb":8426,"bedc</w>":8427,"befeebc":8428,"dcbfdc":8429,"bdcbbdd":8430,"ebecebf":8431,"dbbdbbbd":8432,"efeea":8433,"bbabbbc":8434,"edcbcec":8435,"abbdd":8436,"bbfbcec":8437,"ebdeeed":8438,"bbedbfc":8439,"beddbec":8440,"ebbbbbbbbbe":8441,"bcbcbcbd":8442,"bbebdbbbb":8443,"ecdbbdc":8444,"deedef":8445,"bdbbebec":8446,"ebeebbebe":8447,"ebcbfcc":8448,"ecccdbe":8449,"eecbcbf":8450,"bfbbbdc":8451,"eceeebd":8452,"bcbcbeec":8453,"efceecc":8454,"efcdef":8455,"fecdfc":8456,"ffdbbc":8457,"dbdfcc":8458,"bebfccc":8459,"bdeebbbc":8460,"decdebc":8461,"bbbbfed":8462,"dbcbbbf":8463,"bdcdbbc":8464,"abced":8465,"bebcdcc":8466,"ebccebbc":8467,"efbdec":8468,"ebecbbcc":8469,"beccbbbc":8470,"dbbbbdbe":8471,"debddf":8472,"bccbbebc":8473,"eebdfbc":8474,"dbfbbee":8475,"ebfdef":8476,"dcbfbf":8477,"bbfbbdc":8478,"deceebc":8479,"bfbcbcc":8480,"dbbebbbf":8481,"eaebd":8482,"dceeecc":8483,"efdbdc":8484,"ebebddc":8485,"deeac":8486,"dcfbbf":8487,"bbebbba":8488,"eeebefee":8489,"ebccded":8490,"bdbeded":8491,"dffef":8492,"ddcbbbe":8493,"bbceebbc":8494,"eeebebbbe":8495,"eecbcee":8496,"bfbedf":8497,"ebbfbef":8498,"fffdd":8499,"affc":8500,"edcac":8501,"ebeebbbbbb":8502,"eecbbef":8503,"becbcdc":8504,"dbfbeec":8505,"fbedfc":8506,"fbdebf":8507,"bdbcecc":8508,"bbbcfbf":8509,"ebebcfc":8510,"fcbbbec":8511,"eebdbbd":8512,"eebebbed":8513,"bbcebfc":8514,"becbba":8515,"bbeebeebe":8516,"ebeeebbc":8517,"edceeee":8518,"bbecefc":8519,"befdef":8520,"dfcccc":8521,"bbecbbed":8522,"bbffdd":8523,"beeebeef":8524,"dbdbbcc":8525,"bfecfc":8526,"bdcbbbf":8527,"dbdfec":8528,"dbbbbbbbbc":8529,"ebbbcbcc":8530,"ebebebcc":8531,"eecdbdc":8532,"eecbcbe":8533,"eebcfec":8534,"bbcecebb":8535,"ecfea":8536,"eecedcc":8537,"dbfdcc":8538,"befbeef":8539,"bdcdeec":8540,"bebbcbbbe":8541,"beecba":8542,"dcdbbee":8543,"eecfa":8544,"bbebbbcbc":8545,"edbbdcc":8546,"eefdef":8547,"bdcbccc":8548,"dbfdec":8549,"dbebedc":8550,"fbcbbcc":8551,"bdcdebe":8552,"ecccff":8553,"efbcbec":8554,"ebdcbcc":8555,"eebeefc":8556,"fcbcef":8557,"bbefbebe":8558,"fdcbcc":8559,"eeecbbd":8560,"ebdb</w>":8561,"ecbedebb":8562,"dbcbbbbc":8563,"ecfbbbd":8564,"dcbca":8565,"ebfeebf":8566,"beccebbc":8567,"bbfdfc":8568,"ebfbbebe":8569,"eceedec":8570,"bdcdebc":8571,"eebeeecc":8572,"bbfdebe":8573,"bbedecc":8574,"ddcfcc":8575,"bdfbbec":8576,"eeccdee":8577,"fdcbbc":8578,"ebbbcbbd":8579,"fdcecc":8580,"bbbbeebbbb":8581,"ebeeebbbe":8582,"ebebbbbbbbb":8583,"eecbbfc":8584,"bebbcbec":8585,"fbdded":8586,"fbddcc":8587,"afbbc":8588,"efdbbf":8589,"dbbecef":8590,"beccded":8591,"ebebbecc":8592,"ebecfec":8593,"bbefbcc":8594,"bebebcbd":8595,"bbbedebe":8596,"befac":8597,"dbcea":8598,"eedbbfc":8599,"eefdebb":8600,"bebbbfcc":8601,"dceac":8602,"eeebbbbee":8603,"dfbcf":8604,"bbebbecc":8605,"eecbbebc":8606,"dbecbbbb":8607,"eecfebc":8608,"edeebdc":8609,"ebbdba":8610,"eeecdcc":8611,"bbbcddc":8612,"fadd":8613,"bbccbccc":8614,"dfedcc":8615,"dbbecebe":8616,"efbdebb":8617,"bbcecbf":8618,"bcbdbcc":8619,"bbbbcbbbf":8620,"edebbdc":8621,"deebced":8622,"cccbebe":8623,"bedcff":8624,"eedda":8625,"bada":8626,"fecebbc":8627,"feffc":8628,"beccfbc":8629,"bedebecc":8630,"efbcebe":8631,"bedcbcc":8632,"debcff":8633,"ebdbbebc":8634,"beebbbeee":8635,"befebcc":8636,"beecbebd":8637,"eeeebbd":8638,"eddddd":8639,"bcbcfee":8640,"eecbeebe":8641,"eebdbbbe":8642,"dbccccc":8643,"eeeeebc":8644,"dbebebf":8645,"efbcdd":8646,"beceeebb":8647,"dfbcbf":8648,"fcfbec":8649,"efbbebd":8650,"dbbebbbbc":8651,"bcfcccc":8652,"bebbbbbbf":8653,"ecbeefc":8654,"bebeeebc":8655,"fbcdbf":8656,"ecdbfcc":8657,"ecec</w>":8658,"fcbeebe":8659,"debcecc":8660,"ebbcebcc":8661,"eccceccc":8662,"bcccff":8663,"fbfbbbc":8664,"dbebcebb":8665,"bcbbeccc":8666,"ebebdebb":8667,"eebeebec":8668,"bfcbbbf":8669,"feddbd":8670,"bdecdec":8671,"ebfecbc":8672,"beecbef":8673,"deecccc":8674,"edcfdd":8675,"bdeebbd":8676,"bcbedef":8677,"abbebc":8678,"edeceec":8679,"eefbbed":8680,"bfbcff":8681,"badbf":8682,"deedbbc":8683,"bcdbbfc":8684,"feebbcc":8685,"bdbdbbd":8686,"bbbddbf":8687,"beedbcc":8688,"bbbbcebd":8689,"cccbbee":8690,"debcbbf":8691,"bceeddc":8692,"bbbcfbe":8693,"ebebcbec":8694,"ececded":8695,"ebbbcbebe":8696,"eeeebebf":8697,"ebbcbbebe":8698,"debbebf":8699,"eecceebc":8700,"ebeeebebe":8701,"eeccbbf":8702,"bdbdbbc":8703,"bfcbbed":8704,"bdfbbcc":8705,"edf</w>":8706,"dfecbd":8707,"bcbebbebe":8708,"efbcebc":8709,"bfcebcc":8710,"bcbeac":8711,"ebdcdbc":8712,"ebebebbf":8713,"efcfcc":8714,"edeeebd":8715,"decfbd":8716,"edbb</w>":8717,"bbbfdbd":8718,"fbbebbcc":8719,"eebcbccc":8720,"edeeeec":8721,"bdbbfcc":8722,"ebebebbd":8723,"fbcbebd":8724,"dde</w>":8725,"bfbcbbd":8726,"bbebd</w>":8727,"debeecc":8728,"dccbcbc":8729,"bfecebc":8730,"bbbebcbbbb":8731,"dbecff":8732,"ecee</w>":8733,"bfedbc":8734,"ddfebc":8735,"bbebbbbcc":8736,"dbecfc":8737,"bbdbefc":8738,"dfeebd":8739,"ebbdcbc":8740,"fecdbf":8741,"ffcfc":8742,"bbeebebbbb":8743,"bdceeed":8744,"bbecebec":8745,"ecbcbeec":8746,"edbbba":8747,"bbeebebf":8748,"bbbdbeec":8749,"bcbdbbf":8750,"eeecded":8751,"bbceced":8752,"dbbdbec":8753,"fbfbbbe":8754,"beebbebf":8755,"bbfcbbf":8756,"bebcebec":8757,"bedcbbbb":8758,"dfcebc":8759,"bcee</w>":8760,"debcbcc":8761,"dbefed":8762,"edcda":8763,"fddff":8764,"dccfbd":8765,"fbcfbe":8766,"bcbddbc":8767,"aeebf":8768,"debcded":8769,"eadec":8770,"efcbebd":8771,"aeeec":8772,"ddbbebc":8773,"bbedbef":8774,"bcbedebe":8775,"dcdbfc":8776,"ebbbbebec":8777,"edfdec":8778,"feebbef":8779,"edeebbbe":8780,"edcecec":8781,"dfbbdd":8782,"edcfbe":8783,"bcbedbbc":8784,"dcbac":8785,"bdeebbee":8786,"bddac":8787,"ebdbbfc":8788,"ecbeeccc":8789,"fcdbdc":8790,"bbdcecc":8791,"beccbfc":8792,"ddcebf":8793,"fcbcfc":8794,"bbccded":8795,"fedbbf":8796,"edcbcee":8797,"ebedccc":8798,"bbbbbced":8799,"bccbdcc":8800,"bbebbfbc":8801,"fccbef":8802,"dbfbef":8803,"edfdcc":8804,"ebdcbdc":8805,"ebbbedee":8806,"eeeebbef":8807,"dcdeecc":8808,"bbdfa":8809,"ebcbcebe":8810,"bdecdbe":8811,"eedbbef":8812,"dbecdec":8813,"edebdcc":8814,"efceebc":8815,"deefbd":8816,"bbdbebec":8817,"bebceebd":8818,"effbec":8819,"bdbdbbbd":8820,"bbdbdbf":8821,"ebfbbef":8822,"ebbeca":8823,"aeebd":8824,"eecbeef":8825,"bffdbc":8826,"bbbeeebd":8827,"bebbbbbbbd":8828,"efcbbee":8829,"eeeeeebf":8830,"dbcbccc":8831,"bffbebe":8832,"dbbecbec":8833,"bcecbef":8834,"bbcedbd":8835,"dbbebbed":8836,"bbbebba":8837,"bbfeebd":8838,"ddbbfc":8839,"bbecbeebb":8840,"bebdebbc":8841,"fbceecc":8842,"eecfecc":8843,"dbcecbc":8844,"decdecc":8845,"ebcecebb":8846,"bccbbbec":8847,"dbbdcbd":8848,"efbddc":8849,"ffbbdc":8850,"dbddebe":8851,"ecfedcc":8852,"beecebbc":8853,"dbcebcc":8854,"dfbbef":8855,"cccebf":8856,"eeeebbbf":8857,"dbbcbdc":8858,"eaac":8859,"beeacc":8860,"feebeef":8861,"bdbbea":8862,"bcdebfc":8863,"bbbbbbbbbbbbbbc":8864,"ddeddc":8865,"bbbcbbebc":8866,"dccbccc":8867,"eedbbbec":8868,"fecdebb":8869,"cccbef":8870,"bbbcdef":8871,"ddbeef":8872,"bebbbbbebe":8873,"beecfbc":8874,"eeddfc":8875,"bbbcbbef":8876,"baeba":8877,"dbceeec":8878,"bebcebcc":8879,"beecbbee":8880,"fffebb":8881,"ebbeceec":8882,"bcecbdc":8883,"eeeeeeeeeeeeeeee":8884,"fccbbbe":8885,"fbbcfc":8886,"ecdcfc":8887,"aeeebb":8888,"beeebfc":8889,"eefcccc":8890,"bbbcbbbec":8891,"dcceedc":8892,"bcbcedc":8893,"dfbdbd":8894,"bceeded":8895,"bbbbbebec":8896,"dbbbbbec":8897,"edbcbbbe":8898,"beecbedc":8899,"bceedbf":8900,"eedbba":8901,"bbcbbebd":8902,"bffebf":8903,"dceebcc":8904,"dbcbbdc":8905,"eebcbef":8906,"bbcdbbbe":8907,"dfdebc":8908,"dbebdbd":8909,"ebdecec":8910,"bfbebbbc":8911,"bbddeec":8912,"fccebbc":8913,"acdbf":8914,"ebbecdbe":8915,"eafbc":8916,"bbfbbfc":8917,"eeecbebe":8918,"bbebbbebd":8919,"bbebebebc":8920,"beedef":8921,"bccbcbbc":8922,"bbddebc":8923,"dfbedc":8924,"bbdbddc":8925,"ebbfdee":8926,"feeedc":8927,"bbcbcebe":8928,"ebbecdf":8929,"bdbedebb":8930,"afebe":8931,"bebbdbbbb":8932,"feebbbd":8933,"bfeddd":8934,"bccecbd":8935,"eecfdd":8936,"aeccc":8937,"bcbacc":8938,"febbbec":8939,"ecbd</w>":8940,"ffbebf":8941,"bcfdbbc":8942,"feebbebe":8943,"debcebe":8944,"ebdcdec":8945,"edeedee":8946,"eecbdcc":8947,"bbbfecc":8948,"dbddbbc":8949,"efcdfc":8950,"bbedfbc":8951,"fbdbef":8952,"bbdfbec":8953,"bfcbeee":8954,"fbfebe":8955,"baded":8956,"fccbecc":8957,"bbddfc":8958,"dcceebd":8959,"efebbcc":8960,"dfbdcc":8961,"bccbcebb":8962,"ecdddd":8963,"bccedcc":8964,"ebdbcbe":8965,"becbbbcc":8966,"bceebbebb":8967,"bebcbedc":8968,"ebcbcebc":8969,"efbbecc":8970,"bccfbbc":8971,"eddebdc":8972,"eebbeba":8973,"dbedbec":8974,"eecdbbbb":8975,"fbcbecc":8976,"eedefcc":8977,"dbdeebc":8978,"ebcbbebd":8979,"bcbcebbc":8980,"ebbeebbec":8981,"bbbfbbec":8982,"bbdcbbdc":8983,"bbcbcdd":8984,"beebbfc":8985,"ebcbbeec":8986,"ecbcbccc":8987,"bceeba":8988,"eedbbebc":8989,"ecbebbed":8990,"bddbccc":8991,"dcedbc":8992,"bfdced":8993,"ebdbebbbb":8994,"bccdbbbb":8995,"debedbc":8996,"bfeded":8997,"bcbdbbbe":8998,"bcccedc":8999,"eeccfec":9000,"ddbcf":9001,"feeebbc":9002,"eeeedbc":9003,"bdeedec":9004,"bfebecc":9005,"bbbcfed":9006,"ffbcec":9007,"bebcfcc":9008,"bbfbebbc":9009,"bddebdc":9010,"becbcf":9011,"ebcebbcc":9012,"ebcfbec":9013,"bebdfbc":9014,"bbbcebcc":9015,"bcbdbebe":9016,"bbbabbbb":9017,"dfcbbbb":9018,"beeebbef":9019,"bebcbbbf":9020,"bdfea":9021,"edfdbd":9022,"bbccefc":9023,"feebbebb":9024,"ecceeebb":9025,"bedcebe":9026,"feebeebe":9027,"bebcfed":9028,"ddcbebe":9029,"beebbbbebb":9030,"bbdbdbc":9031,"bbbceebd":9032,"bbbcea":9033,"ebcdccc":9034,"eccefcc":9035,"beeebebf":9036,"fceeebb":9037,"eccdccc":9038,"ffecbc":9039,"febebebe":9040,"bbdeedd":9041,"eccfef":9042,"bfcbbebb":9043,"dccebbc":9044,"dbbcbbbd":9045,"eecbbbec":9046,"cccfec":9047,"abcebb":9048,"edfbfc":9049,"bcbddbd":9050,"bbebedd":9051,"deccbec":9052,"bdcac":9053,"dbbbac":9054,"ebbdded":9055,"bbecbeed":9056,"dccbeee":9057,"ebdbbbec":9058,"fdcded":9059,"bfeeebc":9060,"bbeceebc":9061,"eccbbfc":9062,"ecbddbe":9063,"dfbbbbc":9064,"bbfdbbbb":9065,"bcecdbd":9066,"fcdccc":9067,"eecfbbc":9068,"ecccded":9069,"eedcef":9070,"bdcdbec":9071,"ebbbcdee":9072,"ebfbeebe":9073,"eedc</w>":9074,"bdbebbed":9075,"efcbbbd":9076,"bcbfdd":9077,"ecbbeccc":9078,"eeebebbbb":9079,"edfdbb":9080,"dcecdec":9081,"adbec":9082,"deecded":9083,"bceddec":9084,"bebecbbbb":9085,"fcbbbcc":9086,"dfbeed":9087,"debbded":9088,"deecbbc":9089,"bfcfed":9090,"ebbddbd":9091,"dffbbc":9092,"dbbbda":9093,"ecbeeecc":9094,"bbdeced":9095,"bdbc</w>":9096,"eebcfcc":9097,"bdeddd":9098,"dbbedbbc":9099,"bbebebbebe":9100,"bceebbcc":9101,"bcedccc":9102,"ddcbbbd":9103,"bbdcdec":9104,"edeedcc":9105,"ebeebbcc":9106,"bbffbbc":9107,"bcbcba":9108,"bbbcdebe":9109,"eccbbef":9110,"acdec":9111,"bdeb</w>":9112,"efbdbc":9113,"dbedebc":9114,"becdbbd":9115,"bbecbedc":9116,"dfebdc":9117,"bffbdc":9118,"dbebcbe":9119,"ebfdbbc":9120,"ebbbeedc":9121,"ebbbcbbee":9122,"ebbfdbb":9123,"ebefbcc":9124,"eeccdcc":9125,"ffdfc":9126,"bbdddee":9127,"edebbebe":9128,"dbfbebc":9129,"ffda":9130,"fecbedc":9131,"dcdfcc":9132,"fcfa":9133,"febbbebe":9134,"feebebf":9135,"bdbdbdc":9136,"fccdbd":9137,"bbebc</w>":9138,"edebbee":9139,"ebbbcebd":9140,"dfbeebb":9141,"fbcbbbf":9142,"bbedbeec":9143,"bcecbbbe":9144,"bfeebcc":9145,"eccfbbc":9146,"fcbcbbc":9147,"ebffebe":9148,"dedceec":9149,"bcbfbbc":9150,"bbfbcebb":9151,"dcbcbbd":9152,"dbbbbdbd":9153,"ebcbedbe":9154,"ddbebbc":9155,"dbcfdc":9156,"bbccbeee":9157,"eefebec":9158,"dbbecbbbb":9159,"dccbbbd":9160,"bbeebba":9161,"bdecbbbb":9162,"fcecbf":9163,"becbeef":9164,"efeced":9165,"eebcbebd":9166,"fedddc":9167,"bcfbbbbc":9168,"beccefc":9169,"eeedbbc":9170,"bdcebdc":9171,"baebbc":9172,"debbdebb":9173,"bfbeecc":9174,"dcfdee":9175,"bbbebebbbe":9176,"eefebcc":9177,"bbbcbcebb":9178,"dbbdcdc":9179,"acdbc":9180,"ebbbbbbbbbbbbbb":9181,"bcdbba":9182,"bccbebbc":9183,"fcdbbbb":9184,"bcebac":9185,"bfbeff":9186,"befecbc":9187,"bcccdbe":9188,"ffbebd":9189,"dcbedee":9190,"ddbba":9191,"eebbcccc":9192,"eeccbbd":9193,"debcebd":9194,"bbeeded":9195,"eccbcbf":9196,"becbefc":9197,"bfcbeebb":9198,"dfcdec":9199,"eada":9200,"fbcebec":9201,"befbcec":9202,"eebddec":9203,"bbedebbc":9204,"edecdbe":9205,"dcebbebb":9206,"bbbeecbc":9207,"ebfbeef":9208,"eedcebd":9209,"fbdefc":9210,"fcbcdd":9211,"bbbbcdbd":9212,"bebeeeebb":9213,"becbcbbc":9214,"fecbbee":9215,"fcbba":9216,"edbbcdbf":9217,"fdf</w>":9218,"eeecebd":9219,"ffffc":9220,"dbccdd":9221,"feebeebb":9222,"fedbfc":9223,"deeecbc":9224,"debebbee":9225,"dbebbdd":9226,"debebbd":9227,"bebfdd":9228,"fccfdc":9229,"befbcbd":9230,"bbebeebc":9231,"bfc</w>":9232,"deccef":9233,"ebbdcec":9234,"adebc":9235,"ebbdcbf":9236,"dfcdbc":9237,"feebbec":9238,"fbecccc":9239,"ebfeecc":9240,"bebfbcc":9241,"febbebc":9242,"edcfebc":9243,"eecbcebb":9244,"abeef":9245,"deecef":9246,"eebfebe":9247,"dbbdef":9248,"deebeed":9249,"cccbbcc":9250,"dccbecc":9251,"dbebebbc":9252,"bbbbcebbc":9253,"bddddbd":9254,"bdcffc":9255,"fceced":9256,"abcf":9257,"dbbecebc":9258,"dfceec":9259,"bbddbbbe":9260,"fecebf":9261,"dcfbdc":9262,"eaeeee":9263,"edcfbf":9264,"bbdcbbbd":9265,"ebcfebd":9266,"bdcecbc":9267,"bbbcbebbc":9268,"dddcdd":9269,"eebfbbbb":9270,"bfbeeec":9271,"bbdbcdd":9272,"dbbbcbbbb":9273,"edcedbd":9274,"dbbddcc":9275,"bbdcbebe":9276,"bdbddf":9277,"bbebbdbd":9278,"bbbfebbc":9279,"aebdc":9280,"bbeebbebc":9281,"efcddc":9282,"dbbbfbd":9283,"fdcebe":9284,"bcdbbbec":9285,"bbffebe":9286,"befbbbbc":9287,"ebcbcef":9288,"becfebc":9289,"bbbcbcbbc":9290,"dcbfbd":9291,"eccecbf":9292,"bbfbba":9293,"ebbeebcc":9294,"eceefcc":9295,"edefbf":9296,"ecbdbcc":9297,"befdbbc":9298,"bbbeac":9299,"bedcebd":9300,"fbedebc":9301,"bcecebd":9302,"bbfcef":9303,"ecbddbc":9304,"ecdcdcc":9305,"edfbebe":9306,"bbfda":9307,"dbbefcc":9308,"bbdbdebb":9309,"edcbced":9310,"eebeeccc":9311,"bebeebcc":9312,"dbddef":9313,"eebffc":9314,"ebeeced":9315,"ebcbdbf":9316,"bcbeebcc":9317,"ffeccc":9318,"ddbeebe":9319,"ebcbcbbbb":9320,"ebedbbf":9321,"deebeebb":9322,"bbbebcbf":9323,"bebfdf":9324,"bebbbbbbee":9325,"debbbbebb":9326,"bdcfebb":9327,"fbfebf":9328,"ebbdbbcc":9329,"dbbdced":9330,"bbbebeed":9331,"bfecebe":9332,"fccfee":9333,"eeefef":9334,"bbdeebbc":9335,"befcdf":9336,"becfdd":9337,"ddfecc":9338,"bebdbfc":9339,"dbecdbc":9340,"dbecbcc":9341,"bdceeee":9342,"bbfbeed":9343,"efcbedc":9344,"ebecbecc":9345,"bbfcdbe":9346,"bdecbcc":9347,"bbedebf":9348,"edbebfc":9349,"dbffbd":9350,"eceefbc":9351,"bcecbbbc":9352,"bbbdbcbd":9353,"ecbebbbf":9354,"dccbbec":9355,"decbcbd":9356,"bdbe</w>":9357,"ebbcddc":9358,"bbeefebb":9359,"efcbbcc":9360,"eebcebcc":9361,"abedc":9362,"bfebbbbbb":9363,"edebeebb":9364,"eebacc":9365,"debbbbec":9366,"bebeded":9367,"bbfbbbec":9368,"ebcdbbbe":9369,"dcbeedc":9370,"eabbbd":9371,"ebbdcdd":9372,"bcbebbdc":9373,"bceebbbd":9374,"ebbbedbd":9375,"edbcedc":9376,"bafcc":9377,"bfbceec":9378,"fcbeecc":9379,"bbeeeecc":9380,"ebcbdbc":9381,"fecbebd":9382,"bdeeeecc":9383,"bfceecc":9384,"bbbbeeec":9385,"ebdfa":9386,"ecdebfc":9387,"bcccbcbc":9388,"ebbceecc":9389,"bebcecbc":9390,"ebbdefc":9391,"bedda":9392,"ecfcccc":9393,"bdcbdbd":9394,"eebedbf":9395,"daef":9396,"ddeddd":9397,"eefdbbc":9398,"ecddecc":9399,"dbcfbf":9400,"eceebbcc":9401,"eefbbdc":9402,"ebefbec":9403,"ffbbebe":9404,"fcedcc":9405,"deebbbf":9406,"dbdb</w>":9407,"ecbdef":9408,"bfbebbee":9409,"beeeedc":9410,"bfdbbee":9411,"beecedc":9412,"deecdbe":9413,"dccbbcc":9414,"edbbbbcc":9415,"fecfcc":9416,"fdebecc":9417,"eedcbcc":9418,"eedcdbe":9419,"ebbbbdbbbb":9420,"ddbcef":9421,"ebdbeebe":9422,"feffee":9423,"fcfebe":9424,"bcbbbbbbbbc":9425,"ddcbbbc":9426,"debbfbc":9427,"beccebf":9428,"bfdbfc":9429,"beecbbbd":9430,"bbcfa":9431,"dcbebbf":9432,"eccbcf":9433,"bedbbbbbbbb":9434,"ebdbcbf":9435,"bbdbeebc":9436,"beddeec":9437,"ebebbebf":9438,"deedbec":9439,"bddeccc":9440,"eeeedf":9441,"ebbfdbd":9442,"bbbedebc":9443,"bbbebbfc":9444,"eebbcbbbb":9445,"befbeebe":9446,"ebcbebcc":9447,"dedefc":9448,"ebcbddc":9449,"bbfbebbbb":9450,"bfacc":9451,"deeebcc":9452,"bbdecebb":9453,"dbcfbe":9454,"bbfbbebc":9455,"bedcdbe":9456,"dbdefc":9457,"ecfebec":9458,"bbbcecbc":9459,"deffbc":9460,"bbfbcf":9461,"eceebcbc":9462,"eadbf":9463,"bcec</w>":9464,"ebbbbdcc":9465,"dcbebbbe":9466,"bebefbd":9467,"bceebecc":9468,"bbcdbdc":9469,"bbeefcc":9470,"dbdbcbd":9471,"fddccc":9472,"bbddbbdd":9473,"dbcbcec":9474,"bcdbbebc":9475,"bbdebfc":9476,"bfcddc":9477,"eeebebeebe":9478,"abcbe":9479,"becbdcc":9480,"bccfebe":9481,"bbcbcfc":9482,"ebcfeec":9483,"debeebe":9484,"ebecba":9485,"bfcfbf":9486,"eebebbdc":9487,"bfbedbe":9488,"fddfc":9489,"fdcbdc":9490,"bceebbed":9491,"bbcbfcc":9492,"dbecebe":9493,"bccbcf":9494,"bfcfbe":9495,"bbeefbd":9496,"feceecc":9497,"dbbebbee":9498,"eabbec":9499,"bbbbcff":9500,"ebbcbeebb":9501,"dedbcbc":9502,"ecdbbef":9503,"eefda":9504,"eeeeeebe":9505,"eebddbd":9506,"beeceecc":9507,"bbfeebf":9508,"eebcbbcc":9509,"acfa":9510,"ecdbbebe":9511,"eeecdbd":9512,"dececbc":9513,"bccecbe":9514,"bbbcbcec":9515,"feefbe":9516,"efcdebc":9517,"bebcfbd":9518,"eccfebe":9519,"bbcbbbbbbc":9520,"bebebbdc":9521,"bfeac":9522,"febbdbe":9523,"bfbebdc":9524,"efbebcc":9525,"fbbbbbbbe":9526,"ebbfebbc":9527,"ebeeedd":9528,"bfd</w>":9529,"eecbfcc":9530,"edccedc":9531,"ebccbef":9532,"bcebbbec":9533,"bddd</w>":9534,"bcceced":9535,"eebbedcc":9536,"eeebeebf":9537,"bbcdedc":9538,"ebdbcf":9539,"fbfdbe":9540,"bebeddc":9541,"eebcbecc":9542,"eeaa":9543,"bebdebf":9544,"dcefdc":9545,"beecbbcc":9546,"bccda":9547,"dcdebbc":9548,"dbbdded":9549,"bbeeefc":9550,"ebdeeebb":9551,"bbebcccc":9552,"eeeeeec":9553,"ecccbbbb":9554,"bbdbebbd":9555,"edcbbebb":9556,"eeecdbbc":9557,"bbbedef":9558,"bbebcef":9559,"ecdcebc":9560,"debddbe":9561,"eccbcbe":9562,"dccdef":9563,"edfbef":9564,"beedded":9565,"bedddf":9566,"acbdc":9567,"ddbfcc":9568,"bbfbced":9569,"beebb</w>":9570,"bbcebbcc":9571,"bbbebced":9572,"dcbbedc":9573,"bebcbbbbc":9574,"bbbfbbcc":9575,"ebbbceec":9576,"bbbcfebb":9577,"ddecbf":9578,"ecececec":9579,"eccbddc":9580,"bbbbda":9581,"ddcfee":9582,"eccbcdd":9583,"bcbfbec":9584,"bbbbeebe":9585,"eddbccc":9586,"bbedbbebb":9587,"bfbeebd":9588,"bdeedcc":9589,"edccebc":9590,"eedbbbcc":9591,"dcbeccc":9592,"bcccdbc":9593,"abebbc":9594,"edbcfbc":9595,"eebdbebe":9596,"bebcbcbd":9597,"bfdcdc":9598,"bbbbdbbbe":9599,"bbededc":9600,"eebcefc":9601,"eebcdebb":9602,"eceedbf":9603,"fbdebbc":9604,"bbecbbbbc":9605,"bccbeef":9606,"bbbdb</w>":9607,"eedcdec":9608,"fcfbcc":9609,"ebbeebef":9610,"efeebbc":9611,"bdbebecc":9612,"ecbbebdc":9613,"fdcdbc":9614,"eecbded":9615,"badebb":9616,"ecbcebf":9617,"beeeeeebb":9618,"bbbeebbebb":9619,"bcdbfcc":9620,"bfbbedc":9621,"bbcbea":9622,"beebbccc":9623,"fcbbecc":9624,"bbeeebcc":9625,"bbcdbbf":9626,"eeccfcc":9627,"bbbfdec":9628,"becebbcc":9629,"eeecfec":9630,"eecdccc":9631,"bdbcebf":9632,"bdcbbbbc":9633,"bbfbeef":9634,"eecbefc":9635,"bbbcbdbd":9636,"ecbedbbc":9637,"bebdbef":9638,"bcdd</w>":9639,"eeecbecc":9640,"edeebbf":9641,"bbcecdc":9642,"bccb</w>":9643,"fdcebd":9644,"ddcefc":9645,"bebfebe":9646,"bbbebdbd":9647,"bebebbef":9648,"bbddebd":9649,"dbddbbd":9650,"abeebe":9651,"bbbeeecc":9652,"ecbddec":9653,"bebddebb":9654,"acecc":9655,"edcfecc":9656,"febeef":9657,"ebccebec":9658,"bceebccc":9659,"bbebbbfc":9660,"bcbcbbbbc":9661,"bebbbbbbbbc":9662,"bdcbeebb":9663,"bbcbbecc":9664,"beeefcc":9665,"eebbbdcc":9666,"fbdfbd":9667,"ebbececc":9668,"debeebd":9669,"beeebba":9670,"beecfee":9671,"eeedbec":9672,"bbfcdee":9673,"dbcbedc":9674,"ecdb</w>":9675,"bbbbbbbbbbd":9676,"bcbdbcbd":9677,"eaedc":9678,"adea":9679,"eaddc":9680,"ebdcedbbec":9681,"bebebcebb":9682,"dfcbbf":9683,"bebefbe":9684,"bfbdbbbb":9685,"cccbebc":9686,"ebedbdc":9687,"bebedbbc":9688,"bebeebec":9689,"beeedec":9690,"ddbbbec":9691,"bfeebbbe":9692,"bbebebbd":9693,"ecbcbef":9694,"bdbefcc":9695,"defdec":9696,"bbeddebb":9697,"bcccebd":9698,"bbcbdbc":9699,"eceeeecc":9700,"dfbcbe":9701,"bbbbeecc":9702,"eabfc":9703,"efbebec":9704,"bbbbeebf":9705,"edbcbbf":9706,"becbded":9707,"bebebcec":9708,"bdfdebb":9709,"dbfbcbc":9710,"bdbbbecc":9711,"dbbbbbcc":9712,"bbbddbbc":9713,"feefbf":9714,"bdeca":9715,"fbcebcc":9716,"dccbeec":9717,"bbefebc":9718,"dbecebd":9719,"bedcded":9720,"bbebedbe":9721,"dcebbed":9722,"defdbd":9723,"bfddcc":9724,"dabda":9725,"bebfbbbc":9726,"ebfbbdc":9727,"fedecc":9728,"dbcbbdd":9729,"ddcbfc":9730,"efecf":9731,"fccbbbc":9732,"bfdebbc":9733,"eeccded":9734,"dcccdd":9735,"bddbbed":9736,"bbbdfbd":9737,"acac":9738,"bbbbcccc":9739,"bcdbbbcc":9740,"baca":9741,"ebbbeebbc":9742,"bcccbdc":9743,"edbeebbc":9744,"edcdbcc":9745,"bcbcbbebb":9746,"eebfff":9747,"edbcdec":9748,"ebbacc":9749,"dbbecfc":9750,"ebcefcc":9751,"eecbcf":9752,"bdeedbd":9753,"febbebf":9754,"bcbbbdcc":9755,"befdfc":9756,"bdbddee":9757,"eecbeebc":9758,"bececdc":9759,"fbedebe":9760,"eebdbebc":9761,"ebeecbbc":9762,"becebfc":9763,"bcbebbbec":9764,"bbbebedc":9765,"eecbcbbc":9766,"ddfbec":9767,"bebfbbee":9768,"eebdebbc":9769,"bafbd":9770,"fcbdbf":9771,"bebefec":9772,"ecbfccc":9773,"bbbccbbbc":9774,"eeccebbc":9775,"eabcec":9776,"febbdbc":9777,"dddbbbe":9778,"ebcccccc":9779,"bbbeeebbbb":9780,"bdbda":9781,"dcbbbbbbbb":9782,"fccfbd":9783,"bbecfbd":9784,"bcbdbbd":9785,"dbfdbf":9786,"dadee":9787,"bdbcdec":9788,"ffcef":9789,"eebedbbc":9790,"ddcfed":9791,"ecbdbdc":9792,"fbcbeee":9793,"dcfdbc":9794,"deccecc":9795,"bbbfbcbc":9796,"eebcecbc":9797,"bcbfa":9798,"ebfdfc":9799,"bcbfdf":9800,"debeedc":9801,"eceeff":9802,"edfbbee":9803,"fdcedc":9804,"eede</w>":9805,"edeebbbc":9806,"deecdbc":9807,"bbbccbcc":9808,"ecbeebec":9809,"dedbbed":9810,"bbccbbbbc":9811,"edbdfc":9812,"bfeca":9813,"ebdbddd":9814,"bffbbbc":9815,"bebdbbec":9816,"babbbbc":9817,"fcceedc":9818,"ffcbec":9819,"ddcbbee":9820,"dccdbf":9821,"bcbdbdc":9822,"ecbcebbc":9823,"bbbbbcf":9824,"bbbddbbd":9825,"ddccccc":9826,"ecfbbbf":9827,"bbbefbbbb":9828,"bbdcedc":9829,"bbddccc":9830,"daebe":9831,"ecdcedc":9832,"abbba":9833,"bdeebebc":9834,"faccc":9835,"edbcbbd":9836,"bfccccc":9837,"beceebf":9838,"ebdbebec":9839,"bdbedbf":9840,"dbebbef":9841,"dceeccc":9842,"bcbdbbbc":9843,"eeebebef":9844,"bebdbeec":9845,"ebfeccc":9846,"bbccebec":9847,"ecbfecc":9848,"ebcbddd":9849,"ebbbeba":9850,"ebcdbbf":9851,"dbbbfdc":9852,"febbbcc":9853,"dceebbbb":9854,"dbcceec":9855,"aeef":9856,"eeebbebf":9857,"bdcbcec":9858,"ebbbcdf":9859,"fccbcbc":9860,"dbedfc":9861,"efe</w>":9862,"ebddbdc":9863,"dbbdfc":9864,"bcfeccc":9865,"dcceccc":9866,"ebebdec":9867,"eeefbeee":9868,"dbdbecc":9869,"febeff":9870,"ecbfdd":9871,"bfcbedc":9872,"dccfdc":9873,"bbcbebbbe":9874,"deeebec":9875,"bcbbebfc":9876,"eebdbbbc":9877,"ebbbcdbc":9878,"ebbbbcbbbb":9879,"eeeebcbc":9880,"ebeeddc":9881,"bbfcff":9882,"fbcea":9883,"bbfcbcc":9884,"fdacc":9885,"deefbe":9886,"bcbfff":9887,"eebedebb":9888,"eebfccc":9889,"beedbebc":9890,"edffcc":9891,"fbcddc":9892,"bdeeebd":9893,"bebefebb":9894,"decdbec":9895,"efeedd":9896,"bbeeebec":9897,"bfebbbd":9898,"eeecbebc":9899,"bbeecbec":9900,"fecdef":9901,"bfbbbfc":9902,"eedcbbc":9903,"edbefcc":9904,"eecbcdd":9905,"bfcbccc":9906,"bbecfed":9907,"bbbebbbcc":9908,"ebfcdf":9909,"beebbeeee":9910,"beefbbbb":9911,"bfebbee":9912,"bbbdbbdc":9913,"ecebac":9914,"bbeecbbbb":9915,"fbdfee":9916,"efcebcc":9917,"ecbcecbc":9918,"dceedee":9919,"bdcdecc":9920,"bebedbf":9921,"eebcba":9922,"fecbbcc":9923,"dcecded":9924,"bffdee":9925,"bfefbf":9926,"ebffdd":9927,"ddbefc":9928,"dbedbbbb":9929,"bbfffc":9930,"bfebccc":9931,"bbfbcee":9932,"bcbedebc":9933,"efecebb":9934,"dbebbebc":9935,"bbebbfee":9936,"acbbbe":9937,"fbebbebc":9938,"dbbbdebc":9939,"febebbbb":9940,"dbefdd":9941,"eefbba":9942,"ecbdebd":9943,"dbbecdf":9944,"beecebf":9945,"eedcff":9946,"beedff":9947,"bdebfcc":9948,"bfeebec":9949,"bdfbeee":9950,"dbbbfed":9951,"dfcbdc":9952,"ebdcfbc":9953,"deebbdc":9954,"bbeefbf":9955,"fedbebc":9956,"dbecccc":9957,"bececbe":9958,"ebbcbcbd":9959,"febb</w>":9960,"bebebba":9961,"fbdba":9962,"eedebbcc":9963,"bcbcbeee":9964,"fedbbd":9965,"bbebebbbd":9966,"dfcecc":9967,"dfbcdc":9968,"bcedeec":9969,"efbfbf":9970,"bbbceecc":9971,"bcfdebe":9972,"dedbbcc":9973,"fdcefc":9974,"dbbbbbbbbbbbbbbbb":9975,"ebccbbbd":9976,"dbbdebe":9977,"eeddecc":9978,"beebbff":9979,"bcdefcc":9980,"dbeeccc":9981,"ebcdcdc":9982,"bbceeebc":9983,"fbebdcc":9984,"ebdbeef":9985,"fbfbfc":9986,"befbbdc":9987,"bbbeebbbbbb":9988,"abbbec":9989,"dbcbdbd":9990,"ebcbebbd":9991,"eeebeeeebe":9992,"dcbeff":9993,"bdbcbebc":9994,"dbbbfbc":9995,"dbccfc":9996,"beebbbcc":9997,"ebbfbeee":9998,"beedbdc":9999}