#version: 0.2 - Trained by `huggingface/tokenizers`
b b
e e
b c
b e
c c
b d
c e
b f
d e
b ee
bb e
c d
f e
d d
c bb
bc e
c ee
bb bb
c f
c be
c bc
cc e
bd e
bb d
f d
be d
ee e
c bd
c de
bf e
bc d
be bb
b a
f bb
ce d
f f
bd d
ee d
bee e
c bf
be be
bc bb
cc d
c bbe
c bee
be f
c fe
bb ee
bb f
be bc
de d
bc ee
a e
bc f
bb be
cd d
ce bb
cc ee
bbe d
bf d
ce f
bb bc
cee e
c bce
cc f
c a
bb bd
be bd
ce bc
f ee
fe d
dd d
bc bc
cbe d
bee d
cbb d
cc cc
bd ee
be cc
f bc
be ce
bb ce
cd ee
cee d
bce d
c bde
bd f
bd bb
cf d
a d
cce d
de f
bc be
bb cc
cd f
bc ce
bbe bb
de bb
be bf
ce cc
bf f
ce bd
ce be
cbc d
cc bb
de bc
ee bb
bde d
f be
bbbb d
bf bb
bd be
c bfe
cde d
bc cc
ee ee
be bbe
f cc
bc bd
f bd
cd bb
ba e
bee bb
de bd
bf ee
de be
fe bb
f ce
cc be
dd ee
bbbb bb
cbb bb
bd bd
ce ce
cd be
cbd d
bbe f
de cc
eee d
bc de
cbb ee
c beee
bee ee
cc bc
c ba
a bb
be cd
bd bc
bd ce
cf f
fe f
cc ce
be bee
dd f
bf bc
cbe bb
dd bb
bce bb
bfe d
bbe bc
be de
cbb f
bbbb bbbb
cd ce
cf ee
cd bc
cd bd
bbe bd
bbe be
cc bd
bee f
cf bb
cbe f
bce f
bf be
cbc ee
de ce
fe bc
bbd bb
be cbb
cfe d
a f
cbf d
be dd
cbbe d
bbd ee
bf bd
bee bc
c ae
cc de
a ee
ce cd
cbb bc
cee bb
bf ce
bce bc
bd de
be bbbb
cf bc
cd cd
e d
cbe bc
be a
bf cc
eee bb
cbc bb
cbee d
cce f
be fe
ee f
cd cc
cd de
cce bb
bbe ce
cbc f
ee bc
bbd f
fe cc
bed bb
bde bb
dd bc
bbe cc
be bce
a bc
fe bd
bde f
bee bd
ba d
be cbe
bcd ee
cbb bd
bbe bbe
be cf
ce dd
beee d
fd bb
ce bf
cee f
bbbb ee
cee ee
bebb ee
de de
bee cc
bed ee
bd cc
cd bf
be bbd
bbbb f
cee bc
ce de
cd dd
fd f
ce bbe
cce bc
cd fe
cf bd
fd ee
de dd
bce bd
a bd
cbe cc
cf cc
bf bf
ce cbb
dd bd
cbc bc
fbb f
be cce
cbe bd
cbd ee
bcd f
cee cc
bbbb bc
fbb ee
cbb cc
cde f
be cbc
bbd bc
bce cc
cde bb
ceee d
bfe bb
de cd
b b</w>
cbce d
de bf
bcd bb
ae d
bee be
bee bbe
cbd bb
cbb ce
bebb f
bed f
dd dd
bde bc
bee ce
eee f
cee bd
bbe bf
cce cc
a cc
dd ce
de bbe
be cee
cbe ce
cbd f
fe ce
bdd ee
bdd bb
bc bf
fe be
cbb be
cce bd
cd eee
bbbb bd
ff f
ca d
cf ce
beee bb
ba bb
ccd ee
fd bc
bdd f
bf bbe
bbd bd
bebb bc
cd bee
dd be
fd ce
dd de
ced bb
bed bc
bf de
cd bbe
e bb
cbc cc
dd cc
bce ce
cbc ce
cbb de
bed ce
cbde d
bbe bbbb
bde bd
cde bc
bbe de
bbee bb
ee cc
bfe f
bbe bee
a ce
eed bb
eee bc
fd cc
cbe be
fe cd
b d</w>
cf be
b c</w>
cbc bd
bee bee
ccd f
fe bf
cbf bb
fd bd
b e</w>
cf bf
cbe de
cee ce
bbe cbb
ff ee
cbf f
cbbe bb
bebc ee
bbe cd
a be
bce be
bcbb ee
bee bf
bd bf
de cbb
bcbb f
eed ee
fbb bc
cd cf
ced ee
cbb bbbb
bebe f
e bc
bbd ce
bde cc
cce ce
de bee
bbe fe
bcd bc
de fe
bbf ee
cbe dd
a bf
cd eed
cd fd
bbe dd
cbb bf
de bce
cc bf
cbd bc
cc fe
bbd be
e bd
ced f
bce bf
bebb bd
bbe cbe
bef ee
c b</w>
ded bb
de a
bee cd
ff bc
ba f
cee dd
cde cc
be fd
bed bd
cbe cd
bee cbb
cde bd
be bebb
eee cc
cbe bf
a a
cce dd
bcd bd
bfe bc
cccc cccc
fe dd
bebe bc
bcbb bc
cf cd
be bde
cbb cbb
bce dd
cee cd
c bae
bcf ee
fe bbe
cfe bb
cbee bb
be bed
beee f
bebc f
eee bd
bee dd
eed f
cbd ce
cbb bbe
fe de
ced bc
ccd bb
ba ee
cbc de
bee bbbb
cbbe f
cbd bd
bf cd
cdd ee
bce cd
bed cc
bce bbe
cce cd
fbb bd
bee de
c c</w>
bebb ce
fe cbb
fbb ce
be bcd
cbe bbe
cbfe d
cbb cd
bde ce
cbf ee
cbc be
bbd cc
bf fe
cf de
ff cc
bf dd
bbbb ce
cee be
cbb dd
bbed bb
bcee bb
bebb be
ced ce
bbf bc
a cd
bbe bce
cdd f
cf dd
bfd bb
cfe f
cf fe
bbbd bb
bbe bbd
cbee f
bbbb be
bcd ce
cc cd
bbee ee
bee cbe
fd de
ae bb
bdd bd
fe bee
bcee ee
bed de
a de
a dd
a bbe
fd be
ba bc
ced bd
bbbb cc
eed ce
bf cbb
bce de
bef bc
bbbb bbe
bdd bc
cbf bc
cee cbb
ded ee
cee de
a fe
bbee f
bed be
bebb cc
fbb cc
cebb bc
bee fe
ceee bb
ff bd
eed bc
cce be
cdd bb
bbe cf
bbbe bd
ded f
bbd de
bf cf
bfe cc
fee bb
bf bee
cbb fe
beee bc
eee be
cde ce
cfe bc
cd bed
bcf bc
bcbb bd
bfe bd
bee bce
bde be
bebe bd
bde dd
cbe cbb
cd cee
cd cbb
bf a
bcee f
bbe a
bbee bc
ced cc
cd bce
eee ce
cf fd
fe fe
bebc bc
de cce
de cbe
cf cbb
c e</w>
bbbb bbd
ccd bc
de bbd
ca bb
ded ce
c d</w>
cc dd
cd cbe
cee cbe
bdd ce
bf bbbb
cde dd
bd dd
cbbe bc
bf fd
de cbc
cd bbd
fe cbe
cf bbe
ccf ee
fe cbc
cd cbc
bfd f
cbb bee
ddd f
cbd cc
bf bce
cf cf
de fd
bf bbd
bf cbe
fe a
cbce f
bf eee
ba bd
fbb be
bcee bc
cbbd bb
fe cce
bbe bbbe
bfd ee
bebd bb
ae f
cef bc
bef bd
cbb eee
cbe cbe
fe bce
bbbc bc
ce bce
bcd cc
bee eee
cbb cbe
fe cf
bee a
bee cce
ccee bb
ddd ee
cd a
ce a
bcd be
cbd be
bbe cbc
cbb bbd
cbce bb
ce fd
ded bc
de cf
bebd ee
cee bbe
cbee bc
ce cbc
fed bb
de bbbb
bee cbc
cbf bd
bbf bd
bee bde
eed bd
cee bf
becc bb
bce cbe
bebb bbe
ce bbbb
cf a
ca f
eed cc
ccee f
cee cce
cccc cc
bebe be
ce bbd
cde be
bef cc
beed bb
bbf cc
fe bbd
bcbb cc
cbee ee
ccd bd
cbb a
cbb cf
bf cbc
bbed ee
cfe cc
cbf cc
ccf bc
ccd cc
ce cbe
fe bbbb
cbd de
cee bce
cba d
bcbb be
cebb bd
ddd bb
cd ff
fee f
dd bf
bbe bde
bbbd ee
cce de
bebe cc
cbc eee
ca ee
bbcc bb
fd cd
cbe bce
cbbd ee
de bed
cee bee
cbb bce
cef cc
bee cf
dd cd
cbbd f
de bde
bbed f
bbe cce
dd eee
beed ee
bcee bd
bbee bd
cbed bb
bce bce
cbbe bd
cbee cc
a cbb
cbc bf
bee bbd
bdd cc
bbbd f
ce fe
ded bd
bbe cee
ce cf
bebc bd
be cde
bbe bebb
fbb bf
bae d
bbbbd bb
ce cce
bcf bd
bce bbd
fd bf
bdee bb
bebd f
bce cf
dd fe
bed cee
cbde bb
bbbc bd
bbbe cc
bbbb cbb
bde de
bcd de
ded cc
bed cbe
bdd be
ce bee
cdd bc
cef ee
eed be
bbe bbee
cbeee d
cce bf
bbe fd
ae bc
bde bf
cbce bc
bbd bf
cee bbbb
cf cbe
bece bd
fed f
beee bd
cf eee
a bbbb
bcf cc
bce cbb
bebb de
cef bd
bcbc bc
fee ee
ff be
bce bee
bced bb
ad bb
ced de
bebb eee
cd cce
bbbb bf
bbd bbe
bce fe
bee bbee
bfe be
bcbb ce
ceee bc
ccd ce
b f</w>
cbb cbc
ccee bc
e f
cfe bd
cbed ee
fd cf
bde bbe
bcd bf
cee cbc
bed bf
cebb cc
ccf cc
cbee bd
bfd bc
ff ce
cebc bc
cae d
ccf bd
cd bbbb
bee bebb
cbe cce
bbe bbf
beee cc
cbe cf
cd cde
cbd dd
cdd bd
bbe bed
ced be
cd bde
a eee
cbb cee
cf bbd
ccee ee
cbed f
bebc de
cf bce
bebc be
cbc bbe
fd fe
bebf bb
cbc dd
cbe bee
a bee
ca bc
cbcd ee
cce cce
bebe ce
cbc fe
cdee bb
cbe fe
cd bcd
cd cbd
bebb bee
bebb bf
bcee cc
eee bee
bfe bf
bebb cbb
bed bee
ccee cc
cbc bee
cce bbe
a bce
bbbb dd
de cee
ce bbf
cf cbc
bdee f
bbce bd
cbb fd
be cbd
cbe cee
cd fbb
eee bf
e cc
cbde f
cbf ce
cbb bde
eed de
bbed bc
cebb ce
be fbb
bce bbee
ceee f
bdee bc
cbbe cc
bbbd bc
cd bbf
fd cee
bef ce
eee bbe
cd ced
bed bbe
bee cee
cce cbe
fed bc
ceed ee
bebc cc
bbd bbd
ad f
fed ee
bebc ce
becc bc
cfd f
bbbe bf
bbe fbb
bce bbbb
cbc cee
bcd fe
bbbe ce
cd bfe
cbe a
bbe bbbc
cbbe ce
fd bee
ba be
cbc cf
de bcd
bed cbb
bf cee
bf cce
ad ee
bde cd
bce a
cbc cbb
bbee cc
bebd bc
eee bbbb
fbb cbb
cfd ee
bef be
cde cd
ced cd
ceee cc
cbd cee
cf cce
cde de
fbb de
ccee bd
bcd bee
ceed bb
bce fd
bed cd
bbed bd
fbb fe
cbcd f
cbe bbbb
cf bee
de bbf
cbd bf
bbbc cc
cbeee bb
ba cc
fd cbe
ba ce
a bbd
dd bee
bcd cd
bebb fe
cbd fe
bce cce
ff bf
bdee ee
fbb bee
bcbb de
cbe bbd
cbc cd
bed fe
bfe dd
bfe ce
bbe bebe
bbbe bbbb
ddd bc
bebf f
cdee f
bced f
bbf ce
a cf
bcee ce
eee cbb
bdd de
dd bbd
ae bd
cdd cc
bed bbd
bebb bce
cde bf
fee bc
cfd bb
cbd bee
cebc cc
cee fe
beed bc
bcf ce
cee cf
cee bbd
ccd de
a fd
bde bbd
bcbb bf
bbbc be
dd cbb
ccd be
bced ee
bbbe bbe
cecc bb
bbbb bee
bfd ce
cce cde
bded bb
bdf bd
cbd cd
ddd bd
cbc cbc
cebc ce
cce bce
bbcc bc
cbe fd
bde cbb
cee cde
fbb a
bbbb de
bbbd bd
e be
e de
bcf be
bed cf
bf bbf
bece cc
bebb dd
beed f
eee dd
bfd bd
bcbb cbb
cced bb
cd bebe
fbc bd
bbd bee
ff dd
cbbe be
c f</w>
fe bcd
becc bd
fe fd
fe bbee
cbe cbc
cdee bc
cdd ce
fbc cc
bde bce
bbd cbb
bed bce
ded be
bebf ee
bbe cbd
fee cc
dd cf
cdf bd
bebe bf
bebd bd
cee a
beee be
bcd eee
ca bd
cbe bde
fe cde
cbce bd
cebc be
bbed ce
cdee cc
e ce
ae cc
bbee be
ceed f
bcce bd
bbbb eee
fbb dd
fbb bbe
ff cf
bbf be
ceee bd
de bebb
cded bb
bde bee
beee ce
cd bdd
de bbbe
cbe cde
cced ee
bbd bbbb
ced cee
cf eed
bce cbc
dd fd
cccc bb
cd bebb
def cc
fe bde
eeee ee
cd bbee
ded bf
fe cee
cbcd bb
cdee ee
bcbc bd
cbc bbbb
cd bef
fed cc
bebe bee
cee cee
bde a
cbce cc
cbde bc
e dd
cd fbc
fe bbf
cd bfd
fee bd
cce bee
bebe bbe
ccf ce
eee a
e bce
de cde
bbed cc
cbf be
bdbb cc
bbe cde
cccc bc
bce cee
fd bbd
bbbb bbbc
fd cbc
bee bbbe
cbb bebb
cbe bebb
fe cbd
dd bed
ced bf
bcf bf
cbb bbf
cef be
bef bbe
cf cee
bee cde
cfd bc
ccee ce
bcbb bbe
cbbd bc
cbfe bb
cf cbd
bdee bd
bef fe
bed bbbb
bce bde
eeed bb
bfee f
cbee ce
cbb bbee
de cbd
a cee
a cbe
cbb eed
dd bbe
bbd cee
bebbe f
fbb cbe
cfe ce
bbbb bbbe
bbbc ce
bce bed
beee bbe
bebb bebb
bcbc cc
cfe dd
bde cbe
bcce cc
ca cc
fbb cd
cbbd bd
eee cd
cebc bd
bbbb bbf
eed cd
cbc cbe
cbc bbd
bcee be
cce cbb
bee bbf
bdd bf
bbbbd ee
bdf cc
de bbee
cce cee
bde cf
bbbbd f
fd bbe
bee bcd
cbc bce
cce cf
fe bed
fd bed
bccc bc
bce cde
bef bf
def bd
bfe cd
ff cd
bbe bcd
cbf bf
cbdd ee
cef ce
bfd cc
bbd eee
fbb cf
ccd bee
bebd ce
ddd cc
cbd cf
cbed bc
bbce cc
bded f
bde fe
bbd cd
bde bbbb
cce a
bebf bc
ccd cd
eee cbe
ff fe
cbee be
ff bbe
cbb bbbc
bed a
bfe bbe
bdee cc
e bdd
cbdd f
fbb cee
cbce ce
fbb bce
cbc eed
ced bee
e bbe
cbd bbe
ccd bf
bbbbbbbb bbbbbbbb
cbb bed
ceed ce
cbfe f
cbb cce
bcbb dd
e bde
becc be
fed ce
bcd bbe
bced bc
fd a
fe bebb
bebc bf
ded de
ccf dd
cdf cc
bbd cf
fd bce
beee bee
cbf dd
bae bb
bbbb bbbbbb
cbbe de
cbe bbee
bcbb bee
fe bbbc
ff de
bde cee
fd cbb
cf bbbb
eed bf
cbbe bbe
fcc bc
ad bc
cbc bed
bded bc
bde cce
fd eed
cbe bed
bbcc bd
bf bbee
bfd be
beed bd
cbd eee
cebb de
ff eee
fe bbbe
becc ce
cbed ce
a ba
bbe bbbd
bdd eee
cbb bbbe
beed ce
cd ded
cce bbd
cde bbe
bebb a
cbbe bf
dd a
cee cbd
cced f
bcd cf
bdd bee
cecc bc
bbed be
cbe bbf
bcd eed
cfe be
bed eee
cce cbc
ced bbe
bfe de
dd cee
bebbe bc
cdee bd
beee bbbb
bdd fe
bee cbd
cebb bf
bcee bbe
cf bbf
bcd fd
bced bd
ced cde
bebe bbbb
bed bed
ff bee
ded cf
fed bd
dd bce
bff cc
a fbb
ccd eed
cbd fd
bcbc ce
ad ce
cee bde
cce bde
bbd fe
beeee f
ced cf
fbc ce
cbc a
fbb eee
cdd be
bbd bce
bee bbbc
de bbbc
bbd cbe
cbb ff
bf cbd
cbf de
ceed bc
ceed cc
bce bbbe
bcbb eee
bee bfe
eed cf
bebd be
bcf fe
bcbb fe
ddee cc
cbe bbbe
bbee ce
cf ff
bbbb bebb
cdd de
cbc fd
bf bed
bef dd
cde bce
cebb bbe
cd bbbd
def ce
bbbb bbbd
cbde bd
cd ccd
bde fd
cbb fbb
cef dd
e bbd
ff a
debc bd
cce fe
bded ee
bf bcd
cbdd bb
bbbbd bc
bbf de
bbbb fe
bbe bef
cbed cc
bf bde
bee fbb
bcbb bce
cbb bebe
bebd cc
ccd fe
bf bebe
bcd cde
cbbee f
cebc de
bed cbc
ba a
bcd bce
ae be
cd fee
bcd cbb
cced ce
ae ce
cce fd
bcf fd
bdee ce
bebc fe
bf ff
bef de
bbe ff
bcbd bc
c bb</w>
ceee ce
ccee be
eee fe
a cbc
bbbe de
bece be
bdd cd
ca ce
beee dd
cebd bc
bbe bebc
bcf dd
ced bce
ccee dd
ba bf
e bbbb
cbb cbd
bcbb cf
bebb cbe
fbb cbc
bbe cbbe
bfe bbbb
bebb cee
bced ce
cfd cc
bee bed
cce cbee
ddd ce
cfd ce
bee bebe
bcd a
ced cbe
bcbc be
cbfe bc
cde cce
bbe bcbb
beed cc
fd cbd
bbce ce
bed eed
cbed bd
bebe de
fd eee
bfe a
cd bbbc
ad bd
fe ced
fd cce
cded ee
bebb cf
bebc bee
dd bbbb
cbb bcbb
bebe fe
eeed ee
ccf be
cdee ce
bbe bdd
cd bbbe
bff bd
bce bbf
bdbd bd
bcd bbd
bf fbb
eee de
bebb bed
dd cbe
bcbc bcbc
cf bde
a bbbe
bbe ba
eeee f
cd cbf
a bbf
cf bed
fbd bc
dd cbc
bbce be
bbe bcee
dd eed
bbe bcbe
cbd cbb
cbed be
a cce
fe bdd
cf bbbc
bee fd
ded cee
bae f
fe ff
bbed de
fe bfe
ddee bc
cfd bd
c bc</w>
cef bf
ad cc
cbee cbe
ed ee
ded cd
cfe cd
fbc be
cde cee
bbd fd
bbe bfe
bbbb cbe
cecc bd
decc bc
bed cbd
cccc ce
ceed bd
eeee bc
cde cbe
eee bbf
debc cc
a bfe
cbb bcd
bf bebb
de bebe
bce cbd
cba bb
bef cbe
bece ce
fe ccd
bccc bd
bef bee
a cde
ba de
cee bbf
bdf be
cced cc
bde bbbe
bed cde
ced cbc
cced bc
bebe cbb
bfe cbe
bfe cf
bcbb cbe
ca be
cbf cd
e bf
bdf ce
bebb cd
bcd cee
cf bbee
eee bbee
bbe beee
bfe bbd
cde fd
bcd cbe
eee bbd
bed cce
bbcc ce
bbbb cd
bcee cd
c bd</w>
dd bbf
beed be
cbbd ce
bebee f
bbbb bce
bed ced
cdf ce
cebd ce
cebb dd
cbbd be
de fbb
cbd bbd
ff cbb
bbebb bbe
cbcd bc
bee bcbb
eee cbc
bed bde
bef cf
cef cd
cde fe
cbee dd
bbbb a
bef a
fed be
ced bbd
bdd fd
cee eebb
ced cbb
bcee dd
bde cbc
bfe bee
bf bbbc
cbee bbe
cbbd cc
bced cc
bf eed
cbd eed
bbbb cee
bef bbd
ced cce
ddee f
bde bed
cbbed ee
cecc ce
ccd fd
bde bcd
cfe bbe
bee cbf
bef cd
bebb cbc
cee bed
bfed f
bebb cce
ccee cd
de bcee
bebf bd
ceee be
cbb eebb
cf cde
c be</w>
bee fee
bf bbbe
bbd cbc
ff fd
bce fbc
bfe cbb
cbee de
bcce ce
fcc bd
bef cbb
bcbb cee
cbd cbe
bbbd ce
ccd eee
de bdd
ded bee
bce fbb
bbbb bbee
bebe cd
bce bbbc
de fbc
a bde
debd bd
ba cbb
bfed bb
a bea
bbbd be
beee bf
bebc bbe
ccee cbe
cde bee
bcbd bd
a bbee
cee bbee
bcbb cbc
bcbe dd
ced fe
bdee be
debd bc
bbbd cc
bbe bbce
cd ddd
cebc fe
bbe cbf
cee bcd
eed cbe
ccd cf
bee cbee
bee eeee
cded f
de bcbb
bce bcd
cccccccc cccccccc
cde cf
ff cbe
bbf bf
cbc cce
bcee cbe
cbbe cbb
bee eebb
cfe de
dd ddd
cde a
bcf cd
bcce be
bbe fee
bded bd
bdd bbd
bebd de
cde cbb
eed cbb
cf bcd
bbbe dd
e bee
bbbb cbc
bbe fbe
bce cbee
de bbce
a bbbc
cebb bee
ddd be
bf ced
cbde cc
bcf de
cbe bcbb
bf bef
bce bebb
bfee bc
cde bbd
bce cbbe
cbbee bc
fbb fd
cbc eeee
dd bde
bed fd
bee beee
bdd cbe
eeed f
cf fbc
bbd bbee
decc ce
cebd bd
cced bd
ba fe
cded ce
fbb fbb
e bcd
bbd bed
bee cbbe
cee fd
bcee de
ceed be
bebb eebb
cbce be
beee cd
beee cbb
bf bfe
bebe cbe
ff cbc
bbbd dd
fbe cd
bce bebc
cbf cbb
bde bbbc
bdbb de
bebc dd
cbeee bc
bbe ced
bcd bbbb
eee cee
cf fbb
cebb fe
cbf a
cbf fd
fed de
bcd cbc
cfe bf
bde bbee
bbd a
ff bbbb
bbdee bc
eed cbc
cbee cd
cce bbee
cebb cbe
bdbd bc
cdf be
cee bdd
bce bbce
bfe cbc
bebe dd
bde bde
bbbbbbbb bbbb
ba bbbb
bbd eed
ced bed
beee bbee
cbbe cbe
eee bce
bbcc be
fe fbb
cbcd bd
cebd cc
eee cf
bbe cbee
bebe cce
fbd bd
bcbb cd
ddd de
cfe cf
cebd be
cbd bce
ccee bee
cbeee f
bebc cbb
e cd
ccf cd
ced ced
becc de
bee bbce
cbbee bd
bebf cc
cebb cbb
ccd bbe
cbeed ee
bde bbf
dd bdd
ae fe
bf bcbb
bcbc de
ded cbe
bde cde
bf cde
cba f
cbbed bb
bebe bce
cced de
bcd bed
cee bbbe
cfee bc
cce bbbb
eee bbbe
dd cbd
bf bdd
ff bbd
bebee bc
bebbe bd
abb a
cebe de
bcbe de
cbbe bbbb
cbe bcd
cbb cde
ad be
debb dd
cd cdd
bfe fe
bcf cf
bde cbd
fbb cce
bee bebc
bced be
bee ff
eee fee
ccee de
ba dd
fd fd
ded cce
bee bcee
bebe bebb
cded cc
bdd cf
bdbb dd
bbbbd bd
becc fe
cee bebc
bebb eed
bcd fbc
bcf bbe
fee ce
bbf bbe
debd ce
bed ff
cecc be
eee cce
cee bebb
debd cc
ccee cce
cccc bd
cbbe dd
bcbe bf
bee cfe
ceee cd
cbe bebe
decc bd
bbbe cbb
ced bbbb
cbdd bc
cbd bbbb
cded bc
bebb fd
cee bbbc
bebb bde
ced bde
bcd bbf
cbf cf
bbd bbf
cbbe bce
ccf de
cbcee f
a bed
cbf bbe
fe bef
bded ce
bf bbbd
bbbe cbe
cbb bbce
aee f
bebc bbd
ccee cee
bfd de
ceed de
bbbc bbe
beeee bc
cd bece
fbb eed
bdd cbc
fbc de
eee bebb
fe ba
cbfd ee
bfe bbf
bee ba
cbb bbbd
bce bcee
cdee be
cbd cbc
fee be
ed f
bfe cce
bfee cc
fe bcbb
def be
beee a
cece ce
cd bebc
bebe cf
cd cbee
ccd cbb
bed fbb
cbce dd
bcbc dd
cbe bbbc
bcf a
bef bbbb
fd bbbb
cebc bf
fe cbf
eed bbe
bdd cbb
fbb bed
bebe cbc
cebb bce
cbdd bd
cbd bbee
cbbe bee
cdd cd
fcc ce
cbc bde
cef a
cbfe cc
cbe fbb
bbd fbb
eed bee
cee ccd
bfe cde
cee bcee
bcd bbee
bbed cf
bf bebc
bee bbbd
beee cbe
ccee bce
bbbbbb bbe
a ff
bdbb bbe
dd cce
cbd bde
bbed bbe
bdee cbe
a bebb
beee fe
bbebb cbb
bad bb
cd fed
ced fd
de bbbd
cd bcee
bebf be
bf beed
cebb cee
bef eee
cbd bed
cae bb
eeed bc
bcf bce
bfe bce
bdd bbe
cfd be
cced be
bef cee
cbb bdbb
eed cee
ded cbc
eeed cc
fce ce
cf bbce
fbd cc
cbee cbb
ba bbe
bdd cee
becd bc
de ff
cebb cd
a bcd
cbf cce
cbc bbf
bbd bbbd
ccd cbe
cbee cce
ba eee
bcbb bebb
ded cbb
de bef
ccbb dd
cbae d
ddee ce
cd bcf
bfee bd
ccd cee
ccee bbe
bf cbf
cf bdd
bcee bee
aee bc
ced cbd
ff cce
bbed bee
cbfd f
bf fbc
cbfd bb
bbed cee
cbeee cc
bebe bbd
bbbb bcbb
cbed de
bcd bcd
fcc be
bf eebb
ba bee
fe bcf
bed bbf
cba ee
eeee cc
ded bce
debb de
fe bebc
bbbb eebb
cebc cee
bcbd cc
cd bbce
bde bcee
bbbb fbb
cbd a
bbbe bbd
fe bbcc
bbbb cf
bded cc
cbbe cce
bde cbee
cbe ced
bf fee
cd beee
dd ff
bebc bce
e bed
ccf fd
bbbb bebe
eee bbbc
ccd bce
bcee bce
cbb bef
cebc eed
cdd fe
bccc ce
ccd bbd
bed bbbc
cbc ced
bee bef
cef de
bbebb de
cbd bbf
bdf dd
cbe cbee
bbe bbcc
bccc de
bad f
cbbe bbd
bf ba
cbc bfe
cbcd cc
fd bbf
cde cde
bebbe be
cebb cce
bcf cbe
cd ba
bcbb a
bcbe bbe
bbbb bed
cbc bebb
bde bebb
cd ae
cbfe bd
bdbb eee
bcbd ce
ff bce
bebc cee
cfee bd
fe cfe
bbebb eee
fd ded
cdd bf
bebbe cc
bebd bee
cebc bee
fd ced
bef bce
cebb cf
cbe cbbe
cde bcd
cce bed
bebe bed
fe fee
bece bbe
cd bcbb
cbd ff
cbb fee
bebe a
bad ee
cbb bebc
cbe bcee
cfee f
cebb bed
bbd cbd
bce bfe
e cf
bff be
cbcd ce
bece cd
beeed bb
bef bde
fbb bebb
cebc cce
cbc bebc
cbf cbe
bbee bbe
cbeed bb
ccf bf
bdbb bf
eed ced
cded bd
fd bebc
a fee
cef cf
cfee cc
cbf cee
cbf fe
cbbe cd
cbce bf
bfed ee
dd bcd
cde cbc
bbd bbbe
cbd cce
bee bdd
cfe cbb
cde bde
bcf cbb
cba bc
fe bcbe
beeee bd
cfe cbc
bebbbb ee
bef fbb
cce bcee
fe bebe
ba bbd
bbee cbe
bcd cbbd
cce ccee
ccf cf
bcbb bed
ced eee
bdd a
fe ded
ff cee
cbeee bd
fe bbbd
bee bcbe
bbf bbbb
bcd cbd
bebc cd
ddee bd
ced bcd
bae bc
bced de
bdbe de
cbbed f
becd bd
bdd bce
ccbb bbe
bcde ce
bee ccd
cfe cbe
cbb fbc
cd cbbe
bbed cbe
bbbc dd
fe bbce
ae bf
e cbb
bcce dd
ccd bed
fd bfe
bbf cf
cebb cbc
bebc bbbb
eed eed
bebc cf
ed bb
bebe cee
cde bed
cebe cbb
debc de
bbd bde
e bbee
bebc cce
bbbc bbbb
fe cbee
bcee cbb
cef cbe
bcbb fbb
bbbc de
ded bbd
bcd bde
bef cbc
a cbd
becd ce
beed de
eed bed
bbf dd
beee bbd
cfe cce
bece dd
bdd bbbb
cbee bce
bbe bebd
bed bbee
bfd cd
bdbd ce
bcee bf
bef fd
bbce fe
a eed
ccd bde
cee cbf
bbf bee
cbc bbee
bef cce
fed cf
cbb ced
bfe bbee
fbc fe
bee cdd
bebc bed
eed cce
cbde ce
cbde be
cebb eee
bcf eee
bee bbed
bce ff
cee ced
bf cbbe
cae f
fd bcd
cde bbee
cbe bfe
cde fbb
cf bebb
fe fbe
bebf ce
cdbb de
cbc bcd
bebc eee
cbb bfe
bbbe bee
becbb bc
bcf cce
fe cdd
bfed bc
bbe fbc
cd bcbe
bebc eed
bcee cf
de ced
cebb fd
bdbb cbb
ccbe dd
bce bef
ff cbf
bee ae
cbee bbbb
bdf bf
bebb fee
cbe bebd
cfed f
cbc ff
bebb fbb
bccc be
fe beee
cee cfe
cf cbf
bdd bde
bebb bebe
cd bebd
bfbb bf
bfee bf
cfed bb
bbed bf
ca bf
cdf dd
cebb a
cee bfe
cbc bbbc
cee eed
bfd bf
fd bde
cbb cbee
eee beee
cbb bbcc
ccbb de
fbb cbd
bdd bcd
bbdee f
a ae
cee bcbe
bcbb bcbb
bee becc
e bbf
cd cef
cbb bcee
cccc be
dd cde
dd fbc
bff ce
cebc bed
bdd eed
ded bbe
debe cbb
bcf bbd
ccd cbc
cbee bf
cce bcd
bedd bd
abc a
beee bbf
bef bfe
cfed ee
cdd fd
eee cde
cfe bce
cbe ff
cbf bbbb
ceee bbbb
bebb ff
cbf bce
debb bf
ceee cbb
cebd de
cce bbce
cd cfe
cbe cbd
ccee cde
bee bcce
bcbe fd
cbc fee
bbbbd be
a ca
cbc cbd
cbbe fe
fbc bf
a bbbd
bebe bebe
ddd cd
bece bbd
cbc eebb
bdd bdd
bed bebb
bece bf
fe bcbc
ba cd
cecc de
cbf bee
bbebb bf
bed eebb
aed bb
cf ced
fbb eebb
cbcee bc
beee bbbd
debe dd
bcbb bde
ceee cbe
fbd ce
eed bbd
bcd ff
beebb eee
ccbe de
bbbbbb cbb
cbce de
bbbe bce
ded fe
ae bbe
bff dd
cd bdee
cf ccd
cbc ccd
bebee bd
cdbb bf
cf bcf
fd ff
a eebb
eeee bd
cbe fce
bdf de
fbb fee
cba bd
bdd bed
bded be
bde fbc
cbf bbd
bebe bcd
fe becc
bebb cbd
eee cbd
cbbd bbbb
bbe bdee
cf bfe
cef cbb
cebc cbb
fe bbed
a bcbb
cbf bbf
ae dd
cae bc
bee ced
bbe bdbb
bece bce
bee bcf
cee bcf
cee fbb
e bbbd
e cbe
cbee cf
cbbe bbf
bebbbb bc
bbee bce
eee fbb
bee bcbc
bebb bebc
aed ee
becc bed
bfe bbbc
bed fee
bee fbc
bde bdd
becc bf
cdd cbd
bbe cebb
beee de
cbbd de
ccee bf
cbbd bf
fbb ff
eed fe
ca de
cf ccf
fd cde
ae bee
cd bcce
cef cce
bebb bcbb
cbcd be
beebb bbe
bebb bef
ae de
bbed cbb
cde bbf
fe fbc
bbd fbc
cbbe cf
cd bdbb
cef bbe
eed bbbb
bcf cbc
ddd bf
cbe bbce
cbd cbd
beee cbc
cee cebb
bfe fee
bee bbcc
cef bce
ba ba
cd ccee
fe bcee
bebd dd
bbbbbbbb bc
bbd bef
ceee a
bbe cfe
cdd cf
cee eee
bcbb fd
cbe ccee
bedd bc
bbd bbce
cf eebb
bed bebc
cad f
bebbbb f
dd ced
cbb cbf
cbd fbc
fbb fbc
cbe fbe
cdd eee
ccf a
cf bbbe
cdee cce
cee bef
bbd bdd
ced cbbe
beee bbbe
eeed bd
ca dd
bee eed
bdbe bce
ff bfd
cf fbe
cfd de
eeee be
becd cc
cf fbd
fd cbf
bfe bde
cf bebc
ff cbd
cbb ba
def de
cde bbbb
bbed cd
cdbb dd
fe cbbe
cee bebe
cce ced
bbd eebb
fd fee
bbe bfd
cbb eeee
cbde dd
bbd bbbc
cbee a
cebc bbe
bbebb bee
bbdbb eee
cbc bbbe
cbc bcbc
a fbe
cf fcc
cebc dd
bbebb fe
bce ccee
cf bef
bebb ba
bfe cbd
cbde de
bbce bf
bbe ccee
cee fbc
cfe cbd
def dd
bebc cbe
bfd cbe
cce bbf
cbee bee
bbee cbb
bcd ced
ccd a
cebb eed
cece de
bcf bbbb
cd bcbc
bdf bce
fe fcc
cdf bce
bdbe cbb
ded ced
cd bbcc
beee bbbc
bbe cbbd
ccbd cc
bdf a
cebe dd
cce bbbe
fd bbbc
bbed bce
bee fbe
e bbbe
bbbd bf
fbb bef
bbee dd
ded cde
eeed ce
becc eed
fed bf
ad de
bbdee bd
cf fce
cbe ccd
bbd ff
eed a
cce bebb
bdd cbd
bbe ccd
ae cbb
cbe bcbe
bbbd de
bdbe dd
cef cee
cbee bde
debb bce
fed cd
cced cee
cf bcee
e bbbc
bbe bece
cf bfd
ced a
ba fd
abd a
e cee
cbf cbc
beee bef
fe ccf
fbe bbd
cce cbbe
ced bebe
cbed cee
fd cfe
eed cbd
cebc eee
bee ccee
ceee dd
ceee de
cdf de
cf cbee
cbbee cc
debb bbe
ceeed bb
cd bbed
bebb bfe
bef cde
cbe beee
fbb bde
cecc bf
bce bebe
cce bdee
bbe bbed
cbb bdd
cce cbd
cfed cc
bbbe bde
bebd bf
ccbb bf
cbc cccc
bfe cee
ff ff
becbb bd
cbd bebb
bebce bd
ced eed
bce bdd
bfe bcd
a bdd
cbe cfe
cce cdee
bee beed
bcce de
bbf cbb
fd fbc
bce bcbb
cee bcbc
bfe beee
cded be
bfe fbb
cd becc
cee bcbb
ded bbbb
bce cdee
cbbe a
bcce cbc
ddd fe
bee bfbb
bebbe ce
bbbbbb bf
bee cebc
cbbbb de
bebc bebc
ae a
debb bee
cfed bd
e bcbb
cde bcee
cbfe ce
ccbe cd
bdbd cc
cced cbe
cdd bbe
bbbc eee
debb fe
bde bbce
cee cbee
cce bebe
fbb ced
cf fee
cee ccee
fbb ba
bcbc bbe
def cd
bea bc
cbe fbc
fd bef
bece cbc
cef cde
ceed cd
ff fef
ccd ced
cbe bebc
bed bfe
cbe bbcc
bbd cce
bbbc bf
bcbb eebb
bdf cd
dd cdd
bed bcd
cebe cce
bcbb cce
cbde bf
cbb ceee
bece de
cbeed f
bbe bcf
bbbe a
bbdee cc
ceeee cc
ff bcd
eed eee
cfe a
bdbb fe
cbb cbbe
bbbb bcd
ba bbbd
bfed bd
b a</w>
bdd ff
bbbe bebb
ba cf
e bdbe
cee ded
cbee cde
cbd ced
bbe cebc
cd bdf
febb bee
bbbb bde
bdd bbf
febb de
bfed cc
bbd bebb
bebe cde
bcbb eed
cbe bcbc
cbe bdee
bfbb bbe
a bbce
bed cbf
bbd ced
bbee de
bcee fe
cf bcbe
bed cbbe
bbee bf
bcf bebd
eee bbbd
e ded
cee bbcc
cbeee ce
bbbb eed
bce bcf
fbe dd
abd bf
bebb bcd
e ced
cbc bebe
bce bcbe
ccd cde
cf ccee
bece cbe
cebc cf
ba bbf
fbb bebc
bece cbb
ccce dd
bbebb cbe
bebe bef
cef cbc
bbed bbd
ceee bf
bbebb bebb
cbdd ce
bbe bcbc
bfe ff
cbee cee
bbbe cd
bcebb de
fbb bcd
beee bcd
fd cebc
bbbe fe
cf bcbc
ba cbc
cbb bcbc
cbed cbe
beeee cc
cfe cde
ccd cce
cbbe cee
bcf bde
bbbbd ce
bfe bebb
cdf bf
bbebe bbbb
bbd fbd
bed ded
bed cebc
cbce bce
fd bebb
bdbb bee
a fbc
bece bde
e cde
bbee bee
fbb bbebd
cdd cbe
eee ba
def bf
cbb bdee
bcf bee
bbd bcd
bdbb bed
cebe bbbb
cbdd cc
bcbb ff
bece bbf
bbd fbe
bbbd bbbb
debc eed
dd bebc
bced cee
bed cbbd
eee bbce
cd ceee
ccf fe
bae bd
bcf cee
beebb bf
debc bf
cecd cc
cdcd cc
ced ff
beee bce
cce ccd
bed cebb
ad bf
bff bf
bccc dd
bed bcce
bbd cde
bfd bee
fe ae
cbee cfe
cbb beee
eee bcd
e bcbc
bbe bebbe
ceeed ee
cbced ee
e bebd
cf cbbe
cf bdf
bde ff
ddf dd
cbe fee
eee bebe
cbb cef
bce ced
ceee cbc
bfee be
cd cdee
cbb ded
bdd eebb
bcee cce
eee bef
fbb cebb
fe bcce
bbee bbbb
a bdbb
bed fbc
bdd fbc
a bcbe
cbb ddd
cbf eed
cd beed
dd bbbc
bece fd
fe cebb
cd ccf
bfd bff
fe cebc
cbf bde
bae cc
cbfd bc
cbce bbe
cbfd bd
bce fbe
bed bbbe
cbd bbbc
de bcbe
cf bcce
bebe bde
bfbb cbc
cfed bc
de bdbb
bbbbd cc
fe cef
cbd cde
bee bebbe
fee bf
bcee bbd
cbc bef
bdee dd
debb cee
bee cbed
bfd bed
cbc ded
cbbd bbe
ca bbe
cbb ccd
beed bf
bfbd cc
fd cef
cbd eebc
bcd fbe
bcee bbbb
bbebb dd
cbd eebb
a bebe
cd cebb
fbb eeee
cbc cebe
bfd cf
bedd ce
fe ddd
bcee cee
ff bde
bede ce
cbcee bd
cbe bcce
cbd bebe
bcdee cc
cbd fee
ced bbf
ff eebb
cdbe de
bbbbbbbb f
bbbb fce
cebd bf
bee fcc
cdd bbd
cbbbb cbb
cf bebe
bbbe cce
becf bd
cbc cde
bfe bed
cdee cd
bdd cce
cbeed bc
bebb bebd
bbce bbe
cbbed be
bebb beee
ff cde
cdd eed
bfd bbd
ccbb eee
cbebb de
cbf fbb
bcbd de
bce bcce
bcee cde
cdee cbe
bbcc bf
bce fee
cbd bfe
cebb ced
bcd eeee
bbe cbed
beee beeee
bbf bde
becc eee
e cbc
cd cebc
ccee cf
a bef
cee cbed
bfbb cbb
cbf fcc
bcbe cbe
bfed ce
cebe bbd
bbe beed
cbc bbbd
cce bbbc
fd ccd
ba bce
ced cdd
cef bde
bee cbce
cfe bde
bcf eed
cee bcce
bcd eebb
cce ded
cccc de
ccee bde
debb cbe
fd bdd
cdbd cc
debb cbb
bcd bebe
bcbc bf
fbb bebe
cecc fe
cebe cbe
a beee
debe de
debe bbd
bdd fbe
bbebb cd
ceeee bd
ccf cee
cbbee be
beeee be
bed bebe
cfe bbf
bcee bde
cdf cd
ccbe bce
cbd eeee
cfed ce
bbce de
beed cee
bfd cbc
cbb fce
cbed bf
cbee cbc
fbb bfe
bbed eee
bdbb bde
cbb bebd
bbed bbbb
ccf bbe
bcbe bee
cee bebd
fbb bcbb
cdd bdd
bece bee
cbcee be
cbe fcc
ff fee
def cce
bcd cce
fbb cde
ced cfe
eed fed
ca a
cebe cd
cccccccc cc
eed bbf
beee cbd
cbbe bef
becbe bd
dd bbee
bbbbd bbe
cebe bee
cbb bcf
dd bbbe
fbb cef
eed cde
cebc bce
a ccd
bbe cbce
bbe cebd
cbd bebc
cbb fbe
bcbc eee
febb fe
bbbbbbbb bd
bedee cc
bfd cee
cbcee ce
bee ccbb
bdbb bce
cf bcbb
cbbe cde
de ded
cbc beee
bcbe fe
bed bcbb
cbbee ce
bebee be
bbbb fd
bcd ceee
fbb cbed
ff ccd
bdee cd
cbe cced
ced ded
cbbe bbee
cccc cd
bcbe cf
cce cfe
ba bbbc
cef bbd
cbb bbbbbb
ccf eee
beed bbe
cbb cfe
bde bcbb
cbc fbc
fbb cbf
bcbe bbbb
debc fe
bfe fd
bcbe bce
bbbbd bbbb
bf bbce
beee fee
beed cd
ba cbe
ced cbf
bcbe cd
cbbbb bbe
bee bdee
e bdf
bed cfe
ca fe
ba bebb
cbc cfe
bbd cbf
bcbb fbc
bebee cc
bff de
febd cc
a fbd
a cbee
bee ccf
bbf bce
cbd bcd
bed bef
bbe ae
bdd cde
bcbd bf
bee cdee
fe cccc
bed bbbd
bdbe cee
debb cf
bfe ccd
bce cbf
fd bebe
cbbe bde
cebb cbd
cbcee cc
cbc ceee
bbe bbebb
bed cbee
fce cd
bbd bfe
cee bbce
cebb febb
befe cc
ee ce
bbe ccbe
cebb bebb
bdd bbbd
ceed cf
bbbb bebd
cce fbc
bbd bebc
bbd bcbb
bdf cbe
fe cbed
ccd ccd
fe ccbb
bbd bebe
fd fcc
fbb fbe
bbbe ff
debb cd
cbce cd
cce bcce
debe bee
bbf cd
bcbe cbb
bbe fce
cdbb bed
bebe bcbb
febb a
cebb bde
bcef bf
bbe bcce
bcee cbc
bce bbbd
fd bbee
bbd ded
bfd a
bcd fee
fbb eef
cebd dd
cee ccf
cbf bbee
cdee de
cbbbb bf
ccee cbb
cf bbcc
bbf cbe
bfbb de
bee bebd
bbe bebee
bdd bbee
cf ded
cbc cbbe
cce bcf
bed cef
fbb ded
cf bebd
cbbd eee
ccd cbd
bfd bce
e bebb
cdd cbb
bdee cbb
def bce
bdf bbe
bebbbb bd
bef bcd
cdbe dd
fdee cc
bee ded
bdee de
cf bbbd
cce bfe
beeed f
bde fbe
cbce cbe
cbc bbce
bde fcc
bbee cd
cebc cbe
bbbb bebf
eee ff
bdee bf
beed cbb
debe cbf
cba be
dd ded
cce ddd
cee cdd
cecc eed
cf ad
cee bbbd
cbee bebd
ccf cde
bed bdd
ccf cbe
bdbe bbe
debd bef
eee bde
bebb cde
bbf a
bed bebd
bbbb cbd
bcd cbf
bcd eef
ced bfe
beebb bfe
cfd bf
ddee cd
bee fbd
febb bf
cce fce
a bcee
cce cbf
beeed ee
cbe bbbd
ced bbce
cebb cde
bbebd cc
cef bbbb
de ccd
cbe cbf
bcbc fe
befe bd
bbebb bce
cee cbbe
cf cfe
bfe bbbe
cebc ced
cdee dd
bfee ce
bbe bbbbbb
ff bed
bcd bdd
bebe fd
ceed bed
def bbd
bbf fe
beed bed
bdbb cd
a bbcc
ba bde
bcee cbd
ceee bbe
a ced
e bccc
cbde bee
cce bdd
ddee dd
bbed bde
bbd bcee
fbb bcf
ccf bce
bdf eee
bdbe cd
cdf fd
bfe bcbb
beee beee
cced cde
fbd de
cbe ded
ddbb de
ba bbee
bced bf
debd bf
bcce bf
aed f
cee ddd
becf cc
bdbe bbbb
cbbed bc
bdd fcc
ceee bbbc
e bef
cbe bcf
ccf cce
cebe bbe
ccee bbbb
ccd eeee
bfd bbe
cbc cbf
bfd fe
cbc bbcc
bebb cbbe
ccd bbbb
cf cebc
bebb fbe
cbed bee
bfbb eee
bcdee ce
cbc cef
debd de
beebb cbb
bf eeee
e bcf
cde bbbe
ff bef
cbcd de
fe bebd
cced bee
ccbb cbb
bded de
debc bcd
bbbb bebc
cbe bef
ded a
cebb bcbb
debc cf
bbe becc
fd fbe
cdd cee
cbed eee
bbdee ce
bbd fee
bea bd
dd bebb
cbed cf
fe bdee
cbd cfe
cd cfd
cebb bcee
bed bcf
fed bee
ccbb a
cce bdce
eed bce
febb eee
ff bfe
beebde cdbd
bbbb ba
ceee bce
fed fe
bcbe bde
bbebb a
cee cdf
bebe ba
bebce ce
bee cebe
ae cd
bebbd bc
ced bbee
becc dd
fe beed
cbee bbd
bae be
bebce cc
cdd bee
def cbc
eeed be
bcebf fbbbee
cbb fbd
bced bce
e bcee
fbc dd
bbbbbbbb bbbbbb
bbcc de
bfbb dd
cded de
bbebc bf
fed cbc
bced cbe
bdbb cbe
cebb ff
cbd bdd
bdf bbd
cdee bf
debe cd
bbe ccbb
fd cbee
cbce bee
bff bbd
becbb ce
bbed bbee
bbbc bee
bae ce
bedd be
bebe cbd
def cbe
cee ba
debb cce
bed fbe
debb eee
ccd bcd
bebf bf
cbee eebb
ccf cbb
bced bbe
debc eee
cece dd
ccd ff
cbee bbf
beebb bee
eed bcd
cbfe be
fe fbd
bece bbbb
a cba
cdbb eee
bde fbb
bebc fee
bbe fbd
cbd ded
bbbe cf
bcd fbb
bcbb bebe
ccbb cf
bfeebf bcebffbbbee
fe bfd
becc cf
bebb fbd
beee bebe
bce fcc
beed bee
ddbb dd
bce ccf
beebb de
cbdd be
cff dd
becbb cc
becbe cc
cd cccc
cbd bef
cbc fcc
ae cf
fee de
cbbbb bebb
cde bbce
cdd a
bbd bebd
cde ccd
cad bb
bce bcbc
ad cd
beeed bc
bebe bebd
bbe ded
cbbe bbbe
debb bed
fdee bd
ceeed bc
cbe ba
cbf fee
ad ca
bcbe cee
bf bcf
bee cebb
bfbb fe
bbe fcc
eed ded
cbee bbbd
cbed cbb
bce bfd
bfe bdd
bbee bbee
febb cbb
beeee eee
cbfd ce
bbf bbd
bde bcf
bde bbcc
bcd ded
ff eeee
ae cbe
cbed cd
fbbee bd
bce ba
fd fbb
bebc ced
a eeee
c a</w>
ad ba
bcde de
cce cdd
ceee cf
ad a
bbbb bbbbd
cfe fe
bbe bbbbd
bfd cbb
cdf cbb
beee bebb
bbe cef
cfe bbee
cebc cd
fe cbce
cfe cee
bebc bebe
c bf</w>
cbc bcf
bcbb cbd
bcbe a
eebb eee
cbe cebb
bedd cc
fe bcbd
bce ccd
bcee bbf
ceee bbd
cecc cd
fffef bfbeed
cbe ccbe
fee dd
bebb bebbbb
bf ccd
bebb bbed
ccf bde
becbb be
bebbd bd
cbeed ce
bcd fce
bbbc bbd
bbed bbf
dedd ce
bebc bde
bece a
beee cce
cdd cdd
bdf cf
bebf eee
bbbb bbce
bebb ccd
cbee bcf
cfe fd
bfd eee
ceed bbe
bf ded
cbed bbe
bce bebd
bfe fbe
cdbe cee
cbbed ce
becce bd
bde cdbd
ccf cbc
cccc dd
cba cc
bce bdee
bce fce
bbbb bdbb
ced bef
bdd fbb
bbbd bbbd
cdce dd
bebb bebbe
bebc cbc
ca cbc
cebe cf
bdbe cce
cad ee
bee cef
cee bdf
bde ccee
cbf eee
bccc fe
cedd ce
cbd bdee
cde ff
cbce cf
cde ccee
beee fbb
def a
bebc fd
beed cbe
aee cc
bcbcbcbc bcbcbcbc
cce bcbb
cde cbee
cbdd de
bed bbce
bebc a
bfe bfe
fed cbb
ccce de
bde ced
cfd cd
cbf fbc
bbbbee bd
ced bbbe
cdd cbc
cbf cbd
cbbe bbce
bebb bcee
ae ba
bfd cbd
cee cced
bbbc cbb
bee bbebb
ddd eee
bdf cbb
cfee ce
bee cbbd
fe ca
cf ba
cfbb bf
bbbb cce
cddd bd
bcd bbbe
cccc cce
fffefbfbeed bebcde
bce cbde
bed bcee
bed eebc
de bcce
bfbb eed
bbef bf
cef bee
bece cce
beebc cbe
bbd cbbe
ccd fbe
bbf fd
cecc dd
bcbe cbc
bce fbd
bfd fbb
ae bbbb
fe bebbe
bef cbd
cd cbce
bce bbed
ded eee
bebd eee
cbbe bbbc
bdbb eed
cbbbb eee
ccde dd
e bcde
bebb eef
cbf bbbc
cbced bb
cd cebe
bebc cbd
cdee bde
bcd bcee
debc dd
cbe bdd
ceee cee
dddd dd
cdeee bc
bce bbcc
becc bbe
bfed be
bfbe bbbb
beebd cc
aee bd
e bbce
bbf cce
ddd a
cdee bbe
bdce de
e bced
ced fbc
ff bcf
bebc eebb
bcebb dd
bfbe dd
fe fce
cbeed bd
bcdee bd
bbed eebb
fe cbbd
cee cef
bcbb cde
beed eee
cfe bbbb
ddd bee
acd a
bce cbce
bcbc bee
decc eed
cd bccc
bcbc bbbb
a fce
e bded
cbd fbe
bbed a
cdbb cee
de bbcc
fe bdbb
bcbb ced
bde bbbd
cbd bbbe
ccd fbb
bbf cee
bf cef
cde fce
bde bfe
def cf
e bebe
bbbb bbdbb
bcd bbbd
ff bcbb
cbc bebd
def cbb
bebb eeebb
cbf ced
bbee fe
cebb bebe
ccf bbd
bdbb cf
bdbe bee
cbe cef
cbf eebb
ddf bf
cedd bd
abb bf
bde bcce
beee cf
fee cbb
e bdee
bcbe cce
ccbb fd
e bede
ee bd
cd cbbd
bce bece
cbc fbb
cbbe fd
e cce
cd cecc
bdbe fe
cdbb eed
becbc bd
bed cdd
bef cfe
cbce cce
a bebd
cbe cebc
bebb fbc
bdd fbd
bbed ced
de bcf
bcd bbbc
bcbc bbd
beed bbd
bbebb bcbb
beeed bd
bbe ceee
bed eef
bced bee
bcbc eed
cbed bce
becc cbb
bde ba
bbef dd
bbbb fbc
bebb bdbb
cced cce
bde ca
bdd eebc
a bcf
bcd bece
bf cbee
cf cdd
cbc bcbb
ded cbd
bfd bcd
bce bdde
bbbb bef
bde ccd
bfe bebe
ba bbbe
ba eebb
cbed cce
ceed ced
cbe cbce
bebb ced
fbb bcee
bfbc dd
bfbc bf
bbce bbd
fbb beee
cdf bbd
cee cebc
cbc fed
bebb eeee
cef bcbb
cccc eee
fe bebf
bde cbbe
fe def
bed bfd
fed cbbbc
bbbbd bf
bdbe bbd
fe cced
cee cdee
cbd ceee
bbf eee
cbc bdd
bdee a
fef bf
bbbb cbbe
cfe bcd
cfd cf
bbebb bebe
cde bebe
cef fed
bebd cbb
a bcbd
fe ccbe
ff eed
bce cef
cde fbc
bfd bbbb
fd bcf
ccd fbc
ae cce
cebc ded
cebe cee
bad bc
cbb fcc
bed cecc
cbee bbee
cfe bfe
cece cd
bcd bef
bbbb bbcc
bde bebe
bde fbd
bcde dd
cbced f
cce fbe
cde bcf
ccd eebb
cbbe bcce
fe ccee
e bbcc
cced bce
bee bccc
cbb bbbbbbbb
debb cbbe
debd dd
bdbc dd
beeed cc
bbe cdd
cbe bebf
cbd fbb
bbebd de
bbbb cebb
cebe bed
cee bced
fd cdd
ccbb bee
fe bdf
bcd bebc
ccbb bce
beee ba
bbed eed
cbce cbb
bfce cbc
eee fd
ff fbb
ceeed cc
e bebc
fe ceed
dedd bd
cbce fd
ccf eed
bbebb bebc
bcd bebb
bebc eebc
cece bf
cdbc dd
ced cef
cbbd bee
bdee bbe
debe cbe
bce cebb
bcd cbee
cfe bee
bbbe cbc
decc de
cce bebc
bcbb fee
bbd bbcc
bebb bcbd
ca cd
ced bcce
cced cd
e cbd
cce fee
cbb bdf
cce bef
fd bbbd
bcebb bf
cbeed cc
cddd cc
a fcc
bbbb bdd
ba cee
bdd ced
bfd eed
bdbb fbb
bebbe de
bce ded
bbbb fbe
ccbd dd
bce cdf
cbf bbbe
cbbe bebb
bcbc cf
bcbd dd
bdee bbd
beebb ced
febb dd
cbded ee
cee fcc
fd cebb
cbd beee
bfe bcf
cbf ccf
bfeebfbcebffbbbee bceebbe
cce bbbd
bcee bbee
cdcd cdcd
cce bebd
bcd eebc
ceee bee
bbce dd
ccbd de
bfbd bf
bed cdf
bed fcc
cde cebb
ced bdd
cbde cbe
cce ccbe
cfe bbd
bdbe a
cbfd cc
ccbb ff
fe bced
bfe bbbd
ded bde
bbebb cee
ccbb cbe
bbbb fee
cbeee be
ba eed
bcee eebb
e becc
bce becc
bcbb bef
befe be
cbb cebc
bed beed
debb cbc
bebb bdbd
cdd cde
bee bced
ae bbce
cbad bb
bebe fbb
fef de
bbe bebf
cf fed
fd bbce
bbed cbc
beebd bcebd
cbbe bbbd
bed fed
bcbe cbee
eebb bee
bbbbee be
ced bebc
bdbb cee
debe bbbb
cbbbb dd
abf a
bed ceee
ba fbb
ba ff
bbe cece
bbebb bde
becce cc
bf bbcc
bbe ddd
ccee bbd
cebc bbd
cced cf
e bdde
bebb bdd
cce fbb
cbc fbe
cbf cde
bcbe bebb
cfd bcd
cbe cdd
cbf bebb
bdd bbce
cf eeee
fbb fcc
ae bce
beed cbc
cccc cbb
ceed bf
ccbb cee
bbbb ff
ad cf
bbbbbb dd
bdce bf
cbbed bd
bdd bbbe
ca bee
debc cbe
bebe beee
bef eebb
cfe ccd
bebc bfe
ccee bbf
fed cce
ceed cbb
bbe debb
bed bece
cde ced
bdf bee
bcee eeee
cae bd
e bece
bdee cf
cfd cbb
cbee fe
bcbc cbb
cdbb bce
cdbe bce
cbef cbe
bbdbb dd
eee ced
ceee cce
febb bbe
bed fbd
bebd cee
cccc cbc
fd eebb
bcee bebc
ddee be
bdbd de
beebc dd
cbe ddd
bde fce
ced cbee
cdf bbe
bbebe cbee
bebbbb be
ced eebb
cbcd bf
bbcc fe
beebb cbe
cbbbd cc
cbd beed
fee bfee
bbed cce
cebe bce
ddf de
adce cfbf
fd cbed
febc cbb
ccee cbf
bbce cbb
cdbe cce
cd bdbd
ccee cbee
cccc cf
cdbd de
becc cbe
ddbb bf
e bcce
fd bcbb
ff bcee
eed cebb
bcf fbb
fee cd
bbbbbb bebb
cdbe cbee
a bebc
bcd fed
beee bbcc
ae cbc
bcbc bce
bcd fbd
bbed fe
cbed bbd
e bcbd
bbed bed
bbed cde
cbbd cbb
aed bc
bfe cbf
debc bed
bfbb bee
bfbe cbb
bdf fe
bfe cbed
bcd bcf
cbbd eed
cf becc
bbee bbf
fed cee
cdee cbb
bee bfd
bcee eee
cdd fbb
cebe cbc
bebc ded
bbbc fe
bdf cce
debc cce
bbef de
bee bebf
cf cebd
bcd bfe
bce cfe
bce ddd
cee cbce
bced bde
cebe fe
ccbb cd
ccbc eee
cdce de
cce fcc
bebb becc
cde cbd
bcd bcbb
bcd bbce
cae cc
bee ddd
bcf eebb
cef fbb
cbcd eee
bdbc bf
cbbe cbc
bcbe bbd
a cdd
cbbed cc
cd bff
ff eef
ded cfe
ceee bde
bbcc dd
ccebb de
cbe bfd
fd bbbe
ced bebb
eed bbbd
bbbb bbed
bcd cef
ccbb fe
ccbb cbc
cd cdbb
ed de
cbeed be
bfebb cbe
eee fbe
cccc bf
bcef dd
ba fee
def fe
cded cee
bcf cbf
bbbd bbf
cdee cee
bff bbe
cdbe bee
a cbbe
fd eebc
bebb bcbe
bcbb beffe
ded bed
ca eee
fce cbe
ed eee
a bdf
cbd fed
bcbb bfe
ae bbf
bbbc eed
e cdd
dd ccd
def bee
bbefe bed
fffefbfbeedbebcde bbee
bbd eeee
bef cbf
fbc cf
cdeed f
cd bced
bed ba
bfe cbbe
cbbd cee
bfbc ddd
fee cce
ccbb bde
cdbb cf
ccbe cbb
a ad
cef fd
bfbb bce
cbc ba
cd bebf
eedee bd
dd fed
bed becc
cbd eef
bdd bebb
cbee becc
beed cde
ded eebb
bdee bbee
bbbbd de
bf bebd
beee bcbb
ded eed
bddee cc
bea cc
bbbbee cc
cbc bece
fbb bdd
ddd bde
bebbee cc
cd e</w>
cbc bccc
cecc cce
cdbe cf
cbd cbf
ff bcbc
cbed eed
cd febc
beed cce
bbebb eed
bbebd ffbfd
cde bcce
beed bce
bee bece
bff cce
cd eeed
ceee bbbe
fbd dd
cee ccde
bde becc
bcd ccd
bbee cee
bff fe
bbbb bcbc
cdbe cbb
a cfe
cbe debb
fd ccf
cde bbbc
cde fbe
ccd bcf
beee bcee
bdbb cce
a ded
cf cdee
cebb ded
ceed cbe
cf bece
cbc bcee
cbd cbbe
bdd bef
bee bdce
bfd fd
cbce fe
bbe bede
bde bebc
bde bcbc
ccee cfe
bced cde
beebb dd
cbebb bf
becbe be
debb eed
bdbe cbe
cece cbb
cee fbe
bfe bbcc
bdbb fd
bff cd
cfbb cf
ddd bbd
ccbc dd
a cbf
cbf bcf
cebb bebc
def bbe
debc bee
bdf fd
cdf cbe
bebf de
cbb bebbe
ceed cbc
bdf bbbb
cbd bede
ceee bbee
bbebb cce
cebe bfe
bde bcde
cbd bece
bdd bbbc
cdd bed
cfd bce
fcc de
bebbee bd
cbc bfd
cfe ced
cdee bce
cebd cf
fe fed
bcd cbbe
cdbd dd
cebb fbb
a ddd
cbee bed
bdf ccee
def cde
cbf cef
ddbb eee
cce ccce
e bcbe
cbb ae
ff fbc
ceed fe
cebd bebb
beee cee
cfed be
bcf bed
cbce cee
cd ccbe
bef ccd
ceed cde
bbe bdbe
cbe bbed
fd ccee
bdbb bebb
becd bf
cee bdee
ced bbbc
bebd bbbb
ddbb fe
cfbb de
bedee bd
bce ddee
ded bebc
ad eee
bded cf
bbbe bdd
cbed cde
cbbd bbd
eebb bf
ed eeee
bbed bebb
ccbb eed
fce bf
bddee ce
bcdcde bebd
cce ddee
cebb bcf
bdbb a
cba ce
bfed bf
fe abb
ae cee
cce ff
cebc bfe
cfd cee
cebe cbbe
ddd eed
bbebb bed
e fd
de ceee
bee cced
ad cbb
beef bf
e bdbd
bde cbce
bcd beee
bcee bebb
cebb ccd
bbce bbbe
bbcc eee
bbe def
cd def
ae bbd
cdd bce
ceee ced
ca cbb
fce dd
bdd fee
bfbd fd
bbebb bfe
eebb de
cfed de
bbbb beee
bbbb fcc
bfeebfbcebffbbbeebceebbe bfebb
bcee bed
bbef cbe
ded bcd
cecc cbb
fe bccc
fe cbbbb
fd bebd
cbd cef
aee ce
bfe bef
ff bebe
bbed bbbc
cbced ce
bff cbb
bde cebbe
ca cf
cded cce
ccef de
fe cdf
bce beee
fd bcbe
bcee a
bced cd
bdbe bed
cbd ddd
cfe bbbc
debe cce
cbded bb
bee bbbbbb
bef bed
bfd bbbc
becce ce
cde cbf
bcbb bcbc
bdebb de
ceeed f
e bdbb
fbe cbb
ccbe cee
ccbe cbe
bbe bcbd
bdd eef
ba bea
ded fd
bfbb bed
bebbe cd
bde beee
cbd bbbd
bebc bebb
ceed bce
e ccd
ced fbb
cbf bebe
dd fbb
ddd cbb
cdee eee
debe bce
cce cccc
cebd bee
fbb cbbe
ff bebb
fee eee
fed cde
ceed cbd
debb ccd
bfe bbce
bbbbbbbb ee
ae ca
bce bbdbb
bbd bece
fd bdbc
cbd bbcc
bdd bebe
ded bbf
ca eed
beeebb bf
bcbb bdd
abb de
cbdee cc
bbe cdee
bcf cde
cbde bed
bdbb cbc
debb fd
bbbb bbebb
cbe fbd
cbf bed
cbf ff
cbce cbc
bfbb a
af bf
fe bdbe
cee bbed
ced cebb
ccd bbee
cbbbb bee
bbe bccc
cd bdbe
ba bcbb
cdbe cbe
ca bbd
beeed ce
cebb bef
def cee
beeed be
dedd cc
cbdee bd
eee bdee
cde bebb
ae cbd
bbdbb de
fbb fbecd
ded cebc
cff bf
cedd cc
beed cf
bbe ccf
bbe bfbb
cd cece
bde bef
cbe becc
fd eef
bebe bfe
ceed cce
fe ccbc
bbbb bebbbb
bbbe bfe
cdbb cbb
cdbc eee
e bbed
a bfd
cebb bcd
ca bbbc
bce bdce
cbce cbee
cbbd bce
debb cbd
debe bde
cbfd be
bbe bbebc
bebd fe
bded bf
cde fcc
ca ba
bcbe bcbb
bdbc eee
cee ff
cbe cdee
fbb ccd
ced ccd
ee de
bcbb cbbe
bebd bbd
bece cf
bbce bbbb
eeed de
bed ccd
bbee bbd
cdd cce
def bbbb
cae be
bbbbf bbd
cee cebd
cdd ff
cecd de
cecbb ce
abe ae
fd cdf
fbb cfe
ced ccee
cbf bfe
cbf cbf
cebc cbc
bced cf
bdbe cf
fbd bf
cbbf de
cdbfd acc
bcbbbeffe aefe
bebb bebf
bcbc cd
bdbe cbc
cbe cebd
bcbb bebc
e cdf
dd eebb
cee ccce
fd bfd
bebee ce
bebb cebb
fbb fce
bef eef
bdee bee
cccccccc cccc
ced fcc
bdd bece
bcee bcee
ddd cf
cff de
bebc ff
bccc bf
ccee bbee
bbce bbee
bdbb ba
dd fee
fbc eee
bbe bdbc
cbb bdde
bed cfd
cbee cbf
cbee bbbc
fed bce
cedd be
cbe cbed
ced becc
cebc cde
bbebb cf
bdbe bcd
ccbc bf
cdef de
cbe cdf
beee bebee
dd bbbd
cbee eee
bdbb bdd
bdbb bef
bbef fe
abb ba
aee be
cd cebd
cbb bcbe
fd bdf
eed bbbe
ccd bebe
cbde cce
bdbb bebe
bff cbc
bfbb cbbe
bee cdf
bbe cdbe
dd cbf
debe cf
bde bfd
bebb cbce
bdd fce
cbbe bed
ae bef
bfbb cf
ba cce
bbf fbb
ced cecc
bfbb bebb
cbbf bf
ed bc
bee bcde
cdbb cd
a ceee
fd becc
bcbb beed
cfe cdee
cbce bbd
fbe fe
fd bcbc
bbee bde
bebbe bbbb
cbef bf
cbe bece
cde bfe
ff cbbe
bef bebe
dd bfe
bbdee be
ffcc bcdcbbd
bdee cee
cd eeebb
bbee eee
fed cbe
bebbe bf
beebb bebb
bdbd bdbd
bce bbbbd
ff ccf
bbbe cee
ccee cbc
cded cf
febb bcd
bcbb bcee
bff cf
becbc cc
a bcbc
fd bbcc
debc cee
bfbb cbe
fbbfbecd bbebdffbfd
ccd bdd
bbbe bed
debb bebb
cdbb bbe
bee bdf
cbf cfcc
bad ce
bee bebee
ced bdbb
cbde bbe
cecc eee
bee ccbe
cd ccbb
fd cced
cbd fbd
fbb cbbbd
bcbb bbed
bdbb cdbf
bded cee
cd cdf
bce bccc
cfe fbc
cebc bde
ceed cee
cdfe be
bcf bebe
ddd bdd
beef eee
cbbe fbc
bebd bdf
dd d</w>
bce bcde
fd cfd
ced eebc
cbee bbbe
bebd bed
cdee cde
bee bdbe
bee fce
cbb bcce
cbbe bfe
bebc eef
cbbd fe
fbe de
cbded f
cbb bcbd
fd ceee
ccee cbd
cbbbc bbbb
e bfe
ae bbbd
bedd de
cbee bfe
cfe ddd
bbbe beee
cbed cbc
bced cce
bded bbbb
ccd bcee
bdce dd
becbc ce
bed bbed
bebb cbf
ded bbbc
cbbd fee
cdbb cbe
cdfe ce
bbd beee
bdd bfe
becc bbbc
bece fe
cfd cde
ced bbcc
ccd bbf
cfe cccc
bdbe bde
bbee a
bbebb cbc
becbe ce
bbe bbef
bebc fbb
cef fe
bcbc cbc
bcde bf
bee bcbd
cbd bebd
bcf bebb
cddd dd
dddd cc
cbb bfd
bfed de
a bcce
cbebb bbe
bcebb ced
ff fcc
fe bebee
bce cbed
fd def
fd bcce
cde bcbe
bbbd bbbc
cdee cf
cbde cd
decc bf
bad bd
bbe ad
bed cbed
cdd fbc
ceebb de
bde bcbe
cbee bebb
beebb cf
e bfd
bde ded
dd bcee
bde bbbebf
cbfe cbb
e cbee
bee beebb
cd d</w>
fd fed
cde bdd
cde cfe
bcbb bcd
def bbebd
cdbe def
bebb eebc
bcbb fbe
cef eebb
cbcd fe
bcbd fee
cbe def
ccd cdd
cdbe cd
cbb bccc
bce bdf
bce bede
fbb fbd
ceeed bd
bee febb
bce cdd
bcbe cbd
bbebc eed
bdd ded
cdbb fe
fbbee cc
a bebbe
cee eebc
bbbb bfe
ccd fcc
bbbc bed
cbe febb
cbbe ff
cbee fbb
bbf bbebde
fed eed
cced bbe
cbfe de
cbb bbed
bbebb ff
bcd becee
ccd fee
cbbd cf
cbbbb cf
bcebb cbe
cd ccbc
bbd cef
ba bebe
ace a
bebb bebee
cced bf
bbbbbb de
cdeee bd
cce ceee
cbf fce
cced eee
bbe cbde
dd bebe
beee bfe
fbc a
bbe cebe
bbbb eeee
cbf bcd
cbf bbce
cbee bcd
bfcc eed
cbb ccee
cbb eeed
cbbbb bcbb
bdd bbcc
bfd bbf
bdbb bcbb
bebbd be
cbd bbce
cde bef
ccd ccee
becc bbd
ceed ded
cecc bed
cce bece
fbb ccf
cdd bbf
cef cbd
cdf a
cdf cbc
bdbd bf
fee bbd
bcce cbe
debb bcd
ba eef
ae bbbc
fed bbe
bff eee
cebd eee
cd cbed
fe bfbb
bbee bea
cebb ccee
ceed eee
bebe fbc
cfe bdd
cdd eef
fd bcee
bcd fcc
bcbc cee
bbbbbc bbbb
a bebf
cf ca
cbc ccf
cce bbcc
eed bebd
fed bbd
ff ae
ded ccf
beed ced
becee be
cf cebe
cbbd bed
ceed eecc
ccce cbe
cbcf bce
ebd dd
cf bbed
bcf ccee
ceee cbf
eeee ce
bfbe fe
cccc cee
bdf eed
ad bbe
bcce fe
bbebb fbb
cbfed bb
ba bed
ff ced
cedd de
ddbd dd
a bece
cd ccce
cbe ccf
bdd bcee
eebb dd
ced bbbd
becc bee
bcebb cbb
bfe cbee
becc bce
cdce bf
cbc fbd
eee bbcc
becc cee
cbc ccee
bef bcf
fed bed
bfbb cbd
cdbc bf
cd bdbc
bcd bdee
ceed eed
cebd cce
debc bbe
beebb a
cd bcde
fbb cbee
beee cde
cef bcf
fdee ce
cbe cdbd
ded bdd
becc fd
fbc bed
bff a
debb a
bded bee
ccbe cf
bfd bbcc
fbe bee
debd cbb
bbebc eee
bcd ccee
beee bde
cbf eef
bbbd cbfbb
bebd bbe
fee eeee
debe cbd
ba ca
cbbe fbb
cdf bde
bfbb ff
cbbee bf
cbbf dd
debc cbb
cce cece
fd bbed
bfe cebb
ba bcd
ced fed
bebf bbbb
cdde de
bebd bbf
bcbe cfd
bce ceee
cee bccc
cf cef
beee bed
bef ccf
ae cde
bfd cef
debb bdd
bfbd de
eed ff
bbbe cbd
decc dd
cbb cbbd
bce bdbb
bde ddd
bcee bbbc
ccee bdde
bdf bed
a ccf
fd cbbe
bebc eecc
cbed fe
bbce bee
bbbbbb cbc
bbbbbb bcbb
bbef bbe
cbbee dd
ed ce
bcebbee bdebbbebf
ba eeee
cebc cbbe
bff cbe
cbce cde
beed bbbd
bdee bbbe
bbebb bef
becf be
cddd ce
cbce bbf
fed bbbb
cfd cbe
cdf eee
e bdbc
bee ca
ded ded
babb a
cee cbbd
fd fbd
bfe bcee
bfd bde
bdbb ddd
bbebe dd
febc bf
bbbbbbbb cc
ba bfe
eed fbb
cbf bef
ae bbbe
bebbd cc
cbe ceee
ff fbd
bdd cdd
ccd cbee
bbf cbc
bfd ced
bdee cdbb
af de
def cbf
fef eee
bed debb
ae fee
cbce bbbb
bbce fd
cded bf
bed bbcc
bebb bcbc
cbf ccd
cbbe cbee
bdbd dd
befe ce
ccebb bf
bce cebc
cde beed
cfd cbc
cd b</w>
cbb cebb
fd ae
fd cecc
cfbb fe
bee ccbc
fce de
cbef a
ff cef
bebc fbc
bcbc cfbbbc
cced bde
fbe a
cfbb cce
bee bfee
cee ddf
cbd fcc
bece bbbe
eee ccd
becc ff
cbde cf
cced eed
eebb cbb
bbece bf
bdd eeee
bdee cce
fce bbd
becd de
ccce bf
cbd cbee
bfe ccf
bfe fcc
bbebe beee
bbdbb bf
cdcd dd
fbb bdbc
ded cdd
ed bd
a ccee
cce fbd
fd bece
beed bbbb
cf cbed
ced cebc
beed eecc
ccbc fe
cbfed f
cd cdbd
bebe ff
bebc bef
cbbee bbe
cbb bbebb
fd ca
bef eeee
cfe ccf
ae bcd
debd bbbe
cde bbed
bbbd bbe
cebc fed
debe a
cbef de
cf cbce
bebe fbe
bcbb eeee
bbbe fbb
febb fbb
becf ce
befbbe bcdbd
cee ccbb
bebb ccee
eed fbc
ded bdf
ca bbbb
bebd cbc
debb cde
bbbbbbbb be
fe bdbd
bfe bebc
def debbe
bcbe debe
debb bef
bcbb cbee
ded cbbe
cf cdf
cf ccbb
cbe bdbe
ced bcee
cbed bde
bdbc bbbb
bede dd
bbe beebb
bebe bcee
ae fbc
cbe cff
bbd bdbd
ff bccc
eed fd
bcbb fbd
ccd cef
becc bde
beeee bee
ccdee cc
cf bded
cbe ddbb
bed fce
bcd cdd
ced bdf
ccd cece
bcef de
cd cdbe
cbc cdd
ccd bfe
bebc beee
bfd bebe
bdbc bbe
bbebe bce
ceecbb bdecf
e cef
cee ccbe
cebe ced
abb bee
cecbb cc
adcecfbf eedfed
cd ca
cf cced
cbde cbb
cd cced
cf beee
cbc cbee
cce bcbe
eed bde
bad cc
dedce bbed
bebb cbee
cfe bbdf
bcf cbd
cebb cbee
fd ceed
cebc bcd
beebb fe
ddbc bbed
eee ded
bcee bbbe
bfd cbf
fed fcc
bbebc bce
cedee bd
cbe bcbd
bcbb beee
ccd ded
bfbb ced
ccde bdebbbe
cdedbb cdbf
cde bebc
bfd bbee
ccf bee
cbdee be
cbce bbee
bccecbc bebbeee
bbbdcbfbb ceffed
bcbb bebd
cdbe bbbb
ccbc cee
becd dd
cf bced
bed ae
bbbd eee
cbbbb cbe
bdedbc fffefbfbeedbebcdebbee
bbe cecc
bce ccbe
cbd ba
bdd b</w>
beed bbbe
beef dd
bfbe ccee
cd bdce
fe bcde
cebb cbf
fee bbee
fed eebb
beeedd bbbdcbfbbceffed
cbb cbbee
cf bdee
bede cce
a cef
e ddd
ded ca
ceee cde
ccbb cce
cecbb dd
fd b</w>
eed cbbd
fed bcd
cdeee cc
bed cebe
ae bde
bbed bebe
abb ad
bee cccc
cbd bcf
bdd cbf
beee bebd
bef bef
bbee bbbc
bebbe bbe
bea be
bed bcbe
fbb eebc
ddbb bfbb
bed eeee
fbb fed
cdd fbd
cece bce
fe bfee
bde bdf
cdd bbbb
cbd bcee
cfe fbd
cde bdee
beeee ce
ceeee be
cce bbed
bfe fbc
bebe bebc
cebc ccd
bbce bce
beeee bbbb
beef bbe
bebbee be
cce cdce
eee bcbb
bef bcbb
ded cbf
fbe bbbb
bcebb bce
bbebc bbbb
bebb fcc
bef bebc
cdde dd
cbb bebf
cf ddd
cf cccc
cf ceed
bcd bbcc
fee bbe
cebbfebb ceebebc
fd ba
bbef bbd
cbe cfd
ba beee
ceee cbd
bece bbee
bbebb ccd
bbbbd bbee
bfbb cd
fe cecc
cde cef
beebb cbc
cee fee
ded bebb
fce bbe
cce cbed
ccf bcee
cdee bee
debc ced
fe cfd
cce cced
bebe bdd
bcbb bcf
cebb cbbe
cebe cbf
bedee ce
cd ceed
bed def
cde ccbe
cebc bbbb
fbe bbe
debe cbc
bebbd ce
bed ca
cbd ccd
bebe bcbe
cdd bbbd
cbfe bf
dd fcc
cf bcbd
bff cee
cded cbe
bae bf
cbb def
cbb ccbe
cee bded
cf bccc
cdd bbbc
ccbb bcf
cbce bde
fe cece
fe ccce
bed cebd
ccee cef
cebc a
cebd cbc
bee bbbbd
bce cfd
bcbb ba
bbbe cbbe
bced eee
bebbce e</w>
dd fbd
cee ceee
eed bfe
eed bebe
bcbb ded
cdd bde
ee be
bbe ccbc
eed bdd
cce ccf
fd d</w>
ff cfe
bbee eeee
bebd bce
bcdee be
cee becc
cbc ccbc
fd bdbb
cebb ffcf
bbbd bbd
bbebb cbd
bbdbc fed
cbced bc
cbe cbbd
eed bebc
debb bcf
ddee bf
cece bbbb
bedbb de
cbd bdf
cde cbbe
bfd eebc
cbfe cf
bbef bbbb
bbef bcee
cd debc
cbe bccc
ccd bef
bbed bbbe
ddd fbc
e cbf
bee cecc
cee cded
cbe ceed
ded fbc
cebd bde
cdbb bee
eee fbc
fbb bbed
ceee bcbb
bebd cd
bebf dd
abb abb
cee eeee
bde bbebb
bebb bced
cfe bcee
bcf bcee
cdbf eee
eedbb dedcebbed
bbfee bd
ad cee
cbbbd bbee
bbe bcde
cf ae
cce cbce
bde cebc
bdef bbbb
bddbb cbc
beed cbed
ccbe cbc
cba de
bdbc fe
cbb bece
bce def
cde bbbd
bcbb bcbe
ded bcce
cbbd cd
debb ff
ccbe bee
cfbb bce
cce bcbc
cecd cdbe
bf ccf
bbe bdf
bcd bebd
cbbe bcf
bfee dd
a cebb
fe cdee
fd cebd
bebb fce
cfe cfe
ae bfe
cdd bfe
bfd ff
bcbc bde
beebb cd
bbebbe bee
cce cdbe
bbd cbee
bfbb bde
bbbbbbbb bbbc
cecbb be
bddee cebc
cbae bb
bdea becbb
cee fbd
cce bede
ded beed
bbbe ced
bbed cbd
cbce ff
cebe cde
cbbbb cbc
bf beee
bbbb fbd
ca bbf
becc cbd
febb cd
bdbd bbbd
cee ae
cbf fbd
ccd eef
ceee bbf
cbed fbc
bdee cde
bdf cbc
cdf fbb
cebd cbb
abb bfd
acc a
cee bcbd
bed beee
bebd fbb
bcbc a
ee dd
bf bcee
fe bece
cfe bcf
cfe cef
ca bce
bbecc eed
ddd bbbd
cbbbb bce
fe cdce
bcbb cebb
bef ced
cebc ccee
fce bbf
eee cbf
aed ce
cce beee
bef beee
bbce cd
def bcd
ddf bbd
cbe bebbe
bed bdf
bebe bcf
bcbb eef
bbbc bce
bbebb bbebd
debb bde
ccde de
cee ccbd
cbe bcde
cbd cdd
cfee de
ddd bbe
ad bbd
bfcc ff
bbbbbc bf
e becd
eee bed
cbbe cbbe
cbce bed
debb ced
debc fbb
fbbfbecdbbebdffbfd feebfee
e debe
cbb cdee
bbed bebc
bbebc bee
dddd e</w>
bcbbbeffeaefe debdbef
fe febb
cfe bed
cebc fd
ddbc eed
bebcee bd
cd bcbd
cd cdce
bbce cdcbe
cebd eed
ded bbce
bbbe fd
ccee bed
ddd bbbb
cdf cf
bff fd
fe ceee
cbb bdce
ccf bed
bded bbd
cdbb bde
e ddee
bee bbebd
cbb ccbb
cebe cbd
eebb bbe
bbbbbb eee
cbebb cf
ed be
cbe bdbb
cad bc
bcbb bbebb
cbee fbe
bebd bbbd
bdee bbbb
bbef bce
bebe fee
ca bdbf
bbbbee ce
becee ce
bfe ba
fbb bdbb
ae bed
cdd bcee
fed eee
bebf bbe
bbebe bbd
cfbc bf
bcfee bd
bfe ced
bcce cd
bdef fed
fdbb de
bee ddee
beee ff
abb cbb
cfee be
cbbed de
ceeed ce
ccdbee eedbbdedcebbed
a debb
ded bebd
ccf ccee
decc eee
fe ddf
cbd ccbd
cde fee
cbf eebc
cbee cbed
ded fbb
bbef eee
bee bdbb
cbe bdce
cbbe bebe
bbee cce
bebc ccf
ded bcf
cebe a
bde cebb
cde bbcc
ddd fd
bece bcd
bfbb cce
eeed bbbb
cbeee dd
cbebcbb bcebed
fe bbbbf
bfe bfd
cbbe bcd
cbbe bcbc
cbbe bebbe
bded bbee
bcbd bce
abf aee
ceebbbb cecbb
ccd bbbc
fbc cbb
cbbbb a
fef bbe
bbebe cee
bebbbb cc
eeebb eee
cbeebebd bcdceee
ced cdee
bbed bbbd
fbc cee
cced cbb
bbbbbbf bde
fd c</w>
ccd bebc
cae ce
cbc bcbe
cbc eeed
bde ccce
cbee ccee
ae bbee
bece cbd
cbde bce
bebf bee
cbe ccbb
cbc ddd
cce cef
fd cebe
bbce cf
cecc ced
bcef bbe
e bbbbbb
bebb becbb
bcbb eebc
bef bdd
ceed a
fef dd
ccde ddee
bbe ccbd
dd fbe
beed eed
bdbb ff
debc bebe
bded cfd
fcc bf
ccd bdee
bfd bebc
cbed bed
becc bbf
cbdee ce
cebbbb cebbffcf
beebbbfe bfeebfbcebffbbbeebceebbebfebb
a cbce
bbd cfe
fed ced
cbbee cbb
bbebe cbb
e ccf
bee ccce
bbe ca
fe bff
cce bcde
cfe cdd
ded cbce
cebe bde
eeebb bf
cce cded
beee fbe
bbee bbbe
ceee bbbd
bfbe cde
bebce be
bee bede
ccd bbbd
cebb bdd
bebd cf
cff bce
bbebd dd
cbd ccee
bbce cbe
cfd bde
cebd bce
bcebb eee
cdcc dd
bdf fbb
abb cbe
bedd dd
fe cebe
bfd bbbe
cece cbc
cd bebbe
bce bced
cde ceed
ba ae
ddf fd
cebbe bebe
bbe ceed
bde bdee
bbd bcbe
ced ccce
bebc bede
cebb cfd
ccf bbbb
ccbe cce
cddd be
fe bdce
bdd bdee
bece bed
cdf cce
cff bbbb
eee bebc
cbbe def
cbbd bebe
cbebc bf
bbe bbebe
cbc bcbd
bbd bedee
cde cdbc
fbb bcbc
bbf eed
ae ae
bbef bee
bbebc cce
cbced bd
bfdce beeeddbbbdcbfbbceffed
e bdcc
bcd bdf
ccd bbbe
cbbe fee
debb fed
bbef cf
bbdbc fbb
bddbb dd
a ccbb
a bede
bce bdbe
ced bcf
cbee cbee
cccc cbe
cbcd cd
beeee bccecbcbebbeee
ccbd bf
ced bcbb
bcee bcbb
ca cbd
e ddf
fd fce
beee fce
cdd bbee
bbed bdd
ceee bcd
beed bde
ad bee
debe fbbbbebd
bfbcddd beecce
cbce bcf
cdbbbed debecbf
fbb bebd
bcee bebd
bdbb bcd
debd bbe
cff cd
fef a
bcebc bf
cd bfee
cbb becc
cee ceed
bdd bcce
bbbe bbebb
beed cbd
bcbe bcd
bbe bdbd
cbc bdee
fd cbce
cbd ccf
cbee fbc
cebd a
ccbe bbbb
bfbc fe
bea ce
fbb cecc
cee fce
bdd bcbb
debc bce
ceebb bde
cbb cbce
fbb bccc
bcee bcbe
ae bebb
ae ff
cdee bece
cebd cbe
cdbf de
bbbb bebbe
cce bccc
bef bebb
bbf bfe
ccee cbed
ccee cdee
cef eee
ca cbe
cebc bebe
cbb ccf
fbb bebbe
bfcc bf
cbee bced
cbbd cbe
cdebb de
bef cbed
cebd ff
cded bee
beeee bbe
bdbc bbd
bede bf
cdcde ccdebdebbbe
bce cced
bde fee
bed bcbc
ccee eee
ddd ccbd
cccc eed
beeee bf
ccbc bbd
cbebb dd
ddbb cbb
cbbf cf
cdbd bbbcbd
bfbe bebb
cebb cbecc
ccee fd
cebc ff
cccc ccd
cbbf bbbb
bbbcbbe bcbd
eee bebee
bcd cebb
ced cbed
bcbb beebb
ded bbee
ccef dd
cd ad
cf ccce
bed cbce
bdd ba
bebe fce
cbee fd
cef ccf
bded bbe
bbbbd bbd
cee eef
cbd fce
bfd bcbe
cbbd fd
ceed bee
cfd bee
bcbf de
cf ccbe
ded bfe
cebe bcd
cbcbb de
cf bff
fbb bfd
eed bbbc
ccd fbd
cfe ccee
ca cee
bbbd cbb
aed bd
bde cfe
ded cecc
bcf bfe
ddd cbe
cbbd cbbd
bebbe dd
debee bbbb
cee bece
cbc bbed
cbd bcbc
fed debd
cbdd eee
dece de
e beee
bbe bdce
bce bbebb
cee cbdbc
ceee bebb
bcbe cde
debb cebb
ddbc bf
cedd dd
bce ae
bed cdee
bcd bff
bbed bfe
bdbd bbe
cde fbd
eed cdee
ccd eebc
bfd cebe
bebd cbe
bcce fd
dede bebbe
cbebebb dece
cde cdd
bcd cfe
beee fd
ccd becc
bebd cce
ad bbf
decc cedbd
cfbb cbe
cbcee bbf
ccdee ce
bde cdd
eed fee
bfd cfe
cbbd bebb
cbbd bbf
bee cbebc
cbe cfed
ceee bbce
debe bebb
cff cbd
bdebb dd
cbd cece
eed cfe
cbf ddd
ddee de
cbebb bce
becce fbebbd
cd ddf
cce ccbc
bde bbed
eee bbbbbb
bdd bbed
cbf cbbe
bcbc bebe
bfbd dd
dedd be
cbb cbed
bfd bdbb
bced bbf
cbbbb cee
fe bfbc
bed cecd
bef ba
cebc becbe
becc bfe
dece fd
cd cbcd
cee def
cf cece
cbc cebb
bbd b</w>
bbd ba
ccd bcce
becbc be
bcdbee bbcecdcbe
a bbed
cbbd fbd
bdbb bfe
bdde de
cdeee bdce
bfbdfd f</w>
bdd d</w>
ded bbbd
becc ced
ceed bbf
cbc fce
eee bfe
bfd cde
cbbee de
a bdee
bee becbb
bbe bced
fe cbcd
cf bcde
ff fed
ccd fce
bebc bcf
ae fbb
cbfe dd
cdbb cbc
cae dd
bbe cced
fe bea
bf bcbe
fd beed
cccc ccbc
bdbb ded
cbeee bbbb
fef bbd
bbebe cbe
abc bde
a bccc
cbebb cbb
dece bbf
bad be
cee cdbe
eee cbbe
ad bbbb
fbbf bf
cd cbde
cbb cdd
bde bebd
bcbb bece
bebc bcd
bff bbbb
abb fbb
bececd bedee
debcbcd bfbdfdf</w>
eed cbf
eed eebb
ded def
ccee eebb
ceee bbcc
cbcf bf
bce fed
bde bcbd
bcd becc
ced cded
ccd cbf
bef bcbc
bfd fbc
ad fe
fef cf
cbebb bee
cdce cce
a cebc
cd ddee
cbb ca
cbc def
bebb ae
cbee cef
bebc bcee
cebb bfe
ccce cce
cdef dd
fbb beed
bebe bcde
ccbe cde
ffee bd
cee beee
bebb bece
eed cecc
bbcc bbd
bcce bbe
bdbe fd
cdbe fe
eeed bf
cdce cd
dece dd
af dd
bfcc eee
bddee bd
bbe ddee
ccd fed
cef cfe
ccf bcf
bbbbbb bce
bdbc cbb
beefe ccecde
cee ccbc
bebb cfe
ced bcbe
bef cbbe
cdd fbe
cebd bbe
cbebb bed
ffee be
ba bebc
cfe cbed
cbce cbd
bfbb bebe
cf ccbc
cbe bede
cbc cece
bed ceed
cde bcbb
bcd ba
bebb fed
ced bcbd
fee bee
cbced cc
cbb cecc
beeee bbce
abc bf
aed cc
bebdee ce
fe bbef
bbd ceee
cbf bbbd
cef bdf
ca bcbb
bebd bbbe
cdcd de
ebce ddbd
bbfbbebde adcecfbfeedfed
cbc bebf
bbebbbb be
cbb bdbe
cbe cded
fd eeee
bcd cdee
bcebb bee
cbcbb bf
bcd bede
cbee bece
ccee bcf
bbed bbce
cebc cbd
bcbc bed
bbbbbbbb bbbd
bce ccbb
ba fbe
beed bbf
debd bee
febb cee
cbcbb dd
cd bfbc
cbc cbbd
bbbc cd
fee cbe
becc a
beef bee
fdee be
cad bd
bbe fed
cf cbcd
bed bccc
bdd cbbe
bebc ba
beeee bbbe
bebcf fd
fe bbebc
bbbb ced
beee bebbe
bcbb befe
ded bbbe
becc bece
cdeee ce
abe ad
cf cecc
bebb bbebb
debe bfe
e beed
cce ccbb
bfe cdcc
bebb bdee
ced bebd
bbcc bed
bae fe
ddbb cee
bbece bebe
bbd bede
ded bcbb
cdbe cbc
cdbd eee
ccebb eee
a af
ba bdf
ba babb
ced cdf
cbee bebe
ccf eebc
ddd bce
bdbb cbd
bbebb cbbbb
dd bea
cbb cebd
bdd bfd
cbf bebc
bcf bef
ccee bced
bbbd eed
cbef dd
ceebb bf
cbcf dd
ccd cdee
cbbe beee
ded bcee
cef bcd
bdf bcee
bfe ae
fbb bcbd
cebb cebb
fee fe
cbde bbd
cbcd eed
bcde bce
cbbf cee
e cfd
cdd bcd
cebb bdbe
cfee dd
dd b</w>
ced fbe
cecc bce
cbcbb cbb
ceecbbbdecf bececdbedee
cd debd
fe cebd
bebb bcce
bebb bede
ced ceed
ff ba
cdd eebb
cbce bbbc
cebc cef
fed fbc
bbebb bcd
cbcd bee
cbcee de
bbe cbbbb
cf cebb
bbd bdee
eee bbed
ccd cbbe
bcf bcf
bbbd bee
febb bce
bbbb bdf
bbbb eebc
fd cdee
bebb ded
bcbb bebbe
bebc bedd
cbce a
cbde cee
bfe fbd
ced beed
bcbb def
bfd bdd
bbebb bebbee
ccbe def
cbbed bf
cbcbb cebbfebbceebebc
ccebb eed
cdeed ce
bbd ccee
ced ccf
bebe bcce
cbee cbbe
bebc cde
becc cce
debb fbb
cfbb dd
ceebb dd
bcbb ccbe
ccd bbcc
cfd bbf
bfbb cee
beebb cbebcbbbcebed
ceebb cbc
bbe bfee
cbe bbdf
fd ccbc
bed cece
cbd cebb
bfe bcbd
bdd bced
bcbb cbf
cbee bbce
cfe fcc
ded ccd
bfd cce
debc cd
eeee eee
debe cee
ddee ccbe
becbb eebb
bbbb bcbe
bbee cde
ddd cdd
fe ddbb
bbbb bcbd
bbd fcc
fbb cebd
bebe cecbb
cfe bef
ded ceed
ae fbe
ca eebb
cded cbb
febb cbe
cdbd bf
befee ce
fbb ae
cbbe bcee
cccc fe
bdee bce
becc bebd
becbb bf
cbe becd
cbd bcce
bebb beed
ff bfbc
cce bded
bde beed
fd cbde
bece bebc
def bfe
debc bbbb
cbfe bce
cded cbbcd
cff cbc
fe befe
cf cbde
cbc bebce
cbbe cef
cbee bcbb
bdee bed
abb dd
bfbe cce
e bdeebe
cf bdce
bde cdee
cbd ae
fbb bdbe
bbed beee
ddd bef
cedee ce
cbc cebc
bfe cfe
bfe bcbc
ff bdd
ccee b</w>
bbbc cee
debc bebb
febb bcf
bbef cde
bbebe bde
cbae f
a cdee
cce cebe
bebb debb
cbbe cbf
ccf bcce
bff bee
bfdbb ddbbbfbb
cceebdde cfbbd
fe becd
debc bbd
cbcee eebb
cbe bced
cbee bcbc
bbeebea eeecee
cbc becc
ccd cfe
cbfe cecbb
decc fe
ccbd eee
beeebb eee
ccdee bd
bcd cedd
bebb cdd
ced bdee
ccf cdee
febb cf
cbbf bbd
cee ca
cf bdbe
cbc bcce
bdd becc
bebe ccee
cecc bee
cebd cd
cba bf
beebc bf
cbd bcbb
cbd cebc
cde cebc
bebb cbed
bef eed
cebd cbf
cded cd
cece cce
bebbbb ce
fecce fdf
cbb bcde
ced cced
ded fee
cef bcbc
bfbe a
cbb bff
bebb bff
ccf cbf
fed fd
bced bbee
bdbb ced
cdbe cde
cad cc
bee bdde
bbe becd
cce def
bed bede
cbbe fce
bcee bebe
beeee fee
bdeca bbdbcfed
e bdebbe
fe bebbbb
cee bcde
bebb bcf
fbb bede
ced fee
bef cbee
bebc ccd
cebb bcbc
cebe fd
decc cd
cbebb eee
cbbf bee
ddd d</w>
cdf bed
cbbbb bebe
ccce cd
beef de
abd ad
cbeebebdbcdceee bcdcbbd
fe bded
fe bdbc
bce bbef
ba cde
cbbbb bed
e bedd
bee ccde
bbd bebf
fbb ca
ced ca
cdd bbbe
ccbb fbb
cba bed
fef cbc
bedee be
becce be
cbbde cdbb
ceece cedcee
bbe cbfe
cee beed
cf bebf
cbde cde
febb cbc
cbcee bf
bbdee dd
cf def
ff fbe
bdd beee
cbbe bebd
ae cbf
bbebc dd
ddbe bed
eed bebb
cbbe bcbb
bebc fbe
ded eef
bced cbc
cbcee cbe
bfe bccc
cebb beee
bbbc bebb
cebc bdd
bdce bee
cddcbd decccedbd
cf eeed
bbed fbc
bced cbb
bdbb cde
eeebb de
ebb dd
bdecabbdbcfed ceebbbbcecbb
cce cdf
fd bff
cdd bebe
bbce bebe
bfbb ddf
beeee bbee
cbebb bebc
cee cfd
fbb cebc
ded bebe
ded bbcc
bcee cebe
bcf ae
bbbc cf
cfd fcc
bfbb bcd
cbebc dd
cbded bc
bcd bcce
cebb ba
bbebb beee
cdbb bff
beebb bce
febb cce
bbe bff
bbe bbbbbbbb
ccd bece
ded cef
cdd fce
cef cbf
cbce ccee
ddd bed
bdbb fed
cdf fe
cecc cbe
cebd bebc
bfbb bcbb
bccc eee
bdecebbe bdecdbd
cbb cebe
cbd bdbe
ba eebc
eed becc
bebe cbf
cdd fcc
ccf ae
bbbd bbbe
bebd fd
debc beee
bebbe cbb
bbebd eee
ccdee be
a becc
cce ceed
bebb ceee
ba fcc
ad cbc
cdbd fee
bbbcbbebcbd cdeeebdce
cbb cfd
bbd bcf
bbd fed
cbbd bbee
cbde fe
cebd fe
ddf cd
ccbd cee
cce bdf
fd bebf
ced e</w>
bdd cef
ccd bede
ddd cee
cbcd cee
bbbbbb bee
cff cbb
fd bdbd
cde cbed
ff bdf
cebc bcee
bdbb bcee
cfd a
bfbb fbb
ed cc
bbbbf bbbb
bde bced
beee cebe
fee fee
bdbb cef
bff cde
debd bbee
decc bee
cff cf
cbcf cbccebe
acbb eeee
cde ccf
bcd bfd
bbbc a
cbce cbf
beed ded
cbbd fbbbce
beebb bcee
cbbbc bf
bbdf de
cbd debc
cde cced
bfe cbbbd
fbc bce
bbce cce
cbde bbee
cbcd cf
ccbb ddbb
ccbe cbbd
bebee eeee
cbbf cbb
bbe bded
cd cfce
bce ccce
bde bede
eed cebc
bcbb ceee
cbbe ccee
cef bfe
bbbc ff
cecc cf
cdbb fd
cbebb fe
ceef dd
cdcdeccdebdebbbe beede
bed b</w>
bcd bfee
beee bff
bebe fbd
bcbb eecc
ccf cccc
ccbe cbee
bbbbbb a
bbfee ce
beebdecdbd bbee
cde bccc
ba ccd
ff cbee
bebc eeee
bcf bdf
bdbb def
cdbe fd
bbdf bf
cbfed ee
fbbcee bcbccfbbbc
bbe b</w>
cbd cebe
cbf fbe
bbed fbb
bdbe fbb
bdbe bcbb
bfcc fe
fdbb bf
cd dece
cbe ccde
bed beecc
bcf eef
ca fd
cbde a
cdbb ff
fe ccde
bce cbbd
ced bede
bdd bede
ccd cccc
bded cbe
bbef a
bebb bdbc
bdd bedd
beee ccbb
bfd fee
bcbc cbe
bebbe cbc
febb eed
bfbc cbb
de ccee
bed cebf
ded ba
cbde bbf
bcce cf
febb cbf
bbebd bf
bbebd bbbb
bbdbb bbe
bbecf c</w>
bed ccee
bfe bebf
cfe bbcc
bcf bebf
cdd fee
cebc bef
cece fd
ddbb a
bbeebeaeeecee bbefebed
bee ceed
cbe cbfe
ff ddd
bbf eebb
ae bebe
becc cd
cbdd bf
dede dd
bbebbbb cc
cbe ddee
ced bece
bbf bbed
ccf cbee
beed fe
fbc bbe
bcce cce
cebe cef
febb ccebc
bfe cbce
beee bdd
cbbe bbed
ded ff
bbbc cbc
ca cde
bff bde
e ceeee
cbe bdde
cbd bbed
bef cef
bbf bcd
becc bcf
bcce cbb
bcde a
cbebb cbe
beea bbf
de bdee
cbd def
ceee ccd
cbcbb eee
cbd debd
bfe bcde
ced cecd
bcbb bebbbb
bdee bcbe
bbce a
bdbb beee
cebd cee
bcebb bbe
febc cee
bbdbb cbb
bde cbf
bde bccc
cebb fed
cebb beed
cbce bbbe
cfd bbe
cecc bcd
fef fe
bbbbbbbb bbd
ccebb fe
bdebb bf
bee ddbb
bbbb eef
bbed bbcc
cccc bccc
ccbb cbee
cfbb cbb
bcbbee bd
afbb cebd
bee cded
bee bbebe
cbe befe
bef eebc
bcee fd
cebc cced
cbed cbf
bdbb bebc
bff fbb
cbcd ff
cff bbd
cbebb cee
cbef cce
bebbee ce
beebebb ffccbcdcbbd
e bdce
cbc c</w>
bcd ceed
cfd fe
bfee de
cbef bbd
beebc eee
fbb bdf
bdd cfe
eed ccd
bbf eebc
bdbe cbee
bfee bbf
ccbe bde
bbbbbbbb bbbe
bbece de
cd ddbb
cbe cecc
ccee ced
ccee ddd
bfee eee
cbebc bed
cbb ccbc
cbc cbce
fd cece
bdd bebc
cebb bcbe
bfd bcce
ccf ddd
bbbd bbee
cfd bcf
bbbbbb bed
bbebc bbd
bee becd
ced cede
bebe cbee
cbbe cbd
cebb ceee
cbed ded
bded bce
bbebe bebb
eee cbee
bebb bfd
bdee eebb
bdbe cbd
fcc fe
decc cbb
cdcc fe
bebce cd
bde cef
bcbb cef
cdd bdf
cebb bcbd
bfd bbbd
ceee bcbc
cff cce
febc dd
cbc bdf
bcbb bcce
ccd cbce
ccd bbce
cfe cbf
bbed bcf
beed eebb
abb cee
ccef bf
abc ad
cbded ce
bfebf cbfcfcc
bbe beeee
cbb b</w>
eee cef
cde bebd
cde cdee
bfe cccc
ff ccbc
bfd eebb
cbed bbbb
cfd cce
cecd dd
bdef de
ccebd cbe
e bbbbd
fd bcbd
fbb bcebc
ded fed
ccf bcd
becc bebb
cdee bbd
cfd bbd
def bde
fef bbbb
cfbc fe
ddce bbd
cebbcbecc beedee
bbe cbcd
cbc ccbb
cbd bff
cde becc
eed bbee
bfbb fd
cbbbb bde
bebee dd
ebb de
dedbb cdbf
bbe debc
cbb bbbbd
cde ddd
eed eebc
fbc cbe
becd fe
bfbe bbd
beeeef beebbbfebfeebfbcebffbbbeebceebbebfebb
a b</w>
cbb ccce
bde bece
bcd bcbe
bcbb ccbb
cfe bbbd
cbbd bbbc
bdee fbb
bbebb ba
bebf bbbe
bded bebc
cdbc cf
befe bf
bce cdbe
cbc beed
cce cebc
cbd cdee
bfe cdf
ced eecc
bbebb cbbe
cbbf cbe
cfbb fd
beebd bdd
bbbbbc cbbe
cbb fed
bebe fcc
ccee bbbd
bced cef
def eee
cebd bed
bdbe bebb
cbfe bee
decc cf
e cfe
cbd bdbb
bcd bbed
bcd becd
cbf bdd
bbbe bcbb
cbeeed bb
bbbb cbee
bcbb ccee
bcee bced
ccee ded
cbed bbf
cbbd ced
ddf cf
bcebb cee
cddd de
cfbd bf
bcbf dd
bee bff
bbbb bcf
fd beee
debb bebc
debd cbc
bebee bf
beebc eed
ceeed be
bce bebbe
bde bebbe
bed becd
bfe bebd
bef ae
ceed bbd
ddbb defe
febe ff
e fe
bce ccde
ba bcbd
bebe bdee
cdd ded
bfd bfe
bcbc cce
cbbd ff
cced bdf
cecc cee
ccce cde
cfbb bbe
cbef bbe
cecd bf
cbcf de
ddde bbebbbbebd
cbbbbbb eebc
ccdeed bef
bfdcebeeeddbbbdcbfbbceffed bdeecdbb
cbbdfbbbce ccef
cbf cebe
fed bfe
fbc bbbb
bded cce
cdbe a
beef cd
bfbe cf
ccdee dd
bebcee ce
afbbcebd dddee
cbe bdf
fbb cecbb
ded ccee
bcee ccee
bfce bf
cbebc eed
e bbebb
bbe febb
bce ceed
cbe cbde
ba bbcc
cbee cded
febc cf
af bbbb
eeef eee
bdeabecbb cbbce
cee bebf
bcee bdf
ccf ccbc
def bcbc
fce bbdbb
ddee cce
cbbbc bee
bcecc bbbb
dd bef
cf bdde
cbd bfee
ced bbeebd
bcbb cefd
bcf eebc
bbed fbd
beed bcbb
cfd eee
def bdd
bfbb bfbb
bdbe beee
bcbd eee
cdbe bde
dece bf
af fd
fecc bf
bee ad
cfe bbce
bcf bcd
ccf cbbe
cbed fee
cdf eed
debb bcbb
cebd bebe
cdbb a
ccbd bbe
dece bbd
cfbc eee
ceeee bbf
bce bdbd
cf cbbd
cf becd
cbf bcbb
cfe fbb
cebb ccf
bfd cdd
ddd bcd
cdbb bebe
debe bed
bbef bde
ebdeebe cebbbc
a ddf
bfe debc
bcf bebc
cbbbb bedce
cbeed de
fecc eed
bbbbfbbd cbbdecdbb
ba bef
bebd ddd
cccc ccce
bbce cee
beebb bcbb
becbb acc
ceeee ce
bce cece
cf ceee
cbe ccce
cbc ca
cce cecc
bebe cdee
bbed cfe
bdee bbf
becc bbbb
ccbb bebb
bdce cbb
bcdbb bf
bde fed
bbd fce
cde ddee
ff cdd
cbf def
cbf bcbe
ccd ceee
bbee fbc
bebc fbd
bcf bced
ceed bef
bdbb bced
cbbbd fee
cbd bebf
beee cbee
ae bcbc
bbebc cee
fe bedd
cbb cdf
fbb cbce
ccee a
ceed cebe
debc cbc
cdcc cd
beecc eed
cbb bfbb
bce cebe
bebb bcde
ded eebc
ad cbe
cced cfe
bbbbd eee
cbfe cbe
bfbc eed
cbef bee
ccde cce
befe dd
cbecc bf
bddf dd
a bfbb
de bdf
bed ccbb
cde bcbd
bebb becbe
cbee cbd
bef cdf
cdd eeee
ccee ccee
ccf bfe
bebd eed
debb cfe
fbe cce
debe fe
ceebb eee
cdebb dd
bde bbeebb
fd cbbd
fd bced
bfd abfe
cfd cef
bcce bbee
debd fe
fef cd
cdbc fe
bbbbbd dd
beebbbb be
ccdbeeeedbbdedcebbed fdeed
a cdf
cbd bebbe
ded cebb
cbbd bbbe
bcbe beee
cbdfd cceebddecfbbd
bcbedebe bbdbd
fbb bebf
bcee bfe
cbbbb cd
ccef cd
bbfcc bbbc
bee bae
bdd ccd
cbbe fcc
bebc cdd
ded eecc
bbbbd bbbe
bcdf de
fbbee be
bf bebee
fd bccc
bcd cebc
bbee cbf
cbce fee
ccf ccf
bded cbb
cbef bce
bfbbe fbc
cebdbebb acbbeeee
bbe ccce
fd bdce
bed d</w>
ced fbd
bdd bdbd
cbbe fbd
bdf ae
cecc bbf
fef bee
bfbc cbe
a def
cbb ceed
cf bede
fd cff
ba cdd
bebc cbf
cded cde
debe cbbd
af bbd
bee bbbbee
cf bdcc
cbc ae
fd ccbd
ccd cbbf
bebc ccee
bdf bde
cebd bbd
bfee bbee
feebb bce
cebdbebbacbbeeee cbbcbe
cbee ccf
cfe bcbb
ca bcf
ca bea
becc cbc
bbef cbb
bfbc cf
bbebe cce
ceef de
cdfe de
cecbb de
beebe bebb
bebebb cc
bcbbbe bcbbfe
bee ceee
ba bcbc
fbb bcbe
ced cece
eed bcbe
bebe bece
ded bdbb
bbbc cbe
ca bbee
bcbd bde
ceebb a
bce cecc
ff cbcd
cbbf eee
cbadbb dddde</w>
bcd cfd
cbbe bebc
ccee bfe
debb ccf
eebb a
fdbb dd
befee bd
fe ad
cbb becbc
bcd bcbc
eed eecc
cfe bece
bbee bed
bbed bef
bbce bebb
bdf cbf
ad bed
bbcc bbf
debb bebe
bded cd
bbebe cbc
cfbb a
bfce dd
cbbbd bf
bdbe cef
abb cf
abc cbbee
cbece bce
cbbfe bddeecebc
dedbf cfbc
bee beeee
cbd cbed
cef cbbbc
fbe bce
cdbc cee
bfebbcbe cdbfeee
bee cfee
cbc bede
eee bebd
bfe bfee
cbbe cebc
bcf ceee
ccf cfe
debc ff
cbeee cbb
abb fe
bfce cbb
cbebd bbd
beebccbe bbdbcfbb
cbf cbee
debe cde
cfbb bbebd
bbece bee
cbebd bf
cbfed bc
bce cdde
cbee bef
bcee bbbd
ae bebc
beebb bebe
bcde cd
abb bbe
cfbd d</w>
bcdbd bcbd
bbd def
fce bbbbfce
dece bbbb
cee cebe
cf cecd
cf cebf
bde bdbd
cde cbce
bdce cbe
bdef bf
bebbf bf
bbe cfd
cf ddee
cbe cdbb
bed bdbd
ced cebd
beee bbebb
bcf eecc
cbde fbb
debb bcee
fcc dd
cdbe ceee
bbef bfe
bdbc cf
bcebb fe
cdcc eee
bdef dd
beecce cbeeecc
cbb bebbbb
cee becbb
ccd beee
fbc eed
cced cbee
cdbe bbd
bbef bebb
bfbc bbd
bfce de
cefbe cbfbb
bcefbc cbee
cbbdfbbbceccef ddeecd
ced ccbe
bef bdf
bbbe bcd
cbbd cbd
babb bf
cbc cecc
fbb becc
bcbb bcbd
bebc bcbe
cef bebb
debc fd
cdbc bee
cedbc dd
cbb cbbbb
cee becd
eed cdebb
cfe bcbe
bbebb cebb
bbbbbb cd
bbdee de
bedbb bf
cbe beed
bdd fed
cfe cebb
bbed cebb
bced bbd
ccbb bcbb
bfbc bee
e bdebd
cce bff
ff fce
bfd bef
bebd bbee
bebd fbc
ccbb bed
bcebb cf
cfbc dd
bbece cbe
cbdbb eee
cbeeebb bf
a becd
bce ad
cce cebb
cbd becc
beee ccd
bcbb bbebbe
bebc bdd
ddd bbee
bbcc cbc
bbebb ced
bbebd bee
bbebd bbee
cdbf dd
ccecc eed
bbbbbd cbbed
bfdabfe beede
cce ba
bfe bdee
ba cba
ded cbee
bbed eebc
bcbd bbd
decc bbf
bfbc eee
cad ce
dd fce
bce bebf
bde ae
bde becd
bed ccf
cde beee
fbb fecd
ff cdf
ccee bcd
bbed bebd
bfd d</w>
ceee bdbb
beeee bbd
ddbb bbe
beef cbd
bee cbcd
bed bebbe
cebc cbee
bece ff
ccebb dd
e cbbe
cd ccbd
cbe cebe
cbe bdbd
ced eeee
bef cebd
ded beee
ae bcbe
bcf cbbe
bbbc bebe
cbce bebc
bcbc bcd
cbbd bbbd
cccc bce
bebee eee
cbef fe
bcbcbcbcbcbcbcbc bcbcbcbcbcbcbcbc
bed bdee
bebb def
ced bccc
cbbe bced
ceee cbebebbdece
bcbd bebe
debd eed
ddee cf
ceecbe cfcd
bbe cdf
ba fbc
ff becd
cebb cef
cbce bbce
bece bdd
cbfe cd
ccbe fe
bbebc cbb
cbced be
e def
bee bdbd
bee bea
bce cdce
cee bdbb
cce bdbe
cce cdbd
ba cbd
bef cced
cef bced
bbbd ddf
beed a
bbebb beebb
bfee beccefbebbd
bedd bf
beeebb fbb
cfbf cebdbebbacbbeeeecbbcbe
ced bbed
eed ae
bcce bde
cbbbd cee
a ceebc
bbe bbeebb
fd becd
cbee bdd
debb ba
cbbbb fbb
cbebb cbc
cd ccde
bce ccbc
cbd b</w>
ced eef
ff cebb
ccd bebb
ded fcc
bfd eef
cfbb eee
cdeed bc
cdfd de
e bbdbd
cbb bbebe
bbd becd
bdd bdbb
beee ccee
cbbe bbcc
cbbe fbe
bef ccee
bcee bccc
ccee ceed
bebd bef
cebc bebb
def cdd
cdf cee
bdbe ced
debd bbbb
becbb de
abc abd
bebebb be
ceeecd bfbb
a fed
bee cbebb
bed debc
ba bebee
ff bcbd
ae bece
bbed cbf
cef cdee
bcef bbbb
bedbb dd
aed be
bbebce deceee
bee befe
cbd cebf
ced debc
ccd ba
beed ff
ceed bbbb
debb cbee
febb bef
bfbe fd
ceef bbbb
bdcc bf
a bdbc
a ceecc
e bcebb
bee cebd
cbc cedd
cce bfd
cde ccce
bfe bcbe
bcd ae
beee ccf
bcbb fcc
becc fbb
becc bebc
cd febd
ba cbf
eed cef
bcee ccd
bfd bebb
cebc bcf
bcbc ff
cbed cbee
bdce bbe
bbebc bbe
bbdee cee
beecc bf
ccebd bbbbf
bee bdbc
bee cff
fe bede
beee dedd
ccee bbbc
ddd cce
cbfe bbe
bbebd bbf
cbbbc dd
bcdbb de
cd c</w>
cbb cccc
bed bdde
fbb ceed
ff bcce
beee cdd
bcbb cbbd
bebd bbbc
becc bdd
cbde bcee
cbcd fd
becd cbc
ddbb bce
bedbb cee
bedbb cbe
ccebc bf
cbded bd
cde bced
eed bbce
eed fcc
eed eef
cfe bebb
cebc bcce
ccbe bbd
bbbbbb bebe
ddbb fbb
cfee bbbd
bcebc fe
ddbcbbed debde
cf cfd
ccd bfee
bbed fbe
cbde bbbb
bbdf bce
cefee bd
e bdedd
cbb bdbc
cf bdbc
cce cbbd
bcbb bccc
beed bcd
bece fbb
bdbb bbed
bbcc cbb
bbcc bbbb
cbbbb fe
ccbc bce
beef bbd
bbece dd
dedd de
bdebc fe
bee def
bee bedd
cee bdebc
ccee bebc
bfd bbce
bbbd cbe
cebc beed
cbed bbbe
becc bebe
cdf cde
cbfe a
cbae bc
cbdbe ced
cbd cbce
cebb cdee
fee a
becc fed
ceed bde
beebd bf
cdeee be
cd bbdee
ced bcbc
bdd bcf
beee fbc
cebc cfd
ccbb ded
beebb bcd
cbebb cce
fbb cebe
bebc bcbb
ccf ddee
fed bbf
bdf cbd
bbebe fe
beef a
fecc dd
bbecc bf
cd debb
cbc cfd
bfe cbbd
ced cfd
cbbe cbbd
cfe fbe
ad bebb
bfbd bbbb
bf bebbe
cbe bebee
cbe cbef
cce bdde
bde b</w>
ded bcbe
bcee bcd
ccf bccc
ca bbce
bdee cbc
bdf cee
ad bce
cced fe
cbbbb ff
ddbc dd
dedbd bbbbf
bee b</w>
bce cbef
bde ceee
cde bece
ba cef
beee cbf
bebe bebbe
bcbb fce
cbee eebc
bbf bef
bdbb beed
bfbe bce
aee a
bad de
fdf bf
becee dd
cdbbbeddebecbf cbeee
bed decc
cfe cced
bbee cbd
bcf bcbe
bebd fce
cdee bbbc
cbeee de
cd cded
bbbb bccc
bbee cbc
cef bcee
ccf fbb
ca bbbd
cbbd a
becc ae
cecc a
cdbe bdd
bede cbb
bbebe cf
bebbbe cbbee
cee debc
bfe bced
bcd b</w>
bebb bccc
eed bef
cebb debb
ceee bfe
cfd eebc
cebd bbf
cbcd cbe
bbbbbb fe
cece bcf
cdce cbb
bcebc eee
ddcd cb</w>
bce febb
bebb ccbe
bfd fcc
bdee bde
bdee cbf
ddbb cbc
beef bbbb
cbbcc dd
bbe ceebb
cd bbbbd
bed ad
bdd cebd
cfe bdbc
cdd ced
bfd ded
fed ff
cdf beed
cebe cfe
ccbe fd
cece bbf
cbfd de
beecc eee
bcedd bcbecfd
bce cebf
cbe bdbc
fbb ccee
bcbb bdbb
bbee bbce
bbbc cbf
fed bebc
ceed cbbd
eeee eeee
bfee cbb
fce a
fdee dd
bfef bbd
cbeebebdbcdceeebcdcbbd bbebecbee
bdecabbdbcfedceebbbbcecbb eeee
bbe bcebb
dd ae
bbd cbed
bed bedd
cde cbde
bcee cbee
ddd ff
bbebb fd
cbecc eed
febccbb cbcece
fe bcef
bce bded
bebe ccd
bbee fbe
bcee cbf
cebc bebc
fed a
cff a
cfbb cbc
e ceee
bbd d</w>
bebe bdce
ded bccc
bcee cfe
cbed cbd
bbcc a
cebe cebb
ccbb bfe
febb cbd
cbbed fbd
cfbd bef
bce becd
bfe bebbe
cfe cbce
ca bbbe
cebc ceee
bebf fd
cbcd eeee
ddbb bee
bede de
cbef cee
cfbd dd
acc bf
cce ae
cde ceee
cdd ccd
cebb cfe
bbed cef
cbed a
beed bfe
debd cd
debd eee
decc cbc
ddf cbee
cfee bbcc
cbbbc eee
abc bee
cceef bbe
dddebbebbbbebd cdbbf
cbb bced
ccee eebc
cccc fd
eebb cde
debe fd
bbbbbbbb bbbbbbbbbb
cbbbbbb bbbbbb
bbedbb cbbfebddeecebc
baed bb
fe fef
cf cded
bebe ccbb
ded cecd
bcf bff
cebc bedd
fed cbd
bcce bbbe
ccbc cbb
cdce cbe
bbbbbbbbbbbbbbbb bbbbbbbbbbbbbbbb
bce bdbc
bbd ccd
debe bcd
cff cded
e bebf
cd bfbb
cd cbfe
bbd cebe
bfe ccee
fbb cccc
ced bdde
eed becbb
cfe bbbe
bbf bebb
ded bef
bcee cbed
cebb bced
ccf bece
fee cbc
bbbbd bebb
bfbc bed
bbebc bed
ceebb eed
beebdbcebd bbee
bee debd
cf ccef
bde bdce
bcd bfbf
ff beee
bcbb abb
cbbe cede
bbee cf
bebc fed
ceee becc
cbde fbc
bdbe cbbe
cdbb cce
cdbe bbed
cbbee bbbb
ddf a
bbdbc bf
beebccbebbdbcfbb cdfbce
bbe cdde
ced cbbd
ced ceeee
bbee fd
bbbd cbc
ddd cbc
cbed bebe
debc cef
bfbe cfe
cbded be
cbb becbb
bde bdbb
cde ded
ba bbce
cebb bcce
ca ff
bdbd bbbb
cfed cce
eeebb fe
bbdf dd
cbe becbb
ba fbd
ced cebe
bebe bcebb
bebc fcc
bcee cbde
bcee bdbb
cdd cddd
cebb cede
bdee fd
cdee bcde
cecc cbc
cbcd a
bfee bebb
cece bcd
bbebd cbadbbdddde</w>
cbee bbcc
cef ccce
ceed bebf
bdbe ff
febb fd
cdbe cef
cbbbc cee
bedbb eee
dddd de
bcccde bebd
bfe bbed
fbb cdf
ced def
ced decc
bcbb cfe
ae bcf
bcf cdee
cdee eebb
bff bce
bbbbbb fbb
bcebb cbc
bfbe fbb
af a
ddbc eee
bbbbbc bbd
bbbbbd cbd
cbeef bf
cee cdbd
beee bbce
bbee eebb
bcee bcbc
cdbd bbebb
cfbb cee
dece cbc
fff bf
cfce bbf
cbbbbbb cc
fe cdbc
bbbb cbf
bde cced
bebb cebc
bebb ddd
beee cbbe
bebc bcde
ccee bebd
cbce bef
ad fbb
ccbb bef
beebb cbd
ccde cee
befbd bcbc
bbe ddf
cbb bbef
bce debc
ba ddd
bdd bebd
ded bdbe
cbce cbce
cebc eeed
bfee cd
abb eee
befe cbc
fe cded
cbe ccbc
fd cebf
bfe ccbc
bcd bebbe
cbf bdbb
bcbb cbbbb
cfe fee
bbee bcd
ccee cebd
cced fee
cece bbd
dece cce
cbdbb de
bbe cbbf
cbb bdbd
bbbb becd
cf bdbd
bed bcbd
ced ceee
ccd bcbc
ccd cdce
bef cdd
cfe cebc
bcee bdd
cbed cbed
debd bbd
becbb bbd
dd bdf
cbe fed
cbe bebbd
fbb bdbd
cbf ad
cbee bcce
cfe fce
ded cebd
ceee ccbb
ca bed
debc fbbbd
bccc bdd
decc bed
cecd bbf
cbfee bd
bedbde bebbd
beebdecdbd bbe
bce cbfe
cf ddf
bde ccbe
ccd ae
bcee cef
ae bcbb
ceee fbb
bece bfe
cebd bbbe
fce cbb
bcdee de
fbbee ce
eee ccf
bcd bdbd
cbf bfd
bcf bbed
bcbe ccee
bebf bbf
cecc ded
cfee cbc
bbe cbbbe
bde ccf
cde cded
bdd cdee
bcbb bede
bef bcce
cebb bdbc
bbed bcd
bcbe cbbe
bbcc cd
bfee bee
cfbb fbb
bfbe cbc
febc eed
bbece bbbb
cedd bf
debf de
bfdbb fe
cbbdbbbb cdee
e ba
cf bdbb
eee bebf
bfe cdd
bebb cef
ca bebe
bded cef
bdbe cbce
febc fd
cbbed bee
beebc fe
febd bf
e bbebe
bee debb
bed bdbb
fbb bebee
cfe bebc
ded fbd
bcf bcbb
bcf cbee
cebb bcde
ceee fe
bebd bde
cbbd fbc
bdee cbd
bced eed
bfbe bcbbbebcbbfe
bfbbe bde
fbb bcce
ced bdce
cbee bebc
cef ccee
cef bcce
ddd fbd
bebf cbb
bff bcd
cebd cebe
beebb eed
bbbb cbbd
cbe ae
cbc bebbe
fd ccbe
eee bcce
cde bdce
bfe fce
bebb becd
ccd d</w>
cfe bede
bbebe a
cfed bf
cebf de
dedd dd
becbc de
e cdee
cf cedd
ff bcbf
beee cef
cbce bcce
bbbd cbbe
fee bbbb
bece cee
ceed cebb
cdbe bebb
bfbd eed
cdcd cd
debf dd
bfde bbbe
bbe cdbc
ced ba
beee bdf
bebc fce
bcf ced
bcf bebed
cbbd eeee
cdee bbf
fbe bde
bdbe ccee
beeee a
cbbf bce
becbb bdedbcfffefbfbeedbebcdebbee
cbbbc cbb
bdde dd
bcbbbeffeaefedebdbef fbbf
bf ae
bde cdf
bebe beebb
bcbb bdee
bcbb ceed
cfd bbbb
debd cee
bbef cee
eeed bed
eedbb de
bbe decc
cbb bede
fd bfbb
cde bcbc
bcd cbcd
ded ceee
ca fbc
bbbd bed
bebd eebb
bced fee
bbbbbb cbe
cbbee eee
ddbb f</w>
cbbf fbb
cdbc cd
bee ccbd
bde cecc
cde bdbe
ff bebc
bdd bebf
bebe cbbe
cef ddee
bdbb cbbe
bcbd bbbb
ccbe a
abb bed
af cd
cbbbc bbd
bee ddf
fe bbebb
fd ad
bcd e</w>
cfe ff
bece bebb
cdbb cde
beebb cee
bcdf bf
bed cbbf
bebb bdbe
beee fbd
ae cdce
ccee bdd
bfebb de
bbe bbbbee
bce cded
bfe becc
ced cbde
bdcc dd
bcebd bbee
cbcbc bf
bedcc eeebdee
cbb cbeee
bbd ae
bed beebd
ccee cded
cbed fbe
cdee fe
debb bfe
ccce cee
af eee
bbfde ca
febbbee bbebd
a abb
bde cecd
fd debc
bbee bebe
bbf eef
cbcd fce
bbebc debe
dece cd
cebbbbcebbffcf bbeebeaeeeceebbefebed
cbcfcbccebe debebe
bee cecd
bfe def
bebb ccbb
fbb bdee
cbf ba
ccee eed
ca bcd
ddd fcc
fbc fd
bbebb bbebb
cecc bbd
cbbbb cce
bbef cd
eeed fe
bfbc cbc
bbecc eee
bebce dd
babc a
fe cbde
bce beed
cbc ccbe
cde cdf
bebb bebebb
ba cbbe
cbf bebd
ccd eedf
bebc bebf
bbed cbee
bfd becc
cebc fbb
fee beee
cccc ced
bcce a
cbdd eeee
ccbc cf
cfbc cbdbdee
ebc dd
bfe ccbb
bcbb eeed
cfe cbbe
bebc bbdbb
cdee cbd
bcbe bcebd
bae de
beebc febde
bebbbb bbbd
ccebb cee
baee bd
ced bedd
ae ffeee
cebb cdd
bbed ded
cced cbed
bcbe bed
eebb bbefe
bccc bcd
fbd ff
cdbb bef
bcef bbd
cbbbd dd
beebe ccebc
beebbe bbbb
debce dd
bbe cded
bbe ccde
cce bebf
cce ddce
fd bded
ba bebbd
bdd bdf
cbf ceee
bebe bced
ccd cded
cebb ccbb
ccee bdf
ccf ceee
ccf cbce
cbbd bebc
bbebb bcee
eeed bbd
cdce bce
cbfd bf
ccebb ceedce
cdbfdacc abd
cbe bdef
cbc bdbb
fd bdee
ccee fe
cbde fce
cecc cbd
bebbe a
bae dd
beebb fbb
cece cbe
bbef cbd
bdce cd
cff cde
bcebb eed
febc eee
bbebbe bf
bbebbe bbe
beecc dd
bedf bedcbbd
beece bbbb
befd be
e ddbf
bbe bfce
bfe cdee
ccd def
cfe ca
bfd cbbe
fed bef
bece cde
cecc fd
cbcd bce
bebbe bbbc
cbbbb bcf
bcebb cd
cfbc cce
bbdf bbd
bbbbf eee
eed ad
bcbb ccd
cbee bcee
cbbd cbc
bdbb cfe
ad fd
bbbbd bbbd
bae a
bbebc bebc
ceebb cbb
bbbbee bebbd
fdf dd
bfde bbd
eedbd cbdfdcceebddecfbbd
bbe bfbc
bde bdcc
bed becbb
bed becbc
cbf bbcc
bebe bebf
cfe bcce
ded bebf
ccee bbbe
bbbc bef
cbbd eef
fef bce
beef bcbc
beebc cbb
cbcf eee
dddd ddd
cbbebd cebbcbeccbeedee
bbbb cbce
cbe cdbe
cbc befe
cde bff
bebe bcbc
cef cebb
cbed ced
bece bef
ceed eebb
bcbe beed
debb ded
bfbb bfe
bcbd bee
fbd fbb
cece fe
fef cbb
af bee
bbecc bee
becce dd
febe bebb
beeebb de
cedbb ceee
bed cbde
bebb cebe
ba cea
bdd bdbe
bcbb bdf
ccee bef
bebd bebe
bced bbbe
cdf bcd
bccc cbc
fbd cd
bbbbf de
ccebc fe
bfbf de
bcbbee ce
cccccccc cccccc
bf bcbc
bbe cbbee
bbe cbebb
cee bdbd
cce becc
bfe ccde
eed bced
fee bbbd
bccc cbb
dece cbb
febc fe
af fe
bebbbb bf
eeebb dd
bcfee ce
bde cbed
bcd ad
eed cebe
ccd bdbe
cebb bdbb
ccee def
ddd bbbe
ddd bff
fbc bbd
bbce cbc
cced bed
ccce cf
bfbc cee
bcef bfdbed
befbbebcdbd cbcce
bbe cccc
cce ccde
bebb debc
fbb cfd
bebe bbebd
ccd bfbb
ae fd
ccee bcbb
ccf cbd
beed bbbc
bced bbcc
def fd
bbebb ceee
bfcc dd
beeed de
bdebc eee
cddee ce
ccecbc bfed
ebdeebecebbbc bae
e debee
cce bced
fbb decbb
cebb cebc
cbce bcee
beed bfbb
ddbc cbb
cee cccc
cbbe beed
cfe cbee
fed bebbd
bccc cf
cbdf de
cce fed
eee bfee
bebb bfee
fbb ccbb
ff cccc
cbf bcbd
cfe bdee
bbce bbf
bcef bbbbbd
bebcee bded
baed ee
cce cbde
fd debb
fd ccbb
eee cbed
bfe bebce
cbbe cdee
cbee bbed
bbbe ba
ccee cced
becc bff
bced fe
bced bef
cced ded
bebf fe
debc bef
bbbbd bee
cbcee dd
befe bbee
bcdbc dedbfcfbc
bbecf bdcc
ddbebc bbedbbcbbfebddeecebc
a cbbd
e fbe
eee fcc
bfe ccbe
ccd cebe
bbbc cbd
cbed eebc
bece bcbb
bece bebd
def bdf
bebf a
bdbe cde
cdbb cbbe
cba dd
bcebb cce
bdde bf
eedee fedcbbbc
bddbc cbbebdcebbcbeccbeedee
e bddee
bbe cdbb
bbe cbeee
bbe bbebd
cee cdce
ced ccbc
ced becd
ccd bdce
bebc cebb
ded debb
bcee bbed
cdd bbce
bfd fce
ccf ddf
bdee fe
cdee cbc
bced fd
bbbbd cbb
bfbb bef
cece bee
beeee bbcc
bede bee
becbb bbbb
cbeed cf
cdde bf
beecc bbd
a cebd
bde bff
bde ccbb
eee cdd
cbf bdee
bcee cebb
fed eef
fbc cbc
eebb fe
cded cbc
ddee cbe
bcde cbb
cf debb
bfe cebe
fbb cdd
ff bcbe
cbf cfe
bfd bfd
ddd bbce
cdf bbbb
fff de
cce ccbd
bbd cdd
bdd debe
bebc bcbc
bebc bcce
bbbe cbee
fed bebb
cbed cfe
cced fce
bbebb ae
ccce cbb
bbebc fe
beebd dd
ccebc eed
bebed cc
cbdbd bccc
cee bdce
bbbb bcee
bbbb ccbc
cbc bff
bde cbde
cbf bbed
ccf bdd
fed cebb
cbed cef
bdbc bee
bebee bbbb
bbebe ccee
fbbee bf
bcdbb dd
beebe bcbb
fede bbce
cdcde cdfbd
e a
bde def
ced cbce
ced fce
ae bbcc
cfd bdd
cbeed a
bcdbf cefbd
abbbe beecbbe
ee bee
cd beebb
cf debc
cf cbfe
fbb bece
cbee ff
bbed fcc
cebc bebd
cccc bebe
bfbb cfe
cbbee cd
cdbc bce
dece bbbece
cbebc fe
fdf de
cbbbbbb ce
cd bfbd
bde ccbc
bbd bcbd
bfe ddd
cbbe ceed
ded bcbc
ca fcc
fed bbee
cebd cde
cbbbd bece
ceebc bf
beebde cbcd
bbe bebbee
cbb bedd
bbbb cde
bcd cbce
bebb cbbbb
cbbe debb
bebc bdee
ded bede
bcee bcf
cebb bbed
cebb cebe
cef ba
bdf bebe
cdf bcee
cebd fd
fbe cbc
cdbb def
debe cbbe
ddee a
ddee cbb
cbdd d</w>
cff cbe
bcebc dd
bdecabbdbcfedceebbbbcecbbeeee bbbcbbebcbdcdeeebdce
bee cebbe
cf beed
eee beeee
bdd bccc
bcbb bfbc
ccd b</w>
beed fd
becc bbee
cbde bef
bcce cee
debb bbebbd
cbebb eed
bbebc cbee
beece bbbe
fdcc cedbcd
a cdebb
e bebbe
bbf cbd
cebb bfd
bfd b</w>
ceee fee
bff bebb
bdbc eed
cdce cee
beef cbbe
bea fbe
eeebb bebb
bdebb ccf
cfcc fe
ceebd afbbcebddddee
ccfee bd
cccccccccccccccc cccccccccccccccc
cbb bfbc
bde bdbe
bcd debb
bcd cebe
bdd becd
cbf bcee
ccd cfd
ccd ccce
bbbe ceeee
bbed ff
cef ceed
ddee cbc
bfbe cefcc
bebbbe cbbebb
bde ceed
bbd cdbc
bcd eeed
cbee eecc
bebc becc
ded cbde
bbed b</w>
fbe febb
bcebb bed
eeebb bee
bbecc fe
abf abd
cee febb
bbbb bece
cbe cbebb
bbed bcce
cef cbee
cebc bebf
cced cbc
bbebb cbee
fce bee
cbbbb eed
cbeee bf
cbbf fd
ccbd a
ccbd eed
bbbbf bf
bcbbf bf
cdeed cc
bebbbee bfecdcc
bbbb bbebbe
fd cccc
cde bcde
beee becd
bebe bff
cbbe bcbf
cbbd bbce
cdbc cde
cdbd cd
ceef bf
dddd ce
bddf de
e bbbbee
cee bdbe
cce bfee
eee bcbc
cbd cdf
bcd dede
bef cebc
cfe bebbee
cbde cbc
bbcc fd
ccbe bed
bbebd eed
beef bef
cdcc bf
bbece bbee
eedbb bf
cbbbbbb be
eebbbbefe acc
fe e</w>
bbd cebc
bfe ddf
bcd ca
ced fecc
ccee beed
cef cebe
ddd cde
bdbb cebb
bbcc ced
bbcc bbbc
ccbc bee
cfbd cee
cd debe
bbbb b</w>
cbd cebd
bcd cede
bebe ad
bebc bebd
cdd bebb
fee bbbe
cbbd bcce
cccc bee
ddee ceecbb
bdbc cd
bebee bee
cbef cf
bfdbff bed
bbfccbbbc beebbe
fdcccedbcd cbcfbce
cd cbbee
cd fecc
cde bbebb
beee becde
cbf eecc
bcf ccf
bcf bcde
bebd fbe
ddd eef
becc becc
bcce bed
debc a
bccc fd
bebee bbee
bfed cf
dece cbd
cdcd eee
becbe de
bddf bbd
bbbbce cedcdd
beeba bedbdebebbd
cbe bbef
bcbb bdbe
ccd cecc
bbbc ceee
bebd bebb
fbc cbd
bced bbbb
cfd bed
bbebb cbfe
bff cff
becd eee
bebcee be
bebde bbbb
cbfee ce
bdeece fbbcbbbd
febccbbcbcece bdf
fe ccbd
cbe cece
bed cedd
bcd cecc
beee cbed
ccd ccf
cfe bccc
cdd b</w>
ca eebc
eeee bbbb
bdce bbee
af ba
aee bf
ddbc bbbb
cbbdfbbbceccefddeecd ccdeddee
cd bbbbbb
bce cbbee
ba eecc
cbbe ced
cbee cbbf
bbbe bbdbb
cdd bebc
ccf bcbc
bdbb b</w>
bcbe ff
beebb ff
bcde bdfccee
bbebd bbbd
bfef bf
bfdabfebeede ceeccde
cbe bbebb
cbf cdee
cbbe cbed
cbbe cced
bbed fee
bcbc bebd
cbfe bbd
eeee a
ccbc cbc
bfbc bbbb
cbbf bbe
fdbc bcbb
de beee
bee cede
bdd ae
bfd eecc
bece cbf
bccc ff
beebb bbed
bbebe bed
bcef cf
bfce bbe
bcebd dd
becbc bf
bfebb bf
bbe ddbb
bbbb bbdbd
bbd bcbc
bbd cecd
cbd ad
bebb bdf
fbb cebbe
bcbb becc
cbee eed
cbee cced
cbce ddce
debb cef
debbe de
bceeee bbbbbbd
bdbbbde bcdeed
cbe bfbb
fd debd
cde ccde
bcbb ae
bbed fd
fed bbbc
beed bebe
becc bbce
cbde bbbd
bcbe bfe
bff bfe
debe fbb
bbef bebe
bcde bde
bfbc bbe
cdbd cf
fdf fe
bfebb cf
bcdfbc bfbbddf
bbe bfcc
cce cdde
bed bbebb
cbd ceed
cbd bcbd
ced b</w>
bdd ceee
bcbb b</w>
cbee ccd
bbf bcf
cef ddf
bbef cbc
bbdbb eed
ddbc fe
bdcc fe
ceecc bf
cedbb cee
caed ee
cee bdde
bbbb ccd
bbd bdbb
bed cced
cdd cbf
cdd bef
cebc cbfe
ddd cbf
cfd fd
def cbbe
bcce bee
debc ffce
beebb bbebb
ccce bbee
bfbe ba
cfed cd
eedcd beee
cbcbbcebbfebbceebebc bcefe
bbebcedeceee cdedd
eee bdce
bebe befe
cbee cbbd
bbf cbbe
bbf becf
ccee ccf
bfd bcf
ca bde
bae bbbb
bcef cd
cfbc bee
ccef cde
bbebbe bbbb
baed f
e cded
bbe bdef
cee cbcd
fbb ceee
ced febc
ca ca
bbcc cee
bcce bce
bbebb bcf
dece bce
cdcd cbdd
becbe dd
fdbb cbe
cd cbebb
cbc cdf
cbc bedd
bbd bbed
bcbb bfbd
bcee bbce
cbce cdee
cbbd fce
fbc bee
fbe bebb
cfbb bee
cfbc ff
cddd eee
bcebd bf
fe bdde
cee debb
fbb ccbc
cdd eecc
ca cce
cebc cfe
cfd bbbe
cced cef
debd bebc
cbdd fbc
abb bef
ccde bce
cdcd cdbed
ccebc bee
beebccbebbdbcfbbcdfbce cefbecbfbb
bbd bfd
bbd bbbbd
bed cbcd
eee bbecd
cbd debb
cde bede
fbb ddbd
ced ccbb
beee bebf
ccee bebb
ceee bcbd
cbce fcc
cdf bcf
cdf bdee
cbbee bee
cbef cbc
cbcbb cf
befee fbe
cbe debc
fd bedd
bdd beed
cdd ba
cbbd eebc
becc cef
bced a
cced bebe
bbcc eed
bccc bbbb
bbbbbb cbd
cdbe beee
cbdd bee
abb cbc
cff bcd
cbebb cd
bede bce
fecc bfbb
ccebc eee
bbecbe febbccebc
bbeeee bd
bebcde bbf
bfdbff bedcee
cbb becd
cbb cdeee
cee cedd
cbe bcef
cde cebe
bfe cdbb
ba bcee
ded b</w>
bcf cbce
fed bde
cbebc bee
beeed cfebb
febe beee
e cccc
fe cdbb
bde bdde
fd bede
eee bdd
bebb ad
fbb bfbb
ff ccbb
bcbb bfd
cbee ca
cfe bcbc
bebc becd
ccee bcbc
ccee becbb
cebc ccf
def ccf
bfbb ccf
bcbd eed
cdbb ded
beebb bed
bfee bbe
cdbe bfe
bbebc a
bcebc eed
abc bef
fdee de
bebbf de
e ccbc
bbd bdf
cde ccbd
bebb cbde
ba fce
fbb becd
beee bcf
bbee bef
cdd cfe
bebd bbce
fed cecc
fed eebc
def ced
bbcc cf
cebd ded
cbbbb cbbe
cfee bf
ceebc eed
fece a
bce bdcc
cce beed
bed cbebb
bcbb bdbc
cbee ced
cbee fee
cbee fce
cbee ddf
bbed ae
cef ced
bebd a
ddd cced
ad eed
cdf bced
bcbd cf
bdebb bbe
cfcc bf
cbbde bbece
a cebe
bce bff
ba afe
ccee bbed
cebc bccc
cced bbee
bbcc bbbe
abb ae
cdbc eed
cfbb cd
dece fe
de bfd
cbd bfd
beee ccbc
cbf ae
cbf bcce
bebc cbbe
cebb cbbbbbbeebc
ccf ccd
bdbb debe
cbfe bbf
cdbb bebb
bae cbb
bcde bbe
bfbe cbe
bedf bf
fdfe cedd
bebbbeebfecdcc bcdbeebbcecdcbe
cbb debbe
bbd cfd
bcd bccc
ced bebf
cbbd eecc
bdee ba
cdee ccd
bced bed
bcce bbbb
bded cbc
bebbe bef
cdbc ded
cbfd bee
cfcc dd
beebbe bf
febe bbbbd
cceef bcecf
a cecc
bde bebce
cde bdbd
bcd bded
bef ccbb
ded cfd
bcf bece
fee bbf
def ccd
def cebd
bbcc cfbf
fbe cbd
dddd dddd
cdbee dd
bebcee dd
bebebb ce
bed cede
bfe bfbb
ff cbed
ff bdbd
eed bcee
cfe ccce
cebc bcbe
bcbc eeed
bcce bbd
cbbee bbd
bfed bbd
bbebc cbe
beef fe
cfbb eed
cbcbb bee
dede bbd
cdbf bf
fdee bdbe
beebe bfe
bbebbbb ce
bcbbee be
debbbc dedbb
ba cfe
bdd bcbe
eed cebd
bcf cdf
ceee fcc
cebc cebe
cbbd bde
cfd bdf
bebf bed
bded bbfcc
bbbbd bbbc
bebbe bbce
debd bdbb
bcde cbe
ddbb cce
bbebc cf
cbbf cd
cbcee cbb
dece bbe
ceebb cbe
ed cee
eeebb bbe
bfbf bf
caed bbecfbdcc
cbc bebee
eee bbebb
cde b</w>
bcd cbed
fbb def
ced ae
ccd bedd
cbce bcbe
cfd fbd
cdf bebe
bff cbd
debc ded
bcbd cee
debe bcbb
bbef bed
cfbb ff
cbcbb bbe
bbbbee bbee
cbcbc dd
cdeed bd
bbdcf eebb
bce cbeee
cce cecd
cbbe cebb
bbed eef
cbce bbcc
cdf bee
cdbd bdecebbebdecdbd
abc ba
bcdee cee
cedd cbc
bcebd eed
cbebd dd
bbfee be
ddbea bdefbbbb
e bbbbbbbb
bbe cecd
cbb cece
cf cdce
cbe bff
cce ad
bcd cecd
bebb becf
ccd ccbc
ddd eebb
cecc bbee
beebb fd
cdbe bed
cbbf a
bcef a
bfcc fd
cbcf cbc
bbdbc dd
bcdbb eee
cdbee fdbebc
cbded bed
ccdeed f</w>
eed debb
bcee eed
ae ccf
fbc cd
bbcc bbe
debc cebb
beebb bef
decc ddf
abb cd
abb bce
ddf cbb
bbebd ff
bfcc bee
bbecc bbd
cbbbd cbb
bbbbf cebe
cede bf
bbebee de
ebd fe
e bcbf
fe bbdbb
bbbb cef
cbe bcebb
fbb cecd
bcbb ccbc
bebc bfd
bbbc bde
fed bdd
cbed fd
becc ba
bece ba
bfbb bfd
cba a
cbef cbb
bcef cbb
bfbbd febd
bcd ccf
bef bebd
cfe cecc
bebc bfee
cebb bcdcdebebd
bccc cd
debd cf
bbdbd bf
fcebbdbb bbecfc</w>
bbbb cdd
cbe ca
cce cbfe
fd bcbf
bebb cfd
beee bbed
bcee fbb
ca fbd
cebc becc
ad cbf
debc cde
cae de
bbbbee bf
debf fbb
cee bbebb
fd dede
fbb bff
ced beee
ced cbcd
ff eebc
bcf ba
bced fbd
bdf bdd
bcce ddd
ccbb bebe
bae bbd
cdbc cbb
cbef cd
debbbcdedbb beebdecbcd
a bff
fe beeee
bbbb ceee
bde cdbb
cbd ccbc
cbd bebee
fbb cbbd
fbb cece
ccd bdf
ccd bdbb
ccd bff
cebc bece
cbed cebb
cbbbb ceee
cdbe bfd
ddf cbc
bcebb ccdeedbef
ceebb cf
bdef bbd
bddbb de
cdbee fd
e cbcd
bee c</w>
cee bfd
fbb bdde
ced debb
beee bcce
ded cebe
bcee eecc
ae cbbe
cdd d</w>
cccc a
bbcc bee
bbebb ddeee
bebf bbd
bbbbd bbf
cded fe
cbbbb fd
cbebb bebb
bbdbc fd
cbbebb de
bbe bcef
cbe ccbd
bfe cef
ba dea
ff beed
eed bbcc
cbf bebbe
bcbb bdce
ccf bebe
cded bbf
bcde bbee
ccde bf
cbebc cbb
bedee bcebc
e ddeee
cee cbbbd
cf cdbb
cbc decd
cbd cfd
bcd beefeccecde
bdd bdbc
cfe cebd
cebb bff
ccf bef
fed ca
ddd b</w>
cced bbf
bccc bde
bbbbbb bbebb
bbebe ba
febc bbd
beebc cee
bbebbe de
bebde ce
bcbdbc debc
cd bbebb
cd cdbc
bbbb cbbbb
cf febb
cbc bdbe
cbd becd
cbd becbb
beee bcbe
cbee bdf
cfe bebe
bebf bce
cded bce
cded eee
cbebb fd
ccef bce
ceecfe fbbfbecdbbebdffbfdfeebfee
defcce bcbdfee
a debc
fe cbbbd
cee cecc
cee bfbb
bde fecc
cbd eeed
cbbe bbebbcbb
bebc bdbd
ded bbed
bcf ccd
ceee bcee
cbce baee
bbcc bbee
cbbee cbe
cbfd bbbbbb
bfce cbe
cbfbb bf
bceccbbbb dedebebbe
bee cbdd
cbb ad
cbc b</w>
bbd beebc
bed ccbe
cbd ca
beee ca
ccd cdf
cbee cebb
ae becee
beed cebc
cdee bbed
bcbd fe
ddf fe
ceebb ccf
cfbd bbee
febe bcdbb
bddf bf
beedbd cfeed
a bdbe
e fbd
bee cbde
bbe bbdbb
cde bdf
bcd bebee
fbb ddd
bef bdee
cfe bcde
bcf bcce
cebb bdee
cebc debc
cbed bbee
cbed ceed
cbbd cce
becc ccf
bbbbd cbe
fcc fd
beeee beee
cfee cbe
beef cbc
aee bbbe
eedf cbbdbb
cdcdecdfbd beebabedbdebebbd
a ccbe
bbbb cebe
ba bdbb
cdd bbcc
cef bdd
bbbc cce
bbbd bebe
fee cf
cdee cbee
ceed bbce
cbbbb bebc
bdbc bebe
bcef eee
dece bde
cdde bced
cd bded
bbd cebb
ced bdbe
ff cecc
ff bff
cbee bded
cfe ccbb
ccee bccc
cebc cebc
cccc ded
fbe bcbb
bcde fe
cba bbee
bbebc bcd
ccbd bee
becbb dd
bedee dd
eeef bf
bcbbf de
cdfd be
bed bebcd
bcd beed
ff ded
cbbe bcbd
cef ddeecc
bbbc beee
ca bfa
bbbd fe
fee fbb
cbfe cce
febb bebb
fce fd
bbbbbb bebc
acc eed
cbded cc
adcc beeededd
cedced bbdf
a bae
bbe beebc
bcd bced
ced cdce
ff ccce
bebe bcbd
ccd bfd
ccd bcbe
cbbe bcbe
bef bbed
cfe bdf
bcee bcce
cef ceee
cef cbcd
bbbd bede
cbed bef
bfbb bcee
debd bbf
bfbd fe
cedee be
cdeef bbd
e bbebd
cd decc
cbb debb
cbe ddce
cbf cbce
ccd bccc
bcf cbfe
cdd bfd
ccee cdf
bece becc
cece cf
cbfed bd
cbfed ce
a dea
cd cbbbb
cbb beed
cbb cebbe
cce ddf
cbd bcde
cfe ddf
bbbe ccce
ccf bebb
bcbc ded
bced ded
bbebb eeebb
bebf bbee
cbcd bbce
fbd eee
cbdd eef
bfed bebb
cbbf cce
ccef cbe
cbcf bee
cedbb de
ceecbb bde
bcbedebebbdbd ceeecdbfbb
cee beebb
bbd becc
fd ccce
cde bfd
bfe bdf
eed fbe
ccd ccbe
bef bbebb
bef cdef
bbbd bde
ddd bdbb
cdee bbbb
def bebb
eebb cbc
bded eee
bebee cbb
bfbe bed
bcebc bbe
cdef bf
bee fbbee
bce cccc
bce debb
cee ad
bbbb bbebd
cbe cecd
bed bbdbbeee
ced cedd
ded becc
cbce bccc
ddd fed
fbc cce
cbcd cbb
ddbb cd
dede de
cbb e</w>
bce bebce
ced d</w>
bdd cebb
eed becd
bebe cbbde
bced cbf
cbcd fee
bccc bbd
cdbb cbee
ddf ded
beef bcebb
cfed cbe
e bcef
bbd ceed
ced cdbb
eed cbbe
beee bcbc
ccd bcbb
ccd beed
bef cbbd
ae cfe
ae becc
cebb cced
ccf eebb
cebc cece
cbbd bfe
bbce cde
debc bebc
cded bbd
decc bbee
cbbee cde
bcebc cce
eeebb cbc
bdebb cee
cbced de
cbdbb bf
decce bbebcbe
bce bcbd
bce becbb
bfe bebee
bdd bcbd
ccd c</w>
ccd bebf
ceee cdee
ccf ccbe
ca eeebe
becc ded
cebe bebb
ccbb cbbe
cbbbb bcd
ddbb cbe
fece cbc
bdece bbbb
fedee bebbcee</w>
bedbbd bbecc
e becbb
cd cbef
cf becbb
cbe bbeebd
bed bbdbc
cbce fbc
cbde bde
febb bebe
cdbd cee
bfbe bcbb
beebc bdf
cbcbb bfe
ceeee bbbb
bbbbf bbe
cfecccc cdbebe
caedbbecfbdcc ccecbcbfed
a cbed
a ccce
bbe debd
bed beebb
bed bbebe
cbd bedd
ff bbef
cbee bcde
bef bece
bbf bebe
bcee ccbd
ae fbd
cebb cecc
bfd fbd
bbbd eeee
cdee cef
